[PAD]
[UNK]
[CLS]
[SEP]
[MASK]
!
"
#
$
%
&
'
(
)
*
+
,
-
.
/
0
1
2
3
4
5
6
7
8
9
:
;
<
=
>
?
@
[
]
_
`
a
b
c
d
e
f
g
h
i
j
k
l
m
n
o
p
q
r
s
t
u
v
w
x
y
z
{
|
}
~
¦
§
®
¶
·
¸
º
½
æ
ø
†
‡
™
##o
##m
##e
##n
##t
##d
##s
##c
##i
##r
##l
##u
##g
##y
##a
##f
##q
##9
##v
##p
##1
##h
##k
##7
##4
##6
##0
##3
##2
##5
##b
##w
##8
##j
##x
##ø
##z
##½
##æ
##¸
##®
##™
th
the
##on
##er
##ti
##en
##es
##ed
##at
##in
of
##or
in
##al
##is
##tion
##nd
to
##ou
##it
##ar
##an
##ic
##ent
##ec
##as
##ing
##re
##ro
and
re
that
con
##ot
st
##ly
##le
##ation
##ce
##st
##se
##om
be
##ur
cou
pro
is
##ment
##id
su
for
wh
##ate
##ve
##ts
##il
##ri
an
as
on
##th
##ac
##pp
##ir
cour
##ion
##ol
##ess
or
##ter
not
at
##ver
19
##ut
de
court
com
##ith
by
ac
##ig
##mp
dis
it
ex
##ad
se
##ul
app
un
##ers
##ab
##ld
with
al
stat
##tin
##la
##ow
##us
##im
##ch
##ity
##tr
##end
was
##ay
this
##qu
##ting
##ud
##ted
##ff
pr
res
##ain
##ere
##ge
state
##el
##ther
##ich
comm
cons
##os
##and
ad
##eral
##am
no
sh
##ant
which
##igh
en
he
##ould
par
ch
cas
ha
##for
##ect
##tive
##ew
see
##li
are
##rom
##ence
we
##min
from
und
##ard
##tu
##vid
##aw
##uc
le
##ary
##ited
states
##able
am
under
##tic
co
ag
##pon
have
its
inter
ar
comp
##not
##ress
##te
any
##use
##lic
do
##fic
##un
##ial
##ty
##ations
law
##ated
would
##ra
##ust
dec
fo
##iss
##ision
##cl
##tions
##lo
ind
pe
has
##um
me
##ven
rec
##ak
##tric
##over
##per
such
his
united
sub
##ose
act
##gh
jud
requ
##all
imp
foot
##est
fed
footnot
there
##iti
##ance
##iz
but
##ue
qu
##ight
cla
tr
case
per
federal
##ib
footnote
sec
cong
##ous
##ure
may
##tition
##od
##act
##ill
all
##ally
##ip
emp
##ort
def
##oc
##ough
were
##titu
##ef
ass
##ory
other
ne
##ree
had
statut
distric
petition
vi
##ause
appe
##ell
reg
if
##titution
sp
##ail
rep
ab
exp
##ish
congress
##ord
197
##ition
##tain
jur
district
pres
##ens
##ission
##gu
gr
##ments
10
##ore
inc
##ans
their
##overn
##tice
govern
id
been
int
##iv
respon
##ice
bec
##duc
##vi
##als
ob
##ome
pur
op
pre
only
##erv
amend
##ach
##loy
ord
fin
jus
gen
##ub
##em
supp
sup
##ound
##ason
so
##age
##ist
constitution
leg
one
##ges
pri
can
employ
##ia
##enc
acc
claim
##ign
cont
2d
198
commission
##ies
##op
##ke
they
##so
rem
inv
disc
##ire
##clud
##fore
tri
li
##old
proc
general
government
##ents
these
reason
pol
whe
##ax
##out
##ive
new
than
##ise
##ection
because
also
whether
provid
more
##ied
20
##uth
pers
11
decision
18
##ber
coun
eff
##anc
respond
pub
##ass
##fer
ques
##ings
when
##oin
##rimin
does
cor
iss
##sel
##inion
conc
##its
##ade
bas
opinion
who
##uthor
##lain
again
mo
tax
aff
pow
196
##ility
statute
author
cer
##ates
will
##ari
ca
fir
##ine
cases
prov
13
car
di
##ific
##str
12
##ged
evid
##ork
amendment
##our
regul
order
##ider
person
##iction
argu
el
public
##oth
att
pl
those
##ors
##ey
must
rel
deter
justice
how
dep
petitioner
##ong
##ected
offic
upon
tim
appeals
sch
us
##ule
first
against
##ack
consider
##ath
over
bo
contr
##ame
cir
mar
judg
fact
purp
require
##oll
ter
man
sa
15
serv
prot
##if
determin
right
##ative
evidence
##ll
rule
##rib
proper
question
##ities
lim
requir
viol
supra
here
provision
des
##ceed
##ational
##form
could
##ake
did
##mit
##ties
##wn
should
spec
circ
##cep
##og
##fter
##enti
##me
##oun
14
##ond
courts
our
##ever
##ear
appro
pos
judgment
##ating
legis
42
add
action
ins
##vers
some
before
char
cl
defend
stand
fa
trial
##we
##ms
time
##lish
power
part
##ast
##ized
##ved
held
mat
constitutional
even
##red
40
indi
##ights
##isd
16
br
diff
made
##res
##one
##clus
rights
proceed
applic
30
##ective
tw
##cc
##ense
39
##orn
te
33
however
est
out
17
nor
199
bet
where
##ants
##ide
jurisd
41
partic
##et
find
##ile
after
##tit
##ru
50
##ite
without
##ecess
##reat
shall
corp
##ible
jurisdiction
##ag
##view
##tiv
trans
hold
equ
fac
fil
##ult
conf
interest
37
within
cle
them
den
present
##mm
43
##ful
38
own
dir
34
min
##ual
##ap
##tical
same
##und
##led
##man
reli
28
##ject
35
bri
board
36
31
respondent
46
issue
25
##ici
##ween
two
45
ref
between
use
him
44
bar
review
##ret
22
diss
##road
##tim
##erc
##ular
jury
32
##con
gu
year
47
##ern
agree
##ently
##mb
commit
195
##osed
clear
21
view
##inc
49
section
val
##ool
sc
##urr
##ablish
##ee
##ank
brief
establish
what
necess
##ees
process
##ution
194
48
includ
into
29
##ost
##istr
##ency
##ances
found
##ph
##orney
attorney
disp
ben
##ability
##irm
ro
26
school
subst
both
standard
##ought
23
24
si
clause
prac
##urn
differ
invol
##are
##gin
sy
##ical
##son
go
mon
##clusion
##art
##tif
ii
defendant
##ious
work
produc
form
ext
##enn
set
##ority
##ving
##ither
##ok
cal
##struc
thus
proced
##pect
##fe
record
plain
##ince
four
effect
authority
pay
contro
##ures
mr
express
inj
sent
crimin
particular
##ie
oper
##ase
##gr
cannot
admin
av
purpose
##ended
union
conclud
conv
pros
##gation
inde
##ute
##ness
loc
criminal
rul
cause
27
prob
substan
filed
property
off
##unc
hear
poss
make
might
since
ante
matter
str
claims
polic
ma
##miss
petitioners
individ
##atory
prec
##ural
##lev
national
##ger
##les
##hib
fail
conduc
prop
##icial
concern
##urd
well
##00
##stem
##less
judge
imm
system
ph
required
##now
##reme
laws
repres
discrimin
##hip
fur
##lative
appell
##rit
##oses
##ather
war
party
non
service
priv
indic
##ollow
alle
princ
subject
princip
lab
affirm
ra
tes
follow
##self
need
circum
show
fund
judicial
##oint
hist
##enting
##ild
##ison
certain
ed
adv
er
further
civ
basis
##ount
maj
##gan
administr
##ages
direct
##ech
enfor
then
issu
thr
har
ret
bank
pp
##mitted
benef
##ects
supreme
each
##ention
##stances
##ry
dem
provisions
inform
##ogn
##erce
##lied
accord
recogn
class
legisl
ev
through
##ices
therefore
cond
suff
parties
statutory
##ys
##temp
##ably
while
51
##uring
nat
respondents
sug
represent
interp
##ange
##ays
##ks
##aking
##ss
cri
post
##ater
sign
##iness
tit
##av
sal
##ton
limit
second
##tee
read
beli
appeal
sen
labor
commerce
ste
rece
prohib
argued
##uit
common
mean
52
bus
ver
##allen
civil
spe
bl
##eric
plan
commun
dou
##ind
memb
##tis
members
lan
compan
excep
rev
proceedings
##iven
substanti
policy
certi
remed
legislative
challen
defin
long
rather
##pri
based
specific
doc
mer
reasonable
said
counsel
##though
##crib
respect
col
conduct
exerc
activ
cost
although
pa
like
opp
about
##ward
53
cre
##anted
broad
employees
sim
##ately
poli
circumstances
allow
york
fr
application
##ests
necessary
##par
eng
protection
result
relig
ground
##ential
support
three
less
dissenting
prosec
conclusion
langu
prior
holding
language
54
title
tex
##ortion
contract
given
##acy
americ
##bid
years
enforce
occ
due
most
cf
private
business
193
##enth
now
individual
course
land
provided
##ided
abs
pass
##sequ
pla
##hing
ful
inf
cap
enter
committee
know
local
apply
majority
regulation
##arily
coll
##tained
ever
political
##tiff
import
##ization
##air
##used
circuit
itself
argument
60
requirement
decl
et
cent
plaintiff
conn
##gram
##land
##lement
##ony
carri
##struction
##itions
used
provides
city
##lig
##ouse
simp
appropri
program
revers
relief
purposes
##levant
concurr
dam
##ibility
##arge
##itiz
corpor
##state
cod
her
pat
##ilar
##ession
##mption
citiz
contin
##ference
history
ser
rail
ann
rules
provide
##tual
##ict
secur
##ten
join
deli
##tern
##ality
terms
appear
##other
adop
agency
complain
denied
regard
##eign
##oting
child
##ner
##ize
burd
fl
200
vot
##ised
violation
pun
##ident
emph
similar
##sp
free
fair
inst
suit
asser
enti
##oci
sugges
during
mere
##bt
jo
either
compe
neg
##unction
emphas
##ves
##nia
cali
califor
different
california
official
pen
interests
##ket
hearing
belie
##ator
##aining
55
avail
addition
gas
secret
##ying
##ified
persons
##omp
granted
restric
stated
decisions
##ink
obj
intended
##amp
interstate
##orts
legal
concurring
##vious
agreement
high
56
##istent
##ft
statement
##ury
associ
##hn
num
##osition
##row
ill
##til
red
##eas
57
err
reach
practice
far
anal
regulations
##ital
##vered
liti
being
##iod
period
sel
cand
##ences
##reed
suffici
ori
##ending
meaning
price
another
61
ear
dist
##ging
main
control
end
word
signific
information
interpret
relevant
black
american
candid
entit
remand
tak
applied
##day
##ral
county
organ
subs
##ons
##ived
term
##arch
rej
way
treat
assist
prev
company
##ines
secretary
##uted
##cons
lo
discrimination
death
facts
exercise
code
sever
equal
appropriate
##ood
dr
##jud
##ecting
accep
origin
substantial
sol
sit
special
exam
house
##io
58
limited
every
dismiss
great
never
##rup
##stand
warr
##mber
##ional
today
penal
65
discre
cur
educ
search
employer
simply
obs
bill
##oup
report
##orari
##uty
good
involved
certiorari
justif
hand
requirements
means
police
ibid
##ender
considered
point
##ock
proble
##of
wit
##pr
requires
according
depart
##yp
##wise
indeed
design
immun
##ections
cust
uni
administrative
concluded
writ
##ian
permit
##sh
alleged
66
63
prim
trib
vari
iii
62
70
place
established
74
punish
available
purs
least
determination
##xt
motion
exec
##uch
##endent
##try
though
valid
64
exe
relations
vir
sentence
group
000
damages
##uss
fe
med
prom
many
oblig
##erial
59
##equ
otherwise
benefits
my
religious
separ
procedure
##king
burden
call
discretion
take
bel
comple
including
election
##tun
entire
soc
mil
speech
##ley
statutes
wil
cho
examp
##hold
testim
##ination
##orted
##oss
area
finding
witness
compens
bro
entitled
contrib
exis
reversed
effective
71
##quir
services
prison
amount
##leg
consideration
rate
stud
##ope
liability
##acter
sm
##reg
assum
mod
affirmed
intern
##ix
attemp
sou
proceeding
determine
trad
##ends
lic
qual
det
construction
##law
##bit
##vel
discuss
identi
##ily
75
reasons
material
##lop
questions
indep
standards
interpretation
added
character
complaint
ordin
imposed
employment
##teenth
enforcement
testimony
##iting
resol
##ued
income
73
tre
think
conviction
citizens
artic
perform
##tives
72
mis
say
nothing
super
mc
congressional
respons
just
intent
68
##velop
recognized
full
unless
##app
employee
67
##elle
white
neither
position
ir
office
penn
test
defense
##uck
trust
very
railroad
you
emphasis
deal
corr
up
declar
sought
##read
clearly
department
##mission
taken
issues
until
arbit
##ture
##alth
significant
##ortun
##ising
give
##sw
presented
light
opportun
##cribed
notice
##tle
develop
##oid
hab
situ
activities
example
1983
incre
##ross
##omic
##ave
noted
80
192
##itor
merely
moreover
remedy
##fication
market
dissent
##ature
thir
contrary
actions
lib
crime
69
defendants
uncons
brought
lit
value
number
##tisf
important
peop
##to
econ
##val
##imin
purch
81
prof
barg
appelle
sur
##ick
arbitr
76
remain
generally
contrac
among
doctr
ge
##vile
##ces
line
77
believe
transp
people
privile
guil
life
rac
doubt
rates
fav
nature
unconstitution
##tinc
explain
inves
conditions
much
resul
turn
convic
##akes
constit
answ
litigation
##umption
decided
##licit
wr
officers
sentenc
chan
constr
duty
money
central
legislation
day
arr
adver
##enses
acts
costs
low
particip
failure
##ulation
typ
1976
##ortation
extent
##eme
reserv
ur
applicable
analys
sufficient
pursu
##sy
distinc
initi
cred
six
du
enac
she
##clusive
fif
##ined
demon
later
conte
##ferred
fourteenth
large
##ins
sess
##omm
diffic
discl
analysis
address
##raph
79
favor
##loc
amended
safe
return
adequ
satisf
final
immunity
insur
78
officer
habeas
##gn
foreign
indian
investi
mand
schools
authorized
delivered
warrant
##ield
fourth
##ilities
contemp
bey
having
natural
##by
##thers
tra
texas
exc
##ren
real
beyond
bre
##edi
unre
ess
indust
sti
solic
rejected
sing
vol
##ead
consequ
following
##au
corporation
doctrine
##mental
nar
john
sole
findings
summ
several
##tal
force
##ested
exper
scope
third
opportunity
making
obtain
proposed
below
appar
grant
3d
plac
##ension
senate
##iving
independent
##ody
pursuant
benefit
##lies
##tices
demonstr
true
education
##ipp
83
offer
appellants
award
remo
##lan
##standing
##tually
82
principle
ple
##ring
##lying
##ises
90
makes
protected
##unt
miss
##ale
limitations
possible
mill
answer
communic
funds
compensation
1972
water
racial
offense
##thod
##ble
termin
distrib
100
##van
##ters
##pay
open
appellant
inval
conven
art
exist
security
ali
conflic
depri
access
invalid
association
contain
92
challenge
##uce
bu
##own
84
wa
context
ris
beh
original
consistent
##co
words
lou
##mate
##ced
##ators
exclud
anti
error
economic
air
injury
prosecution
##ased
none
charge
prevent
personal
##ron
resid
dan
steven
related
restr
sale
##ives
determined
officials
##missible
lack
others
##umb
method
##ience
inquir
oh
properly
subsequ
unconstitutional
il
whom
85
manner
191
##utes
##ling
##viously
stri
observ
change
capital
bargaining
##ght
procedures
avoid
enc
##ina
draw
note
decide
##her
##ino
ou
exception
meas
activity
scheme
joined
##anch
whose
principles
single
children
pot
##ked
##imum
##eless
##aries
##ification
correct
##ured
treatment
adopted
##yer
fifth
actual
separate
stock
1970
bal
##rupt
1973
louis
press
except
ohio
enacted
charged
tradition
willi
chi
repe
penalty
##ister
##tified
directly
fut
back
##ning
##izing
preced
##fully
statements
##rug
date
expressly
inquiry
stevens
ordered
fam
prem
conclude
additional
recover
##pa
sales
article
guar
##itive
##bur
##ained
serious
##uses
william
harm
##itary
problem
91
la
plaintiffs
governmental
too
grand
protect
determining
identif
##way
1982
1974
susp
##osure
days
include
guarant
requiring
freed
1977
paid
approach
condition
president
accept
##ready
accordingly
phys
sell
enj
illeg
##ida
function
##osing
remanded
reven
event
proof
account
violated
yet
virgin
short
issued
various
occur
pred
##utions
##ler
absence
##iver
altern
already
legislature
acqu
factors
##ask
1981
powers
kind
instead
chief
flor
compell
limits
##ah
financ
dev
impro
punishment
month
assess
vote
1978
transportation
poin
privilege
1971
voting
resp
87
uph
custom
##ior
taxes
mich
narrow
##theless
##mpt
sour
##ateg
definition
86
injunction
ul
disch
grounds
es
primary
unlaw
health
##ensive
##judic
future
cert
refl
##ev
mor
broadc
hard
amendments
competition
legiti
trade
##tingu
##une
virginia
##tinguish
member
existing
threat
1975
ve
specifically
geor
sett
##inois
cover
##alf
illinois
finally
liber
execu
florida
designed
complete
##pir
merits
license
carrier
sentencing
insurance
country
sust
unf
render
##up
districts
bound
div
north
little
drug
loss
##ep
concerning
##aged
received
exclusive
ultim
88
collective
marsh
##ris
impose
taxpay
##asion
##omes
##lu
##itation
##atives
race
relationship
lead
##thing
asse
continu
permitted
operation
failed
##itable
##action
patent
bear
1964
bur
orders
demand
##ental
explicit
aut
wor
freedom
sure
##ove
94
immedi
guilty
curr
assistant
whol
wom
constitutionally
candidate
##cer
forth
93
quoting
likely
vac
contracts
##lier
##rip
hearings
lands
95
rest
standing
murd
instruc
consent
bankrupt
candidates
showing
agg
##oma
payment
once
down
##cy
1980
mass
nation
aid
entered
individu
june
##trust
89
##olog
judges
conspir
##eng
color
##ude
##ama
sense
enact
commissioner
reading
status
ju
seems
matters
military
risk
adequate
called
community
incons
pop
adjudic
let
pending
necessarily
practices
je
refus
##ercial
##overeign
why
oil
choice
sovereign
##selves
##erman
precise
1979
omitted
##lose
##ark
##ism
appears
deem
still
comb
##encies
put
##uf
##lvan
wrong
##lvania
deb
##izes
##lay
request
##iae
basic
curiae
unlawful
lower
self
##bert
included
190
categ
arg
took
often
##crip
administration
religion
committed
fix
iv
level
##atter
created
assign
five
above
share
pennsy
justify
pennsylvania
cross
commercial
defined
mot
1968
total
intr
situation
home
afford
dispute
1984
controvers
challenged
succ
applies
social
precl
convicted
face
reference
##ili
##tics
camp
adj
manuf
restrain
wat
funda
appellees
emb
organization
washing
reasonably
briefs
footnotes
deg
97
##unic
executive
legitimate
thought
providing
distinguish
washington
appellate
seeking
individuals
whole
##orting
##gl
procedural
cr
hos
maintain
serve
##cent
##atever
volunt
interpre
##raud
credit
##ames
medical
themselves
##gether
run
murder
consum
##ically
indict
bankruptcy
whatever
best
fel
prices
obtained
contention
##ug
marshall
##ously
quot
denial
1st
1969
96
rational
##thern
##know
earlier
faith
described
fre
##iana
invest
decree
plural
##erve
obligation
involving
charges
vii
taking
don
louisiana
name
financial
approved
##versity
asserted
owners
guid
101
hel
##ways
189
examination
subj
greater
revenue
jan
##rial
allowed
##mes
become
left
raised
alternative
actually
1967
brenn
workers
187
impact
##ace
fall
accomp
past
##utor
carry
difficult
carriers
##rison
potential
##ob
transfer
assistance
subsequent
inconsistent
success
##ulated
expend
brennan
substantially
solely
limitation
compar
corpus
controll
south
relied
presumption
refer
connection
production
bring
1985
sex
outs
##ledge
mul
receive
excess
##tification
entirely
danger
##men
degree
directed
leave
regulatory
existence
attempt
arrest
solicitor
##mits
disclosure
validity
arm
approval
phr
times
text
##ric
##go
superv
antitrust
probable
##eld
plurality
agreed
##ember
substantive
done
fees
##mer
eas
representative
reduc
concerned
##ash
##gest
expendit
engaged
##ps
exclusion
explained
##gia
##like
##aff
merger
exemption
minority
rele
##ify
conflict
manage
similarly
thom
mag
struc
der
186
##ists
suggests
joint
powell
ach
follows
99
georgia
internal
outside
remedies
conced
witnesses
##ered
##aps
sanc
unreason
distinction
##ifications
seek
##holders
liberty
international
small
close
suits
##ering
1994
senator
1966
##iety
##ned
shar
carol
considerations
percent
##ards
violate
tech
prejud
agreements
##ength
discriminatory
1986
possibility
thomas
elec
##liance
prohibition
essential
responsibility
defer
##ene
##verse
##ases
refused
connor
gri
ct
chap
histor
98
##tically
facilities
unfair
debt
ce
1965
achie
construed
companies
##eness
unlike
problems
alone
met
techn
exch
pet
strong
care
ship
latter
dismissed
##ually
particularly
##erson
brown
oc
discussion
theory
rob
intention
quite
##roduc
##cil
nav
##nel
citizen
indictment
views
##tial
max
##oura
securities
industry
ens
territ
tribe
desp
elections
##right
records
##ona
cop
1988
violations
##ha
passed
society
accused
lines
served
contained
##ened
alab
ded
carolina
alabama
bond
influ
verd
vic
103
previously
sw
attack
mcc
##olid
restrictions
organiz
element
interven
detail
former
establishment
summary
type
filing
despite
possession
forbid
west
##iding
discover
apparently
##here
ap
old
fundamental
102
uniform
fee
population
ari
##ounts
prove
create
##edy
docu
comment
fraud
illegal
manufact
##fici
investigation
constitute
ability
110
teach
##ker
##ored
norm
ariz
job
effects
file
together
enough
fully
188
ruling
extr
acknow
taxpayer
written
elect
policies
seg
##lin
exceed
factual
mary
management
belief
confession
age
elimin
##ansas
323
march
development
incor
men
last
employed
expressed
implic
book
placed
himself
programs
importance
safety
certainly
traditional
overr
125
1995
concep
principal
rela
covered
apr
supported
initial
meet
argues
temp
fire
rich
##der
inher
cfr
##sey
1987
come
deemed
contributions
producers
##ues
owner
representatives
suggest
sixth
investig
presum
imprison
unn
communications
##ane
##quist
products
command
difference
assume
aside
wel
able
conspiracy
smith
absol
concerns
controversy
##uary
##omin
practical
suggested
net
field
fal
motor
portion
asked
always
factor
persu
elig
##haps
oral
certific
unreasonable
fcc
dra
recomm
##rutin
hour
broadcas
##hood
scrutin
kenn
phrase
##ata
known
perhaps
forum
phil
columb
lik
105
justified
1963
regulate
admission
resour
january
announ
thereby
134
observed
inte
##rop
representation
few
jr
##ote
##ott
##ograph
affected
wal
voters
foc
##titive
sil
continued
env
104
occasion
exchange
employers
##aign
underlying
aw
##igu
##mon
applying
discharge
role
involve
seiz
##ole
frank
upheld
##mun
##reh
prohibited
dougl
verdict
pac
etal
cited
understanding
##ially
##most
ign
##ape
munic
integr
arbitration
disag
compliance
##bigu
litig
ordinance
months
agencies
municip
##ecided
douglas
judgments
##ordin
instruction
council
consequences
subsection
campaign
hosp
ves
payments
product
response
nl
begin
prosecutor
gre
expression
absolute
argue
gra
students
301
shown
source
absent
organizations
acting
112
physical
##duce
##ones
resolution
changes
wholly
permits
entry
major
1996
thereof
appellee
objection
accepted
##ne
401
retro
##decided
##certain
specified
pan
indians
plans
liqu
##unctions
convention
##usion
441
dri
inn
veh
nevertheless
registr
near
results
##01
negro
admitted
areas
speak
women
false
claimed
knowledge
106
##alu
qualified
jj
publish
##after
look
2000
unnecess
columbia
blackmun
reservation
##oti
1961
##lements
adjust
advoc
duties
seem
doing
affirmative
pic
attach
reached
##ota
irre
coal
##ished
evalu
107
instance
maryland
equally
occurred
enactment
constitutionality
adverse
##tili
privacy
##hnquist
##oke
strict
##ient
424
gave
vehic
rehnquist
##ading
family
enjoin
alien
##urch
refusal
drawn
##icient
##agraph
presence
impair
obligations
##oy
ban
##ster
##uff
deny
ok
rad
behalf
fish
operations
sold
negoti
fri
sus
deduc
scrutiny
##ingly
objective
consist
uns
sustained
prevail
scal
justification
april
indicated
almost
opinions
waters
goods
mind
possess
ordinary
minor
fram
##fare
392
branch
imper
##por
1989
1962
390
jer
pip
robert
equitable
jack
maximum
effort
reliance
da
stay
133
materials
##entially
##lated
reports
purchase
difficul
resources
##organ
##cra
minimum
introduc
402
##cribe
groups
##tify
affect
perman
neglig
reasoning
stew
acknowled
sherman
strike
confron
divid
estate
##isc
##ories
mee
1947
feb
points
regarding
##ration
owned
church
caused
build
reve
increase
arguments
offered
225
proposition
weight
governing
##oper
##eck
111
testified
help
##alty
parents
permissible
##igan
agents
384
subsid
custody
kennedy
esp
##yn
arising
##eful
##ateral
johnson
williams
delay
welfare
followed
occup
structure
suppress
##line
consolid
contempt
arizona
bene
tempor
eigh
##lace
reorgan
reh
measure
desir
jurisdictional
assn
1990
##isted
##int
wis
372
##riter
amic
okla
efforts
authorities
current
##ublic
##ibly
relating
plainly
investment
113
december
367
chapter
##ortionment
letter
amicus
disposition
hum
experience
distribution
##ier
109
electric
##set
james
apparent
content
raise
advertis
hous
##vey
encoura
##opard
##berg
##ries
advant
ten
envir
##ump
exemp
jeopard
##ouri
##avi
251
division
##rie
giving
##enced
compelling
463
relative
stewart
aver
agent
##com
careful
missouri
environ
corporations
1960
ut
alter
##xim
setting
democ
suggestion
offenses
kn
##den
taxation
##see
traff
##regation
criter
##aska
scalia
haven
assumption
necessity
body
##rav
surely
explicitly
##iam
convictions
136
utili
##ico
seq
elements
wee
inapp
parts
##osen
capac
propos
aband
347
##ado
##elines
multi
inclusion
##itch
errone
assets
profession
imprisonment
continue
##eep
recent
##ille
##rec
incrimin
count
mal
traffic
shipp
operating
##aded
submitted
vessel
octo
october
michigan
500
prejudice
##titutions
neut
391
##ham
sl
##titute
purchas
infring
longer
arres
advance
repeated
unw
understand
##ago
furn
##estern
abandon
##istic
amici
says
377
institution
504
refund
const
unnecessary
better
prisoner
330
implement
recovery
contribution
prohibit
instructions
pacific
anything
sufficiently
lar
using
prel
nove
chic
urging
higher
withd
november
123
youn
referred
400
performance
counter
mention
aggrav
release
##far
##arks
403
comply
crimes
expect
fear
##ex
precisely
1958
accordance
river
436
201
indicates
attrib
431
gar
##idential
incorpor
reversal
copy
abortion
501
compelled
##ery
mail
411
af
sound
corporate
116
disagree
arrange
vis
ball
prelimin
abuse
became
voluntary
quality
treated
southern
203
banks
##issipp
mississipp
incident
mississippi
dismissal
examin
cooper
315
retail
produce
preserv
requested
129
ultimate
obvious
114
373
liable
regardless
retroac
compel
115
hospital
municipal
##actions
144
object
##avis
membership
alleg
immediately
seeks
deliber
unions
mental
violates
##ana
exha
tort
paragraph
##inth
##more
transaction
##br
alloc
chicago
monop
educational
reorganization
lawful
recognize
415
##raw
prepar
##stood
394
interpreted
keep
conducted
##pective
formul
ultimately
balance
##que
##ague
page
innoc
satisfied
##erg
attorneys
##ium
judici
guilt
burdens
miti
informed
expenditures
conce
##airs
408
1991
flow
july
1959
apart
131
##atures
contends
reverse
108
##ival
needs
obsc
jersey
##bers
##erous
##asive
indicate
resulting
classification
1940
curiam
preliminary
coerc
##anced
road
functions
sum
413
breach
judiciary
rely
395
##apers
primarily
jones
185
1992
identified
##ides
equity
settled
compet
influence
420
wide
denying
gives
##roll
397
##pons
##ang
early
##tts
132
##achuse
##achusetts
##yers
minn
seizure
davis
situations
demonstrate
discussed
422
##idav
understood
improper
massachusetts
advertising
421
engage
acquir
affidav
jackson
fixed
eighth
pertin
##keting
aliens
appoin
332
declared
satisfy
coverage
##lor
barred
forfe
1948
fec
333
mid
##anting
expenses
remains
505
ninth
participation
##ford
##illing
383
hence
fairly
##cription
##iary
prescribed
339
significance
312
fla
386
405
authorize
resolve
##ault
waiver
citing
interro
unable
promul
removal
130
490
##uls
##ming
tenn
safegu
jeopardy
304
##homa
antic
next
forec
data
contrast
human
produced
##ruary
adjudication
february
gain
compare
else
infra
mem
enterpr
capacity
miller
register
punitive
withdraw
equip
dealing
double
##kins
immediate
told
iden
##ca
380
disputes
##rb
consc
1946
peti
412
adopt
jurors
addressed
includes
calc
oklahoma
1954
##come
183
437
excluded
espec
##ville
treaty
exceptions
railroads
##opp
##sement
fails
extend
concluding
##oly
responsible
supplement
list
university
rendered
contend
get
prohibits
##ruption
aug
obviously
undert
404
389
plea
416
treas
thereafter
##ores
350
tried
341
##ancy
gross
administer
finds
formal
334
428
117
##lex
log
toward
433
assumed
##unctive
implied
navig
applicant
petitions
exempt
regular
486
licens
secure
registration
million
identical
139
##be
nlrb
restriction
mess
project
length
410
##lear
increased
buck
##sych
task
120
hours
sections
##bor
amounts
range
##sofar
467
arbitrary
ownership
137
director
438
##otion
##tees
allegations
153
1952
especially
places
118
deliver
equipment
insofar
##burg
compreh
##cing
hardly
##tility
notes
affairs
cens
effectively
##aled
elev
451
griev
deputy
##isory
respective
mandatory
fit
shows
systems
ing
ark
pertinent
parole
##arm
permanent
disreg
vacated
deciding
controlling
coast
republic
achieve
unp
recognition
contains
settlement
receip
insuff
meant
richard
##anda
426
hol
previous
340
operate
flo
relation
476
sep
##10
temporary
station
##ston
permitting
365
371
debtor
319
443
declaratory
competitive
depos
1950
conference
122
458
domes
guarantee
explan
358
things
throughout
va
boy
178
##ustr
continuing
ensure
imposition
suspect
##riting
allowing
tribal
approxim
injunctive
##well
ambigu
1993
##with
160
esc
collateral
429
##orth
mont
456
497
heard
went
##off
significantly
bure
guidelines
weigh
nonetheless
historical
preclud
1957
##uries
##ommod
represented
surr
418
restraint
domestic
accommod
141
430
recip
subd
331
extended
instances
140
##erated
remarks
##uting
##ars
assertion
meeting
institutions
felony
307
erroneous
psych
transactions
unc
lawyer
assert
399
category
frequ
##making
##ont
179
acted
##essee
retain
invok
world
##ites
challenges
accur
450
remedial
sk
unan
1949
406
disability
316
criteria
appoint
bul
369
peace
adoption
##ortions
##eline
355
radio
##ams
417
green
reti
lease
granting
##emn
unit
parent
precedent
465
##lock
##arr
357
step
393
attention
##tine
viewed
462
##gating
accomplish
353
145
involves
minim
preven
385
considering
enjoy
vers
move
##iation
acquis
territory
inherent
documents
announced
instr
assuming
202
affili
exclude
your
345
manufactur
icc
reviewing
study
noting
believed
sources
362
combination
exists
184
138
san
newsp
instru
sanction
neutral
deleg
502
communist
communication
121
376
consistently
##tenance
mist
128
infer
submit
appointed
cli
435
western
335
autom
exhib
indir
479
america
##consin
deference
425
wisconsin
sched
468
epa
##amed
##ald
sort
337
buckley
inade
483
inadequ
##urb
assessment
##tible
exercised
kent
mach
depend
dischar
457
##ea
critical
336
447
emer
##ratic
truth
victim
vehicle
156
491
harlan
methods
360
travel
##work
imposs
concept
item
uses
disregard
working
willing
470
##ectives
performed
gold
indirect
342
violence
1997
customers
passage
want
##lac
##ectic
119
student
moved
461
imposes
300
mir
379
455
pi
356
plant
471
depar
##vation
##rees
mandate
half
478
##iable
reported
388
414
attend
substance
pack
reject
whenever
superior
broadcasting
citizenship
commonwe
##inson
discip
1953
proportion
bureau
489
residents
recommend
444
penalties
relying
commonwealth
419
dil
telev
442
##inding
370
487
qualifications
##asing
forfeit
analog
rou
124
unanim
colorado
excessive
hir
224
selection
located
industrial
certificate
led
pret
180
##pe
tele
extension
eligible
irrelevant
motiv
applications
fairness
wall
automa
im
##ney
150
hon
364
fp
352
##ology
##ecticut
committees
connecticut
damage
427
uphold
##ats
rein
panel
stating
focus
241
juven
carried
along
constituted
321
multip
135
409
retroactive
wish
forms
##ological
apportionment
insufficient
play
island
worth
young
discovery
maintenance
distinct
fig
establishing
benefici
stree
##gated
##aster
354
holds
imposing
494
conclusions
475
immig
differences
broadcast
average
##aker
205
167
parte
346
port
manif
440
182
ruled
equival
convinc
407
##bo
338
434
interference
limiting
##isa
base
predic
proved
343
indication
derived
democratic
english
unus
1951
##ift
firm
344
simple
##po
automob
virtually
authorizes
away
##isite
mex
##entiary
choose
normal
explanation
negligence
446
controlled
gl
##aken
complex
removed
detention
##isp
##going
enh
developed
pointed
##ivision
378
subsequently
303
rationale
introduced
ballot
guard
448
relies
151
503
subdivision
##rid
implicit
remaining
determinations
320
termination
advantage
completely
##ashion
##nings
2003
aim
351
363
485
dispar
##igent
449
168
##ett
chosen
numerous
##abl
374
fashion
mech
diversity
##pects
news
147
488
deprived
going
constitutes
##gers
uncertain
clauses
erisa
466
confirm
1934
debate
quoted
228
elector
1956
attempted
wages
152
460
preserve
secured
stop
desire
361
append
conceded
squ
events
158
disab
aware
compuls
329
474
1955
execution
ren
roy
essentially
concur
residence
estim
rests
reb
intim
328
version
loan
extra
magistr
472
prefer
##ancing
needed
##tember
kansas
mechan
poll
september
##iority
goal
fpc
ven
cable
independ
television
sta
recons
481
nonp
affirmance
cat
elected
464
452
comprehensive
describ
##lip
310
town
participate
eleventh
impossible
protecting
privileges
pati
##orial
143
emphasized
assemb
368
something
pu
prisoners
mort
circumst
incumb
recently
operated
##owa
subcom
afforded
##kets
507
375
##itime
##arian
inference
housing
pattern
bcra
469
issuance
ca2
##aging
declined
reflect
maritime
writing
subcommit
iowa
approximately
142
receiving
medic
177
ent
premises
tell
century
dispos
professional
authorizing
building
souter
207
authorization
495
shares
359
349
163
room
changed
nond
473
colle
teleph
##earing
promote
454
liquid
acquired
dangerous
resulted
149
books
burn
302
ga
157
wholes
mitigating
stage
##ding
348
445
erred
##ewise
##na
confront
causes
439
likewise
fine
resolved
lawyers
secular
482
regarded
declaration
supply
sentenced
subcommittee
urged
pregn
127
woman
maintained
examine
##isting
prohibiting
##eed
lea
##bted
appendix
##aves
##laim
minnes
competit
aggravating
defe
minnesota
##ground
126
engine
381
##wide
supports
##ableness
physici
percentage
burger
##enders
accompan
head
ow
injuries
bad
becomes
309
##ert
reconsider
juris
dept
146
began
soft
204
insp
250
211
eliminate
deportation
432
lay
extensive
acquisition
dict
convey
clark
lev
313
refuse
suspension
252
foster
northern
162
forces
edward
severe
ways
haw
##ucky
sentences
waste
grants
453
brother
august
1942
pure
181
profits
consequence
##ergy
##fere
expected
##ma
423
##eration
387
366
improve
##imbur
steel
arise
types
personnel
obtaining
presents
grow
testify
came
##where
##ics
##let
brad
named
arkansas
utility
conform
injured
459
##time
prompt
ca5
side
detailed
##times
238
subjected
cru
prospective
miranda
##ening
##eli
food
thing
regulated
agric
498
tend
administrator
##regon
155
encomp
measures
oregon
encompass
322
railway
overrul
reimbur
happ
precedents
consolidated
som
preclude
instant
##mir
##ques
ca9
148
##ze
kentucky
infringe
treasury
active
154
allen
325
seniority
adequately
210
176
bell
immigration
enterprise
sometimes
unusual
difficulty
##ety
##tise
associated
175
484
##utors
##inafter
##ners
affecting
1945
1943
merit
324
sev
hereinafter
searches
ordinarily
proposal
477
##qual
evidentiary
##ena
209
382
##withstanding
valu
alleging
designated
##roy
327
318
david
165
ee
wood
confine
dele
492
expand
tel
environmental
398
298
##hat
supporting
formula
expense
308
behavi
equivalent
rise
delaw
preference
advocacy
undermin
480
largely
correctly
294
distinguished
creates
1998
respects
furthermore
miscon
##bery
509
sanctions
1938
164
probation
deprive
corruption
drugs
##rac
takes
1941
admir
##illed
freight
306
##oted
objectives
496
##gress
tribes
##els
demonstrates
banc
aspects
strength
reserved
sect
furnish
thomp
reasonableness
326
interrogation
sens
reasoned
thompson
intell
returned
defici
feca
win
values
cul
##ife
dest
159
allows
notwithstanding
sexual
tot
396
telephone
161
availability
papers
unique
premise
##ugh
wea
marks
brand
bord
##uly
secondary
deprivation
circumstance
trials
slip
##eg
170
sue
eeoc
behavior
automobile
allegedly
indiana
convers
carrying
173
cash
interior
##ounting
seized
works
supplied
263
inadequate
533
acknowledged
##bs
267
serves
ago
506
knew
lost
assure
dur
##ii
273
206
tennessee
bi
acquit
2002
dom
message
statis
protections
em
242
somew
adher
objections
sued
caus
aspect
lien
##ifying
mad
monopoly
reduced
forced
franch
affidavit
perf
opposed
breyer
entertain
repeatedly
reaching
originally
reduce
attempts
encourage
##iff
falls
armed
wilson
lee
254
impermissible
317
identification
##gate
stip
paper
jeff
jail
arrested
1944
2001
##get
goes
1939
exclusively
sand
trustee
document
disapp
competing
highly
amp
facility
268
charles
taxable
forfeiture
confer
499
208
harris
ask
refers
271
device
demands
inev
vo
utah
expir
305
week
reporting
governments
wage
define
##ste
##oring
##ulate
consumer
##don
commod
depends
314
annual
##astate
hamp
dimin
incur
seven
rehearing
pension
311
taxpayers
##az
producer
consumers
withhold
expenditure
alaska
mark
comparable
classes
contractor
draf
02
finance
moral
energy
##sa
intrastate
cut
lie
493
747
training
##ibilities
sustain
live
253
embod
##ienti
280
assigned
entity
juvenile
ham
265
rejecting
##omy
farm
background
admiralty
283
variety
trustees
##kes
226
segregation
magistrate
regulating
232
515
memor
interim
narrowly
nonc
appearance
boundaries
sher
discretionary
##elihood
guaranteed
broader
doll
##ining
258
refusing
restrictive
extreme
harmless
bearing
juries
##iliar
appeared
reviewed
quotation
##lam
enforced
emption
pec
swe
sav
forward
##fur
motions
cler
haz
divided
check
297
categories
reflects
##utory
existed
identify
forecl
counties
likelihood
reform
229
negroes
##rew
exact
publication
1999
##emp
staff
relatively
profit
recon
remained
299
rig
center
demonstrated
zone
asserts
adjustment
bor
nearly
remove
juror
integrity
171
cra
proceeds
510
##ocation
eight
retained
##istric
construc
tests
exhaus
comes
281
expert
subpo
incrimination
##indic
bargain
technical
hud
contractual
preferred
218
governed
intend
261
certification
multiple
602
mut
717
frankfur
##adv
hy
suffered
prevailing
##nell
##the
arri
prepared
spons
consequently
pipeline
frankfurter
223
channel
carefully
231
option
somewhat
articles
foundation
direction
readily
284
tal
preventing
interfere
presumably
290
legally
critic
accorded
##enty
##udence
normally
frequently
214
surv
##ilit
eastern
train
alia
po
##uing
##iscrimin
star
struck
anticip
gun
unj
508
easily
244
pain
##ada
substitute
vindic
delaware
##room
##da
series
##tituted
timely
166
safeguards
manifest
nine
closely
##entions
concludes
compon
incomp
287
moore
king
chair
##mates
montana
analy
wife
conclusive
##esting
221
514
guarantees
##ropri
##idents
174
172
dependent
unav
accident
selected
tribun
hyp
modified
confined
##augh
inqu
sho
511
279
##vert
##ented
eligibility
##osite
240
outcome
293
creditors
convenience
beginning
hall
169
bod
234
army
contended
mine
departure
##holder
236
paul
seriously
transcrip
enforcing
274
virtu
counts
disturb
282
england
intrusion
bow
reaff
539
restricted
rh
nom
249
framers
claimant
emerg
collection
jurispr
conferred
feel
hen
oath
claiming
delivery
moot
##ariff
##hol
establishes
stra
pree
pretrial
1935
anyone
joins
voter
appealed
living
overt
copyright
advanced
prosecutions
##tific
deduction
##acts
##ken
dead
217
##rote
perce
212
navigable
extraordin
bd
leaves
272
advisory
##ael
enacting
##wh
commitment
creation
seen
##arely
promulgated
deseg
passing
enl
violating
segreg
binding
219
expans
##utable
familiar
mentioned
description
##licable
227
initially
mineral
failing
client
east
fu
recognizes
retire
aud
characterized
organized
selling
empow
funding
picketing
appointment
clay
lear
glo
tariff
##vention
overb
235
gins
237
associations
fid
defining
governor
519
seventh
##utation
##veness
roads
##field
therein
awarded
245
wrote
registered
usually
reserve
ascertain
invoked
chris
harv
elsewhere
521
assur
advised
213
banking
jurisprudence
restraints
del
trea
abrid
243
creating
considerable
hill
difficulties
resident
confidential
goals
##itations
259
recognizing
rock
electoral
262
discriminate
destroy
##gage
266
##tiveness
600
##anti
sovereignty
288
install
hands
##aper
plead
steps
receipt
257
2004
floor
unrelated
infringement
geograph
contempor
franchise
##kin
vested
impar
discharged
220
reflected
hypoth
215
traditionally
partners
292
ger
presidential
subjects
216
justices
probably
items
reaffirm
##berts
255
mother
aro
master
positions
useful
rebut
michael
##stein
charter
wrongful
surround
tail
disqual
##icious
virtue
inmates
nov
mexico
assembly
##employ
ideas
contemplated
size
advers
phase
ca7
complaints
##andum
grievance
wy
573
errors
enum
usual
lesser
characteris
##ominant
##mar
challenging
ought
##laced
innocent
rejection
manag
jose
cast
restrict
losses
inspection
label
supplemental
newspaper
##zed
threatened
mob
535
illustr
saying
robbery
evident
signed
547
##iat
nebr
mitch
246
evil
##orm
web
preceding
savings
compact
517
instructed
##orship
exercising
competent
revision
isol
milk
##inted
voluntarily
##idence
inflic
transferred
fore
notion
unanimous
##acted
solicitation
cham
decline
291
risks
##itz
bid
wash
default
nebraska
fell
involunt
reduction
na
purchased
##mond
applicants
containing
leaving
univers
submission
requests
institute
redress
bir
faced
##win
##ultural
##uits
hart
532
concedes
network
memorandum
late
##ann
admit
##titude
clari
528
222
separately
revenues
qualify
stake
##olution
552
277
liquor
ward
##tims
arrangement
miles
draft
##respon
renew
ginsburg
nos
##pass
practic
operators
teachers
certified
experi
effectu
601
taxing
applicability
##ades
club
286
twenty
opposition
289
questioning
##earch
526
retirement
513
theat
stations
detain
research
230
defines
prescribe
530
extraordinary
undue
inapplicable
dak
forbidden
cities
accru
condemn
opportunities
##enger
rico
##contr
legislatures
ca1
street
mrs
270
incorporated
weeks
purely
father
favorable
od
victims
offers
##erted
rested
display
invoke
promotion
chairman
allocation
persuasive
census
marri
##ette
arrangements
bears
offender
knowingly
fixing
vague
adult
248
vital
namely
285
supervision
emergency
disclose
assignment
inad
##usive
classifications
523
##wood
key
names
295
guidance
dakota
541
joseph
##under
cum
##lem
##aylor
citation
clayton
##rist
meaningful
resort
accounting
##duct
##weigh
waived
conflicting
utilities
##ounted
##phy
lawsuit
relev
##ception
520
occurr
modern
##enity
296
522
1937
dealt
veter
seat
nations
##orne
##ship
##itan
flex
physician
##eff
contractors
slight
contentions
protects
customs
silence
modification
liter
correspon
##ommunic
264
behind
represents
misconduct
233
responsibilities
door
sul
literal
##gment
whereas
narco
cruel
telec
##shire
assessed
aggreg
##uli
##ulative
martin
properties
eth
taylor
alco
location
gener
276
hus
proj
asserting
beliefs
serving
260
confrontation
portions
256
534
franc
griff
confinement
chose
interview
reapp
##uction
extends
territorial
bonds
college
##macy
##rep
published
ford
prima
broadly
passenger
unlikely
suppression
lew
terminal
saw
licensing
##band
custod
intentional
gro
cruc
##roit
upholding
park
##eping
##ush
##orter
##lips
##atz
deterr
describing
void
##iel
##vol
275
706
enable
markets
dealers
obscene
cam
redistric
hope
determines
innocence
truc
roberts
coh
presumed
incurred
novel
schedul
increases
misd
ambiguous
george
intervention
truck
arose
239
card
provis
hiring
hampshire
forbids
##advant
entr
1933
empted
idea
##house
ange
512
inmate
highest
subpoena
arguing
advice
entities
separation
hal
martial
capable
collect
supervis
disadvant
278
mining
542
pray
media
soon
##ull
md
##ume
examined
instrument
characteristics
knowing
precluded
544
##ifies
inappropri
pric
liberties
##ictions
detroit
successful
##ta
##onic
nev
fru
##ivers
madison
##iser
acceptance
subsidiary
unequ
partial
contra
commenced
terminate
merch
exhaust
##entive
closed
implication
##itt
wright
##ov
545
struct
exhaustion
robinson
endor
531
litigants
decis
disputed
247
bills
##aho
527
reads
##ream
interpreting
beneficiaries
defeat
seller
unam
shap
cement
lot
516
sets
speaking
543
alcohol
gil
raising
transcript
equality
model
##ds
arises
contrad
identity
vacate
attempting
enjoined
interested
herein
competitors
phot
environment
perfect
##tile
processes
##abil
revised
released
unavail
try
escape
##de
surve
lacked
foregoing
ke
los
adams
cogn
devices
relevance
##oming
requisite
promise
anderson
##elly
heavi
hund
regional
##gg
nonm
fraudul
implementation
crucial
boyc
protest
operator
jefferson
##port
pal
spending
husband
insist
facilit
awards
exclusionary
enab
facie
##abor
##lif
modify
##itude
hundred
commissioners
metrop
jobs
coordin
perpe
possibly
518
blo
operates
republican
arguably
524
metropol
offices
vary
##readth
motivated
lake
wire
believes
relie
famil
overruled
mandated
651
2005
belong
omission
ineff
certificates
confessions
##shore
surpr
proviso
##att
telecommunic
wol
fulf
chance
##ression
expectation
unambigu
##eth
pregnancy
christi
##uliar
francis
core
shareholders
metropolitan
crim
pressure
##icion
ones
outweigh
licenses
suspicion
peculiar
##eny
questioned
##illa
terminated
measured
manufacturers
##ese
collected
recommended
inappropriate
telecommunications
venue
leading
269
efficient
touch
turned
holmes
##volous
producing
industries
##oph
clar
reveal
session
##uct
claimants
reimbursement
transit
construing
striking
546
accounts
purchasers
prere
mom
disappro
##itably
discussing
thres
doub
attributable
examiner
sun
compulsory
completed
##anor
plus
mitchell
link
pere
##lines
##alle
##inger
maintaining
purchaser
vice
categor
patents
repeal
tool
525
combined
felt
attached
vast
entering
earnings
703
invalidated
manufacturer
undou
roe
cease
##ba
turns
reconsideration
##lementing
straight
listed
##rick
debates
construe
harass
563
deliberate
undoubted
math
selective
desegregation
##ients
##ano
stress
threshold
describe
examples
embodied
progress
destr
clean
phillips
gather
hun
ends
excluding
targe
##aneous
##dc
postal
1936
enhance
abstr
misdeme
plaus
sheriff
ash
##ime
replace
incentive
reveals
##ander
disabled
##tivity
mcf
automatically
gam
immunities
incumbent
involuntary
writs
laid
indirectly
fiduc
barri
indigent
write
ey
reality
pursue
hawa
protective
votes
processing
warrants
psychiat
families
##stone
allege
legislators
##aid
permission
presump
vessels
chem
presently
levels
tradem
districting
##key
indicating
answered
suffer
stopp
##ework
spent
periods
##mont
block
ho
conting
idaho
respecting
observation
ber
##head
##eller
##zing
thor
conserv
constitu
536
rhod
##anta
enforceable
safeguard
##question
vehicles
prerequ
529
calls
bail
approve
alternatives
participating
angeles
assault
pricing
##rete
sac
drawing
discipline
cig
executed
548
reserves
larger
##livan
marketing
discovered
balancing
##point
ca3
allowance
shortly
sullivan
##ompe
racially
thereto
kep
unquestion
neigh
##emy
##roc
communities
doct
acquire
aimed
tob
priority
##olds
fle
unconstitutionally
mac
preclear
555
564
surrounding
##ians
units
##ucker
jour
answers
disparate
discoura
##bling
coercion
##oks
##repres
devi
##lantic
shif
genu
nondiscrimin
sea
respectfully
currently
abandoned
uncon
plants
conscious
story
holdings
tenth
yield
ft
rank
##table
around
549
desirable
wid
features
treaties
narcotics
stan
moment
restraining
ignore
totally
unduly
adopting
evaluation
clerk
##vin
differently
exemptions
machin
proving
prohibitions
cogniz
heavily
possessed
kill
occurs
##ny
comprom
implementing
valley
##riety
assurance
routine
interfer
admissible
engineers
ca8
obscenity
programming
strongly
2254
hew
subcontr
##ynolds
confirmed
ray
toler
##ompetitive
stor
##ulf
firearm
partnership
worked
551
lyn
rap
quanti
contempl
ment
586
rand
##each
##acco
purported
frivolous
honor
paying
jurisdictions
guide
potentially
##minent
domain
concrete
fer
conflicts
segregated
prevented
redistricting
boston
negative
suggesting
citations
lies
automatic
rape
##ki
##iles
mortgage
fraudulent
##cel
qualification
wholesale
1920
premium
licensee
exped
engaging
performing
deposit
raises
mills
anc
lawfully
monopol
ta
wanted
finality
imag
van
tender
reed
frustr
pool
diction
bars
stockholders
uncertainty
independently
reop
suc
consult
overall
insure
maine
575
studies
##upp
incon
560
mutual
##ffer
allegation
accommodation
pages
silent
interloc
quar
cigar
yes
liquidation
atlantic
negotiations
stands
contribute
agricultural
licensed
katz
##iro
2006
ignores
unwilling
receipts
unb
allot
extending
economy
creditor
genuine
testing
mur
stone
break
comparison
##west
predecess
ny
ca6
film
eliminated
reynolds
##adel
embrac
rog
unemploy
homes
##rof
officeholders
intellig
deep
##osis
margin
framework
store
occasions
00
568
nomin
impairment
tobacco
toll
americans
557
analogous
houses
617
confusion
across
seam
554
referring
##ectiveness
basin
recipient
twice
calculated
save
##reciation
movement
schedule
figure
outset
essence
701
griffin
propriety
##cher
directors
bringing
cars
hend
538
utter
impeach
loy
ware
instituted
hypothe
confronted
administered
rulings
608
1866
rout
537
##cess
acad
invasion
uniformity
kept
606
acceptable
recommendation
classified
institutional
584
daily
clin
succeed
bay
appra
disclosed
patient
libel
03
fores
steph
540
factf
achieved
distinctions
poor
receives
cro
transmission
sectarian
closing
pipe
acquittal
site
reply
##ivoc
##lamation
table
##pped
suspended
mus
codified
tucker
abstract
relate
##rating
indemn
proceeded
advantages
accurate
levy
##acp
comments
federally
610
handic
fishing
situated
kinds
routes
figures
emotion
##vive
magn
globe
##rect
##encing
683
warrantless
avoiding
clarif
remote
charging
intervene
chev
punished
persuaded
team
typical
inevitably
tribunal
undoubtedly
##olic
naacp
incorrect
convincing
##tifying
##urs
trig
##tz
##umin
cox
elabor
665
lacks
##ults
numbers
mari
condem
night
anim
dual
##ero
##iling
contest
05
725
involvement
shaw
attain
track
component
##fers
##acture
##ched
surveill
bed
quo
effici
increasing
branches
fiduciary
fisc
633
volume
affidavits
mf
582
##dle
hire
##adelph
##ko
supervisory
philadelph
compensatory
indef
924
mix
ran
tor
whit
top
probability
initiated
exceeded
##troll
continental
manufacture
cab
philadelphia
##atement
609
select
pleas
god
paralle
references
dictionary
##edent
shield
desired
shop
##ourse
flag
hot
chec
barn
manufacturing
adversely
ample
editor
ix
jap
pt
apportion
motive
stamp
##rey
patients
##eded
ca4
1932
##craft
enumerated
ba
showed
rip
570
misle
dispositive
800
induce
##terson
representing
##avy
589
scott
japan
burgl
indisp
projects
pit
concent
conducting
624
kir
picture
divor
coup
##amount
facto
eventually
abandonment
605
disciplin
impartial
businesses
hawaii
shel
wheat
judicially
explaining
hor
wind
founded
revealed
apartment
##iated
longshore
pleading
birth
feas
supposed
##tisan
rosen
urge
recipients
##sell
565
ala
veterans
undisp
##actory
616
ferc
##rel
vig
offensive
621
shippers
regime
ambiguity
pick
controls
##onet
##lands
distributed
retard
squarely
electr
heavy
grad
553
historic
561
teaching
fort
trou
assumes
evaluate
tailored
adversary
effectiveness
mistaken
channels
misc
##face
##ede
618
chevron
##inite
##tress
focused
reaches
accepting
cohen
wild
##do
unfor
supers
hop
643
edwards
613
treating
broadcasters
surveillance
undisputed
bon
##fo
577
mentally
hypothetical
##ilton
612
mcdon
relationships
disagreement
surrender
endors
##ews
fundament
coastal
1927
litigant
reck
##acting
piec
reaffirmed
photograph
##ez
abst
directing
transport
beneficiary
implicitly
pont
exposure
willful
survive
customer
driver
incidental
hugh
##no
##owed
spir
lewis
neighbor
reapportionment
##teen
schem
boards
dollars
resale
556
profess
aggregate
##och
##gun
immune
libr
571
blacks
correction
bat
contex
fisher
overcome
sharp
improperly
##onial
ide
vermont
purchases
658
furnished
weapon
evans
656
stem
leases
##ousand
reliable
running
thousand
##uccess
highway
financing
got
avo
admissions
incriminating
misdemeanor
refr
seizures
preserving
##onetary
unsuccess
trademark
nevada
##uper
alto
742
sd
##astic
denies
favored
delegated
##ots
heart
585
exactly
hudson
##soever
opposite
702
petro
shift
632
someone
inherently
##place
spouse
562
avoided
hereby
nlra
newspapers
christ
undertaken
##ky
league
federalism
whereby
commodities
fet
lod
##anger
spend
##missibly
559
strikes
civilian
entitlement
##ivable
entail
german
668
strictly
##iter
enroll
##mination
affects
democr
prerequisite
bud
parker
abol
discern
nondiscriminatory
negl
574
581
fiscal
nonres
833
logic
##abilitation
lose
sam
##iaries
##mpted
contents
commissions
marked
declare
rehabilitation
dilution
defenses
symb
participants
compared
##say
warranted
##worth
settle
rede
hay
##tered
altogether
warning
monetary
indicted
blood
bag
male
commence
##ills
os
unex
576
turner
statistics
whatsoever
boundary
##rieved
parallel
gulf
tac
moving
convinced
leon
gerry
presentation
implicated
preservation
##ariness
##arcer
really
##verted
imply
##ram
##iders
reluct
##ficial
567
precludes
rent
disse
terry
absolutely
murphy
fem
prevents
622
hereafter
disprop
unemployment
inspect
trading
minimal
emotional
perv
approving
unequivoc
inequ
593
affirming
issuing
solution
warren
disciplinary
estopp
waive
01
revocation
estimated
unjust
undermine
henry
print
decrees
technology
deliberately
keeping
mechanism
bias
merc
interm
suffice
grievances
##lays
##ches
transfers
flat
bounds
publishing
##tt
604
placing
cance
announce
foreclose
trigger
violent
longstanding
superint
addressing
hazard
repealed
suspend
summar
adjustments
undertake
coercive
disproportion
asking
##irms
gray
certainty
##atic
##owner
contracting
borrow
newly
2000e
##low
fines
667
pleaded
confidence
planning
naturalization
aircraft
##eased
interpretations
dup
sla
##aly
explor
proposals
condemned
##iley
aven
nuc
manual
formulation
##missibility
chooses
rus
##tively
compulsion
##abilities
securing
marine
1926
opening
dic
differenti
607
files
offering
withdrawal
##uge
offenders
579
returns
569
friend
##orters
spok
posed
empowered
fundamentally
invent
formed
scienti
629
expiration
successive
promptly
foreclosed
##ease
interlocutory
bona
##leum
unm
airlines
illegiti
##itative
ads
corps
aggrieved
gerrym
thorn
##actor
bondholders
##ded
##sters
attr
##amus
circuits
reservations
vict
adhere
prosecuted
ross
continues
royal
ky
##oul
##imination
1931
unwarr
navigation
petroleum
enjoyed
##elson
boycott
inability
accomplished
wholesal
perceived
effectuate
##tio
elimination
anticipated
withholding
doubts
cath
##tail
##oning
federation
definite
mandamus
ineffective
inex
parental
672
novo
##uana
pharm
incarcer
attendance
590
abro
##oked
prosecutors
worker
salary
connected
misrepres
gib
adea
induc
assured
convict
feet
596
dun
disease
636
shipper
accompanying
##ounded
personally
valuation
adding
blue
pict
start
anticompetitive
overturn
ore
wade
insured
crow
ec
renders
##xic
leaders
##engers
##anged
films
senators
550
affiliated
unwarranted
dealer
##olved
commonly
558
choices
easy
677
##held
##tious
christian
##ulture
relates
afdc
condemnation
lt
irs
affirmatively
malice
comptroll
conceal
bodies
comptroller
##erald
complic
641
journ
withheld
##urally
##tum
631
punishable
unquestionably
height
##erto
##ulating
agriculture
##pper
##ows
composition
earned
##bl
suppose
glass
dall
capr
630
credibility
details
reinstate
chemical
misleading
leads
acknowledges
deficiency
##lim
defect
##apped
teacher
##angible
editorial
passengers
hardship
##aur
614
contexts
740
preserved
delin
pertain
discon
string
572
covering
##icts
observe
##ican
richardson
715
solicit
jac
implies
puerto
thorough
hughes
stores
##idge
disclaim
minors
runs
independence
##pl
responded
carries
04
norris
611
648
explains
investigations
conscienti
electronic
reliability
678
##ara
positive
consumm
repud
obst
subjective
##antly
artific
practicable
unknow
depreciation
731
surface
investigate
##elig
predicate
delinqu
doe
facial
participated
disposal
preclearance
700
lemon
##ung
invalidate
fide
gender
perm
advertise
assessing
accuracy
wise
##eering
##espass
taxed
purport
prospect
identifying
lock
duration
predecessor
2007
pictures
bloc
baker
route
improvement
payable
warnings
exercises
voted
countries
cell
##bed
pron
578
motors
682
competence
carter
feature
typically
##burgh
universal
expansion
plausible
orderly
evaluating
valuable
diminish
mfg
nuclear
anom
trespass
illegally
techni
deductions
sat
##acies
##vidious
##timore
749
649
##whel
##eis
overwhel
prejudicial
consolidation
streets
##iled
postpon
591
changing
emphasize
wig
quick
657
711
surprising
sitting
adjudicate
##itals
580
smaller
harassment
proscribed
punishments
752
dispose
obstac
##kee
howard
nonprof
prud
governs
639
shapiro
aus
accum
delegation
##how
##bi
invidious
ka
##ulty
covers
1925
##kers
##rage
rulemaking
loans
baltimore
refunds
examining
chambers
inadmissible
##atible
subordin
overlo
speedy
urges
negligent
brotherhood
ordering
controversies
magaz
brady
##ulations
hearsay
son
objected
indefinite
sund
looking
domic
wishes
597
region
freedoms
navy
enterprises
accompanied
expanded
reckless
bes
abroad
impaired
storage
supre
implications
recommendations
669
donations
medicaid
decisionmaking
1930
articulated
introduction
##entation
753
advocate
##rant
forma
760
stol
scar
distinguishing
##ationally
contact
saving
690
flaw
roth
634
middle
regularly
conservation
vigor
supplies
liens
planned
constrain
restatement
##embers
publications
border
seats
##isdom
objects
concede
commodity
weak
cloth
crew
survey
regents
space
689
shared
levi
violative
grave
##mph
underw
retal
##ban
entirety
ly
household
calling
functional
predominant
younger
royalty
##wright
offset
626
##hand
prayer
licensees
pervasive
supremacy
etc
obliged
cub
646
respectively
rigid
prep
620
694
hat
##till
repr
widely
injunctions
pauper
front
rhode
mission
bench
debts
beneficial
isolated
differential
dangers
weapons
wet
box
shipping
drafted
fill
una
electioneering
thirty
negotiated
adjac
meetings
intermedi
655
599
justifies
642
594
demanded
endorsement
destruction
burglary
greg
##umber
irri
dictum
619
cognizable
##vent
usage
lacking
rear
curtail
disabilities
##hr
suscep
nonprofit
##acc
statistical
permian
leasing
exempted
fn
##ament
##wer
scale
departments
efficiency
640
analogy
coordinated
firms
erie
abortions
652
707
historically
torts
prescrib
daniel
recall
645
compromise
566
incumbents
dro
##veland
hereto
inside
603
cooperative
facilitate
machinery
unfortun
eis
##bell
judic
concession
592
bla
depending
summarily
affords
describes
fra
wisdom
ended
##paid
pup
ant
720
##oni
unch
restaur
quantity
ltd
partisan
decre
grade
specify
perempt
##enu
cook
ca10
ceiling
journal
ty
legality
parcel
stream
cleveland
inferences
scientific
pupil
sid
wag
##ersu
steved
speed
587
letters
permanently
unres
660
expired
criticism
alex
perfectly
adjacent
fault
726
rod
proff
##ponder
promoting
bradley
dollar
overth
appropriately
spirit
preponder
598
737
integrated
forem
denver
resolving
duly
brandeis
mans
discriminated
definitions
expertise
intentionally
altered
##ball
species
lynch
perj
subsidiaries
sensitive
marriage
##lington
exhibit
extremely
craft
pronoun
cites
fred
##mons
##atisf
pauperis
inhib
courtroom
statewide
currency
maintains
eliminating
nd
##inder
637
638
623
occurring
flight
duplic
detained
654
compensate
repair
dues
rub
theatres
##ggs
villa
advances
583
sums
oppon
remainder
burns
superintendent
##ilateral
composed
deriv
imported
##iveness
successfully
speaker
inquire
hes
##ros
enemy
##force
decedent
manip
##avor
713
minorities
estoppel
flood
##nis
wein
municipality
conscience
arrived
##antial
logical
competitor
contingent
invention
##roduce
publicly
patterson
morgan
expectations
unpersu
carl
653
625
837
unlawfully
concerted
pleadings
691
elementary
born
morris
impermissibly
##pping
individualized
excuse
die
investors
santa
##iate
##inal
discount
##arms
##leans
freely
650
buy
felon
lengthy
##uson
adequacy
affiliation
lives
rationally
paramount
underc
concurrent
ensuring
##gue
foresee
jew
principally
distribute
retroactively
##uthorized
663
1871
unknown
preponderance
youth
administering
wealth
704
unavailable
handicapped
gone
destin
directs
##af
acres
disposed
compete
characterization
criterion
orleans
dismissing
yale
inelig
webster
cole
complied
##unk
pollution
nul
nowhere
##foot
exploration
##uter
##inter
shot
generic
fifteenth
drive
towns
austin
gir
truly
outstanding
745
commands
retroactivity
bull
stipulation
defam
nex
prosecute
handling
664
dives
reclamation
walker
overthrow
##mi
##bach
paroch
opposing
bases
admittedly
discontin
parochial
##ilt
requesting
615
agrees
designation
595
declaring
dedic
##riet
coming
nonf
801
neutr
##cap
appreh
caution
restricting
acknowledge
farmers
4th
rough
rapid
##oz
mayor
divers
refrain
bare
666
765
loyalty
judicata
unlim
quid
obstruc
sufficiency
##mann
completion
676
intimid
schemes
alleges
inevitable
unlimited
han
rom
abuses
monitor
mile
admissibility
strick
preparation
##oir
##dro
consens
trying
irres
threats
nationwide
firearms
purchasing
unjus
##hart
mccl
flexibility
docket
complained
680
distill
647
presume
driving
correspond
feasible
les
whites
disall
disadvantage
leased
knows
ignored
vagu
##owitz
contested
speculative
ready
suitable
688
begins
stipulated
##ensable
cargo
767
supervisors
intelligence
##ulp
plen
subdivisions
expansive
academ
fda
nelson
distance
illegitimate
graham
unauthorized
effected
clos
nationality
addresses
susceptible
holders
drivers
band
##ik
expl
strateg
diminished
poc
consists
realized
campaigns
conversations
manager
stopped
discourage
taft
female
shipments
teamsters
resem
explo
operative
simult
802
922
coc
719
684
holid
##mark
buyer
harmful
doctor
##bb
stringent
stare
727
pas
##rational
661
liberal
697
buildings
gambling
##claim
barring
693
##alous
somehow
conversation
decisis
plenary
reputation
authoritative
sustaining
collectively
adjudicated
deterrent
hoff
satisfactory
1917
machine
hob
nix
resist
consistency
fab
pose
##iries
##vity
##he
indiffer
funded
755
premised
reducing
awa
vagueness
##oles
decep
##guard
inh
##ita
powerful
holder
arbitrator
attachment
congressman
761
largest
mobile
zoning
reproduc
facially
724
vent
subvers
reversing
obligated
hospitals
coerced
samp
stolen
hans
tu
entrust
generated
harbor
exhausted
purports
748
685
derivative
nexus
rejects
756
##burn
##xon
##thur
705
doubtful
contemporary
sic
demonst
delegate
conscientious
738
lind
##western
##era
##lete
charitable
intervening
imprisoned
culp
unambiguous
07
luc
var
659
exceptional
donald
accrued
fulfill
hunt
lord
ol
procure
692
opened
enhanced
fruit
ep
willfully
appropriation
750
latin
integral
weighing
pregnant
indec
##ouses
basing
illness
contributed
673
pil
sinc
decides
martine
##parable
retailers
conformity
incap
remember
distributing
irrational
container
##aneously
voice
capricious
printed
notified
desist
continuous
incompet
##tifications
681
ocs
dividends
instruments
martinez
##isw
concepts
censorship
tendency
residential
encoun
soci
ftc
##ressive
overrule
satisfies
willingness
warehouse
##igned
##ignment
developments
comparative
reprinted
export
##ondition
overriding
occupied
russell
##titure
henderson
predict
inconsist
big
stephen
demonstrating
path
assignments
utilized
heretofore
killed
drama
730
speaks
arrests
advertisements
village
dim
domin
kan
probative
mexican
unilateral
infirm
monthly
accommodate
resc
erroneously
fat
killing
##anity
ongoing
##berger
endanger
588
1928
indispensable
searched
corrections
shipment
deposits
cy
greatest
635
aggravated
expressive
675
alike
gift
proxim
publicity
counterclaim
peremptory
justifications
adherence
hamilton
enabling
accus
annu
1921
overbreadth
literature
sides
remark
solid
662
causing
nonmembers
divestiture
cure
##ountain
refuge
fro
impression
acquies
clarity
enactments
heightened
##mn
importantly
sweeping
exposed
doctrines
conception
gains
wyoming
hom
collins
distributors
firmly
lu
##active
##ello
committing
mu
faculty
ratio
rivers
forest
723
fuel
bott
arch
687
renewal
perry
detri
overbroad
unmist
mcn
810
bulk
sunday
prepare
##life
manufactured
introduce
wells
1924
816
symbol
900
##race
indemnity
experts
824
invoking
abused
insurer
uniformly
unmistak
rare
defraud
blan
choosing
722
identifiable
influenced
lessee
##oline
844
preferences
rogers
##icted
grounded
surpl
popular
combat
dallas
##ox
##ulted
patented
intimate
growth
suffering
prosecuting
wallace
minimize
pitts
lists
harsh
1923
wrongdo
divorce
unitary
##atories
physicians
devoted
##orthy
motivation
happened
categorical
cs
presenting
627
709
exceeding
apprec
academic
propriet
696
fbi
roll
ende
trucking
checks
##gel
reviewable
philos
wished
incidents
discrete
richmond
francisco
considers
judged
liabilities
confess
learned
perpetu
cad
dominant
contemporaneous
ic
grisw
735
kid
disrup
goldberg
insanity
voluntariness
griswold
tic
751
surplus
wides
##mas
##pread
##ales
compels
hired
deficiencies
nixon
modifications
757
790
played
borders
shoe
blanket
widespread
assump
schol
813
laguard
nonpublic
laguardia
##aine
intercep
deple
710
pollut
##aband
diverse
custodial
##upon
entang
sweep
gilbert
game
699
kot
mel
##nett
##note
fined
1331
owed
neutrality
hur
associates
geographic
retarded
fried
encouraging
cooperation
variance
##ridge
philosoph
visit
porn
minutes
764
1001
unclear
greatly
placement
bros
mode
1929
##olk
disbur
formally
mccon
##gar
believing
901
economically
stayed
concededly
samu
##itate
internet
growing
##isters
justifying
803
municipalities
ferg
disord
##ables
admon
chain
casual
louisville
achieving
attacks
disproportionate
##wa
##ions
associational
asset
implemented
longshoremen
dire
send
parish
wheel
carp
carriage
calend
takings
severance
781
waiting
bry
628
excludes
occupation
catholic
##iner
##rett
rooted
recorded
mck
80th
donors
northwest
mistake
gerrymand
gard
ram
718
initiative
1915
rendering
inferred
conj
unse
##edience
fetus
ease
##utive
##ingham
defective
misapp
merchand
wolf
ferguson
contraband
directions
conditioned
fd
##rs
chapman
odds
petitioned
##ubst
686
threaten
psychological
preemption
library
subpar
overs
containers
copies
overruling
stressed
apa
imb
##ried
recre
furtherance
##book
bra
dated
notify
##loqu
differs
friends
apprais
season
##akers
litigate
ped
constitutions
advis
##onym
812
inquiries
##zation
unanimously
wain
902
##ga
##gent
foia
sims
narrower
flowing
amounted
refuses
importation
671
808
causation
gasoline
restrained
chamber
2a
patently
734
716
mcconnell
burton
afric
promulgate
deterrence
psychiatric
nash
1918
campbell
ships
assumptions
##bar
speculation
developing
1911
predicated
wainwright
##fall
##itated
721
##roe
##lets
attending
brings
outlaw
extortion
bald
fields
prosecutorial
custodian
pne
blind
708
relieve
pneum
##rence
797
843
##va
##bal
attributed
dor
corrupt
persuasion
2255
barrier
asks
deals
spoke
##han
urban
declares
695
trail
exceeds
accurately
06
haul
concurrence
factfinding
##ishment
679
nn
vit
adults
794
825
subparagraph
tied
scre
satisfaction
drew
##sen
transform
directive
670
820
schedules
##nic
##ounds
invalidating
calendar
tends
##keeping
##entives
politics
2008
components
pursued
improvements
abstention
##areness
associate
backpay
territories
enunc
815
792
summons
built
##ench
functioning
sacri
budget
pneumoc
dia
thereon
executing
islands
pneumoconi
retrial
conveyance
stanley
tension
##righ
##laugh
##opez
pneumoconiosis
lopez
mun
computed
811
distributor
853
package
apportioned
unpersuasive
pittsburgh
##lined
destroyed
morn
disf
notification
empt
confirms
1922
burdensome
supervisor
wetlands
lived
tain
##uts
##tially
ital
intends
adds
penry
calculation
undes
twa
##apol
vindicate
prompted
##ower
perjury
arthur
evidently
broker
mandates
assessments
maxim
seaman
levied
looked
prevailed
intermediate
fabric
royalties
tying
theore
distress
absor
770
turning
delic
therefor
investigative
frustrate
neglect
##oned
809
scheduled
##isms
reins
replaced
confers
retention
reinstatement
##vering
meets
delegates
enhancement
dar
rose
##wing
##otti
adap
peter
fela
773
arms
opt
regulates
cald
allegh
residency
gathering
contemplates
##yle
contending
dennis
##ivens
contraven
##viction
cher
alternatively
flexible
mixed
wholesalers
bivens
tas
inland
illust
neighborhood
breadth
scene
summarized
artificial
listing
nonex
warden
morning
##ordination
canon
714
##elled
wildlife
professor
dow
##mill
##zer
amending
revolution
741
fs
subch
mergers
testimonial
qualifying
1914
outer
undertaking
irrigation
##eding
deems
awareness
ca11
##lie
ell
698
814
demonstration
footnotesfoot
allocated
jacob
overwhelming
footnotesfootnote
obey
options
estimate
geographical
subversive
compr
putting
electors
clients
sanders
tribunals
##feld
conditional
forbidding
negotiation
hazardous
cry
ral
rarely
##iably
colo
644
674
821
disagreed
fruits
african
cot
1913
infringed
endorsed
reit
federalist
faa
administrators
shareholder
proportionality
tank
pipelines
expressing
fundra
invocation
##criptions
attacked
barriers
daugh
submer
bol
cant
died
fm
736
762
retains
inflicted
pornograph
econom
derives
copyrigh
acquiring
prevention
decisive
unpaid
deferred
totality
dc
rea
computer
habit
persuade
##oking
728
robb
##tisement
780
shifting
naturally
switch
dign
tangible
##ulous
determinative
monroe
patron
advertisement
retired
severely
inventory
entrusted
forcing
meyer
739
unsuccessful
##onged
schw
##tish
dissented
unnecessarily
dry
appearing
ordinances
##gins
particularized
766
dub
sir
lawrence
##luent
jointly
conveyed
talk
mcdonald
##stated
seattle
unexp
complicated
subchap
sn
justic
763
775
fellow
corresponding
cocaine
vet
##mpath
postcon
arbitrate
921
adhered
thousands
nu
ratification
signs
798
pierce
osb
##lers
##urity
admits
displace
varying
carpent
shut
decades
informant
suspected
presumptively
reopen
cigarette
tuition
ry
overtime
privately
square
trucks
lane
physically
adjusted
ko
##robor
##eche
experienced
tro
collecting
appropriations
races
swift
disparity
lin
##outh
proffered
##pt
shell
sier
759
841
##inge
806
768
veto
beat
barge
favoring
implicate
drafting
merchandise
subchapter
las
##any
##aco
filings
intoxic
workmen
783
devised
burning
voir
convened
continuance
desires
5th
##ustice
pear
observations
unambiguously
target
begun
thereupon
premature
ak
jure
mountain
##rap
771
magnitude
advise
744
observing
restaurant
holiday
ron
incentives
##ours
##aterial
titles
happen
starting
hunting
caldwell
##ray
##idiv
subtle
guess
discriminating
ratified
sites
reconstruction
obstacle
##ror
imports
thereunder
mckin
integration
commencement
atl
##ipped
invalidation
married
immaterial
suffrage
pertaining
##erable
##fort
recidiv
assuring
blackstone
iron
senior
withdrawn
conclusively
pocket
aer
batter
1870
irreparable
conceivable
creche
science
appealable
interrog
interd
729
1916
1910
guaranty
rebuttal
bind
##ington
##che
qui
assisted
prescription
salt
733
customary
intervened
murr
rut
##aj
informal
deleted
consummation
indecent
##udes
briefly
guideline
silver
impeachment
nullif
girl
practically
subsections
participant
encompasses
ros
sab
intercon
##illary
prime
morton
insurers
unreasonably
dissemination
host
nich
##wick
##roach
severity
dicta
entertainment
##ubstantial
discriminates
embrace
framed
perceive
ancillary
##rol
override
walter
focuses
literally
induced
ineligible
postconviction
strug
fox
score
##kett
promises
pressed
supervised
constituting
kur
comity
proves
insisted
packing
inconven
rental
##loyd
imagine
alexander
##lit
legitim
ethnic
kelly
##rell
##otes
attended
substances
patern
754
pressures
occurrence
victor
undesir
yard
restitution
unders
6010
bodily
##non
##forward
reporter
overla
1890
strugg
airport
marginal
extinguish
correctness
conventional
stages
##thle
attitude
deline
consisting
intact
furman
honest
preferential
mobil
concentr
interconn
arra
metal
bellotti
appraisal
##accep
empir
proscrib
tenure
rice
theft
prer
accumulated
##tery
seize
certify
diver
poses
mines
mitigation
bit
##body
##eds
appr
##osures
posture
804
##aa
deceased
deserv
brut
scarce
bern
##enson
miners
helpful
native
##zen
declining
##payment
franklin
juveniles
straightforward
##berry
classic
patman
variations
deeply
##iance
##oney
guided
reservoir
830
acre
brien
recovered
simmons
1919
evils
hod
##iers
prejudic
prisons
treble
naval
embraced
misrepresentation
simultaneously
hou
elli
hostile
indictments
sexually
speakers
kidn
nichol
homic
##efend
agreeing
substituted
805
903
1252
listen
##gett
oli
theories
##ewal
complainant
instruct
achievement
defeated
sponsor
murray
perspective
817
disqualification
crown
japanese
consensus
##oard
reside
viewpoint
construct
##ingles
invitation
corrobor
amb
818
transported
cranch
seemingly
##recy
beer
treats
842
individually
oct
messages
##anges
stood
##urate
temporarily
unaccep
shape
sympath
companion
characteristic
fitz
weekly
noncomp
wiret
lucas
thin
secrecy
##ema
deprives
negotiate
dictates
conjunction
mckinney
rum
carroll
calif
precision
elaborate
strickland
depletion
##amin
trier
dispens
pays
misp
828
wins
##atri
dism
aba
differing
electrical
##orthiness
sanctioned
labeling
dimension
##enbach
##orily
grain
annex
brothers
colored
apt
suppressed
endorse
quickly
produces
love
realistic
investigating
peaceful
inhab
pursuit
789
eye
absurd
materially
791
depriving
seemed
possesses
inferior
inadvert
mathews
dignity
##juana
consumption
adopts
807
avoidance
rigor
sed
##sm
##ighting
users
teague
colon
769
shipowner
unsupp
disregarded
gingles
sons
propon
notions
##ensible
validly
controversial
enjoyment
periodic
illegality
examiners
weighed
reargu
eld
hind
##maker
##gues
distinguishable
incompatible
isolation
indifference
rene
insubstantial
convenient
helvering
746
782
webb
reluctant
ald
vern
oppose
prerog
dwell
subjecting
successor
incorporate
tolling
marijuana
bypass
adjud
spring
emphasizes
1909
sdny
enunciated
submerged
misplaced
lumber
oce
##izations
encouraged
spoken
##esis
interc
bruce
nons
definitive
misuse
sells
incarceration
computation
portland
structures
coupled
mas
assertions
hostility
litigated
motives
unfairness
competency
hotel
samuel
##mos
796
787
affording
sworn
audience
techniques
jay
##zz
795
divisions
opponents
reiterated
eu
vul
captain
delayed
travelers
ton
span
intrusive
commentators
electorate
furnishing
wear
codefend
entanglement
##termin
owns
pointing
demanding
##mund
##best
invalidity
sellers
grace
enjoining
intelligent
##from
bridge
paragraphs
hazards
coleman
##erate
##using
hein
##log
employing
upset
848
bidding
christmas
gerrymandering
pend
bever
democracy
closer
ker
##itant
salaries
732
insistence
##uk
##folk
sentencer
evaluated
attributes
medicare
##urst
circums
philip
1343
##board
##apolis
thrust
segment
au
##bury
incl
colum
sharing
evers
row
##bles
pled
specialized
##owners
encroach
reflecting
attaches
##arran
puts
pronounce
##uous
##rail
norfolk
stead
colloqu
joel
meaningless
827
commentaries
1291
inconsistency
dick
##asm
##oln
syn
execute
swann
##ettes
replacement
confed
##goti
eli
##itious
testifying
911
preclusion
fears
attribute
remanding
observes
auto
occupational
sidewal
bak
##ka
parli
wherever
fewer
deliberations
disob
##athers
cumulative
cigarettes
clarify
british
sugar
commentary
examinations
prin
trusts
unconstitutionality
removing
unpro
admitting
predominantly
##ching
prong
neb
derive
mccar
1404
therefrom
user
didn
drastic
billion
743
superf
latitude
improvid
craw
tariffs
ll
unlo
precinc
repeat
consented
1908
prejudiced
cents
##inqu
communicate
anomalous
len
parks
evade
mccarran
constant
fatal
borne
cite
linc
disruption
##charge
friendly
##elli
handle
712
1789
reinfor
irrespective
sierra
empirical
parliament
effluent
pursuing
wd
851
sector
##cle
unt
alj
##imm
agu
spread
788
minds
escap
procurement
lincoln
tur
##elman
adduc
unequivocal
yards
##hurst
##erly
758
towards
mathema
oversight
mig
##eced
parenth
transmit
772
registrant
##unte
deport
insol
indebted
##orem
formulated
envision
dictate
correctional
##resh
coe
interch
whoever
textual
utilize
unacceptable
mos
consisted
complying
defects
authors
credits
unfortunate
##ordon
823
telling
annuity
filled
vmi
##ishop
legislate
exhibits
##umph
garn
constraints
dedicated
poly
##ressed
evidenced
nonpar
lessen
777
venire
sponsored
optome
##ito
##kete
chand
effic
robbins
ocean
gained
819
getting
nurs
pull
##gma
799
793
##sett
outweighed
nonresident
tie
##tib
repay
highways
selecting
garner
pornography
##icide
impede
butler
##orton
deposition
838
routinely
accords
roughly
crawford
##bre
anth
unreg
wording
patterns
wir
converse
shr
shore
contradict
perpetr
cos
proscription
medium
881
enlarge
confidentiality
losing
##isen
disappear
piece
unen
indis
representations
fraction
cele
estimates
bailey
gal
coerce
becoming
dissenters
machines
reconc
sacrific
wherein
alteration
boyd
exhibition
lieu
premiums
domicile
culpability
koll
lad
##sts
consec
expended
buyers
##ulpatory
renegoti
asbest
questionable
tested
861
subsidy
fundraising
spon
##nes
##lation
##iously
promised
arbitrarily
822
dangerousness
imprac
canal
carr
##feas
accepts
responses
rackete
879
1907
interpretive
unbund
philosophy
lam
##gen
reward
nepa
relinqu
pennhurst
draws
uncondition
tendered
##ugn
##part
patrol
initiate
831
855
441i
##workers
unjustified
cadc
gardner
cio
twel
incorporation
truthful
eminent
andrew
unequivocally
unseaw
decade
returning
829
conspirators
##viate
signal
undermined
era
##liest
74th
excise
846
89th
mechanical
belonging
farr
minerals
consultation
undesirable
##enas
ines
unpr
##trak
##uniary
split
offend
distinctive
1367
deadline
amtrak
##ailing
##erick
load
908
1905
retaliation
reinsur
concert
province
778
restore
1906
wigmore
pendent
##stream
petit
##keted
misunder
sixty
volunte
858
guardian
cards
forb
##endo
contacts
sept
doctors
cotton
tent
##orpor
transporting
analyzed
incompetent
dates
notices
odd
deceptive
insists
##redited
776
826
862
morator
discussions
resource
ideal
bab
bishop
##ses
##bank
cone
illustrates
literacy
bottom
albe
partially
designate
variances
disclosures
abridge
experiment
magazine
albeit
vou
univ
spar
earliest
reciproc
gradu
clothing
aed
seas
needless
ern
discloses
784
catv
nashville
##eing
##illy
responsive
threatens
formerly
##hl
reass
indig
establishments
heroin
farmer
residing
shipped
arresting
rosenberg
jewish
adduced
aedpa
advancing
earn
profound
audit
##car
##ester
stability
intol
merged
##legraph
tenant
##brand
avi
map
ada
briefing
evolution
allowances
foreseeable
patronage
fals
kil
tant
conrail
ourselves
viewing
flsa
mcg
watson
encompassed
gon
jen
##laus
vertical
reconcil
camera
utterly
abrogate
diversion
wrongdoing
bou
gordon
raw
parking
suburb
persec
conveni
1896
older
attendant
focusing
learn
concentration
##onymous
indistinguish
pul
equipped
edison
separated
ingred
katzenbach
tasks
cc
liv
por
##rich
lowest
realities
levin
surviv
slightly
##otions
proven
##endum
tract
##ishing
searching
905
##iliation
exempting
instrumental
deviation
##cence
##hill
forc
10b
invari
trip
restored
acquitted
emission
##sum
inacc
unaw
induction
discriminations
nonre
concurs
subordinate
societ
##asi
evening
centers
williamson
880
dependents
paso
##cock
##wau
##atch
##ateness
convert
suicide
strange
lawsuits
qualifies
1912
identifies
accomplic
illustrate
##inations
##loch
milwau
834
concurred
sensible
disallow
kotelly
everson
kollar
indistinguishable
##atically
##icks
unten
considerably
refining
vacation
acquisitions
constructed
hartley
milwaukee
delays
clearance
##phere
everything
balanced
widow
diagn
fiction
humph
alan
##union
harper
imminent
structural
peculiarly
nonresidents
lend
invited
expresses
legitimacy
viii
ancient
daughter
akron
09
dig
wo
##vable
seld
assa
providers
warned
restricts
continuation
1257
dividend
thornton
wants
##night
stret
prophy
format
evasion
freeman
excused
monitoring
eg
lh
tip
##arial
dean
chase
solici
774
laund
auton
bac
##ument
anton
coordination
perception
abund
##enna
bush
##sha
sheet
886
electricity
layoff
vend
won
shopp
needy
passes
answering
worse
exchanges
publishers
discharges
accrual
seamen
soliciting
gap
hut
904
852
##qualified
amply
quarter
cheroke
lion
mend
rural
telegraph
propag
initiation
unreal
872
nearby
hale
##rative
##acks
##coming
sponsors
homicide
##sler
additionally
pecuniary
avenue
endangered
unqualified
minister
imperative
aims
hydro
counted
untenable
fay
##ederal
characterize
depriv
850
firef
reimburse
##eston
circulation
burdened
realm
possessing
managerial
##enberg
dod
trac
schne
907
escal
mistrial
enlar
inescap
governors
1346
presumptions
delinquent
##izon
fired
specially
theatre
interchange
##orah
courth
atmos
enorm
arguable
watch
technically
gao
happens
renewed
societal
jun
##bro
##ware
recoup
recourse
suffers
signals
tree
##eo
injustice
harry
multim
verdicts
incriminate
scholars
##bel
##wca
withstand
expensive
incidence
texaco
779
privileged
845
desirability
kar
arts
complaining
wait
enjo
clubs
defamation
worship
computing
stronger
stops
cancell
unsupported
cau
timber
servitude
awarding
clerks
bought
forty
unreli
devise
1902
1867
churches
##arrass
rigorous
round
##kinson
weber
dece
injure
786
nomination
learning
illustrated
##ean
##inity
inre
seaw
footing
revis
justifiable
trades
latino
##poin
##sees
supporters
allowable
annually
earning
contributory
##aught
ripe
perkins
statutorily
clinic
pupils
##yl
##urious
specifies
guards
##missive
indications
faithful
theoretical
pig
rp
##ria
inapposite
superflu
vide
##dings
dissents
traditions
petty
skill
mootness
beck
medically
extrad
disqualified
stevedoring
##erb
##tiality
seab
recordkeeping
centuries
threatening
1904
hoffman
lhwca
##oration
##asc
exh
##cho
champ
lif
actionable
denomin
914
investor
allotment
nuis
houston
tub
memph
proscribe
harms
punishing
materiality
ignor
venture
quiet
unaware
rptr
memphis
hoc
kle
##iscl
conver
charl
bribery
bennett
broadcaster
owing
drafts
disapproval
destruc
##handed
prescribing
pendency
##ima
1897
actively
felonies
gyp
defa
harold
objectively
08
suffices
##avored
895
logically
undermines
kaiser
narrowing
##omatic
cuba
deprivations
recording
random
coven
harrison
##iliary
merchant
varied
ku
##outs
defic
outright
investigatory
##while
deviations
undersc
lakes
##blo
##char
permissive
canada
generalized
systematic
treason
785
targeted
eyes
##enz
rew
indul
##ocks
dissatisf
distant
mcd
1901
conceived
aviation
bates
yak
interception
marital
embarrass
recited
plate
appropriated
1874
capacities
twelve
shopping
schneider
##ranch
##ighters
allocate
retaining
tools
uncont
legitimately
gypsum
cz
ss
##gs
unimp
strip
frequent
packages
instrumentality
trouble
decrease
ticket
humphrey
dunc
fly
tap
##pan
##oral
classroom
drink
modes
avoids
advancement
unsuccessfully
multimember
##ensen
utilization
malicious
atmosphere
##rest
unin
##ivably
81st
aiding
ignoring
formulate
catch
enrolled
leonard
prophylac
##arked
##omb
soph
carey
insign
offence
categorically
justiciable
superfluous
##cla
senatorial
indebtedness
polyg
lor
##otts
beach
amor
arguendo
maturity
displaced
watkins
promulgation
arc
propose
simon
847
approaches
##mester
feared
engineering
surviving
factfinder
nonfederal
aguilar
dred
ira
inclusive
outlined
lineup
brewer
laur
pollutants
ero
##osex
spr
dissolution
836
conceivably
photographs
antonio
implaus
##lane
phrases
acknowledging
germany
invariably
##olo
##agon
distinguishes
publisher
manifestly
clarification
reaction
specifying
defending
tenants
1292
worthy
shooting
relieved
interfering
##makers
prox
coinc
miner
entitle
organize
839
1002
causal
await
jenkins
exacting
unaff
minute
meritor
915
influencing
kenneth
magistrates
detainees
nominal
prudential
arraignment
vulner
prophylactic
lun
ports
sake
##ica
##iced
atomic
compiled
spectr
joining
lightly
864
combinations
reductions
magazines
untr
purposeful
consequent
deficient
conferring
ftca
prudent
vest
wong
##roft
quasi
##ideon
ending
contracted
nationals
mccorm
manslaugh
oliver
duncan
eag
rab
rif
##ares
##cell
19th
##ancies
##inet
carb
prescribes
renegotiation
insignific
manslaughter
fresh
gall
mason
nh
yell
##huana
actors
##spective
invested
fashioned
disapproved
marihuana
anthony
spectrum
##ala
exxon
##lating
trend
remit
fisheries
destructive
mic
arn
promoted
840
1253
subcontract
adjudged
mathematical
rain
xx
stern
criminals
mapp
origins
militi
constrained
832
criticized
subcontractor
gregg
parenthood
gonz
gideon
##lean
repar
obser
exempts
incapable
kidnap
heck
reen
##thy
trained
##took
methodology
wrongfully
hobbs
bright
circumvention
signature
calculating
strategy
##ecedented
unprecedented
sphere
partner
scrup
compensated
conventions
875
1903
greene
slightest
vigorously
paternity
courthouse
dial
complement
partly
investments
subpoenas
sharply
winship
##stead
estelle
revoke
doubtless
90th
##ront
relax
expressions
preparing
battery
interconnection
##pat
actor
elective
french
retrospective
dilig
rodri
undertook
objectionable
driven
attachments
disparities
tells
deadly
##tected
allied
observance
916
financed
drafter
nursing
shrink
moratorium
##points
kr
##istence
started
baldwin
##tes
ang
resting
##reek
responding
timing
##aird
everyone
vesting
mcdonnell
engages
increas
unsatisf
##caa
exhibitor
generate
hog
##vailing
##tra
##tracted
##apping
##location
stigma
970
alcoholic
thinks
lying
ng
rid
onto
semin
alito
chron
##forth
unden
abide
canad
pamph
modest
marketplace
835
automobiles
frustrated
heinous
instrumentalities
gent
nr
##len
sud
depended
saved
revoked
realty
897
delicate
chandler
##down
casey
preceded
laf
accommodations
assurances
interfered
townsend
confessed
struggle
alarm
expatri
estates
dock
occasioned
generating
colloquy
reex
bea
policeman
conspiracies
denials
prejudgment
desegreg
pilot
disruptive
vitality
ax
kim
sor
##otic
prol
comfort
contours
mature
evenhanded
buying
countervailing
growers
interviews
postpone
proponents
prog
hispan
milli
73d
patentee
1341
writings
replied
##mma
formation
doubted
856
939
attacking
advocates
grossly
ballots
conversion
bia
trunk
presiding
steam
counseling
obtains
947
raymond
accomplice
firefighters
nuisance
##atable
dish
strain
entertained
866
falsely
mailing
ascertaining
rhodes
delinquency
carpenters
unh
recru
recurr
norman
bart
##echt
##regular
1880
forums
manifested
contemplate
gibson
##bir
mann
avoc
joinder
emphasizing
strikers
1101
propositions
incorporates
foreclosure
unprotected
militia
sham
impliedly
disturbing
hundreds
homosex
recreational
circular
mediation
thinking
veteran
dissemin
canadian
ncaa
tug
##arri
##ocol
contras
irregular
morrison
1396
leadership
##asmuch
lat
##rill
prete
supplier
brooks
athle
rla
##ius
##emer
rightly
furthers
nonj
873
stamps
reluctance
progeny
dress
##yd
unwise
##eway
cannon
passive
survived
insignificant
increasingly
##omo
878
absentee
deductible
flows
##books
catal
steelworkers
expanding
atlanta
##iant
unint
albert
commits
presupp
provider
##appe
solicited
embodies
abridgment
democrats
gregory
bible
##mel
leh
minne
##rows
trace
basically
falling
1868
1887
documentary
detriment
vernon
sophistic
sudden
##sed
##voc
inasmuch
cha
##load
##estock
illumin
slow
republicans
kirk
livestock
reexam
reiter
anywhere
enters
duke
respected
1891
afoul
complexity
flatly
##tibility
prince
scrap
workable
##auf
unfet
enrollment
proprietary
ri
##vis
lex
button
871
afl
ethics
printing
unfettered
cow
##inn
##otyp
consp
proposes
curtis
ensuing
music
6th
ceased
jerome
cardoz
ranging
incarcerated
foreman
##isites
doors
scient
informing
politically
credited
realize
breaking
unrep
futures
harmon
877
religions
1892
proportional
destro
unequal
monopolize
bore
fast
sick
##mo
conve
##termination
amen
substitution
moneys
airline
approached
improved
874
gravel
superseded
imbal
autonomy
rodrigue
##master
##oner
##tier
sequ
resent
supplying
broken
925
feeling
hartford
flawed
remin
exig
##agger
handed
compensable
liquidated
milliken
cold
spot
confisc
looks
1374
leaf
vindication
infliction
quantities
extradition
##croft
##istically
powerless
convince
1886
managers
roger
inhabit
unseaworthiness
##vial
withers
##elity
heir
##lification
##umes
plat
##gery
feld
economics
massive
belongs
efficacy
asbestos
rc
senti
##onau
canv
##iah
facing
officeholder
debtors
ost
##add
##child
resided
purporting
signatures
promotes
favors
917
menorah
concealed
1395
preempted
tactics
attract
admonition
consecutive
cort
ls
##titious
##quar
flu
920
inclined
##illo
viability
##onder
##aterrit
leader
adjudications
intervenor
trains
embraces
succeeded
pes
pue
tow
heights
quash
locality
865
899
organizational
cooperate
rankin
differentials
lessees
rutledge
kurtz
arnold
gate
viable
signatory
announcing
negotiating
universities
announcement
aeronau
##patrick
##taw
##cia
sears
##chi
##amble
##ernand
receiver
codes
eventual
forfeited
millions
guns
disturbed
ashcroft
batson
dwelling
unenforce
cris
ling
tva
##tan
spite
##titudes
payton
centered
ratemaking
performs
exculpatory
thirds
inherit
larc
constructive
frederick
noncompliance
racketeering
rot
##ori
##otte
##adic
spect
attenu
terminating
headquar
##ulates
summer
holland
grown
abolished
diego
meritorious
sending
##rams
##12
##lemma
mails
dictated
hyde
technique
vigorous
tending
obedience
##ribution
transfere
workplace
indicia
circumvent
stein
fifty
876
unavoid
tainted
dol
mack
exigent
invite
affirmation
occasionally
insuffici
disturbance
entails
acquiescence
ralph
scarcely
cere
rio
taught
##za
##ila
courses
##ulting
##liers
##licity
variation
anticipate
discard
colonial
##eastern
smoking
departed
reinstated
inequitable
dubious
inconvenience
rodriguez
##omery
alf
protocol
##titutes
loading
excer
lawfulness
pharmacy
destination
garnishment
reconcile
specificity
adjudicating
441a
analyzing
bowen
implausible
specifications
originated
overlooks
encounter
nas
##ycl
empty
##ordan
lockett
handb
thirteenth
stockholder
919
murders
##poon
##matic
proximate
enormous
##gomery
breath
1894
montgomery
affiliate
disadvantaged
perez
endeavor
larceny
alumin
accidents
trimester
plra
##athan
salv
handbook
customarily
remotely
postponed
intercepted
europ
conveniens
##nc
stre
benj
principled
declarations
857
##certained
easier
extraterrit
inflict
hogan
jaff
osha
sib
vinc
summoned
relatives
visited
mechanisms
fidelity
labeled
shifts
underwrit
correspondence
forbade
##aling
disav
suppl
repetition
prediction
burke
combine
submitting
guardians
witherspoon
unenforceable
##med
##back
resign
spouses
trivial
mcgr
grande
1895
##istrict
windfall
cherokee
benjamin
ditch
gerald
zones
unreview
predatory
phrased
occupy
sip
##idden
ascertained
viet
repugn
generation
cancer
valeo
confirmation
entrance
dropped
apprehension
eros
##put
##bled
peril
possibilities
breached
improvidently
conversely
aluminum
chim
931
ethical
conti
960
deposited
medicine
craf
treatise
inhabitants
jordan
lug
wick
matth
retailer
logan
exploitation
aided
sister
forgo
shock
##tituting
abet
dilemma
muster
surety
891
allegiance
academy
discontinu
junior
seaboard
##ernandez
birm
ceded
mond
##bors
910
reduces
uncertainties
contracep
fleet
inspector
intolerable
drafters
birmingham
daw
##acity
briefed
wars
laborers
arranged
bowers
abridging
promotional
ellis
ze
##oux
##ernal
noncons
contributing
putative
minimis
disburse
##itarian
choc
##ensity
##aching
marc
loose
thoughts
harmony
donor
overturned
choctaw
ni
##war
##ectual
compatible
##lified
thoroughly
repudiated
wiggins
unmistakably
##kel
isa
arisen
peters
957
assignee
1898
undercut
canvass
creek
rs
theme
expose
##ops
flast
promotions
932
encourages
##franch
##minently
buttress
##artz
handled
geo
849
1332
hamd
manipulation
accusation
czma
dair
lm
doyle
imprec
secre
curti
1003
936
##brid
infirmity
wheeler
rome
##usting
drain
memorial
codefendant
gentle
minneapolis
akin
##osh
evol
##ahan
adjudicatory
1875
understandable
empowers
riparian
kahn
vincent
##urer
sche
defended
collision
883
882
continuously
grey
picket
frequency
allotted
2c
cwa
fathers
stim
connecting
909
898
enumeration
mcfl
friedman
ronald
burr
ru
concom
inserted
clearer
2009
restoration
cea
appointments
inspections
disclaimer
casualty
enjoys
lloyd
reid
comports
termed
variable
crossing
##ricks
implicates
soldiers
invokes
weinberger
copyrighted
vulnerable
feldman
fol
lending
lung
##etti
suggestions
##thodox
intervenors
walz
hanover
kurtzman
##mers
##abilit
laboratories
framing
visitation
affiliates
arriving
wareh
reargument
horn
##oley
forever
proclamation
brid
palmer
surrendered
unrealistic
headquarters
dul
eaves
##yard
suppliers
correl
saf
transmitted
bankers
suspects
mailed
supplemented
duress
nomine
unfortunately
inaccurate
kidnaping
dairy
ele
onerous
##aked
displays
attainder
aet
valued
frust
subscrib
chiefly
walton
rehabilit
conceive
skin
reopening
tracks
adapted
tentative
aetna
##erees
1876
cutting
hayes
saturd
pon
pier
vt
##pin
##lair
nonunion
labels
specification
penit
illicit
freedman
868
941
938
fashioning
enables
unchanged
intimidation
remembered
afor
oak
forti
terror
reliti
herself
992
incorporating
fitness
inadequacy
owen
borden
transferee
holy
stere
generous
blum
854
unreliable
creat
dyn
lec
##alt
##oud
##asse
myself
gravity
colleges
linked
divorced
loses
procured
movi
barc
collier
contempts
863
vacating
1889
encouragement
mutually
delta
9th
fost
via
76th
##uminous
ryan
fitzg
cbs
kel
##mah
deterring
civilized
solicitations
85th
1011
echo
##yas
sees
employs
phone
adviser
burlington
1872
wanton
dramatic
ree
##laying
##ewit
decency
##aph
informer
923
technological
radical
machinists
cycle
osborn
recidivist
tape
##atural
ster
notably
##raf
brit
valorem
roots
classify
evolved
913
885
940
transferring
mccree
1447
lottery
sinclair
enlarged
erosion
converted
suited
##olph
meanings
costly
declines
detective
warranty
waivers
northwestern
933
950
irrevoc
emerged
psychiatrist
kiryas
redeem
isaac
ties
##ertion
##enton
attained
partin
ambit
meanwhile
resides
dono
textbooks
exempl
uniquely
installment
boycotts
icj
elliott
mccarthy
##brook
scienter
underwriters
tier
##ias
##fc
##strom
enmund
booth
civic
##rington
2241
baseball
transcripts
defamatory
unregulated
gif
klan
lap
stored
##ola
alb
comport
communists
flour
918
890
refugee
kon
conject
stabil
textile
935
murdock
withdrew
skills
##anium
adoles
excepted
collector
surprise
disorder
unbundled
##nam
intert
appropriateness
dayton
926
litigating
obscure
bowman
suburban
sle
acute
1005
talking
hendricks
supersede
##ption
defender
1873
unilaterally
persecution
yellow
null
##ora
##eworthy
deported
judging
monell
phen
evinc
herbert
##atorial
myers
1014
winter
unavailing
rubber
cultural
lump
porter
##east
##agues
conclus
suing
attitudes
whichever
neil
frame
corrective
860
teaches
garcia
colleagues
durational
aeronautics
extraterritorial
og
tab
inception
sioux
##ennial
##inker
wayne
forthwith
ensures
accomplishment
nonmember
resistance
detrimental
pullman
pounds
wes
discounts
corrected
occupants
intrusions
consummated
alleghany
envisioned
##rown
amer
obstruction
cart
912
narrowed
occupancy
afla
precluding
installation
intercourse
circumscribed
iraq
fortiori
##43
##alc
lef
corn
scha
merrill
fron
numer
articulate
906
harmed
1899
mccul
1888
coalition
memoranda
incorrectly
wagner
prerogative
reciprocal
cardozo
discontinuance
fitzgerald
baird
cess
sua
untime
empts
emptive
##eases
executives
wrongs
radioactive
illustration
unaffected
untimely
ot
gran
##ache
934
acknowledgment
allocating
forecloses
inhibit
nichols
spanish
degr
amd
abusive
intangible
##aches
barb
##tifies
landowners
944
commanded
bulle
sponte
anonymous
869
893
helps
advocated
deducted
constantly
futile
interferes
inducement
inexp
bakke
org
standpoint
immoral
appealing
detect
##ologies
referendum
medication
inspectors
roman
falsity
attenuated
bulletin
tate
vag
##icul
adam
assisting
insane
barry
sie
dunn
allegheny
aux
sophisticated
##dom
orr
##uctu
personam
confines
localities
favorably
donnel
2244
incomplete
disfavored
forcible
cancellation
drop
tended
tom
##ente
##laps
##agen
quota
weighty
enabled
berger
beside
schwartz
alfred
hub
##11
##hall
##tricted
prospects
warn
994
hatch
obstruct
sample
overlap
ranch
inven
toxic
grat
guise
disposing
occas
highl
seriousness
certificated
unsound
impartiality
animals
shelter
mercy
voucher
yakima
imbalance
streams
7th
mens
pump
forg
##othy
brun
advocating
hills
proxy
1374c
dynam
tun
##drop
##wined
inaction
1900
impedi
equities
confident
locations
nonst
inflation
conspired
unfairly
censor
discharging
engineer
mcculloch
dip
fug
xii
edelman
commons
884
supervise
unrestricted
beverages
fight
fighting
invi
##ared
##tray
##eman
decisionmaker
virtual
numbered
profitable
##iami
objector
supplementary
##boro
survival
dramatically
screening
donnelly
occasional
dere
gear
mes
extern
##iating
scot
engender
airp
unfavor
degrees
grazing
abridged
anglo
assail
transgress
dealings
incremental
adhering
merchants
victory
pharmac
unmistakable
unsatisfactory
gill
jim
sanch
theod
ofappe
unsett
weiss
scores
productive
joy
farms
867
larson
1231
biased
borough
hunter
obstacles
disobedience
sanchez
ofappeals
fits
xi
##water
intric
purview
##ounding
overse
differed
furthered
verbal
plays
1362
honored
gloss
delawares
homeste
explos
contigu
ox
##rice
deme
##lication
tempt
advising
75th
dominion
unloading
casting
##uman
regards
reflection
983
visual
memory
randall
epis
brib
bingham
##stal
##uten
indiscrimin
scrant
characterizing
937
banned
visible
halper
tolerate
expeditious
concealment
proscribes
athletic
scranton
meat
brook
colorable
populations
suppressing
fulfilled
sessions
whitney
stemming
amdt
biz
##ww
stu
pey
reviews
founding
##ulsion
touchstone
inescapable
penitentiary
fate
games
hood
sorts
##father
##omed
##lage
underlie
lawless
##ligious
contributors
888
1251
walk
piper
mortg
remarkable
rifle
sports
incite
root
males
trainmen
chartered
contingency
pearce
homosexual
gifts
cty
eug
ewing
lip
nick
##gee
marshal
woods
analyze
detainer
##baum
unconv
libraries
stems
seldom
episod
bizar
tan
che
dissolved
warner
capt
continuity
commanding
retrogress
melvin
disbursements
lest
fifteen
870
1151
unpat
jeffrey
diligence
auxiliary
htt
mouth
miami
upper
quan
assures
##seless
13a
scho
covert
##ologists
versions
perfected
shoes
practiced
norton
reporters
healthy
976
##comb
biological
compactness
nominating
mueller
contravene
fmc
rud
##lord
noia
abd
mah
posted
oriented
immunized
##burger
consuming
griffith
awaiting
ingredient
cun
gary
##tration
pra
shed
##istol
proclaim
956
rationality
financially
uncover
entries
unjustif
fslic
unexplain
rcd
crisis
unreviewable
jon
##des
##anto
edge
inflex
928
proportionate
reno
disapprove
retardation
hoffa
sympathy
migr
concomitant
voc
##bu
##endi
expedi
dissol
array
divest
aids
consumed
philipp
1787
preferable
##employer
horse
bernard
cinc
wine
##zburg
prur
coff
remedied
pair
satisfying
devoid
1032
1883
investigator
constituents
attainment
battle
italics
covenant
http
pope
voy
##sch
##iatory
##gor
factory
afterno
receivers
johnston
banning
multiemployer
counterpart
forfeitures
##etta
##naire
sawyer
coordinate
colonies
ngpa
##arriage
unconvinc
sod
sny
fortun
consign
pardon
abrams
##encer
corner
verba
##ologist
tyler
reinforced
video
stereotyp
mol
yates
##mend
##rove
abb
incong
dixon
questionnaire
insulate
benefited
modifying
networks
nyquist
indefinitely
incongru
8th
##inna
stark
undist
speculate
barr
preclusive
dividing
garmon
1202
unusually
animus
reconciled
breed
dorm
##etic
##elec
hair
confused
deduct
knock
craig
intelligently
abolish
concentrated
egreg
deficit
cincinna
cincinnati
dale
##aley
boys
gets
safely
1012
stevedore
wiretap
hitch
atch
##titutional
##overnmental
preamble
electing
gov
simpson
surcharge
gerrymander
pueblo
omn
tons
index
alleviate
lessor
settling
instructive
opponent
dismant
pledge
mcgrath
bridges
##electric
vests
vinson
##abb
casts
football
waterf
929
magic
hazel
lewd
indigents
sight
##iences
heat
approves
passport
capit
belonged
declarant
southwestern
unpop
hypothesis
theodore
gi
##uum
anders
lever
##oused
barber
damaged
79th
volumes
triggered
parcels
brokerage
chronic
unpopular
cit
jenn
##ser
##ck
##case
##eskey
##ecured
##rod
##riad
amel
deserve
dispense
benz
##unct
landmark
landlord
misread
859
measuring
1254
helped
journey
definitely
btu
mall
wartime
##aux
wrongly
derog
hawkins
robertson
disallowed
secrets
homestead
fib
wals
##ek
##ym
##xious
##utations
overly
myriad
1893
disqualify
longshoreman
drove
bizarre
dancing
deterred
offends
nonwh
eddings
fris
negate
mandating
conditioning
career
midwest
vindicated
fortas
tantamount
luggage
hinder
disrupt
##overty
18th
conferees
barrett
payroll
damaging
residue
942
981
1073
beatrice
##ylum
external
asylum
leeway
interrup
claib
managed
founders
looph
meek
anomaly
subscribers
amelior
claiborne
loophole
bork
ske
zero
##ien
##edded
##ato
##igs
bron
##incorpor
locomo
proposing
eradic
officially
detach
traveling
2680
lieuten
crystal
precinct
hydroelectric
eavesdro
cessation
cip
##ivid
chad
dog
##estone
##ourn
clim
scen
##ahl
88th
991
recommending
optional
clinical
antec
mccleskey
intertwined
eugene
afternoon
bax
##norm
##ionally
invaded
transition
930
953
952
quotes
stanford
nullify
pretext
numerical
elic
seeing
##tick
##illion
congressionally
schwe
edwin
951
986
navaj
1415
barnes
antecedent
nut
exert
submits
coroll
payne
phases
readers
83d
antid
residual
southeastern
1869
investigated
commander
panama
##letter
neighboring
hispanic
##incorporated
poverty
que
##aint
##cles
regret
blank
cured
urgent
conspiring
guides
temper
deliveries
##eseen
overlooked
retaliatory
olson
pollutant
propaganda
lunch
dipl
finger
nud
nude
##gc
##edia
##urg
##veled
##very
denno
processed
steams
86th
943
955
deferential
introducing
trafficking
jacksonville
hanson
sincere
dimensions
sidewalk
steamship
benson
oly
##ua
unincorporated
tracts
governance
boat
##apital
imperf
breaches
township
novelty
tortious
eliz
insolvent
ignorance
greyh
dormant
walsh
olymp
gore
kod
ud
beef
dob
remarked
moves
oppressive
solve
penalize
887
1885
##lett
copyrights
osborne
misunderstanding
repugnant
hollow
lends
##cm
ascap
atty
##adow
envelop
faces
reserving
##criptive
intrude
consolidations
formulating
skilled
arrive
bird
revealing
ideological
riverside
appreciate
observer
prolonged
fluid
unavoidable
vietnam
chimel
greyhound
##kowitz
##stad
conson
##osic
replac
intentions
passion
herit
accessible
1864
morales
trailer
repayment
phenom
prurient
wed
##isle
grades
soil
particularity
locked
drilling
solom
987
investigators
intellectual
##actorily
expatriation
gang
von
precip
furthering
##archy
situs
curb
embar
969
961
cruz
stopping
lodge
hesitate
explore
perpetuate
coext
unreported
corollary
tire
stocks
consular
marqu
candidacy
889
tortfeas
depositions
sanity
enlight
universally
unchallen
encountered
bryan
amenable
saturday
snyder
##imp
##har
##54
throw
civilians
trustworth
breth
missing
pressing
commentator
2518
noncomm
besides
underwriting
hurt
defaulted
##iculum
heritage
coextensive
lond
##bons
theater
exacted
##ader
##ositions
intense
invites
newman
##arious
servicemen
1008
guiding
predecessors
clarified
couple
hopkins
misrepresent
curtailment
acreage
sacrifice
dulles
overseas
atchison
mcel
##eda
##ini
exagger
mayer
cafe
france
77th
984
rooms
touching
abstain
symbolic
weakness
survivors
unfavorable
huff
##eper
##iability
##rue
##just
parade
##isson
proportions
landowner
##emeal
divis
894
963
commented
scales
unwork
piecemeal
cancel
intimidate
afores
duc
kin
pad
##celer
alert
managing
harlow
entitles
writers
speeches
1009
visits
treasurer
horizon
resembl
nonreligious
brethren
aforesaid
releg
abnorm
moosic
plane
##aires
burdening
belt
brew
worst
massiah
assns
impossibility
polls
contradicts
dy
laugh
protracted
chances
accrue
dix
overre
##ogue
##ager
injurious
percentages
commandments
dependency
extensively
checkpoint
kingdom
bids
redemption
fare
##icop
##enture
acceler
##tract
arlington
particulars
similarity
detection
solemn
influences
exceedingly
cantwell
unexplained
clock
gay
riley
wm
##tte
starr
##omer
whis
polar
posts
patrick
loaded
948
furnishes
pilots
ice
kc
orthodox
##msd
975
conceding
988
progressive
endorsing
pieces
lodged
emissions
fw
www
whitt
impinge
policymaking
excludable
accompany
prospectively
repudiation
dominated
ahead
kram
##50
##usable
ours
guam
erected
salmon
##sworth
naturalized
morality
954
990
griggs
1884
deliberation
lots
shifted
randolph
settlements
hernandez
rival
##ike
##ario
##strong
posting
brush
evading
embody
interprets
2281
preemp
installed
outweighs
apprendi
kodak
ring
##atur
##aro
##ilitation
generality
mcmill
recoverable
utilizing
1311
unconditional
subcontractors
egregious
kcmsd
lenity
nc
zadv
##tist
ches
vienna
marion
##ounced
indetermin
codification
goodman
927
danforth
964
966
armstrong
divide
hoped
advisers
ernst
scholarship
##ydas
britain
zadvydas
bend
pf
##itivity
outrage
strang
departures
satisfactorily
grandfather
949
falsehood
unanimity
assembled
spokane
##blatt
unchallenged
noncommercial
bm
kal
chanc
casing
personality
credible
959
##ographic
interrogated
##hattan
contradiction
unavailability
mistakenly
slavery
ew
mop
nice
zen
##oe
##erts
##icals
##eliness
denatural
eliminates
paint
subpoenaed
blockburger
subcontracting
window
dispensing
##birth
contiguous
a1
chen
peer
##ublish
manhattan
15a
3701
mons
counsels
967
997
mindful
slate
adversarial
disadvantages
expedited
navajo
solomon
london
hit
##hard
##bin
stable
##lyn
##rim
##eree
peterson
##vency
##guire
protests
refin
noncon
connections
87th
assuredly
rapids
counterclaims
seminole
exigencies
chancery
##anel
amounting
canons
##oker
postmaster
behest
sovereigns
jeopardize
safeguarding
stuart
verbatim
##term
noise
revise
primaries
comparing
undertakes
foods
tapes
drinking
resemblance
##utary
coke
ages
servants
organizing
subscribe
equalization
stripped
977
vicinity
calculations
1790
gibbs
duplication
##children
conclusory
lav
##year
##21
##related
##amond
##efined
persistent
irving
1076
escrow
gathered
misdemean
##chester
proximity
interdistrict
encroachment
laurence
heirs
filling
gates
##acious
casino
usur
childbirth
upward
referral
averages
counterpar
disregarding
inconce
shelf
nudity
nb
##itors
##oli
##class
##okes
immunize
crude
leasehold
culmin
pains
reapportion
bonus
deserves
mccormick
counterparts
fi
rit
##04
compass
##illard
decisional
elkins
operational
capture
hourly
infringes
diminution
toolco
bruton
##eries
stee
##ighted
sovi
accredited
diamond
insisting
outlets
stric
demonstrably
1004
welch
garrett
entrant
traceable
evolving
kelley
inconceivable
sad
##naires
##lich
##utter
weaken
inters
nonret
signing
severability
##laney
esch
disregards
omissions
barnett
attractive
apprehended
illustrative
reinsurance
recoupment
seaward
owe
pape
zob
amuse
discounted
questionnaires
probate
nont
harvey
contributor
946
refusals
uncomp
reopened
torture
overwhelm
monsanto
aust
boll
cu
roles
shir
##umet
##ipated
faca
recordings
973
##tilities
prevails
retirees
puzz
arrival
structured
recreation
charlotte
##lapsed
inflexible
kern
##teria
notm
alliance
procedurally
realistically
accountable
971
apache
enlist
facilitating
frozen
archit
abundantly
imprecise
lefkowitz
unworkable
soviet
kend
viz
##iday
##thal
appreciation
##imony
##uded
enquir
##acht
criminally
##iano
preserves
familiarity
empower
elaborated
amorti
supplant
lapse
consonant
horizontal
kings
##gence
##46
token
exac
##aming
shorter
desc
insular
offended
##insic
esa
hostilities
inno
approximate
ambiguities
strengthen
displayed
narcotic
contradicted
prerequisites
abolition
sidewalks
mcmillan
1a
jensen
sem
compart
invade
scant
necessities
retribution
approaching
morse
989
minded
deletion
segregative
literary
embracing
comparatively
annexation
correlation
innovation
wake
connot
isra
unmar
alimony
parr
recalc
twin
viewpoints
realization
979
1865
exhaustive
pronounced
impractic
lieutenant
omit
pb
adul
additions
encla
metro
malloy
infringing
cooperatives
imagin
deception
impractical
fluctu
##judicial
religiously
compensating
disclosing
1877
instructional
chancell
miscarriage
lexis
sibron
##ewitness
auth
tide
##aks
##octr
diverted
singular
vacuum
subsidize
handicap
troubling
redetermination
easement
eldridge
escaped
gonzales
ds
hier
nancy
##cal
##rt
##oria
seed
cooley
interesting
indoctr
39th
guest
terminals
flagr
misconce
eyewitness
schempp
destined
dishon
voyage
##ublished
pbgc
oust
ull
##iels
##vals
##41
exclus
##anton
percep
match
lob
studied
characterizes
functionally
quotations
broadcasts
3553
sevente
cognizance
animal
reparations
chancellor
fis
zant
ther
viewers
##arez
sykes
creative
lobb
solutions
segments
1304
ski
stephens
inextric
habitat
matthews
steele
bund
sisters
wider
##iger
exposition
contests
insulated
substitutes
bargained
arbitrariness
adjusting
successors
inequality
unresolved
escalation
graph
##rift
recess
offending
objecting
redund
mcin
downstream
releases
999
counterfe
calculate
entrap
plausibly
genuinely
pickering
wisely
antagon
strategic
fsia
lon
ply
tight
##uals
recoll
accounted
overton
locally
qualities
predomin
972
impairments
temporal
appointing
tolerance
succeeding
lodging
##smith
unpatented
hac
hicks
##ptic
##econ
##abeth
##ensibly
1301
regulators
legislatively
reversible
deaths
developmental
arbitrators
extracted
strictures
subsidies
detainee
borrowing
cubic
##heard
contraceptives
temptation
amusement
rush
tus
commencing
notic
arson
##ibi
spencer
##entials
output
standardized
sympt
doctrinal
maxwell
booker
holt
storer
taint
extinguished
poul
rating
slo
##marks
##rons
relocation
##away
lawmaking
##itism
corrup
plug
descriptions
politic
complains
negligently
licensor
guaranteeing
gros
gotts
markedly
eisen
screen
nonexistent
califano
hinds
precincts
volunteer
platform
abdic
kramer
mell
sisson
##ombe
noteworthy
##imil
chick
coher
decreed
amends
divert
boeing
directives
forthcoming
citizenry
1337
movements
sherbert
involuntarily
submissions
gamble
differentiate
recalled
misappreh
deserving
excerp
aar
ms
sin
##uters
##ella
weather
interruption
protesting
simplicity
unconsc
loud
daniels
suspending
feasibility
bands
endeav
absorb
whittaker
tam
viti
##tc
tour
prominent
##olm
byr
##ffel
encl
##raham
##mitt
benign
titanium
1006
945
occupant
1326
departing
walling
encompassing
wholesaler
duplicate
rapidly
wearing
mcgow
locomotive
eavesdropping
elizabeth
denaturalization
usurp
ble
##amy
coolid
##lick
assimil
idle
insuring
passages
subsistence
shepp
apparat
978
manageable
eighteen
greenberg
loyal
bacon
caught
reeves
abbott
stricter
coolidge
trop
tinker
xvi
##oms
##ilings
orally
##imer
abatement
congressmen
1201
boot
peoples
soldier
confronting
abandoning
camer
photo
wolff
clarke
optometr
traced
lehman
hurd
##iment
##inclusive
##arle
sew
prag
abiding
manville
charity
##iciously
reader
preval
devote
strongest
##recon
understandably
withdrawing
explanations
goldsmith
woodson
##igsberg
casinghead
##requ
##umed
infr
emphatically
suggestive
resolutions
buff
inquired
quotas
ceilings
exhibited
1681
installments
restaurants
elliot
tube
cuts
hint
exaction
comming
hague
coker
bob
##agan
systematically
lanham
freeze
mclean
please
curriculum
896
countless
predictions
contravention
protestant
clarifying
##aja
mosley
jes
pin
##rus
deed
affirms
creed
priorities
favoritism
1776
flee
pleasure
tyr
tickets
listeners
misrepresentations
sheppard
ip
kee
pound
##03
##atutory
underlies
bran
processors
locate
goodyear
smug
openly
alternate
assigning
motel
cope
professionals
burea
squared
constructions
abrogation
foremost
uncontested
##ivided
israel
##reconcil
atkins
contri
boil
commitments
forming
cram
1879
walking
possessory
circumstantial
feelings
replacements
quarters
surprisingly
reproductive
inadvertent
latest
barbara
inextricably
paw
wool
##rite
##kal
##born
##sely
##eton
factually
laboratory
stockyard
unpublished
preventive
extensions
noncapital
unquestioned
column
deportable
disallowance
conveys
abetting
konigsberg
aaron
mcgowan
kauf
ye
##24
##but
actu
unsp
weis
impasse
##actment
##guided
elk
descriptive
patrons
fares
wilkinson
moderate
irreconcil
singled
intra
996
bullock
##urbed
rebutted
kirby
correspondingly
sabb
phenomen
overreaching
pond
##yon
##izable
uss
fullest
arbitral
##insky
shortage
objectors
davidson
discouraging
tacit
contradictory
fpa
pistol
##amo
##ibus
affiant
confusing
offshore
eds
legislator
complainants
assigns
985
1075
formulas
mistakes
2283
barnette
concessions
symbols
girls
deceit
destroying
donovan
ogden
capitol
mcelroy
entrapment
rents
##utic
copper
confining
earth
terminology
backdrop
958
mitigate
promulgating
entertaining
wyman
borrowed
morrissey
visitors
pronouncements
clo
gust
hess
##ios
therewith
schm
brian
extract
columbus
vesti
1125
altering
reinforce
culture
tailoring
keith
sacred
females
culpable
recidivism
prerogatives
conspic
##franchise
warehouses
olympic
zenith
aec
bif
lac
##sing
##jo
speiser
broadened
1007
garb
consciousness
clinics
indemnification
fdca
outlawed
##laughlin
layoffs
frustration
undisturbed
eggs
eaja
moin
unified
##antum
quantum
finished
marry
penalized
feels
improb
morals
968
1013
cattle
bowles
projected
entrants
blake
laundering
recurring
##build
elicit
ride
flra
92d
conspirator
crack
thorpe
ineligibility
reproduced
rescue
interrogatories
dissatisfied
ostensibly
bot
##ran
##yall
##zes
##alo
##identi
##ados
alters
##ustomed
expulsion
mclaughlin
breard
91st
993
982
grew
subsidized
pacifica
messrs
enhancing
puyall
heads
consensual
embargo
puyallup
pole
push
engel
optical
moody
revol
fifra
esche
felons
998
alienation
wishing
crowd
domiciled
flaws
unexpected
##isclosure
heckler
naked
varies
##xo
atroc
grantees
deferring
impairs
3731
predicted
intimately
cramp
purportedly
germane
discernible
cells
foremen
rescission
eleven
elapsed
##cp
##rance
shack
servant
presentence
disposes
cream
playing
instructs
assertedly
upholds
wasteful
elaboration
whitley
##oza
annuities
cosme
elicited
wech
##mings
##afe
##orum
##arand
##anian
##stown
adarand
enrich
strained
commonplace
capability
lifetime
84th
892
962
robber
firemen
image
linkletter
canceled
comprising
wechsler
berman
eminently
##81
alive
##ayer
tru
firing
guy
prostitution
removes
conflicted
prede
980
experiences
precleared
carlson
portray
sequence
nickel
ea
py
tene
##entures
##ensed
infrequ
82d
adjoin
announces
unwanted
inquis
##lify
targets
theretofore
slaugh
stretch
impediment
zat
zimm
##rager
petitioning
evidences
norms
##etor
friday
drunk
fuller
richards
1132
1441
survives
illustrations
cummings
##ovich
decreased
switching
delineated
pronouncement
avocados
inheritance
buttressed
impracticable
noticed
csa
dot
stays
stump
##ired
##olent
disloy
spell
lang
meaningfully
distinctly
supposedly
mileage
olm
forestall
sentiment
amerada
zatko
ki
kitch
lund
stif
wonder
##kind
ina
##usory
##arden
verified
repeating
embedded
965
multiplied
compromised
intoxicating
definitively
mendoza
whiskey
lobbying
cel
mold
##ls
##45
##umont
implying
assent
regan
abe
presidents
shoulder
readjust
feed
brokers
accountability
1105
practicing
##rock
cautioned
aptly
farrand
dereg
pragmatic
hines
mount
##ci
seated
##election
##americ
shapp
impacts
##acken
##phane
##wards
habilitation
developmentally
consolidate
1854
##contrad
grocer
presumptive
eisent
klein
recruit
bold
otis
tum
##06
##zze
promiss
uncontrad
moor
barrel
retreat
##rysler
substantiality
joe
policemen
communicated
mullaney
1121
visa
departs
diluted
culombe
crews
rolls
advisable
##chief
waterfront
indeterminate
misdemeanors
promissory
uncontradicted
bass
cater
cello
##eties
##ulus
accustomed
corbin
baseline
dispatch
illusory
travis
vex
1017
1878
possessions
grav
1365
acquires
fitting
minimizing
rhetor
geographically
rebuttable
cardinal
vendor
european
moines
eisentrager
omah
russ
westing
##dy
##graf
ances
alibi
butter
permissibly
abate
finley
counting
conciliation
deterior
##atorily
improving
974
donation
conferences
kyles
##interested
##rowski
overwhelmingly
westinghouse
keny
lig
nathan
##47
##owell
neal
steag
burch
supervising
mccain
goldstein
portal
monopolies
unwillingness
triggering
discarded
fugitive
phenomenon
laches
##hem
##05
##erting
notor
teen
##etter
owning
referee
curs
solem
veget
tenuous
3626
analytical
wyo
grove
tolerated
shelton
wealthy
overlapping
assaults
dawson
np
chip
empire
provisional
roose
conducts
mcgee
chanuk
incidentally
sensitivity
usefulness
allotments
blocks
blocking
indifferent
complementary
antidiscrimin
eschew
zimmerman
cellophane
dut
wanting
##urc
##illi
firestone
elects
defenders
precondition
centum
errs
handgun
administratively
##velt
441b
utmost
golden
reconsidered
depositors
##isclosed
pel
tod
wastes
##therland
##unier
impressive
1000
procunier
cauc
synd
cftc
socie
antip
##affer
advantageous
documented
prayers
fragment
economies
wirtz
lmra
movie
expedient
roosevelt
ruth
##hs
##32
##uder
##tuous
##viated
usoc
##ledo
infil
upd
divested
socialist
faithfully
southwest
attaching
1821
nondisclosure
fulfilling
liberally
ocsla
csb
omnibus
nbc
unmarried
olmstead
chanukah
useless
##asts
appren
interg
compounded
##ounsel
rati
concurrently
famous
exclusions
elevator
oaths
fetal
gibbons
lyons
rescind
appreciable
scholar
indoctrination
gottshall
bifurc
henn
omar
till
