[PAD]
[UNK]
[CLS]
[SEP]
[MASK]
!
"
#
$
%
&
'
(
)
*
+
,
-
.
/
0
1
2
3
4
5
6
7
8
9
:
;
<
=
>
?
@
[
\
]
_
`
a
b
c
d
e
f
g
h
i
j
k
l
m
n
o
p
q
r
s
t
u
v
w
x
y
z
{
~
¡
£
¤
¦
¨
ª
«
®
°
º
œ
α
β
γ
δ
ε
ζ
η
ι
κ
σ
τ
υ
ω
х
–
—
“
”
‡
…
‰
##e
##d
##l
##p
##o
##i
##n
##t
##g
##a
##s
##h
##r
##f
##c
##w
##u
##b
##y
##v
##m
##k
##9
##6
##4
##q
##3
##z
##7
##1
##2
##j
##0
##x
##5
##8
##°
##œ
th
the
##er
##in
##at
##on
##es
##en
##or
##ed
##nd
##ou
##an
##ing
to
##al
of
##re
in
##it
##ar
and
##as
##is
##ic
##om
##ion
##le
##ent
##el
it
##ot
##il
is
be
re
that
##st
##ow
##ve
you
##ut
on
##id
##ly
st
##ct
##et
wh
ha
for
##ro
##ur
##ay
##ch
##ver
##se
##ce
##ol
was
##ig
an
##ation
##ir
##im
##am
al
##th
are
as
##ad
##ld
##ith
he
not
sh
##ter
with
they
##ul
ne
##ess
pro
##est
we
con
##ment
##ers
fr
at
have
se
##ill
##ke
##ere
de
do
ch
go
com
or
##ra
su
##op
##ould
##igh
##od
li
##ant
##ge
there
ex
##ate
##ain
kn
##pp
##ri
##us
by
but
##and
##ist
##ust
##ity
know
ab
ye
##ab
from
##ck
##ort
##ies
##mp
##ore
uh
le
##ell
so
##ight
##out
##ome
wor
##ard
me
all
this
##gh
##os
can
##ally
no
##ost
##ff
##all
##ud
##nt
##ect
##ive
##um
##iv
##art
pr
sp
ma
pl
his
has
man
one
##ough
##ap
##un
##ie
ar
##our
had
##ci
don
##qu
##ast
sa
were
out
##em
##end
about
any
lo
en
cl
##ok
like
##au
will
what
ad
tr
if
un
##ice
##ous
##ound
up
just
their
pe
##ind
##ated
##ink
tim
would
##one
my
##ish
comp
##ions
ag
us
##ong
##ah
some
##her
res
more
them
##cc
##ure
##iz
per
##if
bec
##ance
did
##orm
##ine
##ack
work
##ther
te
ta
who
when
am
year
she
get
##ide
##ans
##ven
##age
yeah
##ople
people
imp
think
##ame
well
been
##ount
##ag
fa
inc
##ble
new
exp
cont
##ich
qu
##gr
##ings
di
rep
##ence
off
time
##ely
##ations
int
ever
##able
##ays
##ach
its
##form
##ause
inter
##are
gr
##erv
ro
than
other
##ue
over
dis
her
##pt
because
fe
##ite
##ub
##ry
##hing
##itt
mu
how
app
tw
##ber
##ary
bo
19
##ose
br
##ult
co
only
la
##wn
##ip
##00
##ree
##ors
##ign
##ery
part
bu
act
##own
your
##enc
##ild
could
which
good
##ace
##ade
cent
##ia
said
him
##uct
##ass
##ical
every
cr
##reat
sc
##ak
##ments
ind
acc
pre
col
po
ve
never
comm
##ase
##og
##int
##so
most
see
now
##ens
##ang
##lo
##lic
##ving
##ep
need
##vel
des
##ark
gu
right
serv
##ire
af
rec
does
##ory
two
should
into
##ates
und
very
really
##ac
car
##ond
here
fir
want
##act
##ition
##ents
these
##ved
##ile
##ial
um
even
under
may
sm
##ty
many
look
##ord
##lect
##ian
then
att
progr
much
hel
lot
##omet
where
our
fin
after
##iss
bet
pol
thr
##ict
mo
##king
leg
##ful
years
cons
dec
way
rel
back
inv
somet
##ices
##ater
going
sy
got
##cial
##ities
##eral
##amp
mon
program
##ick
ass
rem
tra
op
old
also
str
though
inform
##thing
sec
##ert
##ft
pres
reg
##old
first
##its
##vern
long
##ces
##les
##elf
jo
##ual
##ons
diff
down
##oth
##ys
spe
make
##und
made
##iew
##mm
eff
prov
cost
information
##ning
high
##land
too
through
##ious
##ath
govern
##way
##av
##ouse
##gan
state
didn
##ail
##ational
bl
##ood
##ury
requ
sch
ke
##fore
take
still
supp
ev
##we
pub
great
##ress
##lud
those
law
ac
##other
##erm
##oll
##ib
count
bel
##fe
used
oh
help
##ract
litt
fl
##ility
##urn
little
say
report
something
bus
##oc
##ject
##ied
gen
stud
##stem
call
##iver
id
before
cour
system
##ise
##ating
##als
mean
##ible
add
sub
##cess
use
##ting
pers
things
##get
##ily
find
sl
##ather
legal
##uring
house
own
##ular
ob
wr
includ
emp
##ards
fam
war
##orn
government
city
dep
##ced
##led
ll
##ited
vis
##ange
sur
cap
##pe
such
##ually
##oss
bas
##ks
##atch
##ways
day
differ
show
par
##eric
interest
##olog
pay
disc
##mb
##ures
again
art
199
prod
being
hand
##ph
around
el
fed
mar
ph
americ
place
stand
inst
kind
##ics
##lish
found
##sc
small
##ool
real
ca
agenc
##ues
##ative
##ered
mod
end
##ug
plan
same
##rib
tal
loc
world
ret
val
##ix
set
child
ga
##ene
ed
last
##rect
##con
##aint
##oup
organ
always
dr
##rol
public
red
est
##ms
##ants
ent
ru
hu
ear
##cent
ins
town
def
##oney
##ves
century
min
resp
anything
stre
care
lar
federal
##let
while
##ives
##kes
##ked
##ident
##day
del
organiz
start
rev
home
person
import
both
##ars
nor
three
let
rest
##ower
far
num
##ody
money
proble
##ying
pri
##ew
appro
school
##ss
sim
read
##ork
mark
ref
##ines
thing
##osed
sou
char
build
happ
sin
perform
##ists
seem
big
##ific
met
cle
pop
##red
services
##ets
thought
cor
med
##ern
point
##ently
dem
av
fact
belie
eas
##ek
hum
##ution
##ably
aud
life
during
play
##iness
effect
come
put
eng
fund
national
post
less
book
##tern
##ear
case
##ren
##chn
prop
few
##ween
##conom
between
lead
rule
sk
service
sure
##velop
best
##ains
em
conf
might
each
econom
wom
tri
another
iss
incre
bar
##ided
percent
det
away
##ters
chang
aut
mil
hard
cur
techn
##air
##xt
sign
form
dist
air
must
##cept
develop
##ized
nothing
product
different
##urch
partic
doesn
since
control
##hip
##ins
country
##res
##ically
##ids
compan
manage
adv
hist
went
##ull
important
##ds
design
bene
conc
result
##ention
##pl
island
consid
##ilt
aff
##ined
tax
##loy
business
feel
muse
watch
head
sit
##be
##ital
keep
gra
ser
##uss
direct
quest
open
##ata
better
jon
##az
area
visit
process
near
##self
tour
200
##ason
temp
##ever
##ash
che
fun
##der
four
##uc
commun
room
benef
##io
news
##ural
##ism
number
once
turn
why
cert
sen
states
trans
water
cover
##ward
run
view
children
adm
ext
##ier
mr
yes
##ling
ty
##rew
allow
ide
guess
wal
da
hot
##ross
##ired
##ron
times
##alth
pat
##gest
finan
management
left
##ize
##co
anal
support
sw
##ten
##body
mail
data
maj
##ately
##man
invest
##ollow
poss
mill
without
account
##ected
##te
const
##que
##ale
##ient
miss
test
prob
men
done
prof
tell
follow
programs
##ts
employ
week
museum
president
sever
exc
camp
bud
doing
##ared
mus
port
##ality
expl
south
major
unt
ter
land
white
ra
##oun
##ley
clint
##gress
cre
mat
stu
gl
elect
intern
prot
##els
##ec
complet
called
gao
##ric
group
north
pret
##read
##ained
##ology
pal
##ee
built
##ger
clinton
##ides
ris
secur
bad
american
000
church
give
five
##ton
underst
##ged
pass
##ians
kids
night
##ats
##ought
##ior
probably
impro
require
shop
priv
##oy
able
##orts
equ
inf
contin
nat
class
beh
review
20
enough
certain
came
##ends
audit
ann
along
seen
today
crit
collect
youn
office
took
job
hour
##ute
stat
month
pract
polit
##less
large
18
sect
opp
everything
##ness
##ock
##ned
street
mor
dri
##ral
lsc
##side
##wh
next
against
##ead
family
name
##ner
market
##ruct
grow
##ank
term
until
##ision
congress
oper
top
several
main
stay
var
pretty
power
change
arch
##ases
rece
performance
fri
auth
##ote
financial
##augh
level
giv
summ
center
ap
agency
second
##ames
agencies
security
ok
##ees
costs
cal
##lement
huh
##ages
clear
cond
polic
##gy
##iet
##ime
course
bill
##ened
##ither
##aper
general
tre
gener
sal
##uck
##vers
capital
examp
known
project
##hn
trad
understand
##ump
##ering
meet
activ
avail
believe
##ised
##ember
dra
##ether
curr
analys
repres
##ave
offic
however
##ey
##li
enj
low
isn
invol
provide
won
exper
past
##iel
##ted
##br
##lex
##ining
##ivid
mov
hal
##per
##aring
john
deliver
united
local
depart
bro
says
##upp
stop
saving
##ional
##ency
##ission
six
pa
##most
##used
##ified
having
free
##ased
park
##idd
story
##ken
told
##pped
problem
least
##ccess
##ability
ey
asked
building
getting
rul
side
else
women
san
har
##ument
estim
road
gard
lim
sing
gre
cut
vol
saw
doll
thir
##ending
health
try
list
##oot
often
black
wasn
cho
##ured
order
available
wa
million
whether
##ients
almost
vill
reason
##eng
sta
occ
looked
based
cult
##gin
ste
budget
mer
problems
##ored
##enn
actually
##ances
study
represent
orig
young
whole
mount
days
fig
success
exec
making
beach
everyone
##up
tot
##ibility
enjoy
ident
ago
pie
mag
individ
prom
##imes
jud
site
wall
##aster
regul
aw
##sel
##lished
live
10
comput
fac
tomm
idea
analysis
hous
##cif
##ont
history
jap
tommy
##ench
ple
##emp
experi
deal
japan
wind
sug
win
food
quite
author
individual
sat
question
half
court
changes
15
social
##sh
origin
indust
desc
discuss
##idence
sound
tupp
##ina
wanted
non
okay
rather
interv
respons
tuppence
pur
yet
##ried
including
##ived
addition
pos
##uation
##iting
bur
accord
ir
present
among
ho
##ences
##ensive
full
resear
lawy
research
##aim
heard
bre
organizations
company
##pect
west
sun
##ources
york
true
##ife
enter
rom
fut
maybe
17
##anc
##enty
brit
benefits
##ries
estab
##bo
##omm
remember
##ively
within
ce
##ret
hold
working
##arr
bra
es
##rict
popular
##rist
stuff
##ories
tow
fil
technology
possible
execut
##lev
##ps
arm
hor
bit
makes
issues
private
either
king
##ended
manag
hop
tex
short
outside
example
cra
##hod
##ination
someone
##aut
income
sil
step
interesting
postal
early
il
travel
standards
blo
nice
cann
##ued
##ening
using
east
later
##na
meas
sol
##irl
##ane
signific
access
across
temple
fish
seems
future
amount
##hold
special
admin
##line
##ration
lear
imm
trying
hill
abs
agree
needed
##ison
easy
given
face
systems
wond
enc
buy
final
become
12
##utes
##ateg
##uce
env
needs
results
##pr
address
ep
girl
##par
##iod
usually
lab
##ister
civ
prev
eu
talking
##soci
##aces
method
coup
modern
vi
##atic
bal
reach
associ
##aking
poor
##fer
period
rate
##itions
christ
oth
sty
suggest
coun
##ulation
quality
coast
colle
particular
others
##ortun
miles
##ows
ant
net
##cient
##0s
door
profess
##by
prin
taken
daan
hus
pot
##over
economic
mom
looking
init
16
##att
fail
##ivers
dom
toget
##elt
##cip
specif
matter
##ott
simp
jew
consider
ge
together
im
##raph
move
educ
staff
team
paper
beaut
##ape
cannot
##iding
##ilar
value
##ru
ten
record
assist
anyone
approach
started
##where
significant
##work
foc
particip
##band
department
mind
alth
##itting
held
policy
death
include
improve
drew
flo
##fully
##ze
behind
knew
sometimes
computer
hund
##iron
worth
human
although
squ
hundred
euro
line
tur
##icult
environ
##ready
already
official
##ica
according
##ety
compet
##ove
##cially
claim
attract
##ming
drug
##gle
talk
civil
french
accept
fine
shows
##illed
typ
music
couldn
woman
grand
##ense
dest
exact
##aining
love
##unch
##hol
##ilities
##por
himself
haven
model
##atory
ground
difficult
##bs
necess
exist
##ese
##iter
##erg
arg
summer
##ush
implement
sent
risk
##ising
repub
eval
scre
regard
organization
europe
administ
##aps
husband
paint
##ator
impact
fall
defin
rock
##yn
alco
development
single
##ished
##mbers
demand
hours
##sw
fre
areas
rout
rules
texas
environment
dollars
total
increase
members
##rop
fav
required
became
cred
return
republic
determ
sort
community
div
##kely
alcohol
dou
infl
lou
##rin
justice
similar
lost
planning
entire
concern
foot
dev
tradition
##ges
movie
protect
current
##irc
age
fort
studies
##ov
personal
requirements
deb
mem
##itted
##ogn
##acy
grant
commission
walk
##selves
##itch
companies
months
eight
object
##ature
##ama
delivery
##chie
##aw
##oring
##amed
sus
couple
river
##ume
subject
close
bring
gave
activities
rich
thous
wouldn
considered
thousand
light
related
fell
press
collection
##ius
##aur
friend
leave
cases
sn
##fact
resources
british
cast
##ium
answ
begin
##aves
ele
sell
##imin
univers
ital
political
##ann
expect
doc
achie
vict
living
parents
self
ones
##iful
##thern
histor
recogn
ii
comes
cop
began
hol
obs
assess
##ield
eyes
famil
11
turned
type
##iously
##omes
teach
construct
fore
contrib
felt
hear
workers
198
mal
##fect
##itive
##ourn
aren
##rem
goes
circ
pick
sir
treat
##lin
##ential
works
section
provided
college
fight
##atives
reports
saint
##ony
refer
espe
wife
##oke
employees
describ
mult
nation
##ograph
taking
##yc
especially
longer
completely
involved
fur
##pri
roy
##ler
aid
price
famous
sea
##iddle
experience
wood
takes
questions
strong
houses
##uced
quick
14
mur
above
##urs
poll
america
opt
wonder
table
##umb
adrin
located
bir
vo
##ators
themselves
instead
appropri
issue
lang
coming
wrong
tv
##use
offer
roman
beautiful
due
dead
words
figure
##den
##ify
middle
ask
conn
surr
milit
charact
restaur
exactly
##ffic
hall
##ball
central
norm
##rible
##val
likely
##asing
heart
gold
repl
poir
standard
industry
mad
applic
##oura
poirot
inside
morning
##aign
check
unf
recomm
village
bed
##bor
drink
campaign
maint
soci
means
evidence
reporting
perfect
journ
god
sense
##ping
board
##son
cath
comments
attorn
jul
##gn
france
brought
chap
contract
jer
soon
cust
##ny
ancient
##uses
archit
##ots
hands
effective
pen
proposed
detail
base
speak
##tain
##ai
relig
avo
viol
hon
washing
##istic
books
received
##bert
minutes
key
labor
architect
##hib
##isions
english
30
##epend
proper
visitors
conv
displ
shr
common
recent
mrs
style
##ledge
favor
stra
neg
vir
twenty
lawyers
square
attention
changed
worked
sold
front
fair
mass
anim
##ring
##urance
unc
sett
tried
investment
arr
appear
independ
further
ran
executive
decided
bush
##gypt
kept
opportun
du
manu
huge
leaders
late
##ization
allowed
created
egypt
democ
13
mot
none
plans
expected
household
happened
langu
washington
pain
##amb
purp
##ky
sex
trust
initi
economy
foreign
mos
##ique
places
manufact
##app
##lus
chall
chines
perh
education
weather
struct
palace
moment
james
lived
ens
corpor
surround
mother
relations
reform
buildings
emerg
pan
##unt
item
influ
chinese
perhaps
##omp
##ik
lake
desp
drive
##ores
piece
##isc
funding
request
military
er
decision
surpr
designed
##ake
##ols
strateg
100
population
hope
son
peace
district
royal
jun
pict
party
fif
neigh
express
valley
hotel
epa
gets
##airs
third
whate
attack
whatever
span
boy
##iqu
##ental
separ
following
ban
ways
##arch
knowledge
germ
ti
##issions
funds
friends
necessary
acqu
hit
hur
lower
color
dam
##ped
##ims
##ival
gone
##isl
##ceed
recently
julius
##ction
action
prep
event
saying
fire
itself
2000
green
##estern
arri
clean
appe
included
specific
##ena
##ires
super
apart
spend
plant
break
##itely
stone
natural
bon
##osing
practices
ill
lad
##thor
##ades
artic
select
##ios
##ouch
scen
gun
reported
auditors
culture
##ging
altern
ord
##venue
##ronic
groups
##olution
remains
princip
trou
exam
trade
original
stri
stock
spending
dav
##hood
secret
custom
indic
##ource
##ification
engine
seven
cat
gall
creat
##eter
situation
gree
ingle
nobody
shops
card
##ites
sav
##itten
game
range
##ef
dog
medic
pack
ut
##ded
##ana
complex
##uary
chance
##ief
finally
legisl
geor
voice
inglethor
corn
##zz
##iled
indian
seemed
##umpt
##for
notice
##uction
eat
credit
rid
##of
##he
##med
except
higher
annual
ang
deep
inglethorp
dor
##ript
word
supposed
americans
assistance
western
streets
hi
ali
ju
russ
force
cook
affect
broad
sand
isra
countries
paid
character
israel
##xic
comb
vot
efforts
happy
effic
taxes
mary
##umn
retire
##eness
moved
km
lack
mich
adj
views
provides
sant
quar
committ
subst
established
soft
crow
cold
trees
##port
##aries
bey
##ams
##ung
covered
paris
focus
spent
##oes
communic
mess
##osp
expensive
reflect
aver
##hic
upon
##ological
prior
internet
gardens
definitely
bay
pred
throughout
garden
swe
link
ah
prim
older
additional
body
emb
##ole
cele
evalu
##ises
##izing
traditional
celebr
narr
guy
training
interested
university
rates
vers
##eks
conduct
language
lat
##rod
season
position
##uries
share
china
instit
emissions
myself
phys
establish
despite
wide
sup
growth
society
laws
critical
attemp
bank
lives
##apers
insurance
islands
various
toward
##ipment
draw
japanese
imag
##set
inn
##ara
commer
continue
document
cas
wild
##cks
##ights
##rupt
cro
father
mater
relationship
##oon
correct
increased
benefit
##bur
##arily
ven
tomb
doct
beyond
dall
##ob
##ror
clients
##iction
written
den
mach
former
certainly
ign
sle
##eless
alone
##ift
below
##oint
##row
station
role
batt
dress
clim
impress
decl
international
shopping
named
students
##aught
encoura
wish
##erous
published
slow
respect
absol
everybody
##roy
dallas
bi
cross
##ne
##utions
farm
##ude
save
happen
##vert
proced
died
scul
equipment
##ength
goals
developed
sites
prefer
practice
sculpt
fem
comment
anyway
cause
round
tar
entities
terrible
dro
pleas
observ
construction
hy
web
thinking
##aced
wants
install
senior
##go
##inc
##leg
led
feat
slate
emergency
##een
##uth
##oph
train
discover
democr
kill
size
##sy
prices
doub
##oming
mand
weeks
tourist
##tered
exhib
phil
tend
##estic
families
25
##ware
fres
events
deg
letter
generally
floor
louis
rap
vote
##onst
quiet
wrote
patients
dark
##iff
cru
appropriate
##bed
spanish
cand
fix
clos
opin
production
steps
rights
##scape
carry
consist
sched
##bers
##aded
scr
surv
serve
fash
mention
##xim
197
sky
answer
bab
mort
tit
brown
measure
recommend
##itor
##idents
din
path
reb
stood
wealth
club
difference
increasing
horse
page
medical
material
hosp
sens
##more
rad
sad
whose
1996
officials
ball
bought
gar
choice
field
##uted
closed
master
##ipp
##iling
##room
includes
pieces
multip
ur
looks
occur
gate
weap
accounting
authority
60
hers
basis
effects
sounds
ara
mart
##iced
meeting
##edi
region
david
##ux
##ode
running
glass
german
average
##ban
blue
movies
retirement
threat
complete
items
heav
space
phot
products
regulatory
##erc
earth
nature
terms
perm
excell
internal
##astic
mid
##rel
##usal
crime
connect
##egr
##wide
disp
##iques
##ha
growing
purch
##ax
##idge
##ivity
simply
fast
##cious
cloth
goods
flow
entr
leading
2001
operations
##ba
##ches
hotels
individuals
50
ded
ess
hate
luck
##utely
bye
agre
guid
display
jes
##olf
extra
levels
beaches
simple
quickly
##uments
schools
easily
administration
cathed
sports
obv
extrem
volume
particularly
types
ful
feet
walls
flex
##iny
box
learn
journal
##enced
payments
investig
fashion
revenue
##oses
actions
blood
destroy
achieve
sci
somebody
india
hong
##ira
offers
helped
managers
##erry
integr
reading
yourself
column
winter
cit
##ox
##sequ
spl
reduce
##aughter
spot
equal
trouble
mis
##ex
mic
mist
##ster
##cked
accomp
subm
respond
media
judge
savings
##ips
hunt
lawyer
tower
cam
kong
##rit
##come
stories
added
largest
ensure
40
##ially
##entions
effort
thirty
army
##asc
##asons
cars
avoid
absolutely
excellent
reli
dave
spoke
mountains
ver
##onse
payment
nearly
dut
host
pil
beat
##ables
fly
liter
##anced
##iety
cities
##to
lots
passed
hans
film
participants
ft
##ma
star
discount
response
believed
afford
bri
remain
estimates
basic
magn
mission
immedi
committee
##back
##ille
##vey
##ests
##ills
safe
adop
budd
lit
potential
adjust
##yr
196
regular
empire
watching
treas
phone
oppos
##usalem
hom
##ented
ability
grad
wait
administr
jerusalem
##atively
sud
favorite
lay
omb
##gg
associated
religious
contr
conserv
rain
neighbor
decor
paying
eastern
giving
confer
drugs
article
smaller
southern
##uit
warm
points
rooms
mountain
restaurants
##erve
##change
stopped
bott
fle
source
chair
setting
frequ
route
bord
restrict
playing
alternative
touch
served
consum
pros
sac
requires
distrib
serious
raised
policies
independent
hanson
##put
truth
mostly
progress
director
opened
newsp
magaz
interview
fisc
##ones
constit
responsible
expert
decre
trip
domestic
property
straight
entrance
##eed
##reci
note
constant
republicans
animals
##ously
remained
##ornia
nearby
beginning
george
commercial
bom
##oud
##rap
compl
imposs
sector
jewish
greek
multiple
##ops
contains
tourists
glo
##oh
##cy
##aters
tom
liber
centuries
series
analy
limited
ast
hang
kal
rural
critics
inj
accur
affected
calif
billion
estimate
successful
narrow
fiscal
date
gives
spring
expand
1999
continued
clearly
##aving
knows
sor
##lier
##ask
capt
married
talked
charge
watched
jan
demonst
swim
beg
convers
anymore
advert
providing
useful
northern
##teen
activity
christian
battle
sudden
##fort
##cil
receive
towards
##chan
prison
##aged
autom
intervention
jack
forward
parts
remark
directly
castle
science
fest
je
meant
statements
behav
eye
##ners
create
currently
occas
impossible
##cul
county
ready
european
agreed
##cl
##wood
##ament
unit
meaning
1998
starting
structure
killed
las
pun
tick
compared
appl
decisions
cathedral
band
loss
ul
##iar
##ule
assum
electric
regulations
environmental
candid
kid
mine
wear
exerc
guide
england
opportunity
strategic
born
gi
hind
##men
##icians
therefore
methods
assessment
purpose
21
roll
spir
wel
hair
apply
dail
sitting
worry
greater
larger
please
influence
##ergy
##itz
worse
played
propos
stayed
estimated
angel
ren
##ope
spect
firm
statement
aware
reached
association
professional
categ
ib
jama
nine
##ino
coff
sword
jobs
##oted
##iring
shown
contact
electronic
politics
failed
gas
reasons
spain
entity
variety
aug
dub
store
sho
##ula
chief
resort
fishing
attorney
doro
dang
fol
##eys
##bing
##ada
shall
values
factors
micro
vac
cash
##gas
stores
weak
suff
tele
volunt
corner
##umption
sleep
daily
eth
pet
##dom
##cing
##key
##aped
telev
risks
italy
samp
##uing
search
separate
quarter
##rof
shar
opinion
brief
500
cry
pra
prem
coll
towns
listen
##ils
rele
clock
interior
desert
oldest
debt
mix
sight
##ience
compar
flor
followed
paintings
challeng
california
rail
##tim
##antage
craft
qual
ended
##force
gore
send
capac
match
introd
evening
##ibly
limit
wonderful
catch
los
wine
##aud
thus
representation
originally
discussed
claims
existing
##ander
boat
choose
regarding
described
features
bag
et
##ta
lew
unless
assets
##week
minor
cultural
treatment
destroyed
##wise
colon
target
##wor
##rial
unli
##ground
appar
bes
bor
daughter
##inct
alt
cheap
procedures
tast
##making
appreci
bron
italian
theater
plants
saf
##ibilities
predict
nap
##eror
##itable
text
brother
seeing
standing
testing
musl
##rated
##vely
shot
sund
##rif
incent
bridge
identify
violence
architecture
jesus
cyn
##ji
##riage
disapp
crimin
manufacturing
##ham
##onna
newsweek
learned
thousands
attorneys
rue
##zy
location
performed
counsel
council
hell
majority
condition
behavior
##lam
##ipped
##ris
sev
19th
shouldn
insp
engage
implementation
susan
historical
breat
caught
games
##outh
##antic
mexic
repe
doctor
doubt
hospital
ben
##iles
willing
symb
funny
sales
##levant
anti
screening
##inating
##itude
amaz
identified
industrial
entertain
bono
ahead
clothes
immediately
neighborhood
lie
uses
minim
##ucing
201
##ycle
pul
wer
welf
##los
##iers
##inated
frank
union
offered
calls
defense
transport
holy
acquis
prepared
fully
welfare
via
thorn
##iveness
amb
thinks
robert
march
member
fresh
od
uns
numbers
ideas
18th
hills
evaluation
bow
##light
units
prec
writing
routes
television
fu
vide
starr
willi
##izes
grass
vegas
murder
citiz
##ael
##mon
##roll
conditions
draft
pollution
normal
race
tro
energy
##azz
capacity
##bb
##ae
noted
##arely
situ
temples
function
dollar
determine
protection
golden
conference
rand
##ream
earlier
##liance
coffee
weren
cub
grew
##ney
theory
thanks
commit
statue
martin
pic
papers
##inary
actual
suggested
16th
birth
restaurant
august
gent
##mos
concent
libr
anywhere
1995
pattern
hurt
##reg
##eth
dod
lies
client
adult
cool
spee
dram
advoc
walking
discussion
concerned
##ado
lose
##ague
##uctions
monument
minute
brand
objectives
michael
22
cow
psy
ride
##ca
##oles
student
findings
foundation
refused
conclus
accounts
##ushed
susp
cav
homes
mall
trib
##nes
forced
exchange
controls
feeling
recognized
heavy
oil
##rant
##can
##irt
1997
revolution
employee
projects
##ancy
pictures
jury
nod
##mer
##mber
forg
##istics
survey
arts
vari
psych
golf
bul
bell
lunch
yard
compliance
thank
relax
importance
processes
completed
generation
immig
grantees
software
radio
##iday
stew
##pper
rose
parties
guys
records
appeal
##adem
abuse
worst
camping
initial
gro
sources
comfort
emperor
households
imagine
dedic
award
fasc
stick
##asts
offices
guard
write
conflic
purs
executives
july
eld
fat
pu
tough
##ulf
neither
##action
walked
picture
lady
burn
lux
##ray
##ago
flat
surpl
accountability
painted
unfortun
chapter
mortality
flexibility
ira
ken
plenty
earn
totally
die
filled
##rid
afric
moving
examples
dinner
intended
pool
##aza
scenar
##burgh
dan
dad
nin
rise
##berg
track
depend
career
critic
interventions
republican
eventually
schedule
##otic
islam
shoot
unp
mont
technical
##ields
virgin
baby
bother
##west
##50
##ortion
spread
overall
suppose
challen
mel
wed
##ois
##eria
print
traffic
satis
profession
mosque
businesses
housing
presented
weapons
tiny
##has
##ested
concept
##elled
##ologies
stands
stated
depict
understanding
responsibility
network
version
pow
busy
17th
arab
##iest
greatest
markets
prevent
acquisition
##zen
keeping
enjoyed
accepted
effici
library
##da
defe
incor
interp
##akes
status
##fficient
machine
boring
tun
vand
##mark
##etic
residents
courts
produced
senate
waiting
occup
mir
##sec
feed
finance
terra
election
entirely
extremely
opposite
oct
forces
strange
happens
rulemaking
advantage
window
legislation
recommendations
der
pull
rent
##mas
forth
##abor
rob
police
showed
funded
powerful
burden
cards
laugh
names
##olic
##ightly
novel
##ender
centre
gothic
defic
explain
involve
june
exercise
angeles
##gu
##ieval
194
register
produce
medieval
matters
competition
surrounding
relevant
goal
guar
audits
congressional
pleasant
ultim
entertainment
speech
aust
franc
peak
command
##enses
chapel
medicare
substant
jane
##nam
waste
carri
helping
reduction
merch
virt
bath
##lig
##bon
##ald
liked
bob
organizational
advice
coverage
wid
##cket
##soft
biggest
opportunities
corporate
degree
microsoft
iron
##oking
compon
easier
apr
block
girls
drinking
painting
fifty
noticed
founded
positive
concerns
familiar
fighting
era
por
rang
van
##dp
##gd
##house
enh
##erved
fear
strug
editor
circum
gradu
guarant
amp
bou
lines
##equ
##sid
##oned
haw
sept
leaving
##ifying
strength
marriage
cafe
retail
engineering
dublin
fan
gain
##verse
sem
log
boil
indeed
vehic
firms
gotten
differences
kinds
skills
announ
freed
fortun
holly
santa
cab
mcc
rough
##ein
##cra
veget
elig
caused
territ
requirement
reviews
double
ton
##pa
asking
aspect
aftern
speaking
leader
snow
spectac
24
cart
gh
##reh
inqu
##ession
##raid
mac
resident
boys
decide
highly
inspect
restored
portug
irish
honor
gallery
hyp
january
sam
song
tall
##uous
##orters
shut
invent
supply
transfer
glad
surprised
primary
magazine
ol
vice
##ero
shad
weight
lif
faith
##ension
realize
stret
skin
trial
issued
changing
moral
manager
massive
breath
gift
gdp
scient
##inal
frame
buying
academ
jamaica
##ugh
tools
online
chic
##iving
finding
handle
confir
tests
irs
illust
cio
##iy
##eries
plain
otherwise
fourth
returned
perfectly
female
guidance
constitution
##era
forget
##ched
193
depends
artists
measures
counter
determined
challenges
william
gather
##iro
##ulated
outc
192
lawn
numerous
raise
topic
facilities
football
apartment
april
##oti
##othing
##oked
perman
relatively
believes
developing
##insky
regardless
attempt
citizens
hors
rub
##af
##ctions
heat
carter
consult
##eyer
arrived
border
sorry
swimming
vast
reve
##endish
roof
reduced
players
leads
##place
contributions
options
corporation
tap
##ding
##tom
##ett
whom
shel
dece
unique
pointed
factor
##idden
windows
silver
previous
suprem
apparently
sunday
dedicated
cup
dry
hat
sar
##uk
##emeyer
seek
carved
direction
profit
merc
figures
argument
screen
victor
nodded
row
##rate
somewhere
contain
finished
models
explan
selling
maintain
surrounded
efficient
title
herself
spirit
cavendish
vandemeyer
##anch
##tery
scand
##akers
afraid
flight
productivity
hundreds
democrats
bat
kar
users
2002
responsibilities
##pective
malays
##incol
unfortunately
circumst
tree
waters
##com
##ells
##unk
imper
##agon
twice
schol
slaves
instance
explained
younger
consistent
gamb
lic
mile
##ev
##oo
tea
owned
details
shrine
fairly
suddenly
##incoln
lincoln
mouth
pia
##adel
amend
contemp
overs
throw
monaster
highest
application
rome
##amble
chem
##apt
1990
edin
movement
elements
slowly
proceed
##using
unable
agric
coal
symp
advis
satur
##ancing
encourage
magnific
conversation
horses
edinburgh
fgd
##itness
hadn
worksh
decline
distance
telling
innov
impressive
afternoon
agricult
iv
forms
##thia
compreh
grown
madeira
basically
conclud
cuts
negoti
communication
dropped
##ught
dyn
jump
length
nav
rat
##atically
manner
compr
brad
interests
operating
improvement
copy
selection
incentives
##hi
pray
content
mob
facility
jews
eighty
leadership
mentioned
cynthia
piazz
##hab
##ini
##inger
recip
consequ
seat
##pping
lakes
planned
techniques
roads
russian
conducted
buddh
fal
furn
gal
lond
task
##bal
##ette
##ulous
quant
##ront
driving
archae
hen
native
pm
##lies
##nel
ship
chann
aband
hasn
loan
provid
runs
statues
physical
300
ber
bound
##ardship
entered
balance
eleg
honest
secretary
photograph
hollywood
hun
mond
##ais
##ford
##ita
queen
owners
emphas
letters
stake
amazing
freedom
esc
kitch
thom
##erly
##arian
worried
meat
enem
resorts
marble
museums
agreement
addressed
attractions
principles
##ription
aliens
vacation
london
egg
mc
##nic
##well
##stein
neat
tru
##ishing
speed
volunte
aim
bars
kent
conqu
carried
guns
video
september
gay
rena
##pie
##ari
alive
fraud
orient
clothing
reductions
approxim
reasonable
discovered
fixed
gonna
##rence
##alia
##itation
##aming
dole
mechan
scene
explore
steel
appeared
alex
bure
##do
##ston
whe
wearing
tours
patient
churches
calm
drop
male
ox
sister
tenn
reag
hearing
hero
presence
governments
##phere
landscape
harm
kingdom
strategies
hindu
ice
nurs
##off
shape
resist
boats
scott
subsid
oblig
advent
communities
damage
shook
spectacular
renn
monica
owner
putting
barg
improved
managed
##holders
tor
##ico
becoming
intel
dism
##encies
##issance
strate
helps
holding
picked
uncert
challenge
##iture
##ida
adequ
##gry
disag
##aked
hardly
employment
harbor
illeg
learning
teams
message
obvious
adopted
gentle
renaissance
strategy
fill
va
##ares
##umes
maxim
placed
##ishment
technologies
processing
extent
possibly
dish
wil
##gen
##itors
loved
divers
awful
negative
initiatives
obviously
##east
##ii
onto
stage
offering
scot
scale
sections
broke
britain
silent
memor
fellow
pressure
documents
initiative
splend
rennie
ot
ought
##oved
##eration
##orary
##enth
##ulate
smiled
charles
meetings
focused
loud
flowers
supreme
27
gross
##gment
forest
ash
proud
plus
##aret
##owned
fired
smart
join
defined
approved
option
neighb
random
ba
bod
##lers
##bit
##aled
strict
collections
computers
urban
reliability
electricity
symbol
magnificent
bureau
dow
ky
tel
##ville
##icip
alloc
enforce
click
remaining
provisions
publish
visited
##ashed
weekend
criteria
christmas
debate
##heim
russia
fascinating
##time
##road
fees
pover
wars
defend
increases
reviewed
historic
newspaper
applied
bust
ny
pound
sather
notes
sharing
##iza
centers
consumption
trail
elimin
approval
supported
experienced
unlike
bond
gri
saved
195
confidence
classical
advertising
occasion
piazza
truly
dust
##irts
##iment
leather
leaves
loans
howard
##igned
edge
effectiveness
religion
safety
napole
pyr
##here
##cel
atmos
anybody
##anged
governor
empty
terror
salt
magic
friendly
sharp
lewinsky
nom
##oto
##alls
fee
launch
1994
belief
parks
limits
horrible
attractive
columns
poverty
atmosphere
fool
##ober
plat
expend
diss
##others
instruct
reality
skies
advance
transform
covers
calcul
soldiers
crowd
litig
bottom
october
eligible
outcomes
26
witness
##gl
##hen
##cceed
forb
succeed
laid
effectively
trading
departments
typically
egyptian
purposes
##umptions
observed
proposal
pill
sult
sufficient
sov
prime
carp
syn
obt
obtain
recognize
lucky
chicago
fant
mas
##stand
webs
append
cris
happening
audience
portion
absor
replace
customer
rapid
connection
purchase
decorated
assumed
teleph
fab
sides
##water
##eling
suit
attend
belong
privacy
penal
superv
festival
forgot
circumstances
kentuck
ath
os
##zant
##erate
##ola
atl
likes
byzant
expos
assumptions
statewide
orders
distribution
kenned
permanent
gates
##pm
##wards
##kn
##zar
league
mah
plaza
overse
crus
##lets
organized
fewer
##what
villages
victims
motiv
essential
##craft
80
##iance
storm
##sey
contained
acid
protest
represented
implemented
independence
creating
bau
cats
dim
nic
oce
##lines
reject
##ellig
reput
phase
carefully
delight
emot
percentage
professor
specifically
detailed
animal
indiana
criminal
scholars
elegant
intellect
ped
upper
wing
##head
##za
##zed
shock
##elling
arms
cliff
partners
carol
##actions
formal
wooden
penins
rebu
pilgr
monday
fields
mut
##elve
conven
plays
active
everywhere
poison
richard
customers
democratic
incorpor
interpret
eating
penn
rum
##aly
somewhat
##cco
depos
readers
functions
sexual
literature
treasury
scandal
peninsula
2a
bunch
fit
aside
myst
##agas
recover
##acing
assume
ends
detect
beauty
catholic
package
materials
contrast
dig
gang
champ
##ateau
resol
bigger
allows
missed
##while
hole
silence
solution
experts
mexico
pulled
bout
gau
##ext
##ls
hey
clin
teen
bright
remind
lawrence
courty
valid
distinct
supporting
facade
15th
motor
closer
appreciate
hire
kos
pig
pier
sab
##iation
##ses
##rig
##ket
whitting
spok
dise
guil
smith
directors
opening
cutting
amounts
fortress
birds
arrange
manufactur
stewardship
scotland
napoleon
31
##yl
##ilit
becomes
intellig
showing
realized
confident
describes
selected
institute
philos
elderly
iraq
oversight
ferry
##orter
##uts
##ading
chronic
##antly
##ria
grants
overlo
regional
protected
representatives
grounds
expectations
replaced
frequently
surpluses
appendix
whittington
code
ww
##jack
chose
gods
sole
subsequ
slightly
##ugged
visiting
explor
stuck
auditor
significantly
definition
ordered
fuel
efficiency
nix
rh
riding
sale
##han
thick
bear
doors
joined
cave
continues
iii
madrid
peaceful
ignored
schedul
guidel
consumer
tickets
ocean
##ike
##now
##itals
sew
##aka
vision
delay
journey
displays
submitted
decrease
comprehensive
guilty
escape
fo
##ties
##itan
spr
appoint
larg
revol
tells
devoted
appears
scenes
accomplish
duty
ibiza
taste
conflict
approximately
23
70
cere
soph
##aling
compens
coord
##aker
columb
decades
relief
improving
opera
##employ
buried
crazy
crafts
kil
##la
##greg
##entially
##imp
conver
truck
artist
possibility
teacher
medicine
alien
sculpture
splendid
90
cell
cable
dance
ring
##ura
##uration
writ
reducing
##ifications
yester
delivered
paul
typical
recommended
transportation
largely
bin
fought
vren
##gs
##rees
proven
##erson
spons
mans
##ached
moon
decade
concert
allowances
exclus
turning
bird
replied
structures
expressed
climb
sample
illegal
nixon
yesterday
vrenna
jim
tub
excess
nox
arc
coop
crimes
committed
background
tourism
ideal
stup
failure
claimed
conservative
comfortable
imperial
saturday
kennedy
##cas
forever
clar
unemploy
implic
191
accident
attrib
spec
1993
temper
presidential
listed
##box
improvements
necessarily
applications
institution
troops
virginia
territory
bradley
uncertain
##oty
##illy
stars
alf
resource
brill
brick
politicians
measured
previously
fifteen
sultan
reputation
hide
kings
tig
##uces
whis
##rose
sport
expenses
feature
twelve
##acts
poland
assert
artif
retrof
marked
facts
signs
aircraft
millions
understood
positions
suggests
applicable
dogs
candidates
welcome
dangerous
eag
##dy
##icing
##lying
stamp
##asty
upset
reporters
gray
preamble
calling
slim
affairs
turns
johnson
##book
domin
achieved
surprise
weapon
newspapers
crisis
bull
losing
nations
sick
##sa
##icious
nep
##isted
enth
##agger
dial
scar
1992
plane
admitted
primarily
sensitive
bomb
bronze
2010
dramatic
chemical
ack
ble
lord
##edy
##icial
forty
##amber
shoes
ages
coach
convin
##kyo
expression
voting
restrictions
giant
muslim
residential
intellectual
33
caves
dating
peter
##life
tokyo
input
##otes
##ulations
##usi
surf
discr
waterf
officers
choices
punishment
released
commitment
boulev
hawai
guidelines
##ship
desire
transition
folks
minimum
acknow
ug
viet
##bar
##bel
##my
##enance
anse
shaped
##racy
##outs
pride
reference
normally
banks
pleasure
wealthy
increasingly
liberal
ottom
exposure
fer
ire
tired
##right
##rors
##stairs
stations
chat
chain
unkn
##aging
context
extensive
investments
officer
steep
regulation
styles
division
germany
##exp
franklin
thomas
push
##rations
##ingu
stared
##osen
trend
upd
recyc
blade
greatly
jones
merely
jewel
consideration
divor
avoided
settlement
colorado
occurred
dates
fro
gif
vary
##pes
##bi
##ona
##abilities
##ella
##ivals
poet
recall
monit
depress
ruins
stream
surely
##ruction
sugar
holds
image
memory
uncle
##going
administrative
cod
cous
dar
om
pages
sulf
tab
vent
youth
##raw
knock
clo
complic
tail
seeking
serves
monet
basket
portra
summary
teaching
repeated
satisf
malaysia
pyram
unknown
##20
highway
helpful
ski
classes
14th
surprising
carrying
hunting
odd
scenario
francis
abandoned
29
gor
nile
tons
##fa
##uable
##inent
stair
chest
knowing
unus
quit
raising
rising
brain
turk
baseball
daniel
aspects
tennis
ireland
barely
cried
mig
pond
thor
##eland
##essed
##arts
attest
##ologists
entry
signed
testim
projected
participate
flood
turkey
competitive
convention
principle
maryland
latest
category
gambling
telephone
dream
##gers
##zone
##rian
interim
buff
visibility
estate
minister
feels
natalia
facing
victory
attacks
exhibits
mistake
chairman
global
begun
shadow
carolina
fans
hated
kir
inner
anton
lift
so2
contro
colors
##ogue
smoke
careful
bills
breed
settled
relationships
venet
sadd
ultimately
december
monastery
henry
nursing
fda
vul
##iber
##aven
##fri
##fast
##ki
##ja
##adium
febr
accomm
recon
legend
flag
heads
treated
broken
sixty
sentence
sweet
survive
earthqu
candidate
##works
muslims
islamic
tonight
soviet
february
accommod
cer
cycle
pure
taught
##wan
shared
serving
assass
evolution
flower
writer
investors
staying
drawn
ceiling
participation
##ography
ordinary
cooking
doctors
masterpie
accompan
railway
reagan
00
kr
pad
veter
##aver
##case
##ya
##zing
thin
##inem
##ania
asian
dozen
output
user
##aken
subt
equally
volcan
constructed
accuracy
substantial
explanation
disagree
cu
cig
ec
lately
math
rare
ramp
tone
wore
##point
##how
##encing
##icked
persons
perspective
corps
emission
countryside
keeps
grace
switch
exciting
creation
elected
palest
contribution
mercury
providers
bauer
fount
jail
asia
conce
friday
abortion
lee
lev
nowhere
blow
thoughts
johnny
elsewhere
falling
teachers
##ographic
hijack
voters
begins
adults
artifacts
controvers
element
##pan
##bles
toxic
stable
alle
ships
chateau
exceed
lovely
incred
##ints
preserved
personnel
##ternal
anticip
argue
embra
celebrated
installation
sacred
sacrif
channel
courtyard
ottoman
dens
gp
theat
##ano
##itative
stadium
##semb
fruit
sust
studied
charming
corp
##bey
collected
##ructure
requests
fresco
##ipping
expanded
beside
stretch
kyoto
##standing
disease
75
bork
core
pair
yell
##nn
##anes
stead
prohib
prosec
reserv
##iform
earned
##resp
cheaper
admit
towers
characters
maintenance
prepare
articles
communications
innoc
categories
www
stupid
28
dining
derry
les
ozone
##bby
##12
prove
outl
faced
depending
visits
improper
20th
drag
involving
experiences
winds
remembered
approaches
ridic
documentation
borrow
situations
conclusion
pink
rarely
##itures
worship
whenever
elabor
cazar
economics
transl
divided
superb
clubs
accurate
altar
downt
sulfur
bol
erect
reward
##che
shif
##istan
fault
brings
finn
considering
tested
practical
judges
combination
sculptures
reliable
scottish
enforcement
ugly
turkish
fost
hidden
tent
##rates
monuments
asset
finds
parli
handed
auditing
prompt
accordance
##aimed
##annon
declared
degrees
florida
consequences
furniture
philosoph
dol
##hor
##rast
##arm
rein
ham
outdo
carib
blame
phr
valuable
responses
copies
ticket
thorough
400
ae
aer
rice
tan
vs
wages
##erning
toba
##asion
##eline
##anta
outcome
disney
consol
removed
subur
visible
instances
player
seriously
privile
infrast
facilit
traveled
solid
educational
implementing
principal
linked
latter
remarkable
disappoint
framework
kosov
enthusi
torn
##met
##zes
##isms
##imination
frag
plastic
##quar
enorm
usual
worker
gran
relative
disclos
instru
charged
analyses
blacks
judgment
priority
announced
stakeholders
boulevard
instruments
cet
##rich
inhab
##stream
##esty
##estone
##orted
lean
uniform
blank
parent
driven
ruled
films
rocks
breakfast
strike
characteristics
tombs
dutch
cuba
vehicle
agricultural
website
writers
parliament
32
gagas
kath
mental
sought
##rants
##rane
##inations
##ota
##stal
stab
shift
mak
buchan
accused
pocket
desk
guided
finest
##uese
harder
financing
elections
electron
palazz
authent
treaty
arrive
crowds
folk
conclusions
african
powers
portuguese
tobacco
hud
pitch
ske
##coming
aggress
residence
faces
smile
basil
mainly
promise
description
traveling
13th
indicate
galleries
encouraged
sleeping
comparison
colonial
mccain
amendment
avenue
boss
fena
hung
trop
##pay
##gar
##orrow
albert
explo
scope
finish
causes
publication
charges
affair
musee
enjo
healthy
150
attraction
destination
bringing
error
combined
latin
situated
components
archaeological
byzantine
testimony
##ranean
35
dome
##eing
##hal
##oma
##chal
shore
shirt
deem
sum
##istical
branch
##ipa
smo
traum
capable
weekly
sanct
nonp
suspect
contribute
pollut
bedroom
adopt
capture
besides
cabin
adequate
expenditures
penalty
buchanan
jac
lor
angry
##thy
withd
meal
map
lock
expense
disaster
strang
annually
harv
stepped
describe
examine
legislative
dorcas
##burg
regularly
tomorrow
patterns
enhance
struggle
36
bost
kl
rely
##oir
##hs
##omed
##owed
##imate
lively
##ante
leon
nov
##arel
indians
shoulder
1990s
concerning
operation
##board
addresses
examination
links
cruise
investigation
inventory
buddhist
authentic
boston
aci
pc
pir
tin
wage
##rad
anth
##ird
chamber
gop
orn
##ushing
##anda
recru
ours
monarch
presc
corrupt
cheer
excited
classic
listening
successfully
eleph
holiday
democracy
sandy
exhibit
frequent
bags
alfred
gpra
cios
cnn
fert
lam
lind
ment
pin
rams
tues
##fo
##ato
reven
##iguration
orange
quiz
##aks
attitude
writes
retired
sets
headed
northwest
promot
universal
violent
michel
crowded
climate
split
weakness
ethnic
infrastructure
smooth
dun
jord
kore
inland
canal
spin
plot
compare
##ensions
cairo
trips
##hips
explains
objects
answered
denied
festivals
minority
kitchen
vietnam
rational
ze
##ipt
##ads
heaven
exemp
nove
##angel
metal
puts
controlled
resulted
generations
sunset
12th
images
malay
mosa
israeli
survived
africa
scientific
unemployment
monitoring
cinem
gains
wet
##uze
forum
alb
##illes
noise
faa
warri
mediter
triump
advanced
continuing
achieving
settle
appearance
panel
examined
indicated
physicians
inspired
engagement
immigration
puert
carrier
dynasty
cousin
november
ain
bos
##uge
tool
ongoing
stark
##urally
##aders
abbey
prud
spa
##ques
unw
reserve
##ansas
impe
apparel
cock
smoking
stress
parad
locations
farther
performing
performances
formed
visitor
funchal
mailers
morris
receipt
apartments
quietly
terrace
karf
memorial
bodies
attestation
vulner
mediterranean
na
pine
rene
wound
##har
thurs
##oupe
##ici
stroll
assemb
##adays
height
hast
manual
##ouses
nowadays
mayor
supplement
marks
musical
securities
opposed
winning
researchers
administer
periods
existence
architectural
opinions
permit
prosper
wednes
boilerm
unusual
figh
nur
rode
zero
##lor
##the
##cipl
conscious
assumption
joy
blind
caf
##eared
allowing
promote
romans
requested
fifth
establishing
declined
hospitals
administrator
release
introduced
recipients
litigation
compensation
ak
fiction
pit
pont
roles
tu
##oque
##cast
##comm
##urd
alleg
neck
exists
##enda
uncon
imposing
scary
souven
curious
raj
managing
pottery
recorded
casual
venice
machines
installed
##oxide
astron
renov
concluded
wheel
diversity
600
bench
cant
nuc
rig
##inian
##ingly
##ifies
joint
missing
statistics
romantic
epis
optim
committees
danger
platform
species
basketball
frescoes
souvenir
nucle
jose
##iant
##oli
##thouse
##tering
fran
trick
emer
graph
##idding
##attle
demands
contracts
substance
drawing
ignore
discovery
hanging
captured
scenarios
professionals
laughed
hypoth
ramses
jordan
bour
dull
hug
hired
pent
pace
sits
vital
##ko
##kins
haz
asc
shil
proved
weird
exotic
scared
invasion
extended
walks
excuse
southwest
protoc
operate
topics
represents
awards
iran
entering
encoun
acceptable
diving
premature
component
strugg
volunteer
occasionally
complicated
tuesday
ax
cy
cyc
hes
jr
lined
rod
wise
##acc
##uff
##bell
##bour
stairs
habit
chamb
orch
##opes
canc
sheep
##agn
roc
lav
informed
plano
valuation
charl
resulting
portray
eleven
1980s
maintained
strip
juan
hersheim
heavily
buddha
magazines
suffered
bowl
relaxed
groc
burned
defeat
enormous
hersheimmer
bible
tip
tape
##iated
##gate
##omach
gosh
##usion
aggreg
highlight
##ception
feelings
greuze
##engers
accessible
coastline
falls
motion
colorful
riders
evaluate
vegetables
downtown
aege
kosovo
45
##ros
weigh
chick
tran
discipl
requiring
landsc
189
##like
identity
addressing
prince
similarly
femin
unlikely
criminals
alexander
kentucky
pilgrims
nepal
jewelry
shiloh
aegean
nerv
##iot
##keep
upstairs
somehow
yours
everyday
assurance
employers
passengers
statistical
receiving
nonf
dressed
farmers
jackson
satisfact
implications
consolid
dil
ow
pund
rac
vine
thri
shout
##osition
imposed
dioxide
repair
remove
trained
evil
corresp
baroque
involves
figured
housed
dealing
georg
commerce
editorial
contemporary
acknowled
cuis
yellow
elaborate
correspond
dir
elev
file
faster
gig
lying
rival
sna
##lv
##cr
##itage
isol
##uls
##oured
locked
theme
##agues
boom
boards
##aki
regions
supplies
prize
barri
productive
exclud
palais
limestone
pleased
grande
answers
handsome
errors
killing
analyst
widely
earthquake
erected
hou
lu
pushed
##bra
##esque
##rep
##uting
forec
dear
chosen
##aine
pla
diverse
##ubs
modest
simpl
metric
humans
economists
taxi
northeast
nato
salary
granted
##awa
victim
ladin
preferred
praise
roughly
neighbors
obtained
subsequent
gifts
ceram
diction
jur
sel
##oly
##ij
##wa
##bound
threw
##stone
shell
##illing
canada
##apes
outs
myster
useless
tech
pope
directed
swing
lands
cream
seconds
pacif
representative
burning
encl
referred
multi
reforms
greece
##rupted
integrity
pilot
adjustment
consumers
constantly
oriented
dismiss
55
aven
dame
mit
ine
##itated
##isters
beer
##amental
external
##istent
##abled
##une
ads
unre
myth
resem
heritage
##ensus
mini
personally
employed
drivers
hoping
conservatives
interpretation
mystery
divorce
venetian
theatre
cos
fing
gained
ram
till
wolf
##attered
##organ
##utory
nose
##iva
offset
##ipe
partner
acting
indig
guadel
lessons
supports
swung
constra
employer
severe
passing
187
authors
murd
creative
closely
seventy
ridiculous
wednesday
dirty
dre
dancing
luc
tas
##don
##iors
##esis
##oms
unified
expans
grade
distingu
waited
authorized
deficit
merchant
inquir
enemy
forgotten
palazzo
tropical
bread
jazz
nit
naz
ros
##iate
##erable
##ales
##ician
##vered
shannon
guides
secure
studying
captain
starts
admir
statutory
breaking
solic
destruction
determining
objective
properly
alternatives
impression
mexican
luxury
defeated
sewing
sophistic
recycling
astronom
chambers
guadeloupe
93
bic
fel
nich
pag
rit
sights
vin
thro
##cher
crown
desper
throne
soul
designs
designated
##bean
transactions
prototy
passage
equival
##whel
recognition
duke
sculpted
mandatory
portugal
fabric
converted
cigaret
nonprof
aic
dict
lion
mothers
nipa
tight
##lied
##lights
##gage
##eds
##asm
hamm
##irm
proph
liqu
##usc
##uns
sail
commod
##lands
medica
transm
summar
filed
argued
proposals
lewis
ninet
virtually
vehicles
innovative
spoken
explorer
puerto
houston
bern
cater
ron
##eas
##days
##pit
##oons
##tan
##bul
##xual
##inate
ate
noble
190
cents
carbon
refuge
factory
fundamental
grab
agreements
paperwork
acquired
etc
boris
immigrants
earnings
confirmed
hawaii
innocent
renew
medicaid
az
gap
wow
##aa
##aust
##uits
##vings
##inos
##isk
##isely
##isons
stomach
wash
##essions
##ache
relating
struck
warning
talks
palaces
projections
dealers
##arrass
popularity
connected
neglect
voted
drove
fulf
bombing
ibm
concentration
involvement
austral
pounds
manufacturers
portrait
aicpa
800
horn
rust
sons
##iently
##rument
##war
##any
##alf
##olis
##ardo
newly
crash
pools
trails
##under
instrument
retreat
edition
delic
covering
campus
##lessly
oppon
mainland
significance
wondered
coastal
considerable
returns
attacked
embarrass
measurement
recommendation
opposition
qualified
advocates
ninety
ultimate
spiritual
false
enemies
supervis
caribbean
phrase
##quarters
basilica
thursday
ritual
37
auction
bare
cot
cum
ly
lod
wt
##born
##ka
##oration
stor
##ima
sees
##ums
##okes
diam
boost
##licit
smell
##icted
provision
belt
courses
handling
define
simon
beneath
taxpay
apolog
authorities
focuses
maintaining
corporations
damaged
permitted
purchased
integrated
martinique
deficits
guarantee
95
dies
dup
finger
##night
##fl
sha
conj
seas
##udes
trends
##00s
actor
assigned
editors
deliber
skill
airport
patri
profits
palm
blocks
deaths
difficulty
beds
speaker
shrines
supposedly
hiking
confirm
shelter
comprom
rapidly
discrimination
pyramid
##friend
trauma
impeach
fcc
pays
##ias
##rent
##rating
##va
##areness
##amm
cans
outstanding
overwhel
recre
monitor
provin
delhi
profile
terrif
hitler
surplus
academic
resistance
boutiques
nuclear
##mir
##ester
##orious
##olitan
abroad
donations
enact
##aux
preced
polish
flour
subsc
clever
trials
deter
headquarters
certification
##boys
craw
hillary
balanced
influenced
striking
##riptions
substit
extreme
collabor
strictly
rejected
42
ls
ligh
lag
pupp
tie
tied
##ih
##zo
inev
##idays
stry
hav
##roph
alab
##thod
doz
knife
##agraph
acts
monop
remote
presents
genu
adding
surg
produc
entit
viewed
villa
awareness
enterpr
illin
methodology
assistant
rocky
subjects
assessing
1989
jersey
arrested
ensuring
procedure
flying
prospect
swords
carriers
athlet
rebuilt
intelligence
antonio
foster
strychn
illinois
39
hub
##trol
beard
reign
react
anc
suic
lips
agenda
prepar
guests
monte
schem
flav
weekends
greet
promised
hoped
solutions
absence
reaching
networks
strongly
mandates
garb
verd
injured
constitutional
maximum
protocols
strychnine
dat
hars
wol
##aff
##mother
##makers
toler
##isan
##ican
stim
##rogen
notre
##ulating
proof
fright
##ello
unne
incident
exposed
reprod
disg
pregn
##load
##lock
##acle
undert
legit
decent
slaver
retain
reader
metrop
excurs
nights
statute
identifying
discusses
crack
traditionally
settings
superior
boxes
responded
picturesque
lifet
ratio
fantastic
uncertainty
staircase
satisfaction
nonprofit
##thodox
slavery
fancy
gulf
oak
piz
##orca
inher
##ashing
reaction
stan
stones
shirts
##eller
loy
indo
poly
planet
milk
stops
ceo
travelers
poorly
seaf
languages
initially
banned
sweep
institutions
treasures
injuries
christianity
quarterback
mixed
derived
license
atlanta
delightful
masterpiece
aerob
48
99
fond
mild
##rest
##wr
##ui
##ala
##rete
shade
abc
yep
spare
##aches
moor
mons
discoura
letting
monthly
fallen
beautifully
attempts
extraord
complaint
sevent
kirby
density
outdoor
disclosure
nurse
dying
fate
pp
##field
##inity
##atures
##orous
toph
##idable
worn
intent
meanwhile
paragraph
badly
driver
terminal
##liers
steven
dominated
turks
1980
romanesque
reflected
displayed
journalists
fashionable
discounts
occasional
occupied
sympath
emphasis
cliffs
veterans
hastings
viney
fingers
cotton
wtp
topham
ari
rivers
ted
tut
tables
yield
##hem
##bc
##char
##rapped
libert
agents
##agers
reconst
cares
carvings
marvel
childhood
publications
allowance
patron
landmark
passion
armed
customs
util
broadcast
observation
##related
globe
rolling
cowboys
macau
lifesty
convinced
unnecess
34
crop
hatch
wines
yach
##ll
##10
reorgan
stal
anx
##oda
prest
##ems
compound
explicit
commem
mood
moderate
tale
revised
confused
economically
southeast
behalf
marketing
christians
assessments
circus
unfair
attempted
installations
rapier
crucial
paths
camera
adjusted
homeland
touched
sticks
retailers
victorian
bauerstein
prosecut
franco
chicken
dozens
cott
ceter
dot
fbi
gest
rico
ts
wave
##lah
##pir
##fare
##vas
##atoes
##oning
##enberg
notable
comedy
##usted
##unning
invo
##athers
fled
obsc
depth
margin
edward
transaction
186
oklah
fisherm
inflation
referral
woods
checked
soldier
illness
indicates
utter
reflects
priorities
celebrate
impressed
exhibition
injury
automated
suffering
targets
ghost
mobile
carpet
inhabit
ornate
exempt
prosperity
cage
kel
lin
pitt
vend
wan
##vre
##jo
##alo
##asant
##owing
whip
chin
soil
ark
intention
whereas
traged
acres
flaw
slave
1991
coron
directions
2020
discussions
princess
recording
circle
campaigns
quarters
establishment
babies
contrary
expertise
demonstration
assuming
florence
inspir
dramatically
suspic
graduate
songs
gathered
eliminate
columbus
concerts
francisco
fountain
steady
philosophy
facilitate
01
crew
cfo
lau
mwe
riv
tack
vic
zoo
##vin
##inter
##rets
inject
##omo
##stit
anger
##mental
suitable
##opher
adapt
comply
##ignment
##ocaust
warn
handled
phara
availability
stephen
wondering
membership
historically
holocaust
cataly
crose
photo
treasure
demonstrate
advertise
counseling
bargain
bonds
surface
chatter
triumph
pacific
tasks
aerobics
65
dirt
fet
fox
hm
##rome
##uel
##alle
##urning
##olta
suits
unim
quint
legs
reluct
invited
phen
locals
refuse
barnes
ruling
descend
esp
silk
balcon
civilization
modeling
references
drinks
arrest
exception
evaluated
1970s
borders
neighborhoods
dependent
inspection
granite
cuisine
44
bib
mun
tends
vba
##liss
##bre
theories
##ouri
##eled
##idency
##olished
shiva
prol
sequ
spo
sailing
usa
dipl
##osexual
accum
afgh
moors
preserv
spear
ohio
obst
caps
##ologist
marry
simulation
engaged
heading
serb
temporary
admission
passes
naturally
satell
120
colleagues
expecting
polls
appropriations
appeals
engineer
engineers
camer
bottle
jeff
jeans
incentive
porch
fortune
advisory
springs
retrofits
cete
joseph
harsh
lifetime
loyal
commemor
98
bart
mud
tort
##laimed
##pread
therap
##ora
##oul
##ador
procl
##uscan
##istry
sauce
##acks
bund
score
colony
thrown
smallest
publicly
refres
tripp
excav
musc
traditions
horror
worthy
argues
snork
madonna
alike
affects
evaluations
integration
tapest
agriculture
pierre
mathem
withdraw
nineteen
49
kle
lis
nar
naked
pap
pav
pushing
rating
sending
##taining
##ym
##mar
##oric
##elle
stained
##cho
##olo
notion
conrad
##illa
cha
##oped
socc
impose
intake
overcome
brothers
precious
attached
suppliers
##ressed
farming
format
2005
exploring
generated
experiment
cultures
representing
enjoyable
dealt
attracted
credibility
contractor
arranged
utility
scrut
mortgage
submit
decreased
meaningful
challenging
precisely
tribes
worksharing
convenient
scheduled
alleged
sophisticated
datab
oklahoma
soccer
faint
ms
nh
nas
nick
pork
sorts
wool
##iat
##his
##vic
##ker
##ongh
tok
bears
stro
##olate
nema
deals
orthodox
butter
envelop
clou
moreover
workforce
##asso
shoulders
capita
elastic
##ribly
imported
milan
reviewing
sixth
rulers
identical
failures
acceptance
demanded
nonex
drawings
essentially
literally
1960s
interviews
demonstrated
premium
introduction
engagements
concentrations
puzz
aimed
osaka
##angelo
pentagon
grocery
suicide
61
pist
rot
rib
##lord
##oe
##bled
##mand
##inction
##esth
##orse
##ching
##imm
worsh
unh
comptrol
themes
grin
twin
brut
deserve
##iana
attended
persu
slight
lasted
sinai
hardware
concrete
crete
hook
files
balear
regarded
holidays
##onym
deeply
##sylv
gateway
homeless
losses
hindus
crystal
repeat
bathroom
academy
prayer
eggs
pennsylv
kilomet
pollutants
analysts
ceramics
dictionary
nitrogen
inhabitants
comptroller
cree
cited
duck
oly
pale
##pers
##ga
##rison
inches
##eld
hamp
forests
shog
neut
loves
resolution
script
##irect
highlights
evol
visa
producing
instinct
personality
airlines
racial
classification
currency
lowest
steam
execution
hopes
measuring
antiques
competing
device
obser
bayliss
crossed
mandate
flexible
achievement
immediate
distributed
matching
limitations
fatal
peaks
guaranteed
announce
proceedings
jumped
escaped
bustling
pedest
exclusive
brilliant
conventional
jacob
prudie
assembly
boilermakers
expansion
moorish
diplom
67
kash
ry
xv
##down
##iable
##tes
##gal
##ault
##aire
##rical
##fish
##mond
##isite
##sters
##olly
##ader
gov
abra
abund
leaf
##ieur
##endous
timely
incur
actors
invaded
joke
evident
flash
owns
warned
warrant
produces
##ugawa
talent
returning
restoration
salv
questioned
industries
solve
absurd
princes
failing
jungle
physically
bike
fleet
disappeared
industrialist
pursu
merchants
navy
adventure
sponsored
poetry
volcanic
sacrifice
michelangelo
aggregate
throat
impeachment
extraordinary
pennsylvania
olymp
kashmir
aqu
dances
hc
hates
honey
pension
rush
ties
vig
##pered
##vy
##imental
shorter
frust
##abeth
##uman
pron
##cia
outer
unexp
aged
##izabeth
scout
ourselves
buses
parc
elizabeth
mines
refers
charm
demon
easter
lesson
##ounced
arches
summit
calend
volumes
merit
irre
179
bitter
suggestions
fails
11th
contributed
norman
germans
casa
connections
purchases
investigations
expanding
predicted
variation
territories
tapes
fantas
overseas
mansion
evolutionary
anticipated
revenues
weaknesses
genuine
surgery
garbage
tragedy
hcfa
700
bang
baza
dur
dumb
ease
hip
pump
waves
zone
##rous
##bits
##ederal
proc
severn
##udi
trump
tact
moham
tracks
string
joe
##ocr
payroll
distract
communist
dawn
accountable
classified
188
paused
listened
prominent
##pson
shortly
davis
catal
packed
legislature
sensit
complain
applies
voluntary
hello
wedding
boiler
honorable
amendments
launched
succeeded
solely
schedules
monetary
satisfied
aggressive
zeal
tokugawa
38
77
cem
kiss
pak
tong
tang
wag
##hand
##ras
##mony
##anas
lobby
clut
univer
perth
que
offs
monks
barb
barry
missile
profitable
singer
armor
hillside
basement
##lusion
arrival
planted
fashioned
literary
prisoner
remarked
renowned
textile
depicting
institutional
eager
surprisingly
controversial
electronics
emerged
nervous
subscrib
lifestyle
unnecessary
chatterbox
universe
dwell
ger
lan
nave
races
vet
xiv
##itudes
stalls
shame
seats
##geous
alliance
interven
apple
##look
wanting
marg
caes
##ugs
worldwide
drunk
ruined
populations
proportion
beneficial
sectors
reasonably
promen
sounded
hearings
ranking
panels
districts
wildlife
encouraging
sadly
hosts
jean
suffer
luxur
feedback
transferred
scientists
atlantic
appointed
ceremony
depression
skept
diamond
ancest
catalyst
afghan
mohammed
bh
bast
bree
ging
gord
gender
han
hond
pose
rushed
wis
##ture
##gic
##rick
inexp
istan
bearing
##child
##iga
##amic
##add
fred
##uset
outlook
whatso
tai
contest
##achuset
colored
##active
##iano
backed
slopes
insur
priests
posted
technological
affirm
extend
wake
175
texan
couples
bald
professors
difficulties
circular
checks
godd
straw
massachuset
consistently
threatened
sampling
monumental
luxor
criticism
incorrect
inspector
revealed
allocation
beliefs
emotional
intelligent
waterfront
pirates
murdered
pizza
monsieur
prestig
pharaoh
unexpected
whatsoever
41
bold
bapt
cbo
mol
vivid
wand
##lined
##bl
##ider
hect
##illo
exit
##umin
spark
spots
clust
trim
##ishes
aging
boots
mock
trav
costly
##ails
##resses
visual
transpar
trem
generate
filing
antique
civilian
devices
painter
lacks
focusing
evaluating
versa
casino
crops
climbing
photos
aston
suspected
symptom
subsidy
dishes
mansions
cooper
incredible
vulnerable
administered
hazard
vineyards
pakistan
istanbul
dy
dud
dign
dental
kick
mere
nu
pants
rab
sik
wins
##kin
##igan
frowned
dean
exha
##ortions
##aping
cloud
pear
fake
incidents
brid
coat
presidency
supporters
skull
museo
follows
singing
##shire
determination
devast
lights
stronger
commonly
cleaning
formerly
ignor
battles
accomplished
analyzed
naples
minimal
cuban
fortunate
publishing
synag
scholarship
incorporated
skiing
saddam
privilege
enjoys
mosaics
paradise
phenom
##mandu
gingrich
goddess
massachusetts
59
benn
dick
della
hiring
ko
lists
mum
rides
rugged
##tic
##vag
inch
##omb
##changed
##keys
choc
chances
##unction
perce
##agu
##aco
##acles
moves
medium
economies
landed
steve
winding
potentially
compete
arguments
panor
rider
votes
essay
extravag
respondents
duties
adjustments
1960
homosexual
bullet
awarded
conflicts
printed
coalition
hungry
transformed
ceremon
disappointed
makers
sanctuary
cabinet
tranqu
shouted
barriers
equivalent
duplic
aunt
eh
yelled
##vable
##mith
##mate
##iner
toss
##elon
##ila
alley
exqu
##osh
canad
outra
trash
timing
feud
accent
##into
guest
invaders
adds
discl
marsh
modified
locally
readily
propag
distinction
missouri
porto
moments
floors
grandmother
impacts
demanding
eighteen
circuit
shrugged
separated
acquire
preparing
santo
imagination
casinos
featured
advocacy
pulling
channels
ownership
gentleman
obtaining
arrangements
manufacturer
lifted
reconf
kathmandu
warriors
havana
clouds
abraham
brew
fier
iolta
kam
pets
si
##trap
##ran
##fers
##father
##onic
##isure
stiff
##ayed
##see
notably
cher
leisure
hispan
##endered
agent
appra
deserv
underground
betray
##olded
studio
ell
lets
humid
signature
senor
senator
180
gardening
choir
winner
authorization
yorker
##otto
argent
hurry
agrees
automob
collaps
railroad
pillars
gauve
spokes
revolving
prohibited
orchest
entitled
fishermen
satellite
sensitivity
43
47
dc
dagger
fame
fern
kim
kicked
ward
##lu
##oen
##gments
##rals
##ito
reass
stability
haunt
anch
neo
neu
exter
meals
arist
lovers
closing
sheer
reporter
grim
grate
##osevic
##acent
wherever
legacy
relation
trace
regret
paralle
artistic
planets
insist
restra
happily
postage
tries
finances
landing
##aughters
generating
parking
merger
##aneously
minded
##aware
describing
influences
junior
breaks
ladies
stocks
communicate
advocate
shooting
obligations
calculated
sustain
alabama
pursuant
calendar
46
97
kur
sq
sed
som
sessions
wire
##fr
##cos
##oral
##rey
##itarian
stages
##amin
##theless
button
cancel
spite
outf
unions
##anship
conting
quote
bran
nevertheless
underlying
specul
belg
wrest
elite
marine
ending
valle
approve
simult
factories
audited
milosevic
advised
grave
cheese
followers
completion
equipped
drives
operational
varied
receives
condem
salaries
##liest
budgetary
promul
presentation
##aneous
competitors
holes
massac
plantation
utah
attempting
slept
hyd
tendency
crypt
willingness
variable
pursue
rangers
explanations
provider
alexand
kentuckian
pilgrim
clinical
chemicals
convince
storage
monopoly
affirmative
aph
cord
cattle
daughters
gle
hint
jaw
punch
sque
session
voc
##pass
##och
##away
##omy
staring
asks
##rie
abd
max
##apore
##cio
##enders
buck
goodness
##ogether
underne
strongh
##unded
costumes
##erman
valued
popul
email
formula
formidable
distur
millenn
excite
nightlife
continu
anne
sunny
protecting
##anny
##ographical
painters
bankrupt
correctly
mandra
250
1974
arabs
administrators
accurately
automatically
praised
apparent
picasso
melaka
enhanced
ratings
nye
partnership
resolved
coordination
cloak
linda
fighters
episode
cosm
astronomer
compromise
underneath
stronghold
54
58
cul
gsa
nons
ritz
racing
wrapped
##eem
##houses
##bling
##15
##orus
stall
convert
chop
##anted
cler
sheet
quoted
disability
feas
bucks
scouts
##ensed
##eps
##iley
regist
geno
artific
defending
metap
cleared
posts
skilled
certified
mailer
youngest
184
mainstream
sixteen
singapore
grey
identification
judicial
approached
turt
existed
jerry
separately
##iosity
creates
conducting
deny
drops
flytrap
restricted
shares
altogether
picnic
concepts
depicted
merchand
virtual
logic
monasteries
kitchell
vault
forbidden
rebuild
validity
exclusively
updated
corruption
##iciary
##committ
nonfederal
bicycle
overwhelming
scheme
72
96
bland
cia
dump
gab
pile
rick
sigh
wrap
yan
##lical
##cons
##yth
theor
theaters
ingr
##iti
##omfort
##state
stitch
##etical
ford
##olas
alter
chart
butt
##arten
##asted
adap
diagn
interrupted
root
bump
scots
indirect
##ava
pubs
engines
lesser
triang
particles
missions
reviewers
collecting
politically
horiz
125
participated
screens
richards
##umbled
hopefully
combat
observations
closest
rebell
##rels
mistakes
jamaican
deserted
relaxing
unple
mirror
reveal
contempl
negotiations
mechanisms
columbia
whispered
retrofit
recruit
elephant
cafes
##bourg
inquiry
seaside
celt
mt
tib
wre
##bow
##alay
andrew
##icop
reck
##ami
##esting
ornam
##osis
##umber
arth
donation
##inking
perp
workplace
overc
heroes
brows
coco
bugs
recycle
smok
relics
assured
subcommitt
endorse
publicity
thoughtfully
menu
##idespread
practically
officially
178
absent
civic
associations
specified
educated
louvre
1987
1988
nationwide
murm
deadline
convent
egyptians
greeks
wishes
absolute
surviv
garage
bottles
flee
interviewed
assumes
precise
occupation
logical
olive
gathering
honestly
emotion
mutual
resolve
buffalo
legendary
novak
album
prototypes
legitimate
gordon
bot
cass
dal
dent
lung
rental
tuck
vess
vib
wander
widespread
##feller
##erated
inapp
##itis
##arn
##arial
##icism
##leans
stunning
##etto
##etta
##aye
##sem
seated
##kefeller
dock
orleans
##apse
loop
##oks
comparing
amiga
wells
exped
reply
offsh
intim
brass
cobb
partly
carn
regards
##athan
##atherine
founding
planes
insight
populated
corrid
privat
182
traders
lowered
hobby
armies
silly
specialty
honored
creatures
broader
evaluators
bias
##rooms
permits
prospective
porcel
fortunately
volunteers
subsequently
controversy
toxicity
cancer
rockefeller
lisbon
database
excitement
berg
gild
hed
rhod
sba
ware
##hin
##rics
##cue
##bet
##yard
##inople
##itious
##omon
stir
stays
##osaur
loose
incons
export
interf
herod
##itty
preach
desir
cared
helicop
consists
relie
invite
opm
presum
governmental
surge
parade
drama
refuses
configuration
barbe
##mann
glance
glimp
generous
departure
discussing
suggestion
accordingly
expectation
avoiding
junk
illum
scenery
adjacent
celebrities
cruel
crucif
dispos
achievements
criticized
graduates
guarantees
photographs
motivation
temperature
dialogue
venture
palestinian
reservations
leonardo
thriving
pregnant
utterly
exquisite
artificial
glimpse
900
aids
cale
fy
gently
hits
kh
kenn
pas
pom
pause
ri
##hill
##rum
##fall
##front
##esters
##icking
##omin
##iman
deer
suffic
##odes
##oded
abb
manusc
lobb
teeth
incomp
newest
contents
containing
intens
intric
roots
boasts
coins
desired
carries
##ictions
preserve
counted
bases
farms
coral
confront
curiosity
advise
designer
possess
terribly
continuous
drift
harass
occurs
identifies
facult
burial
##retion
brave
baltim
universities
settlers
emerging
michigan
declining
philadel
1970
flew
##aska
contacted
malls
appealing
substantially
graduated
victoria
recipient
obligation
willey
champions
cooperation
shifted
harvard
souvenirs
pundit
mysterious
constraints
arkansas
promenade
luxurious
branches
manuscript
baltimore
philadelph
dare
gut
gand
hence
iow
jet
ric
sic
sisters
wives
##po
##oan
##hou
##word
##onia
haul
##ulative
dei
deck
comic
##usive
allies
clue
##izer
intact
screw
seeks
smiling
invented
costa
supplied
counting
genius
capit
differently
foundations
causing
defer
confusion
technique
processed
viewing
admire
202
salad
##bridge
promises
burg
approaching
routine
favored
alcoholism
italians
obsession
1986
voices
applicants
uncomfort
lacking
reflection
respectively
biography
glasses
flyer
constantinople
prisoners
samples
collapse
sightse
tastes
citizen
semi
counterp
naval
bargaining
confidential
discrimin
codes
borrowing
consolidated
acknowledged
cigarette
australia
taxpayers
producers
pavil
neutral
procure
arthur
66
dive
ker
lon
lub
mes
rif
roth
rope
tid
vouch
##post
##aic
##38
##enin
inade
##ione
beck
stere
##roe
alright
seized
exagger
sober
pricing
plains
enl
clay
ups
peer
composed
##cca
newer
gras
centered
scores
guards
carav
helms
keys
drank
ears
curve
tourn
funeral
investing
glorious
infer
calc
salon
dealer
burst
specialists
balances
netscape
geographic
devil
149
societ
foreigners
hurric
hike
##portant
celebrity
##ippers
journalism
automatic
welcom
appreciated
symbols
efficiently
throwing
oriental
adventur
loudly
overlooking
frozen
accompanying
incredibly
settlements
allegations
struggling
lavish
dreams
delicate
seafood
kelly
inspiration
unimportant
tapestries
shogun
pedestrian
tongue
chocolate
deserves
exterior
philadelphia
inadequ
welcomed
62
aesth
cite
dimin
ein
fen
jf
lane
rou
rud
wished
##fc
##eda
##oust
toy
toys
##repr
beth
reich
##veys
##etan
##roc
##oline
alan
alert
shots
##ulent
sep
chairs
liability
##riel
adam
unco
unrest
unaware
usps
whoever
intrig
dislike
##asses
legally
trains
secular
courthouse
persian
realistic
earliest
larry
meters
alongside
statutes
freeze
ruler
176
associates
colleges
arguing
historian
checking
furthermore
130
examining
versions
fema
louisiana
searching
qualitative
odds
williams
birthday
reveals
henri
eliminated
litigants
replacement
deposition
recovery
accompanied
graceful
stabbed
elephants
promoting
georgia
isolated
preparation
ariz
##stitution
symptoms
bridges
gabriel
ingred
unpleasant
iowa
burgund
##reprene
bid
cd
ced
eg
hid
hitting
jam
nut
vie
##no
##nie
##sp
##wart
##bu
thread
##ati
##inge
habits
##rog
##sect
##tha
aswan
##rac
##ighth
##uda
maus
##astroph
saudi
##emois
unl
peas
timber
compat
perj
##ager
quot
diet
replic
bug
scattered
relate
flan
handy
gaul
possession
miller
stein
foods
descriptions
hobb
associate
saints
##umbling
mademois
catastroph
horseback
balls
threats
analyze
occasions
ethics
benj
stewart
oliver
buddhism
allocated
terrorist
absorber
convenience
attributes
enjoying
korea
flavor
cemet
inexpensive
feudal
reconfiguration
subcommittee
tournament
arizona
mademoiselle
71
bent
gee
hiding
ku
kau
lap
poured
sway
wings
wagon
##top
##wi
toled
##otte
beef
revel
##iments
shinto
##riate
meets
##osity
cany
nois
priced
spell
spouse
manif
donated
enlight
peop
pepper
actu
acted
commander
presidents
longest
countless
capabilities
marina
insisted
restore
distant
##iov
walter
financially
swift
raid
rises
185
thirteen
steal
burd
stephan
solved
considerations
definitions
commissioned
unfunded
contractors
custody
penet
banking
hipp
swept
procedural
permission
contrad
suspicious
revolutionary
bothered
registered
sharply
foolish
distinctive
tiger
breeding
accommodate
ramparts
bosn
tuition
renovated
commodity
grabbed
reorganization
anxious
francois
biblical
unhapp
synagogue
propaganda
aphis
mausole
57
bite
cel
eighth
fwi
hats
jal
mike
ray
tony
##sen
##uate
##bted
##manship
##inely
##enous
##enger
##rea
whites
##urity
##sein
alumn
##adv
heir
shipping
fried
lik
thereby
soap
##eman
enfor
##aug
usage
reserved
amid
disord
coinc
himalay
carl
fires
evenings
acre
flu
addiction
famine
parish
founder
streams
##ews
humor
fourteen
raises
glory
annette
operator
freezing
halfway
epic
claiming
expects
historians
recognizes
offerings
convinc
arriving
troubles
eaten
messages
establishments
commented
philipp
##ippi
dispute
flowing
##chester
citadel
conferences
liberals
applying
briefly
##worth
altitude
tribe
tracking
dependence
stretches
sarc
quantitative
volcano
palestine
fountains
cockpit
discipline
nazi
apologize
enacted
substitute
cottage
lantern
valleys
alexandria
registration
offshore
benjamin
alumni
73
biz
eil
foss
lions
pud
sie
troy
##ports
##sis
##care
##bach
##mat
##enon
##reach
##isse
revers
chains
suck
##anting
##rix
##ista
canvas
plun
upcoming
perf
amended
intense
disadv
1950
buzz
colt
##ometric
##issippi
consensus
relatives
assure
remem
beloved
callie
param
reduces
entreprene
defect
bookst
economist
mississippi
greens
170
braz
wonders
128
girlfriend
sells
referring
mosc
indicators
farmer
exhibitions
deduct
giants
colonn
novels
##iya
negotiated
navig
conquered
forbes
protestant
shocked
incorporate
embrace
vsl
benchmark
encounter
axe
indigent
diesel
scrutiny
nonexchange
##onymous
bazaar
versailles
millennium
gilded
lobbying
cemetery
eilat
90s
bac
cad
cute
census
ile
icon
lc
lamp
nara
piano
ross
tam
tuscan
xii
##lap
##iah
##rer
##vest
##40
##30
##atra
##esford
##ani
tooth
inaug
##itate
##isans
beating
reed
hack
alban
##estim
comed
org
lip
exh
allen
spraw
##ours
load
##izations
grat
overt
##uba
accel
prel
attitudes
lott
afterwards
remo
slipped
##phy
endang
worlds
##lete
resting
performers
audio
confed
auto
curb
possibilities
testament
probability
landlord
infant
grows
termin
operators
billions
villas
hussein
##workers
initiated
deeper
lacked
dropping
doubts
scrub
survival
dinosaur
mistress
mistaken
safegu
introduce
predictable
seventh
mallorca
baths
conclude
beresford
mechanism
bait
transformation
pillar
deposit
craftsmen
provence
masterpieces
electronically
deemed
prescrib
korean
cinema
fighter
hypothesis
charlotte
portrayed
liquid
disgust
excursions
municip
kilometers
afghanistan
bennett
simultaneously
pilgrimage
merchandise
mausoleum
bits
bored
dw
dread
fid
jard
jokes
kansas
lush
pall
rented
ses
sized
tier
witch
yards
##ez
##gue
##hist
##min
##mart
##70
##erie
##alk
##aro
##lem
##uty
als
convey
seed
segment
##ando
lect
manh
manip
##apolis
##ourse
##quet
outbound
unav
##ishop
twisted
underm
lotus
deciding
sometime
tract
##ailed
supper
counties
phoen
instant
aviv
skys
islanders
swall
swamp
camps
raw
practition
paula
origins
entertaining
texans
prevention
christopher
participating
freely
divide
recognizing
1983
array
independently
planting
bones
cooked
affecting
sweat
##govern
scratch
conditioning
videos
birthplace
eligibility
innovation
nyt
supervision
delayed
attributed
blew
intellectuals
pyramids
migrant
subtle
fertile
warrior
##acca
enclosed
distinguish
refugees
fulfill
opponents
supervisor
yacht
prosecutor
marginal
therapy
snorkeling
balearics
feasible
porcelain
uncomfortable
canyon
burdens
prelimin
bass
cure
coura
dated
divid
fathers
hoc
hilt
hier
mint
pon
pard
pbs
rav
sip
tips
wo
zelon
##tra
##fty
##win
##uch
##esc
##oro
##ido
##etically
##imb
alph
shor
shah
shakes
seasons
meg
nostal
loaded
enqu
enable
perception
amen
##gram
intend
intensive
overhead
twist
lazy
intoxic
moore
relied
programming
assault
governing
##wear
handful
insult
pointe
pointing
affil
extension
ports
mature
delivering
villagers
mounted
sunlight
cef
executed
travels
accepting
fortified
##anne
assessed
1982
penang
shrubs
erotic
utilities
characteristic
midnight
disputes
camel
affordable
progressive
gasoline
comparable
qualify
targeted
concentrated
citizenship
##uku
advisers
hunger
thompson
masters
waterfalls
##belie
elementary
windsur
suburbs
mosaic
enterprise
undertaken
complaints
gesture
wisdom
automobile
adapted
celtic
crucifix
sightseeing
moscow
bah
bount
fi
lun
loun
lump
lyr
mow
oro
osc
pac
ruth
##ecess
##hma
##fman
##card
##uated
##yre
##me
##mish
##matic
thumb
insc
##omic
whit
alic
##ithe
fraction
atop
chim
##istine
##mphis
memphis
adorn
intentions
mugh
##berts
scuba
##ograp
informal
surveys
payche
artisans
maria
kinderg
hugh
revision
imports
demolished
autumn
signal
2003
dried
brook
judged
##boats
suggesting
##attan
jewels
screaming
europeans
##oval
memories
grantee
speaks
predecess
celebration
ignoring
featuring
submission
responding
restriction
analyt
jacket
bandits
mixture
elders
printing
interpre
shadows
faithful
illustrates
##iyre
rubber
bathing
oxides
bargains
wilson
dusty
witnesses
websites
##points
stretching
dolph
loren
rigid
pundits
gigantic
##donald
cumulative
obscure
injection
canadian
apprais
faculty
procurement
peoples
unhappy
51
erupt
hust
jar
kes
kidding
mister
mumb
pt
rank
sour
tens
tenth
##uv
##uccess
##burn
##mn
##kers
##irer
goya
orang
suited
##usible
##iston
##arded
cane
##umed
spends
donate
safer
composition
shep
roberts
##assion
index
prehist
guilt
umb
attain
conspir
##erald
##icks
assign
##ertime
blades
phases
caut
respected
simulations
metro
glam
nightcl
walled
noneth
minds
worthless
environments
screamed
favour
males
conviction
ranks
knowledgeable
bonus
narrative
versus
imagin
dresses
##ophag
##iffer
gradually
distribute
tomatoes
fuji
randy
variables
ranges
rubin
innovations
archaeologists
##piece
terrorists
instructions
motivated
stamps
portraits
saddle
thoroughly
supplementary
landscapes
##keeping
excluded
##brand
dismissed
ronald
reconstruct
proclaimed
hampshire
promulg
richardson
perpet
survivors
inadequate
burgundy
hobbies
enquirer
analytical
mumbai
nonetheless
78
dense
fles
gon
hmos
java
mi
nbc
porn
sid
soup
sizes
tud
vish
verm
##dale
##lon
##sr
##hy
##wick
##yle
##view
##mel
##66
##48
##75
##atical
##essee
##oria
##itary
##isp
sto
forment
alps
altered
shining
##ulously
deities
deleg
docket
##rah
noon
pled
plate
plates
plaster
unlo
unrelated
unchanged
resign
ami
yearly
contra
disk
appet
cohen
secrets
bluff
addict
modification
reads
emily
formation
advances
##beat
viewers
admired
portions
passaic
anno
salmon
greco
choosing
awake
competent
observe
ranch
structured
panthe
cardinal
complexity
corners
evaluator
##burse
603
permitting
picking
tunnel
robust
quantity
conquest
synth
champion
excessive
dialect
tablo
veteran
sustained
plotz
cycl
forecast
inevitable
seventeen
invoices
balconies
cameras
brutal
incurred
astonishing
overcrow
botan
intricate
toledo
sarcophag
eve
jenn
masc
pity
tank
vatic
zen
##din
##iji
##ti
##ho
##rale
##cus
##jud
##anim
inbound
rear
reef
reverse
##steps
##section
##amel
##ambo
heb
heels
##opp
##oping
abrupt
lever
arise
##astically
unin
##aho
impair
incumb
inclined
exports
intr
brow
partition
##anging
needy
needle
descent
underwater
downs
governors
blanc
kevin
##ression
acrose
empower
##ologically
discretion
mars
gaze
mineral
priest
charging
barren
##aires
##inson
practicing
apology
trek
harris
budgets
regulated
prevented
considerably
answering
sainte
145
appropriation
laboratory
packages
santor
##ilingual
journalist
layer
flemish
remarks
meantime
bands
borne
contacts
qualities
sundays
2015
unsure
unsuccess
terraces
ranging
vegetable
1930s
aimd
tennessee
crusade
rumors
tube
tubacca
snake
isolation
mitig
desperate
opponent
conjunction
sweeping
coroner
suspicion
descendants
caesar
##luent
grateful
yanke
presumably
manuscripts
capitol
preliminary
alicante
##ographer
52
88
dell
gear
gins
hoss
japp
kios
lyn
pensions
rf
##ea
##gon
##rust
##fing
##cely
##went
##zare
##erors
##itar
##itably
##arre
rect
shield
consec
chips
##antages
plum
loving
adul
##izz
quay
grid
disabled
costing
##ailing
blend
##ermere
slaughter
drum
earning
insights
charity
serge
cheek
senators
transc
##lington
explaining
stupa
##elson
marketplace
traded
harbour
volat
##enne
wallace
windermere
questioning
bloody
solomon
specialized
movements
attracting
husbands
sne
maintains
mosqu
manufactured
superst
plantations
reportedly
russians
linking
urged
luckily
investigate
conversations
rolled
comparisons
colonies
bowed
precision
guarded
heroic
neighboring
expenditure
pige
arrangement
update
anthrop
revenge
cinemas
episodes
georgian
prophet
terrific
reluctant
transparent
argentina
collapsed
harassment
kaufman
actuarial
convincing
shakespe
vatican
69
beng
cors
cells
gays
gaining
jus
jum
ling
ripped
sod
tire
tents
ville
wp
woke
##ders
##nu
##taking
##34
toll
##isers
##otine
rewards
albe
shin
shake
seattle
goat
exile
abst
##unci
outreach
lover
justify
##heric
##akura
pooh
##ogy
thres
inval
remn
opens
olds
##athed
bless
acro
fluct
gene
depreci
shower
parole
##ugman
delicious
readiness
correl
mighty
concur
considers
campbell
explored
glanced
nightm
privately
infin
continental
behave
collective
maine
eyed
promising
judgments
awes
originated
preval
credible
footsteps
##ovitz
objections
pressed
castro
treatments
religions
panic
cleaned
selecting
examines
democrat
philip
consistency
cathedrale
rolls
minimize
psychology
unfortunate
skinned
##after
cups
##agonal
photography
reagent
satheri
pigs
trucks
tigers
acknowledge
knocked
krugman
switched
embraced
prescription
cheerful
receipts
miniature
summarized
neglected
province
lighthouse
verdict
metropolitan
creek
tactics
taiwan
tremendous
homosexuality
squee
gandhi
societies
pantheon
sergeant
shakespeare
albeit
85
bone
duc
echo
fitting
lal
mound
rag
slic
sull
vel
##lass
##ikes
##ni
##gi
##held
##rons
##col
anderson
reop
reun
stol
stack
align
##rak
##udge
unst
roose
overd
boot
scra
carriage
removal
regime
##uala
##onscious
##mmet
governance
kef
belly
slope
governmentwide
capability
basin
parale
talented
lasting
charter
barr
profound
profiles
risen
equity
arched
salam
##pectives
holdings
epid
##ference
160
domed
##ynes
credits
1984
attacking
##archy
friendship
troubled
indicator
casc
females
titian
threaten
hosted
pilots
spiral
reno
coward
tribute
psychological
unpop
spreading
terrain
breathtaking
illustrate
1920s
permanently
mercen
galile
emphasized
escal
harmony
subsidies
reminder
overlooked
reliefs
gorgeous
consciousness
akbar
charlie
vinci
hammer
athletes
ceteau
nickn
irrelevant
catalog
margaret
hectares
dudovitz
perceived
inconsistent
sicily
perjury
bizarre
shoreline
windsurfing
kindergarten
flesh
vishnu
awesome
bak
bark
dorm
ipm
kan
mant
morn
nest
nagas
oas
somed
tum
wip
wicked
##dg
##nut
##gra
##aus
##fire
##ua
##vis
##vals
##mo
##oulos
##oubted
topped
##icut
##ilia
##idences
##ctional
##uri
##urb
shed
neph
atm
chew
knight
##istically
##ckets
spur
spray
mare
unbelie
##ounding
compassion
##iche
##grad
dissem
britt
bruce
coin
buys
indul
prejud
colour
##velt
undoubted
attending
tragic
##ocative
genre
perspectives
slam
famed
baseline
cake
retained
##ainted
minnes
playground
poste
skirts
barik
formally
airpl
gracious
transpl
majestic
mills
glow
practiced
apaches
stopping
wax
judiciary
windy
151
breast
shortage
cracked
assisted
floating
worthwhile
cops
nationally
duomo
influential
##ikoff
sandstone
characterized
softly
embass
denver
biological
candle
radical
martyr
threatening
bombs
liberation
##itzer
ethn
tribal
miracle
cartoon
hypoc
##ettes
wheels
subsidized
maximize
bureaucr
assassin
kram
monarchy
fertility
spacious
encountered
pagoda
cigarettes
washed
sequence
envelope
wandering
parallel
horizon
inapprop
desirable
greenspan
brazil
removing
prehistoric
formentera
bengal
roosevelt
epidem
someday
minnesota
56
74
92
catherine
fas
font
hood
kells
kuala
mower
nuts
oreg
pestic
tul
vau
wig
##pat
##iency
##ram
##rup
##cs
##uana
##zan
##inas
##inous
##onies
##anor
inh
##ication
forfe
##rove
##roid
##urai
##chitis
##vere
##olia
noting
notices
shorts
congr
abilities
##mpt
worries
allied
nobles
##ourt
outlets
anytime
ench
advers
peers
perenn
##ifiable
amusing
##aga
repay
interrupt
interactive
accus
downstairs
keen
flame
flows
subway
##phe
marx
rua
revived
norther
happiness
booksh
barra
##azed
tempted
daim
continually
secondary
halt
sanctions
thirds
listing
##boat
163
destinations
necessity
sentences
sentencing
credited
pressures
seller
replacing
chapters
manufacture
##heard
combine
commentary
garment
investigators
sciences
integral
beaten
layers
conservation
decreasing
sorb
applaud
firmly
bronchitis
amazed
groves
arabia
amph
strengthen
tallest
lawns
consulting
belongs
crusader
recovered
##books
ferries
promptly
suburban
inhabited
hesitated
jurors
desperately
inevitably
vendors
evolved
tranquil
kamakura
aristocr
vibrant
cobbled
pavilion
sepul
jalan
municipal
crucifixion
keswick
promulgated
oregon
02
89
bore
bambo
dere
damp
fog
gol
hort
jaff
muss
pending
tires
tension
##lore
##iets
##will
##bes
##reed
##arse
##oman
##entine
##ili
bever
##str
ante
shaded
nev
atomic
##opoulos
lied
##geois
##ardy
##ffect
##umer
spices
##aste
enabled
adoles
trin
upgr
pecul
resent
teleg
amar
impat
##ounted
fax
incomes
quaint
quotes
dispar
dischar
cole
##aky
accidents
##veland
smar
##iani
backs
trap
opium
##erton
requesters
##ocation
obey
deputy
marri
##scale
realism
marking
demographic
factual
sket
confined
barrel
particulate
companion
serbs
tempor
benefici
patrick
swed
accounted
missiles
severely
untouch
terre
matt
politician
varies
summers
generaliz
generators
harmon
successes
irrit
presentations
brains
towering
horrif
crap
silently
labeled
castles
halls
unconscious
surroundings
##ospheric
reflecting
establishes
venue
preference
mandated
surviving
purchasing
jesse
misd
veron
discounted
frequency
triple
liberty
analyzing
minorities
broncos
bulk
challenged
depicts
feeding
substantive
strengthened
consultants
dynamic
consequence
hinduism
adequately
nominal
emotions
digital
temperatures
hijacking
disclosures
blanket
maker
pollutant
anthony
unconstitution
graphics
bourgeois
lyon
confirmation
recreation
lighter
wolves
pistol
olympic
strawber
extravagant
cosmop
clerk
intimid
alsace
manhattan
paycheck
annoying
##zarek
unpopular
nagasaki
undoubtedly
bamboo
peculiar
beneficiaries
awhile
bind
cau
gil
hog
imb
misc
nelson
pis
pour
rip
rows
tad
tiles
vert
vague
##eeling
##len
##lav
##power
##oid
##nas
##aved
##aise
##uci
##boy
##bock
ther
##erget
##itations
##ente
##eli
beij
reci
##lyn
##eters
nebr
seeds
knees
##uster
spike
##quest
likewise
unm
unsc
justified
##agg
quart
overr
overth
mund
partial
poets
thrill
consort
synd
presort
blessed
wrist
feder
marco
marij
edo
##ainties
metres
cleveland
confess
confusing
controlling
grapes
tempt
##iera
exploded
whitewater
##ounce
passenger
summertime
drain
awa
hilltop
buyer
stylish
squares
musicians
destro
dougl
copper
contribut
fights
journals
mosques
medici
##forward
documented
wildly
fixing
1975
rebel
##backs
litter
asthma
breathing
functioning
stretched
mcdonald
warsaw
trailer
1950s
absorbed
crusaders
reminded
rhyth
assertion
dominant
cloister
ponds
dragged
prompted
enthusiastic
enthusiasm
strangers
boilermaker
snapped
juris
indigenous
##eastern
enterprises
laund
prolif
announcement
abundant
fantasies
honda
hazardous
duplicate
leisurely
bankruptcy
mandrake
lubbock
threshold
kramenin
jaffa
cosmopolitan
beijing
recipe
marijuana
68
79
70s
bilingual
cv
cens
csr
czarek
das
dazz
gary
gib
hil
jag
jog
lith
mul
owe
posed
pomp
##ns
##gam
##rative
##fia
##wed
##wak
##mont
##inn
##inging
inex
##isive
##lehem
beasts
rehab
stur
strol
##olome
anat
##iratory
alp
sher
sham
abu
leap
soaring
meh
nob
spy
spont
placing
trent
upr
theirs
perched
imply
repet
interactions
overtime
disgu
indones
precip
helm
remin
traces
##oths
requester
flights
slip
endors
endless
tales
mining
respiratory
delays
medi
postm
skip
triv
turner
admissions
creole
##ecd
annie
limiting
cultiv
promoted
enclos
domes
fortifications
##ova
arena
treating
woodward
standardized
contracting
speakers
violate
##ikh
ern
1000
indianapolis
anglo
encourages
hyper
rapha
darkness
1979
balloon
connecticut
spotted
flea
constitute
straightforward
complained
conversion
shallow
petition
compares
##worthy
troop
pico
pursuing
austria
workshops
comprises
pm2
abandon
wheat
adventures
soviets
carpets
masks
athens
motivational
coordinated
nepdg
outlaw
outdoors
suburb
landscaped
plausible
inquiries
felipe
liquor
puppet
excursion
explicitly
refresh
elasticity
grinned
observers
evidently
ignorance
spokesman
vessels
bethlehem
stephanopoulos
practitioners
pardon
bounty
appraisal
ginsburg
stolen
inappropriate
nevada
telegraph
nebraska
ais
bend
cm
eb
faded
garr
gym
hh
kin
kins
lt
mouse
nam
nag
nope
ov
pok
qa
rous
rings
rape
vest
wick
yor
zo
##nity
##gent
##gia
##wich
##inth
##inals
##arine
revered
##storm
stance
stagn
##rood
##urable
##sept
ank
shaking
shields
shapes
nebb
wears
chau
chase
oral
knights
##ripp
butler
##elli
canals
donors
sake
willie
adverse
peel
diver
boast
##akia
poem
##arks
lookout
##amped
##onsin
download
obel
handles
##phorus
instantly
planners
retal
##lette
sins
eman
watches
functional
communism
hotline
patrol
financed
invested
exclaimed
portal
raids
matth
pretend
classroom
certainty
clearing
generals
wont
harb
merits
##enna
irrig
168
educate
attracts
contributing
referrals
madame
architects
trusted
separation
bananas
packet
predomin
observatory
consisting
rebels
afforded
demonstrates
remarkably
categor
matched
etr
holyrood
vanished
rubens
##etti
boundaries
emphasize
uncertainties
gentlemen
neighbour
defenders
fabulous
belonged
storms
poisoning
interpretations
exploration
appointment
hijacked
alleys
hamlet
tanks
fragile
harvest
recruiting
joyce
hugo
transept
feminists
embarrassed
taxpayer
libertarian
invoice
preservation
chaos
nasa
observer
queens
prestigious
orchestra
canceled
rebellion
murmured
calculation
ingredients
noisy
phoenix
courage
rfp
temporarily
federally
bunk
camb
dug
danc
fh
gy
gum
hollow
hardship
jain
kab
lanes
ming
mck
mamm
nancy
piet
rage
slo
sends
tay
tore
yok
##dle
##pro
##iencies
##nels
##uity
##based
##vent
##math
##zer
##asters
##leine
rever
rebs
##chio
asp
heck
shit
weaving
chanc
leh
sovere
pristine
spun
spaces
maid
maps
maze
hiss
saves
energet
##oka
##oku
trig
uneas
repairs
intimate
grill
overlap
##iac
crushed
poke
committing
##ensively
backing
regent
madeleine
blown
idi
courbet
additions
slog
visions
differing
pharm
defended
careers
revival
proportions
auton
headline
sitcom
menorca
##tsa
205
annoy
181
deliveries
hooked
173
##ommon
cease
printer
potatoes
computerized
scream
impacted
similarities
snakes
##anni
sooner
secretaries
broadway
israelis
adjo
seasonal
positioned
shareholders
declare
titles
titled
hersh
401
warmth
decreases
injust
jacks
21st
dubbed
telecomm
cynical
disappear
transported
ambass
ambitious
montmart
prints
tune
octagonal
francisc
vegetarian
consultant
roofs
shelters
licenses
eliminating
calculate
penny
unemployed
bullf
trendy
gifted
repeatedly
satisfy
privileges
mentally
canton
emerge
ascend
mysteries
unreal
deliberately
frightened
paragraphs
liberties
marvelous
pitts
nhtsa
devastating
fernando
##frame
outfit
metaphor
helicopter
stereoty
intriguing
tuscany
lyrics
ptole
atmospheric
smarter
marriages
douglas
boud
cows
dues
fitz
hale
iup
jod
kurd
nah
nass
ral
tread
tended
tightly
vicious
##eu
##evelop
##ws
##zu
##jon
thigh
theod
##inians
##arms
##omphe
ree
albr
conced
chuck
##osa
nobel
clan
unn
uninter
unanim
##ounded
compos
persec
imprison
inclusion
diary
offense
interaction
overnight
twins
boating
1900
partisan
sco
finishing
poles
wayne
##olds
blm
blond
schwart
##racted
caution
mode
edif
entries
propose
confron
triomphe
incremental
curt
developments
headlines
watergate
testified
##ecy
info
opposing
tops
projection
broker
stealing
winters
romance
##boards
immun
129
vik
viable
antiqu
potter
166
grandfather
protective
contributes
normand
uncommon
##iki
banana
damn
ladder
stripped
combining
quarrel
draws
venues
degas
##iffs
dispatch
deduction
essence
misunder
beatty
laying
decoration
janet
automation
punish
proposition
spectrum
crying
appreciation
hillsides
variations
burns
earnest
montana
tunnels
enhancing
macroe
sheltered
hunter
mechanical
witnessed
gaunt
clinics
rhet
accomplishments
arcade
inputs
gorbach
purely
assassinated
reinfor
fragment
leaned
folklore
adoption
preceding
wolfe
inherent
wanna
##uela
bundle
disturbing
genoa
carnival
privatization
rhode
manifest
lanterns
siege
remembers
brooklyn
congrat
generalizability
schwartz
macroeconom
gorbachev
63
aj
bays
cp
dus
ecc
flic
git
gul
gour
hut
hhs
kat
kra
loses
mie
mask
ost
pip
pits
rents
tiled
voy
wat
##lings
##hard
##cod
##walk
thunder
##onos
##onso
##eses
##eding
##anth
tol
inacc
itiner
rejo
stem
hail
hagg
##urate
##irical
##ulates
weights
conform
frames
goss
sued
prado
plumb
donald
upscale
perug
tak
tavern
##agne
offensive
interference
grades
overly
disli
mule
cove
partially
actress
crick
scare
scrap
##licity
guer
firing
##ials
betty
thrust
backyard
downward
blues
schumer
acute
counts
genetic
studios
marit
martha
phill
##ugg
earl
insu
minoan
barbar
cheers
benefited
maturity
classics
morally
morgan
arche
waved
merr
##sha
hoff
breasts
cannon
encomp
##pring
doorway
potato
geographical
competence
devote
fellows
caste
selfish
wooded
148
murphy
##balls
unfor
convicted
tiber
##heart
sweaters
embroid
##obi
slowed
crossing
fashions
titan
jesuit
miserable
verify
magnitude
contrasts
decorative
consumed
##ohama
searched
premier
crafted
bowling
drafted
danvers
ninth
arabic
##marked
austin
vegetation
inquired
scientist
malaysian
scholar
workshared
negotiate
oxley
dismant
randomly
bureaucra
terrorism
partnerships
ganga
clinic
scarce
kirk
earthquakes
translated
shifts
stabil
optimistic
highlighted
dilution
ineffect
unreason
transmission
sympathy
prosecutors
subscribe
exhaust
mumm
outrage
barbecue
caleornia
sufficiently
intensity
championship
catastrophic
bosnia
woven
affiliated
lounge
hughes
mosquit
brittany
northerner
proliferation
lithu
raphael
taylor
yokohama
iupui
gossip
84
80s
bidding
bishop
dah
egl
fow
fiance
gwe
hilar
hik
kend
nab
pf
pel
penc
pyl
ramb
riot
tide
tame
wisc
zion
##diction
##hara
##fu
##was
##bat
##mad
##mund
##kward
##atics
##onian
##aned
##ington
tod
##otal
##utt
##roit
##chet
anecd
##amoto
ally
alger
aspir
##ados
heights
notorious
shiny
fren
thereafter
leith
##ivable
plag
##aph
loire
##aunt
adams
pean
agra
amy
implies
quo
##achel
rooney
discip
fever
feared
##bery
brightly
coc
goodwill
coloss
caring
carving
aftermath
polite
flats
persians
slower
warfare
talents
startup
importation
norad
##erness
humble
issu
controller
extending
camped
equation
annex
archives
apoc
budgeting
regulate
awkward
experiencing
158
sunsh
kingston
solar
periodic
domination
policymakers
flock
routinely
favors
divisions
lightning
appropriately
duch
purple
trustees
moses
err
boyfriend
strikes
creature
russert
affection
celebrates
cros
respective
sensual
constantine
commercials
complaining
capturing
giul
safire
symbolic
psychiat
pursued
pursuit
samurai
taller
managerial
##uki
circumstance
gamblers
contempt
saturdays
lengthy
resisted
penalties
delighted
revolt
sponsors
sporting
varying
reconcil
accommodations
borrowed
translation
rewarding
shifting
pirate
albums
bosphorus
rajput
seldom
avenues
niche
lodge
provincial
deterrent
producer
greeted
reproduction
discouraged
seventies
hmo
fantasy
breeze
exhausted
ceremonial
hispanic
kurds
nonsense
reckless
shogunate
jfk
##build
disorder
xiii
##governmental
lorenzo
shepher
unsuccessful
pigeons
sorbent
dereg
unconstitutional
sturdy
reminis
fhwa
boudoir
albright
vikings
mosquitoes
eglise
wisconsin
350
60s
ay
bened
eul
ffc
gn
giov
oval
pant
pca
pione
rale
rude
rita
sore
sib
wach
##oard
##nin
##hu
##uen
##mill
##kirts
##xon
##inqu
##atial
##orthy
inel
##itas
##itter
##icans
##leting
##ilings
##idity
stole
whil
hay
##aying
##iger
angle
##ationally
notew
chill
chris
chlor
##raine
knee
##ustomed
aboard
hass
mann
manages
##una
##unic
##ieu
lob
resur
peril
workload
amate
disabilities
herbs
goodby
scroll
##acon
smells
relo
tracked
##athe
blink
eviction
belts
systematic
marath
ende
organic
bothers
propert
skim
barn
baron
detroit
curse
airy
advantages
grav
seniors
transfers
guessed
mailing
investor
accountants
secured
shoppers
infect
operates
calle
problematic
reasoning
additionally
ceased
craig
traveler
immense
126
modernization
domain
simplicity
competitor
sentiment
determines
objection
lightly
sellers
cope
deadly
surrendered
animated
arrow
painful
##lusive
breakdown
indication
cardinals
hikes
embod
doubled
sensible
##ritical
magnet
adopting
advertisers
punished
exercises
industrialized
advocated
bells
laughing
ample
boilers
symph
ivory
concludes
comprised
prayers
kingdoms
obliged
disagreed
ashamed
dissent
dimensions
deposits
detection
teenagers
sabah
##laid
tailored
chestnut
steadily
spinning
racist
##ulsion
simpler
avenger
dictator
supervisors
patriotic
recreational
collaboration
obstacles
excavated
klein
stroke
puzzled
distracted
##children
prestige
dignity
massacre
turtles
diagnosis
tibetan
vouchers
grasp
einstein
alphab
mughal
santorini
nephew
amphithe
franciscan
pcaob
raleigh
noteworthy
goodbye
aol
dana
eiff
fist
ferv
gond
ironic
jee
lent
moss
melt
nond
nerve
nasty
rosen
sided
##de
##law
##path
##gins
##giving
##say
##fat
##crap
##western
##washed
##bag
##made
##erity
##oni
##esa
##educt
##reated
inhouse
ingl
##itous
##arming
##otted
bea
beaux
staged
##etics
haif
forcing
##chi
##amo
alumin
shack
##race
abolished
leaked
mead
##udic
##artisan
maison
arlington
##cier
sao
sai
unb
unab
pert
teens
tears
facial
intermed
rogers
##ption
twent
brink
scan
##ogues
servants
unders
carlos
##orde
finely
monkeys
blur
bloss
##luded
subd
warner
capitals
moder
retaining
retrie
valen
ruin
defensive
sinc
nationalism
signals
distress
nearest
2004
supportive
matisse
##oyant
apost
actively
sixties
magical
awak
172
horus
solo
vienna
ballet
reaches
specify
humanity
squir
civilized
sentenced
screened
sorting
alcoholic
memoir
walker
##awak
victories
119
appropriated
connell
hearted
##apping
damned
greenhouse
scenic
legislators
swear
respects
judgement
hostile
missionaries
gloves
jackets
kidna
spirits
welcoming
introducing
disappro
cooler
immigrant
powder
renting
illustrated
1929
revealing
hatred
sarawak
##compl
chemist
grip
launching
mahal
nicely
muttered
courtyards
philosopher
solemn
jimmy
recycled
assassination
conceived
hijackers
thoroughfare
disappointing
withdrew
unwilling
vulnerabilities
cantina
graphic
iranian
reconstruction
balcony
accumulated
serbian
muscles
zealand
offspring
subscribers
intervene
ancestors
tossed
sighed
corridor
disposable
confidentiality
rifle
exaggerated
fenner
compatible
##minster
skyscrap
umbrel
nightclubs
reconstructed
cyclades
abruptly
abstract
##unciation
galilee
injustice
pittsburgh
unreasonable
sunshine
endeav
properties
eiffel
aluminum
skyscrapers
aux
ds
dak
eternal
fence
fict
gur
hiv
holl
ig
lure
mull
nuns
oun
rats
ropes
rugs
ub
uk
vom
vain
voth
wy
##pill
##iences
##nik
##gie
##hed
##rays
##fol
##uke
##zhou
##jman
##atown
##esign
##enuous
##orout
##orical
##alds
inability
insect
##asth
isikoff
reception
stap
stern
stee
fores
##iguous
algar
shal
prose
franch
##illion
orr
knit
##ellation
spelling
maced
##unken
logg
compost
compact
compelling
fare
dijon
grind
boiled
coo
coh
poems
##angzhou
needing
guill
guangzhou
servant
moist
consume
rembrand
differs
highlands
blaz
supplier
flue
flute
##getown
wrench
warren
deploy
federation
realm
realignment
eds
##lett
delos
delta
organize
restoring
approving
demons
engaging
autorout
hardest
curiously
technically
designing
graft
testify
stuart
palms
palma
collectively
morality
salute
experimental
estimating
101
10am
156
posit
remembering
ceilings
specialist
122
epit
balancing
focal
rocket
divine
devot
debts
coptic
murray
optional
wordsworth
drinkers
requesting
sonora
acquiring
hurts
complexes
georgetown
imagined
climbed
farmworkers
preferences
commentators
skyline
ballot
garlic
##banes
microw
brian
complied
murderer
surveyed
elder
criticizing
powell
ghetto
breathed
consulted
deceased
sarbanes
##ukk
furnished
torch
carpent
attendance
distinctly
diseases
sponsor
1917
hawaiian
darn
stadiums
bolt
bolted
suspects
klay
triumphal
assembled
cafeter
weighing
plaque
outskirts
constrained
bernini
caterpill
broadcasting
quinta
bartolome
refreshing
elasticities
pistols
barbara
veto
baptist
phenomenon
panorama
relieved
deferred
hurricane
aesthetic
gaulle
disadvantage
exhilar
lumpur
tudjman
hebrew
incumbent
mornings
laundry
dazzling
uprising
obelisk
irrigation
kurdish
maritime
hikers
cocaine
amateur
haifa
steele
rembrandt
caterpillar
bun
baker
couch
dart
duct
daring
denn
ee
folded
hank
kud
kaz
krist
lapt
mate
nude
pup
rio
rained
raining
sop
ssa
ud
y2
yel
##pur
##ien
##nell
##try
##rue
##cad
##uaries
##mers
##35
##zart
##just
##esy
##ori
##isco
##icy
##leep
reese
stables
hak
##robe
##olved
wasted
healing
shy
##ulse
##essim
##ersed
##illas
##kew
chand
chip
succ
livel
spurs
outd
outpost
##ousy
upright
tear
tag
taj
tapped
ammon
amato
incidence
diana
disrupt
bohem
cogn
lac
cran
cram
crashed
pockets
##ensils
pollock
mozart
backd
invis
inviting
##fts
jocks
##weight
flip
flung
idiot
persist
marie
phones
standpoint
enduring
locate
drunken
esteem
homework
rests
charism
corinth
forming
grain
serene
2007
communal
certific
ideology
##tsin
mats
protested
equality
anna
mainframe
judging
interval
burnt
amongst
stuffed
solving
methodologies
164
165
participant
linear
accepts
protects
fells
110
pickup
##ycl
quicker
madras
violated
laborers
appearing
motives
spanning
cleaner
indicating
utensils
combines
lawsuits
documentary
crocod
venus
killer
cruises
urge
occurring
columnist
1964
1967
vacu
ethical
railways
matches
targeting
bronx
benid
acquisitions
speeches
preventing
##masters
1948
austere
wider
graduating
retailing
inventories
shady
illustration
1934
proceeded
workshop
recipes
buddhists
elegance
hunters
conqueror
instructed
calculations
poisoned
incorporating
motorc
saber
iraqi
enthusiasts
bosses
loral
bourbon
cyp
groceries
##keeper
racism
thrive
elevated
grandeur
inefficient
renewed
renewal
rituals
lagoon
hubbell
frightening
##writer
discourage
riviera
torture
nhh
salvador
aqueduct
parcels
insurers
fierce
betrayed
riots
incompet
enforced
entrepreneur
deductible
dinosaurs
pallad
dolphins
imaginative
vermont
leverage
discretionary
depreciation
prevalent
wiped
unbelievable
spontaneous
ernest
qaeda
pylon
apocaly
algarve
microwave
klayman
y2k
yeltsin
64
ale
awe
aided
cze
dual
fret
fitness
gaps
ic
kitt
lut
nba
nike
pans
patch
rend
rack
##lining
##pack
##occ
##oft
##gerton
##apped
##wall
##zi
thur
##erpt
##inan
##orously
##ingo
toes
toile
inlaid
##lements
##otec
##stick
##utive
stating
stately
stored
##chool
##ige
anonymous
alarm
asleep
notification
shattered
##teries
seam
##abol
leban
leaks
##arte
maur
plague
plateau
arn
##cian
sack
outlet
outline
unity
uniqu
unex
##inder
compelled
##ifer
workout
##vency
contam
dip
coats
##uctive
##icals
crowned
indiffer
carr
relies
monkey
stras
joan
blamed
evans
evocative
##wealth
flamb
subs
daylight
discern
discrep
marcus
modem
edgerton
organisms
redeem
minaret
carey
revisions
souls
builders
seemingly
barred
airline
developers
importantly
taxed
gravely
jonathan
patio
excerpt
stunt
password
oppose
growers
sidebar
sane
millionaire
steak
mercy
successor
promotes
courtroom
burton
accessed
##holder
##parents
antich
grandparents
devi
commissioner
obsessed
1985
custod
violations
favorites
frontier
separating
exceptions
communicated
narrator
##sethe
wilderness
respectable
louisville
mentioning
measurements
arafat
investigated
verification
1966
decorations
bombed
roller
dangers
petit
florentine
limitation
textiles
commitments
##mosis
puff
diego
robes
deficiencies
inquest
inspections
skinny
furnish
archaeology
calmly
oxy
torre
adequacy
baff
bailey
griff
dissaving
mahara
detecting
gauge
heyday
reminds
writings
clarify
accidentally
asserted
eagles
depressing
unclear
omn
ventura
outputs
uniforms
monarchs
wounded
##ulsive
solicited
indoor
linux
chinatown
adaptation
jefferson
narc
worshippers
pharaohs
cluster
ignorant
panoramic
disclose
kenneth
pompe
inferior
uncovered
inaugur
oscar
overcrowded
botanical
adultery
correlation
salamander
hypocris
beverly
temptation
harbors
adjoining
##hardt
inelig
whilst
inglis
intermediate
dakota
cafeteria
benidorm
czech
##oteca
450
6pm
81
aquar
billy
cuc
citing
cush
dyl
dwar
erupted
fits
gamble
hann
lust
mast
mcl
sang
tatt
vil
vcr
yields
zar
##cz
##cal
##mi
##mere
ingen
##asu
##eliness
##utable
##vering
##olith
##imburse
allev
##adda
shelf
##esses
proving
weed
seg
chow
chant
chron
sums
##gev
##ellers
sob
socially
prone
sphere
mang
saus
enron
clues
adri
pebb
completing
##ahan
##izers
pertaining
teod
amuse
sheets
impl
expat
quas
##group
fears
##uber
bred
lak
accuse
##ensible
carre
firth
afterward
throws
legends
deco
monster
assignment
remedy
##leside
joining
downhill
proves
blast
keynes
flank
busiest
##ocracy
persistent
slap
slide
wright
emperors
margu
realizing
##rection
rested
restruct
farrak
schooling
refund
refrig
refurb
thoughtful
barcel
percentages
##plan
##pless
##ilted
taxation
businessmen
processions
touring
communists
roommate
runner
patience
whitewashed
morals
##amese
policeman
##ieties
understands
delivers
sidewalk
harry
estimation
singers
greed
dolls
stepping
individually
questionable
noncompl
silic
immort
balk
coasts
geography
staffing
turin
footage
circulation
strongest
murals
surrender
golds
replen
campaigning
godfather
fairness
peacefully
germain
santi
substances
lawsuit
ignores
causeway
installing
rapids
senses
garments
##ipper
arawak
displaying
reliance
layout
##class
exercising
weld
shoe
##rofo
safely
ambient
ambleside
freshwater
melod
conceptual
occupy
1947
1940
virtue
irony
olives
1920
karn
jumping
mobil
consequently
photographed
wilkins
memorable
ashoka
dowd
detectives
digest
footh
clarified
whisper
stamped
330
depressed
disagreement
outlays
outlined
fragments
hudson
exploitation
rajasth
hypothetical
feminist
resemble
murders
pagan
landmarks
utilized
suspicions
spoiled
allegedly
butterf
premiums
worshipped
diplomatic
abundance
olympics
skeptical
pearl
ceremonies
contingent
wrestling
continuously
surgeon
peasants
enlighten
himalayas
comedies
lalley
adolesc
strawberries
consortium
stagnant
etruscan
cambod
energetic
slogan
montmartre
dusk
hoffman
hilarious
reconciliation
reminiscent
kittens
furnishings
aquarium
dylan
dwarf
marguer
91
au
aks
bub
bidd
ely
eug
hath
iz
jets
lil
lus
lomb
mason
nash
oath
ply
rendered
sff
ves
vint
vantage
vagu
yam
##eur
##eck
##lash
##naires
##gone
##gence
##acious
##sad
##rd
##rine
##cane
##writ
##burs
##mates
##98
##200
##jab
##inished
##ono
##real
##arity
##aria
##isi
##isa
isa
reactions
reimburse
onions
whist
wholes
forested
##very
almond
goats
##opy
##anto
bypass
aba
abol
leop
mecca
##oshi
noises
prc
spared
mae
##unks
arbit
##emen
clun
clark
unused
peep
peasant
complying
##herent
reside
##ifs
incon
inclusive
newt
newcom
contests
##achi
intergovernmental
overview
disburs
hercul
laur
crom
##akis
recession
invade
invading
monst
remsad
##ermark
subp
slab
obl
artwork
elimination
kindly
retains
##enees
insign
insert
defining
ministry
##arsely
refusing
audiences
detached
airports
particle
tournam
patent
mailed
portable
landf
electoral
prett
criter
statuary
183
operated
apol
understandable
departed
brock
harmed
greedy
regulators
facades
questionnaires
##ricted
filmm
bloom
vii
geometric
grandchildren
inflow
teaches
constructive
jerk
commonwealth
ensured
firef
bonnie
galleria
creativity
angels
corrective
dressing
1972
pathetic
journalistic
investigating
advertised
behaviors
shovel
voluntarily
prag
collar
catching
predictions
caval
bulbs
1923
cupboard
pyrenees
nomine
nomination
instruction
telephones
byzantines
converting
eagle
dominates
monitored
sugarcane
tailor
satisfying
floods
flooded
concealed
blowing
dragon
reinforce
phrases
tornado
bedrooms
mentor
paradox
hastily
pitre
renovation
struggles
dilig
owes
admirable
transmitted
summarizes
bernard
embarrassing
patriot
flourished
flourishing
vendor
advertisement
mathematic
envelopes
ryan
pronounced
disclosed
fiercely
hispanics
anchor
contingency
bumper
interfere
counterparts
flanked
lamps
downsizing
borneo
kiosks
jumbo
infinite
airplane
embassy
untouched
mehmet
matthew
kabuki
immunity
autoroute
invisible
corinthian
vacuum
strasbourg
flamboyant
oxygen
hypocrisy
farrakhan
bidders
##writers
tournaments
50s
512
86
auctions
cripp
dic
dess
dum
dys
eph
hides
icons
khan
lend
lug
mitch
nc
nfl
oven
osha
sank
wary
##ean
##dad
##lion
##iantly
##table
##hir
##hour
##hame
##falls
##car
##with
##woman
##bly
##ystem
##mes
##74
##juku
##xy
thai
##eroy
##esus
##ouin
tosh
andrea
isle
recept
harem
##imps
alc
##adic
heal
shaw
##ules
negr
fron
fruits
seal
doomed
chios
exor
knives
##riad
abortions
meiji
allerg
spice
maz
manners
arising
##emon
unins
unjust
##oused
##izable
newton
exported
grasm
overh
disreg
##rys
booming
coe
coven
lax
##ipur
accustomed
##licable
undist
undergrad
##iances
lottery
consent
decides
backward
trapped
##othy
specially
blair
##ressive
##ibu
slump
dayton
parl
parental
disco
elbow
modify
##conn
minisk
minamoto
##ificant
mete
metrics
comeback
nationality
autobi
curs
curved
mustang
concorde
cheating
cheeks
turnover
certifying
transp
ideological
patric
raf
raven
raft
clintons
pala
collects
morrow
apache
caletta
tradem
##brow
halted
broch
volley
succession
successors
plea
157
155
1500
socialist
irreg
cement
brah
##author
methodological
coupled
antit
tenants
civilians
destruct
entirety
##ogne
##umbers
hearts
madness
unfinished
favorable
strand
virgins
reformation
emergence
lowering
damaging
arrives
noticeable
voter
communicating
gardener
wilde
corrected
venerable
declar
biology
1977
sensation
garland
605
midday
disposition
boxing
literacy
warmly
meaningless
laser
bandit
ultra
vacations
telegram
predicts
repeats
cubans
brandy
dedication
irak
daddy
##iesta
efficiencies
##market
mirac
novelist
1945
semin
cartoons
transferring
3000
allocate
absorbers
osi
oversee
arcades
1919
speculation
waterfall
divorced
cousins
darned
gorge
unusually
antoni
accommodation
ecological
densely
rewarded
tanf
disneyland
exploit
cheerfully
fertil
lamar
lambs
promotion
renovations
struggled
cycles
boomers
offsetting
distinguished
prophecy
sailors
crawl
monopol
athletic
stimulating
metropolis
licensees
tutmosis
passionate
advertisements
prolong
excavations
mathematical
scrutin
frustrating
tangible
lobbyists
skepticism
ellison
wardrobe
triangle
ornamental
lungs
cedar
philippines
fossils
sprawling
prescribed
disgusting
jardin
hockey
intoxicated
predecessors
interpreted
eruption
sarcophagus
blanca
rectang
nightmare
transplant
bureaucratic
destroying
anatolia
trivial
persecution
##anthrop
ineffective
pencil
symphony
umbrella
fictional
grafton
laptop
lebanon
antichrist
teodoro
refriger
noncompliance
enlightenment
cromwell
insignificant
apollo
grasmere
76
apt
bows
cough
dair
dash
duration
eats
fold
gin
gem
gases
ip
juries
kor
mou
oy
oaks
pes
pod
rim
rated
rivals
sink
soda
tint
urea
vamp
wit
##eer
##dled
##iary
##iken
##net
##tm
##si
##schild
##ridge
##far
##master
##maker
##ku
##konos
##28
##erick
##atro
##escent
##enheim
ink
##itomo
##armed
##omot
##ioned
##iliar
##ileries
bew
beau
beats
##utant
stumbled
haired
forem
##imil
##imited
##amiliar
alas
##ths
shores
##este
coniston
dos
chan
cherry
goa
##rained
lia
##outed
prow
sphin
mafia
##unned
##qual
outn
trinity
unac
upward
mykonos
##ureen
amused
quai
offenders
##arets
grotes
brisk
coves
lace
laud
goodman
##ilel
decad
monot
traced
opulent
preschool
joc
makeup
madeir
evangel
flushed
flaming
systematically
addicted
subia
slice
emplo
wares
visc
basics
discont
handic
modifications
locomot
insane
defender
builder
popes
meditation
pointless
demograph
engra
nationalist
curves
curtain
signatures
graff
openly
chevy
extends
ideals
mailbox
##teenth
porte
##leyman
cretan
grouped
annivers
varieties
billing
trades
activist
experiments
mergers
judy
awfully
presenting
##ancies
brace
agreeing
encycl
labels
styl
turbul
competencies
modeled
debates
snack
eleanor
universally
copyr
118
1981
circles
picks
##ographers
militia
panama
influx
decisionmaking
royalty
##iquitous
bonap
alternate
juice
sandwich
denying
rounded
pleasures
hype
kills
candy
604
deductions
integrate
cambridge
remainder
1968
punjab
worrying
renamed
augment
italiane
2018
videot
gentilel
concentrate
forgiveness
forthcoming
1941
retailer
fanci
spectacle
roofed
sarah
scandals
proceeding
vacationers
neatly
heroin
dishon
bagh
overseer
nicer
sophia
##gregation
assertions
dominate
venetians
flags
subtract
sacrificed
reservation
sanctum
lorraine
stranger
pcs
tuileries
rodin
lucrative
admiral
fulfilled
australian
alabaster
greeting
pregnancy
stanley
dotted
exemption
exemptions
loyalty
intervening
frederick
travelling
sikhs
devastated
phenomena
humidity
vocab
metaph
theoretical
tucked
gutenberg
richer
oliveri
contradict
likeli
navigate
sesame
swallow
hierarchy
conspiracy
cautious
mascul
yankees
paralegal
perennial
trinf
tadminster
strolling
pokemon
autonomy
ralph
edifice
gourmet
cricket
insufficient
giovanni
ubiquitous
orrery
backdrop
##inancial
lakeland
goldsmith
marguerite
vaguely
isaac
monstrous
criterion
iraklion
foremost
sphinx
anniversary
likelihood
ao
bury
cries
dh
ech
ja
ka
kit
kow
kod
kannon
laughter
nl
pd
pk
piv
poul
pessim
rer
ras
ria
ridden
tart
tiss
vines
vern
yale
yelling
##ele
