[PAD]
[UNK]
[CLS]
[SEP]
[MASK]
!
"
#
$
%
&
'
(
)
*
+
,
-
.
/
0
1
2
3
4
5
6
7
8
9
:
;
<
=
>
?
@
[
\
]
_
`
a
b
c
d
e
f
g
h
i
j
k
l
m
n
o
p
q
r
s
t
u
v
w
x
y
z
{
~
¡
£
¤
¦
¨
ª
«
®
°
º
œ
α
β
γ
δ
ε
ζ
η
ι
κ
σ
τ
υ
ω
х
–
—
’
“
”
‡
…
‰
€
##y
##p
##o
##c
##h
##n
##d
##r
##i
##a
##e
##g
##k
##t
##m
##u
##l
##v
##s
##b
##3
##9
##x
##f
##j
##q
##5
##0
##z
##8
##4
##w
##6
##2
##7
##1
##°
##œ
th
the
##er
##in
##at
##es
##on
##en
##or
##ed
##ou
##nd
##an
##ing
to
##al
of
##ar
in
##it
##re
and
##as
##is
##ic
##om
##ion
##le
##ent
##el
it
##il
be
##ot
is
re
that
##st
##ow
##ve
##ut
you
on
##id
##ly
##et
st
##ct
wh
ha
for
##ro
##ur
##ay
##se
##ch
##ver
was
##ol
##ig
##ce
##ir
an
##ation
##im
##am
al
##th
are
##ad
##ld
as
he
##ith
##ter
sh
##ul
they
with
not
pro
##ess
ne
##est
we
con
##ers
##ment
fr
##ill
##ke
have
se
##ere
at
de
ch
##op
do
go
com
##ra
su
or
##ould
##igh
##ant
##od
li
##ge
ex
##ate
##ain
kn
there
##pp
but
##us
##ri
##ist
by
##and
ye
##ust
##ity
know
##ck
##ab
ab
##ort
from
##ore
##ies
##mp
so
##ell
uh
##ost
le
##ome
##ight
wor
##out
##gh
this
##ally
##ard
me
##ff
##os
can
all
##all
##ud
##ive
en
##un
##ect
man
##iv
##um
##art
ma
pr
sp
pl
his
no
##ough
has
had
one
##ap
##ie
##our
ar
##ci
##au
were
##qu
##ast
un
out
sa
don
##end
##em
about
lo
will
cl
##ok
like
pe
ad
if
their
tr
##ous
what
bec
up
##ice
would
tim
any
##ound
my
just
##ind
##ink
more
##ish
##ong
##one
us
##ions
some
ag
comp
##ated
##oun
##ah
##her
res
them
##if
##cc
##ure
##iz
##ther
##ople
per
year
people
##ance
work
##orm
##ack
##ine
##ause
te
ta
get
who
when
she
did
am
##ans
##ide
##age
imp
yeah
well
##ven
been
think
because
exp
##ount
##gr
fa
di
new
inc
##ely
time
qu
##ame
##ings
##ag
##ble
##ich
off
cont
##ence
rep
##ations
ever
##ays
int
##ach
than
its
##able
other
##form
car
gr
over
inter
##ue
##erv
ro
her
dis
##ite
fe
mu
how
##ub
##ry
##pt
##ery
tw
##itt
##ult
app
##ary
##ose
##ber
##hing
##00
br
la
##ors
bo
co
##ip
##ree
##wn
only
most
19
##own
##ign
good
part
act
bu
your
##so
could
##enc
##ade
##ild
him
every
which
##reat
##ace
cr
##uct
said
pre
cent
##ical
sc
##ak
##ia
##ass
##ments
ind
acc
comm
##lo
col
ve
po
##ens
see
##int
##ase
now
##ang
very
##lic
##og
many
##ep
af
need
gu
want
##ving
##vel
mar
right
des
##ire
serv
rec
##ory
two
really
into
##ates
should
und
##ond
fir
##ac
##ition
##ents
these
##ved
lot
##ile
here
may
bet
never
sm
##act
##als
hel
much
##ty
years
does
um
even
under
our
then
att
look
after
##king
also
##ian
##ord
progr
##omet
##lect
pol
fin
mo
thr
##ful
##iss
where
cons
mon
##ict
leg
back
##ater
somet
going
inv
dec
##ices
way
rel
##ick
got
##ities
sy
##cial
though
program
tra
str
##amp
old
##are
##eral
long
par
inform
sec
op
diff
ass
make
too
##vern
##ial
##ft
down
first
rem
##old
high
reg
jo
##its
pres
##les
##ert
made
##ces
spe
##und
eff
##ons
##ning
cost
##mm
##elf
##oth
##ious
##ys
##iew
govern
information
through
prov
##fore
bl
##thing
##ath
##av
##gan
##ail
##ood
great
##ouse
##way
state
sch
##land
ev
ke
take
pub
help
##ury
requ
law
##ational
##oll
those
##lud
still
##erm
##ress
##ks
##fe
supp
count
##other
used
##we
didn
ac
##ract
##ting
##urn
bel
fl
stud
before
bus
litt
little
##ib
##ular
##ual
##oc
##ject
oh
gen
something
report
say
##ied
##ility
##stem
##ise
add
things
##ating
system
##iver
call
##get
use
id
##ather
cour
sub
pers
find
mean
##ually
wr
##ily
##cess
own
war
government
fam
##ible
includ
legal
##ited
##uring
ll
house
sl
emp
##ards
ob
##atch
##orn
city
vis
##ange
differ
##ways
sur
##led
##ced
dep
being
day
such
##pe
art
bas
show
hand
cap
again
##ures
pay
prod
##oss
##olog
##mb
interest
##eric
el
disc
##ked
##ics
around
small
place
##ool
ca
##ph
##ug
fed
world
plan
ph
##ered
americ
kind
inst
stand
##ues
real
last
found
##ative
199
agenc
mod
##ix
##con
##lish
child
ret
tal
lar
##oney
##aint
##sc
val
end
always
##ene
loc
dr
public
ed
ga
set
red
##ms
##rib
##ants
##oup
organ
##kes
##rect
same
##ves
ear
import
min
est
money
resp
pop
##rol
while
town
ent
##cent
##ars
three
##ying
del
##day
ru
ins
stre
##te
##ident
start
##ives
century
federal
def
home
proble
person
happ
##ew
organiz
##ower
##ists
rev
care
both
rest
school
big
far
read
num
pri
##ets
nor
sin
thing
##ody
##red
##ss
appro
##ork
best
sim
build
##ines
char
let
sou
seem
thought
##ific
##osed
met
##ek
eas
dem
##ably
perform
life
cor
services
##fer
##iness
bar
play
come
##conom
anything
cle
might
##ently
##ern
med
each
put
fund
prop
fact
##ren
belie
av
point
effect
hum
few
during
hard
better
eng
##ution
aud
case
##ici
econom
less
##chn
hu
##ear
lead
##velop
post
##xt
sk
sure
tri
national
book
##ween
em
between
wom
##tern
incre
comple
different
another
important
service
rule
det
must
mil
chang
cur
##ains
iss
develop
since
techn
##ters
aut
##air
##urch
percent
compan
mark
form
result
dist
product
##hip
##ids
tour
##ically
country
##ided
sign
control
partic
away
##ins
##cept
air
adv
##ized
business
##be
bene
##res
watch
##loy
##ull
tax
consid
manage
hist
went
##pl
conc
##ined
##der
##ilt
##ds
ser
aff
feel
design
keep
visit
gra
##ten
##ata
muse
island
##ier
ext
##ash
doesn
head
##az
##ts
fun
sit
che
##uss
news
##gest
##ention
area
why
##ason
##ital
benef
##ever
run
commun
open
turn
process
##uc
temp
four
direct
children
##ism
quest
near
times
##ling
##self
##ward
200
water
room
##ired
##alth
##ural
guess
sen
ide
ty
states
##io
number
view
trans
once
wal
hot
jon
adm
mr
cover
##rew
sever
cert
finan
##ron
sw
##ize
prof
week
data
##ross
yes
##ollow
mill
prob
conf
da
management
pat
miss
left
nothing
invest
account
maj
employ
allow
without
##ately
##que
##ted
anal
follow
mail
##orts
##oy
##man
men
done
##ected
const
##co
##ale
bud
tell
test
##body
exc
mus
month
programs
president
poss
##gress
##ared
##til
museum
prot
bad
camp
##ality
##els
white
doing
ra
000
major
gl
##ger
##ee
clint
##ends
pret
##ec
intern
expl
land
five
elect
##ides
south
hour
enough
next
##ric
probably
##read
group
##ology
##ats
support
north
night
port
##ley
built
cre
kids
secur
clinton
##stand
took
gao
job
impro
ter
##ought
large
stu
ann
church
polit
ref
pass
pal
fri
give
youn
shop
called
nat
ris
several
20
mat
office
along
##ained
equ
##ton
priv
##ged
class
came
crit
review
american
grow
audit
today
require
able
contin
opp
beh
##ock
##wh
##ness
stat
collect
congress
certain
against
##ior
until
pract
##ner
family
inf
mor
##ead
market
var
##ank
change
enj
18
dri
##ral
top
power
term
seen
oper
##ute
sect
##ases
##augh
##ned
##side
gener
lsc
rece
##ision
street
everything
##ruct
pretty
##ees
name
happen
##ages
second
financial
main
agencies
known
##ote
summ
giv
polic
security
costs
wanted
##less
##ime
##ames
arch
auth
tre
##aper
cond
performance
##ety
##gy
level
sal
wa
center
agency
##lement
cal
ap
however
bill
huh
##ining
ok
stay
##vers
project
understand
##ither
course
often
mov
##per
##uck
exper
trad
dra
clear
curr
local
believe
meet
past
examp
##hn
avail
pa
##ey
##ru
activ
invol
##ering
##ivid
##iel
enjoy
##ccess
provide
general
##ump
##ised
bro
hal
repres
else
having
##ken
popular
problem
##most
##ether
six
stop
john
united
getting
story
won
##ember
order
analys
##li
##ased
capital
##ional
low
ste
deliver
##upp
free
women
gre
##ency
depart
##pped
##aring
##ission
doll
vol
##idd
cut
##used
saving
isn
health
building
##ified
##ark
success
problems
side
##ensive
least
try
har
##oot
##ability
##imes
10
ey
rul
budget
black
reason
everyone
ten
lim
study
says
san
##ending
actually
list
almost
days
quite
estim
sta
##gin
told
making
million
available
thir
exec
##eng
wasn
asked
road
cho
win
cult
fig
orig
young
vill
saw
mer
ago
##ured
based
food
##ients
gard
##ances
whole
##aster
##ulation
mag
beach
looked
history
live
lea
individ
whether
##ored
jap
occ
sing
experi
site
represent
comput
addition
japan
prom
among
##iting
indust
vi
jud
rather
##aut
hop
##cif
half
pie
fac
##br
lawy
origin
wind
sug
idea
##sel
company
##ps
##ont
15
tot
pos
maybe
social
deal
mount
hous
##ument
tomm
##ient
aw
non
##ife
tommy
fut
##uation
##ench
full
discuss
wall
##ries
ident
changes
pur
analysis
bre
author
##ources
tupp
makes
yet
##ibility
resear
research
##ried
##ived
tuppence
sat
##ina
##idence
court
##lished
working
including
organizations
##ians
##emp
##ences
##sh
##pect
##vent
okay
ple
##na
respons
##ories
sun
west
execut
question
true
benefits
ir
##omm
##hod
someone
##anc
##ively
desc
sound
##ended
##ret
present
york
ce
fil
enter
##rist
##arr
within
es
manag
arm
either
ho
hold
brit
##aim
tow
heard
nice
trying
short
needs
later
rom
blo
fish
bra
lear
usually
oth
issues
remember
technology
##bo
needed
##ination
private
future
others
bit
sol
stuff
17
early
il
estab
beaut
king
##ison
cra
imm
hor
##rict
interesting
##ane
##lev
bur
income
accord
using
example
signific
amount
travel
outside
step
wond
agree
buy
across
possible
admin
seems
access
##irl
become
##up
postal
method
results
##pr
##utes
##att
face
temple
##ration
env
standards
given
lab
tex
meas
poor
hill
systems
easy
##atic
##ateg
special
east
kill
##aking
looking
regul
##hold
##line
jew
colle
address
##aces
miles
rate
##par
final
eu
##ued
christ
sil
12
##icult
quality
##iod
##soci
ep
girl
##ister
sty
team
##ows
toget
reach
coup
##by
##enty
##elt
##cient
talking
profess
period
include
economic
enc
together
particular
specif
hund
modern
abs
hundred
ant
associ
sometimes
mom
pot
bal
consider
net
cann
suggest
civ
##over
love
knew
door
difficult
##ortun
worth
attract
##itions
fav
##0s
##iding
coun
prin
taken
educ
alth
coast
mind
im
staff
value
although
due
##cip
paper
##iled
move
drug
talk
park
started
##ivers
init
hours
significant
record
dest
##ott
improve
policy
16
daan
hus
ge
##work
foc
death
##fully
##iron
compet
matter
##ilar
##cially
dom
flo
##raph
##enn
##ape
particip
##ready
euro
already
held
computer
drew
environ
typ
couldn
##ming
##ense
simp
human
department
##ica
months
##where
tur
##gle
##ze
##ising
##uce
##unch
##iful
paint
model
line
squ
##ese
##vious
himself
fall
dollars
shows
behind
french
##iter
##band
##itting
##ished
##por
implement
woman
approach
music
lost
administ
arg
summer
assist
civil
##aps
claim
##mbers
##kely
##atory
repub
##tain
##erg
rock
##sw
necess
grand
fre
members
sent
movie
europe
return
##ator
##val
exist
accept
current
##ove
ground
##bs
organization
infl
community
fine
##ush
planning
risk
development
dou
environment
thous
thousand
determ
age
##rin
according
##hol
demand
republic
protect
tradition
eval
studies
foot
friend
cannot
impact
companies
sn
##rop
sell
rout
anyone
deb
walk
areas
increase
total
mem
scre
required
beautiful
personal
haven
rules
cases
ones
sort
##ilities
husband
exact
similar
concern
workers
close
##ume
##chie
cred
##acy
object
rich
##ogn
justice
became
fort
##ges
##itch
hun
##yn
##ature
##ening
##selves
##ius
fle
##imin
political
alco
bring
entire
light
eight
grant
##aur
fight
ele
teach
single
subject
requirements
press
considered
felt
river
doc
commission
texas
alcohol
div
fore
lou
##itted
##ama
wouldn
activities
sus
resources
##aw
begin
regard
answ
##irc
gave
british
##itive
dev
couple
##omes
##amed
cast
famous
achie
fell
recogn
employees
parents
ital
##ield
delivery
hear
expect
##ny
leave
works
##aves
collection
favor
univers
hol
college
##ium
defin
##fact
self
##ball
quick
fur
##ov
vict
##ony
interv
related
##rem
cop
pick
wife
##thern
assess
##ourn
longer
turned
##oring
comes
soon
contrib
obs
type
began
living
strong
experience
espe
saint
histor
nation
offic
taking
takes
price
treat
##iet
construct
wrong
eyes
especially
coming
198
mal
mur
##lin
reports
famil
adrin
mult
sea
##yc
##ators
involved
america
wonder
likely
sir
##atives
charact
industry
##uced
11
provided
##ential
refer
proper
tv
wood
instead
ii
##ler
##asing
section
circ
##urs
goes
##iddle
##oke
offer
restaur
##ograph
milit
bir
aid
figure
##pri
themselves
table
aren
common
effective
questions
14
##umb
houses
##use
dead
repl
soci
words
middle
##ify
minutes
describ
drink
maint
sense
gold
means
lang
##ened
ask
above
roy
opt
cust
appropri
complet
##fect
heart
issue
central
check
mad
##ann
board
morning
base
poll
standard
brought
attorn
vo
bed
jul
journ
worked
evidence
hall
##bor
god
labor
friends
##uses
village
30
france
reporting
detail
viol
key
vari
##aining
pen
surr
roman
visitors
##ping
##ots
hands
contract
norm
##bert
relig
100
sold
lawyers
individual
cath
conn
comments
recent
late
recomm
changed
##isions
proposed
unf
received
ancient
##istic
twenty
sett
funding
sex
english
style
##aign
further
##oura
poir
economy
##hib
campaign
##den
##ique
executive
front
avo
poirot
hur
jer
##epend
archit
washing
neg
chap
displ
exactly
democ
happened
mrs
hon
##son
foreign
##ledge
speak
event
huge
hope
arr
vir
expensive
architect
pain
##app
anim
fair
applic
shr
places
population
happy
du
##isc
ens
perh
tried
fif
chall
trust
independ
opportun
purp
inside
books
perhaps
struct
leaders
influ
mot
expected
plans
##let
##omp
weather
##ake
##urance
lake
surpr
ran
##ring
##ai
suff
investment
corpor
jun
mass
##gypt
moment
neigh
unc
##lus
##amb
##ization
washington
stra
##rible
gets
military
##gn
perfect
manu
appear
attack
egypt
##ols
attention
##ky
lived
langu
er
ti
item
education
pict
ren
initi
buildings
##airs
decision
reform
13
emerg
square
party
mother
relations
fire
##ores
created
strateg
epa
##ival
completely
##arch
##ental
son
##ires
prep
valley
mos
desp
bush
green
ways
chines
piece
decided
ban
##ction
trade
gone
##iqu
express
district
chinese
designed
boy
located
palace
drive
third
pan
##ceed
manufact
higher
request
trou
household
james
knowledge
break
##ik
following
span
peace
acqu
spend
julius
funds
hit
##osing
allowed
dam
lower
necessary
custom
whate
surround
whatever
gall
artic
hotel
recently
color
royal
kept
specific
bon
rid
##ped
##ging
super
##issions
plant
arri
batt
creat
stri
saying
itself
eat
germ
##ades
original
game
dog
select
clean
secret
action
paid
##estern
deep
##isl
situation
separ
culture
groups
prefer
practices
vot
##ims
natural
ill
##med
2000
seven
##eter
countries
ord
spending
##ouch
scen
##hood
##ites
cat
gun
lack
##ronic
apart
pack
appe
serious
auditors
lad
##olution
##erous
spent
taxes
shops
exam
sav
##icient
character
ju
mess
stone
fail
finally
princip
##orp
engine
range
##venue
##ded
##ource
stock
corn
##ios
included
##ief
rates
comb
seemed
crow
sand
##ification
complex
legisl
geor
##ef
##itten
cook
committ
broad
moved
isra
##rupt
israel
focus
training
##uction
supposed
retire
##of
##he
conv
word
reported
altern
soft
indian
ingle
ali
efforts
annual
streets
##zz
##aught
trees
ingleth
mich
quar
aver
km
western
bey
ang
older
views
prim
save
##eks
##uals
notice
card
lat
prior
society
##oes
##set
##ams
credit
remains
inglethorp
##ript
dav
chance
americans
hi
##aries
none
##ole
##row
##osp
wish
##ana
lives
internet
##for
offici
laws
russ
##port
##uries
throughout
traditional
growth
mary
mater
narr
tourist
conduct
sant
##eness
subst
various
doct
assistance
##eless
indic
##umpt
voice
gree
cold
##xic
except
students
communic
swe
increased
position
benefit
##bur
upon
covered
draw
cele
force
university
##ises
provides
document
##ror
died
japanese
adj
phys
body
##umn
garden
celebr
link
guy
##ipment
share
##izing
prices
correct
ah
established
emb
additional
##ara
##idents
impress
everybody
commer
##ological
bank
##hic
##cks
dor
toward
wants
medic
season
china
scul
critical
cause
##arily
vers
inn
##illed
slow
bi
sculpt
sle
##itely
respect
islands
beyond
##apers
clients
wild
station
former
gardens
reflect
instit
language
cas
father
pred
thinking
paris
democr
despite
cro
wide
weeks
emissions
affect
##oon
##ights
insurance
farm
tomb
##ength
establish
mach
role
relationship
size
nobody
##rod
##ude
##ift
##iction
evalu
ven
written
interested
developed
##go
##utions
continue
imag
##uth
sup
equipment
bay
den
shopping
##oming
international
dress
round
##oint
##roy
clim
##bb
tar
myself
discover
##vert
exhib
anyway
doub
##sy
##ware
##leg
proced
feat
led
dall
50
page
fix
extrem
bab
##een
attemp
increasing
generally
tend
practice
learn
##ne
deg
below
tourists
din
quickly
alone
clos
decl
dallas
vote
published
25
##inc
##xim
train
cand
##aced
phil
encoura
web
production
running
pleas
rap
entities
cross
fash
surv
fem
favorite
sad
##estic
goals
dark
crime
install
certainly
mand
events
emergency
heav
fres
cru
sites
dro
hy
wealth
construction
##onst
##room
comment
patients
##iff
##oph
region
##more
rights
basis
named
slate
hosp
rad
looks
wrote
products
movies
answer
##ob
brown
largest
horse
observ
steps
field
includes
officials
letter
complete
##ipp
feet
choice
definitely
##itor
growing
families
threat
##edi
consist
extra
spanish
purch
lots
accounting
glass
recommend
average
bought
weap
appropriate
mid
louis
effects
##ha
opin
sky
carry
blue
helped
excell
floor
gar
##tered
difference
senior
internal
ign
197
nature
##ode
flow
##scape
volume
fast
##egr
multip
retirement
whose
sched
ball
##uted
club
afford
operations
mist
##asons
serve
hotels
meeting
absol
items
##aded
earth
mart
phot
easily
##bers
##erc
terms
hers
tit
space
previous
measure
cit
gate
ur
agre
german
##uments
pieces
##iques
ara
ded
scr
medical
authority
battle
##iced
##iling
reb
quiet
schools
leading
terrible
trouble
path
sens
fashion
individuals
60
lawyer
types
##ett
##ips
##enced
regulatory
master
##ux
##ables
##ches
1996
sounds
cathed
bye
##ivity
levels
goods
blood
rain
##ox
##wide
occur
spot
##astic
actions
reading
destroy
display
luck
mort
appar
particularly
achieve
##ba
watching
investig
administration
##olf
sports
offers
effort
##ex
stood
cloth
integr
##icians
mis
##usal
mostly
guid
connect
committee
##ax
##idge
winter
beaches
mic
##ban
stories
nearly
managers
journal
ensure
dang
sci
entr
##omb
simply
dut
ess
##cious
disp
mission
##cked
##unt
closed
##aughter
david
40
##erve
perm
regular
tower
excellent
jes
tom
##oses
subm
reduce
thirty
mention
##onse
savings
fly
ful
somebody
accomp
host
spl
equal
##rit
##rel
added
trip
##ills
revenue
payments
administr
##come
##sequ
army
cities
obvious
dave
wait
##ira
simple
beat
safe
reli
2001
smaller
cam
ver
##iny
media
respond
passed
judge
walls
restaurants
liter
immedi
avoid
##ma
##ster
prison
india
response
frequ
official
##erry
column
##ests
successful
##ille
accur
##asc
confer
box
religious
yourself
budd
##oud
payment
killed
drugs
article
conserv
cars
rooms
policies
film
fisc
mountains
treas
believed
jewish
flex
196
estimates
magn
decor
neighbor
pil
##anced
##reci
knows
truth
potential
##ask
##vey
##ung
hong
##eed
##atively
star
playing
##yr
grad
##utely
participants
adop
centuries
consum
southern
kal
##back
beginning
director
ut
expert
paying
limited
fiscal
points
constant
ft
hom
inj
contr
kong
chair
parts
phone
hans
george
##usalem
lit
touch
warm
ready
responsible
jerusalem
lay
requires
critics
giving
magaz
pros
served
useful
larger
christian
property
sud
newsp
independent
glo
beg
spoke
providing
adjust
sac
nearby
methods
ast
bes
convers
ability
discount
castle
liber
entertain
interview
bri
##uary
##ops
basic
capt
oppos
gives
##ornia
je
reasons
forward
compl
empire
eastern
distrib
sword
calif
republicans
##lier
constit
##uit
##ously
expand
setting
##cy
county
animals
receive
structure
##iring
anymore
analy
estimate
associated
source
##teen
omb
wear
advert
agreed
##put
##change
remain
bott
pun
##ament
note
raised
politics
domestic
narrow
hate
ib
spain
greater
series
hang
##aged
decisions
swim
environmental
date
rural
##ave
##gg
variety
absolutely
mix
##aters
spir
contains
guide
watched
electric
sector
mountain
multiple
catch
las
##cil
autom
eye
route
meant
starting
regulations
##fort
spring
billion
##ones
coff
propos
stopped
towards
science
fest
##oh
opportunity
hanson
married
restrict
activity
cathedral
##cul
shar
spect
charge
european
alternative
##men
progress
candid
band
born
kid
ul
##ners
purpose
influence
entrance
500
appl
jobs
tick
therefore
demonst
factors
fishing
jama
##cl
store
assessment
greek
exerc
qual
opened
continued
sor
##cing
affected
##wood
create
hair
telev
directly
roll
##ada
##rap
prem
##aily
professional
strategic
##eys
imposs
england
followed
currently
tast
cash
apply
statements
talked
profit
occas
##iar
meaning
vac
paintings
micro
bord
categ
gas
##ground
behav
challeng
flor
played
thousands
21
caught
worse
northern
attorney
sudden
aug
fol
##to
##itz
rele
ended
association
quarter
jack
loss
##chan
1999
unless
sleep
eth
##ience
intervention
##key
1998
electronic
enjoyed
daily
##nes
##ergy
##ena
unit
cry
rent
##ino
##oted
clearly
gi
jan
##wise
thus
search
compared
failed
debt
straight
pet
##gas
sho
clock
##aud
##ula
choose
eventually
shall
commercial
citiz
hind
weak
wonderful
angel
send
##rated
contact
appreci
seeing
oldest
estimated
##wor
##ils
stores
resort
coll
statement
italian
murder
corner
shot
##ope
values
california
impossible
##tim
##ule
assum
##ially
reached
nine
amaz
towns
sales
##antage
##rif
crimin
saf
dub
mine
##zy
invent
minor
originally
craft
treatment
##uing
brother
prevent
ideas
separate
willing
claims
features
brief
##ander
entity
majority
hurt
target
pra
assets
##umption
wine
colon
existing
games
sight
wel
##rof
italy
hospital
destroyed
et
match
tele
funny
procedures
##iers
##vely
boat
firm
decre
cheap
##mon
worry
testing
representation
discussed
##force
bor
##dom
chief
plants
adult
emper
musl
listen
cultural
shown
capac
aware
attorneys
##making
rail
##bed
lew
introd
bono
opinion
theater
liked
##ffic
evening
risks
location
easier
violence
lose
condition
samp
television
##inct
frank
sitting
##itude
interior
##ibilities
please
prepared
doctor
fresh
daughter
grew
disapp
remained
insp
identify
od
##ham
##aped
offered
numbers
walking
council
##rial
##week
doubt
conference
coffee
breat
die
compar
text
bridge
march
standing
limit
gore
sund
unli
repe
desert
architecture
fu
los
race
engage
##ucing
doro
heavy
clothes
##ji
evaluation
bag
biggest
learned
anti
homes
oil
##onna
transport
bul
##inating
##eth
amb
function
jesus
immediately
neighborhood
cool
draft
implementation
nap
vegas
earlier
ben
pul
welf
##ream
alt
welfare
lunch
tro
vide
uses
parties
symb
##ibly
newsweek
waiting
##inated
calls
defense
immig
temples
holy
extremely
sources
thorn
minim
##roll
performed
##levant
protection
member
objectives
regarding
burn
forced
uns
manufacturing
rue
##outh
##istics
residents
robert
19th
hills
routes
##ycle
bron
feeling
conditions
industrial
determine
acquis
fully
tough
wer
##lam
writing
counsel
ahead
dinner
august
bomb
papers
##oles
guard
shouldn
described
behavior
cub
theory
starr
thanks
grass
dram
susan
july
predict
##ipped
##iveness
actual
prec
spee
controls
businesses
stayed
grantees
historical
martin
pow
##ney
noted
1997
generation
via
##can
##ael
forg
mexic
intended
commit
moving
write
accounts
camping
projects
dollar
susp
software
bow
##mer
##los
##iles
##riage
thinks
psy
##izes
minute
##ventions
16th
lie
energy
foundation
##iday
##antic
traffic
capacity
revolution
completed
baby
pic
union
conclus
dedic
psych
##reg
surpl
201
birth
cav
incent
##uctions
##action
##azz
picture
weren
cyn
ride
##light
##irt
units
caused
18th
identified
rand
##ris
##iest
##ado
advoc
statue
powerful
normal
thank
track
screening
concerned
award
shoot
concent
##pper
##akes
pattern
pictures
michael
eld
##ulf
libr
client
##ague
painted
gent
willi
arts
situ
employee
suggested
restaurant
pollution
fifty
cow
dan
ira
exchange
tall
executives
fasc
##raid
brand
overall
student
golden
trib
busy
slight
emperor
nin
##ae
stick
comfort
##liance
republican
radio
bell
dod
processes
profession
mall
##ray
##ette
guys
understanding
records
recognized
wed
monument
findings
1995
importance
virgin
abuse
survey
##mber
##zen
relax
positive
housing
purs
dad
golf
discussion
22
fat
mel
greatest
critic
examples
jury
earn
challen
##burgh
rise
yard
##inary
stew
novel
unp
effici
election
##ancy
lady
lux
wid
print
afraid
police
##ushed
gro
##da
nod
##ca
spread
anywhere
career
##aza
conflic
satis
##50
##lex
compliance
##ago
interventions
initial
snow
imagine
hell
##asts
afric
appeal
citizens
offices
strug
flat
material
cards
ken
##rid
##ials
##adem
concept
rose
filled
##ested
strange
highly
chapter
june
households
pu
##oking
##mos
islam
pool
obtain
leaving
weapons
arab
pull
depend
senate
jane
vand
##otic
suppose
##etic
waste
finance
produce
leader
##ields
194
explain
gather
##eria
defe
goal
plenty
acquisition
oct
interp
##berg
register
stands
rulemaking
advantage
matters
mosque
exercise
##mas
##abor
##ender
hundreds
mir
otherwise
fear
technical
markets
accountability
17th
network
unfortun
degree
ton
suit
peak
mont
keeping
window
bath
laugh
yell
##rant
##iving
competition
scenar
names
##west
relevant
handle
produced
version
mortality
sevent
lies
feed
efficient
reduction
responsibility
gallery
aust
##gu
neither
incor
##ologies
kinds
advice
status
schedule
entertainment
##ois
##sec
weight
##ieval
happens
medieval
involve
football
drinking
ultim
speech
tun
##erved
##soft
manager
machine
funded
corporate
substant
flexibility
microsoft
fan
worst
indeed
guar
decide
helping
skills
double
legislation
mcc
forces
##olic
courts
cafe
occup
pleasant
recommendations
veget
showed
trial
changing
congressional
merch
fighting
amp
##ald
sem
##enses
presented
##has
transfer
girls
lif
boil
command
depict
totally
accepted
determined
concerns
fortun
primary
spectac
library
gain
##eries
unique
speaking
differences
walked
painting
medicare
sam
##using
artists
terra
scient
coverage
reviews
gh
tools
highest
helps
##sid
players
##ifying
founded
chapel
surprised
magazine
buying
stret
freed
virt
gradu
jamaica
guarant
bother
##lig
##ortion
##unte
loved
supply
territ
angeles
##ctions
franc
aftern
finished
organizational
announ
volunte
surrounding
opposite
lines
rang
vice
centre
gotten
gothic
editor
figures
opportunities
breath
##reh
firms
strength
finding
##pective
leadership
challenges
der
iron
reve
##verse
aspect
log
vehic
skin
raise
familiar
circum
24
##pa
forth
##ession
hadn
##ension
elig
reduced
merc
holly
hors
##ein
##anch
online
frame
mac
remo
developing
portug
measures
selling
van
##oo
entirely
cart
gd
##ta
glad
requirement
honor
engineering
santa
song
vast
planned
younger
dublin
era
tap
tiny
##oned
faith
twice
realize
tests
apr
irish
block
massive
climb
##cra
enem
mob
retail
confir
details
swimming
##mar
##uous
##tery
shel
grown
windows
argument
task
inqu
stated
throw
audits
illust
conversation
dedicated
##nam
##endish
compon
resident
depends
inspect
##iro
##inal
tea
bob
numerous
##place
facilities
##ancing
arrived
spirit
gift
tree
##house
##othing
chem
##oked
##gry
carri
marriage
##idden
rough
##gd
forget
asking
heat
boys
counter
returned
cab
lic
length
##equ
##ugh
users
imper
scand
monaster
issued
options
row
##ding
##bon
##orters
##oln
##ulous
quant
##eyer
guidance
gdp
##oti
factor
cuts
irs
malays
female
hyp
dangerous
cavendish
horses
somewhere
relatively
models
refused
jews
contributions
maintain
democrats
##incoln
amazing
bou
cio
lincoln
noticed
dece
##unk
fourth
conducted
vandem
haw
##cket
outc
roof
consult
instru
topic
burden
shad
carter
leads
moral
driving
##uk
##erly
sept
vandemeyer
##iy
worried
enh
contain
##akers
restored
##insky
advis
apartment
##bal
chic
techniques
sunday
kar
mile
rome
##ero
##ched
movement
corporation
constitution
ol
##ais
compr
contemp
193
decline
academ
edin
steel
dish
por
sar
carved
seek
believes
title
april
bound
rub
wit
##ini
satur
magnific
edinburgh
cell
fit
##era
marble
2002
perman
192
owned
explained
silver
buddh
##ulated
fraud
pray
distance
telling
victor
shrine
herself
william
bat
gal
##tom
owners
instance
productivity
statues
honest
surrounded
slowly
afternoon
shut
lawn
addressed
screen
january
boring
consequ
speed
slaves
improved
russian
impressive
apparently
##iment
ship
seat
lakes
responsibilities
suprem
circumst
hen
##do
##rate
##ev
forms
##adel
proceed
saved
symp
explan
eleg
elements
consistent
sorry
vacation
gay
waters
##ii
becoming
queen
coal
schol
putting
pointed
suddenly
dry
lond
##hi
compreh
bright
boats
flight
negoti
nodded
native
nurs
hasn
tours
illeg
fairly
mouth
##arian
meat
content
fired
provid
conclud
stake
rena
damage
selection
message
dropped
##ught
##hab
whom
##ront
furn
hat
pia
##inger
recip
plain
resorts
holding
attractions
physical
london
aim
##well
overs
governments
agreement
negative
principles
innov
nav
va
##atically
##orary
stage
proud
agric
amend
##ardship
approxim
advent
runs
facility
teams
picked
neighb
fixed
hollywood
300
alex
mond
##ita
##ishing
##issance
madeira
visited
interests
discovered
attempt
agricult
ice
jump
mc
##aming
##pping
##agon
rob
letters
broke
##holders
application
freedom
ber
bure
kent
chann
tru
scene
weekend
border
gamb
##lers
##itors
hearing
manner
remark
renaissance
rat
##ford
##apt
reductions
defic
roads
entered
piazz
renn
##stein
##amble
neat
scott
owner
basically
improvement
communication
photograph
##encies
employment
hunt
flowers
##nic
maxim
defend
balance
electricity
loan
unfortunately
spectacular
##com
##gment
##ston
1990
memor
documents
challenge
dyn
fgd
##bit
thom
clothing
worksh
learning
##lies
orient
likes
mechan
##iza
dism
brad
direction
reasonable
managed
encourage
safety
bars
fal
gonna
iv
kitch
##ville
presence
operating
archae
copy
aliens
##ription
rennie
##rence
##ari
##ida
hero
strate
subsid
approved
typically
secretary
drop
pound
##east
##thia
unable
smiled
crowd
bureau
egg
fill
male
sister
centers
monica
extent
museums
terror
sections
friendly
newspaper
strategy
##nel
conqu
suc
fee
scale
communities
patient
churches
punish
shook
video
##iture
howard
smart
perfectly
succeed
bond
esc
##pie
##off
whe
ash
aband
cu
pm
carried
incentives
cynthia
bod
mas
195
emphas
computers
attractive
regardless
27
##pm
##time
alive
wearing
placed
##owned
pover
strict
join
belong
##ashed
explore
kingdom
orders
reag
carp
fees
attend
governor
oblig
reviewed
christmas
penal
soldiers
hindu
wil
##icip
resist
salt
magic
pressure
splend
dole
upset
protest
##what
uncert
customers
mentioned
adopted
fascinating
september
magnificent
onto
enforce
plus
strategies
purchase
ox
##aled
##alia
shape
adequ
covers
harbor
##zar
##itation
leather
elimin
edge
barg
religion
guns
poverty
ought
pyr
##elve
offering
scot
##others
publish
harm
implemented
eighty
creating
obviously
fool
tor
##wards
webs
disag
technologies
processing
advertising
truly
gri
sather
##cel
storm
##ulate
somewhat
intel
underst
##phere
##eration
##ico
meetings
detailed
initiative
proposal
random
fab
##ares
forest
##umes
wars
effectively
experienced
absor
debate
recognize
applied
##rog
provisions
reality
increases
specifically
fellow
##heim
criminal
gentle
sult
##sa
##icious
shock
divers
advance
focused
replace
sexual
appeared
materials
reput
##igned
delight
hardly
landscape
option
initiatives
symbol
ny
os
leaves
prime
trail
depos
millions
##while
sharp
slightly
gross
ky
loans
clin
parks
audience
collections
historic
reliability
sharing
notes
click
launch
emot
napole
witness
nom
##ober
##aked
teacher
egyptian
democratic
urban
festival
occasion
october
kentuck
ath
thick
cris
charles
calm
awful
80
ba
##za
##erate
accident
instruct
skies
criteria
loud
forgot
ot
oce
##water
##irts
sov
syn
defined
supported
happening
britain
distribution
eligible
elegant
31
##road
transform
trading
package
rapid
experts
supreme
piazza
##elled
active
decade
belief
calcul
departments
solution
russia
columns
taste
outcomes
code
eating
##head
##lets
conven
##ellig
becomes
expend
##anged
recover
consumption
missed
privacy
cutting
customer
bottom
bust
nic
penn
##gl
anybody
guil
confidence
villages
purposes
sufficient
decorated
illegal
sick
league
contained
partners
poison
decades
possibly
richard
independence
cere
dance
hide
sides
##alls
overse
artist
cave
1994
effectiveness
percentage
classical
beauty
animal
motiv
closer
90
rh
##iance
##ket
alloc
carefully
readers
functions
wooden
selected
ibiza
appreciate
lewinsky
cable
fant
gates
pages
tent
tel
upper
##ses
##oto
carol
valid
portion
approximately
cup
dig
##ties
hey
lucky
unlike
dust
tired
aside
atmos
plaza
##acing
bigger
##ifications
limits
rebu
elderly
2a
losing
##hen
##han
atl
##cco
realized
detect
formal
besides
surpluses
chicago
circumstances
atmosphere
bau
##hal
##zed
conver
##ria
crimes
reducing
professor
litig
pulled
guilty
cliff
teen
brill
everywhere
crus
statewide
assumed
monday
ped
wing
append
phase
continues
baseball
superv
connection
duty
accurate
cats
pill
##sey
##ateau
laid
smith
relief
vision
approval
stup
dogs
sculpture
essential
##rofit
iraq
interpret
ocean
fought
fields
reject
gods
arms
resol
intellig
remind
supporting
motor
##craft
26
70
hire
##gar
champ
##antly
overlo
twelve
background
spec
fewer
napoleon
pier
##ls
##orter
organized
journey
teleph
kenned
nix
rum
##iation
##zant
##aling
byzant
yester
representatives
hole
amounts
penins
displays
stewardship
scandal
permanent
scholars
dim
stars
dise
moon
lawrence
allows
stuck
describes
medicine
incorpor
yesterday
forb
myst
expos
##agas
remaining
politicians
replied
frequently
fo
grants
acid
empty
showing
opening
directors
expectations
primarily
previously
literature
vren
##bel
##aka
regional
treasury
intellect
vrenna
##la
##elines
##uts
chose
plat
plays
joined
horrible
grounds
replaced
efficiency
bunch
gang
mut
##ext
##ented
complic
coord
courty
ends
delay
concert
visiting
fortress
victims
convin
##umptions
weapon
schedul
accomplish
conservative
fuel
peninsula
escape
##now
##uable
larg
protected
explor
paul
15th
birds
fifteen
pilgr
troops
scotland
##rig
##edy
##ading
##erson
chronic
##aker
committed
assume
madrid
catholic
alien
philos
crafts
comprehensive
riding
##rovers
compens
columb
writ
distinct
turns
facade
buried
turning
scenes
institute
submitted
mexico
imperial
nixon
eag
sab
##greg
##ura
anse
nep
resource
coop
assumptions
calling
subsequ
revol
image
manufactur
dramatic
comfortable
##aly
##itan
##ulations
spr
##okes
gray
appoint
auditor
crazy
significantly
ordered
virginia
sultan
23
##enance
sole
##ells
##iously
##ugged
careful
confident
sugar
contrast
tickets
released
reputation
sale
##iber
##lines
##ola
unus
feature
##actions
facts
exclus
possibility
silence
improvements
appears
consumer
oversight
appendix
largely
bout
##yl
bear
whitting
doors
tourism
presidential
bird
jim
##ilit
mans
controvers
stress
jones
broken
represented
achieved
arrange
observed
mistake
adults
soph
##uff
##fa
##jack
##rees
ages
poland
surf
iii
crisis
nations
##here
##dy
##uration
helpful
affairs
ideal
conflict
territory
whittington
fer
ww
##life
##icing
##imp
sport
dial
delivered
##book
surprise
indiana
franklin
transportation
##entially
##urb
shoes
sew
implic
##acts
assert
jewel
definition
voting
cig
rare
##nis
spons
recyc
greatly
investments
raising
silent
necessarily
expressed
administrative
liberal
ring
forever
excess
truck
upd
depress
signs
extensive
steep
viet
holds
failure
##exp
saturday
kos
pig
##kn
##icial
youth
forty
chain
expenses
seeking
artif
cheaper
structures
##kyo
##going
tonight
splendid
uncertain
bin
tub
##how
##itals
##lying
proven
##aging
basket
tells
opera
##employ
typical
banks
expression
doctors
mercury
bull
dream
lord
peter
vary
##ingu
tokyo
pride
highway
plane
sensitive
folks
muslim
minimum
alf
##abilities
##elling
nox
regulation
1993
recommended
ridic
sample
chemical
understood
33
##gs
##eling
trend
monit
promot
surprising
global
dating
ferry
kings
vent
##rors
##isted
transition
victory
wealthy
guidelines
sulf
##cas
##ike
##ship
##ona
##racy
##ivals
brick
allowances
facing
domin
flood
devoted
giant
ultimately
kennedy
ire
rar
##rations
##my
##front
##orrow
stations
lift
##osen
##ached
##aken
smoke
##ologists
stream
testim
improving
claimed
divor
institution
newspapers
caves
taught
thor
enth
unemploy
temper
summary
styles
voters
latest
increasingly
candidates
pyram
ble
push
friday
##agger
191
writer
johnson
brain
suggests
destination
thomas
bradley
punishment
cous
cried
fda
math
stamp
##rose
angry
dozen
knock
scared
discr
aircraft
##ruction
peaceful
tomorrow
welcome
repeated
monastery
henry
fans
mig
##gers
##uces
##fri
##illy
##stairs
knowing
##ella
##arts
diss
blow
portra
treated
listed
attraction
participate
officer
normally
colorado
category
bronze
residential
29
arc
##asty
quit
coach
scar
##ints
positions
candidate
00
cod
jail
kil
veter
##inent
feb
harder
merely
consideration
settlement
prepare
##works
ack
##itative
##outs
valuable
ski
memory
exhibits
pleasure
nursing
thorough
kir
accomm
attrib
investors
measured
competitive
teaching
applications
germany
begun
ireland
accommod
tig
tons
clar
preamble
marked
desk
attest
flower
slim
breed
uncle
attacks
ignored
accompan
muslims
commitment
daniel
satisf
carolina
stupid
exposure
acknow
ment
input
whis
reporters
improper
volcan
choices
sweet
odd
kick
##oty
##ads
context
monet
officers
sacred
hidden
pond
##ias
##eland
clo
studied
perspective
barely
rising
##box
maintenance
sacrif
powers
boulev
dates
ec
wore
##inem
stared
estate
heads
tennis
turkey
contribution
occurred
decrease
scenario
malaysia
hawai
soviet
tight
output
outdo
colors
depending
signed
classes
reference
avoided
articles
communications
carrying
chairman
december
bork
##ania
buff
serves
drawn
sentence
survive
expanded
aspects
fount
##bles
ships
prove
lovely
poet
emission
feels
admitted
palest
bills
films
turk
settled
maryland
innoc
categories
providers
ottom
dar
lately
om
##zing
albert
conce
##rian
brings
##encing
##ogue
desire
elabor
1992
corrupt
economics
considering
natalia
participation
characters
##ography
14th
applicable
artifacts
gif
hated
ramp
##zone
##amber
incred
legend
entry
elsewhere
combination
75
##wan
chat
##iform
assass
minister
thoughts
surely
collected
enjo
falling
reliable
2010
##mark
##bi
anton
##raw
so2
interim
evolution
keeps
johnny
venet
##ipping
reagan
bauer
400
dining
les
exceed
mah
intent
subt
player
exciting
masterpie
frequent
borrow
railway
stretch
francis
shadow
gor
##point
##inations
lee
user
preserved
##standing
equally
constructed
principle
earthqu
restrictions
sulfur
element
ug
##hs
inner
usual
gran
cazar
ruins
projected
solid
argue
cooking
convention
relationships
sadd
substantial
nile
pure
pitch
##20
##ird
asia
asian
shaped
##bey
tested
##ruary
anticip
13th
accuracy
florida
february
dol
mental
##pes
##pay
##ja
theat
outl
ours
operation
experiences
judgment
##ographic
latin
begins
situations
islamic
scottish
courtyard
tab
##rants
##eff
##anes
toba
##eline
shif
prosec
chateau
sust
finish
blade
causes
earned
corps
switch
division
telephone
rarely
kath
rely
##nn
##bby
##zes
stead
chest
outcome
reserv
faced
prev
indians
recall
drag
ceiling
consequences
enforcement
disease
bol
gp
util
vul
##fast
enorm
tail
smoking
##ternal
graph
mainly
sixty
beside
buddhist
stakeholders
35
cer
cycle
##rich
##ki
toxic
reward
stair
explo
disney
recon
visits
weekly
excited
creation
hunting
galleries
seriously
crowded
documentation
sculptures
ticket
framework
disagree
core
tone
##right
thin
stab
##che
worship
guided
serving
remar
##resp
driven
staying
rocks
teachers
requests
combined
##burg
capture
conclusion
furniture
##pan
##erning
##esty
carib
monuments
flag
handed
grace
winds
##board
divided
hijack
gambling
testimony
tobacco
dens
sought
##ano
inhab
rein
alle
shared
fruit
uniform
worker
opposed
##ructure
winning
implementing
superb
clubs
kyoto
jac
kr
##town
##arm
##adium
sum
faces
finest
blame
judges
towers
bedroom
violent
celebrated
investigation
struggle
mccain
website
##known
28
ozone
ske
tan
orn
##uese
hoping
dutch
portuguese
explanation
channel
abandoned
turkish
fro
##rane
##semb
deem
branch
sets
charged
charming
corp
privile
involving
listening
approaches
characteristics
latter
folk
cuba
writers
cigar
boss
##aver
##bar
##itures
##isms
chick
##oster
nov
unknown
lock
whenever
finn
countryside
financing
harv
150
educational
properly
degrees
erect
pc
##rad
##aven
##ota
disaster
persons
warri
existence
renov
arrive
strike
installation
disappoint
conclusions
patterns
penalty
ae
faster
##rast
##eing
##tained
##met
##12
attitude
20th
successfully
priority
vehicle
agricultural
complicated
derry
gau
tues
trop
stable
ham
shift
##estone
##anta
lively
##orted
aggress
scary
transl
statist
##annon
remarkable
aci
fert
pink
##hor
weird
##istan
mak
impe
expense
fault
marks
instances
personnel
affair
copies
encouraged
philosoph
pit
##ya
##af
##stream
plastic
monarch
charges
infrast
sanct
remembered
hung
survived
weakness
inspired
comparison
announced
www
ottoman
##ranean
32
gagas
rice
wages
##case
##uze
##asion
stadium
##usion
##ushing
trick
##ubb
relative
finds
concerning
musee
admit
elected
suffered
inventory
immigration
cet
##oir
meal
spin
asset
writes
visibility
puts
healthy
prompt
facilit
settle
fresco
adopt
african
unusual
nur
##coming
reven
smile
parli
basil
metal
elections
stepped
##aimed
treaty
links
linked
tombs
regularly
bodies
adequate
na
pir
wage
##imate
##essed
map
##ipa
consol
parent
resulted
cheer
annually
auditing
generations
ordinary
principal
embra
climate
instruments
basketball
avenue
fena
hud
pine
##uge
##owed
reserve
shoulder
publication
formed
electron
accordance
eleph
pollut
scientific
enthus
gop
kl
pair
##fo
##itable
##omed
##otes
proved
prohib
##ighter
abortion
##ansas
scope
traum
strang
retired
##hips
classic
practical
ruled
awards
suspect
answered
error
breakfast
split
engagement
strugg
removed
components
boulevard
aer
cinem
cnn
dome
##quar
compare
residence
trained
analyses
preferred
sandy
israeli
colonial
altar
cabin
expenditures
species
ugly
##imination
alb
shirt
lev
canc
plot
somehow
visible
economists
nonp
researchers
description
traveling
images
bringing
democracy
crowds
danger
sleeping
volunteer
alfred
parliament
cios
lying
pace
noise
unw
##aks
pocket
charl
responses
romans
36
lor
torn
##rates
##ato
orange
##cipl
##ensions
desper
parad
disclos
phr
profits
statistics
addresses
examined
casual
yellow
amendment
ridiculous
rival
roles
vs
wet
##iguration
##thy
height
unt
accused
joint
performances
mediter
receiving
represents
sunset
pottery
mosa
exhibit
ethnic
bags
boilerm
tin
##oma
##chal
##aders
##ante
##enda
cock
##ensus
recru
explains
examine
legislative
dorcas
farmers
machines
enhance
kosov
hired
jose
jord
lind
rene
##cast
anth
withd
abbey
canal
blank
palazz
authent
greuze
holiday
michel
declared
introduced
mediterranean
fiction
nerv
##comm
##oupe
ongoing
everyday
1990s
promote
describe
requested
defeat
recipients
alexander
kitchen
unemployment
tip
##ipt
stroll
##urally
leon
lean
mayor
smo
advanced
excuse
securities
continuing
traveled
appearance
apartments
examination
release
professionals
wednes
archaeological
monitoring
dun
wound
forum
fran
capable
farther
souven
trips
controlled
involves
killing
contribute
contracts
physicians
consumers
astron
festivals
widely
cousin
ain
bost
vital
prud
faa
presc
supplement
headed
employers
cream
promise
objects
eleven
heavily
administrator
cuis
vietnam
gpra
stark
habit
shore
exemp
##anda
canada
ads
conscious
evil
cairo
handsome
opinions
byzantine
infrastructure
souvenir
boston
cy
dancing
wise
alleg
##the
##ouses
buchan
resulting
receipt
blacks
drawing
cruise
prosper
disappear
situated
karf
kentucky
compensation
nepal
attestation
kore
stairs
##tering
nowhere
assumption
visitor
missing
allowing
12th
recorded
panel
substance
indicate
hersheim
occasionally
elaborate
tuesday
hersheimmer
bos
gains
rams
sna
##iant
inland
haz
##adays
##opes
sheep
quiz
discipl
nowadays
locations
pope
protoc
northwest
operate
managing
periods
strip
africa
litigation
jewelry
enormous
hes
sits
neck
##oken
locals
##ception
waited
epis
acceptable
demands
achieving
maintained
##oxide
minority
jordan
authentic
bench
##ingly
##illes
chamb
repair
lav
triump
189
1980s
malay
colorful
installed
buddha
dismiss
vulner
ak
dil
pad
rac
##lv
##lor
##agues
downtown
barri
taxi
directed
permit
unlikely
vegetables
enemies
diversity
ax
pin
rig
rational
##oque
##acc
heaven
joy
caf
emer
palais
dealing
falls
fifth
reforms
magazines
hanging
criminals
contemporary
recycling
buchanan
dre
ow
sau
ze
##oly
##inian
isol
asc
assemb
chamber
manual
diverse
acting
##angel
informed
curious
nonf
##rupted
venice
discovery
premature
enemy
neighbors
gig
tape
##ician
frag
chosen
gosh
nove
##oured
imposing
##ipe
funchal
musical
declined
captured
satisfact
wheel
statistical
cant
##kins
##bra
tool
##itated
weigh
##agn
##under
studying
##idding
romantic
riders
integrated
memorial
implications
smooth
file
##gate
##tan
thurs
dear
noble
upstairs
##ifies
tech
yours
blind
designs
morris
accessible
architectural
quietly
analyst
groc
terrace
november
bour
dict
pont
tu
##rep
##urd
exotic
##ques
unified
roc
invasion
requiring
severe
mailers
raj
##whel
seconds
figured
identity
agreements
answers
optim
establishing
mandatory
praise
immigrants
hypoth
pounds
converted
55
600
hou
hug
lined
##bul
##isters
##uting
sha
##abled
delic
performing
productive
iran
universal
juan
hospitals
laughed
concluded
deficit
aege
luc
tas
##cr
##don
##iors
orch
donations
modest
mini
deliber
extended
walks
passing
authors
volunt
##engers
encoun
prince
similarly
referred
errors
extreme
closely
ibm
spiritual
dynasty
pilgrims
wednesday
aegean
bible
diction
fing
rode
##days
##iate
##amental
##thouse
hast
dioxide
boards
simpl
corresp
topics
##like
limestone
representative
authorities
solic
constantly
bowl
correspond
45
nuc
ram
sel
##har
##ij
##attered
##itage
##keep
locked
partner
guadel
prize
metric
factory
employed
landsc
projections
popularity
victim
duke
lewis
nucle
lu
sights
##bound
threw
##ros
shout
proof
##osition
grade
captain
valuation
portray
nato
administer
##attle
recognition
corporations
evaluate
apparel
integrity
inquir
ramses
lam
##iated
exists
imposed
struck
soul
baroque
feelings
lands
terrif
passengers
pleased
committees
commerce
denied
femin
pilot
qualified
subsequent
astronom
guadeloupe
cyc
jr
rod
vine
##oms
beer
knife
##iva
##apes
##icted
regions
personally
southwest
oppon
addressing
determining
impression
proposals
puert
pushed
wolf
##iot
##bour
##eds
##omach
##vered
##illing
spa
uncon
myster
theme
expans
overwhel
heritage
cents
assurance
supplies
courses
taxpay
creative
indicated
conservatives
comprom
platform
tropical
frescoes
dir
jur
zero
thro
##cher
wash
external
##une
##uns
humans
lessons
##bean
refuge
salary
##arrass
multi
flying
jackson
burned
forgotten
ceram
consolid
chambers
##rating
##aust
##ko
##oration
forec
##mental
crash
employer
scenarios
component
carrier
acknowled
innocent
cos
pla
##ubs
acts
pools
starts
fundamental
encl
paperwork
grande
##awa
embarrass
luxury
confirmed
interpretation
divorce
earthquake
dame
##alf
shell
frust
tran
aggreg
indig
flav
obtained
handling
swung
exclud
passage
drivers
breaking
blocks
returns
dressed
sophistic
gifts
houston
aven
gained
mothers
naz
till
##oons
##wa
thri
shil
shannon
boom
monop
skill
airport
northeast
destruction
motion
drove
martinique
oriented
bread
dying
gap
piz
rust
tables
##lied
##inate
stry
##irm
unre
newly
crown
filed
entering
wondered
methodology
coastal
objective
ignore
fabric
intellectual
chicken
erected
bern
pent
rit
##uits
##sp
##ester
##oli
weekends
pacif
hoped
authorized
crack
difficulty
diving
voted
purchased
opposition
mixed
ninet
caribbean
impeach
renew
dirty
strychn
800
auction
nipa
##esis
##iration
ate
myth
resem
guides
monte
relating
highlight
provision
supports
demon
milk
distingu
transm
swing
considerable
injured
adjustment
surplus
vehicles
##friend
theatre
nurse
kosovo
shiloh
strychnine
mit
##war
hamm
liqu
smell
constra
equival
housed
burning
granted
sculpted
recommendation
concentration
earnings
seventy
editorial
fcc
pag
##inos
##atoes
##stone
187
influenced
ladin
georg
crucial
relaxed
austral
merchant
license
mystery
manufacturers
pyramid
venetian
album
aic
sons
##night
##gen
toler
reaction
##utory
##idays
##uls
##aine
##usc
##udes
secure
experiment
beautifully
murd
christianity
complaint
etc
bombing
virtually
outdoor
93
dull
lod
pp
pund
##pit
##esque
##ales
##areness
##ima
trends
##aki
surg
plano
absence
unfair
damaged
globe
mexican
cum
cater
fond
ros
wt
anx
##thod
undert
adding
designated
confused
statutory
maintaining
portugal
bic
jazz
ron
##eas
##ka
##fl
ineff
stor
##olis
doz
agenda
diam
actor
remove
##scrib
clever
beneath
transactions
covering
marketing
awareness
##boys
coastline
fallen
initially
acquired
institutions
gathered
sewing
aicpa
95
bare
fel
nit
##zo
##organ
##isely
##aux
guests
remote
presents
reader
medica
campus
southeast
palm
steven
dealers
enterpr
settings
hitler
striking
ninety
shelter
delightful
veterans
trauma
protocols
hars
ly
vin
##fall
##isk
##essions
fright
sees
nose
190
monitor
produc
edition
trials
certification
excurs
ceo
craw
argued
##riptions
swords
lifet
mobile
roughly
false
rapidly
boutiques
basilica
palazzo
dat
zoo
##istent
##usted
##eller
recre
decent
trails
summar
identifying
poorly
subjects
alternatives
##ettes
premium
advocates
involvement
guarantee
explorer
discrimination
dies
horn
rot
##rent
##irable
sail
loy
offset
lasted
childhood
talks
profile
balanced
woods
supervis
hawaii
##thodox
medicaid
37
dup
lion
mild
pays
##va
inher
##rete
stomach
##olitan
##istry
enact
outstanding
exposed
incident
##agraph
disg
indo
##licit
throne
reluct
##lands
flour
retreat
publications
patron
monthly
passion
palaces
armed
inflation
expecting
connected
arrested
ensuring
attacked
fulf
confirm
deficits
rebuilt
cliffs
controversial
##rest
##mir
##lights
##inity
##any
##ican
beard
proph
conj
cha
spoken
##ems
##ache
##aches
##lock
mons
assigned
handled
planet
viewed
significance
checked
speaker
shrines
innovative
maximum
fingers
finger
ls
prest
unh
agents
##agers
intention
carbon
reconst
legit
genu
entit
temporary
statute
solutions
illin
reaching
focuses
deaths
traditionally
##ourage
treasures
lifesty
songs
carriers
constitutional
intelligence
portrait
kirby
42
fox
mun
tied
##ih
##aa
##aff
##vings
inev
##ashing
notre
deserve
##ocaust
##ologist
allowance
stops
promised
holocaust
assessing
jersey
languages
superior
establishment
injury
picturesque
defeated
illinois
oak
wow
wol
##field
anc
seas
comedy
##ighters
##ardo
useless
warning
editors
delhi
deter
badly
##lessly
villa
hopes
travelers
illness
exhibition
extraord
measurement
boris
sticks
wtp
nich
pupp
##ym
##unning
outs
pregn
belt
warn
simon
patri
prototy
solve
arrest
supposedly
##bbed
automated
florence
cryst
cowboys
ghost
convinced
columbus
fountain
cuisine
thursday
az
foster
gulf
hiring
tie
inject
reign
react
shade
shirts
##opher
suits
##oda
##00s
provin
define
letting
economically
behalf
driver
silk
assistant
neglect
broadcast
hiking
photo
injuries
touched
ultimate
rejected
dozens
39
hatch
theories
##erable
hav
##roph
abroad
spo
paragraph
depth
metrop
terminal
##liers
networks
rocky
##onym
historically
customs
interviews
collabor
sympath
atlanta
surface
##quarters
cot
##trol
##makers
stal
preced
score
##erman
meanwhile
moderate
retrof
discusses
wondering
strongly
substit
attempts
garb
journalists
homeland
prospect
resistance
antonio
tasks
99
##gage
##wr
##alle
##ulating
suic
cans
usa
prepar
##load
margin
membership
alike
impressed
reflects
procedure
verd
rolling
fantastic
uncertainty
sauce
nuclear
vend
yield
##oning
##orious
toph
##urred
deals
polish
fled
talent
nights
files
christians
priorities
permitted
treasure
concerts
nonprofit
joseph
franco
satisfaction
viney
topham
dot
fancy
lag
##orous
##isons
##olate
unne
loves
##erves
marvel
legs
subur
drunk
edward
mainland
horror
soldier
greece
crose
responded
boxes
discounts
advertise
occasional
challenging
derived
##rogen
harsh
ari
dal
elev
nh
tort
##rical
##ault
##mand
##xual
##eled
##owing
##amm
sequ
abc
assign
schem
acres
retain
transaction
apolog
ruling
1989
##sylv
displayed
quarterback
bathroom
graduate
macau
academic
carpet
pennsylv
pierre
mathem
sacrifice
granite
prosecut
aerob
nervous
lifetime
datab
loyal
##hem
##ati
##orca
stim
anger
lips
compound
gras
marry
##athers
##ocr
serb
heading
greet
discussions
esp
hillary
colleagues
dominated
turks
campaigns
deeply
engineer
celebrate
camera
contrary
profitable
emphasis
eliminate
convenient
steady
inhabit
cete
enthusi
phrase
cage
cott
dirt
rivers
wines
zone
##rison
##ll
##fish
##atures
yep
worn
comply
accum
monks
personality
headquarters
admission
cultures
fashioned
fashionable
submit
immediate
utility
targets
occupied
tapes
bonds
masterpiece
ornate
crop
ceter
pushing
##ker
##bc
##10
##inction
bears
##char
alab
nema
libert
tact
commod
invited
flaw
phen
concrete
refers
186
rulers
demanded
drinks
exception
wedding
mirac
adventure
bargain
enjoys
bauerstein
pennsylvania
fet
fate
fbi
##vre
notable
prol
conrad
##quis
quint
reprod
cares
owns
1991
restoration
farming
musc
exploring
princess
suffer
demonstration
fortune
guaranteed
advisory
monetary
weaknesses
prosperity
puerto
unnecess
duck
gest
riv
##rome
##iner
##alo
##rets
stained
##uscan
##ello
brut
brothers
boost
poly
mood
thrown
directions
naturally
wave
polls
sweep
rapier
jeans
tapest
ratio
strictly
brilliant
springs
density
pump
ted
##fare
reorgan
##sters
stan
socc
spare
explicit
carvings
colony
traged
evol
obsc
produces
racial
refres
enjoyable
worthy
competing
regarded
circle
commonly
babies
expertise
adjusted
staircase
philosophy
facilitate
revenues
disclosure
soccer
ging
hm
mwe
nas
pitt
ry
rib
##ui
##lord
##oric
##elle
##stit
stones
##olta
##illa
soil
pron
attended
moor
moors
whereas
ohio
slave
caps
phara
mines
simulation
generated
credibility
holidays
stronger
quarters
gateway
jeff
retailers
dictionary
hastings
nineteen
34
48
44
bart
pap
##mother
##lah
##born
##isan
##cho
orthodox
exha
peas
slaver
##ugs
publicly
excav
oklah
leaf
representing
industries
descend
assessments
observation
merchants
transferred
francisco
pizza
tack
##mony
##esth
##ouri
##idable
##imental
shiva
notion
proc
adapt
perth
overcome
warrant
obst
elastic
stephen
couples
modeling
referral
suffering
indicates
wildlife
attempted
scrut
camer
dependent
aimed
succeeded
osaka
scheduled
triumph
throat
pacific
impeachment
slavery
crew
nar
oly
wan
wool
##ran
##jo
##ora
tok
##ching
abund
ark
themes
commem
coron
hardware
engaged
distract
accountable
availability
satell
120
suggestions
appropriations
madonna
romanesque
contractor
jungle
arrival
legislature
reflected
installations
1970s
connections
1960s
homeless
neighborhoods
dramatically
eggs
surprisingly
exempt
expansion
surgery
cotton
65
cited
cfo
mud
nick
pav
rab
tut
##hand
##laimed
inches
whip
unexp
trump
dipl
revised
tripp
transpar
refuse
sixth
shortly
balear
device
renowned
bike
integration
literally
prisoner
utter
applies
fatal
peaks
academy
athlet
ceremony
eager
exclusive
mansion
analysts
olymp
01
bib
hc
kel
sorts
vig
##down
##aire
##ga
##bits
##anas
istan
gov
##rapped
##ounced
scout
##irect
joke
spear
visa
ruined
tries
2005
wake
listened
recording
1980
references
appeals
paths
demonstrate
counseling
announce
emotional
fantas
boilermakers
hcfa
istanbul
ko
lau
##liss
chin
exit
##udi
outra
moreover
twin
##iana
invaded
suppliers
flash
generate
prominent
antiques
civilization
cataly
failing
drawings
evaluations
threatened
assuming
repeat
suspic
concentrations
revealed
alleged
jacob
warriors
inhabitants
gingrich
tends
wick
xiv
yach
##vas
therap
##ongh
hamp
procl
apple
script
afgh
wanting
shoulders
attached
instinct
2020
calend
traditions
reasonably
execution
hillside
acceptance
godd
battles
mandates
essentially
distributed
demonstrated
meaningful
engagements
puzz
inspection
dishes
chatter
withdraw
grocery
sophisticated
##mandu
aerobics
49
98
dwell
lists
pension
##enberg
##ader
butter
##ieur
sailing
##endous
##oks
timely
payroll
barnes
email
porto
attracted
princes
beds
arranged
banned
districts
purchases
expanding
prayer
bustling
skept
cancer
paradise
lifestyle
extraordinary
oklahoma
aqu
cem
cree
hates
kash
ms
rides
vba
##oe
##rous
##gal
##ider
stall
neut
choc
##oped
abb
univer
cloud
aged
evident
##ressed
populations
passes
steve
steam
measuring
argues
fleet
hearings
circus
straw
mandate
bottle
losses
suitable
territories
beliefs
ceremon
volcanic
kathmandu
voluntary
ceramics
crystal
retrofits
diplom
kashmir
universe
pist
slo
tong
##orse
##ederal
##oul
inch
##asso
##urning
##child
shorter
seats
spots
clou
workforce
##achus
persu
worldwide
beneficial
communist
summit
arches
balcon
competitors
contributed
votes
engineers
physically
literary
borders
introduction
incentive
porch
victorian
prudie
hazard
##angelo
nitrogen
prestig
baza
faint
rush
vic
##kin
##uel
inexp
##eld
##imm
exquis
abra
##osh
lobby
comptrol
fake
grin
ourselves
capita
causing
##ugawa
easter
skilled
extend
crete
trem
promen
minded
devast
11th
formerly
casino
crops
affects
achievement
##related
precisely
tribes
scientists
agriculture
launched
intelligent
suicide
goddess
comptroller
dc
honey
mol
pork
pale
punch
sending
ts
##vy
##vic
##bled
##falls
forests
##amic
##ador
shog
worsh
trash
impose
offs
precious
buses
tale
barry
lesson
milan
technological
classification
receives
volumes
dealt
educated
argent
snork
overseas
convince
privilege
aggressive
tragedy
unexpected
38
bree
dy
dud
dumb
kiss
lin
naked
ties
vivid
##mate
##vin
##vag
##alg
##itudes
stro
##olished
hect
severn
incidents
contest
grate
underground
##iano
moham
format
hungry
massachus
breaks
germans
catal
fails
extravag
mistakes
hosts
matching
proceedings
sponsored
satisfied
conventional
commemor
700
bh
dances
kle
mere
rating
wished
##inter
##omo
##igan
fred
intake
brid
##active
wrest
warned
producing
follows
188
currency
armor
obser
circular
davis
sensit
duties
flexible
complain
limitations
pursu
boiler
amendments
subsidy
escaped
clinical
skiing
pollutants
michelangelo
disappeared
monsieur
garbage
pharaoh
tokugawa
massachuset
bang
hiding
lis
pak
xv
##ras
##mond
##oral
##illo
resolution
actors
bund
subscrib
caes
imported
sinai
posted
classified
reviewing
varied
salv
lowest
identical
compete
seaf
norman
santo
bayliss
navy
channels
schedules
remarked
sanctuary
assembly
diamond
mohammed
nave
ward
wire
waves
##lined
##idency
##amin
alley
##cking
##abeth
meals
##aping
pear
##izabeth
##acks
disability
tracks
joe
costly
elizabeth
175
texan
antique
arguments
hurry
acquire
rider
casa
evaluated
hindus
incorrect
climbing
symptom
solely
institutional
incredible
evolutionary
pirates
aggregate
67
bast
dick
hip
rugged
si
wag
##pir
##pers
##vable
##fers
##umin
##cia
lovers
que
##osexual
colored
invo
string
highlights
studio
##ribly
humid
paused
professors
absurd
lights
checks
slept
crossed
photos
jean
shooting
luxur
fortunate
pedest
anticipated
monopoly
genuine
phenom
massachusetts
77
cad
dental
ease
fier
lan
pets
rico
tang
##gments
shame
##uster
envelop
arist
reporter
backed
##resses
slopes
ending
priests
affirm
excite
winding
sounded
yorker
protecting
variation
failures
evaluating
featured
encouraging
cuban
predicted
pulling
gathering
appointed
electronics
vulnerable
pentagon
equivalent
moorish
pakistan
47
ger
gle
gender
pose
pants
wins
##po
##his
##iat
##itarian
bearing
dean
##ortions
unions
accent
locally
medium
engines
distinction
museo
senator
singer
singing
promul
questioned
determination
##lusion
panor
planted
focusing
versa
mortgage
analyzed
industrialist
criticism
printed
feedback
worksharing
depression
barriers
unnecessary
43
vet
inapp
betray
invaders
adds
smallest
planets
modified
insur
postage
curve
waterfront
missile
landed
sectors
grey
##pson
difficulties
ignor
investigations
advocacy
pursue
poetry
corruption
emerged
zeal
ancest
59
della
han
nu
races
sq
sque
yan
##pered
##rick
##iable
##ture
##omy
chances
unim
##enders
##agu
guest
moves
regret
specul
##ails
artistic
happily
barb
followers
winner
merit
bald
floors
impacts
basement
painter
consistently
prisoners
luxor
instrument
ownership
coalition
jumped
cooper
mansions
overwhelming
unhapp
afghan
calendar
61
fame
iolta
toss
reass
stiff
##see
##iga
##uman
outer
clut
trim
quote
interrupted
coat
goodness
scots
##ava
supporters
returning
proportion
grave
cheese
confusion
mailer
youngest
steal
panels
creatures
packed
bankrupt
attempting
administrators
aston
relaxing
depicting
chemicals
kilomet
saddam
disappointed
mosaics
chatterbox
41
cbo
dent
fighters
gear
ic
##pread
##father
##erie
ford
outlo
incomp
brows
##into
recycle
helms
artific
charm
skull
missouri
180
generous
irre
demanding
adjustments
decreased
bullet
suspected
inspector
atlantic
episode
havana
abraham
bold
bapt
##lu
##fr
##isure
##elon
##ila
##otte
stalls
##ayed
##changed
##rie
leisure
##apse
arth
##ensed
paralle
visual
popul
approve
economies
formula
advised
dawn
drives
gardening
filing
horiz
flee
ranking
stocks
nonex
casinos
hyd
sampling
textile
naples
birthday
reveal
alexand
lifted
harvard
compromise
duplic
vineyards
46
fern
sik
wis
##rals
theaters
##ito
##rey
beck
##olly
alter
convent
##geous
alliance
aging
quoted
boots
##ermen
configuration
collecting
potentially
##aware
hopefully
shrugged
preparing
cleaning
scenery
combat
imagination
shares
jamaican
crypt
minimal
awarded
vault
ratings
cabinet
inquiry
chocolate
dign
rushed
##eem
##bell
toy
##olo
##theless
##keys
cher
##anted
hispan
outf
##ishes
tai
feas
nevertheless
underlying
legacy
elite
valle
respected
defending
signature
millenn
equipped
##shire
fishermen
bitter
devices
nationwide
junior
correctly
bias
agrees
prospective
automob
picasso
advocate
monumental
mirror
volunteers
publishing
partnership
arrangements
updated
kicked
cosm
storage
excitement
outlook
bid
brew
benn
hond
kam
session
##yard
##bl
notably
##cio
workplace
teeth
export
interven
bugs
marine
marsh
deserves
##aco
trains
valued
populated
metap
technique
airlines
##aughters
condem
##liest
179
##otto
describing
completion
influences
lacks
cruel
1960
efficiently
concepts
monasteries
explanations
nye
allocation
pillars
incorporated
accompanied
makers
tranqu
murdered
clouds
dump
gord
lets
sigh
##tic
##uity
##wart
##ala
##leas
stages
asks
neo
deer
chop
butt
spite
spokes
##endered
closing
timing
##anship
diagn
##itty
publicity
barbe
##idespread
politically
discussing
presentation
silly
moments
participated
turt
approached
lacking
greeks
declining
250
sadly
observations
accomplished
conflicts
obtaining
honorable
porcel
gentleman
synag
gauve
orchest
shouted
administered
astronomer
mysterious
ritual
entitled
database
satellite
catalyst
exquisite
sensitivity
97
lane
mum
pas
rick
vess
##och
##itious
##omfort
##lete
stays
##adian
comic
##asted
peer
agent
bucks
##acent
trav
counted
insight
propag
posts
nightlife
armies
existed
sells
eighteen
ladies
conducting
evaluators
surviv
collaps
malls
graduated
provider
resolved
linda
nonfederal
procure
900
berg
cale
hid
mumb
nons
voc
widespread
##pass
##cus
##cue
##care
##rics
theor
stunning
anch
cancel
priced
donation
##izer
sheer
cared
grim
##osevic
buck
scouts
retrofit
insist
barrel
finances
landing
budgetary
sunny
hook
brave
associations
richards
holes
circuit
avoiding
hurric
foreigners
junk
emerging
respectively
threats
utah
appreciated
suspicious
picnic
transformed
validity
rebuild
resolve
stabbed
frozen
souvenirs
cafes
dreams
delicate
dagger
daughters
lung
sed
tuck
wand
##iti
stability
neu
button
##unction
adap
usps
perce
exped
overc
##ogether
consists
belg
surge
discl
economist
triang
milosevic
senor
missions
menu
anne
salad
foods
authorization
civilian
grandmother
1987
variable
michigan
hike
celebrities
closest
automatically
precise
conquer
emotion
kentuckian
cooperation
exclusively
controversy
cloak
borrowing
constraints
mathemat
arthur
96
cattle
gently
hub
jal
kur
pile
sba
##trap
ingr
inade
##enth
##kef
comed
org
##riate
donated
perp
reply
intim
brass
trace
regist
presidency
keys
addict
readily
factories
audited
operational
salaries
routine
screens
universities
settlers
communicate
deny
mandra
##rooms
rebell
permits
respondents
contrad
restricted
qualitative
tastes
collapse
altogether
melaka
yelled
substantially
merchand
fortunately
obligations
champions
scholarship
manufacturer
venture
novak
charlotte
rockef
unhappy
artificial
inadequ
census
gab
gsa
jet
rud
wo
##lical
##bu
##erated
##inely
##esford
##onic
##leans
alert
##adv
fried
orleans
##ums
##umber
incons
conting
root
bump
screw
indirect
strongh
parking
governmental
delicious
cleared
##iciary
lesser
certified
privat
reviewers
182
mainstream
calc
merger
associates
flew
##ographical
painters
plantation
creates
illum
wishes
achievements
interviewed
quantitative
olive
contempl
beresford
coordination
buffalo
elephant
producers
alabama
promenade
pursuant
rockefeller
stronghold
72
bot
cul
kim
lon
mt
##yth
##hin
##anches
##aye
##ami
align
frowned
abd
enl
spell
##inking
##gram
newer
containing
heroes
coco
partly
##eps
guards
parc
##olded
costumes
pubs
##atherine
bases
restra
corrid
investing
glimp
184
sixteen
identification
burial
specified
louvre
suffici
absolute
arabs
##etto
apparent
bottles
willingness
railroad
odds
hello
logical
calculated
dialogue
temperature
shifted
recruit
##committ
##bourg
taxpayers
legitimate
glimpse
aunt
cord
sisters
##hou
##iety
##aic
##top
##mith
##inople
##icop
##etical
stitch
exter
unrest
peop
offsh
carn
disadv
feud
coins
cobb
smok
wherever
relics
parade
presum
##unded
differently
planes
drank
ears
thoughtfully
tourn
particles
practically
departure
harass
hobby
178
##aneous
burst
murm
deadline
glasses
1974
virtual
adventur
masters
deposition
motivation
legendary
reconf
bicycle
affirmative
bac
kh
nut
sessions
tib
wrap
##houses
##me
##enon
##itis
##icking
beef
staring
##roe
convert
##ighth
liability
saudi
##eman
adam
contents
interf
relie
longest
##athan
flu
realistic
coral
formidable
viewing
swall
glance
generating
occurs
judicial
##aneously
suggestion
saints
1988
furthermore
separated
affordable
essay
accurately
homosexual
automatic
searching
assumes
criticized
depicted
rangers
logic
victoria
mechanisms
confidential
palestinian
sustain
flavor
eh
hint
jaw
rhod
rental
racing
sway
wives
##vest
##bow
infer
##rac
##arten
amid
wells
carries
appra
scores
smiling
preserve
geno
genius
capit
ell
larry
endorse
simult
anno
traders
##retion
considerations
massac
uncomfort
exhibitions
philipp
##ippers
flyer
flytrap
benj
videos
unpleas
registered
kitchell
shocked
overlooking
mutual
accommodate
incredibly
arkansas
tournament
71
dare
eg
fy
gut
hence
hitting
ku
ray
##away
##uate
##arn
##arial
##omin
reich
##state
dei
exagger
manip
unl
loop
loose
composed
amiga
seeks
helicop
consensus
opm
preserv
bland
supplied
subcommitt
restore
humor
hobb
colleges
civic
accordingly
149
voices
##iosity
tendency
drops
garage
deduct
constantinople
applying
throwing
counterp
negotiations
ramparts
renovated
elephants
prohibited
anxious
pregnant
cemet
58
aids
aesth
bah
dimin
gand
hits
poured
vie
vamp
ware
##oved
##bing
##bling
andrew
##owa
stir
haul
##sem
##tha
chart
##anting
maus
pepper
sheet
diet
replic
roots
scattered
##iley
afterwards
legally
##phia
advise
raid
annette
alongside
billions
stein
choir
dealer
balances
baltim
netscape
applicants
broader
biography
philadel
fema
invented
sightse
tracking
subsequently
volcano
palestine
reservations
toxicity
fertile
settlements
struggling
isolated
australia
complaints
##onymous
ariz
tapestries
scrutiny
neutral
inexpensive
seafood
symptoms
luxurious
benjamin
baltimore
biz
eighth
jam
mes
pom
sic
wre
##orus
chairs
##oded
enlight
max
carl
boasts
desired
relation
persian
capabilities
drama
earliest
farms
financially
##mann
lowered
promises
specialty
minds
approaching
italians
flowing
##aska
citizen
contacted
praised
inspiration
occupation
semi
negotiated
naval
absorber
pilgrim
columbia
revolving
scheme
grateful
bridges
aph
bent
bored
hats
nost
rav
wrapped
##onia
##icism
reck
habits
##urable
##iments
shots
sep
thereby
##ista
##osaur
cany
pricing
safer
ups
intrig
herod
disord
dislike
preach
assured
counting
performers
possess
raises
landmark
continuous
executed
braz
burd
125
favored
banking
troubles
separately
officially
adjacent
journalism
enhanced
willey
eliminated
convenience
portraits
cigarette
refugees
seaside
gordon
philadelphia
arizona
bite
dive
fi
gild
kansas
lap
som
sie
##cos
##din
##limin
##70
##enin
##ione
seated
deck
##usive
allies
manusc
##apore
##cials
lobb
intric
intense
carav
bug
centered
fires
evenings
invite
assault
presidents
acre
handful
discoura
grabbed
possibilities
camps
185
freeze
thirteen
specialists
girlfriend
absent
arguing
1986
offerings
societ
jerry
honored
narrative
swept
procedural
1970
mistaken
dispos
analyze
conditioning
obligation
recovery
discrimin
desperate
allegations
discipline
shogun
alexandria
ingred
cemetery
mausole
manuscript
73
bom
iowa
nest
ri
vib
wander
xii
##hill
##aving
##mat
##word
##enous
##oust
##veys
##ulent
##ulative
seasons
dock
##osity
cler
clue
comparing
flan
foundations
meters
confront
glory
202
operator
salmon
singapore
wonders
devil
obsession
custody
versus
horseback
##ippi
louisiana
balls
tomatoes
responding
entertaining
symbols
appealing
seventh
graduates
bothered
honestly
oriental
protestant
enjoying
graceful
leonardo
pavil
porcelain
62
ced
cite
cia
foss
fighter
hoc
ker
ritz
soup
tank
##oen
##no
##nie
##atra
toled
##iman
alan
chew
##ando
meets
##osis
plains
whatso
reserved
robb
twisted
branches
acted
prelimin
underne
##issippi
callie
handy
audio
designer
swamp
mississippi
salon
ruler
descriptions
christopher
screaming
array
egyptians
eaten
examining
cooked
survival
##etta
conferences
occasions
williams
novels
guarantees
buddhism
conquered
forbes
codes
whispered
masterpieces
lavish
acknowledged
enacted
reluctant
municip
utterly
tongue
lisbon
tibet
whatsoever
underneath
54
66
cass
cute
celt
jf
mike
pause
ric
roth
tid
tony
##rum
##mere
beth
##sect
##olas
##irer
##rak
##antages
##odes
##riel
soap
lect
##uda
clay
whoever
incurred
intact
intensive
##berts
lazy
actu
##asses
mock
sometime
relate
secular
regards
funeral
fourteen
walter
admired
probability
annoy
facult
##bridge
definitions
penang
contractors
celebrity
affecting
deserted
revolutionary
baths
stretches
photographs
mechanism
replacement
delayed
injection
tactics
valleys
gabriel
offshore
unpleasant
divid
jokes
kau
kenn
rank
tuscan
##post
##kers
thread
toys
##alay
##rea
##roc
##oline
shipping
lied
sober
plate
##astroph
unco
upcoming
timber
intens
roberts
relatives
costing
bless
supper
countless
curiosity
admire
termin
origins
stephan
associate
accepting
expectation
historians
##umbling
130
planting
catastroph
characteristic
hipp
democrat
restriction
ethics
picking
ranging
terrorists
sharply
##belie
dialect
migrant
intentions
dolph
encounter
opponents
preparation
reorganization
##stitution
biblical
bazaar
peoples
erupt
hed
porn
ruth
wagon
yards
##ho
##hist
##hma
##matic
##66
##esters
##eda
##omon
revel
lip
##rix
enqu
##cca
##ager
disabled
commander
guilt
moore
founding
swift
possession
landlord
terribly
refuses
trek
greens
noneth
penet
bones
messages
sweat
##burse
farmer
##chester
permission
##worth
samples
##oiselle
reveals
websites
deposit
transformation
allocated
promoting
breeding
cigarettes
korea
bosn
consolidated
georgia
yanke
feasible
procurement
registration
exterior
annoying
subcommittee
mausoleum
nonetheless
bits
gee
hier
nara
piano
rou
rif
wings
##hy
##manship
##lap
##sis
##bre
##ani
##reach
alph
aswan
convey
enfor
unaware
##emoiselle
load
usage
newest
intr
##uba
coinc
1950
lott
lotus
umb
attitudes
beloved
courthouse
famine
founder
gaul
defect
grows
statutes
villagers
halfway
solved
epic
geographic
alcoholism
recognizing
1982
mademoiselle
indicators
dresses
crucif
altitude
##guard
advisers
recipient
terrorist
foolish
athens
incorporate
thoroughly
accompanying
cinema
loren
mosaic
cockpit
hypothesis
##donald
excursions
inadequate
burdens
courage
dread
lump
osc
rope
ses
tips
vouch
##burn
##bted
##repr
beating
reed
alban
shakes
shinto
seized
segment
##ours
##ourse
arise
overt
margar
costa
##mmet
defer
hugh
processed
rises
specialized
participating
memories
expects
males
referring
structured
ranks
journalist
progressive
birthplace
faithful
innovation
navig
bargaining
witnesses
forbidden
distinctive
pyramids
attributed
fountains
warrior
tuition
thriving
undertaken
enterprise
disgust
substitute
promulg
inapprop
sightseeing
preliminary
enquirer
##reprene
cel
eil
icon
jard
kios
lc
lush
pall
sid
tam
tul
tier
witch
##iah
##min
##uously
##bet
##wi
##15
##enger
##inge
stere
chains
##rah
suited
plun
amended
index
parole
governors
addiction
deput
caut
endang
insult
simulations
##iov
miller
confusing
nightcl
practition
infant
budgets
burg
worthwhile
observe
historian
variables
erotic
arriving
convinc
featuring
dispute
mixture
targeted
seventeen
vegetable
eligibility
rubin
henri
innovations
neighboring
wilson
loudly
tiger
subtle
remarks
electronically
opponent
diesel
prototypes
balearics
therapy
argentina
versailles
propaganda
uncomfortable
eilat
dow
ein
fathers
pon
pud
ports
##yre
##ports
##gue
##30
##fty
tooth
##isers
##isans
whit
als
chips
spouse
spends
spraw
##aug
perj
prehist
mars
conspir
charity
demons
pointe
distant
affil
severely
passaic
dried
traded
delivering
villas
texans
128
divide
copper
1983
initiated
versions
reflection
consistency
beaten
liberals
rented
colonn
fuji
printing
quantity
motivated
blew
gigantic
enclosed
francois
brutal
transparent
pedestrian
millennium
synagogue
hobbies
canyon
java
oro
##dale
##rer
##sen
##38
##fp
toll
##itate
##isse
alumn
shake
##ulously
seed
plates
noon
##apolis
grat
mugh
scuba
accidents
##ograp
tract
parish
assure
instant
streams
mighty
emily
##aires
raw
##rup
tennes
choosing
judgments
jewels
sne
hunger
commissioned
##umbled
religions
superst
deeper
celebration
radical
scratch
dependence
removal
sarc
conclude
1950s
instructions
utilities
prescrib
snake
##brand
liquid
marginal
suspicion
caesar
overcrow
nostalg
alumni
57
bount
ff
hust
ile
mow
pbs
pestic
##view
##arre
##lem
stol
whites
##urity
alps
alright
heels
##ithe
orang
canvas
manif
donate
##ishop
amen
intend
cohen
buzz
##ometric
deciding
programming
param
remem
slaughter
talented
islanders
glorious
freezing
identifies
considerably
floating
recognizes
##anne
bonus
dinosaur
camel
psychology
concentrated
mallorca
interpre
photography
pillar
trucks
knocked
harvest
vsl
fulfill
reconstruct
cottage
merchandise
gilded
burgund
tennessee
cd
dell
fen
fwi
pt
sour
zelon
##oan
##rust
##gins
##mart
##sr
##fman
##esc
##enna
##oria
inbound
revers
##sein
##ambo
shor
shining
atop
deities
outbound
loaded
exports
brow
accel
accus
##anging
relied
capability
worlds
modification
entreprene
priest
pointing
senators
profound
drift
operators
paula
bloody
170
movements
europeans
checking
friendship
1000
midnight
qualify
jacket
bulk
citizenship
tunnel
##iyre
stamps
tremendous
survivors
mumbai
richardson
jalan
toledo
dw
dere
dense
pard
pensions
sip
sizes
zen
##ni
##gic
##vals
##aro
inaug
##itary
##urf
##urai
##opp
allen
spar
spark
##quet
adul
perf
perception
yearly
overhead
intoxic
underm
olds
counties
insisted
controlling
##inson
extension
glam
maine
sunlight
attracts
##workers
screamed
disputes
briefly
stewart
oliver
satheri
litigants
overlooked
sustained
deemed
dismissed
axe
indigent
pundit
pundits
descendants
perpet
botan
feudal
reconfiguration
78
bak
fles
lions
nbc
pok
ross
sized
verm
##mish
##uv
##zare
##wich
##oro
##anim
rear
shah
compat
##izations
himalay
preval
##acles
blades
bluff
##ailed
artisans
##ologically
minar
bookst
confed
brook
suggesting
destinations
hussein
environments
##ovitz
speaks
reno
mosc
commented
conversations
liberation
introduce
##uku
archaeologists
champion
craftsmen
stretching
saddle
prevention
cinemas
desperately
korean
landscapes
supervisor
suburbs
bennett
presumably
brazil
##ographer
danc
tire
vish
##ecess
##jud
##zan
reef
##etically
forment
##amel
shield
docket
ornam
##istine
abrupt
lever
##unci
##umble
plaster
nois
unbelie
lover
upgr
quaint
twist
appet
indul
inval
secrets
downs
keen
##ression
surveys
reduces
revision
resting
skys
curb
auto
formation
disturb
serge
##lington
viewers
greco
sanctions
awake
cef
travels
regulated
fights
maintains
unfunded
independently
lacked
predecess
establishments
##govern
doubts
citadel
603
submission
gradually
bands
giants
welcom
comparable
tribe
unfortunate
nyt
synth
reliefs
assassin
elementary
embrace
##acca
isolation
nazi
ronald
vendors
apologize
gesture
cameras
kelly
hampshire
dudovitz
lantern
squee
simultaneously
bizarre
aphis
lobbying
welcomed
bass
dated
eve
fid
mister
##cs
##iji
##lon
##40
reverse
##ido
hack
heir
shed
##estim
##illion
chim
##ckets
canadian
manh
composition
##izz
shep
incumb
quot
overtime
needle
maria
desirable
##erald
informal
governing
##ailing
acrose
slipped
payche
feder
phoen
kinderg
##ews
norther
charging
portions
marketplace
irrit
favour
claiming
assessed
knowledgeable
complexity
bandits
sundays
bowed
ranges
removing
##marks
illustrates
thompson
bureaucr
cups
supervision
excessive
veteran
inhabited
cheerful
cycl
inevitable
obscure
aristocr
inappropriate
cure
fare
jus
jog
kes
ligh
slic
tires
troy
wip
##nu
##rale
##uana
##48
##win
##imb
neph
fraction
deleg
exh
##umed
maps
spray
unlo
resid
colt
marina
##iani
##icks
flows
slope
depreci
discretion
retained
ruin
autumn
signal
advances
##beat
2003
mature
practiced
practicing
generators
judged
freely
credible
##ynes
pressed
answering
shrubs
packages
corners
imagin
gasoline
cartoon
##iya
1930s
cells
wheels
bargains
bait
recovered
dusty
intellectuals
provence
attributes
terrific
mitig
cumulative
prosecutor
##luent
horizon
nonexchange
wisdom
adapted
capitol
celtic
shakespe
moscow
gon
gays
jar
lyr
mint
vatic
##card
##ikes
##wal
##ilia
##otine
alic
##oping
lik
##usible
##arded
meg
cane
enable
##unic
##aste
unst
unav
unchanged
justified
##grad
partition
##assion
##ertime
##wear
belly
lasting
imports
aviv
considers
waterfalls
mills
testament
politician
arched
apaches
walled
sentences
fortified
sainte
nationally
appropriation
attacking
troubled
venue
crossing
##iffer
ignoring
pilots
rolled
##itzer
prevented
elders
unpop
arabia
terrain
bathing
robust
conquest
##piece
belonged
carpets
oxides
pige
krug
anthrop
distinguish
sequence
balconies
extravagant
afghanistan
kilometers
automobile
gandhi
municipal
actuarial
faculty
kaufman
stolen
52
90s
echo
hilt
japp
lamp
lyn
pity
rag
rfp
wig
##de
##ders
##ti
##mn
##mel
##ua
##uccess
##bach
##oulos
##inging
##itar
anderson
reun
##section
##chi
exile
loving
adorn
##aho
resent
inclined
disk
##log
colour
##veland
attending
blanc
famed
slip
phases
demographic
cheek
watergate
explaining
risen
stealing
deliveries
176
cracked
##attan
cops
sooner
1984
145
panthe
russians
##portant
fixing
philip
threatening
purchasing
analyt
amazed
colonies
##guards
1920s
mcdonald
subsidies
##books
tigers
outlaw
graphic
monarchy
##keeping
portrayed
inevit
metropolitan
creek
hectares
unimportant
contradict
harassment
vishnu
shakespeare
awhile
cors
gins
kan
kidding
oas
rous
ripped
tud
tension
##ean
##lass
##boy
##rev
##ctional
##uri
altered
##udge
##astically
outreach
boot
scra
##akura
opens
regime
fluct
subway
empower
##phy
drum
demolished
formally
invested
##elson
behave
mounted
##enne
footst
grantee
arena
ranch
mosqu
embass
candle
mistress
titian
urged
cathedrale
permitting
precision
2015
feeding
illustrate
dynamic
arrangement
ferries
tubacca
gorgeous
##points
pollutant
deliberately
juris
forecast
embarrassed
indigenous
ceteau
coroner
proclaimed
strawber
snorkeling
astonishing
intricate
convincing
flesh
vatican
analytical
85
gaining
gym
jenn
jaff
lubb
sod
vel
##held
##ez
##went
reci
rewards
stur
stack
atom
suck
knight
abst
##ardy
##quest
peel
quay
interfer
roose
prejud
remn
gene
wrist
slam
shower
earning
reads
metro
barik
poste
booksh
terre
apology
##boats
epid
attracting
160
castro
treating
chapters
influential
cleaned
examines
biological
evaluator
##ophag
##ilingual
litter
distribute
borne
qualities
rolls
crying
contacts
telecomm
unsure
unsuccess
guarded
tribal
spreading
amph
shadows
permanently
aimd
heroic
clinic
update
tube
acknowledge
receipts
snapped
taxpayer
prophet
commodity
miracle
exhausted
abundant
taiwan
stephanop
crucifix
promulgated
prehistoric
##zarek
formentera
unpopular
krugman
lubbock
recipe
51
88
csr
hh
hoss
kells
nag
pour
pip
tens
ville
woke
##col
##cely
##rative
##mo
##fia
##will
thumb
inex
##ente
##ili
rect
rever
forfe
shin
shorts
atm
##mphis
leap
memphis
ench
##una
peers
justify
ami
poets
##velt
marij
attain
schwart
##uala
careers
playground
cleveland
tempor
tempted
admissions
judiciary
awes
wallace
breast
hilltop
potatoes
flemish
trusted
manufacture
quarrel
cardinal
commentary
investigate
layers
punished
sorb
ambitious
randy
taller
terraces
escal
absorbed
expenditure
graphics
windsurf
revenge
plotz
consciousness
akbar
miniature
excluded
verdict
catalog
parallel
cobbled
homosexuality
apprais
pilgrimage
manuscripts
burgundy
sergeant
federally
pantheon
roosevelt
marijuana
schwartz
beng
boud
cp
dorm
fas
gn
loun
mouse
morn
misc
mask
rape
vert
##gon
##taking
##uated
##vis
##bat
##wick
thunder
ther
##oubted
##isp
##entine
sto
##rove
albe
seeds
goya
##iston
spy
spices
plum
outlets
clan
clich
pecul
advers
##heric
impair
diver
coin
undoubted
traces
##onsin
blend
##athed
##ermere
insights
barra
barren
skirts
auton
grab
transc
transpl
swed
collective
varies
limiting
windermere
immense
buyer
competent
squares
necessity
credits
pressures
halls
plantations
characterized
combine
broadway
reportedly
doubled
darkness
mandated
dropping
scrub
integral
jesse
asthma
applaud
ethn
petition
minorities
minimize
tallest
tribute
stretched
breathtaking
mercen
maximize
abandon
digital
crusade
rumors
outdoors
kram
charlie
boilermaker
hesitated
episodes
hammer
excursion
recreation
confirmation
intimid
sicily
societies
pavilion
sarcophag
shoreline
jaffa
epidem
albeit
peculiar
56
69
74
bind
bone
duc
dazz
gum
ipm
kin
kuala
ling
masc
oreg
tad
##pat
##power
##dg
##aus
##aise
##eu
##gra
##tra
##isive
##olome
##iratory
alp
asp
knees
abilities
nobles
##ourt
unhe
adoles
theirs
##ifiable
imprison
##ounted
quart
##agg
repay
grid
interrupt
dispar
##aky
##iac
marking
consort
synd
trap
parale
joining
acro
flame
gaze
barr
##iciencies
admir
missiles
glow
continental
secondary
clearing
volat
harmon
promoted
originated
questioning
shortage
husbands
referrals
woodward
laboratory
hurts
ern
##archy
panic
manufactured
preference
draws
linking
reflecting
casc
establishes
garment
frequency
constitute
analyzing
predictable
skinned
lengthy
##agonal
defenders
emphasized
adequately
reminded
repeatedly
maker
rigid
lyon
frightened
conjunction
chaos
nasa
nickn
olympic
wicked
ceremonial
hazardous
vessels
greenspan
margaret
kindergarten
lighthouse
alicante
awesome
oregon
02
ais
bun
bambo
catherine
czarek
font
gol
hort
lal
lun
mul
mound
rage
rude
##agr
##lav
##bes
##onies
topped
insc
##urbed
##chitis
heb
##geois
knights
allied
nobel
unin
##ishment
contra
committing
underwater
##erton
##ainted
minnes
respiratory
readiness
watches
gracious
benefited
financed
profiles
confess
accounted
majestic
glanced
explored
exploded
stupa
generaliz
stopping
harris
eyed
magical
promising
destro
grandfather
seller
objections
architects
selecting
documented
denver
investigators
misunder
decorative
liberty
spirits
meantime
##worthy
bronchitis
psychological
challenged
galile
neighbour
terrorism
emotions
crusaders
pigs
dominant
ponds
prompted
prescription
supplementary
emerge
bourgeois
washed
sweeping
evolved
athletes
yacht
pistol
spokesman
inconsistent
sepul
alsace
footsteps
windsurfing
bengal
undoubtedly
bamboo
hood
lut
mi
muss
nuts
pis
rip
rows
##nels
##dle
##rons
##gent
##75
##inth
##asters
rehab
##str
consec
chau
oral
canals
##umer
pled
unm
compassion
##ounce
perenn
impl
quotes
repairs
overd
overr
dischar
dissem
mund
pooh
descent
backs
tragic
blond
blaz
##ocation
warner
delays
defended
revived
revival
factual
companion
advantages
serbs
tempt
patrick
accountants
raids
salam
wax
harb
amongst
windy
towering
antiqu
printer
protective
contribut
replacing
conviction
females
threaten
spotted
luckily
misd
complained
firmly
comparisons
vegetarian
macroe
consulting
reagent
warsaw
crusader
reminder
coordinated
blanket
georgian
vinci
summarized
neglected
refresh
cosmop
kamakura
collapsed
perceived
ingredients
inevitably
stephanopoulos
minnesota
macroeconom
92
gil
kins
loses
nass
nagas
pomp
raining
sull
##ea
##len
##fire
##alous
##arine
itiner
strol
##roid
wears
congr
goat
##mpt
maid
spun
offensive
disli
disgu
feared
buys
smar
downstairs
blown
kevin
governmentwide
basin
cake
caution
edo
correl
medi
hardest
airpl
functional
musicians
campbell
annie
privately
continually
generals
summers
drain
listing
##pectives
brains
snakes
treatments
banana
bananas
##ospheric
indicator
respective
degas
hosted
verify
layer
etr
matched
functioning
ninth
groves
austria
tunnels
substantive
##marked
consequence
rhyth
appointment
assertion
switched
fertility
##after
fragile
prolif
fantasy
laund
##children
prestigious
championship
deputy
temporarily
kramenin
fog
fitting
kend
lighter
mower
mamm
nan
pending
tents
tiles
wisc
##yle
##nas
##34
bever
beij
reop
reception
##lyn
haun
##chio
shaded
shapes
notices
nev
nebr
##ersed
seattle
chase
sued
##ripp
enabled
nob
unn
trin
upr
resign
carriage
overth
interaction
discip
disabilities
##ensively
marx
thrill
##onscious
governance
kef
suburb
perspectives
baseline
handles
retal
tales
ende
rua
happiness
technically
communism
confined
portal
passenger
equity
opposing
infin
calle
halt
harbour
winters
awa
romance
solar
solomon
cannon
sentencing
routinely
contributing
variations
unfor
speakers
israelis
wildly
rapha
sciences
veron
##backs
spiral
appreciation
decreasing
symbolic
depicts
sheltered
malaysian
consultant
comprises
rubber
subsidized
penalties
storms
clinics
temperatures
cloister
embraced
enthusias
strangers
disclosures
hugo
liquor
wolves
province
marvelous
elasticity
announcement
devastating
leisurely
fernando
wandering
rebellion
siege
dereg
ginsburg
cosmopolitan
wisconsin
beijing
bend
dur
gour
gary
gib
hog
hik
hmos
kab
mant
owe
somed
wp
##aved
##gi
##uum
##lore
##itations
##reed
##storm
forcing
##rood
noting
conced
##udic
amate
amusing
##aga
grill
overnight
interactive
boating
partially
precip
scare
needy
mare
polite
##oths
blessed
requester
belts
genre
##ugg
insuff
barn
medici
##iciaries
developments
grapes
##iera
beneficiaries
turner
patrol
181
##amese
thirds
merr
irrig
presentations
holdings
##boat
labeled
stylish
ballet
impacted
hunter
journals
duomo
softly
predomin
encourages
surviving
1975
conservation
discounted
shallow
holyrood
prints
samurai
strengthened
boundaries
lawns
concludes
##compl
bureaucra
nominal
exploration
revolt
trendy
mentally
hijacked
tanks
promptly
anthony
spacious
pagoda
inherent
suburban
prosecutors
outrage
observers
envelope
bankruptcy
duplicate
outfit
metaphor
calculation
murmured
intriguing
bombs
perjury
bounty
paycheck
northerner
endeav
someday
bened
dues
imb
lanes
nerve
ost
pac
pits
rents
ramb
vague
vicious
yok
##pur
##iets
##sed
##inas
##inians
##eli
ree
stem
stole
##vere
angle
anonymous
heights
worries
manages
placing
saves
clust
##oka
##ounding
tak
grades
rooney
boast
crashed
martha
##acle
thres
backing
##amped
download
genetic
differing
realign
##ainties
##scale
endless
charter
propose
sket
eman
headline
creole
summertime
viable
151
killer
##holder
129
worthless
163
domes
assisted
dougl
deadly
painful
surroundings
strikes
stripped
declare
observatory
1979
martyr
titles
injust
proposition
janet
troop
coward
strengthen
consultants
saturdays
remarkably
fabulous
gentlemen
trailer
tenth
nepdg
varying
arcade
satisfy
encountered
inquiries
feminists
enterprises
pitts
tranquil
sufficiently
preservation
vibrant
practitioners
disturbing
sturdy
nagasaki
nebraska
89
cv
cau
dug
fost
hardship
nam
nasty
nelson
vest
##cer
##nut
##giving
##xon
##ws
##inous
##icut
##leine
##lehem
stern
##olia
ank
weed
goss
knee
##elli
##osa
prado
spaces
unsc
unanim
outd
donald
trig
teleg
tavern
amar
incomes
carr
caring
mule
actress
crushed
remin
madeleine
studios
busiest
pharm
endors
edif
gaz
daim
protests
pretend
secured
shoppers
arche
sixties
reasoning
cultiv
##ommon
favors
domed
credited
fortifications
castles
madame
##anni
violate
purple
##lette
indianapolis
documentary
401
automation
kidna
demonstrates
searched
crafted
drafted
laughing
scientist
francisc
hypoc
workshops
mechanical
pm2
belongs
eliminating
harmony
deposits
interpretations
tablo
shifting
dragged
pirate
ascend
seldom
landscaped
frustrated
frustrating
lodge
ineffect
felipe
enthusiastic
libertarian
explicitly
exhaust
evidently
grinned
breeze
hurricane
mandrake
woven
vampire
bethlehem
hughes
manhattan
boudoir
smarter
70s
bore
cm
eb
fitz
jod
ov
posed
tide
tended
wat
zo
##oard
##lings
##fu
theod
##erget
##inn
inacc
revered
staged
hagg
##urate
##mented
frames
chanc
aboard
soaring
trent
anytime
amy
diary
repet
intimate
grind
twins
poem
marco
servants
poles
bloss
##racted
##ocative
slower
obey
##phe
metres
barbar
proportions
particulate
##ecd
matt
equation
tops
projection
posit
breasts
sunsh
enclos
doorway
debts
sorting
hunters
lightning
contributes
arrow
uncommon
##ikoff
ladder
convicted
indication
adjo
shareholders
rebels
##etti
dispatch
hostile
triple
warmth
laying
conversion
advertisers
murderer
breathing
burns
pursuing
wider
rubens
brightly
negotiate
emphasize
oxley
accidentally
soviets
conceived
rewarding
spinning
adoption
struggled
joyce
dictator
plausible
supervisors
puppet
paragraphs
nhh
barbecue
turtles
orchestra
xiii
lorenzo
sorbent
generalizability
enthusiasm
68
80s
bunk
bidding
couch
das
egl
fow
faded
hale
lt
qa
sends
vain
voy
##diction
##uci
##jon
##was
##onso
##ington
##icy
##ilings
##eters
stance
stagn
alc
shy
shiny
shields
##ulates
weaving
conform
##istically
##ustomed
abu
sovere
spont
hass
##aph
unb
unrelated
willie
##oku
tag
offense
britt
bruce
cole
cove
cran
needing
marri
wayne
opium
##olds
blm
warfare
mode
mining
sins
curse
controller
protested
certainty
morgan
stepping
greed
successes
additionally
noncompl
173
horrif
flea
devot
##lusive
err
tiber
boyfriend
santor
commercials
hyper
balloon
beatty
magnitude
21st
ambass
austin
boilers
roofs
##uki
scholar
adventures
masks
calculate
motivational
rhet
jimmy
depressed
accommodations
earthquakes
hijacking
racist
cantina
unconstitution
##eastern
wolfe
sympathy
excavated
invoice
phenomenon
hispanic
privatization
rhode
clerk
ptole
##unciation
keswick
nephew
appraisal
nevada
douglas
gossip
telegraph
eglise
aj
bays
camb
eiff
hollow
kaz
piet
pione
ral
rita
tore
##oid
##cod
##hwa
##fat
##wak
##esy
##eses
##eding
##educt
##alds
##oman
beaux
stored
##olith
sher
shaking
notorious
nebb
weights
butler
leh
maison
pristine
arn
uneas
donors
loire
likewise
compost
compact
compelling
persec
perched
carving
overlap
coc
goodwill
partial
partisan
##akia
indones
##licity
firing
helm
finely
thrust
backyard
blues
##phorus
gaunt
esteem
entries
homework
organize
curt
issu
cheers
info
operates
healthcare
156
##sha
immun
encomp
specify
potter
policymakers
168
computerized
humanity
similarities
fellows
cope
obsessed
contracting
damn
cleaner
separation
scenic
packet
sandstone
positioned
##rels
1967
decoration
jacks
giul
compares
earnest
workshared
wheat
ashamed
hinduism
uncertainties
delighted
poisoning
teenagers
accomplishments
sporting
tightly
folklore
untouch
dilution
canton
jurors
unreal
indoor
prestige
queens
fierce
irrelevant
caleornia
canceled
##build
aesthetic
tuscany
stereoty
pardon
lyrics
atomic
amphithe
atmospheric
raphael
eiffel
79
aol
bilingual
ecc
fist
flic
giov
hil
kurd
nancy
pf
rings
ropes
rugs
tay
voth
##pro
##path
##nity
##kward
##mill
##master
##inals
##onian
fores
##sept
##chet
##amo
albr
##andy
meh
energet
mann
plag
sake
pean
adverse
##ounded
perug
fax
inclusion
scan
scroll
poke
poems
pockets
guer
marath
lookout
finishing
relies
flights
obel
forming
concur
headlines
##tsa
communists
2004
roommate
menorca
##ecy
morally
actively
problematic
budgeting
merits
experiencing
awkward
hooked
kingston
traveler
##pring
competitor
sentenced
scream
objection
divisions
##ova
appropriately
frontier
moses
mosques
##iki
secretly
anglo
##forward
slowed
cruises
##obi
rebel
connecticut
essence
transported
cooler
speeches
bowling
elder
revealing
consulted
grip
penny
partnerships
bullf
monitored
inputs
whisper
reinfor
renovation
transept
avenues
nhtsa
bartolome
wanna
fantasies
skeptical
pharaohs
subscribe
invoices
ignorance
incompet
honda
nightclubs
shepher
proliferation
hikers
amateur
sunshine
sovereign
63
84
cows
git
hilar
jain
jag
mck
mie
melt
rale
tread
yam
##zer
##wed
##erates
##inqu
##aned
tol
beasts
rejo
##utt
wasted
ante
alar
alumin
##adic
##adda
shack
chand
orr
mead
maze
lob
compos
##izable
quo
disrupt
1900
coloss
##eph
downward
schumer
flats
idiot
persians
visions
capitals
talents
mineral
bothers
grav
nearest
guessed
hotline
confron
exclaimed
anna
annex
matth
classroom
cease
remembering
specialist
educate
flock
simplicity
quicker
wooded
standardized
unconscious
creature
secretaries
combining
sandwich
embod
affection
##iffs
titan
investigated
consumed
contrasts
premier
safire
industrialized
cynical
pursued
arabic
octagonal
vanished
shelters
licenses
ivory
launching
witnessed
philosopher
kirk
gifted
steadily
hijackers
alleys
disappointing
recruiting
reconstruction
aqueduct
observer
ancestors
##frame
nonsense
disadvantage
genoa
deductible
yankees
umbrel
brooklyn
pigeons
crucifixion
noncompliance
raleigh
aluminum
ay
baker
bishop
hhs
iup
ja
kat
lith
ming
patch
ssa
uk
wy
zion
##hu
##namese
##made
##mates
toile
##reated
wholes
hay
hail
haunt
anecd
ally
alarm
shores
##ulse
fren
sev
seam
upscale
resur
##agne
interactions
goodby
marit
recession
inviting
regent
presort
specially
blink
blamed
##athe
requesters
additions
instantly
realism
ministry
propert
nationalism
signals
taxed
serene
grain
camped
whitewater
183
apost
courtroom
ceilings
craig
166
geographical
##balls
##umbers
requesting
breakdown
acquiring
respects
consisting
garlic
constantine
complaining
##ohama
roller
ethical
straightforward
dubbed
emperors
diego
burnt
powder
pico
psychiat
gentile
tune
inspections
contempt
gamblers
obliged
poisoned
##laid
gorbach
purely
shifts
stabil
translated
simpler
bernini
transmission
provincial
preceding
grasp
liberties
obstacles
bundle
wardro
helicopter
disorder
discouraged
hockey
dolphins
##bursement
bosnia
alphab
lumpur
##minster
reconstructed
dancers
yokohama
threshold
taylor
goodbye
gorbachev
cens
dus
dart
fence
ironic
moss
sib
##hara
##eeling
##mont
##bag
##based
##western
##ingo
##isco
##leep
reese
##idity
anat
algar
shit
chal
##race
##ardt
mahal
adams
pertain
teens
ammon
imply
overly
brink
crick
scrap
marcus
unders
##acon
##luded
counts
acute
slab
retrie
edg
delos
approving
humble
skip
triv
airy
extending
seniors
investor
maturity
classics
growers
operated
apoc
greedy
101
regulate
periodic
domination
protects
alcoholic
##apping
##ikh
convict
hikes
lawsuit
celebrates
embroid
seasonal
venues
fashions
commentators
microw
##banes
missionaries
capturing
spectrum
welcoming
powell
bells
1948
seventies
illustrated
sarbanes
prayers
recipes
kingdoms
carpent
resisted
nicer
reminds
distinctly
vietnamese
promotion
assassinated
reconcil
uniforms
bosphorus
optimistic
avenger
producer
torture
elasticities
distracted
wrestling
ignorant
dignity
sighed
catastrophic
manifest
noisy
unbelievable
incumbent
mornings
congrat
uprising
pittsburgh
franciscan
marriages
cocaine
albright
iupui
properties
gentilel
cuc
dak
damp
fict
fiance
fhwa
gy
gul
kra
nope
pel
penc
rack
rivals
riot
sop
sided
yor
##nin
##drop
##rd
##rays
##iences
##mers
##uch
##uke
##oni
##onos
##orout
##orical
##itas
##itter
stee
##roit
##chy
##add
asleep
heck
healing
sham
chill
succ
##unks
mae
sai
##ifa
tears
facial
diana
dijon
offended
crowned
prefers
##icals
sco
##ogy
monkeys
##fts
rembrand
eviction
keynes
supplier
subs
wright
slap
deploy
planners
realm
defensive
corinth
##erness
autorout
testified
equality
waved
experimental
judging
hoff
horus
##parents
silently
126
domain
modeled
civilized
rocket
grandparents
sentiment
sellers
victories
murals
drinkers
surrendered
motives
voter
legislators
##heart
lawsuits
garland
fastest
ballot
deduction
sensible
jesuit
magnet
constitu
renting
bronx
commitments
dedication
scandals
shady
1934
dishon
circumstance
hatred
jumping
attendance
detection
diseases
sabah
sponsor
bolted
tailored
disneyland
privileges
rajput
recreational
collaboration
assignment
refreshing
offspring
mumm
carnival
confidentiality
exaggerated
jfk
affiliated
wiped
dazzling
ernest
reminis
algarve
edgerton
steele
rembrandt
350
64
brib
duct
denn
gur
lend
mate
mast
nude
oval
rats
wach
##hed
##ns
##nik
##tes
##zhou
##washed
##atial
##esa
##ono
##ori
inability
ingl
##asth
##icans
beans
##otted
hak
##aying
##iguous
##irical
##ados
chron
chlor
dos
goats
thereafter
allerg
spice
spelling
trinity
taj
implies
intermed
herbs
##ption
bohem
##angzhou
guangzhou
smells
pollock
flue
warren
discourage
phill
importation
revisions
baron
detroit
##pless
transfers
patience
mailing
##oyant
prett
landf
morality
vik
bloom
##boards
crap
commissioner
divine
devi
favorites
hearted
surrender
jerk
shrimp
##lett
angels
swear
farmworkers
imagined
installing
hersh
decorations
##class
exercising
preventing
decreases
immigrant
powered
criticizing
puff
1940
montmart
managerial
fanci
semin
skinny
chemist
robes
workshop
randomly
unusually
sponsors
bedrooms
wounded
assembled
thrive
unreason
inefficient
niche
ryan
pearl
corridor
massacre
vouchers
overcrowded
prevalent
##governmental
phoenix
mosquit
strawberries
unsuccessful
autonomy
laundry
bureaucracy
injustice
gentilello
awe
dess
iz
lus
mats
nc
nuns
raz
##pill
##pack
##ram
##iantly
##acious
##eur
##uen
##sad
##inan
##anth
inh
##real
##asu
##omphe
##otal
rebs
stap
haifa
##teries
##illas
##riad
##ellers
##ivable
mafia
spur
plateau
arlington
unity
unex
agra
pert
workout
workload
tear
amato
impract
dip
contam
rogers
fever
twent
lac
guill
servant
betty
thrilled
consent
monster
monkey
tracked
remsad
systematic
courbet
emplo
phones
retaining
organisms
defining
norad
charism
souls
triomphe
importantly
designing
graft
2007
patio
205
matisse
infect
morals
sidewal
awak
##she
ceased
stuffed
172
agreeing
focal
grandchildren
debates
screened
110
148
animated
fairness
trustees
galleria
juice
physician
arafat
verification
judgement
literacy
utens
jealous
catching
laser
behaviors
disappro
broncos
advocated
surveyed
pursuit
vegetation
ample
ghetto
inquest
illustrations
enhancing
1929
consequently
symph
furnished
dismant
ashoka
disagreed
calculations
detective
motorc
ganga
dissent
blowing
dragon
renovations
monarchs
unwilling
leaned
solicited
plaque
renewed
caterpill
anxiety
frightening
greeted
accumulated
quinta
##uela
klein
panorama
diagnosis
kurds
relieved
enlighten
reckless
tibetan
intensity
conspiracy
ffc
remembers
poker
vermont
abruptly
outdated
microwave
dakota
caterpillar
aux
aquar
cush
hut
hank
hann
ig
lent
lure
lomb
mull
nab
oun
rosen
sore
soda
tame
ub
##ao
##gie
##kirts
##table
##uaries
thur
##orously
##stick
stables
##iger
allev
franch
chant
chris
##raine
knit
aba
##ellation
leaked
mang
spike
##ieu
logg
pepp
tapped
inclusive
carlos
bred
lak
laur
co2
legends
differs
##othy
flip
flank
addicted
idi
persist
artwork
federation
modifications
earl
minoan
engaging
skim
incremental
curiously
sitcom
landmarks
oppose
collectively
salute
broker
wont
122
reaches
modernization
staffing
165
snap
memoir
##awak
caste
selfish
murray
laborers
ensured
spanning
damned
ridge
separating
exceptions
sweaters
corrected
crocod
venus
afforded
displaying
dangers
##ritical
reliance
1966
jackets
shovel
targeting
prag
introducing
freshwater
benid
hillsides
inquired
sarawak
elegance
memorable
oxy
publishers
nicely
iraqi
footh
floods
unemployed
cousins
thoroughfare
bosses
pitre
stadiums
groceries
iranian
##keeper
mysteries
licensees
##ulsion
deterrent
spoiled
##writer
dotted
muscles
riviera
hmo
pronounced
puzzled
diplomatic
subscribers
veto
betrayed
zealand
counterparts
uncovered
jardin
adultery
botanical
leverage
lanterns
imaginative
abstract
interference
telecommunic
destroying
adjoining
brittany
unconstitutional
maritime
apocaly
corinthian
utensils
60s
gwe
garr
hath
holl
lust
lingu
nash
sank
tiled
wary
zar
##naires
##mad
##math
##lash
##law
##si
##fol
##jman
##erity
inel
inlaid
##itous
##ication
##etics
##olved
##amoto
shattered
fron
##kew
##oshi
spurs
unab
upward
peril
sheets
coh
cram
indiffer
accustomed
lottery
##orde
throws
stras
jocks
##ermark
##ressive
##ocracy
subd
discern
modem
valen
##enees
locate
eds
##rection
deficiencies
farrak
seemingly
touring
particle
businessmen
##leyman
stuart
refurb
mainframe
policeman
archives
apol
vienna
158
questionnaires
accessed
antich
potato
balancing
participant
linear
squir
civilians
determines
snack
walker
lightly
fells
1985
140
wordsworth
appropriated
madras
violations
connell
appearing
tiers
russert
narrator
communicated
cros
titled
rainy
investigating
layout
exercises
vacuum
petit
italiane
colonel
cubans
mobil
filling
pyrenees
torch
incorporating
writings
eagerly
saber
recycled
depressing
divorced
scarce
outputs
borrowed
gauge
hamlet
suspects
untr
withdrew
triumphal
fragments
lewisville
monopol
rituals
renewal
montego
albums
murders
summarizes
broadcasting
advertisement
enthusiasts
flaws
jefferson
athletic
worshippers
barbara
tossed
philippines
disposable
shogunate
rifle
oscar
einstein
tudjman
lounge
adolesc
irrigation
kurdish
lithu
vikings
unreasonable
mosquitoes
aquarium
bach
cries
cze
dah
daring
ferv
fret
jum
jets
lil
pk
pyl
sang
tatt
urea
vint
vagu
yields
##cal
##car
##cad
##cane
##iently
##kind
##try
##mund
##lining
thigh
##atown
##ener
##enuous
##orthy
tod
toes
inhouse
##lements
reim
whil
##chool
##ules
chow
chip
knives
##abol
abolished
leaks
meiji
##arte
prone
plumb
plague
##cier
outn
clown
amuse
exported
##elyn
##uctive
##akis
trapped
blast
flung
##getown
wrench
lasts
retention
startup
rests
rested
restruct
restoring
easiest
barcel
distress
##ceptive
admirable
testify
password
palms
steak
dolls
successor
sane
estimation
##ancies
filmm
kills
balk
competence
debated
forehead
coptic
1981
murphy
##ycl
campaigning
hurting
influx
panama
preferences
georgetown
embar
rapids
skyline
miserable
1964
adopting
astro
railways
danvers
melod
1945
austere
spectacle
breathed
fitness
osi
heyday
solemn
sugarcane
stressed
1919
ecological
assassination
chestnut
rewarded
exploitation
pcs
fertil
cyp
bourbon
rajasth
lucrative
distinguished
pagan
premiums
passionate
outskirts
serbian
reproduction
peasants
abundance
olympics
stroke
humidity
panoramic
surgeon
inferior
pompe
annoyed
kiosks
mughal
accusations
cyclades
borneo
gourmet
kabuki
realignment
obelisk
wardrobe
pertaining
ammonia
inglis
intermediate
farrakhan
czech
au
aided
bidd
bows
cripp
ee
eul
hubb
krist
lapt
nah
nba
oath
pant
pca
rated
tum
ves
vom
vau
##oft
##crap
##gence
##99
##wara
##erite
##esign
##arse
ink
##isi
##utant
onions
whist
notew
proxim
##esses
seg
chuck
chios
bypass
leith
arising
##qual
unac
myriad
##inder
resc
##ifer
##izers
##group
incon
carth
overh
overview
##uber
crane
accuse
marie
margu
consume
traced
remedy
highlands
blur
evans
##wealth
callers
slide
standpoint
realizing
##conn
organic
##arsely
approvals
builders
thoughtful
developers
##ilted
processions
ideals
jonathan
natives
broch
sidebar
10am
tenants
mercy
questionable
blocked
solving
##ricted
labour
antit
coasts
favorable
circulation
optional
hearts
violated
variability
cathol
lowering
royalty
complexes
santi
substances
indicating
urge
sensual
occurring
complied
vacations
shoe
inventories
cheapest
textiles
thanksgiving
forgiveness
##masters
montana
virtue
graduating
quantify
deceased
karn
olives
proceeded
furnish
wilkins
byzantines
dimensions
courtyards
asserted
ventura
mentor
hawaiian
outlays
exploit
translation
klay
struggles
phrases
vulnerabilities
dilig
racism
terrified
embarrassing
highlighted
australian
lsfo
elevated
narc
slogan
linux
disclose
conqueror
mathematical
bumper
flanked
enforced
gaulle
sprawling
dinosaurs
entrepreneur
inaugur
skyscrap
hebrew
galilee
disliked
etruscan
ineffective
spontaneous
giovanni
energetic
enlightenment
benidorm
telecommunications
outnumber
bidders
pcaob
noteworthy
skyscrapers
450
81
ale
billy
citing
dys
ely
erupted
fits
gaps
nfl
osha
pod
rer
rally
rains
zuck
##occ
##cz
##hour
##nell
##rise
##iary
##apped
##just
##jah
##writ
thie
bea
##utive
##ationally
shal
cherry
##opy
sums
##anto
enron
sphin
une
unse
sao
cluster
upwards
careless
hercul
##ogues
undergrad
aftermath
backward
decad
syria
downhill
evac
flute
flamb
##ibu
subia
wares
warming
slender
delta
insert
insane
happier
organizing
carey
schooling
audiences
##plan
runner
ideology
gloss
refusing
refrig
morrow
waist
understandable
experiments
trades
delivers
estimating
awfully
ceos
solo
methodological
methodologies
epit
accepts
devote
strongest
##ieties
standardization
shrink
laden
cardinals
celebrating
corrective
wilderness
dressing
rounded
measurements
sudan
brian
florentine
collar
matches
bullets
acquisitions
predictions
comprised
nurses
photographed
griff
instructed
calculating
cupboard
muttered
sophia
tubes
330
promotes
dominates
1917
darn
concealed
theatrical
bolt
exploited
supplemental
weighing
##repres
resemble
bearded
warnings
patriotic
pistols
icons
tucker
comedies
contingency
illuminated
lonely
parcels
eruption
deferred
disgusting
fenner
minaret
aristocratic
depreciation
embassy
consortium
temptation
stagnant
giuliani
hilarious
reconciliation
autoroute
lakeland
oxygen
strasbourg
apollo
catholics
klayman
##writers
sphinx
ao
aks
arose
bub
eternal
gases
hiv
jee
nond
ply
piss
ras
rend
##rine
##aid
##evelop
##uil
##say
##bly
insect
##ela
##eliness
isab
alas
##ulum
notor
prose
chasing
##rained
livest
##gev
##usa
##rians
abol
##unken
prow
uniqu
outline
outlet
outsid
outpost
uso
incidence
brisk
coves
cogn
goodman
vec
deserved
monst
invis
invade
makeup
proves
lawful
daylight
showrooms
metrics
barred
comeback
taxation
morrison
harry
singers
facades
155
irreg
styl
destruct
geography
commonwealth
virgins
strain
firef
banner
creativity
messed
combines
cooks
##sethe
drawer
respectable
louisville
senses
disposition
administrations
salesman
##rofo
drafting
novelist
efficiencies
conceptual
1944
1947
yelling
occupy
semester
illustration
chemistry
instrumental
lakeside
vacc
protestants
harmful
nomine
bagh
instruction
detecting
detectives
##gregation
omitted
##market
mahara
densely
reinforce
translate
naive
cyber
cafeter
owes
lucas
overwhelmed
grandeur
stanley
suspicions
ceremonies
balcony
devastated
fiercely
browser
baptist
intervene
anchor
interfere
fossil
richer
kenneth
exhilar
discretionary
jurisdiction
harbors
correlation
kendal
disciples
qaeda
hassle
orrery
toilet
dusk
reminiscent
dessert
proximity
antitrust
livestock
91
apt
ds
dic
dyl
dwar
eats
gin
kor
laughter
mason
nike
peng
rio
rained
tint
ud
yug
##tle
##uji
##vi
##200
##inished
##ali
beats
isa
isikoff
##utable
stately
forested
##very
##imited
alger
asyl
##essim
livel
exor
sof
##elles
##ellas
##oslav
spared
uninter
donating
##emen
looming
adri
tram
trunk
##oused
expat
newcom
quas
offenders
overhe
coo
coats
coeff
##owning
##ignant
backdrop
relo
remod
regimes
blair
##ollutant
capped
retains
enduring
mete
nationalist
curtain
turnout
certific
whitewashed
electrical
continuity
capitalism
succession
harem
tenure
##author
1500
filter
164
teaches
replen
madness
strand
damaging
germain
communicating
gardener
causeway
climbed
tender
candy
midday
1972
1977
multipollutant
arawak
mentioning
camii
truths
gloves
meaningless
##working
##worked
safely
weld
inspiring
ambient
videot
predicting
transferring
1952
splendor
overseer
converting
accomplishment
venetians
stranger
loral
barrier
bernard
tolerance
flourished
adaptation
exemption
chinatown
allegedly
butterf
lobbyists
salvador
theoretical
tucked
unrestricted
riots
cautious
interpreted
compatible
lamps
inexper
strolling
beverly
persecution
scrolls
hoffman
##inancial
antichrist
pylon
zucker
dwarf
6pm
76
aar
cough
dual
dair
eug
fold
hunch
kas
mitch
ooh
ridden
rendered
yog
##yrin
##cases
##hir
##dad
##ridge
##eenth
##gone
##mes
##vos
##bank
##xy
##jab
##juku
##zart
##with
##asm
##isa
beings
beams
forem
##ige
shiver
shipped
##esting
seal
goa
abortions
leop
leban
mecca
##artisan
maur
spiel
spouses
noises
arbit
##cian
saus
clark
upright
anyways
compelled
complying
##vency
incur
carre
intercept
interval
intergovernmental
disreg
dissa
laz
boiled
##ipur
mozart
opulent
preschool
evelyn
flaming
slice
slump
obl
basics
handic
disco
discont
discrep
performs
fundament
designers
graves
gravely
extends
cheating
communal
watering
mailed
electoral
portable
gaoas
passive
palma
continuously
harmed
millionaire
thirst
chooses
mergers
individually
##brow
159
brah
immort
burton
labyrin
regulators
silic
competencies
pickup
constructive
unfinished
ranked
emergence
sonora
bonap
alternate
biased
declar
garments
pathetic
submitting
responds
1968
touching
warmer
compliment
worrying
bulbs
bombed
bombay
predicts
caval
brandy
defeating
semit
cartoons
retailing
advisors
boundary
vacationers
bailey
speculation
eagle
asserts
accommodation
clarify
satisfying
exceeded
anticipate
reservation
prevents
hudson
prudence
hypothetical
lambs
feminist
boomers
prophecy
pregnancy
metropolis
advertisements
prolong
transparency
diamonds
vaulted
metaph
enlar
fossils
ornamental
downsizing
barracks
perennial
salamander
edifice
cambod
lobster
matthew
cucumbers
fictional
grafton
vaguely
unaccept
furnishings
flamboyant
refriger
cafeteria
foremost
dissaving
labyrinth
53
50s
86
bury
folded
gem
iber
iey
kud
lum
lamb
mowing
oy
sff
sink
wto
y2
yel
yadda
##yer
##oise
##dog
##iards
##ele
##ggy
##lion
##schild
##foot
##28
##erick
##atis
##iliar
##ileries
beau
stating
##roach
shelf
sherman
notification
proving
##este
seleyman
chan
doomed
knox
socially
##outed
##unned
manners
##ivities
maz
spans
sphere
##astrous
uno
unused
donkey
clun
trout
teod
amused
impati
newt
quad
cargo
gram
interconn
disastrous
fears
##rys
brush
lax
lace
booming
moist
backwards
backlash
invari
invading
relates
symmet
oprah
costume
systematically
persistent
handica
kindly
drunken
edges
redeem
popes
avid
economical
postm
completing
curved
signatures
airports
turnover
admiration
patent
menace
raft
clintons
supportive
porte
refund
matrix
criter
statuary
generosity
understands
pasta
paved
successors
socialist
purse
pleasing
presenting
buyers
poorer
silhou
geometric
turin
squat
footage
richest
devised
custod
30pm
surprises
decisionmaking
peacefully
cookies
alternatively
stationed
declines
deductions
604
columnist
consuming
advertised
spectators
categor
gasped
guardian
irak
daddy
##mosis
volunteering
irony
retailer
roofed
sarah
proceeding
negotiating
3000
archaeology
heroin
absorbers
overlook
telephones
clarified
outlined
relying
paradox
leaning
gigot
fragment
weighs
tuileries
voluntarily
sailors
outsour
lagoon
vigorously
skepticism
hispanics
hurricanes
rebuilding
addictive
contingent
adventurers
swallow
philippe
unlimited
raiders
blessing
pesticides
himalayas
predecessors
fidel
##estimated
bureaucratic
transplant
tadminster
##patient
paralegal
lalley
insufficient
hypocris
prettiest
peppers
inelig
whilst
pompeii
marguerite
dylan
yugoslav
isaac
spielberg
ieyasu
y2k
auctions
dh
ech
gamble
juries
khan
nl
nail
nathan
rim
ratt
roses
vp
vil
vines
##ystem
##net
##ienced
##tm
##bury
##22
##arthy
##reuil
##omot
bew
##otec
reims
reactions
hamb
haired
##amine
##amiliar
almond
heal
shan
shaw
neh
fruits
##opia
##rand
liken
liabilities
soho
lease
##alling
maced
##cience
unint
donalds
clues
tray
reside
rescue
##ifs
thinker
##agm
interact
interiors
##erving
coven
##owners
##ensible
afterward
##iances
mocked
##issible
monk
backpack
deco
decides
parl
parental
##leside
blument
evocative
##weight
##iban
owning
taliban
endow
locomot
prizes
builder
deterg
curves
autobi
airline
##tsin
chevy
ideological
transit
raven
glowing
annivers
pala
203
collects
varieties
waver
billing
activist
activists
envy
encycl
turbul
squad
##ushu
picks
treats
murdo
118
##ographers
centralized
tiered
renamed
reformation
strategically
greenhouse
##iquitous
gallon
softball
biology
wilde
supermark
denying
##bbing
photographer
605
punjab
bandit
demonstrations
qualifications
chiefs
repeats
ambleside
suspense
pulls
mccarthy
inquis
licensed
##ukk
1923
buddhists
proceeds
1955
kyushu
eagles
assertions
promotional
flooded
arcades
unclear
innocence
darned
subtract
reserves
parliamentary
tornado
disciplined
repaired
owing
solicitation
shouting
transmitted
constrained
##ulsive
intentionally
vendor
grasmere
peasant
worshipped
frederick
bastille
insurers
hierarchy
endangered
dowd
prescribed
nostalgia
##oppy
favourite
likeli
barbarians
santorini
rhetoric
ralph
immunity
ubiquitous
alleviate
santiago
thieves
aksa
monstrous
invisible
asylum
declaration
unacceptable
yeltsin
iraklion
##oteca
donaldson
blumenthal
anniversary
murdoch
likelihood
750
87
ditch
eph
gond
kay
kitt
mou
mcl
ni
piv
pans
poul
vantage
vcr
##nard
##des
##konos
##kakis
##maker
##ups
##las
##liness
##woman
##erpt
##atur
##attering
##esus
beast
##uten
stare
stumbled
wholly
##ayan
##adi
##term
shug
weary
seine
chess
suite
lia
exch
exuber
abused
##ffy
##ffled
enig
prc
spine
##apur
arrog
unve
sag
sailed
clam
clash
upheld
mykonos
implied
diane
quer
contests
grotes
rogue
crude
##licable
##acies
smoked
attent
moat
monso
informative
secluded
joan
##ulars
subp
slot
discos
retreated
earmarked
minisk
defenses
charitable
##iciency
signing
concorde
cheeks
waterfall
ideally
patric
mailbox
excerpt
musk
grouped
cretan
morb
paste
brock
tense
plea
entertained
label
periodically
encry
pots
assisting
entirety
subjective
pressing
copyr
119
violently
dukakis
structural
erlen
primitive
wishing
slee
venerable
closet
hype
ignores
safeguard
safeguards
##yrus
warmly
sleepy
murderers
capacities
inspir
thankful
concentrate
melted
appealed
vastly
shelves
1920
nomination
oversee
allocate
winged
29th
whisky
antoni
prosecution
utilized
reinvent
neckl
nonfinancial
optimal
hypotheses
hastily
corresponding
terrifying
rustic
swinging
crawl
offsetting
flourishing
legitim
patriot
loyalty
stimulating
tapestry
tangible
condemned
smokers
helicopters
vieux
warehouse
cedar
navigate
amenities
reversed
intoxicated
appetite
##colm
sarcophagus
epidemic
nickname
contributors
inaccurate
positively
ambassador
eccent
mehmet
meadows
umbrella
anatolia
bohemian
guillotine
symphony
inconven
bonaparte
teodoro
invariably
criterion
hypocrisy
hambur
poultry
erlenborn
512
dared
fading
ip
ka
kit
kag
koh
lining
lana
pes
vern
yale
##eck
##ku
##mare
##burs
##far
##74
##anor
##aria
##arms
##armed
ingen
##reet
andrea
##asy
##otam
##idences
##eterm
stunt
aligned
asians
heated
neads
##odern
##abl
spells
sparsely
hiss
##apable
arl
unins
##herent
reputed
overp
roar
herald
disburs
feast
brant
laud
cocon
scam
scorn
commut
##loqu
##ensing
undes
firth
polished
fines
invitation
strung
highways
joc
governed
evie
##urned
flames
genes
idaho
slack
childish
insign
##teenth
startled
startling
defender
meditation
proposes
mustang
curric
percentages
tournam
concise
openly
pretended
nightmar
nightmare
varanas
1800s
operas
archive
caletta
##ucky
halted
greg
departed
harlem
winners
judy
holders
immune
coupled
argu
snatch
richly
eighties
teachings
##aws
militia
void
unfamiliar
arrives
stockholders
kmart
celebrations
pleasures
observing
##ipper
midwest
excellence
quieter
investigator
journalistic
essays
hostel
camels
cambridge
starving
spirited
amazon
inspire
limitation
pulp
revolutionaries
2018
libraries
cowboy
comfortably
malla
snowed
samos
terraced
virtues
comprise
attendant
calmly
instructor
bustle
digest
byzantium
surfing
##urbar
youthful
dominate
stamped
migration
omn
recalled
tanf
sanctum
blacksmith
authenticity
deliberate
cycles
cycling
ceramic
sophistication
fulfilled
collaborative
cottages
exemptions
persuade
gleaming
mathematics
lecture
sesame
cautiously
oranges
oliveri
blanca
remnants
rectang
harmonious
horton
mundane
airplane
rhythm
infinite
fowler
##olithic
pokemon
mckin
trivial
montmartre
##anthrop
sidewalk
skimming
barcelona
hubbell
##occup
destructive
meteor
inexperienced
lebanon
kittens
tournaments
varanasi
94
a50
bm
baked
cds
cites
cunning
dum
gw
ggd
hides
jah
kum
lament
luk
mold
mls
nie
ocho
rut
tart
tiss
tina
tensions
##yoshi
##cott
##dings
##rimin
##eer
##gun
##mi
##71
thai
##eroy
##orate
##arity
##arium
ina
##lee
##ilitation
isle
##utta
##urer
##seum
hewn
##eston
weeds
framed
##illery
chanting
##opotam
manchester
##ivol
plunder
##cile
unjust
##emon
peep
pebb
##ahu
resigned
newton
quai
##achi
interchange
herbal
disasters
##berman
brun
##ignon
crom
indisc
undist
regain
madeir
effluent
elimination
kinda
##cont
insists
default
##ificant
metic
proposing
avis
avant
aviation
engra
postwar
nationality
detr
detached
issuing
marker
formations
serra
grapp
graff
gravey
newshour
transp
patan
raf
refin
critique
ordering
volley
villain
vii
juda
##shot
brake
##parable
recordkeeping
169
inflow
malcolm
sociology
godfather
contracted
normandy
sexually
hurried
jerked
hopeful
arrows
arranging
fairy
bushes
savoy
sands
bankers
medication
farmland
machin
denial
extremes
closes
1978
affords
integrate
boxing
1969
adjusting
remainder
mountainous
sharks
collins
bully
powders
##iesta
brands
melanch
mirrors
tunic
occupies
commanding
strengths
derwent
mileage
cellar
prayed
robot
berth
neatly
attendants
obligated
adequacy
absorb
nominated
hideyoshi
teenager
coordinate
cigars
bulls
291
clarity
conceal
solidarity
pitcher
corpses
preview
disagreement
cheerfully
lorraine
cuisines
prosperous
owed
wheelch
556
##keepers
lamar
rodin
unconv
rusty
resembles
serbia
##borne
excavations
##immers
##oshima
envelopes
gerth
geared
brewery
lungs
disclosed
emotionally
mandrakes
gutenberg
replica
disposal
tidal
swiftly
profoundly
dwind
undermine
bakery
jogging
prejudice
vertical
##aggio
aisle
sepulcher
reopened
retaliation
benedict
##proof
sovereignty
cricket
undersc
muller
zarco
rajasthan
karnak
inaugurated
pengu
handicapped
palacio
liaison
subpart
copyright
insignificant
arguably
duration
hips
huts
hilly
hints
ie
jol
kod
nr
ner
oaks
pamp
pup
pairs
pessim
rios
vind
vene
wend
yidd
##yo
##pin
##person
##hall
##nuts
##nbc
##dled
##rs
##rint
##kh
##kill
##mins
##vation
##vell
##atro
##atism
##enheim
##ouin
##arians
andy
##icable
##ioned
rearing
stip
whale
##chrome
##igs
##imps
##adas
fries
fract
frivol
seating
sealed
lipp
liking
yeats
sob
lemon
canopy
pruss
spicy
plug
nood
##quist
unauthor
##endously
##okie
peac
myr
##ahoo
##ccoli
dire
dias
grun
brim
coerc
crumbling
prefect
scored
indict
monot
relent
reloc
assuring
evangel
dayton
basse
##phone
drastically
simpson
metabol
demograph
propri
humil
eminent
signpost
advancing
##azed
certifying
swiss
confessed
##quez
glen
annan
behold
calder
apoll
apache
clearance
pave
steaks
culturally
merry
garde
armen
burge
labels
##parnas
recordings
risky
debut
riches
lighting
eleanor
universally
goldberg
pollard
keyboard
penis
neglig
viruses
applicant
junction
##ambles
135
138
driveway
troubling
creator
exceptional
inns
sculptors
ballroom
misrepres
connecting
entrances
hostility
##maic
californ
catcher
jamaicans
marched
unspo
forgive
suspended
psychologists
ninja
spreadshe
1941
montparnas
cabar
##iye
battered
comprehend
gambler
##offs
grief
deposited
instructors
brilliantly
scholarships
coordin
ferdin
flooding
knocking
coaching
dolly
##anesh
##respons
flags
privileged
aggression
basilique
embracing
exempl
hazards
dismissal
correspondent
luu
enclave
nazis
resembl
scorecard
ducks
polychrome
evolving
ribe
tutmosis
diplomacy
##algam
commemorate
bastion
wagons
sikhs
intervening
travelling
vocab
triangle
sufficiency
ellison
kuwa
disorders
rouen
toothp
pesticide
glamour
synthesis
squeezed
ethnographic
mercenaries
fontaine
miami
namely
unanimous
trigger
lehrer
arnold
gauntlet
guerr
alphabet
brinkley
pencil
jumbo
vintage
laptop
jeez
uniquely
dairy
silhouette
encycloped
inspirational
brantley
graffiti
judaism
yiddish
unspoiled
montparnasse
resemblance
bry
bids
dag
dash
dana
ego
frog
gag
jas
jup
kannon
mong
oven
pd
pam
pied
render
sinking
tink
ym
##nt
##dal
##iere
##iken
##mip
##ski
##zi
thar
##inform
##orable
##orient
tosh
##reced
##asive
##iceless
##elong
relev
reilly
##iders
##etra
forge
forrest
##urances
##sex
##sees
##igraph
##irds
##imil
##amous
##adoes
shod
shine
shrew
withhold
negr
fringe
seals
##erees
soy
##ostyle
meek
priceless
hadrian
aroused
##quer
outwe
pee
adher
someplace
reson
impulse
expose
contend
herd
##berry
laura
##enco
preoccup
scrib
pole
##ogene
needless
maraud
recalls
betting
polling
backup
downstream
highland
spears
##ailable
flut
flop
housew
empirical
surreal
depiction
cavern
retros
endpoints
miners
minamoto
defines
revise
prized
sinister
sinatra
lethal
pointless
emble
companions
affluent
nearer
confuse
daw
portals
portfol
risking
behaved
calip
grease
figuring
viking
purity
brac
brace
crab
potent
cannons
staffed
footpath
fleeing
malibu
##ycles
woody
circles
golds
julia
halles
violation
negatively
ensures
acquaint
specifications
messy
georges
noticeable
embed
respectful
babys
tendencies
philanthrop
midst
1976
scramb
sensation
flexibilities
gradual
homer
premises
tasty
##took
releases
giotto
telegram
conditioned
fuzz
ambitions
tougher
##lamation
bowls
cowley
weddings
relaxation
unpreced
commandments
logistics
forthcoming
blockb
hypostyle
disagrees
randomized
shocking
launches
digging
overlooks
mystical
sprink
updating
globalization
sacrificed
exceeds
tailor
ornament
disappointment
tricks
maple
levi
casualties
wounds
akin
exclude
auctioned
1871
tolerate
alabaster
warranty
warranted
scrutin
cameron
outrageous
withdrawal
honeym
siena
vessel
belgian
abdul
recruitment
adventurous
interface
terminology
twisting
adversely
inscriptions
kinsley
trinf
untouched
wholesale
lusitan
reimbursement
astrolo
carthag
butterflies
shuger
cromwell
unauthorized
ymca
outweigh
unprecedented
aides
aims
bip
eric
fau
fuss
hing
hig
hart
hend
hitch
heter
lenders
morm
mamel
py
pse
ria
rug
rash
sul
sard
til
tant
zinc
##dling
##rat
##rith
##rade
##mail
##low
##bod
##wall
##25
##13
##inia
##enic
##ittering
##itomo
andre
##entious
##ilant
beware
##owers
stig
##urt
##olini
##imon
coniston
frie
frana
dele
chorus
goof
suh
exchanged
##istas
soothing
enrich
manson
spelled
arises
outlines
outlying
lofty
clone
clinger
anyhow
##ishi
agony
resume
##ureen
getty
imperson
dile
thanked
grilled
hered
coch
centrel
scars
indies
guild
guitar
bets
invention
longterm
parr
parque
downlo
remed
##atha
flushed
##oco
warlord
depri
depended
handwr
elbow
talm
edited
townhouse
insured
nora
##redict
skirt
skimmers
productions
##loyd
extensively
admits
admitting
swine
portico
portrays
improv
terry
equals
classifications
summoned
waving
activated
enjoyment
harrer
sanction
promont
judith
hopeless
futile
satan
irrespons
descended
brag
horr
administers
periodicals
humanitarian
grandson
sentimental
sno
hunted
suscept
definitive
wrongdo
wonderfully
penrith
duly
motive
expressive
expressions
damages
bonnie
ridin
strips
combinations
physics
croses
exhibited
cruz
commenters
radar
integrating
submarine
##maid
mixing
sorbon
bronzes
fascist
unprofit
montreuil
tuna
pleasantly
vanity
quantified
1936
porter
porches
illegally
proudly
dynam
griev
recovering
champagne
rumor
streamline
bleak
attributable
mentions
mentality
oddly
lesvos
tornadoes
cockt
smoothly
puerta
tolerant
patriots
prototype
stalact
whipmasters
vigorous
kissed
vividly
phenomena
overwhelmingly
fleece
vaults
condemn
barbec
screwed
restrained
corridors
bacon
relieve
discriminate
jfmip
timbered
##hyd
kiosk
confederate
irritating
unstable
lynn
fasab
sweden
intimidating
mascul
imprisoned
admiral
mussolini
pledge
blonde
nassau
itinerary
clustered
ptolemaic
nebbish
uneasy
amphitheater
flick
##bags
dennis
unexpl
impractical
dismantled
refurbished
##qualified
griffith
dsm
quasi
overheard
impatiently
grotesque
encyclopedia
jupiter
honeymoon
pseud
centrelink
unprofitable
belf
barts
cort
fade
gt
gust
giza
golly
htm
lone
lug
lss
nets
oira
pend
pines
qut
vase
wra
wipe
yo
ya
##py
##pse
##paper
##oire
##cere
##cons
##hame
##iop
##afe
##avers
##ept
##bone
thesis
thebes
##escent
##alys
bean
reh
stif
aldon
##uled
##ulary
proxy
fragr
##kee
deity
comf
liz
exal
leak
##ghia
##alled
prisons
spit
plath
sack
uphill
usher
compiled
peru
incapable
##iche
oversh
rooft
apples
boyc
coke
crest
cranes
centr
scow
scales
##loge
##locks
##licted
recount
##acz
helen
syl
securing
assisi
remot
##athy
evicted
kemp
##ermo
belle
flashing
slaugh
slipping
handing
cape
modify
sincere
charities
meter
metals
barber
believing
huang
technician
##places
##ilts
##tened
##roned
possessed
glor
crev
refusal
congressman
infert
infected
##lessness
trader
tradem
harold
tenant
merged
viability
poses
breach
174
177
##prints
colleague
encirc
antilles
musician
freak
protections
##ogne
##ovia
settling
sexy
chapels
displaced
dukes
firearms
despatch
despair
preferring
##riptive
linkage
correction
denies
rapt
##ophis
consisted
1973
flowed
ballmer
occurrence
connects
missionary
tomato
conservatively
proserous
jeep
constituted
punct
ibic
demonstrating
petra
inventive
marching
dramat
tribun
dodge
unpredict
conflicting
commanded
fortunes
gladi
##married
carriages
supremacy
negotiation
berlin
ivy
escort
symbolism
crusades
260
chronicle
chronicles
cooperate
implicit
bleeding
1915
sacrifices
boulevards
palestinians
rampant
exploiting
leonard
dunes
hesitate
1890
rationale
optimism
shaft
dictionaries
acknowledging
##kaido
stevenson
inherit
deterior
reacted
databases
accumulate
tackle
dwelling
cloudy
bazaars
viceroy
kissinger
kleiman
calcutta
egus
enlightened
caravaggio
confrontation
robbers
predecessor
fluctu
plummet
volatile
rehabilitation
macroeconomics
veronese
deregulation
merrion
endorsed
peanuts
colossal
anecdotes
ductwork
deviations
pertinent
employs
cushion
apocalypse
lithuania
bachel
restructuring
kristol
volleyball
vocabulary
irresponsible
lssm
qutb
aldonka
slaughtered
2nd
aide
berm
bio
ecl
fc
gad
gaming
het
iq
kow
lime
mg
nist
nud
nia
nik
ou
pony
pipe
rays
tile
wink
yr
yahoo
##yers
##pas
##oidable
##rational
##ien
##mouth
##zary
##inarily
##atus
##orial
##oretto
##asions
##iso
##isen
##icacy
##leiman
##elieu
##ilcar
isis
haps
hailed
haze
##ayama
##cha
##vering
##ollect
##igured
##irth
aspir
notify
conventions
fry
##keley
sean
seaw
chi
cham
dove
gosp
suleiman
orrin
##antan
##cki
##abar
##abling
##abouts
abusive
sofa
lex
cano
maneu
spire
plent
plac
ard
donor
trous
upstream
incense
quir
intol
intends
carmel
bog
crater
crashing
prey
scal
scour
##akusa
acclaimed
##loon
righte
reclaimed
undergo
##icked
johor
presently
preserves
efficacy
keb
##ksh
acoust
cityof
daytime
phant
edgar
redesign
reval
sinan
lett
meth
corral
cleans
propon
##chnya
huff
emerald
disturbed
watchers
gravel
extinct
chef
newsday
majors
menhir
possessions
camper
campers
glittering
explos
politely
continent
##ocks
statistic
collector
infamous
##rued
broccoli
execute
originals
154
posing
authorize
sung
sunrise
irrational
britann
towel
fisherman
texaco
##icultural
destined
debating
walkers
walkway
richelieu
alcoholics
recognizable
115
birch
replaces
journeys
connor
fifties
emergencies
##iko
strive
##adesh
##efin
sculptor
instituted
tariffs
discoveries
declares
##itorial
glassware
rainbow
misle
hostage
verbal
uttered
constitutes
restrictive
interventionists
##fficial
breathe
deserts
benign
precinct
babylon
psychic
fascinated
widow
grove
afternoons
strengthening
outcrop
container
victorious
battery
orientation
falcons
kitchens
belonging
fooled
clicked
nicotine
digit
teenage
pedro
champs
concerted
stresses
streamlined
gorge
huntington
jacques
frost
hamilcar
aggressively
pineapp
nerves
benchmark
axis
satisfactory
deliberations
portrayal
astronomical
consolidation
forecasts
avenida
mythology
diameter
crawfish
rotten
genuinely
greeting
espn
##charge
fetus
muscle
coronel
rabbit
tutank
trumpet
yachts
dwellings
persuaded
tremendously
bhair
pakistani
cooperative
clutched
trimmed
populace
automobiles
triangular
organs
indirectly
culm
swallowed
landlords
12866
mughals
reefs
ornaments
squeeze
unlocked
unavoidable
echoed
quayle
shinjuku
alpine
golan
disguise
nanny
predominantly
##iscovered
gyps
thurmond
hathor
adolescents
vecchio
exhilarating
mitchell
arbitr
postmodern
custodial
eccentric
graveyard
kodak
hereditary
bermuda
kowloon
bert
cim
dj
dhs
hk
hok
jay
jams
katherine
nou
pact
rus
rph
sans
serm
##pool
##polo
##course
##dam
##ienne
##ement
##lia
##lsw
##vo
##var
##bot
##feld
##jeeling
##zas
theft
##inence
##enos
##edly
##aragu
thatcher
##stood
##idated
stems
haute
##chre
##imi
##amas
shen
shred
prostit
concess
frances
atroc
chunk
goin
sumpt
exxon
##rio
##cker
##osium
enabling
##ection
manning
##iven
spor
plugs
##cien
unlv
loos
loads
clip
clergy
upbeat
##ounds
justices
agitated
aggra
resale
resumed
##agement
implying
everest
carne
grotto
overpay
interrog
roast
muff
broth
crush
indign
accl
accadem
##ensely
##anges
recur
recollect
underwear
##ometer
conscience
syner
assurances
scheck
evoke
flirt
##ibus
subsc
surm
arte
payoff
##eney
drowned
defl
simone
correlated
##ashi
chechnya
viewpoint
sworn
excise
gla
glared
pretending
internationally
terr
passport
orderly
##lique
roadside
##autions
awoke
authorizing
##shed
filters
filmed
solvency
illusion
immensely
envision
texoma
jewell
christie
squash
freud
similarity
pressured
divides
casting
##boro
normans
recommends
sexist
englishman
honour
spaniards
separates
preferable
broadly
quarries
tarzan
declaring
darker
radiation
sensational
bloodshed
disputed
hosting
interviewing
progressives
ullsw
televised
clocks
contacting
dubious
prair
odys
cooling
drafts
pulpit
precautions
lieberman
shoots
earns
unprep
vandals
samuel
volunteered
confirms
hawk
containers
cellars
fraudulent
symposium
dryly
defendant
workshare
sultans
##roads
nicaragu
crushing
forbidding
kosher
bricks
scarves
ecst
eclect
hawaiians
darjeeling
outlay
dragging
vulgar
exploits
chickens
faulty
hungary
strangely
cancelled
rivalry
habitat
rigorous
weighed
thursdays
landscaping
feminine
##waite
lodges
horns
disgrace
reluctantly
flourish
tiepolo
sympathetic
prospects
vineyard
elevator
1868
fetch
balearic
kobe
abbrev
breezes
strokes
##uminous
aristocracy
populist
cherished
turtle
belgium
preserving
counterpart
pomona
wreck
somber
dolphin
defectors
plunged
colonnaded
##rupulous
nostalgic
parameters
entrepreneurs
drifted
rousse
jennings
slammed
bookshops
hosses
impaired
syndrome
volatility
ascendancy
chancel
shepherd
dishonest
charisma
mangrove
todd
segovia
rescued
elysees
vaccine
unofficial
nlada
nehru
curriculum
rectangular
a504
lukas
venez
noodles
diaspor
burgeoning
ferdinand
kuwait
relevance
embedded
dilemm
wrongdoing
sorbonne
stalactites
##alysis
overshad
bachelor
plentiful
britannia
accademia
ullswater
650
83
boun
bats
bending
cin
cag
dough
jade
lance
oils
pand
pau
routh
raging
rushing
sass
tene
vit
##papers
##obe
##nc
##rough
##rition
##laz
##bin
##wind
##aton
##atter
##ouded
##requ
##ionale
##elo
stain
whipped
##olent
alaska
sherry
congest
chir
chast
coma
##rium
abuses
##ffer
##udy
ary
sage
clois
trench
themed
workmanship
amun
impat
impart
overha
intersection
##ueva
roasted
disd
##ittin
brom
boo
coarse
cramped
preambles
commons
maroon
desires
underway
attach
polo
polar
thrilling
monolog
decim
decisive
strings
parap
statehood
evict
subsection
empires
surpass
daycare
discred
capp
feds
realities
##confer
setup
delir
simul
charms
barth
fundra
postc
nationalists
businessman
##ilton
funer
runaway
tempting
##althy
numbered
certifications
probable
mush
campan
landings
northeastern
204
sala
##ucks
winnie
youngsters
157
##empt
##naire
cement
brava
horrors
determin
snar
lighted
riverside
devoid
holland
copd
malabar
seafront
##anners
virus
trustworthy
masses
specification
superf
battled
juven
retirees
documenting
predic
croat
climax
tarn
dinners
1971
martial
urges
urgent
609
1965
truthful
gloomy
hanged
catches
bandw
ultra
tasting
teleconfer
martini
brandon
bellini
melrose
snowing
francs
inspectors
cabins
comprising
bounds
cellular
1922
praying
galata
shuttle
speeds
torrent
fabrics
allocations
incorporates
distinctions
lifting
enthroned
subtit
pitched
anticipation
sustaining
pinker
philosophers
philosophical
unwanted
tinos
dunge
protocol
hesit
benches
axes
heavens
dictators
correspondents
nazionale
bernstein
undertaking
incidentally
##affected
stimul
flawed
stanisl
puzzle
alleyways
dentistry
toyota
marshall
rebellious
fluid
stirred
caravans
dividends
robertson
ruthless
revelation
trekking
celts
fujiwara
sparked
himalayan
adorned
outlawed
oasd
bookshop
transcript
mercenary
misdeed
ankle
daimler
tabloid
foresee
blinked
guru
cypress
##eveloped
certificate
fundamentally
silicon
rafting
ineligible
yugoslavia
pivotal
coconut
detrimental
nrcs
demographics
piedmont
shrewd
goldsmith
promontory
horrendous
seawater
trousers
righteous
tutankham
routha
cloisters
cokie
dion
fsis
gm
hinter
kg
kais
lig
lured
lanc
lago
linger
ml
mim
mism
mih
ps
pang
rall
vitt
velve
wack
witty
##oin
##nal
##turn
##mons
##lif
##bath
##fert
##wire
##eras
##inav
##aser
##stones
##etary
stagger
haghia
forks
forged
##adena
shipment
##ulatory
neander
congl
chunks
dose
##odrome
liar
soak
leagues
##ighting
##ffles
##osystem
allig
allergy
enra
mace
mazz
maui
maureen
spikes
noec
##astro
##asties
unmarried
outright
trot
timeless
perakia
sheikh
imputed
dipped
incarn
##uez
rooted
brute
laf
indec
indisp
indefin
accred
accusing
poignant
##ensional
##angu
##angir
##ogu
guin
rightly
##acity
smear
smugg
attire
mole
throng
somethin
invoked
decay
tracing
parody
regained
schwar
eva
lawmakers
flashed
genoc
genres
bask
showcase
handmade
modular
endowed
drill
edict
##rolled
demol
server
extract
funn
cheat
cheated
beneficiary
##ucci
directing
walt
severity
confession
raided
hourly
nightly
stump
annunciation
infants
infirm
##aughlin
policemen
pawn
capitalize
harp
beachfront
##enched
puritan
esplan
silo
121
couns
staffs
turmo
typewriter
keyes
animation
shrinking
eras
reformed
culturebox
packing
doctrine
prediction
farmhouses
discovering
hyster
##haus
607
misgu
mickey
splash
liberated
jeop
spectator
rentals
inventions
etienne
freshly
inspected
odor
grassy
lieuten
cynicism
challenger
francaise
deriv
scandinav
1931
seekers
honesty
mcm
robinson
defendants
dynasties
##bitant
masada
270
harmless
synonymous
nicolas
backgrounds
foal
craftsmanship
ferr
ringing
alfonso
ridiculously
monetized
ecosystem
lesb
switching
prohibits
blankets
juanito
orchards
administering
uncont
excludes
hammered
lsny
puppies
warns
verdant
yielded
josephine
assignments
stanford
announcements
proclaim
vicinity
tsim
tsui
snorkel
salvation
stringent
##itarianism
outfits
pasadena
barrels
surgeons
endorsement
vampires
hippodrome
penetration
gratitude
browse
perfumes
glamorous
minarets
bookstore
brazilian
bureaucrats
residences
resentment
consecrated
implants
unscathed
ebay
enclosure
voyage
pfizer
treadmill
alarming
confronted
krakew
disapproval
indifferent
amusement
outnumbered
notoriously
irregular
baghdad
refrigerator
iberian
macedonia
detergent
mclaughlin
mckinney
frivolous
downloaded
dynamics
unpredictable
phantom
hokkaido
territorial
campanile
kaiser
neanderth
conglom
indispens
schwarz
esplanade
3rd
5a
5pm
ail
bode
bung
cf
cork
dul
diz
eloqu
ferg
gel
hires
jess
khal
kitty
lous
lub
nether
naming
pj
pah
pree
rips
riley
sri
sara
vila
wield
##ymmet
##cut
##not
##nings
##eau
##van
##jan
##ateness
##onne
##orph
##orio
topp
topless
inhib
inmates
##itatively
##ilian
##ilater
beers
beacon
reigned
##ste
##etan
stakes
stubb
hauss
##rocket
alice
##thest
##adians
asymmet
shi
shab
weis
fra
segments
chilled
##oper
##opus
sucked
lique
##abal
abil
##ortional
##outine
##ardom
mex
canoes
unear
unatt
unimp
loft
clause
clicking
trays
uphold
justification
##ishna
perot
workpapers
##ichi
roared
herman
twitch
scent
poo
helena
undergoing
##aternity
traits
strat
strenuous
paras
blat
##aval
takeover
flush
##ibal
##ocre
generic
subl
slipp
##phem
moder
modesty
modules
edmund
gaza
organizers
numb
builds
median
proportional
hump
skipped
taxis
manageable
extensions
tyco
admiring
swell
milliken
misses
##cover
refine
refined
passages
palermo
nativity
behead
congressmen
1800
termination
archb
brod
##iddy
eyel
limp
staunch
singh
##ontal
identifiable
researched
responsive
suns
sunburn
irate
sounding
bracket
immoral
horribly
methodologists
specialties
styrofo
##otti
167
geological
forefront
furious
copied
woodland
146
##annie
avoids
shrouded
strait
appearances
tipped
sonny
despise
greenberg
##iker
damning
surrounds
exams
##heiro
angu
angles
bikes
ledford
skyrocket
cathedrals
misery
jesuits
beatrix
frequented
touches
proserity
usefulness
sharon
qualifies
sorrow
tasted
bordered
floral
colonists
frankly
freshman
comparative
fuels
ambiguous
augustus
danny
1946
lifelong
##marking
imperfect
adviser
batteries
berkeley
abandoning
1958
emphasizes
oxford
publishes
forbid
mystic
revolver
appointments
stressful
sponsoring
##friends
arcaded
elaborately
graphs
toxicant
impeached
prohibit
lindsay
lava
rococo
delicacy
fundamentalist
excluding
transmit
##pitel
undertake
indoors
reluctance
precedent
preparations
harshly
compounds
marrying
reproduced
muscat
teddy
shoguns
unexpectedly
commemorates
xvi
##hisatt
promulgate
incomplete
browsing
bulletin
cherpitel
kimono
sustainable
mesopotam
carlson
preacher
cassettes
##break
coincidence
tractor
hungerford
paramount
accelerate
compatibility
upgrade
unavailable
reunion
##logical
oasis
forfeited
cpas
gnp
cliches
syndic
misunderstanding
neighbourhood
luther
##strom
consecutive
overdose
discharge
mediocre
nobility
veronica
gibson
fostered
unscrupulous
amarillo
tabloids
encompasses
plagiar
bullfights
gravity
embroidered
carpenter
scoop
staple
motorcycle
loggia
garrison
croseng
untrue
decadence
briskly
##2001
exorbitant
handicra
sffas
cluny
endowment
nightmares
undisturbed
machinery
bryant
lusitania
trademark
canoeing
lettuce
atrocities
prairie
eclectic
tutankhamun
misguided
fergus
styrofoam
05
82
9th
bse
bould
batch
baking
durbar
elic
emm
etern
eco
horm
ioc
jc
kap
kem
kite
lame
nig
pase
rw
tying
vag
zip
##court
##dles
##iably
##gna
##mal
##witz
##atable
##anity
##anese
ing
inequ
##leboro
reins
ster
whales
##ayment
##olation
##igu
##igated
ants
##imas
##imeter
aloud
shri
shone
shik
shuff
notified
prost
neon
neoc
wein
weep
frug
##erem
chai
##rain
sue
suez
##antes
##abilia
sox
enables
mania
##ivan
##uming
plaint
plots
noh
unor
donkeys
##endum
clad
peach
peek
adhere
upside
timeliness
##ongru
compel
perry
##acked
teatro
ams
amster
imped
implements
expelled
##grily
incongru
intently
##acha
roger
robbed
rochester
herb
herbert
herring
muham
##pton
twe
brighter
booth
coated
coaster
##encer
crone
pref
preten
centres
scor
colomb
poisons
guiding
marion
marily
smi
underwent
undergone
attleboro
fined
##issa
legged
backwater
decree
programmatic
parried
parcel
assimil
joints
##oculars
calligraph
cityel
surcharge
deport
redempt
estates
homeowners
charred
corro
postp
posting
posters
booked
directive
conferees
menor
glimps
interns
##atsu
nighttime
improves
teresa
summaries
waik
centerpiece
calv
storyt
harvey
104
villager
##onto
socialists
breake
authoritative
plead
irres
filipp
blooming
interestingly
##print
labs
##cipher
husky
gears
dominating
float
grands
##bson
doug
achieves
definite
malok
langley
duchy
massage
momentum
motherhood
gallic
bonuses
arrivals
##eteries
savo
averages
conducts
sweater
venom
doubling
diners
philips
crossfire
rebutt
misstate
##axos
##rell
verge
1962
besie
notebook
narrowly
##classes
premiere
folly
searches
borr
doubtfully
texts
repeating
newsweeklies
auguste
##olester
mexicans
thankfully
widest
occupying
bothering
##anche
tapas
1930
rubble
watersports
nursery
stakeholder
hatfield
memorabilia
succeeds
succeeding
wilshire
diversion
801
##heads
overseeing
rhine
rejection
pierced
kennedys
gangs
coordinating
binoculars
scarlet
coda
buffs
omission
reservoir
utilization
stairway
caribs
skewed
sanctuaries
levada
desperation
allegiance
allegorical
##harth
expansive
acknowledges
frustration
resembling
inherited
puppy
dala
bathrooms
ducked
pronounce
narayan
cemeteries
bundles
inapplicable
exporting
bergen
neuharth
carlton
preaching
mistakenly
yankee
colonnade
overcrowding
amenophis
accelerated
##lassical
empowerment
jennifer
cpk
unheard
repayment
chauff
macroeconomic
troopers
kidnapped
haggling
unbear
encompass
earnestly
wyoming
yoritomo
chlorine
landfills
crocodiles
monopolies
balkans
isabella
tintoretto
adriatic
reloaded
preschoolers
##ukkah
ephesus
undesirable
melancholy
scrambled
barbecues
remotely
fcic
hetel
bhairav
odyssey
guinness
turmoil
indispensable
pjff
abilene
paseo
neoclassical
amsterdam
muhammad
pretense
marilyn
waikiki
breakeven
rebuttal
ape
bins
bunt
cbs
cyl
dab
dante
eia
econ
euc
fon
fitted
gou
gory
joking
josh
kame
lays
lama
miy
nails
pads
rica
ucl
von
vos
wired
##hoe
##hardt
##nos
##eel
##gore
##gger
##girl
##kop
##tr
##lie
##lich
##bred
##jc
##11
theolog
##anon
##icular
##omania
reared
##stered
##uters
ons
##idav
##ete
##etz
haut
hamas
##roved
##chamber
##igo
angrily
ald
heming
shim
nept
wee
##illon
seiz
chrys
orph
##antau
exert
knots
##rip
##rier
##istical
##ffen
canon
canadians
allotted
##unting
##ivism
mao
spi
sped
spill
spencer
##iecki
##astics
unaffected
##eming
logo
cla
cloning
agin
perse
teeming
amalgam
welles
exposing
##agar
##formed
carly
carson
grues
overst
interd
fearing
brig
##ipes
##aceut
coloured
##integr
marig
recounted
##onder
##onduct
##accio
smashed
##issos
monsters
programmers
##yslaw
blows
##feit
subte
subclasses
persia
wrought
slid
sliding
empt
##people
##pecif
artworks
handbook
elusive
caen
kindness
valu
endure
drums
publicized
edit
gaudy
seti
redist
enticing
defence
barge
factions
##xtap
skins
trianon
booking
advises
affidav
newslet
guessing
patrons
campo
explores
southeastern
crept
1812
apse
capitalist
steer
choke
152
dealings
##iento
executions
irrad
stepmother
measurable
123
127
modernized
netany
staffers
##holes
screams
116
referenced
referendum
opted
30am
momentary
perfection
initiate
139
expressing
gallons
preferential
juxtap
cardboard
shareholder
embell
stationary
institut
casellas
crochet
webster
radi
observes
letterman
louisian
garn
balloons
titans
utmost
homo
homage
conversely
profitability
microsc
flora
releasing
straightened
praises
doubtful
ambival
pulse
counselors
preclud
lieu
randall
dodgers
##zenji
tunes
tuned
fanatic
announcing
bobby
lengths
imperative
rowlett
deceived
hawks
batu
mouths
mcg
mechanics
bonding
ashes
accidental
specim
foil
##belly
sprung
lords
coaches
accompany
chatting
mahar
tabs
bolts
tailors
reconquest
aeo
hamilton
nao
cheerle
altarpiece
enhancements
musicals
dictated
orchids
simplest
foreclos
motionless
surgical
cummins
cleverly
niches
nicholas
puppets
azur
depths
stalagm
apologized
sweeps
obstruct
kelantan
outraged
aquatic
steamer
worshipping
bhak
wagner
parallels
chopped
vocal
perceive
inconsist
alignment
swayed
ellis
kerr
##rakia
bosnian
rouge
pallad
sidney
pudding
remembr
shahjah
chimps
residual
mitigate
hilton
lynch
sarcophagi
unhealthy
cascade
haunted
daimyo
ovitz
tiberias
indonesian
curtains
plagued
incompetent
miecz
allergic
twenties
rosenberg
valencia
plumbing
filmmakers
evacuated
pissed
insects
nominee
prolonged
arrogant
ipoh
commuter
jahangir
penguin
wendy
toshogu
retrospective
trinfan
remedies
warlords
susceptible
##hameha
fragrant
niaaa
overpayments
diaspora
fundraising
juvenile
stanislas
lieutenant
lousy
stubborn
weisberg
unearth
redemption
corrobor
kamehameha
ucla
netanyahu
shahjahan
mieczyslaw
aure
bair
berry
cen
cakes
csa
dna
dsp
durable
fals
fencing
giles
gabled
gems
gerald
hr
hitt
jig
jais
kota
lid
lah
lola
lenin
m3
mell
mals
mets
nun
nub
oig
pash
panc
pills
raves
sr
sier
tg
vall
vans
waking
##ych
##pace
##overs
##ogram
##cit
##rades
##iose
##gies
##gles
##list
##fied
##jar
##jac
##jima
##qs
##zu
##46
##wau
##wright
##erb
##anum
##assemb
##icter
bee
rey
##utic
stam
stunned
hairc
##olit
##irled
anten
##amation
shuman
noticing
neural
nefert
cone
##ersen
fray
fridays
seize
doe
liver
liff
liable
liby
##rious
abre
##mpanum
soaked
##ellaneous
canoe
##uder
manpower
mankind
arsen
##ciers
unic
unadd
outages
##endra
clog
adobe
justinian
##aha
diab
incoming
##agall
##bleau
carville
interstate
disintegr
##ubon
##pta
lakers
coex
##solete
crust
accr
##loc
guad
margins
marvell
desir
##acom
umeda
moyn
stray
stricter
downturn
blouse
##landa
supporter
##ibi
persisted
wrink
slash
obsolete
showc
discarded
##phones
americas
realization
retro
valuing
drought
drastic
reds
mino
estuary
corb
playful
aval
hardwood
audubon
skating
emig
differential
detour
milwau
curs
distorted
sitter
##entional
tympanum
switzer
weekdays
gloria
churchill
continual
treach
activism
capitalized
sideways
107
listens
youngster
merging
facs
purification
pleaded
questionnaire
shortages
shortfall
blooms
braque
171
ils
##aneum
poorest
##atician
regulating
christened
doorst
doorways
geograph
competitions
##iterate
assistants
grandiose
memo
subjected
##ieth
voiced
purpos
renoir
greenery
spanned
characterize
messiah
principals
cardiov
gardeners
venge
imaginary
doubted
diner
##ercise
disposed
avoidance
##ascular
decorate
piles
liters
literal
narrowed
5000
exercised
premise
northernmost
ethic
weaker
ode
bulb
augustine
starring
picn
220
nodding
flattened
bathe
laughs
commanders
chapelle
ironically
inquiring
forgetting
quantifiable
advisor
1935
galerie
aiming
robin
maximizing
falwell
ashore
bodhisatt
belongings
torre
torches
absorption
nicole
stupas
resolving
scandalous
sabbath
##itano
auditorium
ventures
streamlining
attribute
desktop
improperly
utilize
utilizing
levy
anthem
faaade
1895
simplified
feminism
jazzercise
disgusted
mathematician
commodore
flawless
gestures
jeffrey
wicker
punched
dyes
commemorating
wrestlers
caesare
insurrection
hanukkah
nonexistent
anchored
contemplate
1492
ravines
somalia
robbery
alpha
conveyed
burdensome
oscars
tamil
witches
intoxication
##ukuji
gonz
##eanor
pouring
miscellaneous
cliche
inscription
sepulchre
refreshments
resignation
marxist
endeavor
pharmaceut
jodie
chancell
indonesia
perugino
incompetence
jagged
##ephren
titanic
frenzy
fiancee
hakone
seminar
ounce
fronts
squirrels
tattoo
hercules
epitom
bubble
cognitive
koran
algeria
maurice
sausage
waverley
turbulent
signposted
armenian
spreadsheet
fontainebleau
bipartisan
friezes
masculine
infertile
gadget
gospel
intolerable
revaluation
misleading
genocide
baskets
counsels
econometric
neptune
dspb
jaisal
sierra
liffey
unaddressed
milwaukee
switzerland
cardiovascular
ces
cinder
d9
dau
fero
foul
fannie
gert
gull
jen
kastro
latt
lido
lantau
mish
nero
naxos
og
pi
pint
rah
upp
wires
wisely
yu
##pal
##oos
##hel
##hpur
##norm
##notes
##rown
##ihan
##eux
##gals
##kaw
##tans
##mia
##vid
##bons
##jur
##55
##zena
thail
thera
##atre
##atop
##atural
##ouk
##anse
##aney
toe
inad
##rec
andersen
##asos
##isle
ist
reeng
reyn
rewr
reuters
##owiecki
youells
##idal
##idth
##lyss
sticking
stagg
##chem
##olson
##ceived
##irlanda
##imo
##amud
alz
heating
hefty
heinous
shant
shud
##estones
##illity
deir
decipher
chores
cholester
chagall
gogh
orb
##ppe
butcher
##cken
##abs
abound
##alla
##unct
##ivoc
spoon
##quoise
unacc
unqualified
sapp
donna
##endo
loom
tramp
##isha
##ccan
perkins
##ineering
amos
amber
impover
imposes
thinkin
expanse
##grams
quench
contends
repos
robe
herron
disband
twists
brune
bois
parted
precon
scree
##akian
guam
guise
gugg
marais
recons
smog
smelled
##ordinate
relat
relocation
stride
parano
informational
##athetic
##ibles
surowiecki
basque
##osses
discreet
worldly
moderates
endured
drowning
miner
revis
numer
demise
corre
believable
avignon
humming
detract
distillery
graced
grape
turnar
2009
waterways
analog
protein
protagon
campuses
raikes
##ecanese
internally
palheiro
critically
waiter
understandably
paving
freeway
10th
sawyer
judah
facet
##brid
##brows
descending
##retched
essex
armored
immature
specialize
specializing
##owski
imit
mattered
paints
footing
snacks
##roportion
personalities
##chief
deviation
livingston
multim
multicultural
117
commonplace
##umbria
royko
norms
honoring
eventual
straits
banning
manufactures
acquitted
savvy
priorit
sweats
adjudic
seasoning
crooked
crooks
##rode
rapists
fieldwork
midway
scramble
mortal
investigative
disproportion
flynt
hostilities
verified
buddy
1961
distributing
swimmers
##ggio
festivities
sharm
##cls
quarterly
petite
petty
angelico
willingly
inspires
textbook
loser
losers
guardians
precar
suspension
psyche
psychologist
fascination
tribune
dodecanese
wedlock
melting
steward
unpaid
montg
weighted
ghirlanda
virtu
blocking
inquire
illustrating
quantities
advisable
1939
rubbing
galax
pm10
sexuality
reputable
clinicians
tenths
pillow
moonlight
intellectually
mutually
fortresses
compensated
sultanate
exclusion
steeple
dominance
divorces
1914
kilgore
tightened
subtly
chateaux
prevailing
gracefully
densities
sumatra
froze
pitiful
embraces
dreamed
rodrig
impressionist
cracking
reactionary
rosy
barefoot
stevens
crawled
lsn
reigning
spoil
prolific
boosting
muddy
instincts
buttermere
dyck
zealots
boldly
bitterly
tranquillity
passe
bergman
neuf
enlisted
diminish
diminishing
reckon
ingredient
swamps
rothschild
terminus
harvesting
perpetual
indulge
synthetic
quotations
slick
anthropologists
colourful
embassies
soder
enchanting
scrubber
mascot
disparity
paralegals
antiquity
gilbert
nasser
airplanes
rhythms
mammoth
haunting
overthrown
unforget
takayama
boasting
fostering
fitzs
theodore
issuance
chandel
succumb
seminars
izmir
##ramatic
pragmatic
crammed
chowk
brochure
shalit
liveliest
replenishment
obliv
brahman
immortal
metaphys
miniskirts
morbidity
inconvenient
pebbles
meticulous
metabolife
##information
footpaths
fuzzy
hinges
carnegie
nicaragua
rousseau
dilemma
bandwidth
hinterland
wacky
haussmann
unattract
sublime
archbishop
mesopotamia
ferguson
besieged
mcgwire
aeo2001
stalagmites
tgv
marvellous
moynihan
minoans
geographically
cinderella
thailand
staggered
cholesterol
impoverished
brunei
guggenheim
ghirlandaio
06
7th
ace
aus
bc
cages
dll
egal
eerie
fod
fug
fuck
fumes
giac
ganesh
ix
ket
len
lore
lope
mourn
nast
nueva
soutine
tamp
wist
wiz
witt
##dar
##iour
##gain
##gio
##tel
##test
##tapur
##mu
##mig
##uro
##losed
##vara
##sky
##fi
##ju
##jas
thwart
thasos
##orose
##alus
##itud
##isation
##isner
##leth
##entials
##elia
##elago
##ilation
beque
##otations
##otting
iso
reex
##stant
##staking
##owered
##veau
stink
whims
##amy
##amiento
shap
shark
notch
nea
frantic
deccan
chania
exiled
##river
worms
##osseum
enters
##uma
##umbs
spatial
##auer
unass
unto
saff
donat
pew
adject
timeline
##ahs
tails
geth
didion
ames
impot
diaries
disrep
disinter
##ubstant
bru
bride
coherent
##ipelago
##wned
1900s
##owness
partake
crescent
##asser
induce
colum
colmar
colosseum
##angor
recapt
##acs
##acteria
underestimated
##ometry
finland
thress
monitors
invitations
decap
traps
trailing
##iality
provoked
bladed
##athos
##ermouth
suppression
fla
fluff
##ibald
idle
##orns
surrog
##peutic
elites
elche
discon
placement
modes
drudge
popping
popped
reviving
prix
soufri
##icients
##xton
booklet
emit
complement
milestones
cured
autop
markers
formats
watchful
serial
designate
graham
museu
headache
walcott
hottest
patiently
##oyed
presidentas
proto
whitebelly
explode
cretans
classrooms
infancy
inflicted
archipelago
calam
paella
generalization
broder
harrison
blackened
limb
limbs
figur
maggi
identities
envious
##istery
suggestive
flocked
##eseen
sniff
sorted
objected
objectivity
##awed
beginners
devout
expectancy
intervals
obsess
saintes
malamud
murcia
303
negara
painstaking
duch
strapped
fireplace
despised
decidedly
specificity
battling
sandal
broadband
##zzi
sweating
sleek
denials
denounced
##ointed
##neys
##income
pleasurable
sadness
wealthiest
multiplied
marta
urging
##untamiento
springer
candidacy
tasteless
weakening
safari
brotherhood
etiqu
telecom
ambience
lunchtime
unsupp
bombings
sticky
criticize
conception
rosewind
1943
semantic
depictions
faithfully
##craper
freedoms
dismal
subsidize
attendees
protesting
understate
nymp
athen
transforming
##headed
dustin
supervised
702
exposures
revolts
##uffs
excessively
migrated
scarcely
codification
skiathos
ottomans
##biased
taboo
uniformly
krishna
pitfalls
facilitated
paired
360
heightened
jointly
cockermouth
prescriptions
benchmarking
nonfiction
shaved
delicately
solicit
selangor
plaques
unfairly
enactment
lifestyles
prototyping
provinces
dalmat
quarterbacks
greetings
enthusiastically
miracles
quintiles
rivas
brutality
pumps
pitti
340
tacky
shivaji
##ranos
satellites
msnbc
stallion
punches
hectare
lisa
incorrectly
queer
ancestral
browsers
skulls
baptistery
1793
buttons
mummy
adapting
nutrition
ellen
tidy
lectures
catastrophe
albanian
stereo
whiteness
whitney
scratching
prescribe
accusation
dwp
skyscraper
aristocrats
anthropology
fasb
swedish
applauded
epidemi
uninhab
rehabilit
discharged
contributor
sullivan
disguised
conceded
endeavors
repetitive
horrific
errone
kazin
unrealistic
stereotype
stereotypes
rejoined
ayuntamiento
zionism
apostles
embroidery
rajputs
wachter
phillips
awakening
hannah
pragmat
cohort
embargo
fertilizer
entrepreneurial
outsiders
expatriate
coefficients
cavalry
oyster
autobiography
inquisition
tissue
wheelchair
jolanta
humiliation
cabaret
pdfa
emblem
grievances
centrally
acoustics
menhirs
arbitrary
nouveau
jewellery
bromide
funerary
misman
indefinitely
ailments
incongruous
calligraphy
chauffeur
bhaktapur
palladio
remembrance
cenot
jaisalmer
dauph
therapeutic
reynolds
unattractive
fodder
disrepair
soufriyre
maggiore
4th
812
a2
aur
aix
bb
berman
bounced
binge
cec
dashed
dnc
eid
gior
gerry
ginger
gittin
kom
lund
lending
longh
mour
mph
motto
nm
nol
oss
pian
ration
rive
sats
tah
tester
uff
ulyss
vogue
vistas
wyn
##cur
##caster
##cule
##hon
##hot
##haye
##ears
##gans
##kt
##lest
##lide
##but
##bally
##fus
##figer
##jour
##zek
##wald
thump
##esco
##enhaus
##ouces
##itory
##isite
##omatop
reimb
##stop
##starch
##veigh
onomatop
sting
stau
stove
hag
havel
fork
##irling
anson
hei
hears
withheld
prostitution
neolithic
concier
##ersion
dex
degr
suites
sucks
orih
lib
exod
knitting
knosses
lexic
leaped
##ighted
##unts
prick
sperm
plut
arid
unite
unix
unres
unrem
unification
outage
saver
saxton
loot
clive
clans
clift
clones
pears
timothy
agn
##izi
pervas
shear
repression
carlo
gren
interl
##ittal
brist
brushed
##ipher
bucket
cron
scoot
##akov
##akuji
##locked
colder
afar
marley
unden
undeveloped
attic
##ords
##lected
invoke
##icken
programmed
stricken
parked
parlor
toobin
downright
remake
costumed
##othe
##avis
evokes
flies
floppy
##ocl
subpo
subclass
emph
viscus
handover
entail
delle
delights
defensible
chariot
bark
effected
posture
distort
##ceptions
histories
seren
affir
keepers
funicular
cheering
runnin
2008
statesman
confine
pataki
exclamation
glouces
terminated
treason
##lemente
##perfect
listings
singular
1500s
totals
futur
researcher
##shaw
##shev
##venth
iras
##rett
bites
imminent
antoin
educating
floated
euros
turb
summerhaye
grandpa
inflated
protector
snorted
eleventh
louder
copp
appropriateness
julie
juliet
unfold
duel
##gne
erisa
136
1300
firearm
firebrand
catfish
savage
engineered
cornell
cornstarch
anglic
conductor
biographer
parisians
crosethe
evaluates
climbers
##obia
threatens
battlefield
rebirth
starved
ibn
mixte
restricting
vacant
augmented
briefing
briefings
hospitality
texture
ambush
cooled
unsafe
behavioral
dramas
picardy
hellen
dependency
carts
consultation
academics
bounded
1924
batman
robber
mechanic
dismounted
brady
conquering
1957
torah
grizz
##heimer
baffled
conveniently
rejecting
dimension
acidic
compensate
sprang
230
breeds
ecology
veneto
bolshev
enormously
handedly
superbly
tricky
gopur
cancellation
recruited
enhancement
dunn
racquet
ascert
ponta
lucy
platforms
juror
crashes
unreli
rosa
vincent
conjured
wolff
yielding
dalai
stimulation
stimulate
reproductions
princesses
evolve
ribs
papal
papacy
papyrus
adaptations
distraction
scouting
puzzles
vicente
1889
wireless
speculate
kilometer
sikh
dignified
wandered
expedition
expeditions
jetty
##epsut
restraint
restraining
smoker
1789
murmur
massacres
unlucky
hauled
replicas
hatsh
fiery
caravan
flanking
chewing
annoyance
revelations
rifles
##breaking
umbria
iconocl
lc50
hustle
interpreting
prevalence
plasterwork
gonzo
forfeiture
scrubbers
kinabal
imprisonment
misunderstand
bourgeoisie
mussels
overrun
refreshment
overthrow
sketches
martyrdom
devotion
pietro
hilfiger
perugia
embodies
sevila
siblings
chalk
sopranos
fancied
twentieth
ounces
foothills
tumult
vesuv
undergraduate
glossary
diclemente
semitism
enlarged
symmetry
locomotive
exchanges
unveiled
kagoshima
jockey
inaccess
ribeira
guerrilla
##oriented
blockbuster
astrology
gladiators
kebap
trenches
disdain
superficial
croatia
hesitant
velvet
asymmetrical
moderately
tweak
glimpses
savoie
hemingway
gruesome
coexist
guadal
alzheimer
unforgettable
giacomet
donatello
cenotaph
uffizi
ulysses
reimburs
orihuela
viscusi
gloucester
antoinette
kinabalu
bess
bish
bake
bhar
ci
cb
ding
eust
fused
hul
hod
ji
kon
kad
kand
kits
kib
kwan
mam
noses
oo
pb
pfe
pinto
tou
tion
tides
touted
vas
wry
yupp
##pert
##pract
##pipes
##cult
##hart
##dered
##rera
##tower
##mills
##bro
##birds
##31
##fires
##fax
##16
theres
##atap
##athing
##orium
insec
##omely
##omics
##elly
##elstein
bees
ise
receptive
forts
##role
##rock
##seman
##iris
##irting
anj
anom
##imilar
##adors
hew
shades
shells
shaping
notwith
neil
##ereal
debr
deaf
dehyd
charts
chilling
##opatra
##rawn
supr
##antics
##antaged
##oding
knot
##ppings
##abad
abnorm
leaking
wors
canv
enroll
##iview
##umann
##umsy
maver
mahab
pluck
hissed
##ciano
unad
unquest
unbiased
outfl
##endent
##embourg
lovel
loec
loading
lojack
looms
clas
clumsy
truman
##ishable
usable
agon
agaa
agatha
compose
##ahon
residing
##agin
##agio
##agency
gramm
overl
disbel
##ptic
##eryl
appalling
bras
brides
boone
boaz
cozy
crist
crises
accuses
commute
commenced
vehe
poetic
##angs
marin
marse
##acoteca
polishing
leger
deciview
relinqu
syrian
strides
joao
##lesia
specials
blunt
blaming
helpless
suppressed
flam
legality
empress
prodig
##ologna
discourse
##phal
instability
redef
minus
entails
delaware
revamped
restor
farthest
sincer
performer
cleopatra
funders
humane
humorous
skus
nationalities
aired
extinction
heady
typh
wales
confisc
accountant
mailstream
musings
glancing
glazed
southwestern
morale
salem
salads
waivers
paolo
involunt
##arkable
villains
merci
computing
hopkins
wallpaper
courtesy
sunb
ird
descriptive
filthy
armey
braun
##bois
agreeable
accessories
specifics
competency
typing
turrets
##ropolis
rivera
beginnings
copying
malt
malpract
112
circulated
##ographies
tablecl
142
deadlines
unfiled
negatives
applicability
trusting
junct
expressly
creators
strives
secretive
cookie
wordperfect
##zzo
angered
impressions
medicinal
seasoned
bien
denom
##system
fixes
learns
philae
mandar
brownell
urb
battlements
misuse
dispersed
beatles
conservatism
1963
starter
graduation
southerners
homic
sacr
captivity
ombo
eyebrows
shoved
weakened
##world
sampled
forgiven
piccad
births
criticisms
groaned
1949
1942
mirr
bathed
fanat
lifers
commands
sammy
ghuri
amazingly
magnificently
mcd
mcint
robots
fooling
toronto
osiris
nominating
oversees
overseers
rhinos
rhym
dimensional
forbade
sophie
testimonies
1912
dissu
dissimilar
whiskey
pondering
buffer
kathy
nova
locker
tropic
ethnicity
vitality
cypr
nepalese
disciplines
disciplinary
1897
vulnerability
padding
pinacoteca
ascended
astronomy
spagh
refugee
embarrassment
distinguishes
catering
##scribed
lyd
crawling
decentral
rotund
fulfilling
injected
leaflet
triumphant
wicklow
dwellers
##immons
argentine
bangl
gerb
ancestry
hanuman
regretted
clutch
clutching
synagogues
theorists
buttoned
disadvantages
genoese
##semble
wrecked
societal
dialects
hedge
penetrate
enforcing
dreadful
voucher
palladian
tulare
endanger
insulted
nightclub
sparkling
perfume
undermined
bookstores
invaluable
fiduci
farewell
corso
impairment
nicknamed
neighbouring
##stroms
blazing
kinship
infinitely
blossoms
ajanta
issuers
##building
confronting
slabs
landfill
jealousy
foothold
hollings
bowsher
sensuality
stylized
maharaja
softer
##elleschi
newcomers
eugene
discontin
discrepancies
cambodia
bewild
covenant
supermarket
monsoon
uninsured
gregory
bmw
benedictine
underscore
prefecture
caldera
negligible
daggers
##ogeneous
mormon
goofy
maneuver
pineapple
ruskin
concessions
acclim
recurring
unprepared
overshadowed
overhaul
evictions
staggering
alligator
mcmahon
netherlands
beheaded
elicited
vosges
doorstep
vengeance
ferocious
inadvert
montgom
lsnj
gethseman
erroneous
unresolved
unremarkable
pervasive
vesuvius
notwithstanding
debris
disbelief
vehement
malpractice
piccadilly
gethsemane
1st
7pm
8a
9x
a1
aub
banners
cic
dach
ety
fus
fos
fiss
fath
fury
foll
hick
hare
hons
ipo
jub
kok
kiy
loll
lloyd
mite
mante
nra
nih
ore
pains
punt
pyre
ramble
siber
tat
tins
tara
tainted
vat
ved
vases
vista
wes
wals
wiel
wann
woo
wadi
zones
##ykt
##yfus
##cro
##cies
##nox
##nstroms
##rans
##eaux
##gings
##kk
##km
##tler
##lit
##vous
##journ
##zter
##winian
##19
##atri
##esia
##oux
##ndon
##anza
##alore
##aloes
##aras
inlet
##associ
##iser
beam
ish
##idy
##idou
##eta
stardom
whitt
forens
##ayun
##ayette
##chup
wasting
##oled
##olph
##imile
##imeters
##amachi
ascent
hein
shaky
neap
##estrian
##estimate
conner
congreg
frown
frying
atatur
deft
deval
chit
chenna
ori
exac
exley
##usions
aback
##ellin
##ostic
meats
maids
splin
arles
unob
unhar
unarmed
outward
outta
outpatient
wills
cloned
clinging
##okko
##ongated
usda
##izen
perd
##orman
amort
fakes
dior
incidences
##agna
contested
intu
carb
caric
carve
caret
carrey
interred
herds
disem
##ptus
##ptych
tweed
apprent
booster
cob
scape
scalia
##ondo
##aca
beta
mocking
monroe
trait
parry
speck
##onson
beforehand
addit
warmed
slang
obedi
obnox
##orne
cityhall
payers
causal
##uga
retra
editions
gaap
redo
##ribution
earners
entren
insure
revive
restless
simulate
playwright
hume
audible
differentiate
detained
milestone
cursed
signaled
##inski
taxing
##plate
##teness
##azi
##azar
tyler
tyrant
probation
##cock
testifying
pretentious
##riced
porta
stucco
equestrian
stature
##ankind
authored
tremb
salle
drained
currents
stopover
blackmail
choic
merge
facets
fuller
##shund
eszter
hooks
shortest
illus
accessing
##upi
eastwood
modernize
##apsed
sentiments
inflows
##ynski
fightin
constructing
wrongly
multira
114
circled
militant
honors
viral
influencing
initiating
134
fireworks
deepest
packers
packets
packaging
corniche
coldly
commercially
dorothy
sleaz
casually
macho
extremists
heavier
hygi
midland
garm
gatehouse
rainfor
permissible
submer
splashed
camx
starvation
astounding
captures
complac
expands
hangover
coffin
kidney
ult
applause
bordeaux
peters
praising
cheaply
bulld
altars
troph
holyhead
burner
2011
221
luxembourg
grose
derives
cartmel
confirming
illustrative
licensing
bougain
deceive
outcry
olathe
approximate
robi
memorand
memorials
##ariat
conquests
bodily
publisher
grized
absorbing
advancement
athe
penney
atlas
wingers
visionary
plato
mutiny
exploratory
##alyptus
sophom
implication
trucking
temperament
jails
accommodated
clarence
sacrificing
powerscourt
buffaloes
darwinian
ominous
omaha
4000
ceracz
skew
skelet
deems
corpse
gopnik
traumatic
levitt
ainu
hesitation
padua
dreyfus
wheeler
cantal
compromised
consolidate
foreclosed
pizzas
myths
hammers
felony
dealership
1904
oakland
nicholson
arresting
azale
accumulating
commodities
unnecessarily
ribbon
pronoun
pronunciation
excavation
yachting
therapist
fleeting
diplomats
persuasive
molten
commemorated
bangalore
phenomen
caddes
reassert
populism
horizontal
wiser
cosmetic
survivor
saladin
conquerors
culpr
stitches
jaws
##racies
716
pavilions
dividend
hippie
##bursements
overturned
practitioner
ponte
sprawl
upgraded
invalides
jarrah
lovingly
1453
contradictions
fluctuate
stacked
thernstroms
petitioned
cascades
lunatic
miata
pisa
pompidou
maidan
thriller
concede
benedykt
imbal
hardships
gazu
cultivated
coleman
erratic
concurrent
reinforced
carpenters
wachtler
contaminated
awakened
iglesia
crocodile
tattoos
passwords
brochures
newcomer
aarp
aaron
kudupi
mazda
outsourced
fidelity
almonds
ravenna
suspenseful
moulin
patrician
encryption
lauded
tartan
brunelleschi
pamph
caverns
portfolio
acquaintance
sulph
hapsburg
aspirations
##kshire
prostitutes
subscription
tenements
aryans
impatient
enraged
infirmary
bungal
shabby
slippery
eucalyptus
##girls
garnier
unearthed
abreast
facsimile
picnics
fitzsimmons
shapiro
decapitated
painstakingly
unsupported
aurang
nmcc
nolan
dexter
anglican
hellenistic
unreliable
hatshepsut
inaccessible
rotunda
dachshund
etym
honshu
mantegna
walsh
ataturk
exacerb
unharmed
entrenched
eszterhas
grizedale
6a
bing
bose
bowness
bologna
dand
dice
dord
dives
dime
fink
fib
gion
gir
gass
gilt
hord
hmm
homb
jars
ked
kof
kha
kicking
lur
latch
lenn
mp
mend
momm
mitz
nil
nord
nca
ole
piety
sind
siding
tem
tether
ugl
vowed
wong
wak
yarn
yasser
zig
zap
##poon
##oven
##cour
##hole
##dlers
##run
##eon
##gis
##uy
##ueless
##lan
##lene
##sas
##bis
##bind
##35
##fork
##fair
##watch
thund
thief
##org
##arming
inert
inpatient
##omi
##elos
recept
##owitz
##vet
##etes
stacks
stumbling
whim
##uras
##urry
##ayana
##chen
##chur
##chins
##olin
anach
anonym
anarchy
alm
alibi
##think
hem
heel
heian
shaken
##ulu
probe
##essing
chol
chern
chimp
chilly
knum
##andi
##andra
##ustion
##abra
##about
socks
##ffle
allah
##uding
manor
manzan
##umi
maury
spins
unri
unpar
outing
sacked
sauna
##ende
clueless
##oky
upbr
upstate
##hern
##izu
tearing
teasing
amass
amends
exposes
quota
##agena
##icho
contention
carc
grudge
overboard
intert
interm
intercourse
roaming
disres
feats
booths
##ipse
partying
whichever
crad
scant
inde
accom
vex
poop
##ogany
gupta
betsy
smir
finals
invasions
relic
syd
parnell
downpl
remorse
blum
blouses
greatness
schm
busing
busily
ida
subgroup
warlocks
houseboats
sloping
##peak
payable
ellor
elongated
realised
realistically
retiring
edu
gazed
gazing
redund
redgra
rediscovered
delinqu
rupert
strewn
restart
priors
simmons
barc
barque
##conomic
believers
completeness
detected
technicians
distances
distrust
distaste
signoria
businesslike
gravy
##azquez
chev
benefiting
daunting
##oya
menacing
rake
raiding
palt
equitable
opposes
oppressive
treks
salinity
waits
caliber
apologies
draped
brokers
analysed
##lius
greider
grecian
volta
105
limous
winston
representations
mounts
futures
authorizes
sunk
sunbat
executing
##risty
blob
solitary
crabs
cracks
crags
burke
accords
1600
##ennes
##ennial
turquoise
grounded
huns
foref
castilian
111
replies
checkbook
bedsp
bedouin
romana
connois
sexism
democracies
fairfax
dueling
juno
junky
massively
strained
tipper
reformers
132
emerges
prepayment
expressways
customary
articulate
naturalization
messing
stocked
combustion
sandals
averaged
maternal
narratives
variously
imagery
imagining
bayeux
rounds
climbs
doubles
commenting
##obic
extrap
marty
gateways
url
mastery
clothed
##banks
verand
graders
prospered
sacristy
astute
hangs
environmentalists
eyeballs
qualification
rollers
florid
ethiop
petrole
clockwise
weaken
introduces
comparatively
transporting
trois
unspecif
guarding
predictably
2016
2017
cynics
randi
##risk
slightest
golfing
225
novelty
width
conflicted
fearless
tonic
samoth
logically
logistical
cartagena
horseshoe
nurseries
punishments
1953
1959
1951
grie
osman
synony
hideous
converts
pedoph
smithy
reminders
rumble
foe
platoon
fueled
confidently
contrasting
bearings
updates
updike
bleach
pushes
scarred
coding
breeders
buffet
assassins
mahogany
pitching
bolster
worshiped
uniformed
tuesdays
statistically
##horetz
facilitating
huddled
unwel
rivalries
franks
snapping
akko
rationalize
dreary
owl
smoothed
hugely
hugging
spirituality
motioned
equivalents
experimented
lodging
bicycles
inefficiency
felic
summarize
lionel
inherently
retreats
monsanto
muncaster
extraordinarily
preceded
sequel
assigning
miraculously
orthodoxy
bibli
abbot
faintly
hectic
contestants
pearls
institutionalize
betrayal
unimagin
barbarian
tossing
baptism
##from
hyde
feasibility
dumped
spokeswoman
9000
neuro
expedited
triangulation
comedian
perplex
rudy
contemplation
contemplating
parcells
stitching
wrecks
herodian
troublesome
discriminating
chewed
lavishly
rothko
pornographic
lipstick
courageous
celest
taman
tulun
plunging
sneak
sparse
incumbents
quotation
jargon
wigand
velazquez
attainment
binding
disparate
barrens
mounds
dissemination
antiquities
itineraries
kefir
durham
clusters
sketch
vestig
cultivate
kidnapping
kazan
marathon
jainism
jaume
resurrection
presorting
censure
convictions
congratulated
keynesian
allergies
contamination
lacquer
hankinson
unabashed
perilous
subdued
madrasa
fervent
lilies
crippled
podhoretz
reruns
abolish
outsider
firefighters
videotape
leopards
outsourcing
gondola
exuberance
queried
attentive
excerpts
necklace
hamburgers
transponder
proprietary
pavement
coordinator
bracero
carthaginians
handwritten
ushered
sylph
encircled
sporades
synergies
misdeeds
lancaster
funniest
uncontroll
schwarzene
unorthodox
irresist
##kopf
seizure
carlyle
foreclosure
nefertari
libya
unicorn
avalon
caesarea
chancellor
jenkins
##juraho
disbanded
turnaround
ketchup
lopez
saffron
pewter
uninhabited
exodus
racquetball
pfeiffer
canvases
mandarin
spaghetti
fiduciary
chitwan
caddesi
sulphur
dordogne
upbringing
disrespect
ellora
redgrave
sunbathing
bedspread
connoisse
petroleum
unspecified
9am
bans
bening
bitty
cact
cumbria
ccls
dine
fd
fiesta
fpas
gim
gong
gown
kah
kamp
kitten
kett
lille
leland
mits
nd
naut
oeu
pens
pug
puck
pinsky
riber
sids
szary
tm
tending
tumble
vino
wade
wits
woes
za
zer
##yg
##casts
##hoff
##nath
##gre
##got
##gam
##gang
##merc
##uine
##lery
##free
##jid
##zia
##zac
##zko
##erog
##eracy
##atories
##eded
tox
##aris
##ario
##enter
beet
##otion
##otry
##owl
##oway
onion
onward
##idly
##idos
##etected
stout
stumble
##roix
##igl
##igue
ana
shir
shill
shimb
withstand
converse
seism
chore
chek
chino
##opo
##opping
doges
goers
goog
##rile
##istak
##abil
abide
soared
lep
##ghada
canary
canche
enrolled
manchur
##umen
mazar
prerog
spies
spurred
##apidated
unesco
sacks
dont
locks
clare
clipp
pelee
adorable
adept
trams
myc
##ishly
usc
composing
resided
resides
perak
expensed
##grown
##grunt
quitting
intersect
dising
disgrunt
##pted
twain
##berger
bram
bobb
boiling
coy
cox
preached
scrapped
scopus
##loo
cola
colin
collin
needn
gujar
marc
desolate
deserving
undisp
undetected
##ondition
smokes
evenly
undercut
undercover
attaining
##ianino
moot
monog
backbone
relayed
tracy
parach
parmig
secre
presided
bled
bliss
schor
suppress
##atingly
idol
wrang
warring
slav
slashed
slacks
slapped
showers
showroom
handel
phd
phall
kinder
locke
edgy
minn
ministers
pops
insol
insider
insiders
defund
revising
readings
simps
seeming
barons
medina
props
humayun
humankind
engulf
sku
triptych
detach
develops
distortion
controllers
airsp
##plice
watered
analogy
##gression
glaring
electorate
annals
shopkeepers
20s
infrequ
marketed
salz
salted
currencies
pasture
generalize
harper
103
109
108
blackpool
foodst
magdal
socialize
awaken
brea
bret
sunni
shortened
bloated
1700
burlington
killers
girlfriends
modernist
antagon
moms
imitation
destiny
162
squid
rockets
friendliness
granting
casts
castillo
hearth
multic
multitude
heartland
madison
##borough
301
connery
hurghada
jericho
trusts
motel
gallant
principally
stocking
broadcasts
averaging
latino
davids
maternity
indicative
dori
croaker
##ooning
farmhouse
venerated
denby
##incourt
cruising
midi
garuda
mastercard
guideline
dispens
403
tome
chaired
layoffs
gloom
distributes
murderous
inventor
prawn
##rofits
textbooks
##ethical
pulau
pulitzer
unsur
unsatis
counselor
earnhardt
africans
islamist
gatherings
defeats
familiarity
gladly
blockade
rowing
##iyama
1933
academia
coalitions
meatballs
concluding
mcveigh
ratios
bradshaw
subsidizing
escaping
masked
masjid
resisting
upsetting
scotch
foolproof
torii
witnessing
nomadic
cereal
motivate
cupola
baux
peddlers
foals
##ylmerc
idealistic
##friars
dissolution
volcanoes
corrupted
dolom
thinner
##metics
nonprofits
wetlands
kosovars
reneg
withdrawn
habitats
1898
malayan
dilapidated
ascetic
dictate
dictates
encounters
victimized
portraying
compromises
cosmetics
enclaves
1905
1907
patronage
lsu
superiority
##alleled
marvels
gestured
brutally
tedious
obstacle
coronation
flashes
withdrawals
creep
abbaye
promenades
goddesses
extravagance
cadill
gleam
greyfriars
speculators
reassured
astonished
dentists
alterman
##bellows
brewing
condemning
dumping
diagnosed
paso
collapses
mumbled
insistence
merchandising
rooting
mtv
1845
disadvantaged
simultaneous
manipulation
unlaw
loopholes
diminished
vieille
chartres
cassidy
ricard
dividing
uncover
eruptions
intrins
lorenz
albany
plunge
scratched
hustling
slaughtering
bookstaver
confederacy
upgrading
needlepoint
acrosea
delegating
imaginable
mintie
contradictory
strawberry
remnant
piping
pisano
unmistak
overruns
strolled
mantle
##storms
predominant
reeves
trooper
fitzg
inaccur
fowl
pioneered
nebbishes
bullfight
composer
psychiatric
stabilize
yorkshire
slapstick
deployment
constituents
staples
pkk
melodramatic
carelessly
herculaneum
coefficient
kasich
shivered
disregard
flamingo
thirsty
semitic
sleeve
necklaces
hamburger
ingenious
madeiran
nerds
shoddy
marauders
caliph
mameluke
franaois
talmud
cocktail
luggage
comforts
boycott
ibicenco
plummeted
nikko
methylmerc
proponents
precincts
abbreviated
congested
paraphern
cappella
dictatorship
rallied
vittorio
smeared
derivative
lesbian
handicrafts
hormones
misstatements
affidavit
newsletter
inconsistencies
cursing
gadgets
rahman
numerical
correggio
rodriguez
bequeathed
sandalwood
bbq
giacometti
jiang
marseilles
bangladesh
wielder
forensic
scapego
obnoxious
phenomenal
ncaa
cholera
unparalleled
accomplice
sydney
voltaire
oeuvre
shimbun
clippings
disgruntled
undisputed
parmigianino
simpsons
airspace
methylmercury
paraphernalia
03
ave
bail
bourn
bisc
bubb
cpa
czes
dl
dour
dung
dunk
eaves
egu
eros
foes
gam
gits
groom
guts
hound
iwas
kip
kwh
kai
lri
lard
lash
lank
laps
mog
merm
oates
pem
pous
pater
piled
pne
pino
pimas
rans
ripe
sistine
siesta
tp
tian
tug
uda
vap
vows
##yu
##dress
##daughter
##rom
##rently
##eers
##kim
##mies
##melon
##long
##laim
##laught
##vine
##ben
##bus
##bos
##bble
##blic
##bourn
##39
##fold
##fels
##frey
##je
##zio
##zhen
##wined
theology
theban
##inha
##atious
##eson
##enza
##educ
##ouver
##anz
##aning
##anos
##anational
##itiveness
##eles
beads
rex
reapp
reinc
##stay
ong
stero
staging
wast
wastes
##igree
anas
##imson
alison
##thex
heater
heaps
shave
##uli
withstood
neal
neur
necks
negev
##mentioned
frowning
deeds
chel
chests
chenon
doj
doom
dooms
comical
comrades
##odle
##odend
##odils
knitted
kneeling
butch
##riend
byron
##ands
##andie
##andering
yemen
##aba
##abaugh
##orem
##osterous
leant
leuch
worm
mement
##ffe
##ffodils
cana
enum
##unted
manic
##ivided
##umonia
##arton
mack
pry
spitting
plaz
plush
arbois
##auch
##quets
##astever
unle
unmet
outbreak
sagar
##emis
##emouth
willow
adoration
trink
trillion
trastever
uphe
upriver
mys
agora
compuls
resented
peripher
amm
imprint
expon
##ountable
newborn
inco
quays
quilts
repulse
reprint
intra
overval
overrated
overfl
fec
feign
##bergh
brent
boeing
actresses
crump
crimson
scru
scoring
scares
induced
accents
commens
poised
##ogen
mario
mayors
smug
underdog
attained
finer
decency
longtime
longabaugh
parv
parose
paraly
informally
assists
downfall
highbrow
regrets
presume
provoke
provocative
bls
##athlon
keats
supposition
acad
reportage
idpa
meanings
slots
emporium
obese
differed
##cedes
##pez
payback
elit
elli
caus
module
moderation
retake
vale
seth
esth
estr
esther
ruining
defying
homemade
farce
demeanor
barker
humility
##earing
skidd
emulate
detention
##bein
grazing
grabbing
##azard
cheung
##entionally
commune
waterloo
watermelon
tyr
walnuts
swam
swings
swelling
configured
daffodils
##alez
testoster
excru
annuity
palmer
continuation
oppressed
topk
terminate
receivable
policing
archety
salinger
##versely
clearer
johns
lowincome
departing
106
reasoned
millionaires
figs
irving
soundly
hoard
hoops
britons
brav
1715
craz
amounted
silks
124
1200
moma
printers
domest
domingo
typed
##zeb
squab
frenchman
##swald
grandest
grandma
totaling
closeout
##yne
foreground
castration
furiously
historique
##liners
woodwork
144
147
sociologists
sociologist
variance
##otsky
normandie
unfl
sexes
painless
shrunk
uncritical
manuals
eradic
renown
preposterous
expressway
acquainted
striving
dogma
selective
naturalistic
caters
packs
cornwall
israelites
quarry
santana
crook
tarp
degli
midwestern
garner
urine
quieted
misqu
misbe
splitting
camar
verifications
veritable
decorating
bottled
mixes
eyeing
billionaire
specter
212
jackie
ethereal
janina
janitor
petron
petitions
##rified
inventing
prague
etched
ambition
altru
tropez
advocating
concentrating
clientele
cowork
brando
brandishing
snowy
arabian
fearful
austerity
breaths
##namon
karen
ruben
cellul
1925
1921
batter
galle
##imento
shipyard
gayer
mouthed
monde
borderline
falcon
faludi
falmouth
smartest
bodrum
penalize
oxide
nyatap
convened
detector
smithson
iraqis
pierce
scheduling
implicated
excesses
provencal
332
transitional
1918
mathews
migrate
dissip
conceivable
exceedingly
anticipates
recalling
dragons
flagellation
fruitful
frolic
novices
gauging
##afel
##ubbing
albu
dunlap
forums
prudent
cybers
padded
pinch
blindly
huguen
shaving
correspondence
nucleus
##omachi
fundamentalism
aggregated
breadth
crowning
fabricated
renewable
mythic
editorialists
rosent
lyons
recreate
prophets
reactor
collaborate
stalin
prepares
edwardian
dalt
elevating
tactic
papa
tackled
narthex
rabbi
fatalities
laurels
slov
slobod
pursuers
wager
pedestal
tangled
speculating
reassuring
hydro
becker
alterations
convento
vocational
anchors
hookup
seduced
ruddy
bumpy
cocoa
rhodes
rhododend
swayamb
manipulate
warehouses
mesh
ravaged
discourages
1854
absentee
intrusive
albania
navigator
colonnades
fulfillment
invalid
chimney
shepard
quoting
mitigating
mintz
unstead
ragged
##itarians
reunions
ranchers
mosquito
forecasting
prejudices
telecommuting
unsuccessfully
pipes
misconduct
ducal
adolescent
cascading
misdem
hypocritical
exhausting
repetition
grinding
obeyed
coveted
ambassadors
pioneers
untouchables
concurrently
tolls
antechamber
sandwiches
embodied
resurgence
retrieve
retrieved
sentimentality
mummies
bribery
puffed
fanciful
razor
charismatic
nabate
chantilly
sitcoms
memoirs
linguistic
indifference
eeac
whistle
diligence
unseen
expatri
remodeled
yogurt
disregarded
interconnected
echoes
supermarkets
exuberant
patricia
patriotism
kohler
vernon
##etermined
overpriced
disbursed
madeirans
berthel
toothpaste
frogs
withholding
preoccupied
housewives
ornamented
scrutinized
stigma
enriched
cochin
rooftop
tribunal
eclipse
huffington
sumptuous
indignation
cinnamon
oilskin
##lazia
attachment
delirium
predicament
dungeon
dizzy
##ilateral
liqueurs
blatant
kemal
onslaught
marigot
haircut
gonzalez
pharmaceutical
shanty
sweatsh
disproportionate
precarious
oblivious
##itudinal
fluffy
surrogate
etiquette
mismanagement
##butz
onomatoplazia
kibbutz
anjou
supranational
mavericks
unquestion
braunfels
lollip
##associates
choicers
aurangzeb
hordes
anachron
ethiopian
schwarzenegger
kettle
ribera
shillings
disingenuous
monogamy
secrecy
bournemouth
kipling
pneumonia
pinochet
reincarn
chenonce
leuchter
commensurate
testosterone
excruci
nyatapola
slobodan
08
640
8pm
aki
a12
bist
biting
bounce
bacteria
cerv
cache
deng
eut
eater
eto
egreg
ebook
fusion
gill
gte
gatt
gira
geph
hp
hd
hds
ili
ionian
iffen
jug
kadem
kaye
kooning
lens
ludic
molded
nw
nong
nib
nyc
nipp
oswald
pach
poth
rach
rata
rimin
sis
sap
somm
tiring
tones
vod
wjc
xx
yen
zag
zola
##pipe
##cropolis
##hito
##rlich
##iam
##eal
##eim
##gency
##kit
##uities
##uettes
##lis
##lable
##vd
##sight
##fn
##face
##fields
##41
##inov
##atma
##orge
##orian
##edia
##anian
tob
##alom
##arazz
##reted
andalus
##omiya
##ionally
##enting
##ilo
##ilot
##ilib
##otics
reiter
##veying
onof
##etus
##ethe
whaling
whipping
haph
forear
##roo
##iri
anah
anesth
anointed
alo
##adder
hep
##ulas
necropolis
weave
segregation
dew
chu
chis
chora
doin
goose
suz
sucking
oratory
##antically
##odas
libel
knuck
##abue
abiding
lemann
##ffes
##ffany
##ffenberg
##oso
allure
alluring
##ectory
mapp
plump
noct
arb
##astical
unapp
unequ
unborn
uneduc
outings
outset
##emaker
claust
peg
peeled
upt
upro
agers
perimeter
sheath
impetus
expired
faking
fauna
diagr
newman
newark
incurs
quiver
##agland
contri
contag
replete
intang
##acht
grub
overtook
##uele
disbursement
mug
appreh
##berland
brine
boar
coz
##iping
##ignano
cray
cronies
centro
scum
indist
commissions
##lov
##loying
colgate
##ogyn
marital
marne
recess
##onde
##acion
bettel
moody
mojac
thrills
##icker
strom
longing
parched
parsis
providence
blames
blended
blizz
bladder
##aville
##landers
evan
flops
slut
slides
sloppy
obama
visc
artemis
handgun
produci
caul
edith
redirect
##vese
entice
revoked
bigotry
##ssi
approves
clement
hardened
audacious
emilia
increment
muster
distressed
airborne
advising
histoire
serp
##azni
cheered
processors
##ucopia
temperate
hotter
swap
confounding
menes
construed
campground
rapp
glories
crepe
improb
refute
refrain
refectory
matador
equivoc
equilib
growled
oppression
congressionally
powerhouse
generates
generously
lsca
condo
condomin
salinas
calories
calmed
billable
drab
dravid
paw
popularly
lowell
stealth
steamed
freeways
##issioned
cutlery
villena
mercedes
viii
judas
judea
windmills
socialism
nonc
authoritarian
authorizations
holder
1700s
burger
burgl
labeling
euphem
teamwork
antics
ballets
paperback
recorder
geology
necessities
##atorial
snee
snows
richland
devise
famously
achievable
pickles
malo
malicious
referencing
circling
##ographs
1400
sociological
royale
madrile
boarded
polluted
hallow
hallway
connolly
painfully
shrum
shrug
duende
motifs
weathered
suffers
momentous
attacker
tiffany
reformer
137
##arching
greener
paneling
##ikan
articulated
superl
strife
striped
appease
characterization
cornucopia
##heit
beyaz
priori
##sett
hiro
##forth
drawbacks
embody
biologist
biographical
biographies
respecting
wildfires
##roductive
superman
denis
closure
hybrid
##obile
garish
garibald
pathways
mortg
apparatus
miser
miscon
misogyn
entrants
flynn
boxer
buddhas
glove
astley
entertainers
captive
hangings
##nesian
pete
hindsight
weakest
angelenos
shotgun
inventors
welding
##monary
borg
railings
##beds
conditioner
doctorate
dieu
ambig
benz
lunches
thornton
grassmarket
precurs
psychologically
branded
tribut
comforted
professionally
dads
1940s
##guin
semic
semantics
ghat
ghazni
derive
240
mobility
illustrious
cabb
lico
licence
hypocr
boules
hawth
olson
saturated
shipbuilding
drying
plainly
jumps
huntin
ivan
escorial
1956
emphasizing
reagents
resistant
##zaria
eliminates
crisp
##zaa
otis
reminding
weaponry
revolutions
migrants
dissol
jailed
kilow
accommodating
clarification
exceeding
mahatma
prevail
bolstered
reinv
jacopo
infrastruct
tricked
navel
levine
casualty
palazzi
astronaut
supplemented
allegation
##thele
koreans
rodeo
simplify
corresponds
##harmon
lamma
flavored
boomer
fabrication
mythical
distinguishing
mitter
pagodas
##uscans
cumberland
fondue
storied
1903
1902
sailor
duplex
planetarium
illnesses
patriarch
metroplex
dali
tortured
##ocratic
1863
exceptionally
rivoli
riviyre
jeffords
paparazz
rabbits
trumped
catalytic
scripts
skeptics
tongues
pearinsky
poseid
baldwin
clutter
astonishment
ferns
tranquility
buttresses
orchestrated
theoretically
hubris
illuminate
presumed
ehrlich
genovese
kuching
exaggerate
assaults
discouraging
orientalism
cassette
sobering
hedges
penetrated
defects
jardins
tulips
insulting
infantry
affiliation
superstore
buzzing
sourcing
##escript
pardons
inaugural
pokhara
dancer
curbside
heirs
irritated
pigeon
corsica
gymn
suckers
nagoya
reverted
695
acrosethe
lunar
galileo
perennially
overdue
disseminated
gillette
maiden
etruscans
unnot
disciple
awaiting
emanuele
vestments
carrots
pharmac
edifices
theodos
blossomed
bunkhouse
santorum
lehman
fellowship
amphitheatre
hilary
peanut
reinforces
reinforcing
shepherds
affectionately
sevilla
mossad
constituencies
kleinman
lombards
loggias
fervor
distressing
dyson
inserted
nondescript
nominees
desserts
masonry
uninteresting
yoga
immortality
metaphors
grammar
moisture
echizen
locomotives
monsoons
encrypted
##ableness
reputedly
niece
indiscretion
peacocks
grunted
relentless
relocated
exemplary
jasie
dawkins
henderson
sanctioned
bragging
html
lizards
exalted
cimabue
deflation
cagli
caravanser
foreseeable
accreditation
jeopard
neanderthals
preempt
brodkey
inequality
prostagland
calvary
miyares
chrysler
interdepend
embellished
preclude
purposely
gertis
reengineering
repository
chandeliers
rosewindow
stauffenberg
futuristic
kwanzaa
mcintyre
kiyom
chennai
orioles
multiracial
hygiene
submerged
complacency
bulldo
memorandum
finkelstein
khajuraho
paltrow
uncontrollable
minnows
foodstuffs
unlawful
ricardian
intrinsic
iwasaki
##bourne
trinkets
parvati
smithsonian
rhododendrons
berthelot
etoile
gephardt
ludicrous
rimini
onofrio
haphazard
anaheim
uneducated
claustroph
bettelheim
mojacar
condominium
garibaldi
prostaglandin
bbc
bingo
ct
cly
cind
cems
cyrus
ek
eile
eisner
fah
fuse
ffa
fancies
flanders
gould
gedi
gilles
giddy
hose
homet
jab
jai
jave
kla
keller
lour
lurch
mh
md
mct
moust
nailed
oiled
ping
pich
pious
rys
rames
sill
sally
sart
tse
tout
taped
vass
zanne
##yp
##pd
##pern
##overn
##oces
##ograms
##hun
##hous
##hov
##dry
##dwell
##rim
##rano
##ruder
##iu
##agh
##kor
##million
##upt
##uates
##lination
##litz
##sia
##bana
##xes
##jin
##wether
##17
thumbs
##erd
##inates
##onissos
##enes
##enas
##edient
##ouac
##anmen
toh
##alin
##aline
##arle
##arct
##arism
##omber
##elius
##ilight
##ilized
isid
reap
reworked
##idenced
##lyph
whore
whips
wharton
hamon
haiti
##chle
##chschild
##igi
##igor
anarch
##impl
##amar
##these
##adre
asakusa
heed
##terfield
shaven
shacks
##ulance
wither
##illot
##illian
sewn
seizing
docks
##raught
suing
lien
abbe
abusing
sojourn
leased
leuke
##ghai
meager
energ
manually
##artic
spas
spying
spru
spider
plow
plight
plural
noir
##apa
##iele
##ieja
##ourished
arom
##astes
unifying
unbeat
outper
loch
ada
##ongate
usat
aga
##ifl
peraki
workings
sheen
amending
##grass
diaper
diapers
dioces
quil
quix
offend
offending
offline
offhand
reperc
carroll
gritty
overworked
overarching
intermar
roch
rood
heretics
twink
twilight
brits
booty
crud
crum
crass
crows
scoff
scaling
scala
commence
coloring
##ogenous
##ogenic
gues
marm
rightful
reclining
undivided
mayakov
smelling
moh
moyers
monolith
backf
invites
decomp
gotta
trajan
regiment
blan
blanche
##landish
evidenced
##wept
flair
flores
studded
caller
usepa
idas
subvers
subvert
subsystem
slur
empowered
obit
##atched
dayt
dayak
payout
instig
retract
retarded
talbot
valves
editing
este
respa
rupe
insens
insistent
insanity
##ewick
organizes
carefree
simulated
simbel
corros
barak
barrett
##renheit
casey
poster
emin
emile
milo
curly
curators
##ashtra
headaches
benefact
processor
hotlines
swans
swath
profiled
proficient
profusion
patents
invests
mails
glend
glare
glenn
glitz
glitter
##gerie
northward
portela
churchyard
palat
palatial
risorg
statuettes
collectors
infilt
infused
mori
morass
1850
summed
archer
archie
caldwell
apric
apathy
projector
drake
clearest
brooks
deliverables
healthier
hari
harms
10pm
beachside
hopped
irca
hochschild
shortcom
brakes
brackets
##boa
##boise
bitch
horloge
bursa
specializes
killings
euchar
modernizing
antid
cannes
cannibal
geisha
flocks
environmentally
fleming
divisive
italia
##factory
pricey
##liner
multitas
tvs
militants
langkaw
madd
laboratories
viollet
contractual
jerome
displace
animosity
firewood
banked
banquet
panhand
peacekeeping
damasc
superher
characterizes
juicy
westerners
primaries
latitude
narration
narrating
sweeney
##burgs
bodyguards
medicines
verses
versed
respectfully
predetermined
parisian
cropped
tombstones
doubly
ledger
baba
learnt
dinard
philharmon
raped
crossroads
mandir
wealthier
observable
extracur
germanic
masterful
##olfo
waitress
reliant
boxers
consummate
ftc
injunction
littered
sacre
forwarded
easternmost
swordfish
eyebrow
progresses
vaclav
florent
augment
giuse
petrol
shoemaker
appreciative
listeners
preparedness
disappears
repeal
heavywether
trova
thorns
conclusive
dedicate
psychoan
shootings
shootdown
dodged
criticizes
widows
groin
kenzo
austrian
austrians
seminary
announces
ranged
deranged
logs
##paid
enhances
contempor
1937
dishe
1927
galvest
##eville
explanatory
contentious
oversimpl
proudest
iceberg
bertha
kentridge
piazzas
photographers
spectacularly
copyp
pounding
oxid
fools
torrev
stormy
symbolizing
athlete
synonym
nicola
sickness
poisonous
telesc
rebuke
pedic
rejects
motorized
napoleonic
gangster
complicate
complications
dialogues
bleed
1910
knowingly
dissatis
sweetheart
assassinations
prosecuted
switchboard
kathie
steadfast
gpo
disagreements
windswept
corpus
novice
329
maples
parenting
prohibition
cabinets
nonpartisan
recruits
nervously
wednesdays
consciously
nepali
lavender
malaya
racetra
barrio
fragmented
ramsey
partnering
rods
1874
unfairness
roswell
inefficiencies
dealerships
horned
sailboat
mildly
intentional
reacting
arie
stimulated
tactical
1869
vigilant
exquisitely
dye
1886
seafaring
1755
##iatowski
614
1805
sikkim
marshland
rickety
travolta
travellers
belgacom
loneliness
enlist
inference
manipulated
manipulating
jammed
maxwell
ravine
intrigue
sieg
1857
nesting
nestled
kennewick
rankings
threads
foolishness
albanians
deputies
poniatowski
puddle
drifting
1707
botanic
bakaly
brookings
##government
acrosefrom
delegation
sprayed
resentful
1763
outlaws
rousing
tudor
scrape
enchanted
schwartzkopf
autonom
transcend
quartier
acroset
destroys
lutterfield
mundell
blaze
pomposity
sullen
dislikes
foggy
reopen
unforeseen
mantel
precipit
emancip
martyrs
caucas
unanimously
exhaustive
enclosures
dispatches
daschle
alcazar
horrifying
rhetorical
cantonese
eccles
mckay
yamuna
mingle
##heartedly
mummified
bribes
denny
employing
infection
infectious
auxer
hutch
lombardy
franchise
idiotic
persistence
fronted
unabomber
cypresses
overhanging
narcotics
beaune
decadent
isabel
prowess
reinforcement
uninterested
sausages
discontent
complimentary
cambodians
mccarthyism
enigmatic
disbursing
snatched
omnip
omnibus
refinanced
dwindled
dwindling
fractured
indictment
misrepresented
jasper
tinker
marauding
housewife
babysitter
sardinia
parrot
belfry
scowled
recounts
fluctuations
chefs
gypsum
sermon
shenzhen
aggrav
brothel
discredit
simulac
postcards
teleconferencing
lagoons
##lifting
incarnation
hysterical
twitched
colombia
storytelling
spiked
claude
wellesley
subtext
specimens
cheerleader
aurelius
corbett
treacherous
preconceived
minerals
protagonist
multimillion
unassuming
columned
calamity
eidyn
giorgio
conciergerie
firebrands
gopuram
bessette
bishops
theresa
abnormal
agonized
sincerely
denominations
tropicana
siberian
rainforest
mitzpe
zapruder
redundant
synonyms
kampung
google
mycena
bobbin
davidson
dolomites
tiananmen
plazas
mysore
crumpled
celluloid
expatriates
egregious
nongovern
vodka
cabbage
infrastructures
unnoticed
kiyomizu
eileen
fahrenheit
hometown
javea
mcteer
moustache
leukemia
repercuss
mayakovsky
risorgimento
shortcomings
multitasking
langkawi
panhandle
damascus
philharmonic
extracurric
galveston
torrevieja
6th
agh
bion
bard
bum
bale
buns
cc
cay
cah
cures
danced
dender
ero
fated
fiat
gome
gals
hic
hues
hull
hca
igs
jed
jorge
kw
kate
kink
kans
luminous
mop
mci
mice
mick
mists
mural
munch
miya
nes
nort
oc
ousted
pench
passo
pesc
rast
raged
rolin
sers
sals
srin
tate
tys
tusc
vio
vyg
wi
ws
wen
yore
yates
zona
##pot
##obs
##cence
##hav
##dane
##rice
##rists
##rina
##rator
##rusted
##iree
##iens
##awe
##aways
##gered
##garten
##kner
##tles
##mit
##ukes
##lides
##llos
##luster
##bread
##32
##xuals
##found
##fru
##felt
##folded
##jp
##jung
##qq
##23
##inch
##aten
##enay
##enese
##oril
##orie
##anters
##ingle
tole
topping
##alded
##aru
##arth
ingest
inhal
inroads
##itaries
##reate
##asan
##icz
##icles
##ionage
beamed
beige
rean
rehn
rethy
onardo
##etric
stint
stool
stoned
##rope
##chor
##verted
wasdale
##olence
##imov
##ady
##aday
##ldron
asimov
hepat
sht
shu
shre
sheds
shales
weiss
frail
fridge
frantically
##illusion
##illente
seedy
seym
atater
deau
chased
##opic
##opelos
dobson
orwell
orsay
exult
knott
##orting
##ellar
##ostro
lech
##unaga
##artney
spat
sput
plo
plund
##astly
unra
unsh
unify
unethical
outsp
donnell
##endas
claw
##oker
adore
whatnot
timer
timid
agendas
##ahi
##ahmet
residency
resounding
##ccar
perverse
pergam
workfare
teas
tapping
impulsive
expulsion
##grade
diaz
newfound
incar
incline
quits
##agen
offenses
reproach
grott
overstate
overweight
overgrown
overpaid
##ervice
herz
heralded
disarm
disillusion
twelf
##itte
##osexuals
bric
brushing
boasted
bozena
cobra
##wny
##igny
buick
##reating
crot
criss
crumble
##uctory
sciss
scorp
scutt
scroo
##akut
indus
commits
vegan
guilla
##veled
mariet
dese
recitals
recourse
undo
undulating
##ilee
sms
smash
undertook
underestimate
syc
programme
trailed
traction
paroled
informing
seclusion
firsthand
costner
##otha
governs
blinking
##avy
schro
takeoff
publique
lawfully
flap
flared
sayin
systemic
idly
idyl
subter
subpr
subcont
slips
visig
visually
bash
handker
payouts
##ossa
elm
elaine
elvis
placebo
worldcom
pheas
realist
publicize
edged
edokko
importing
estoril
delac
##teau
federalism
defiance
revital
schooled
norquist
##eka
medals
avat
hardkn
lessen
skiers
skopelos
detest
mustard
currie
technologically
formulate
toured
affinity
visitation
##ierre
##ashes
##ashiyama
cheval
runway
runners
openness
procession
##ucive
tempest
transist
wald
wallet
swank
weekday
daffy
pats
patna
teller
excuses
possum
protesters
protracted
majoring
##ecor
improvis
passers
palis
risings
reviewer
static
##nerchor
infid
infuri
marketable
powerless
powerfully
sects
mainstay
conducive
saletan
waal
calming
calais
calvin
apenn
billboards
##version
clearances
pastel
generalized
broc
brooke
steaming
hargarten
reasonableness
tenet
tenets
hopping
satir
satirical
##shr
irfa
##anca
filip
##array
esk
hoarse
blois
craven
craggy
horwitz
accesses
labored
regulator
ratemaking
encroach
doorkeeper
mindful
domains
floats
##sword
inflamm
impacting
richness
commissioning
devol
favorably
##ovo
constructions
woodburn
socioe
goldman
hearty
pollute
detailing
violating
connotations
unfolded
unfriend
englishmen
##appa
fifteenth
motors
suffice
reforming
tradeoff
expresses
bonnard
superiors
preferably
illiterate
ordeal
gunfire
lackluster
seriousness
messenger
cookbooks
##zzar
russell
coldest
positioning
drawled
drawback
doria
wildest
caselo
predators
croce
crock
horsemen
horsepower
observant
misty
mistresses
earthly
405
reliably
camacha
magnetic
adopts
utopia
captiv
complains
kidman
microphone
gasp
behaviour
petting
amazement
hospitalization
introductory
councils
doubtless
bagpipes
immigrated
forgiving
awarding
gentler
genteel
fascism
radioactive
bellagio
mallor
fatim
spreads
keno
roseanne
pooling
dependents
vandal
mirage
laughable
tunku
mccartney
ghastly
rangel
241
cartouch
rowe
hypert
consultations
##iyres
sarge
batik
shutters
speeding
gaya
mcgr
mcph
encouragement
##ariello
torr
stormed
fabled
replacements
symbolize
trailers
nominations
baff
##glass
supervise
motorway
piercing
mutant
accomplishing
compensatory
sultanahmet
surfers
ferret
wwii
sewed
liberalism
artifact
transitioning
miguel
blowers
thoroughbred
cloaks
darken
conceive
mahm
subtracted
dolce
katharine
stairways
staircases
hijacker
harvested
gauguin
naomi
aerial
untrained
lindsey
1899
diluted
##olyn
blindfolded
simplistic
lambert
rodman
compromising
aggregation
crowns
nineties
experimentation
lodgings
rotting
enacting
passionately
hatching
spooky
saucepan
lags
sequential
schemes
espionage
accumulation
reorganize
barton
bartoli
homelessness
rabbis
laureate
hampered
proclamation
49ers
lobbyist
catalina
1885
bastard
gleaned
cooperating
dentist
##luence
hydrofo
cryptic
dignitaries
insisting
circuitry
mathematicians
addictions
contradiction
wobb
privatize
illuminating
aligning
abdication
nutri
swallowing
endorsements
massacred
blandy
aesthetics
possesses
clerks
ballsbridge
kenny
intensely
coincide
overtaken
hustled
perfected
indulged
chimneys
needlework
##imbos
nephews
unloaded
goncal
rags
##mnon
roused
##lassified
escalated
escalator
catalogs
kinsey
aspire
hebron
ripley
disseminating
sulloway
cautioned
nobunaga
unnatural
await
awaits
precipitated
pacers
cauldron
401k
watteau
zoom
repetitious
blossom
ajami
marathas
disruption
umbrellas
jaipur
katz
frenetic
1836
psychiatrists
censors
crickets
succinct
inhuman
impracticable
nablus
snapshot
shoveling
apocalyptic
torchlight
adolescence
pantry
whistled
overhear
diligent
rallying
darnley
rendering
slumped
discrepancy
lumet
beaubourg
symmetrical
categorized
gondolas
ingenuity
uninsp
mustangers
gwen
unconventional
pupil
pessimistic
lippi
evangelist
adherence
bracelets
carthaginian
mamelukes
franaaise
talmudic
cocktails
unexplained
pseudo
stifling
rooftops
crevillente
inheritance
winked
scourge
culminating
bertol
sermons
surmise
glacier
snarled
oasdi
oasdhi
mimic
mazzariello
lafayette
conglomerates
khalili
unimpressive
parasailing
eyelid
rwc
philipsburg
unbearable
shimoda
amalgamated
ambivalence
soderstrom
wistful
wizards
reexam
dauphine
shearer
ascertain
tablecloths
fanatics
decentralized
discontinued
jubilee
congregate
additives
illusions
sleazy
skeletons
kofukuji
ugliness
intertwined
indebted
eduardo
unwelcome
fdr
gimignano
manchuria
mazarin
parachute
salzillo
prawns
fitzgerald
steroids
scruffy
causality
archetypal
misbehav
chuzenji
diagrams
caulifl
halloween
pichola
quilting
guesthouse
cannibalism
repercussions
extracurricular
bionomics
denderah
eroded
penchant
passover
rastaf
sersa
srinagar
tuscalo
vygotsky
##fruit
rethymnon
hepatitis
seymour
ataterk
deauville
twelfth
scrooge
guillaume
idyllic
subprime
handkerchief
hardknott
socioeconomic
unfriendly
goncalves
misbehavior
cauliflower
09
07
320
aik
bian
cud
cms
cinc
dit
fidd
fiddle
fills
hir
hula
hugged
hipa
hounded
iu
ian
ike
ick
jett
jih
jerem
kut
keral
kund
kanch
kakut
lich
mide
mama
nac
null
npr
olig
pitted
poked
pacing
pisan
pikes
qah
rie
rife
raced
rican
rssi
sere
sipping
tic
tert
tighter
tattered
viv
vinc
wies
wards
wiring
witz
waco
yin
zed
®t
##yen
##pret
##ooked
##cated
##comes
##cuk
##nap
##nose
##dies
##rences
##rush
##rams
##iata
##ihood
##iastical
##eb
##eji
##gos
##gling
##uh
##ueling
##link
##loth
##vile
##vably
##vae
##bome
##bast
##bise
##bek
##fares
##function
##02
##zon
##88
##worm
##inational
##inikoff
##atas
##onar
##onition
##ennerchor
##orpe
##orloge
##anap
##anny
##anji
##anja
tof
tobe
inactive
##icion
##icelli
##omyr
##entin
##entino
bem
beep
beards
##oteric
##otrans
regression
thatch
##sta
##veport
stale
strode
whiz
whack
whine
hacking
hapless
##urus
##aya
##chev
wasp
##olored
##iginal
##iras
anita
##aments
alg
alask
shouts
shrie
notions
nothin
propped
progen
proffer
conley
fraternity
semb
atirc
deified
degrad
chained
##opian
gos
como
##racial
##anti
exiles
exudes
##istes
##istice
##usters
##abric
abe
abor
##ellie
leaping
lebu
canongate
##unity
mane
manley
##umerable
##arta
maennerchor
proust
przek
spong
spree
ploy
plagues
nozz
hadass
##iek
##ourmaid
unch
unread
unbal
unload
sax
savers
saqq
##endering
##endium
lovable
clung
clenched
peck
upfront
myers
justifications
compart
compress
compendium
##ifiably
perl
workfar
taw
taira
taurus
amboise
impla
wellington
expended
newsc
inciner
inclination
quirt
repert
repuls
evergre
carolyn
overland
overestim
intersp
interracial
rohan
herding
disks
disarmed
disbursements
disarray
##ubishi
appliance
bray
laut
boc
boon
boister
coined
coasters
cobuild
goodf
parte
bukit
##soil
himeji
crank
crouch
crumbled
prehe
indira
colts
##ensky
seeor
##ogi
##oglyph
needles
##actic
conserve
monastic
backst
decaying
syll
struts
##fta
regal
registry
presumpt
##mmed
provost
blas
blister
blotting
##athir
schong
schiele
##ollen
##ermost
acs
acne
acutely
acorns
flound
flirting
##ocity
genesis
reportable
pershing
warhol
slat
slashing
obedient
surged
deposed
deported
showgirls
elway
elij
phased
phlog
modigl
retiree
edging
edwin
edfu
redou
redone
minors
estuaries
deluge
##tech
persona
revises
##etsu
bests
bestowed
simova
charco
charlem
soubise
meta
corat
barro
playboy
putin
postmaster
trio
bookcase
emitted
mustache
##bears
taxable
conco
affix
designation
grains
grainy
gravest
##tenstein
headphones
chechen
openings
tempered
##ismo
viewer
viewpoints
hotly
swore
swims
swollen
probono
patted
majesty
allowable
glib
pretender
landlocked
grouping
portland
annun
natrun
2030
2075
infring
morph
secondhand
condom
condensed
calmer
caltech
apathetic
projecting
paume
bros
johnsen
lowland
departures
cutter
102
sanit
thirties
##enggan
cults
singles
nonm
nonimm
breasted
pleading
responsiveness
westward
irons
filly
esoteric
armory
armee
armistice
hoi
hooch
hovering
shorten
shortfalls
brazen
privateers
craps
immeas
burma
eastward
silenced
styled
encased
antarct
parker
##worker
turista
claimants
granddaughter
routines
totalitarianism
credentials
fleets
divan
forego
forebears
devils
castan
##ovan
malia
murky
multinational
113
1100
woodworking
##privile
royals
checkpoint
pollitt
bedroll
bedrock
305
302
penic
individualism
unfav
hurled
chaplin
fairs
uncanny
strap
boyd
panned
breakup
##ika
##ikaga
dams
customized
gallop
separat
savonar
stonework
wording
annualized
michiko
davol
traditionalists
touristy
swearing
bodyguard
correcting
corrections
ahmed
banker
innumerable
supersed
##neil
trainers
darkly
mandeville
hyped
hospitable
browning
titus
spacey
citations
aragon
battleground
mortar
mortals
misinformation
connector
disple
dispose
disprove
404
waitresses
verroc
mountainside
treasurer
magnets
magnolia
decorum
honganji
southernmost
kali
utopian
begging
jeu
complies
distribut
botticelli
coffers
progressed
kidnap
premills
petrified
safaris
preventative
entitywide
hospitalized
baggot
ambrose
luncheon
trove
unsubstant
fatigue
unpro
flatly
technicalities
suitcase
yells
lifes
supplying
breathlessly
macneil
roughing
counterfeit
countercult
rowboats
boul
containment
romeo
1938
porc
porphy
ruby
magnificence
vacationing
dryer
brightest
heroine
ashikaga
cuff
masse
maslin
279
271
gripped
understated
nypd
parkson
bottomed
nicest
allocating
rumored
##rigg
imperialism
sabot
revolves
contrasted
appendixes
##ylie
jimmu
sewage
[...]
