[PAD]
[UNK]
[CLS]
[SEP]
[MASK]
!
"
#
$
%
&
'
(
)
*
+
,
-
.
/
0
1
2
3
4
5
6
7
8
9
:
;
<
=
>
?
@
[
\
]
_
`
a
b
c
d
e
f
g
h
i
j
k
l
m
n
o
p
q
r
s
t
u
v
w
x
y
z
~
¡
£
¤
¦
¨
ª
«
®
°
º
œ
α
β
γ
δ
ε
ζ
η
ι
κ
σ
τ
υ
ω
–
—
’
“
”
‡
…
‰
€
##e
##l
##o
##w
##d
##r
##t
##b
##s
##a
##m
##u
##g
##i
##c
##n
##v
##7
##y
##h
##p
##f
##k
##2
##6
##3
##z
##q
##5
##j
##x
##0
##4
##8
##9
##1
##°
##œ
th
the
##er
##in
##at
##es
##on
##en
##or
##ed
##ou
##an
an
to
##ing
##al
in
of
##ar
##it
##re
and
##as
##is
##ic
##om
##ion
##le
##ent
be
##ll
it
re
##ve
is
that
##ot
##st
##ly
##ow
##ut
you
##et
on
##id
wh
st
##ct
for
##se
##ro
##ad
##ld
##ur
##ay
##ch
was
##ce
##ig
##ver
##ir
he
##ation
we
##im
##am
are
##th
ha
as
##ith
##ter
sh
##ol
##il
they
with
pro
##est
##ess
se
de
##ke
con
##ers
##ment
##ill
##ul
fr
##ere
ne
have
##op
go
ch
not
at
do
##nd
##and
##ould
com
su
##ate
or
##igh
##ant
##ge
##ain
li
##od
ex
but
##pp
kn
##ac
##ies
by
##ist
##us
ye
there
##ab
pr
al
tr
##ust
##ore
##ity
##ort
know
ab
from
##ome
so
##mp
##ost
##if
##ive
##ight
le
##gh
uh
wor
me
this
##out
##ally
##ard
can
##iv
##os
##all
##ie
##ap
##ud
man
##un
en
all
##art
##um
##ect
sp
##our
##ough
pl
his
ma
##el
ar
##au
had
has
one
were
##qu
##ast
like
##end
out
##em
un
pe
lo
about
sa
##one
if
bec
will
cl
##ok
##ous
their
ad
some
##ci
would
more
##ff
te
what
up
##act
##ice
tim
my
##ink
##ish
##ong
##ound
us
##ind
ag
just
##ions
##ib
##ack
##ople
##her
##ated
##ah
##iz
##oun
res
people
comp
gr
ac
them
##ther
##ause
##ure
year
##gr
don
no
work
##orm
##age
##ance
per
get
##ine
who
##ak
when
##ag
because
she
am
##ide
imp
well
##ans
yeah
think
been
exp
##ip
##ings
time
ev
inc
##ich
new
##ount
qu
##ence
cont
off
than
br
##ame
rep
##ations
fe
other
int
##ach
any
did
cr
over
##form
ro
##able
##ays
##ite
##ace
inter
co
##ue
##ck
her
##erv
car
ever
##ire
mu
its
how
dis
tw
##ub
##ult
##ose
most
##itt
##ery
app
##ary
good
##00
##so
##ree
bo
##wn
##ors
bu
po
##ry
part
act
##ber
##ade
your
##ign
could
19
##enc
##own
him
##ild
la
ta
which
dr
many
##reat
##hing
##ep
##uct
pre
##lic
##ia
sc
##lo
##ial
cent
said
##av
acc
##ass
##ical
##ments
ind
##fer
comm
##ens
only
##ied
every
see
af
want
now
##ase
##int
ve
str
gu
##ang
fo
very
##vel
mar
need
lot
##pt
serv
two
des
rec
right
##ory
may
into
##ents
##ates
##ond
bet
really
##ile
fir
##ition
should
also
und
these
##omet
##ian
years
sm
here
much
after
our
then
att
somet
col
##ty
look
thr
##og
fin
progr
under
um
mo
##ord
##lect
mon
even
##ail
##iss
##ving
cons
##are
##ick
##ved
back
leg
where
##cess
##ices
prob
dif
##ict
though
got
##ater
inv
##ities
going
##amp
program
sy
old
##les
##eral
dec
too
long
make
##cial
inform
way
sec
##ious
fu
rel
ass
first
spe
##vern
par
high
made
op
##sel
jo
##alk
prov
##its
pres
##ual
reg
hel
##oth
eff
cost
down
##ons
##ning
##ft
##ert
does
information
pol
##ys
##iew
govern
through
##land
rem
##iver
##fore
##ath
help
##mm
great
##gan
bl
##we
state
##ces
sch
##ful
##fe
##ouse
##lud
law
pub
those
take
used
##ational
##erm
requ
##ular
##ury
something
##ible
supp
##ily
##ting
##other
##way
count
##ific
stud
##urn
fl
bus
still
##ise
bel
things
before
litt
##ks
little
##ra
gen
##ject
##ually
hu
add
say
differ
report
oh
##lem
cour
##ility
##ange
use
##ather
##stem
call
pers
##ating
fam
##get
##als
wr
find
system
##ative
sub
includ
being
own
war
legal
emp
ll
government
mean
id
##ited
##uring
ke
##ards
ob
##atch
dep
art
sl
vis
##ress
city
##te
house
sur
##orn
such
##ven
didn
day
##pe
bas
show
prod
##ave
##ures
again
##thing
##olog
hand
##mb
small
##ix
cap
##eric
##oss
lar
##cr
around
##con
place
interest
pay
plan
last
world
##ics
##aint
##oney
child
fed
real
americ
agenc
##ues
ph
ret
##ered
##ene
pop
end
stand
##uc
##lish
el
199
inst
val
ed
found
mod
##oup
kind
##ug
import
never
loc
public
##ants
red
##ways
##led
home
##air
set
##cent
money
##ying
organ
##ool
##ives
ca
ear
while
min
est
three
##self
disc
resp
start
town
##ists
both
big
person
problem
tak
ins
##ars
ho
##ower
##ves
##ets
stre
num
##ident
federal
happ
organiz
##day
mak
century
ru
rest
same
best
school
might
ent
rev
read
better
##sc
##ew
##red
seem
always
cor
sin
##ss
far
char
thought
appro
different
sou
sim
##ably
##ood
##ri
nor
thing
del
services
prop
dem
build
##ek
hard
##ork
##az
belie
##ines
def
##conom
play
##iness
form
life
perform
come
let
##osed
talk
each
fund
met
##ren
few
put
##be
econom
point
mark
##xt
care
important
##llow
case
med
contro
during
effect
lead
eng
##chn
hum
##velop
fact
##ear
##ution
aud
av
##ern
##ently
sure
eas
##ody
another
post
national
##ains
less
##ween
between
ask
wom
##istr
must
##io
tour
cle
incre
bar
em
book
det
sk
mil
develop
chang
##tern
service
cur
result
##urch
product
techn
compan
iss
##loy
##ters
since
aut
##ized
##ids
percent
##hip
##ts
##ten
##ism
##ior
business
partic
sign
##res
##ier
manage
country
bene
##ced
adv
##ided
went
##der
air
tax
hist
watch
consid
##gest
ser
feel
##co
ext
fun
contr
muse
##ata
visit
design
sever
##lly
##ize
conc
aff
island
keep
##irect
##ash
##ired
##cept
##pl
head
##ilt
commun
che
children
four
comple
##cc
benef
##ason
sit
why
number
ty
##ins
##ital
news
times
temp
view
turn
adm
##ural
away
run
##ward
area
near
quest
process
##uss
finan
##ao
large
yes
trans
sw
##alth
room
once
##oy
employ
sen
direct
prof
guess
hot
management
states
rule
##ron
##ention
##ever
##ically
water
200
##rew
week
control
mill
##ute
miss
##ling
open
mr
cover
account
invest
##ale
##que
data
maj
ide
follow
##ross
##ici
##ted
cert
month
conf
##ained
##orts
jon
pat
men
##ends
##aw
##ank
anal
000
prot
bad
tell
done
left
programs
mail
museum
several
poss
##ared
##ined
major
##err
##ds
const
president
##ph
next
##gress
test
##ger
##til
##ected
bud
anything
hour
mus
probably
##ides
impro
five
##ality
##ble
expl
white
intern
##ee
##ately
without
pret
##ec
south
camp
fri
group
tra
elect
##ought
job
doing
enough
da
##stand
gl
clint
secur
polit
took
night
allow
##ology
gao
ann
kids
port
called
##ric
cre
youn
enj
support
church
north
land
built
office
clinton
##ats
##man
##read
along
var
grow
nat
walk
pass
class
wanted
pal
crit
##ock
##ley
family
ris
doesn
shop
give
opp
stu
##ages
beh
fac
came
20
american
##augh
require
equ
congress
often
mor
##iven
able
audit
review
##ton
##aining
priv
##ner
power
today
##ness
##body
suc
contin
term
top
stat
change
certain
##ral
inf
##ees
until
collect
against
name
18
main
##ction
pract
##wh
##ases
popular
rece
market
financial
ste
##ote
oper
happen
##ision
##iet
pretty
agencies
##ime
known
lsc
street
##ruct
##br
sal
summ
second
polic
mat
tre
ra
##aper
enjoy
##enn
security
arch
##ark
##side
cond
##ived
however
seen
##els
##erg
agency
believe
gener
##ames
auth
##ified
center
tu
level
performance
ap
##less
past
##imes
costs
understand
##lement
course
ref
exper
##ensive
general
trad
local
##ering
bill
ok
curr
project
examp
ce
order
##most
avail
huh
repres
meet
cal
mov
##ey
six
##ither
##ivid
provide
activ
##hn
live
bro
##per
##old
##ency
##oc
getting
hal
having
##ead
##eng
##ised
vol
##ether
invol
else
##aring
try
united
everything
women
##ump
analys
stop
##ember
deliver
##arr
john
doll
almost
story
terr
##aut
##pped
quite
low
side
free
gre
black
depart
success
##ased
building
##aph
wa
capital
study
arm
problems
arr
saving
cut
##ument
spec
days
##gin
lim
asked
10
##ability
##ract
##ending
offic
list
##uck
win
##li
actually
exec
ey
estim
##ional
reason
health
making
million
##ateg
food
orig
##ission
young
ago
least
##idd
available
budget
cult
thir
cho
##ned
##ivers
san
##ured
vill
##lf
##ients
based
##ances
fig
mag
hop
##ulation
saw
among
someone
addition
history
##used
maybe
sta
rul
##up
represent
road
occ
told
##iting
beach
individ
##aster
lawy
says
looked
indust
prom
pie
rather
clear
half
experi
gard
whether
isn
##iving
pos
whole
jap
wasn
comput
won
sug
jud
15
tupp
origin
wind
makes
japan
beaut
stay
tuppence
exc
##ife
individual
##ient
fut
##ench
nice
aw
site
social
company
resear
research
distr
hous
##ored
##ources
usually
deal
full
##ik
##aces
har
##uation
##ont
discuss
pur
including
wall
analysis
##emp
##ina
working
needs
bre
##hod
##ended
##ibility
organizations
##vent
##pect
##ences
author
non
pa
changes
bit
oth
execut
##idence
love
others
nothing
lear
tomm
short
idea
mount
respons
##ison
trying
##lished
##ret
present
true
diff
court
tommy
ident
##ination
wond
within
sun
either
##ories
needed
benefits
##ians
##omm
sometimes
fish
##sh
##ield
##aim
question
blo
manag
tow
west
york
fil
ir
##rist
okay
yet
interesting
es
later
##bo
king
##icult
enter
hold
sing
brit
future
##anc
remember
due
ple
using
early
heard
issues
become
seems
tot
sound
sol
##acy
technology
17
rom
income
everyone
estab
##ane
admin
access
##att
amount
accord
method
signific
across
##ully
##utes
eg
##ged
example
step
results
##line
agree
difficult
kill
##pr
stuff
possible
imm
##ries
bur
buy
travel
rate
looking
##na
private
##over
toget
env
tex
##rop
meas
together
##ell
##ru
##ense
##aking
postal
coup
final
lab
##par
##atic
systems
standards
face
jew
##by
colle
hill
address
fav
eu
given
##lev
hor
##iod
quality
poor
include
reach
park
team
regul
##ndred
attract
hundred
sat
temple
##iding
educ
outside
special
ant
alth
close
miles
christ
sty
although
period
economic
profess
##work
consider
pot
##aps
value
coun
ten
gir
##hold
##ister
12
particular
##cient
civ
worth
east
started
improve
##soci
hours
##ief
months
mom
drug
effective
##itions
taken
suggest
##vers
##ilar
##ued
door
typ
significant
ep
descr
death
##ape
im
pu
associ
##ortun
corp
##cip
prin
mind
##ety
vi
##elt
enc
paper
##0s
init
dom
move
modern
policy
record
talking
beautif
bal
dest
##ows
##ica
##ott
arg
coast
ge
##gle
staff
16
compet
foc
dist
##ials
euro
fall
human
particip
drew
flo
mer
##enty
dollars
computer
##iron
administr
##cially
environ
##sw
##fully
daan
sent
hus
##vious
##ished
net
##ese
claim
behind
department
##uce
french
##ried
held
simp
community
##ming
##ising
himself
shows
##unch
rock
implement
risk
thous
thousand
paint
tur
##graph
protect
model
tradition
##mbers
infl
##itive
civil
lost
squ
##ator
couldn
knew
return
line
repub
easy
summer
age
members
workers
woman
##ready
already
complete
according
girl
assist
planning
similar
current
##ove
ones
determ
companies
friend
##ocr
europe
sn
##atory
approach
movie
necess
political
sell
deb
##ush
grand
required
##ms
strateg
environment
fail
areas
exist
cases
republic
fine
eval
music
became
##itting
development
##selves
organization
##rin
abs
dou
mem
##band
##ilities
light
demand
fre
##aur
##ume
foot
famous
specific
eight
rich
personal
##yn
teach
favor
ele
rout
sho
ground
pick
##ov
##hol
begin
object
##ature
##aves
couple
hun
studies
total
##omes
fight
accept
works
felt
employees
##where
sort
justice
##ening
answ
fore
fort
requirements
activities
matter
texas
increase
##ius
##imin
cred
british
beautiful
husband
gave
##bs
##ama
bring
rules
alco
grant
##orp
quick
##ogn
college
ach
cast
sil
interv
##ball
parents
##amed
doc
subject
likely
##itch
sus
soon
obs
resources
contrib
##rect
self
##ourn
impact
expect
scre
concern
delivery
lit
##aft
mult
##ny
wouldn
##itted
river
press
alcohol
considered
wonder
haven
dev
strong
commission
##ony
cann
##ining
experience
##ake
takes
lou
##me
##fact
wife
##thern
collection
began
coming
ill
nation
hear
provided
##ium
taking
achie
##irc
assess
##uced
industry
##tion
cop
fur
recogn
charact
type
mur
proper
ital
##ges
##ify
turned
vict
espe
##son
##bor
poll
aid
##atives
comes
famil
price
america
11
##ypt
univers
restaur
especially
mal
related
fle
friends
sea
leave
minutes
histor
##yc
##ential
construct
treat
##ators
##asing
themselves
milit
adrin
drink
198
reports
eyes
##ival
common
wood
##ened
sir
words
longer
##oke
##ique
regard
30
lang
brought
14
maint
##omp
single
describ
cust
goes
instead
section
journ
saint
repl
du
tv
sect
soci
involved
##urs
above
means
check
##ipp
table
##ots
entire
refer
questions
##tain
standard
emerg
##pri
worked
board
##iddle
wrong
living
expensive
figure
viol
gold
offer
hur
funding
sense
##yal
##use
sold
bir
event
appropri
##app
circ
attorn
mad
central
labor
ii
dead
village
middle
houses
changed
base
bed
lawyers
##umb
##isions
contract
received
jul
opt
late
recent
reporting
##ze
pen
pain
##ann
sex
france
exact
hall
##istic
key
morning
sett
shr
evidence
displ
recomm
detail
issue
heart
##uses
english
##bert
cath
fif
democr
economy
lik
relig
hope
archit
executive
ren
chall
places
lake
god
opportun
happened
roman
norm
ancient
##ols
visitors
item
chap
gets
proposed
vo
##ledge
surr
mrs
style
influ
foreign
##aged
twenty
##epend
happy
##amb
ens
architect
ways
front
huge
100
field
mot
struct
further
div
washing
neg
jer
##aced
education
fa
jun
anim
##arch
weather
conn
tried
cannot
applic
comments
suff
perh
poir
military
vir
##aign
population
poirot
campaign
langu
perhaps
fair
appear
prep
independ
trust
leaders
##ping
surpr
##den
##lin
##let
##ires
purp
##ler
##hib
investment
##urance
trade
moment
batt
scr
relations
higher
corpor
exce
hands
hon
##reme
plans
attack
pict
neigh
party
13
mass
prefer
egypt
unf
expected
##ental
trou
washington
er
reform
##ization
heav
##ores
##isc
manu
created
##osing
palace
initi
bon
fire
avo
mother
##ky
decision
custom
artic
inside
wide
##val
plant
acqu
##ips
green
##ring
books
following
rid
speak
buildings
gall
##airs
piece
square
son
knowledge
saying
defin
manufact
district
lower
pan
aren
gone
spend
bush
hit
##ai
express
break
epa
##erous
attention
designed
chines
royal
anyone
##aught
seven
##akes
drive
##iqu
##itor
unc
##ept
color
secret
julius
##he
select
recently
countries
chinese
mos
third
original
creat
spent
funds
effici
groups
natural
practices
character
dam
lived
boy
vot
separ
situation
##isl
##ification
mess
##ites
##lled
eat
##lus
super
necessary
##ades
serious
various
game
james
itself
training
surround
sav
request
paid
##ograph
##med
comb
household
range
desp
culture
##estern
valley
##olution
span
##issions
hotel
shops
exam
appe
pack
dog
##rupt
sand
##hood
deep
princip
spending
stone
action
scen
##set
whate
tourist
apart
whatever
bank
##ims
2000
rates
geor
cat
##fect
legisl
supposed
ju
##ource
chance
moved
##iction
students
engine
included
prim
finally
older
views
focus
km
lad
stock
##ronic
gun
ti
taxes
lack
##ike
trees
##ios
ord
located
broad
germ
##eks
##eter
save
committ
retire
clean
seemed
##ded
##ift
isra
complex
auditors
israel
cook
conduct
traditional
crow
streets
##ouch
exactly
##bur
prior
decided
narr
ingle
tourists
mary
##iled
prices
##osp
indian
reported
corn
lat
##idents
lives
guy
correct
society
ingleth
dav
wish
##und
bey
inglethorp
##go
peace
##ped
annual
mater
##of
soft
subst
cold
western
##zz
aver
card
##aries
##ams
##itten
draw
mich
reven
##uries
efforts
##apers
americans
covered
impress
thinking
##uction
##uary
##igr
wants
laws
increased
benefit
upon
##orce
conv
altern
body
emb
commer
provides
growth
position
link
notice
scul
cause
##ises
internet
vers
season
##hic
communic
cele
sculpt
died
tomb
weeks
doct
word
toward
adj
##izing
quar
garden
phys
quickly
di
throughout
islands
celebr
##utions
fell
medic
tend
##gn
china
learn
assistance
relationship
##arily
instit
additional
japanese
credit
university
den
##port
inn
##ude
indic
language
deg
##ights
discover
voice
##illed
favorite
russ
sant
##xim
##ength
establish
beyond
swe
share
largest
former
document
##oming
station
##umn
lots
##ological
##ware
reflect
established
ran
##xic
clients
page
remains
international
##ole
feat
dress
respect
production
critical
wild
##str
##ipment
insurance
increasing
evalu
ah
size
except
pred
developed
tar
mach
led
sle
father
##rod
demon
din
force
crime
role
helped
gree
hol
perfect
25
attemp
imag
bab
##inc
includes
anyway
allowed
dall
ven
farm
kept
##oon
web
bay
fem
round
##bers
##sy
wealth
proced
gardens
50
##oint
everybody
slow
cas
fix
vote
##een
##bed
##ging
##asons
battle
ban
##orr
clim
generally
pleas
dor
##uth
emissions
shopping
continue
observ
wrote
written
interested
despite
##estic
myself
entities
multip
dallas
named
basis
phil
doub
mand
exhib
published
affect
horse
items
sup
growing
##vert
products
equipment
hosp
previous
officials
sad
events
glass
purch
consist
answer
emergency
cross
fash
rad
threat
##room
mid
##oph
looks
cand
excell
mist
types
dark
##ne
paris
flow
afford
patients
##ana
##lling
weap
train
region
construction
cit
brown
steps
197
decl
volume
recommend
rights
below
internal
families
comment
trip
goals
feet
sites
practice
surv
accounting
fast
##uments
##iff
pieces
running
choice
senior
nature
operations
lawyer
letter
lu
mart
##uted
fres
##ino
hotels
appropriate
##roy
opin
difference
##iques
60
gate
agre
reading
louis
average
rain
##cise
bye
mostly
slate
investig
bought
##tered
whose
##iety
movies
neighbor
##egr
sched
##to
##oses
watching
effort
hy
install
meeting
encour
retirement
serve
trouble
spanish
ur
##aded
##ode
blue
levels
tit
spot
phot
schools
authority
blood
ded
##ceed
prison
regular
terms
##ask
##leg
medical
measure
fashion
dang
##wide
ali
effects
journal
carry
nearly
individuals
##iest
##enced
floor
administration
excellent
gar
##ables
leading
beaches
1996
winter
dut
sens
##ivity
sports
##aving
sky
je
mis
smaller
mission
##ob
##erry
##iling
offers
added
##oring
space
club
appar
occur
committee
rap
##ex
cro
##onse
##ustr
earth
killed
display
particularly
somebody
entr
certainly
regulatory
ensure
##erve
extreme
restaurants
cathed
tom
cloth
mort
##sequ
##icians
thirty
german
40
ball
alone
##astic
goods
actions
wait
fly
##more
savings
david
mic
beat
integr
accomp
guid
managers
achieve
host
master
stories
##usal
##yr
response
sounds
##edi
##olf
disp
frequ
challeng
##oud
consum
reduce
easily
##aughter
article
##reci
connect
ess
spl
accur
##iced
reasons
seek
equal
successful
path
##ha
restr
playing
##idge
army
bes
luck
##asc
##ches
##like
##ax
##ills
believed
rooms
##ban
subm
cru
quiet
sci
##ster
reli
simply
conserv
kal
parts
196
tower
##come
##ille
safe
policies
limited
jewish
jes
inj
##ulf
track
larger
liber
providing
payments
respond
passed
judge
fisc
ver
##unt
decor
southern
dro
##eed
expert
points
treas
pil
##lls
confer
requires
magn
column
2001
destroy
cities
dave
star
revenue
india
official
estimates
responsible
film
drugs
##mer
useful
media
director
walls
block
beginning
liter
multiple
cam
##ung
box
centuries
flex
fiscal
glo
pros
perm
payment
religious
castle
vac
starting
magaz
agreed
mention
stood
expand
##ls
##back
##ara
knows
cars
critics
date
adop
estimate
mix
coll
served
obvious
george
decisions
nearby
sword
methods
potential
participants
grad
interview
##anced
##iring
##ornia
budd
mountains
commercial
adjust
##iny
##ively
activity
##omb
sud
truth
spain
##ously
completely
narrow
ib
sac
forward
ability
towards
eventually
structure
catch
##atively
ready
esc
##ones
yourself
variety
christian
gives
##lier
enjoyed
##usalem
giving
pun
ut
##cil
##change
guide
greater
paying
constant
calif
jerusalem
hong
##uit
distrib
republicans
independent
spect
contains
empire
##teen
discount
series
receive
500
##lt
beg
wear
county
phone
factors
property
jama
advert
setting
demonstr
citiz
kong
spir
eastern
swim
simple
##ma
##ira
##ops
chair
exer
compl
qual
coff
capt
newsp
raised
immedi
opportunity
lay
therefore
##itely
constit
domestic
purpose
ast
rural
spoke
extra
behav
eye
thousands
hans
touch
stra
politics
oppos
avoid
cash
las
##aud
propos
aug
caught
source
##aters
analy
billion
ft
tast
jobs
none
##ners
##fort
shar
search
telev
##icted
basic
electric
entrance
gas
tick
ange
followed
associated
environmental
##vey
unless
appl
profit
occas
wonderful
animals
gi
##ett
appreci
murder
candid
##ially
meant
flor
function
professional
quarter
cathedral
prem
influence
##orrow
##ented
autom
watched
create
fishing
categ
fest
spring
tele
##ground
subs
regulations
european
route
liked
ign
omb
##ience
convers
note
england
easier
band
hang
kid
store
stopped
choose
##eys
reb
oldest
aware
assessment
attorney
eth
##iar
##put
thus
##itz
##roll
##ibly
amaz
warm
sector
micro
##wise
##ipped
##ado
meaning
strategic
bott
##wood
closed
ended
1999
biggest
born
oil
##olute
apply
affected
reached
paintings
hospital
compared
statements
charge
hanson
talked
science
hair
hurt
separate
##key
clock
funny
stores
opened
mountain
pet
##iers
##cl
resort
writ
played
walking
currently
dub
##oted
##ada
progress
sales
representation
debt
treatment
california
nine
##antage
##ague
discussed
features
##ena
seeing
alternative
##ps
shot
statement
northern
majority
association
sudden
##uing
##edy
##chan
towns
existing
greek
games
mine
arab
willing
brother
craft
1998
21
##nam
adult
prevent
directly
continued
loss
rail
##gas
##ula
numbers
race
originally
intervention
die
wine
rele
daily
positive
##can
unit
lose
assum
values
location
electronic
##ergy
claims
heavy
sleep
##ji
##rof
plants
clos
##action
thanks
married
##ucing
ideas
council
prepared
bono
procedures
opinion
bord
et
##itude
brief
assets
absolute
television
jan
match
tro
##ule
##izes
nobody
contact
crimin
caused
waiting
estimated
violence
shall
colon
target
fol
sight
anymore
emper
italian
od
worse
engage
##umption
corner
coffee
##lam
##bb
text
cultural
send
##force
compar
insp
testing
risks
counsel
breat
grew
sources
##kn
boat
evening
italy
homes
##ael
##ope
trail
uses
remain
musl
attorneys
frank
##ffic
draft
strange
minor
entertain
protection
hind
jack
##mon
theater
##ander
lew
august
##inating
forced
residents
entity
businesses
cheap
dinner
weak
offered
accounts
powerful
architecture
tal
##inated
grass
thank
terrible
listen
##ifying
##aped
earlier
##ests
introd
symb
definitely
tough
##cing
welf
temples
controls
martin
welfare
parties
capac
anti
clothes
conference
##ream
##ibilities
amb
repe
cool
disapp
1997
minim
minute
defense
conditions
immigr
horr
fifty
daughter
via
##oes
##iday
##ipt
interior
guard
foundation
conclus
learned
ben
lunch
shown
##cked
spee
manufacturing
pow
##inct
##istics
actual
holy
limit
determine
evaluation
described
fresh
neighborhood
papers
samp
##ca
##eth
alt
march
moving
objectives
july
##outh
standing
routes
err
software
citizens
tall
ult
##onna
##ulated
uns
##iveness
member
doubt
##oles
intended
robert
vegas
calls
arts
16th
painted
nap
rare
19th
performed
vari
cyn
sund
##week
student
transport
employee
susp
regarding
doctor
bag
chief
##antic
bridge
overall
firm
##raid
landsc
critic
acquis
sor
##men
##reg
##iles
##azz
##ycle
picture
cav
##ney
theory
##eless
unique
feeling
condition
identify
fasc
psy
##rial
noted
units
remark
implementation
baby
extremely
thorn
abuse
##unk
bron
greatest
writing
revolution
profession
destroyed
psych
stick
exchange
slight
newsweek
housing
identified
failed
grantees
eld
gore
sitting
unlike
surpl
cub
ride
wer
commit
##centr
situ
camping
traffic
examples
suggested
behavior
bow
vide
afraid
pictures
jesus
burn
los
client
leader
processes
susan
dedic
dad
rac
##irt
saf
strug
executives
restaurant
historical
##burgh
nin
rent
starr
comfort
dram
projects
##nes
union
willi
guys
helps
##aza
merc
mall
wed
##ette
libr
##uctions
busy
write
earn
advoc
industrial
clearly
pollution
virgin
dan
monument
pattern
statue
generation
degree
doro
weren
cow
##light
##wor
##ae
##ventions
normal
emperor
award
gent
dod
spread
novel
completed
dollar
please
hills
forg
energy
purs
records
straight
capacity
ham
jane
rise
##los
concentr
thinks
suppose
republican
efficient
gro
##da
##ray
goal
18th
network
exercise
fat
yard
##zen
relev
incent
kinds
bomb
mexic
log
##riage
hundreds
initial
material
bi
cards
##gu
##ago
rob
##ologies
golden
immediately
gather
##inary
islam
##unte
otherwise
mont
shoot
birth
ahead
understanding
volunte
22
mir
brand
shouldn
findings
importance
window
imagine
radio
rand
##ba
print
trib
##oking
feed
1995
advantage
screening
june
primary
##oh
weight
defe
leaving
finished
reduced
explain
concerned
golf
tools
lie
offices
centre
career
##icient
##liance
laugh
##eria
worry
register
snow
appeal
lady
drop
##asts
fear
desert
fully
depend
produce
conflic
michael
rue
##pa
imposs
boil
finance
artists
senate
occup
painting
push
##mber
indeed
police
survey
rulem
lux
il
##dom
##af
##eries
##reh
##lex
trial
peak
speaking
##ancy
corporate
nod
##iel
interp
##erved
pool
afric
relax
cafe
responsibility
fortun
drinking
absolutely
entertainment
speech
mac
vand
##abor
invent
depends
election
201
gallery
acquisition
oct
##adem
wel
sevent
hadn
rose
produced
changing
advice
manager
satis
chapter
magazine
jamaica
bath
##ald
##pper
compliance
decide
freed
challenges
ultim
##west
##rid
##otic
shel
##cious
interventions
##soft
194
keeping
##pective
recommendations
microsoft
filled
jury
##ij
##iro
##ieval
##gry
highest
differences
reduction
status
matters
discussion
legislation
dangerous
bul
sam
##ctions
funded
skills
accountability
17th
version
pleasant
spectac
##50
##olic
sem
##using
mel
courts
congressional
recognized
households
substant
weapons
amp
reve
##apes
helping
realize
markets
calc
football
breath
rulemaking
24
names
tree
forces
##agon
highly
players
fighting
opportunities
##has
##tery
handle
schedule
relevant
iron
scient
ton
concept
##ulous
franc
buying
guar
gothic
showed
competition
chapel
machine
impossible
gift
##ril
##uous
##etic
##ulate
medieval
merch
selling
surrounding
van
##lig
twice
##berg
supply
flat
presented
determined
ira
lif
##aging
stret
younger
double
leadership
flexibility
task
##mos
stew
waste
##ested
tri
grown
##akers
veget
developing
technical
mosque
mortality
fan
rang
##erly
##ender
strength
finding
planned
retail
stands
coverage
raise
windows
girls
surprised
dublin
gd
gh
tun
vice
##house
aspect
##ension
editor
transfer
measures
scenar
song
##oo
frame
suit
unp
somewhere
imper
vehic
happens
confir
portug
figures
conducted
medicare
amazing
library
kar
hell
##ession
lies
enem
aftern
mob
elig
organizational
jews
concerns
familiar
guarant
##ein
##ament
worried
##endish
boys
command
##enses
reviews
counter
contributions
massive
female
gradu
cup
dish
##anch
##oln
scand
argument
cart
hors
##eness
outc
marble
numerous
tests
addressed
length
compr
decre
edin
restored
asking
involve
##ancing
##incoln
swimming
fit
lincoln
rough
vast
##inal
leads
returned
options
virt
mcc
forth
##sec
loved
##cks
driving
moral
territ
santa
cavendish
edinburgh
gain
ou
##iy
##ller
saved
founded
conversation
aven
##uk
seat
compon
maintain
details
angeles
gdp
cio
wit
##mas
##othing
tea
quant
firms
throw
approxim
techniques
explained
arrived
illustr
mile
online
putting
##place
statues
lines
##do
##gs
fraud
becoming
resident
gotten
holly
skin
improved
requirement
april
cuts
##iking
shrine
honor
apartment
engineering
spirit
era
gay
lic
rub
##bal
##ville
boats
scene
decline
elements
democrats
guidance
opposite
mere
##ini
inqu
resorts
believes
accepted
unfortun
message
magnific
horses
consequ
users
compreh
fellow
##ictions
employment
facilities
steel
circum
rena
faith
dedicated
##gd
##era
##rel
##oti
chem
proud
owner
owners
audits
brok
satur
climb
title
bare
##equ
dece
##oked
scott
marriage
fired
issued
announ
movement
distance
row
renn
##ii
shad
ship
noticed
recon
consult
2002
stake
eleg
challen
discovered
vacation
bell
carter
bob
topic
apparently
aim
bound
##erate
##orters
stated
forget
##adel
heat
enh
contemp
roof
carved
##issance
inspect
explan
walked
malays
impressive
flowers
sunday
der
gal
hen
sar
##orary
##ched
proceed
pra
##ortion
##ishing
schol
models
advis
##insky
##eyer
irs
holding
damage
consistent
illeg
pic
##lers
##ita
##ulations
flight
fourth
##what
teams
improvement
victor
freedom
renaissance
rennie
300
bat
nurs
##bon
stage
##aming
haw
pray
symp
defend
forms
pointed
telling
negative
dropped
vandem
cab
furn
mond
##ta
##ham
##arian
meat
##iza
queen
contain
coal
interests
productivity
irish
principles
afternoon
lakes
neat
chic
tru
monaster
##ront
##holders
physical
vandemeyer
tenn
##bit
##iption
herself
lawn
letters
tours
hunt
attempt
native
rome
##itors
hearing
sept
orient
somewhat
burden
sections
corporation
william
male
pia
waters
##iders
webs
neither
manner
maxim
upset
academ
##encies
extent
fairly
russian
fill
lond
tiny
##ding
##gment
##ares
##iture
193
monitor
relatively
remained
weekend
learning
likes
negoti
application
kent
mouth
wal
recip
conver
owned
factor
facility
broke
##idden
attractions
picked
silver
constitution
suddenly
piazz
london
##tom
##ford
##ston
##ida
plenty
governor
entered
documents
screen
surrounded
january
dyn
ice
##east
##amble
fee
cry
carri
typically
innov
pyr
centers
madeira
runs
millions
glad
attractive
balance
nodded
bou
gamb
nav
##ses
##stein
speed
visited
conclud
customers
selection
kenn
mc
##hab
##ero
##oned
##thia
placed
amend
overs
howard
governments
slaves
instance
agreement
friendly
hyp
fing
##rence
##ais
##hi
##orter
perman
##well
##while
responsibilities
honest
fixed
alex
fal
soldiers
photograph
punish
subsid
border
bure
fab
hate
pound
##elve
loan
click
hero
192
museums
salt
roads
memor
penal
crowd
buddh
occasion
cynthia
fascinating
hollywood
##lies
##mark
##itation
whom
storm
chann
##ght
mechan
clothing
agric
scot
belong
terror
implemented
electricity
spectacular
circumst
challenge
agricult
iv
tired
ash
##cket
attend
monica
reductions
approved
managed
detailed
uncert
slowly
besides
ol
sister
##pie
##ider
smart
##raft
defic
covers
protest
reasonable
newspaper
safety
27
fgd
##com
##iment
bright
carp
accident
emphas
##ardship
basically
technologies
archae
strategy
copy
secretary
hat
content
reput
obtain
advent
##ashed
creating
materials
communication
adopted
ought
approximately
sather
##pm
carried
dism
195
scale
recover
reviewed
splend
experts
sorry
slightly
bod
jump
rat
##nic
##zar
##ils
##iously
presence
purchase
incentives
bureau
aust
enforce
hasn
pover
guil
magnificent
##nel
##aled
##icip
conven
prime
##igned
reality
patient
explore
magic
christmas
historic
egyptian
31
##atically
reag
loans
resist
fees
anywhere
active
reducing
beauty
replace
sexual
orders
aliens
dry
gonna
hers
kitch
losing
sult
##ris
whe
shock
##umes
adequ
oblig
depos
1990
succeed
operating
kingdom
accurate
proposal
sharp
poverty
bars
pages
##gen
##apt
plus
##izz
brad
cris
bask
advance
debate
motiv
mentioned
applied
hindu
ber
dance
##wards
wearing
leather
offering
##others
##iverse
publish
direction
computers
strategies
appeared
taste
symbol
outcomes
truly
##off
onto
clin
##aked
contained
##onds
join
extensive
communities
churches
specifically
eighty
initiatives
encourage
criminal
ny
##time
thick
##eration
craz
smiled
decade
artist
edge
charles
effectively
teacher
appreciate
kentuck
2a
##head
shut
becomes
intel
poison
partners
elimin
belief
processing
focused
religion
ibiza
illegal
mas
ine
##ads
launch
##ifications
wars
meetings
departments
richard
pressure
recognize
guns
weapon
decorated
advertising
elderly
witness
guilty
pm
##awn
##ari
forest
##irts
league
relief
vision
bigger
criteria
experienced
napole
piazza
wil
##hs
shape
decades
provisions
barg
portion
stayed
harbor
absor
##orpor
displays
cable
cave
fought
os
delic
notes
worksh
instruct
valu
carefully
emot
transform
privacy
villages
baseball
customer
##heim
obviously
video
elegant
code
eating
hom
sick
##tions
sharing
gods
alive
worst
twelve
fool
consumption
effectiveness
audience
functions
package
essential
distribution
september
90
fant
ky
nom
ox
oce
penn
##ties
##aling
atl
dole
sov
crimes
syn
readers
solution
entirely
animal
initiative
sculpture
supreme
duty
divers
##uff
delight
cutting
limits
harm
##ellig
wooden
democratic
previously
urban
rapid
festival
closer
surpluses
cere
alloc
cliff
expend
moon
background
statewide
valid
formal
##phere
supported
shook
independence
reliability
eligible
80
rum
va
##ober
##hen
##alia
nep
complic
incorpor
##anged
lawrence
obt
realized
increases
politicians
happening
option
selected
mistake
accomplish
random
october
dust
hide
ped
conqu
champ
leaves
fewer
careful
classical
continues
totally
purposes
landscape
##craft
spr
teen
grants
parks
delay
defined
concert
opening
sugar
medicine
russia
##rofit
monday
napoleon
26
pier
tent
vren
##oto
##owned
laid
strict
helpful
phase
ends
vrenna
bother
gates
##enance
##lying
##illy
plaza
remo
missed
confidence
allows
collections
pulled
dogs
scenes
columns
assumed
scotland
dig
hire
ot
##han
intellig
possibility
cell
motor
predict
bottom
comfortable
comprehensive
70
ath
gross
sides
##ship
##gar
##iance
##see
aside
##acing
##alls
crus
overlo
detect
amounts
describes
primarily
seeking
lewinsky
ocean
pill
vary
hey
##aker
carol
assume
percentage
fifteen
fields
adults
bau
crop
##hal
##lets
##abilities
resource
dise
remind
stuck
britain
improvements
administrative
expectations
replaced
sufficient
schedul
liberal
sacr
iraq
upper
##ext
shore
unus
severe
professor
journey
philos
frequently
troops
scholars
nix
##water
##ateau
aband
##acts
brill
diss
scared
columb
1994
organized
controvers
stup
replied
##ipping
appears
convin
lucky
forgot
unfortunately
wing
##for
##okes
disag
underst
subsequ
##crib
skies
supporting
facade
arms
representatives
jewel
destination
ridic
efficiency
institute
consumer
chicago
reputation
sultan
ec
nic
rh
riding
angry
##ivals
plain
unable
acid
coord
everywhere
fuel
calling
depict
surf
showing
possibly
crafts
interpret
scandal
crisis
bunch
##how
##fa
anse
##itan
atmos
##usion
##actions
committed
visiting
turns
presidential
explor
escape
virginia
tonight
imperial
crazy
##urb
##terday
chronic
##pping
myst
stress
smoke
joined
hardly
cheaper
yesterday
directors
protected
buried
observed
conservative
teleph
broken
circumstances
atmosphere
##iation
##icial
youth
##elines
ages
##agas
expos
discr
jones
holds
attraction
grounds
fortress
superv
alien
tomorrow
franklin
pyram
permanent
mut
tel
##ef
##zant
##inent
##entially
##ading
byzant
spons
upd
compens
recyc
tourism
contrast
15th
catholic
##going
treasury
rebu
400
##orough
stars
gray
crack
append
smith
courty
approval
facing
trading
paul
doctors
dramatic
valuable
nixon
23
soph
##lines
##tr
##ico
##iber
regional
transition
ideal
arrange
pull
flood
victims
bird
penins
submitted
pilgr
ba
bust
cig
dial
math
##ox
##rig
##rees
forty
##imp
dozen
plat
clo
anybody
regulation
raising
domin
competitive
birds
surprising
expression
connection
tickets
folks
basket
intellect
dream
sulf
taught
##sey
##erson
trend
cried
highway
investments
auditor
madrid
manufactur
expressed
literature
minimum
cu
ire
nations
##fo
##otes
stations
friday
mans
sport
##aken
depress
artif
testim
##employ
distinct
necessarily
banks
sensitive
released
conflict
ultimately
fro
fda
ga
gang
kick
sale
##ingu
##uts
chose
poland
facts
significantly
image
shoes
litig
surprise
voters
##exp
stewardship
peninsula
jim
tub
##rib
thorough
reject
##ilit
alf
plays
coop
coach
bull
smell
assert
awful
loud
prepare
ordered
##know
saturday
punishment
uncertain
33
cous
eag
kir
viet
ww
##dy
##antly
pride
##outs
appoint
assump
##ologists
represented
global
muslim
territory
oversight
assumptions
29
caves
dim
dating
pc
ring
sab
##front
##ura
##ola
doors
unemploy
feature
stream
##book
styles
achieved
recommended
neighb
candidate
category
splendid
##life
chain
signed
breed
participate
claimed
pleasure
appendix
00
##omas
lift
context
flower
perspective
harder
aircraft
affairs
summary
delivered
typical
victory
mercury
ireland
cats
dates
kings
lord
##road
excess
##isted
##osen
acknow
brick
signs
investors
improving
officer
maintenance
colorado
indiana
latest
##works
bin
##bel
##aic
##greg
resol
##aka
##agger
hole
economics
temper
largely
steep
johnson
turning
structures
expanded
vent
##oty
weir
##abbed
expenses
greatly
blow
##ugged
revol
sentence
contribution
definition
increasingly
guidelines
mexico
henry
peter
##bles
tob
##arts
graph
attest
##ogue
remaining
estate
silence
iii
##kyo
wealthy
sample
transportation
bronze
scottish
nursing
bork
cod
jail
ske
##inations
##ona
whitting
stamp
##uration
brain
desk
colors
monet
depending
1993
considering
listed
positions
films
memory
repeated
cin
ferry
util
##sa
##12
tokyo
##itals
knock
usual
implic
brings
heads
hoping
turk
teaching
settlement
normally
articles
voting
accompan
giant
categories
writer
tennis
borrow
core
ment
rank
veter
##cend
prove
truck
knowing
quit
preamble
indians
serves
slim
causes
player
ski
tells
improper
rising
volcan
suggests
combination
frequent
chemical
whittington
bout
hidden
##gers
##cas
##point
ships
sew
conce
##asty
outdo
evolution
scar
strip
studied
portra
exclus
consideration
turkey
13th
communications
odd
residential
artifacts
75
fans
tig
##ias
bear
##stairs
albert
enth
arc
explo
attrib
entry
confident
##standing
allowances
measured
properly
attacks
institution
begun
candidates
powers
aspects
soviet
les
tap
thomas
theat
output
drawn
plane
marked
opera
treated
argue
falling
##ushed
14th
catal
maryland
sweet
welcome
francis
shadow
bradley
carolina
dining
pig
tor
##uces
##gl
##verse
clar
joint
##raw
corrupt
faces
winning
occurred
sacred
florida
suspic
framework
furniture
sulfur
##itative
rein
##amber
prosec
fran
##iform
nox
enjo
faced
choices
judgment
implementing
reference
applications
uncle
relationships
exhibits
newspapers
stretch
merely
hawai
understood
intellectual
gif
wore
##wr
##aver
##lla
asian
gran
accomm
elabor
##isms
##board
failure
settled
renov
galleries
combined
germany
muslims
december
monastery
weird
accommod
ble
kil
kath
##icing
reward
forb
incred
buff
desire
assass
preserved
subt
medit
surely
feels
tested
classes
lively
characters
characteristics
##ographic
latin
sadd
reliable
conclusions
consequences
stakeholders
kos
lately
oz
tight
##acco
so2
##ached
##encing
recall
finish
cazar
switch
palest
opposed
bills
listening
lovely
applicable
preferred
capture
railway
struggle
daniel
satisf
website
complicated
exposure
boss
ramp
sought
##bby
##semb
##rose
shif
sum
sust
worker
ours
attitude
locals
sets
earned
##bey
keeps
mainly
harv
anticip
participation
devoted
##burg
survive
masterpie
commitment
bauer
stupid
fount
pit
##town
##bi
##llo
whis
enorm
driven
prev
##uese
minister
financing
##ruction
superb
investigation
ticket
islamic
portuguese
testimony
faster
##rich
##yl
##anes
asia
chick
alle
reserv
febr
smoking
monuments
legend
1992
thoughts
electron
collected
calm
involving
exciting
rocks
regardless
divided
principle
crowded
carrying
begins
inspired
conclusion
substantial
mccain
kennedy
enforcement
disease
february
35
gp
mental
meal
mah
emission
equally
##box
bedroom
venet
situations
reagan
cigar
turkish
tons
wise
##rant
##ux
##ja
##ano
inner
##anta
outcome
grace
interim
marks
finest
providers
ruins
transl
elections
ceiling
150
towers
solid
violent
sandy
scenario
explanation
gor
jac
map
nile
trop
inhab
shared
chat
trick
lee
reporters
intent
carib
poet
desper
empty
visits
charged
johnny
linked
accuracy
beside
comparison
vehicle
malaysia
ottom
ridiculous
28
hij
kl
##mar
##pay
ther
##erning
disney
prec
warri
charming
##resp
admitted
officers
experiences
##ikes
remembered
traveling
educational
avoided
dutch
chairman
buddhist
philosoph
tobacco
hijack
##my
##pan
##enz
##ania
shaped
lock
##cipl
disaster
parent
blame
publication
charges
profits
operation
cooking
perfectly
writers
volunteer
2010
gambling
occasionally
element
pitch
##wan
##fast
##20
input
stair
stared
spin
reserve
scary
handed
sanct
teachers
democracy
latter
consumers
unusual
cycle
kr
##nn
toxic
##esty
##estone
chest
yellow
uniform
overse
##aints
natalia
projected
excited
##anean
constructed
suffered
degrees
strugg
courtyard
unemployment
bol
migr
pine
tues
##adium
##ulating
fruit
chateau
worship
somehow
##ipe
precise
strike
monarch
retired
##ternal
resulted
represents
judges
pottery
existence
hung
documentation
adequate
basketball
ozone
bor
fert
pure
##met
##coming
##itated
##asion
##etr
forever
branch
serving
finn
persons
charl
##bell
annually
exceed
seriously
israeli
boilerm
boulev
lying
om
tone
vul
wage
##oir
##che
##istical
trained
191
tail
guided
stead
stepped
##ructure
sixty
analyses
convention
casual
earthqu
restrictions
colonial
patterns
components
penalty
kyoto
telephone
ae
cer
gop
rice
rival
tab
##rad
thin
##istan
blade
basil
concerning
privile
elsewhere
successfully
images
settle
principal
regularly
clubs
split
error
barely
cabin
cinem
cios
nur
pac
##uge
##gate
height
proved
deem
##ushing
alb
##oster
manual
plastic
grave
shoulder
asset
writes
instances
metal
classic
facilit
generations
promot
researchers
faa
requested
links
sculptures
tombs
folk
engagement
remarkable
dome
por
tan
wages
##cast
##ya
##oupe
##stream
##ete
##thy
##orted
plot
##ansas
elected
species
nonp
suspect
division
climate
immigration
cuba
defeat
inventory
scientific
agricultural
alfred
bio
pir
##gy
##iors
stadium
##aine
ads
impe
expense
accused
formed
performances
employers
weekly
creation
involves
waited
arrive
sunset
traveled
answered
fault
breakfast
examination
michel
weakness
altar
channel
nepal
cuis
ain
dar
hired
##bar
##itures
##omed
ongoing
shift
shirt
##estr
##essed
noise
discipl
relative
puts
countryside
explains
staying
awards
eleven
eleph
copies
handsome
priority
celebrated
holiday
survived
analyz
disappoint
cnn
fena
gagas
pink
tip
##rast
##uze
##arm
##ota
stable
##ante
leon
##enda
outl
unw
tech
user
##aks
##ache
personnel
##hips
affair
cheer
missing
securities
infrast
promote
excuse
addresses
approaches
demands
treaty
##annon
panel
requests
fresco
installation
professionals
disagree
jewelry
dancing
figh
gau
jose
wet
##la
##illes
aggress
residence
compare
sheep
##ipa
everyday
recru
flag
locations
economists
musee
receiving
falls
describe
bags
amendment
mediterr
32
36
aci
pace
ter
vital
##case
##itable
##aders
haz
priest
nov
whenever
visible
controlled
practical
description
objects
hunting
machines
danger
introduced
rarely
situated
recipients
bodies
www
mediterranean
ak
dio
nerv
roles
anton
##ingly
##imate
abbey
canal
outs
##ouses
##acted
interrupt
cock
##ensions
smile
##eared
barri
nonf
apartments
horrible
karf
bench
lind
rene
##isters
##oma
stro
stairs
##quar
evil
pocket
##ensus
finds
capable
admit
palazz
prompt
promise
winds
romans
administrator
examined
farmers
ethnic
wednes
african
enemies
avenue
enhance
enthus
dip
derry
sna
tin
wound
##comm
anth
##chal
withd
boards
1990s
popularity
authors
##aimed
accordance
recorded
bringing
pollut
substance
cousin
ottoman
boring
vs
##ois
##bre
##amental
##opes
##ordan
downtown
instru
farther
simpl
curious
advanced
airport
20th
ruled
dealing
agreements
malay
referred
contracts
examine
drawing
mixed
converted
kentucky
removed
instruments
aer
dol
dict
file
hes
pair
##ato
##attered
##owed
stroll
##the
neck
canada
drunk
scope
studying
phr
employed
continuing
operate
managing
periods
appearance
peaceful
dorcas
encouraged
buddha
qualified
astron
triump
announced
alexander
expenditures
erect
fiction
yield
##right
##ician
forum
frag
##ifies
##ifice
guadel
mayor
taxi
directed
greuze
responses
contribute
duke
legislative
cruise
immigrants
contemporary
archaeological
attestation
enormous
bost
##oque
##ora
##urally
habit
chamb
chamber
myster
acting
souven
milk
visitor
traum
allowing
egg
closely
heavily
mandatory
prosper
##known
africa
pounds
compensation
recycling
elaborate
guadeloupe
bos
diverse
hud
pul
##bul
##bound
##here
##oration
stark
##iguration
abortion
nove
repair
pope
headed
auditing
juan
crowds
commerce
exhibit
festivals
comprom
spiritual
monitoring
hersheim
gpra
tuesday
boston
hersheimmer
dre
gig
jordan
##lv
##oly
rely
##adays
##tering
gosh
trips
##acks
donations
nowadays
struck
caf
protoc
northwest
statistics
representative
romantic
colorful
ordinary
venice
conservatives
captured
premature
release
byzantine
boulevard
souvenir
ow
pont
rams
sits
torn
##days
##uting
##vered
weigh
frustr
##anda
exemp
knife
unknown
expans
consol
cairo
fundamental
##ception
blacks
authorities
wondered
solic
killing
12th
answers
1980s
reforms
impression
flying
blocks
ibm
sleeping
mirr
luxury
wheel
cant
gaz
tables
vic
##iant
##atoes
ang
proof
orange
unh
##ipts
buchan
informed
modest
resulting
confused
cream
seconds
corps
achieving
maintained
optim
fifth
widely
indicate
integrated
unlikely
##losure
vietnam
neighbors
tropical
vulner
bour
cy
dil
diction
hou
ze
##inian
##imination
assemb
prud
##une
##oured
grade
yours
lav
parli
statistical
##whel
##arrass
architectural
physicians
pilot
minority
diversity
infrastructure
pav
sau
sights
##gia
alleg
unified
upstairs
roll
##iana
conscious
remote
courses
corresp
designs
##awa
riders
evaluate
photo
decrease
dismiss
subsequent
wednesday
cum
gains
kore
lam
pad
rational
##tan
##uine
##cer
##kins
thro
inland
chosen
exotic
unre
imposed
imposing
quiz
partner
drag
##ensity
monte
assumption
mini
extr
extended
funchal
limestone
accessible
epis
corporations
##under
embr
opinions
injured
hanging
laughed
enemy
memorial
chicken
chambers
ram
##ocent
##inate
tool
##ighth
prize
sole
pla
locked
overwhel
##ubb
invasion
baroque
musical
lands
projections
encoun
acceptable
multi
discovery
magazines
satisfact
confirmed
oriented
deficit
kitchen
sophistic
acknowled
buchanan
ax
dying
##aff
##iate
wash
##irm
fright
##gean
##abled
lev
##oken
monop
requiring
flav
visibility
##riend
##bean
employer
morris
authent
refused
figured
recognition
femin
crucial
permit
analyst
lewis
groc
pushed
vegetables
praise
pyramid
litigation
aegean
astronom
parliament
55
lined
na
##aust
##idays
##urd
##keep
lean
noble
##agues
supplement
supplies
captain
personally
admir
swung
walks
topics
189
refuge
volunt
healthy
beautifully
divorce
creative
embarrass
declined
criminals
martinique
obtained
pilgrims
ceram
diox
bern
fcc
rod
tas
##rah
##iot
##eds
##oms
isol
##illing
##uns
##aki
acts
skill
passage
##engers
encl
determining
innocent
indicated
declared
integrity
errors
frescoes
dioxide
gap
##yard
##ked
##ester
##omach
orch
crown
roc
pools
assurance
parad
metric
factory
lessons
feelings
swing
weekends
passing
palais
oppon
difficulty
influenced
establishing
installed
apparel
quietly
opposition
bowl
earnings
fabric
kosov
fond
rode
##iated
##oral
forec
##ros
orn
hast
aggreg
striking
southeast
portray
##idding
identity
victim
bombing
dynasty
implications
caribbean
houston
45
aic
bond
ging
jr
pond
wid
##ria
anx
stry
shil
prohib
##osition
shell
##ubs
supports
soul
performing
viewed
southwest
nato
summar
methodology
addressing
grande
committees
globe
adjustment
proposals
seventy
abandoned
theatre
ramses
rig
rust
wolf
##field
##ki
##cher
dear
##agers
newly
joy
handling
productive
transm
salary
identifying
similarly
languages
damaged
voted
treasures
premium
hypoth
interpretation
nurse
strychn
gained
hated
pin
ug
##lied
##bour
##ull
##fall
##zes
threw
##areness
beer
shout
liqu
##acious
prest
trends
##iva
crash
craw
cents
reluct
blank
starts
taxpay
northeast
passengers
housed
prince
distingu
gentlem
license
inquir
concluded
austral
controversial
kirby
gifts
impeach
november
authentic
aicpa
strychnine
bible
cos
mit
tape
##eas
##oons
##ko
thurs
##alf
##itage
##rep
reaction
hav
exists
tran
outstanding
agents
theme
blind
raj
awareness
iran
considerable
woods
institutions
hospitals
purchased
shelter
forgotten
album
renew
shiloh
600
diving
pizz
##mir
##uits
##inity
doz
##ques
agenda
##agn
indig
regions
surg
valuation
marketing
terrace
hoped
returns
routine
universal
unfair
sculpted
recommendation
drove
scenarios
manufacturers
basilica
correspond
800
95
az
bread
cyc
dun
hiring
jazz
lod
mild
mothers
nipa
pp
pent
rot
wt
toler
##olis
external
##usted
##ems
resem
heritage
guides
decent
highlight
presents
ceo
hopes
excurs
breaking
authorized
filed
##boys
enterpr
paperwork
coastal
absence
silent
illness
checked
attacked
dressed
swords
##ettes
etc
jackson
fingers
false
columbus
bic
pays
rit
##yon
##esque
shannon
##istry
##ava
guests
provision
handled
lasted
childhood
discour
constr
terminal
administer
traditionally
granted
expecting
ensuring
ignored
ninet
concentration
gathered
roughly
component
cliffs
platform
veterans
dies
dame
jur
till
##aa
##ih
##pit
##stone
##udes
##unning
##aux
myth
undert
mons
genuine
transactions
certification
patron
nights
##ocaust
pleased
reaching
objective
maintaining
settings
initially
acquired
holocaust
constantly
burned
ghost
vehicles
mobile
delightful
erected
pag
sons
zoo
##row
##xual
##esis
##orca
anc
##oli
##olitan
deals
##uls
##ardo
exposed
offset
boom
##avag
strang
smo
assign
warn
moderate
clever
temporary
campus
palm
equival
entering
solve
solutions
argued
inflation
motion
establishment
songs
rapidly
outdoor
consolid
ls
nuc
##rument
##ka
##ales
stomach
trials
para
##erman
instrument
designated
##aws
allowance
palaces
187
cultures
exclud
dealers
wondering
deaths
fallen
stronger
denied
challenging
interviews
extraord
florence
sticks
surplus
ninety
carrier
convenient
franco
hawaii
venetian
nervous
palazzo
nucle
auction
ron
vine
##war
##night
inher
beard
##utory
##ima
##thod
ate
pron
uncon
usa
actor
drivers
relating
##ologist
plano
publications
reader
files
##onym
assessing
suffer
ladin
broadcast
##inois
editorial
reconst
atlanta
boutiques
earthquake
cuisine
protocols
42
dir
horn
lion
mun
nit
ros
ves
##fish
##ashing
##urred
shirts
conj
comedy
##acle
alike
##erves
owns
beneath
covering
passion
statutory
burning
illinois
diam
christianity
##iptions
cowboys
mexican
lifesty
confirm
sacrifice
trauma
tasks
ritual
93
cater
fel
fulf
sate
tie
wow
##lights
##wa
##troll
theories
##inos
inject
##etime
##licit
assigned
remove
retreat
personality
medica
destruction
commonly
hitler
superior
supposedly
journalists
touched
picturesque
portugal
virtually
sympath
maximum
constitutional
concerts
mystery
sewing
wtp
37
bh
dat
dal
naz
oak
##fl
##ican
reign
shade
##olate
##opher
suits
##eling
legit
adding
meanwhile
produc
planet
humans
mailers
statute
enjoyable
stops
##attle
murd
engineer
alternatives
fashioned
injury
automated
trails
finger
surface
biograph
hiking
rib
vin
##zy
##organ
##isk
sees
sequ
abroad
##aping
spo
nose
##aches
rolling
accum
descend
secure
paral
restoration
entit
talks
economically
barr
promised
prominent
puert
balanced
argent
networks
soldier
shrines
impressed
utility
advocates
defeated
fortune
merchant
convinced
mathem
monetary
prosecut
granite
joseph
ugly
dup
gulf
wines
##taining
##cy
##oning
seas
##uscan
sail
incident
##load
fox
attended
flour
belt
define
transaction
profile
##lessly
experiment
discusses
christians
subjects
historically
customs
attempts
injuries
advertise
profitable
talent
macau
intelligence
enjoys
dozens
paragraph
##thodox
dirty
satell
medicaid
nh
ted
tied
##gage
##any
##rem
##roph
##essions
notre
suic
##istent
themes
evol
190
score
indo
recre
throne
monks
edition
simulation
heading
behalf
industries
discussions
travelers
pund
jungle
deeply
substit
holidays
gateway
collabor
inev
fantastic
explorer
fountain
boris
nonprofit
cot
cott
hars
harr
ry
sorts
##lah
##orous
##alo
##sters
stor
stim
stained
##oda
exha
##ounced
gras
intention
##00s
invited
editors
proph
badly
musc
exploring
oklah
calend
armed
dominated
coastline
membership
silk
flee
speaker
legislature
##sylv
crose
prospect
guarantee
derived
carriers
emphasis
ineff
pennsylv
pierre
discrimination
philosophy
expansion
99
hatch
lin
pump
##ault
##inction
##esth
##rete
##owing
stones
libert
schem
##cription
letting
beneficial
accountable
monthly
186
availability
##liers
assistant
regarded
beds
connected
priorities
reflected
measurement
jeans
displayed
responded
verd
quarterback
graduate
dishes
cryst
innovative
deficits
rebuilt
##avery
##quarters
kosovo
nineteen
pennsylvania
cete
foster
pushing
rab
rav
tact
tapes
wol
zero
##hem
##oric
##inger
notion
driver
preced
scout
mood
phen
retain
hardware
contrary
transpar
prototy
esp
stephen
educated
madonna
jersey
1970s
treasure
relaxed
involvement
bureaucr
uncertainty
skept
weaknesses
paradise
smooth
cfo
dot
ferr
riv
tack
##lom
##hand
toph
inch
whip
yep
soil
leaf
spoken
##eled
compound
brut
brothers
reprod
apple
##ails
provin
##lands
homeland
causing
simon
skilled
naturally
arrest
arrested
villa
turks
