[PAD]
[UNK]
[CLS]
[SEP]
[MASK]
!
"
#
$
%
&
'
(
)
*
+
,
-
.
/
0
1
2
3
4
5
6
7
8
9
:
;
<
=
>
?
@
[
\
]
_
`
a
b
c
d
e
f
g
h
i
j
k
l
m
n
o
p
q
r
s
t
u
v
w
x
y
z
{
~
¡
£
¤
¦
¨
ª
«
®
°
º
œ
α
β
γ
δ
ε
ζ
η
ι
κ
σ
τ
υ
ω
х
–
—
“
”
‡
…
‰
##a
##r
##e
##t
##s
##m
##0
##2
##4
##o
##f
##i
##n
##c
##d
##q
##u
##l
##8
##7
##g
##b
##h
##p
##x
##v
##k
##y
##w
##6
##5
##3
##9
##j
##z
##1
##°
##œ
th
the
##er
##in
##at
##on
##es
##en
##or
##ed
##nd
##ou
##an
##ing
to
##al
of
##re
in
##it
##ar
and
##as
##is
##ic
##om
##ion
##le
##ent
##el
it
##ot
##il
is
be
re
that
##st
##ow
##ve
you
##ut
on
##id
##ly
st
##ct
##et
wh
ha
for
##ro
##ur
##ay
##ch
##ver
##se
##ce
##ol
was
##ig
an
##ation
##ir
##im
##am
al
##th
are
as
##ad
##ld
##ith
he
not
sh
##ter
with
they
##ul
ne
##ess
pro
##est
we
con
##ment
##ers
fr
at
have
se
##ill
##ke
##ere
de
do
ch
go
com
or
##ra
su
##op
##ould
##igh
##od
li
##ant
##ge
there
ex
##ate
##ain
kn
##pp
##ri
##us
by
but
##and
##ist
##ust
##ity
know
ab
ye
##ab
from
##ck
##ort
##ies
##mp
##ore
uh
le
##ell
so
##ight
##out
##ome
wor
##ard
me
all
this
##gh
##os
can
##ally
no
##ost
##ff
##all
##ud
##nt
##ect
##ive
##um
##iv
##art
pr
sp
ma
pl
his
has
man
one
##ough
##ap
##un
##ie
ar
##our
had
##ci
don
##qu
##ast
sa
were
out
##em
##end
about
any
lo
en
cl
##ok
like
##au
will
what
ad
tr
if
un
##ice
##ous
##ound
up
just
their
pe
##ind
##ated
##ink
tim
would
##one
my
##ish
comp
##ions
ag
us
##ong
##ah
some
##her
res
more
them
##cc
##ure
##iz
per
##if
bec
##ance
did
##orm
##ine
##ack
work
##ther
te
ta
who
when
am
year
she
get
##ide
##ans
##ven
##age
yeah
##ople
people
imp
think
##ame
well
been
##ount
##ag
fa
inc
##ble
new
exp
cont
##ich
qu
##gr
##ings
di
rep
##ence
off
time
##ely
##ations
int
ever
##able
##ays
##ach
its
##form
##ause
inter
##are
gr
##erv
ro
than
other
##ue
over
dis
her
##pt
because
fe
##ite
##ub
##ry
##hing
##itt
mu
how
app
tw
##ber
##ary
bo
19
##ose
br
##ult
co
only
la
##wn
##00
##ip
##ree
##ors
##ign
##ery
part
bu
act
##own
your
##enc
##ild
could
which
good
##ace
##ade
cent
##ia
said
him
##uct
##ass
##ical
every
cr
##reat
sc
##ak
##ments
ind
acc
pre
col
po
ve
never
comm
##ase
##og
##int
##so
most
see
now
##ens
##ang
##lo
##lic
##ving
##ep
need
##vel
des
##ark
gu
right
serv
##ire
af
rec
does
##ory
two
should
into
##ates
und
very
really
##ac
car
##ond
here
fir
want
##act
##ition
##ents
these
##ved
##ile
##ial
um
even
under
may
sm
##ty
many
look
##ord
##lect
##ian
then
att
progr
much
hel
lot
##omet
where
our
fin
after
##iss
bet
pol
thr
##ict
mo
##king
leg
##ful
years
cons
dec
way
rel
back
inv
somet
##ices
##ater
going
sy
got
##cial
##ities
##eral
##amp
mon
program
##ick
ass
rem
tra
op
old
also
str
though
inform
##thing
sec
##ert
##ft
pres
reg
##old
first
##its
##vern
long
##ces
##les
##elf
jo
##ual
##ons
diff
down
##oth
##ys
spe
make
##und
made
##iew
##mm
eff
prov
cost
information
##ning
high
##land
too
through
##ious
##ath
govern
##way
##av
##ouse
##gan
state
didn
##ail
##ational
bl
##ood
##ury
requ
sch
ke
##fore
take
still
supp
ev
##we
pub
great
##ress
##lud
those
law
ac
##other
##erm
##oll
##ib
count
bel
##fe
used
oh
help
##ract
litt
fl
##ility
##urn
little
say
report
something
bus
##oc
##ject
##ied
gen
stud
##stem
call
##iver
id
before
cour
system
##ise
##ating
##als
mean
##ible
add
sub
##cess
use
##ting
pers
things
##get
##ily
find
sl
##ather
legal
##uring
house
own
##ular
ob
wr
includ
emp
##ards
fam
war
##orn
government
city
dep
##ced
##led
ll
##ited
vis
##ange
sur
cap
##pe
such
##ually
##oss
bas
##ks
##atch
##ways
day
differ
show
par
##eric
interest
##olog
pay
disc
##mb
##ures
again
art
199
prod
being
hand
##ph
around
el
fed
mar
ph
americ
place
stand
inst
kind
##ics
##lish
found
##sc
small
##ool
real
ca
agenc
##ues
##ative
##ered
mod
end
##ug
plan
same
##rib
tal
loc
world
ret
val
##ix
set
child
ga
##ene
ed
last
##rect
##con
##aint
##oup
organ
always
dr
##rol
public
red
est
##ms
##ants
ent
ru
hu
ear
##cent
ins
town
def
##oney
##ves
century
min
resp
anything
stre
care
lar
federal
##let
while
##ives
##kes
##ked
##ident
##day
del
organiz
start
rev
home
person
import
both
##ars
nor
three
let
rest
##ower
far
num
##ody
money
proble
##ying
pri
##ew
appro
school
##ss
sim
read
##ork
mark
ref
##ines
thing
##osed
sou
char
build
happ
sin
perform
##ists
seem
big
##ific
met
cle
pop
##red
services
##ets
thought
cor
med
##ern
point
##ently
dem
av
fact
belie
eas
##ek
hum
##ution
##ably
aud
life
during
play
##iness
effect
come
put
eng
fund
national
post
less
book
##tern
##ear
case
##ren
##chn
prop
few
##ween
##conom
between
lead
rule
sk
service
sure
##velop
best
##ains
em
conf
might
each
econom
wom
tri
another
iss
incre
bar
##ided
percent
det
away
##ters
chang
aut
mil
hard
cur
techn
##air
##xt
sign
form
dist
air
must
##cept
develop
##ized
nothing
product
different
##urch
partic
doesn
since
control
##hip
##ins
country
##res
##ically
##ids
compan
manage
adv
hist
went
##ull
important
##ds
design
bene
conc
result
##ention
##pl
island
consid
##ilt
aff
##ined
tax
##loy
business
feel
muse
watch
head
sit
##be
##ital
keep
gra
ser
##uss
direct
quest
open
##ata
better
jon
##az
area
visit
process
near
##self
tour
200
##ason
temp
##ever
##ash
che
fun
##der
four
##uc
commun
room
benef
##io
news
##ural
##ism
number
once
turn
why
cert
sen
states
trans
water
cover
##ward
run
view
children
adm
ext
##ier
mr
yes
##ling
ty
##rew
allow
ide
guess
wal
da
hot
##ross
##ired
##ron
times
##alth
pat
##gest
finan
management
left
##ize
##co
anal
support
sw
##ten
##body
mail
data
maj
##ately
##man
invest
##ollow
poss
mill
without
account
##ected
##te
const
##que
##ale
##ient
miss
test
prob
men
done
prof
tell
follow
programs
##ts
employ
week
museum
president
sever
exc
camp
bud
doing
##ared
mus
port
##ality
expl
south
major
unt
ter
land
white
ra
##oun
##ley
clint
##gress
cre
mat
stu
gl
elect
intern
prot
##els
##ec
complet
called
gao
##ric
group
north
pret
##read
##ained
##ology
pal
##ee
built
##ger
clinton
##ides
ris
secur
bad
american
000
church
give
five
##ton
underst
##ged
pass
##ians
kids
night
##ats
##ought
##ior
probably
impro
require
shop
priv
##oy
able
##orts
equ
inf
contin
nat
class
beh
review
20
enough
certain
came
##ends
audit
ann
along
seen
today
crit
collect
youn
office
took
job
hour
##ute
stat
month
pract
polit
##less
large
18
sect
opp
everything
##ness
##ock
##ned
street
mor
dri
##ral
lsc
##side
##wh
next
against
##ead
family
name
##ner
market
##ruct
grow
##ank
term
until
##ision
congress
oper
top
several
main
stay
var
pretty
power
change
arch
##ases
rece
performance
fri
auth
##ote
financial
##augh
level
giv
summ
center
ap
agency
second
##ames
agencies
security
ok
##ees
costs
cal
##lement
huh
##ages
clear
cond
polic
##gy
##iet
##ime
course
bill
##ened
##ither
##aper
general
tre
gener
sal
##uck
##vers
capital
examp
known
project
##hn
trad
understand
##ump
##ering
meet
activ
avail
believe
##ised
##ember
dra
##ether
curr
analys
repres
##ave
offic
however
##ey
##li
enj
low
isn
invol
provide
won
exper
past
##iel
##ted
##br
##lex
##ining
##ivid
mov
hal
##per
##aring
john
deliver
united
local
depart
bro
says
##upp
stop
saving
##ional
##ency
##ission
six
pa
##most
##used
##ified
having
free
##ased
park
##idd
story
##ken
told
##pped
problem
least
##ccess
##ability
ey
asked
building
getting
rul
side
else
women
san
har
##ument
estim
road
gard
lim
sing
gre
cut
vol
saw
doll
thir
##ending
health
try
list
##oot
often
black
wasn
cho
##ured
order
available
wa
million
whether
##ients
almost
vill
reason
##eng
sta
occ
looked
based
cult
##gin
ste
budget
mer
problems
##ored
##enn
actually
##ances
study
represent
orig
young
whole
mount
days
fig
success
exec
making
beach
everyone
##up
tot
##ibility
enjoy
ident
ago
pie
mag
individ
prom
##imes
jud
site
wall
##aster
regul
aw
##sel
##lished
live
10
comput
fac
tomm
idea
analysis
hous
##cif
##ont
history
jap
tommy
##ench
ple
##emp
experi
deal
japan
wind
sug
win
food
quite
author
individual
sat
question
half
court
changes
15
social
##sh
origin
indust
desc
discuss
##idence
sound
tupp
##ina
wanted
non
okay
rather
interv
respons
tuppence
pur
yet
##ried
including
##ived
addition
pos
##uation
##iting
bur
accord
ir
present
among
ho
##ences
##ensive
full
resear
lawy
research
##aim
heard
bre
organizations
company
##pect
west
sun
##ources
york
true
##ife
enter
rom
fut
maybe
17
##anc
##enty
brit
benefits
##ries
estab
##bo
##omm
remember
##ively
within
ce
##ret
hold
working
##arr
bra
es
##rict
popular
##rist
stuff
##ories
tow
fil
technology
possible
execut
##lev
##ps
arm
hor
bit
makes
issues
private
either
king
##ended
manag
hop
tex
short
outside
example
cra
##hod
##ination
someone
##aut
income
sil
step
interesting
postal
early
il
travel
standards
blo
nice
cann
##ued
##ening
using
east
later
##na
meas
sol
##irl
##ane
signific
access
across
temple
fish
seems
future
amount
##hold
special
admin
##ration
##line
lear
imm
trying
hill
abs
agree
needed
##ison
easy
given
face
systems
wond
enc
buy
final
become
12
##utes
##ateg
##uce
env
needs
results
##pr
address
ep
girl
##par
##iod
usually
lab
##ister
civ
prev
eu
talking
##soci
##aces
method
coup
modern
vi
##atic
bal
reach
associ
##aking
poor
##fer
period
rate
##itions
christ
oth
sty
suggest
coun
##ulation
quality
coast
colle
particular
others
##ortun
miles
##ows
ant
net
##cient
##0s
door
profess
##by
prin
taken
daan
hus
pot
##over
economic
mom
looking
init
16
##att
fail
##ivers
dom
toget
##elt
##cip
specif
matter
##ott
simp
jew
consider
ge
together
im
##raph
move
educ
staff
team
paper
beaut
##ape
cannot
##iding
##ilar
value
##ru
ten
record
assist
anyone
approach
started
##where
significant
##work
foc
particip
##band
department
mind
alth
##itting
held
policy
death
include
improve
drew
flo
##fully
##ze
behind
knew
sometimes
computer
hund
##iron
worth
human
although
squ
hundred
euro
line
tur
##icult
environ
##ready
already
official
##ica
according
##ety
compet
##ove
##cially
claim
attract
##ming
drug
##gle
talk
civil
french
accept
fine
shows
##illed
typ
music
couldn
woman
grand
##ense
dest
exact
##aining
love
##unch
##hol
##ilities
##por
himself
haven
model
##atory
ground
difficult
##bs
necess
exist
##ese
##iter
##erg
arg
summer
##ush
implement
sent
risk
##ising
repub
eval
scre
regard
organization
europe
administ
##aps
husband
paint
##ator
impact
fall
defin
rock
##yn
alco
development
single
##ished
##mbers
demand
hours
##sw
fre
areas
rout
rules
texas
environment
dollars
total
increase
members
##rop
fav
required
became
cred
return
republic
determ
sort
community
div
##kely
alcohol
dou
infl
lou
##rin
justice
similar
lost
planning
entire
concern
foot
dev
tradition
##ges
movie
protect
current
##irc
age
fort
studies
##ov
personal
requirements
deb
mem
##itted
##ogn
##acy
grant
commission
walk
##selves
##itch
companies
months
eight
object
##ature
##ama
delivery
##chie
##aw
##oring
##amed
sus
couple
river
##ume
subject
close
bring
gave
activities
rich
thous
wouldn
considered
thousand
light
related
fell
press
collection
##aur
##ius
friend
leave
cases
sn
##fact
resources
british
cast
##ium
answ
begin
##aves
ele
sell
##imin
univers
ital
political
##ann
expect
doc
achie
vict
living
parents
self
ones
##iful
##thern
histor
recogn
ii
comes
cop
began
hol
obs
assess
##ield
eyes
famil
11
turned
type
##iously
##omes
teach
construct
fore
contrib
felt
hear
workers
198
mal
##fect
##itive
##ourn
aren
##rem
goes
circ
pick
sir
treat
##lin
##ential
works
section
provided
college
fight
##atives
reports
saint
##ony
refer
espe
wife
##oke
employees
describ
mult
nation
##ograph
taking
##yc
especially
longer
completely
involved
fur
##pri
roy
##ler
aid
price
famous
sea
##iddle
experience
wood
takes
questions
strong
houses
##uced
quick
14
mur
above
##urs
poll
america
opt
wonder
table
##umb
adrin
located
bir
vo
##ators
themselves
instead
appropri
issue
lang
coming
wrong
tv
##use
offer
roman
beautiful
due
dead
words
figure
##den
##ify
middle
ask
conn
surr
milit
charact
restaur
exactly
##ffic
hall
##ball
central
norm
##rible
##val
likely
##asing
heart
gold
repl
poir
standard
industry
mad
applic
##oura
poirot
inside
morning
##aign
check
unf
recomm
village
bed
##bor
drink
campaign
maint
soci
means
evidence
reporting
perfect
journ
god
sense
##ping
board
##son
cath
comments
attorn
jul
##gn
france
brought
chap
contract
jer
soon
cust
##ny
ancient
##uses
archit
##ots
hands
effective
pen
proposed
detail
base
speak
##ai
##tain
relig
avo
viol
hon
washing
##istic
books
received
##bert
minutes
key
labor
architect
##hib
##isions
english
30
##epend
proper
visitors
conv
displ
shr
common
recent
mrs
style
##ledge
favor
stra
neg
vir
twenty
lawyers
square
attention
changed
worked
sold
front
fair
mass
anim
##ring
##urance
unc
sett
tried
investment
arr
appear
independ
further
ran
executive
decided
bush
##gypt
kept
opportun
du
manu
huge
leaders
late
##ization
allowed
created
egypt
democ
13
mot
none
plans
expected
household
happened
langu
washington
pain
##amb
purp
##ky
sex
trust
initi
economy
foreign
mos
##ique
places
manufact
##app
##lus
chall
chines
perh
education
weather
struct
palace
moment
james
lived
ens
corpor
surround
mother
relations
reform
buildings
emerg
pan
##unt
item
influ
chinese
perhaps
##omp
##ik
lake
desp
drive
##ores
piece
##isc
funding
request
military
er
decision
surpr
designed
##ake
##ols
strateg
100
population
hope
son
peace
district
royal
jun
pict
party
fif
neigh
express
valley
hotel
epa
gets
##airs
third
whate
attack
whatever
span
boy
##iqu
##ental
separ
following
ban
ways
##arch
knowledge
germ
ti
##issions
funds
friends
necessary
acqu
hit
hur
lower
color
dam
##ped
##ims
##ival
gone
##isl
##ceed
recently
julius
##ction
action
prep
event
saying
fire
itself
2000
green
##estern
arri
clean
appe
included
specific
##ena
##ires
super
apart
spend
plant
break
##itely
stone
natural
bon
##osing
practices
ill
lad
##thor
##ades
artic
select
##ios
##ouch
scen
gun
reported
auditors
culture
##ging
altern
ord
##venue
##ronic
groups
##olution
remains
princip
trou
exam
trade
original
stri
stock
spending
dav
##hood
secret
custom
indic
##ource
##ification
engine
seven
cat
gall
creat
##eter
situation
gree
ingle
nobody
shops
card
##ites
sav
##itten
game
range
##ef
dog
medic
pack
ut
##ded
##ana
complex
##uary
chance
##ief
finally
legisl
geor
voice
inglethor
corn
##zz
##iled
indian
seemed
##umpt
##for
notice
##uction
eat
credit
rid
##med
##of
##he
except
higher
annual
ang
deep
inglethorp
dor
##ript
word
supposed
americans
assistance
western
streets
hi
ali
ju
russ
force
cook
affect
broad
sand
isra
countries
paid
character
israel
##xic
comb
vot
efforts
happy
effic
taxes
mary
##umn
retire
##eness
moved
km
lack
mich
adj
views
provides
sant
quar
committ
subst
established
soft
crow
cold
trees
##port
##aries
bey
##ams
##ung
covered
paris
focus
spent
##oes
communic
mess
##osp
expensive
reflect
aver
##hic
upon
##ological
prior
internet
gardens
definitely
bay
pred
throughout
garden
swe
link
ah
prim
older
additional
body
emb
##ole
cele
evalu
##ises
##izing
traditional
celebr
narr
guy
training
interested
university
rates
vers
##eks
conduct
language
lat
##rod
season
position
##uries
share
china
instit
emissions
myself
phys
establish
despite
wide
sup
growth
society
laws
critical
attemp
bank
lives
##apers
insurance
islands
various
toward
##ipment
draw
japanese
imag
##set
inn
##ara
commer
continue
document
cas
wild
##cks
##ights
##rupt
cro
father
mater
relationship
##oon
correct
increased
benefit
##bur
##arily
ven
tomb
doct
beyond
dall
##ror
##ob
clients
##iction
written
den
mach
former
certainly
ign
sle
##eless
alone
##ift
below
##row
##oint
station
role
batt
dress
clim
impress
decl
international
shopping
named
students
##aught
encoura
wish
##erous
published
slow
respect
absol
everybody
##roy
dallas
bi
cross
##ne
##utions
farm
##ude
save
happen
##vert
proced
died
scul
equipment
##ength
goals
developed
sites
prefer
practice
sculpt
fem
comment
anyway
cause
round
tar
entities
terrible
dro
pleas
observ
construction
hy
web
thinking
##aced
wants
install
senior
##go
##inc
##leg
led
feat
slate
emergency
##een
##uth
##oph
train
discover
democr
kill
size
##sy
prices
doub
##oming
mand
weeks
tourist
##tered
exhib
phil
tend
##estic
families
25
##ware
fres
events
deg
letter
generally
floor
louis
rap
vote
##onst
quiet
wrote
patients
dark
##iff
cru
appropriate
##bed
spanish
cand
fix
clos
opin
production
steps
rights
##scape
carry
consist
sched
##bers
##aded
scr
surv
serve
fash
mention
##xim
197
sky
answer
bab
mort
tit
brown
measure
recommend
##itor
##idents
din
path
reb
stood
wealth
club
difference
increasing
horse
page
medical
material
hosp
sens
##more
rad
sad
whose
1996
officials
ball
bought
gar
choice
field
##uted
closed
master
##ipp
##iling
##room
includes
pieces
multip
ur
looks
occur
gate
weap
accounting
authority
60
hers
basis
effects
sounds
ara
mart
##iced
meeting
##edi
region
david
##ux
##ode
running
glass
german
average
##ban
blue
movies
retirement
threat
complete
items
heav
space
phot
products
regulatory
##erc
earth
nature
terms
perm
excell
internal
##astic
mid
##rel
##usal
crime
connect
##egr
##wide
disp
##iques
##ha
growing
purch
##ax
##idge
##ivity
simply
fast
##cious
cloth
goods
flow
entr
leading
2001
operations
##ba
##ches
hotels
individuals
50
ded
ess
hate
luck
##utely
bye
agre
guid
display
jes
##olf
extra
levels
beaches
simple
quickly
##uments
schools
easily
administration
cathed
sports
obv
extrem
volume
particularly
types
ful
feet
walls
flex
##iny
box
learn
journal
##enced
payments
investig
fashion
revenue
##oses
actions
blood
destroy
achieve
sci
somebody
india
hong
##ira
offers
helped
managers
##erry
integr
reading
yourself
column
winter
cit
##ox
##sequ
spl
reduce
##aughter
spot
equal
trouble
mis
##ex
mic
mist
##ster
##cked
accomp
subm
respond
media
judge
savings
##ips
hunt
lawyer
tower
cam
kong
##rit
##come
stories
added
largest
ensure
40
##ially
##entions
effort
thirty
army
##asc
##asons
cars
avoid
absolutely
excellent
reli
dave
spoke
mountains
ver
##onse
payment
nearly
dut
host
pil
beat
##ables
fly
liter
##anced
##iety
cities
##to
lots
passed
hans
film
participants
ft
##ma
star
discount
response
believed
afford
bri
remain
estimates
basic
magn
mission
immedi
committee
##back
##ille
##vey
##ests
##ills
safe
adop
budd
lit
potential
adjust
##yr
196
regular
empire
watching
treas
phone
oppos
##usalem
hom
##ented
ability
grad
wait
administr
jerusalem
##atively
sud
favorite
lay
omb
##gg
associated
religious
contr
conserv
rain
neighbor
decor
paying
eastern
giving
confer
drugs
article
smaller
southern
##uit
warm
points
rooms
mountain
restaurants
##erve
##change
stopped
bott
fle
source
chair
setting
frequ
route
bord
restrict
playing
alternative
touch
served
consum
pros
sac
requires
distrib
serious
raised
policies
independent
hanson
##put
truth
mostly
progress
director
opened
newsp
magaz
interview
fisc
##ones
constit
responsible
expert
decre
trip
domestic
property
straight
entrance
##eed
##reci
note
constant
republicans
animals
##ously
remained
##ornia
nearby
beginning
george
commercial
bom
##oud
##rap
compl
imposs
sector
jewish
greek
multiple
##ops
contains
tourists
glo
##oh
##cy
##aters
tom
liber
centuries
series
analy
limited
ast
hang
kal
rural
critics
inj
accur
affected
calif
billion
estimate
successful
narrow
fiscal
date
gives
spring
expand
1999
continued
clearly
##aving
knows
sor
##lier
##ask
capt
married
talked
charge
watched
jan
demonst
swim
beg
convers
anymore
advert
providing
useful
northern
##teen
activity
christian
battle
sudden
##fort
##cil
receive
towards
##chan
prison
##aged
autom
intervention
jack
forward
parts
remark
directly
castle
science
fest
je
meant
statements
behav
eye
##ners
create
currently
occas
impossible
##cul
county
ready
european
agreed
##cl
##wood
##ament
unit
meaning
1998
starting
structure
killed
las
pun
tick
compared
appl
decisions
cathedral
band
loss
ul
##iar
##ule
assum
electric
regulations
environmental
candid
kid
mine
wear
exerc
guide
england
opportunity
strategic
born
gi
hind
##men
##icians
therefore
methods
assessment
purpose
21
roll
spir
wel
hair
apply
dail
sitting
worry
greater
larger
please
influence
##ergy
##itz
worse
played
propos
stayed
estimated
angel
ren
##ope
spect
firm
statement
aware
reached
association
professional
categ
ib
jama
nine
##ino
coff
sword
jobs
##oted
##iring
shown
contact
electronic
politics
failed
gas
reasons
spain
entity
variety
aug
dub
store
sho
##ula
chief
resort
fishing
attorney
doro
dang
fol
##eys
##bing
##ada
shall
values
factors
micro
vac
cash
##gas
stores
weak
suff
tele
volunt
corner
##umption
sleep
daily
eth
pet
##cing
##dom
##key
##aped
telev
risks
italy
samp
##uing
search
separate
quarter
##rof
shar
opinion
brief
500
cry
pra
prem
coll
towns
listen
##ils
rele
clock
interior
desert
oldest
debt
mix
sight
##ience
compar
flor
followed
paintings
challeng
california
rail
##tim
##antage
craft
qual
ended
##force
gore
send
capac
match
introd
evening
##ibly
limit
wonderful
catch
los
wine
##aud
thus
representation
originally
discussed
claims
existing
##ander
boat
choose
regarding
described
features
bag
et
##ta
lew
unless
assets
##week
minor
cultural
treatment
destroyed
##wise
colon
target
##wor
##rial
unli
##ground
appar
bes
bor
daughter
##inct
alt
cheap
procedures
tast
##making
appreci
bron
italian
theater
plants
saf
##ibilities
predict
nap
##eror
##itable
text
brother
seeing
standing
testing
musl
##rated
##vely
shot
sund
##rif
incent
bridge
identify
violence
architecture
jesus
cyn
##ji
##riage
disapp
crimin
manufacturing
##ham
##onna
newsweek
learned
thousands
attorneys
rue
##zy
location
performed
counsel
council
hell
majority
condition
behavior
##ris
##ipped
##lam
sev
19th
shouldn
insp
engage
implementation
susan
historical
breat
caught
games
##outh
##antic
mexic
repe
doctor
doubt
hospital
ben
##iles
willing
symb
funny
sales
##levant
anti
screening
##inating
##itude
amaz
identified
industrial
entertain
bono
ahead
clothes
immediately
neighborhood
lie
uses
minim
##ucing
201
##ycle
pul
wer
welf
##iers
##los
##inated
frank
union
offered
calls
defense
transport
holy
acquis
prepared
fully
welfare
via
thorn
##iveness
amb
thinks
robert
march
member
fresh
od
uns
numbers
ideas
18th
hills
evaluation
bow
##light
units
prec
writing
routes
television
fu
vide
starr
willi
##izes
grass
vegas
murder
citiz
##ael
##mon
##roll
conditions
draft
pollution
normal
race
tro
energy
##azz
capacity
##bb
##ae
noted
##arely
situ
temples
function
dollar
determine
protection
golden
conference
rand
##ream
earlier
##liance
coffee
weren
cub
grew
##ney
theory
thanks
commit
statue
martin
pic
papers
##inary
actual
suggested
16th
birth
restaurant
august
gent
##mos
concent
libr
anywhere
1995
pattern
hurt
##reg
##eth
dod
lies
client
adult
cool
spee
dram
advoc
walking
discussion
concerned
##ado
lose
##ague
##uctions
monument
minute
brand
objectives
michael
22
cow
psy
ride
##ca
##oles
student
findings
foundation
refused
conclus
accounts
##ushed
susp
cav
homes
mall
trib
##nes
forced
exchange
controls
feeling
recognized
heavy
oil
##rant
##can
##irt
1997
revolution
employee
projects
##ancy
pictures
jury
nod
##mer
##mber
forg
##istics
survey
arts
vari
psych
golf
bul
bell
lunch
yard
compliance
thank
relax
importance
processes
completed
generation
immig
grantees
software
radio
##iday
stew
##pper
rose
parties
guys
records
appeal
##adem
abuse
worst
camping
initial
gro
sources
comfort
emperor
households
imagine
dedic
award
fasc
stick
##asts
offices
guard
write
conflic
purs
executives
july
eld
fat
pu
tough
##ulf
neither
##action
walked
picture
lady
burn
lux
##ray
##ago
flat
surpl
accountability
painted
unfortun
chapter
mortality
flexibility
ira
ken
plenty
earn
totally
die
filled
##rid
afric
moving
examples
dinner
intended
pool
##aza
scenar
##burgh
dan
dad
nin
rise
##berg
track
depend
career
critic
interventions
republican
eventually
schedule
##otic
islam
shoot
unp
mont
technical
##ields
virgin
baby
bother
##west
##50
##ortion
spread
overall
suppose
challen
mel
wed
##ois
##eria
print
traffic
satis
profession
mosque
businesses
housing
presented
weapons
tiny
##has
##ested
concept
##elled
##ologies
stands
stated
depict
understanding
responsibility
network
version
pow
busy
17th
arab
##iest
greatest
markets
prevent
acquisition
##zen
keeping
enjoyed
accepted
effici
library
##da
defe
incor
interp
##akes
status
##fficient
machine
boring
tun
vand
##mark
##etic
residents
courts
produced
senate
waiting
occup
mir
##sec
feed
finance
terra
election
entirely
extremely
opposite
oct
forces
strange
happens
rulemaking
advantage
window
legislation
recommendations
der
pull
rent
##mas
forth
##abor
rob
police
showed
funded
powerful
burden
cards
laugh
names
##olic
##ightly
novel
##ender
centre
gothic
defic
explain
involve
june
exercise
angeles
##gu
##ieval
194
register
produce
medieval
matters
competition
surrounding
relevant
goal
guar
audits
congressional
pleasant
ultim
entertainment
speech
aust
franc
peak
command
##enses
chapel
medicare
substant
jane
##nam
waste
carri
helping
reduction
merch
virt
bath
##lig
##bon
##ald
liked
bob
organizational
advice
coverage
wid
##cket
##soft
biggest
opportunities
corporate
degree
microsoft
iron
##oking
compon
easier
apr
block
girls
drinking
painting
fifty
noticed
founded
positive
concerns
familiar
fighting
era
por
rang
van
##dp
##gd
##house
enh
##erved
fear
strug
editor
circum
gradu
guarant
amp
bou
lines
##equ
##sid
##oned
haw
sept
leaving
##ifying
strength
marriage
cafe
retail
engineering
dublin
fan
gain
##verse
sem
log
boil
indeed
vehic
firms
gotten
differences
kinds
skills
announ
freed
fortun
holly
santa
cab
mcc
rough
##ein
##cra
veget
elig
caused
territ
requirement
reviews
double
ton
##pa
asking
aspect
aftern
speaking
leader
snow
spectac
24
cart
gh
##reh
inqu
##ession
##raid
mac
resident
boys
decide
highly
inspect
restored
portug
irish
honor
gallery
hyp
january
sam
song
tall
##uous
##orters
shut
invent
supply
transfer
glad
surprised
primary
magazine
ol
vice
##ero
shad
weight
lif
faith
##ension
realize
stret
skin
trial
issued
changing
moral
manager
massive
breath
gift
gdp
scient
##inal
frame
buying
academ
jamaica
##ugh
tools
online
chic
##iving
finding
handle
confir
tests
irs
illust
cio
##iy
##eries
plain
otherwise
fourth
returned
perfectly
female
guidance
constitution
##era
forget
##ched
193
depends
artists
measures
counter
determined
challenges
william
gather
##iro
##ulated
outc
192
lawn
numerous
raise
topic
facilities
football
apartment
april
##oti
##othing
##oked
perman
relatively
believes
developing
##insky
regardless
attempt
citizens
hors
rub
##af
##ctions
heat
carter
consult
##eyer
arrived
border
sorry
swimming
vast
reve
##endish
roof
reduced
players
leads
##place
contributions
options
corporation
tap
##tom
##ding
##ett
whom
shel
dece
unique
pointed
factor
##idden
windows
silver
previous
suprem
apparently
sunday
dedicated
cup
dry
hat
sar
##uk
##emeyer
seek
carved
direction
profit
merc
figures
argument
screen
victor
nodded
row
##rate
somewhere
contain
finished
models
explan
selling
maintain
surrounded
efficient
title
herself
spirit
cavendish
vandemeyer
##anch
##tery
scand
##akers
afraid
flight
productivity
hundreds
democrats
bat
kar
users
2002
responsibilities
##pective
malays
##incol
unfortunately
circumst
tree
waters
##com
##ells
##unk
imper
##agon
twice
schol
slaves
instance
explained
younger
consistent
gamb
lic
mile
##ev
##oo
tea
owned
details
shrine
fairly
suddenly
##incoln
lincoln
mouth
pia
##adel
amend
contemp
overs
throw
monaster
highest
application
rome
##amble
chem
##apt
1990
edin
movement
elements
slowly
proceed
##using
unable
agric
coal
symp
advis
satur
##ancing
encourage
magnific
conversation
horses
edinburgh
fgd
##itness
hadn
worksh
decline
distance
telling
innov
impressive
afternoon
agricult
iv
forms
##thia
compreh
grown
madeira
basically
conclud
cuts
negoti
communication
dropped
##ught
dyn
jump
length
nav
rat
##atically
manner
compr
brad
interests
operating
improvement
copy
selection
incentives
##hi
pray
content
mob
facility
jews
eighty
leadership
mentioned
cynthia
piazz
##hab
##ini
##inger
recip
consequ
seat
##pping
lakes
planned
techniques
roads
russian
conducted
buddh
fal
furn
gal
lond
task
##bal
##ette
##ulous
quant
##ront
driving
archae
hen
native
pm
##nel
##lies
ship
chann
aband
hasn
loan
provid
runs
statues
physical
300
ber
bound
##ardship
entered
balance
eleg
honest
secretary
photograph
hollywood
hun
mond
##ais
##ford
##ita
queen
owners
emphas
letters
stake
amazing
freedom
esc
kitch
thom
##erly
##arian
worried
meat
enem
resorts
marble
museums
agreement
addressed
attractions
principles
##ription
aliens
vacation
london
egg
mc
##nic
##well
##stein
neat
tru
##ishing
speed
volunte
aim
bars
kent
conqu
carried
guns
video
september
gay
rena
##pie
##ari
alive
fraud
orient
clothing
reductions
approxim
reasonable
discovered
fixed
gonna
##rence
##alia
##itation
##aming
dole
mechan
scene
explore
steel
appeared
alex
bure
##do
##ston
whe
wearing
tours
patient
churches
calm
drop
male
ox
sister
tenn
reag
hearing
hero
presence
governments
##phere
landscape
harm
kingdom
strategies
hindu
ice
nurs
##off
shape
resist
boats
scott
subsid
oblig
advent
communities
damage
shook
spectacular
renn
monica
owner
putting
barg
improved
managed
##holders
tor
##ico
becoming
intel
dism
##encies
##issance
strate
helps
holding
picked
uncert
challenge
##iture
##ida
adequ
##gry
disag
##aked
hardly
employment
harbor
illeg
learning
teams
message
obvious
adopted
gentle
renaissance
strategy
fill
va
##ares
##umes
maxim
placed
##ishment
technologies
processing
extent
possibly
dish
wil
##gen
##itors
loved
divers
awful
negative
initiatives
obviously
##east
##ii
onto
stage
offering
scot
scale
sections
broke
britain
silent
memor
fellow
pressure
documents
initiative
splend
rennie
ot
ought
##oved
##eration
##orary
##enth
##ulate
smiled
charles
meetings
focused
loud
flowers
supreme
27
gross
##gment
forest
ash
proud
plus
##aret
##owned
fired
smart
join
defined
approved
option
neighb
random
ba
bod
##lers
##bit
##aled
strict
collections
computers
urban
reliability
electricity
symbol
magnificent
bureau
dow
ky
tel
##ville
##icip
alloc
enforce
click
remaining
provisions
publish
visited
##ashed
weekend
criteria
christmas
debate
##heim
russia
fascinating
##time
##road
fees
pover
wars
defend
increases
reviewed
historic
newspaper
applied
bust
ny
pound
sather
notes
sharing
##iza
centers
consumption
trail
elimin
approval
supported
experienced
unlike
bond
gri
saved
195
confidence
classical
advertising
occasion
piazza
truly
dust
##irts
##iment
leather
leaves
loans
howard
##igned
edge
effectiveness
religion
safety
napole
pyr
##cel
##here
atmos
anybody
##anged
governor
empty
terror
salt
magic
friendly
sharp
lewinsky
nom
##oto
##alls
fee
launch
1994
belief
parks
limits
horrible
attractive
columns
poverty
atmosphere
fool
##ober
plat
expend
diss
##others
instruct
reality
skies
advance
transform
covers
calcul
soldiers
crowd
litig
bottom
october
eligible
outcomes
26
witness
##cceed
##gl
##hen
forb
succeed
laid
effectively
trading
departments
typically
egyptian
purposes
##umptions
observed
proposal
pill
sult
sufficient
sov
prime
carp
syn
obt
obtain
recognize
lucky
chicago
fant
mas
##stand
webs
append
cris
happening
audience
portion
absor
replace
customer
rapid
connection
purchase
decorated
assumed
teleph
fab
sides
##water
##eling
suit
attend
belong
privacy
penal
superv
festival
forgot
circumstances
kentuck
ath
os
##zant
##erate
##ola
atl
likes
byzant
expos
assumptions
statewide
orders
distribution
kenned
permanent
gates
##pm
##kn
##wards
##zar
league
mah
plaza
overse
crus
##lets
organized
fewer
##what
villages
victims
motiv
essential
##craft
80
##iance
storm
##sey
contained
acid
protest
represented
implemented
independence
creating
bau
cats
dim
nic
oce
##lines
reject
##ellig
reput
phase
carefully
delight
emot
percentage
professor
specifically
detailed
animal
indiana
criminal
scholars
elegant
intellect
ped
upper
wing
##head
##za
##zed
shock
##elling
arms
cliff
partners
carol
##actions
formal
wooden
penins
rebu
pilgr
monday
fields
mut
##elve
conven
plays
active
everywhere
poison
richard
customers
democratic
incorpor
interpret
eating
penn
rum
##aly
somewhat
##cco
depos
readers
functions
sexual
literature
treasury
scandal
peninsula
2a
bunch
fit
aside
myst
##agas
recover
##acing
assume
ends
detect
beauty
catholic
package
materials
contrast
dig
gang
champ
##ateau
resol
bigger
allows
missed
##while
hole
silence
solution
experts
mexico
pulled
bout
gau
##ext
##ls
hey
clin
teen
bright
remind
lawrence
courty
valid
distinct
supporting
facade
15th
motor
closer
appreciate
hire
kos
pig
pier
sab
##rig
##ses
##iation
##ket
whitting
spok
dise
guil
smith
directors
opening
cutting
amounts
fortress
birds
arrange
manufactur
stewardship
scotland
napoleon
31
##yl
##ilit
becomes
intellig
showing
realized
confident
describes
selected
institute
philos
elderly
iraq
oversight
ferry
##orter
##uts
##ading
chronic
##antly
##ria
grants
overlo
regional
protected
representatives
grounds
expectations
replaced
frequently
surpluses
appendix
whittington
code
ww
##jack
chose
gods
sole
subsequ
slightly
##ugged
visiting
explor
stuck
auditor
significantly
definition
ordered
fuel
efficiency
nix
rh
riding
sale
##han
thick
bear
doors
joined
cave
continues
iii
madrid
peaceful
ignored
schedul
guidel
consumer
tickets
ocean
##ike
##now
##itals
sew
##aka
vision
delay
journey
displays
submitted
decrease
comprehensive
guilty
escape
fo
##ties
##itan
spr
appoint
larg
revol
tells
devoted
appears
scenes
accomplish
duty
ibiza
taste
conflict
approximately
23
70
cere
soph
##aling
compens
coord
##aker
columb
decades
relief
improving
opera
##employ
buried
crazy
crafts
kil
##la
##greg
##entially
##imp
conver
truck
artist
possibility
teacher
medicine
alien
sculpture
splendid
90
cell
cable
dance
ring
##ura
##uration
writ
reducing
##ifications
yester
delivered
paul
typical
recommended
transportation
largely
bin
fought
vren
##gs
##rees
proven
##erson
spons
mans
##ached
moon
decade
concert
allowances
exclus
turning
bird
replied
structures
expressed
climb
sample
illegal
nixon
yesterday
vrenna
jim
tub
excess
nox
arc
coop
crimes
committed
background
tourism
ideal
stup
failure
claimed
conservative
comfortable
imperial
saturday
kennedy
##cas
forever
clar
unemploy
implic
191
accident
attrib
spec
1993
temper
presidential
listed
##box
improvements
necessarily
applications
institution
troops
virginia
territory
bradley
uncertain
##oty
##illy
stars
alf
resource
brill
brick
politicians
measured
previously
fifteen
sultan
reputation
hide
kings
tig
##uces
whis
##rose
sport
expenses
feature
twelve
##acts
poland
assert
artif
retrof
marked
facts
signs
aircraft
millions
understood
positions
suggests
applicable
dogs
candidates
welcome
dangerous
eag
##dy
##icing
##lying
stamp
##asty
upset
reporters
gray
preamble
calling
slim
affairs
turns
johnson
##book
domin
achieved
surprise
weapon
newspapers
crisis
bull
losing
nations
sick
##sa
##icious
nep
##isted
enth
##agger
dial
scar
1992
plane
admitted
primarily
sensitive
bomb
bronze
2010
dramatic
chemical
ack
ble
lord
##edy
##icial
forty
##amber
shoes
ages
coach
convin
##kyo
expression
voting
restrictions
giant
muslim
residential
intellectual
33
caves
dating
peter
##life
tokyo
input
##otes
##ulations
##usi
surf
discr
waterf
officers
choices
punishment
released
commitment
boulev
hawai
guidelines
##ship
desire
transition
folks
minimum
acknow
ug
viet
##my
##bar
##bel
##enance
anse
shaped
##racy
##outs
pride
reference
normally
banks
pleasure
wealthy
increasingly
liberal
ottom
exposure
fer
ire
tired
##right
##rors
##stairs
stations
chat
chain
unkn
##aging
context
extensive
investments
officer
steep
regulation
styles
division
germany
##exp
franklin
thomas
push
##rations
##ingu
stared
##osen
trend
upd
recyc
blade
greatly
jones
merely
jewel
consideration
divor
avoided
settlement
colorado
occurred
dates
fro
gif
vary
##bi
##pes
##ona
##abilities
##ella
##ivals
poet
recall
monit
depress
ruins
stream
surely
##ruction
sugar
holds
image
memory
uncle
##going
administrative
cod
cous
dar
om
pages
sulf
tab
vent
youth
##raw
knock
clo
complic
tail
seeking
serves
monet
basket
portra
summary
teaching
repeated
satisf
malaysia
pyram
unknown
##20
highway
helpful
ski
classes
14th
surprising
carrying
hunting
odd
scenario
francis
abandoned
29
gor
nile
tons
##fa
##uable
##inent
stair
chest
knowing
unus
quit
raising
rising
brain
turk
baseball
daniel
aspects
tennis
ireland
barely
cried
mig
pond
thor
##eland
##essed
##arts
attest
##ologists
entry
signed
testim
projected
participate
flood
turkey
competitive
convention
principle
maryland
latest
category
gambling
telephone
dream
##gers
##zone
##rian
interim
buff
visibility
estate
minister
feels
natalia
facing
victory
attacks
exhibits
mistake
chairman
global
begun
shadow
carolina
fans
hated
kir
inner
anton
lift
so2
contro
colors
##ogue
smoke
careful
bills
breed
settled
relationships
venet
sadd
ultimately
december
monastery
henry
nursing
fda
vul
##aven
##fri
##fast
##iber
##ki
##ja
##adium
febr
accomm
recon
legend
flag
heads
treated
broken
sixty
sentence
sweet
survive
earthqu
candidate
##works
muslims
islamic
tonight
soviet
february
accommod
cer
cycle
pure
taught
##wan
shared
serving
assass
evolution
flower
writer
investors
staying
drawn
ceiling
participation
##ography
ordinary
cooking
doctors
masterpie
accompan
railway
reagan
00
kr
pad
veter
##aver
##case
##ya
##zing
thin
##inem
##ania
asian
dozen
output
user
##aken
subt
equally
volcan
constructed
accuracy
substantial
explanation
disagree
cu
cig
ec
lately
math
rare
ramp
tone
wore
##how
##point
##encing
##icked
persons
perspective
corps
emission
countryside
keeps
grace
switch
exciting
creation
elected
palest
contribution
mercury
providers
bauer
fount
jail
asia
conce
friday
abortion
lee
lev
nowhere
blow
thoughts
johnny
elsewhere
falling
teachers
##ographic
hijack
voters
begins
adults
artifacts
controvers
element
##bles
##pan
toxic
stable
alle
ships
chateau
exceed
lovely
incred
##ints
preserved
personnel
##ternal
anticip
argue
embra
celebrated
installation
sacred
sacrif
channel
courtyard
ottoman
dens
gp
theat
##ano
##itative
stadium
##semb
fruit
sust
studied
charming
corp
##bey
collected
##ructure
requests
fresco
##ipping
expanded
beside
stretch
kyoto
##standing
disease
75
bork
core
pair
yell
##nn
##anes
stead
prohib
prosec
reserv
##iform
earned
##resp
cheaper
admit
towers
characters
maintenance
prepare
articles
communications
innoc
categories
www
stupid
28
dining
derry
les
ozone
##bby
##12
prove
outl
faced
depending
visits
improper
20th
drag
involving
experiences
winds
remembered
approaches
ridic
documentation
borrow
situations
conclusion
pink
rarely
##itures
worship
whenever
elabor
cazar
economics
transl
divided
superb
clubs
accurate
altar
downt
sulfur
bol
erect
reward
##che
shif
##istan
fault
brings
finn
considering
tested
practical
judges
combination
sculptures
reliable
scottish
enforcement
ugly
turkish
fost
hidden
tent
##rates
monuments
asset
finds
parli
handed
auditing
prompt
accordance
##aimed
##annon
declared
degrees
florida
consequences
furniture
philosoph
dol
##rast
##hor
##arm
rein
ham
outdo
carib
blame
phr
valuable
responses
copies
ticket
thorough
400
ae
aer
rice
tan
vs
wages
##erning
toba
##asion
##eline
##anta
outcome
disney
consol
removed
subur
visible
instances
player
seriously
privile
infrast
facilit
traveled
solid
educational
implementing
principal
linked
latter
remarkable
disappoint
framework
kosov
enthusi
torn
##met
##zes
##isms
##imination
frag
plastic
##quar
enorm
usual
worker
gran
relative
disclos
instru
charged
analyses
blacks
judgment
priority
announced
stakeholders
boulevard
instruments
cet
##rich
inhab
##stream
##esty
##estone
##orted
lean
uniform
blank
parent
driven
ruled
films
rocks
breakfast
strike
characteristics
tombs
dutch
cuba
vehicle
agricultural
website
writers
parliament
32
gagas
kath
mental
sought
##rants
##rane
##inations
##ota
##stal
stab
shift
mak
buchan
accused
pocket
desk
guided
finest
##uese
harder
financing
elections
electron
palazz
authent
treaty
arrive
crowds
folk
conclusions
african
powers
portuguese
tobacco
hud
pitch
ske
##coming
aggress
residence
faces
smile
basil
mainly
promise
description
traveling
13th
indicate
galleries
encouraged
sleeping
comparison
colonial
mccain
amendment
avenue
boss
fena
hung
trop
##gar
##pay
##orrow
albert
explo
scope
finish
causes
publication
charges
affair
musee
enjo
healthy
150
attraction
destination
bringing
error
combined
latin
situated
components
archaeological
byzantine
testimony
##ranean
35
dome
##eing
##hal
##oma
##chal
shore
shirt
deem
sum
##istical
branch
##ipa
smo
traum
capable
weekly
sanct
nonp
suspect
contribute
pollut
bedroom
adopt
capture
besides
cabin
adequate
expenditures
penalty
buchanan
jac
lor
angry
##thy
withd
meal
map
lock
expense
disaster
strang
annually
harv
stepped
describe
examine
legislative
dorcas
##burg
regularly
tomorrow
patterns
enhance
struggle
36
bost
kl
rely
##oir
##hs
##omed
##owed
##imate
lively
##ante
leon
nov
##arel
indians
shoulder
1990s
concerning
operation
##board
addresses
examination
links
cruise
investigation
inventory
buddhist
authentic
boston
aci
pc
pir
tin
wage
##rad
anth
##ird
chamber
gop
orn
##ushing
##anda
recru
ours
monarch
presc
corrupt
cheer
excited
classic
listening
successfully
eleph
holiday
democracy
sandy
exhibit
frequent
bags
alfred
gpra
cios
cnn
fert
lam
lind
ment
pin
rams
tues
##fo
##ato
reven
##iguration
orange
quiz
##aks
attitude
writes
retired
sets
headed
northwest
promot
universal
violent
michel
crowded
climate
split
weakness
ethnic
infrastructure
smooth
dun
jord
kore
inland
canal
spin
plot
compare
##ensions
cairo
trips
##hips
explains
objects
answered
denied
festivals
minority
kitchen
vietnam
rational
ze
##ipt
##ads
heaven
exemp
nove
##angel
metal
puts
controlled
resulted
generations
sunset
12th
images
malay
mosa
israeli
survived
africa
scientific
unemployment
monitoring
cinem
gains
wet
##uze
forum
alb
##illes
noise
faa
warri
mediter
triump
advanced
continuing
achieving
settle
appearance
panel
examined
indicated
physicians
inspired
engagement
immigration
puert
carrier
dynasty
cousin
november
ain
bos
##uge
tool
ongoing
stark
##urally
##aders
abbey
prud
spa
##ques
unw
reserve
##ansas
impe
apparel
cock
smoking
stress
parad
locations
farther
performing
performances
formed
visitor
funchal
mailers
morris
receipt
apartments
quietly
terrace
karf
memorial
bodies
attestation
vulner
mediterranean
na
pine
rene
wound
##har
thurs
##oupe
##ici
stroll
assemb
##adays
height
hast
manual
##ouses
nowadays
mayor
supplement
marks
musical
securities
opposed
winning
researchers
administer
periods
existence
architectural
opinions
permit
prosper
wednes
boilerm
unusual
figh
nur
rode
zero
##lor
##the
##cipl
conscious
assumption
joy
blind
caf
##eared
allowing
promote
romans
requested
fifth
establishing
declined
hospitals
administrator
release
introduced
recipients
litigation
compensation
ak
fiction
pit
pont
roles
tu
##oque
##cast
##comm
##urd
alleg
neck
exists
##enda
uncon
imposing
scary
souven
curious
raj
managing
pottery
recorded
casual
venice
machines
installed
##oxide
astron
renov
concluded
wheel
diversity
600
bench
cant
nuc
rig
##inian
##ingly
##ifies
joint
missing
statistics
romantic
epis
optim
committees
danger
platform
species
basketball
frescoes
souvenir
nucle
jose
##iant
##oli
##thouse
##tering
fran
trick
emer
graph
##idding
##attle
demands
contracts
substance
drawing
ignore
discovery
hanging
captured
scenarios
professionals
laughed
hypoth
ramses
jordan
bour
dull
hug
hired
pent
pace
sits
vital
##ko
##kins
haz
asc
shil
proved
weird
exotic
scared
invasion
extended
walks
excuse
southwest
protoc
operate
topics
represents
awards
iran
entering
encoun
acceptable
diving
premature
component
strugg
volunteer
occasionally
complicated
tuesday
ax
cy
cyc
hes
jr
lined
rod
wise
##acc
##uff
##bell
##bour
stairs
habit
chamb
orch
##opes
canc
sheep
##agn
roc
lav
informed
plano
valuation
charl
resulting
portray
eleven
1980s
maintained
strip
juan
hersheim
heavily
buddha
magazines
suffered
bowl
relaxed
groc
burned
defeat
enormous
hersheimmer
bible
tip
tape
##iated
##gate
##omach
gosh
##usion
aggreg
highlight
##ception
feelings
greuze
##engers
accessible
coastline
falls
motion
colorful
riders
evaluate
vegetables
downtown
aege
kosovo
45
##ros
weigh
chick
tran
discipl
requiring
landsc
189
##like
identity
addressing
prince
similarly
femin
unlikely
criminals
alexander
kentucky
pilgrims
nepal
jewelry
shiloh
aegean
nerv
##iot
##keep
upstairs
somehow
yours
everyday
assurance
employers
passengers
statistical
receiving
nonf
dressed
farmers
jackson
satisfact
implications
consolid
dil
ow
pund
rac
vine
thri
shout
##osition
imposed
dioxide
repair
remove
trained
evil
corresp
baroque
involves
figured
housed
dealing
georg
commerce
editorial
contemporary
acknowled
cuis
yellow
elaborate
correspond
dir
elev
file
faster
gig
lying
rival
sna
##cr
##lv
##itage
isol
##uls
##oured
locked
theme
##agues
boom
boards
##aki
regions
supplies
prize
barri
productive
exclud
palais
limestone
pleased
grande
answers
handsome
errors
killing
analyst
widely
earthquake
erected
hou
lu
pushed
##bra
##esque
##rep
##uting
forec
dear
chosen
##aine
pla
diverse
##ubs
modest
simpl
metric
humans
economists
taxi
northeast
nato
salary
granted
##awa
victim
ladin
preferred
praise
roughly
neighbors
obtained
subsequent
gifts
ceram
diction
jur
sel
##oly
##ij
##bound
##wa
threw
##stone
shell
##illing
canada
##apes
outs
myster
useless
tech
pope
directed
swing
lands
cream
seconds
pacif
representative
burning
encl
referred
multi
reforms
greece
##rupted
integrity
pilot
adjustment
consumers
constantly
oriented
dismiss
55
aven
dame
mit
ine
##itated
##isters
beer
##amental
external
##istent
##abled
##une
ads
unre
myth
resem
heritage
##ensus
mini
personally
employed
drivers
hoping
conservatives
interpretation
mystery
divorce
venetian
theatre
cos
fing
gained
ram
till
wolf
##attered
##organ
##utory
nose
##iva
offset
##ipe
partner
acting
indig
guadel
lessons
supports
swung
constra
employer
severe
passing
187
authors
murd
creative
closely
seventy
ridiculous
wednesday
dirty
dre
dancing
luc
tas
##iors
##don
##esis
##oms
unified
expans
grade
distingu
waited
authorized
deficit
merchant
inquir
enemy
forgotten
palazzo
tropical
bread
jazz
nit
naz
ros
##iate
##erable
##ales
##ician
##vered
shannon
guides
secure
studying
captain
starts
admir
statutory
breaking
solic
destruction
determining
objective
properly
alternatives
impression
mexican
luxury
defeated
sewing
sophistic
recycling
astronom
chambers
guadeloupe
93
bic
fel
nich
pag
rit
sights
vin
thro
##cher
crown
desper
throne
soul
designs
designated
##bean
transactions
prototy
passage
equival
##whel
recognition
duke
sculpted
mandatory
portugal
fabric
converted
cigaret
nonprof
aic
dict
lion
mothers
nipa
tight
##lied
##lights
##gage
##eds
##asm
hamm
##irm
proph
liqu
##usc
##uns
sail
commod
##lands
medica
transm
summar
filed
argued
proposals
lewis
ninet
virtually
vehicles
innovative
spoken
explorer
puerto
houston
bern
cater
ron
##eas
##tan
##oons
##days
##bul
##pit
##xual
##inate
ate
noble
190
cents
carbon
refuge
factory
fundamental
grab
agreements
paperwork
acquired
etc
boris
immigrants
earnings
confirmed
hawaii
innocent
renew
medicaid
az
gap
wow
##aa
##aust
##uits
##vings
##inos
##isk
##isely
##isons
stomach
wash
##essions
##ache
relating
struck
warning
talks
palaces
projections
dealers
##arrass
popularity
connected
neglect
voted
drove
fulf
bombing
ibm
concentration
involvement
austral
pounds
manufacturers
portrait
aicpa
800
horn
rust
sons
##rument
##iently
##war
##any
##alf
##olis
##ardo
newly
crash
pools
trails
##under
instrument
retreat
edition
delic
covering
campus
##lessly
oppon
mainland
significance
wondered
coastal
considerable
returns
attacked
embarrass
measurement
recommendation
opposition
qualified
advocates
ninety
ultimate
spiritual
false
enemies
supervis
caribbean
phrase
##quarters
basilica
thursday
ritual
37
auction
bare
cot
cum
ly
lod
wt
##born
##ka
##oration
stor
##ima
sees
##ums
##okes
diam
boost
##licit
smell
##icted
provision
belt
courses
handling
define
simon
beneath
taxpay
apolog
authorities
focuses
maintaining
corporations
damaged
permitted
purchased
integrated
martinique
deficits
guarantee
95
dies
dup
finger
##fl
##night
sha
conj
seas
##udes
trends
##00s
actor
assigned
editors
deliber
skill
airport
patri
profits
palm
blocks
deaths
difficulty
beds
speaker
shrines
supposedly
hiking
confirm
shelter
comprom
rapidly
discrimination
pyramid
##friend
trauma
impeach
fcc
pays
##rent
##rating
##ias
##va
##areness
##amm
cans
outstanding
overwhel
recre
monitor
provin
delhi
profile
terrif
hitler
surplus
academic
resistance
boutiques
nuclear
##mir
##ester
##orious
##olitan
abroad
donations
enact
##aux
preced
polish
flour
subsc
clever
trials
deter
headquarters
certification
##boys
craw
hillary
balanced
influenced
striking
##riptions
substit
extreme
collabor
strictly
rejected
42
ls
ligh
lag
pupp
tie
tied
##ih
##zo
inev
##idays
stry
hav
##roph
alab
##thod
doz
knife
##agraph
acts
monop
remote
presents
genu
adding
surg
produc
entit
viewed
villa
awareness
enterpr
illin
methodology
assistant
rocky
subjects
assessing
1989
jersey
arrested
ensuring
procedure
flying
prospect
swords
carriers
athlet
rebuilt
intelligence
antonio
foster
strychn
illinois
39
hub
##trol
beard
reign
react
anc
suic
lips
agenda
prepar
guests
monte
schem
flav
weekends
greet
promised
hoped
solutions
absence
reaching
networks
strongly
mandates
garb
verd
injured
constitutional
maximum
protocols
strychnine
dat
hars
wol
##aff
##mother
##makers
toler
##isan
##ican
stim
##rogen
notre
##ulating
proof
fright
##ello
unne
incident
exposed
reprod
disg
pregn
##load
##lock
##acle
undert
legit
decent
slaver
retain
reader
metrop
excurs
nights
statute
identifying
discusses
crack
traditionally
settings
superior
boxes
responded
picturesque
lifet
ratio
fantastic
uncertainty
staircase
satisfaction
nonprofit
##thodox
slavery
fancy
gulf
oak
piz
##orca
inher
##ashing
reaction
stan
stones
shirts
##eller
loy
indo
poly
planet
milk
stops
ceo
travelers
poorly
seaf
languages
initially
banned
sweep
institutions
treasures
injuries
christianity
quarterback
mixed
derived
license
atlanta
delightful
masterpiece
aerob
48
99
fond
mild
##rest
##ui
##wr
##ala
##rete
shade
abc
yep
spare
##aches
moor
mons
discoura
letting
monthly
fallen
beautifully
attempts
extraord
complaint
sevent
kirby
density
outdoor
disclosure
nurse
dying
fate
pp
##field
##inity
##atures
##orous
toph
##idable
worn
intent
meanwhile
paragraph
badly
driver
terminal
##liers
steven
dominated
turks
1980
romanesque
reflected
displayed
journalists
fashionable
discounts
occasional
occupied
sympath
emphasis
cliffs
veterans
hastings
viney
fingers
cotton
wtp
topham
ari
rivers
ted
tut
tables
yield
##bc
##hem
##char
##rapped
libert
agents
##agers
reconst
cares
carvings
marvel
childhood
publications
allowance
patron
landmark
passion
armed
customs
util
broadcast
observation
##related
globe
rolling
cowboys
macau
lifesty
convinced
unnecess
34
crop
hatch
wines
yach
##ll
##10
reorgan
stal
anx
##oda
prest
##ems
compound
explicit
commem
mood
moderate
tale
revised
confused
economically
southeast
behalf
marketing
christians
assessments
circus
unfair
attempted
installations
rapier
crucial
paths
camera
adjusted
homeland
touched
sticks
retailers
victorian
bauerstein
prosecut
franco
chicken
dozens
cott
ceter
dot
fbi
gest
rico
ts
wave
##fare
##lah
##pir
##vas
##atoes
##oning
##enberg
notable
comedy
##usted
##unning
invo
##athers
fled
obsc
depth
margin
edward
transaction
186
oklah
fisherm
inflation
referral
woods
checked
soldier
illness
indicates
utter
reflects
priorities
celebrate
impressed
exhibition
injury
automated
suffering
targets
ghost
mobile
carpet
inhabit
ornate
exempt
prosperity
cage
kel
lin
pitt
vend
wan
##vre
##jo
##alo
##asant
##owing
whip
chin
soil
ark
intention
whereas
traged
acres
flaw
slave
1991
coron
directions
2020
discussions
princess
recording
circle
campaigns
quarters
establishment
babies
contrary
expertise
demonstration
assuming
florence
inspir
dramatically
suspic
graduate
songs
gathered
eliminate
columbus
concerts
francisco
fountain
steady
philosophy
facilitate
01
crew
cfo
lau
mwe
riv
tack
vic
zoo
##vin
##inter
##rets
inject
##omo
##stit
anger
##mental
suitable
##opher
adapt
comply
##ignment
##ocaust
warn
handled
phara
availability
stephen
wondering
membership
historically
holocaust
cataly
crose
photo
treasure
demonstrate
advertise
counseling
bargain
bonds
surface
chatter
triumph
pacific
tasks
aerobics
65
dirt
fet
fox
hm
##rome
##uel
##alle
##urning
##olta
suits
unim
quint
legs
reluct
invited
phen
locals
refuse
barnes
ruling
descend
esp
silk
balcon
civilization
modeling
references
drinks
arrest
exception
evaluated
1970s
borders
neighborhoods
dependent
inspection
granite
cuisine
44
bib
mun
tends
vba
##liss
##bre
theories
##ouri
##eled
##idency
##olished
shiva
prol
sequ
spo
sailing
usa
dipl
##osexual
accum
afgh
moors
preserv
spear
ohio
obst
caps
##ologist
marry
simulation
engaged
heading
serb
temporary
admission
passes
naturally
satell
120
colleagues
expecting
polls
appropriations
appeals
engineer
engineers
camer
bottle
jeff
jeans
incentive
porch
fortune
advisory
springs
retrofits
cete
joseph
harsh
lifetime
loyal
commemor
98
bart
mud
tort
##laimed
##pread
therap
##ora
##oul
##ador
procl
##uscan
##istry
sauce
##acks
bund
score
colony
thrown
smallest
publicly
refres
tripp
excav
musc
traditions
horror
worthy
argues
snork
madonna
alike
affects
evaluations
integration
tapest
agriculture
pierre
mathem
withdraw
nineteen
49
kle
lis
nar
naked
pap
pav
pushing
rating
sending
##taining
##mar
##ym
##oric
##elle
stained
##cho
##olo
notion
conrad
##illa
cha
##oped
socc
impose
intake
overcome
brothers
precious
attached
suppliers
##ressed
farming
format
2005
exploring
generated
experiment
cultures
representing
enjoyable
dealt
attracted
credibility
contractor
arranged
utility
scrut
mortgage
submit
decreased
meaningful
challenging
precisely
tribes
worksharing
convenient
scheduled
alleged
sophisticated
datab
oklahoma
soccer
faint
ms
nh
nas
nick
pork
sorts
wool
##iat
##his
##vic
##ker
##ongh
tok
bears
stro
##olate
nema
deals
orthodox
butter
envelop
clou
moreover
workforce
##asso
shoulders
capita
elastic
##ribly
imported
milan
reviewing
sixth
rulers
identical
failures
acceptance
demanded
nonex
drawings
essentially
literally
1960s
interviews
demonstrated
premium
introduction
engagements
concentrations
puzz
aimed
osaka
##angelo
pentagon
grocery
suicide
61
pist
rot
rib
##mand
##oe
##lord
##bled
##inction
##esth
##orse
##ching
##imm
worsh
unh
comptrol
themes
grin
twin
brut
deserve
##iana
attended
persu
slight
lasted
sinai
hardware
concrete
crete
hook
files
balear
regarded
holidays
##onym
deeply
##sylv
gateway
homeless
losses
hindus
crystal
repeat
bathroom
academy
prayer
eggs
pennsylv
kilomet
pollutants
analysts
ceramics
dictionary
nitrogen
inhabitants
comptroller
cree
cited
duck
oly
pale
##rison
##ga
##pers
inches
##eld
hamp
forests
shog
neut
loves
resolution
script
##irect
highlights
evol
visa
producing
instinct
personality
airlines
racial
classification
currency
lowest
steam
execution
hopes
measuring
antiques
competing
device
obser
bayliss
crossed
mandate
flexible
achievement
immediate
distributed
matching
limitations
fatal
peaks
guaranteed
announce
proceedings
jumped
escaped
bustling
pedest
exclusive
brilliant
conventional
jacob
prudie
assembly
boilermakers
expansion
moorish
diplom
67
kash
ry
xv
##ault
##aire
##rical
##tes
##mond
##fish
##iable
##down
##gal
##isite
##sters
##olly
##ader
gov
abra
abund
leaf
##ieur
##endous
timely
incur
actors
invaded
joke
evident
flash
owns
warned
warrant
produces
##ugawa
talent
returning
restoration
salv
questioned
industries
solve
absurd
princes
failing
jungle
physically
bike
fleet
disappeared
industrialist
pursu
merchants
navy
adventure
sponsored
poetry
volcanic
sacrifice
michelangelo
aggregate
throat
impeachment
extraordinary
pennsylvania
olymp
kashmir
aqu
dances
hc
hates
honey
pension
rush
ties
vig
##pered
##vy
##imental
shorter
frust
##abeth
##uman
pron
##cia
outer
unexp
aged
##izabeth
scout
ourselves
buses
parc
elizabeth
mines
refers
charm
demon
easter
lesson
##ounced
arches
summit
calend
volumes
merit
irre
179
bitter
suggestions
fails
11th
contributed
norman
germans
casa
connections
purchases
investigations
expanding
predicted
variation
territories
tapes
fantas
overseas
mansion
evolutionary
anticipated
revenues
weaknesses
genuine
surgery
garbage
tragedy
hcfa
700
bang
baza
dur
dumb
ease
hip
pump
waves
zone
##rous
##bits
##ederal
proc
severn
##udi
trump
tact
moham
tracks
string
joe
##ocr
payroll
distract
communist
dawn
accountable
classified
188
paused
listened
prominent
##pson
shortly
davis
catal
packed
legislature
sensit
complain
applies
voluntary
hello
wedding
boiler
honorable
amendments
launched
succeeded
solely
schedules
monetary
satisfied
aggressive
zeal
tokugawa
38
77
cem
kiss
pak
tong
tang
wag
##ras
##mony
##hand
##anas
lobby
clut
univer
perth
que
offs
monks
barb
barry
missile
profitable
singer
armor
hillside
basement
##lusion
arrival
planted
fashioned
literary
prisoner
remarked
renowned
textile
depicting
institutional
eager
surprisingly
controversial
electronics
emerged
nervous
subscrib
lifestyle
unnecessary
chatterbox
universe
dwell
ger
lan
nave
races
vet
xiv
##itudes
stalls
shame
seats
##geous
alliance
interven
apple
##look
wanting
marg
caes
##ugs
worldwide
drunk
ruined
populations
proportion
beneficial
sectors
reasonably
promen
sounded
hearings
ranking
panels
districts
wildlife
encouraging
sadly
hosts
jean
suffer
luxur
feedback
transferred
scientists
atlantic
appointed
ceremony
depression
skept
diamond
ancest
catalyst
afghan
mohammed
bh
bast
bree
ging
gord
gender
han
hond
pose
rushed
wis
##rick
##ture
##gic
inexp
istan
bearing
##child
##iga
##amic
##add
fred
##uset
outlook
whatso
tai
contest
##achuset
colored
##active
##iano
backed
slopes
insur
priests
posted
technological
affirm
extend
wake
175
texan
couples
bald
professors
difficulties
circular
checks
godd
straw
massachuset
consistently
threatened
sampling
monumental
luxor
criticism
incorrect
inspector
revealed
allocation
beliefs
emotional
intelligent
waterfront
pirates
murdered
pizza
monsieur
prestig
pharaoh
unexpected
whatsoever
41
bold
bapt
cbo
mol
vivid
wand
##lined
##bl
##ider
hect
##illo
exit
##umin
spark
spots
clust
trim
##ishes
aging
boots
mock
trav
costly
##ails
##resses
visual
transpar
trem
generate
filing
antique
civilian
devices
painter
lacks
focusing
evaluating
versa
casino
crops
climbing
photos
aston
suspected
symptom
subsidy
dishes
mansions
cooper
incredible
vulnerable
administered
hazard
vineyards
pakistan
istanbul
dy
dud
dign
dental
kick
mere
nu
pants
rab
sik
wins
##kin
##igan
frowned
dean
exha
##ortions
##aping
cloud
pear
fake
incidents
brid
coat
presidency
supporters
skull
museo
follows
singing
##shire
determination
devast
lights
stronger
commonly
cleaning
formerly
ignor
battles
accomplished
analyzed
naples
minimal
cuban
fortunate
publishing
synag
scholarship
incorporated
skiing
saddam
privilege
enjoys
mosaics
paradise
phenom
##mandu
gingrich
goddess
massachusetts
59
benn
dick
della
hiring
ko
lists
mum
rides
rugged
##tic
##vag
inch
##omb
##changed
##keys
choc
chances
##unction
perce
##agu
##aco
##acles
moves
medium
economies
landed
steve
winding
potentially
compete
arguments
panor
rider
votes
essay
extravag
respondents
duties
adjustments
1960
homosexual
bullet
awarded
conflicts
printed
coalition
hungry
transformed
ceremon
disappointed
makers
sanctuary
cabinet
tranqu
shouted
barriers
equivalent
duplic
aunt
eh
yelled
##mith
##mate
##vable
##iner
toss
##elon
##ila
alley
exqu
##osh
canad
outra
trash
timing
feud
accent
##into
guest
invaders
adds
discl
marsh
modified
locally
readily
propag
distinction
missouri
porto
moments
floors
grandmother
impacts
demanding
eighteen
circuit
shrugged
separated
acquire
preparing
santo
imagination
casinos
featured
advocacy
pulling
channels
ownership
gentleman
obtaining
arrangements
manufacturer
lifted
reconf
kathmandu
warriors
havana
clouds
abraham
brew
fier
iolta
kam
pets
si
##ran
##trap
##fers
##father
##onic
##isure
stiff
##ayed
##see
notably
cher
leisure
hispan
##endered
agent
appra
deserv
underground
betray
##olded
studio
ell
lets
humid
signature
senor
senator
180
gardening
choir
winner
authorization
yorker
##otto
argent
hurry
agrees
automob
collaps
railroad
pillars
gauve
spokes
revolving
prohibited
orchest
entitled
fishermen
satellite
sensitivity
47
43
dc
dagger
fame
fern
kim
kicked
ward
##rals
##oen
##lu
##gments
##ito
reass
stability
haunt
anch
neo
neu
exter
meals
arist
lovers
closing
sheer
reporter
grim
grate
##osevic
##acent
wherever
legacy
relation
trace
regret
paralle
artistic
planets
insist
restra
happily
postage
tries
finances
landing
##aughters
generating
parking
merger
##aneously
minded
##aware
describing
influences
junior
breaks
ladies
stocks
communicate
advocate
shooting
obligations
calculated
sustain
alabama
pursuant
calendar
46
97
kur
sq
sed
som
sessions
wire
##fr
##cos
##oral
##rey
##itarian
stages
##amin
##theless
button
cancel
spite
outf
unions
##anship
conting
quote
bran
nevertheless
underlying
specul
belg
wrest
elite
marine
ending
valle
approve
simult
factories
audited
milosevic
advised
grave
cheese
followers
completion
equipped
drives
operational
varied
receives
condem
salaries
##liest
budgetary
promul
presentation
##aneous
competitors
holes
massac
plantation
utah
attempting
slept
hyd
tendency
crypt
willingness
variable
pursue
rangers
explanations
provider
alexand
kentuckian
pilgrim
clinical
chemicals
convince
storage
monopoly
affirmative
aph
cord
cattle
daughters
gle
hint
jaw
punch
sque
session
voc
##away
##och
##pass
##omy
staring
asks
##rie
abd
max
##apore
##cio
##enders
buck
goodness
##ogether
underne
strongh
##unded
costumes
##erman
valued
popul
email
formula
formidable
distur
millenn
excite
nightlife
continu
anne
sunny
protecting
##anny
##ographical
painters
bankrupt
correctly
mandra
250
1974
arabs
administrators
accurately
automatically
praised
apparent
picasso
melaka
enhanced
ratings
nye
partnership
resolved
coordination
cloak
linda
fighters
episode
cosm
astronomer
compromise
underneath
stronghold
54
58
cul
gsa
nons
ritz
racing
wrapped
##eem
##bling
##houses
##15
##orus
stall
convert
chop
##anted
cler
sheet
quoted
disability
feas
bucks
scouts
##ensed
##eps
##iley
regist
geno
artific
defending
metap
cleared
posts
skilled
certified
mailer
youngest
184
mainstream
sixteen
singapore
grey
identification
judicial
approached
turt
existed
jerry
separately
##iosity
creates
conducting
deny
drops
flytrap
restricted
shares
altogether
picnic
concepts
depicted
merchand
virtual
logic
monasteries
kitchell
vault
forbidden
rebuild
validity
exclusively
updated
corruption
##iciary
##committ
nonfederal
bicycle
overwhelming
scheme
72
96
bland
cia
dump
gab
pile
rick
sigh
wrap
yan
##cons
##lical
##yth
theor
theaters
ingr
##iti
##omfort
##state
stitch
##etical
ford
##olas
alter
chart
butt
##arten
##asted
adap
diagn
interrupted
root
bump
scots
indirect
##ava
pubs
engines
lesser
triang
particles
missions
reviewers
collecting
politically
horiz
125
participated
screens
richards
##umbled
hopefully
combat
observations
closest
rebell
##rels
mistakes
jamaican
deserted
relaxing
unple
mirror
reveal
contempl
negotiations
mechanisms
columbia
whispered
retrofit
recruit
elephant
cafes
##bourg
inquiry
seaside
celt
mt
tib
wre
##bow
##alay
andrew
##icop
reck
##ami
##esting
ornam
##osis
##umber
arth
donation
##inking
perp
workplace
overc
heroes
brows
coco
bugs
recycle
smok
relics
assured
subcommitt
endorse
publicity
thoughtfully
menu
##idespread
practically
officially
178
absent
civic
associations
specified
educated
louvre
1988
1987
nationwide
murm
deadline
convent
egyptians
greeks
wishes
absolute
surviv
garage
bottles
flee
interviewed
assumes
precise
occupation
logical
olive
gathering
honestly
emotion
mutual
resolve
buffalo
legendary
novak
album
prototypes
legitimate
gordon
bot
cass
dal
dent
lung
rental
tuck
vess
vib
wander
widespread
##feller
##erated
inapp
##itis
##arn
##arial
##icism
##leans
stunning
##etto
##etta
##aye
##sem
seated
##kefeller
dock
orleans
##apse
loop
##oks
comparing
amiga
wells
exped
reply
offsh
intim
brass
cobb
partly
carn
regards
##athan
##atherine
founding
planes
insight
populated
corrid
privat
182
traders
lowered
hobby
armies
silly
specialty
honored
creatures
broader
evaluators
bias
##rooms
permits
prospective
porcel
fortunately
volunteers
subsequently
controversy
toxicity
cancer
rockefeller
lisbon
database
excitement
berg
gild
hed
rhod
sba
ware
##rics
##cue
##bet
##hin
##yard
##inople
##itious
##omon
stir
stays
##osaur
loose
incons
export
interf
herod
##itty
preach
desir
cared
helicop
consists
relie
invite
opm
presum
governmental
surge
parade
drama
refuses
configuration
barbe
##mann
glance
glimp
generous
departure
discussing
suggestion
accordingly
expectation
avoiding
junk
illum
scenery
adjacent
celebrities
cruel
crucif
dispos
achievements
criticized
graduates
guarantees
photographs
motivation
temperature
dialogue
venture
palestinian
reservations
leonardo
thriving
pregnant
utterly
exquisite
artificial
glimpse
900
aids
cale
fy
gently
hits
kh
kenn
pas
pom
pause
ri
##rum
##fall
##front
##hill
##esters
##icking
##omin
##iman
deer
suffic
##odes
##oded
abb
manusc
lobb
teeth
incomp
newest
contents
containing
intens
intric
roots
boasts
coins
desired
carries
##ictions
preserve
counted
bases
farms
coral
confront
curiosity
advise
designer
possess
terribly
continuous
drift
harass
occurs
identifies
facult
burial
##retion
brave
baltim
universities
settlers
emerging
michigan
declining
philadel
1970
flew
##aska
contacted
malls
appealing
substantially
graduated
victoria
recipient
obligation
willey
champions
cooperation
shifted
harvard
souvenirs
pundit
mysterious
constraints
arkansas
promenade
luxurious
branches
manuscript
baltimore
philadelph
dare
gut
gand
hence
iow
jet
ric
sic
sisters
wives
##oan
##hou
##po
##word
##onia
haul
##ulative
dei
deck
comic
##usive
allies
clue
##izer
intact
screw
seeks
smiling
invented
costa
supplied
counting
genius
capit
differently
foundations
causing
defer
confusion
technique
processed
viewing
admire
202
salad
##bridge
promises
burg
approaching
routine
favored
alcoholism
italians
obsession
1986
voices
applicants
uncomfort
lacking
reflection
respectively
biography
glasses
flyer
constantinople
prisoners
samples
collapse
sightse
tastes
citizen
semi
counterp
naval
bargaining
confidential
discrimin
codes
borrowing
consolidated
acknowledged
cigarette
australia
taxpayers
producers
pavil
neutral
procure
arthur
66
dive
ker
lon
lub
mes
rif
roth
rope
tid
vouch
##aic
##post
##38
##enin
inade
##ione
beck
stere
##roe
alright
seized
exagger
sober
pricing
plains
enl
clay
ups
peer
composed
##cca
newer
gras
centered
scores
guards
carav
helms
keys
drank
ears
curve
tourn
funeral
investing
glorious
infer
calc
salon
dealer
burst
specialists
balances
netscape
geographic
devil
149
societ
foreigners
hurric
hike
##portant
celebrity
##ippers
journalism
automatic
welcom
appreciated
symbols
efficiently
throwing
oriental
adventur
loudly
overlooking
frozen
accompanying
incredibly
settlements
allegations
struggling
lavish
dreams
delicate
seafood
kelly
inspiration
unimportant
tapestries
shogun
pedestrian
tongue
chocolate
deserves
exterior
philadelphia
inadequ
welcomed
62
aesth
cite
dimin
ein
fen
jf
lane
rou
rud
wished
##fc
##eda
##oust
toy
toys
##repr
beth
reich
##veys
##etan
##roc
##oline
alan
alert
shots
##ulent
sep
chairs
liability
##riel
adam
unco
unrest
unaware
usps
whoever
intrig
dislike
##asses
legally
trains
secular
courthouse
persian
realistic
earliest
larry
meters
alongside
statutes
freeze
ruler
176
associates
colleges
arguing
historian
checking
furthermore
130
examining
versions
fema
louisiana
searching
qualitative
odds
williams
birthday
reveals
henri
eliminated
litigants
replacement
deposition
recovery
accompanied
graceful
stabbed
elephants
promoting
georgia
isolated
preparation
ariz
##stitution
symptoms
bridges
gabriel
ingred
unpleasant
iowa
burgund
##reprene
bid
cd
ced
eg
hid
hitting
jam
nut
vie
##sp
##no
##nie
##bu
##wart
thread
##ati
##inge
habits
##rog
##sect
##tha
aswan
##rac
##ighth
##uda
maus
##astroph
saudi
##emois
unl
peas
timber
compat
perj
##ager
quot
diet
replic
bug
scattered
relate
flan
handy
gaul
possession
miller
stein
foods
descriptions
hobb
associate
saints
##umbling
mademois
catastroph
horseback
balls
threats
analyze
occasions
ethics
benj
stewart
oliver
buddhism
allocated
terrorist
absorber
convenience
attributes
enjoying
korea
flavor
cemet
inexpensive
feudal
reconfiguration
subcommittee
tournament
arizona
mademoiselle
71
bent
gee
hiding
ku
kau
lap
poured
sway
wings
wagon
##top
##wi
toled
##otte
beef
revel
##iments
shinto
##riate
meets
##osity
cany
nois
priced
spell
spouse
manif
donated
enlight
peop
pepper
actu
acted
commander
presidents
longest
countless
capabilities
marina
insisted
restore
distant
##iov
walter
financially
swift
raid
rises
185
thirteen
steal
burd
stephan
solved
considerations
definitions
commissioned
unfunded
contractors
custody
penet
banking
hipp
swept
procedural
permission
contrad
suspicious
revolutionary
bothered
registered
sharply
foolish
distinctive
tiger
breeding
accommodate
ramparts
bosn
tuition
renovated
commodity
grabbed
reorganization
anxious
francois
biblical
unhapp
synagogue
propaganda
aphis
mausole
57
bite
cel
eighth
fwi
hats
jal
mike
ray
tony
##sen
##manship
##uate
##bted
##inely
##enous
##enger
##rea
whites
##urity
##sein
alumn
##adv
heir
shipping
fried
lik
thereby
soap
##eman
enfor
##aug
usage
reserved
amid
disord
coinc
himalay
carl
fires
evenings
acre
flu
addiction
famine
parish
founder
streams
##ews
humor
fourteen
raises
glory
annette
operator
freezing
halfway
epic
claiming
expects
historians
recognizes
offerings
convinc
arriving
troubles
eaten
messages
establishments
commented
philipp
##ippi
dispute
flowing
##chester
citadel
conferences
liberals
applying
briefly
##worth
altitude
tribe
tracking
dependence
stretches
sarc
quantitative
volcano
palestine
fountains
cockpit
discipline
nazi
apologize
enacted
substitute
cottage
lantern
valleys
alexandria
registration
offshore
benjamin
alumni
73
biz
eil
foss
lions
pud
sie
troy
##sis
##mat
##care
##bach
##ports
##enon
##reach
##isse
revers
chains
suck
##anting
##rix
##ista
canvas
plun
upcoming
perf
amended
intense
disadv
1950
buzz
colt
##ometric
##issippi
consensus
relatives
assure
remem
beloved
callie
param
reduces
entreprene
defect
bookst
economist
mississippi
greens
170
braz
wonders
128
girlfriend
sells
referring
mosc
indicators
farmer
exhibitions
deduct
giants
colonn
novels
##iya
negotiated
navig
conquered
forbes
protestant
shocked
incorporate
embrace
vsl
benchmark
encounter
axe
indigent
diesel
scrutiny
nonexchange
##onymous
bazaar
versailles
millennium
gilded
lobbying
cemetery
eilat
90s
bac
cad
cute
census
ile
icon
lc
lamp
nara
piano
ross
tam
tuscan
xii
##rer
##40
##iah
##lap
##vest
##30
##atra
##esford
##ani
tooth
inaug
##itate
##isans
beating
reed
hack
alban
##estim
comed
org
lip
exh
allen
spraw
##ours
load
##izations
grat
overt
##uba
accel
prel
attitudes
lott
afterwards
remo
slipped
##phy
endang
worlds
##lete
resting
performers
audio
confed
auto
curb
possibilities
testament
probability
landlord
infant
grows
termin
operators
billions
villas
hussein
##workers
initiated
deeper
lacked
dropping
doubts
scrub
survival
dinosaur
mistress
mistaken
safegu
introduce
predictable
seventh
mallorca
baths
conclude
beresford
mechanism
bait
transformation
pillar
deposit
craftsmen
provence
masterpieces
electronically
deemed
prescrib
korean
cinema
fighter
hypothesis
charlotte
portrayed
liquid
disgust
excursions
municip
kilometers
afghanistan
bennett
simultaneously
pilgrimage
merchandise
mausoleum
bits
bored
dw
dread
fid
jard
jokes
kansas
lush
pall
rented
ses
sized
tier
witch
yards
##ez
##min
##mart
##70
##gue
##hist
##erie
##alk
##aro
##lem
##uty
als
convey
seed
segment
##ando
lect
manh
manip
##apolis
##ourse
##quet
outbound
unav
##ishop
twisted
underm
lotus
deciding
sometime
tract
##ailed
supper
counties
phoen
instant
aviv
skys
islanders
swall
swamp
camps
raw
practition
paula
origins
entertaining
texans
prevention
christopher
participating
freely
divide
recognizing
1983
array
independently
planting
bones
cooked
affecting
sweat
##govern
scratch
conditioning
videos
birthplace
eligibility
innovation
nyt
supervision
delayed
attributed
blew
intellectuals
pyramids
migrant
subtle
fertile
warrior
##acca
enclosed
distinguish
refugees
fulfill
opponents
supervisor
yacht
prosecutor
marginal
therapy
snorkeling
balearics
feasible
porcelain
uncomfortable
canyon
burdens
prelimin
bass
cure
coura
dated
divid
fathers
hoc
hilt
hier
mint
pon
pard
pbs
rav
sip
tips
wo
zelon
##tra
##fty
##uch
##win
##esc
##oro
##ido
##etically
##imb
alph
shor
shah
shakes
seasons
meg
nostal
loaded
enqu
enable
perception
amen
##gram
intend
intensive
overhead
twist
lazy
intoxic
moore
relied
programming
assault
governing
##wear
handful
insult
pointe
pointing
affil
extension
ports
mature
delivering
villagers
mounted
sunlight
cef
executed
travels
accepting
fortified
##anne
assessed
1982
penang
shrubs
erotic
utilities
characteristic
midnight
disputes
camel
affordable
progressive
gasoline
comparable
qualify
targeted
concentrated
citizenship
##uku
advisers
hunger
thompson
masters
waterfalls
##belie
elementary
windsur
suburbs
mosaic
enterprise
undertaken
complaints
gesture
wisdom
automobile
adapted
celtic
crucifix
sightseeing
moscow
bah
bount
fi
lun
loun
lump
lyr
mow
oro
osc
pac
ruth
##ecess
##me
##mish
##matic
##fman
##card
##uated
##hma
##yre
thumb
insc
##omic
whit
alic
##ithe
fraction
atop
chim
##istine
##mphis
memphis
adorn
intentions
mugh
##berts
scuba
##ograp
informal
surveys
payche
artisans
maria
kinderg
hugh
revision
imports
demolished
autumn
signal
2003
dried
brook
judged
##boats
suggesting
##attan
jewels
screaming
europeans
##oval
memories
grantee
speaks
predecess
celebration
ignoring
featuring
submission
responding
restriction
analyt
jacket
bandits
mixture
elders
printing
interpre
shadows
faithful
illustrates
##iyre
rubber
bathing
oxides
bargains
wilson
dusty
witnesses
websites
##points
stretching
dolph
loren
rigid
pundits
gigantic
##donald
cumulative
obscure
injection
canadian
apprais
faculty
procurement
peoples
unhappy
51
erupt
hust
jar
kes
kidding
mister
mumb
pt
rank
sour
tens
tenth
##mn
##uv
##uccess
##burn
##kers
##irer
goya
orang
suited
##usible
##iston
##arded
cane
##umed
spends
donate
safer
composition
shep
roberts
##assion
index
prehist
guilt
umb
attain
conspir
##erald
##icks
assign
##ertime
blades
phases
caut
respected
simulations
metro
glam
nightcl
walled
noneth
minds
worthless
environments
screamed
favour
males
conviction
ranks
knowledgeable
bonus
narrative
versus
imagin
dresses
##ophag
##iffer
gradually
distribute
tomatoes
fuji
randy
variables
ranges
rubin
innovations
archaeologists
##piece
terrorists
instructions
motivated
stamps
portraits
saddle
thoroughly
supplementary
landscapes
##keeping
excluded
##brand
dismissed
ronald
reconstruct
proclaimed
hampshire
promulg
richardson
perpet
survivors
inadequate
burgundy
hobbies
enquirer
analytical
mumbai
nonetheless
78
dense
fles
gon
hmos
java
mi
nbc
porn
sid
soup
sizes
tud
vish
verm
##sr
##mel
##48
##dale
##lon
##75
##hy
##view
##yle
##wick
##66
##atical
##essee
##oria
##itary
##isp
sto
forment
alps
altered
shining
##ulously
deities
deleg
docket
##rah
noon
pled
plate
plates
plaster
unlo
unrelated
unchanged
resign
ami
yearly
contra
disk
appet
cohen
secrets
bluff
addict
modification
reads
emily
formation
advances
##beat
viewers
admired
portions
passaic
anno
salmon
greco
choosing
awake
competent
observe
ranch
structured
panthe
cardinal
complexity
corners
evaluator
##burse
603
permitting
picking
tunnel
robust
quantity
conquest
synth
champion
excessive
dialect
tablo
veteran
sustained
plotz
cycl
forecast
inevitable
seventeen
invoices
balconies
cameras
brutal
incurred
astonishing
overcrow
botan
intricate
toledo
sarcophag
eve
jenn
masc
pity
tank
vatic
zen
##rale
##ti
##iji
##cus
##din
##ho
##jud
##anim
inbound
rear
reef
reverse
##steps
##section
##amel
##ambo
heb
heels
##opp
##oping
abrupt
lever
arise
##astically
unin
##aho
impair
incumb
inclined
exports
intr
brow
partition
##anging
needy
needle
descent
underwater
downs
governors
blanc
kevin
##ression
acrose
empower
##ologically
discretion
mars
gaze
mineral
priest
charging
barren
##aires
##inson
practicing
apology
trek
harris
budgets
regulated
prevented
considerably
answering
sainte
145
appropriation
laboratory
packages
santor
##ilingual
journalist
layer
flemish
remarks
meantime
bands
borne
contacts
qualities
sundays
2015
unsure
unsuccess
terraces
ranging
vegetable
1930s
aimd
tennessee
crusade
rumors
tube
tubacca
snake
isolation
mitig
desperate
opponent
conjunction
sweeping
coroner
suspicion
descendants
caesar
##luent
grateful
yanke
presumably
manuscripts
capitol
preliminary
alicante
##ographer
52
88
dell
gear
gins
hoss
japp
kios
lyn
pensions
rf
##rust
##ea
##fing
##cely
##gon
##went
##zare
##erors
##itar
##itably
##arre
rect
shield
consec
chips
##antages
plum
loving
adul
##izz
quay
grid
disabled
costing
##ailing
blend
##ermere
slaughter
drum
earning
insights
charity
serge
cheek
senators
transc
##lington
explaining
stupa
##elson
marketplace
traded
harbour
volat
##enne
wallace
windermere
questioning
bloody
solomon
specialized
movements
attracting
husbands
sne
maintains
mosqu
manufactured
superst
plantations
reportedly
russians
linking
urged
luckily
investigate
conversations
rolled
comparisons
colonies
bowed
precision
guarded
heroic
neighboring
expenditure
pige
arrangement
update
anthrop
revenge
cinemas
episodes
georgian
prophet
terrific
reluctant
transparent
argentina
collapsed
harassment
kaufman
actuarial
convincing
shakespe
vatican
69
beng
cors
cells
gays
gaining
jus
jum
ling
ripped
sod
tire
tents
ville
wp
woke
##taking
##nu
##ders
##34
toll
##isers
##otine
rewards
albe
shin
shake
seattle
goat
exile
abst
##unci
outreach
lover
justify
##heric
##akura
pooh
##ogy
thres
inval
remn
opens
olds
##athed
bless
acro
fluct
gene
depreci
shower
parole
##ugman
delicious
readiness
correl
mighty
concur
considers
campbell
explored
glanced
nightm
privately
infin
continental
behave
collective
maine
eyed
promising
judgments
awes
originated
preval
credible
footsteps
##ovitz
objections
pressed
castro
treatments
religions
panic
cleaned
selecting
examines
democrat
philip
consistency
cathedrale
rolls
minimize
psychology
unfortunate
skinned
##after
cups
##agonal
photography
reagent
satheri
pigs
trucks
tigers
acknowledge
knocked
krugman
switched
embraced
prescription
cheerful
receipts
miniature
summarized
neglected
province
lighthouse
verdict
metropolitan
creek
tactics
taiwan
tremendous
homosexuality
squee
gandhi
societies
pantheon
sergeant
shakespeare
albeit
85
bone
duc
echo
fitting
lal
mound
rag
slic
sull
vel
##rons
##ikes
##ni
##col
##lass
##gi
##held
anderson
reop
reun
stol
stack
align
##rak
##udge
unst
roose
overd
boot
scra
carriage
removal
regime
##uala
##onscious
##mmet
governance
kef
belly
slope
governmentwide
capability
basin
parale
talented
lasting
charter
barr
profound
profiles
risen
equity
arched
salam
##pectives
holdings
epid
##ference
160
domed
##ynes
credits
1984
attacking
##archy
friendship
troubled
indicator
casc
females
titian
threaten
hosted
pilots
spiral
reno
coward
tribute
psychological
unpop
spreading
terrain
breathtaking
illustrate
1920s
permanently
mercen
galile
emphasized
escal
harmony
subsidies
reminder
overlooked
reliefs
gorgeous
consciousness
akbar
charlie
vinci
hammer
athletes
ceteau
nickn
irrelevant
catalog
margaret
hectares
dudovitz
perceived
inconsistent
sicily
perjury
bizarre
shoreline
windsurfing
kindergarten
flesh
vishnu
awesome
bak
bark
dorm
ipm
kan
mant
morn
nest
nagas
oas
somed
tum
wip
wicked
##aus
##mo
##fire
##nut
##dg
##ua
##gra
##vis
##vals
##oulos
##oubted
topped
##icut
##ilia
##idences
##ctional
##uri
##urb
shed
neph
atm
chew
knight
##istically
##ckets
spur
spray
mare
unbelie
##ounding
compassion
##iche
##grad
dissem
britt
bruce
coin
buys
indul
prejud
colour
##velt
undoubted
attending
tragic
##ocative
genre
perspectives
slam
famed
baseline
cake
retained
##ainted
minnes
playground
poste
skirts
barik
formally
airpl
gracious
transpl
majestic
mills
glow
practiced
apaches
stopping
wax
judiciary
windy
151
breast
shortage
cracked
assisted
floating
worthwhile
cops
nationally
duomo
influential
##ikoff
sandstone
characterized
softly
embass
denver
biological
candle
radical
martyr
threatening
bombs
liberation
##itzer
ethn
tribal
miracle
cartoon
hypoc
##ettes
wheels
subsidized
maximize
bureaucr
assassin
kram
monarchy
fertility
spacious
encountered
pagoda
cigarettes
washed
sequence
envelope
wandering
parallel
horizon
inapprop
desirable
greenspan
brazil
removing
prehistoric
formentera
bengal
roosevelt
epidem
someday
minnesota
56
74
92
catherine
fas
font
hood
kells
kuala
mower
nuts
oreg
pestic
tul
vau
wig
##ram
##rup
##iency
##cs
##uana
##pat
##zan
##inas
##inous
##onies
##anor
inh
##ication
forfe
##rove
##roid
##urai
##chitis
##vere
##olia
noting
notices
shorts
congr
abilities
##mpt
worries
allied
nobles
##ourt
outlets
anytime
ench
advers
peers
perenn
##ifiable
amusing
##aga
repay
interrupt
interactive
accus
downstairs
keen
flame
flows
subway
##phe
marx
rua
revived
norther
happiness
booksh
barra
##azed
tempted
daim
continually
secondary
halt
sanctions
thirds
listing
##boat
163
destinations
necessity
sentences
sentencing
credited
pressures
seller
replacing
chapters
manufacture
##heard
combine
commentary
garment
investigators
sciences
integral
beaten
layers
conservation
decreasing
sorb
applaud
firmly
bronchitis
amazed
groves
arabia
amph
strengthen
tallest
lawns
consulting
belongs
crusader
recovered
##books
ferries
promptly
suburban
inhabited
hesitated
jurors
desperately
inevitably
vendors
evolved
tranquil
kamakura
aristocr
vibrant
cobbled
pavilion
sepul
jalan
municipal
crucifixion
keswick
promulgated
oregon
02
89
bore
bambo
dere
damp
fog
gol
hort
jaff
muss
pending
tires
tension
##iets
##lore
##bes
##will
##reed
##arse
##oman
##entine
##ili
bever
##str
ante
shaded
nev
atomic
##opoulos
lied
##geois
##ardy
##ffect
##umer
spices
##aste
enabled
adoles
trin
upgr
pecul
resent
teleg
amar
impat
##ounted
fax
incomes
quaint
quotes
dispar
dischar
cole
##aky
accidents
##veland
smar
##iani
backs
trap
opium
##erton
requesters
##ocation
obey
deputy
marri
##scale
realism
marking
demographic
factual
sket
confined
barrel
particulate
companion
serbs
tempor
benefici
patrick
swed
accounted
missiles
severely
untouch
terre
matt
politician
varies
summers
generaliz
generators
harmon
successes
irrit
presentations
brains
towering
horrif
crap
silently
labeled
castles
halls
unconscious
surroundings
##ospheric
reflecting
establishes
venue
preference
mandated
surviving
purchasing
jesse
misd
veron
discounted
frequency
triple
liberty
analyzing
minorities
broncos
bulk
challenged
depicts
feeding
substantive
strengthened
consultants
dynamic
consequence
hinduism
adequately
nominal
emotions
digital
temperatures
hijacking
disclosures
blanket
maker
pollutant
anthony
unconstitution
graphics
bourgeois
lyon
confirmation
recreation
lighter
wolves
pistol
olympic
strawber
extravagant
cosmop
clerk
intimid
alsace
manhattan
paycheck
annoying
##zarek
unpopular
nagasaki
undoubtedly
bamboo
peculiar
beneficiaries
awhile
bind
cau
gil
hog
imb
misc
nelson
pis
pour
rip
rows
tad
tiles
vert
vague
##aved
##aise
##eeling
##oid
##nas
##uci
##len
##lav
##boy
##bock
##power
ther
##erget
##itations
##ente
##eli
beij
reci
##lyn
##eters
nebr
seeds
knees
##uster
spike
##quest
likewise
unm
unsc
justified
##agg
quart
overr
overth
mund
partial
poets
thrill
consort
synd
presort
blessed
wrist
feder
marco
marij
edo
##ainties
metres
cleveland
confess
confusing
controlling
grapes
tempt
##iera
exploded
whitewater
##ounce
passenger
summertime
drain
awa
hilltop
buyer
stylish
squares
musicians
destro
dougl
copper
contribut
fights
journals
mosques
medici
##forward
documented
wildly
fixing
1975
rebel
##backs
litter
asthma
breathing
functioning
stretched
mcdonald
warsaw
trailer
1950s
absorbed
crusaders
reminded
rhyth
assertion
dominant
cloister
ponds
dragged
prompted
enthusiastic
enthusiasm
strangers
boilermaker
snapped
juris
indigenous
##eastern
enterprises
laund
prolif
announcement
abundant
fantasies
honda
hazardous
duplicate
leisurely
bankruptcy
mandrake
lubbock
threshold
kramenin
jaffa
cosmopolitan
beijing
recipe
marijuana
68
79
70s
bilingual
cv
cens
csr
czarek
das
dazz
gary
gib
hil
jag
jog
lith
mul
owe
posed
pomp
##rative
##mont
##fia
##ns
##gam
##wed
##wak
##inn
##inging
inex
##isive
##lehem
beasts
rehab
stur
strol
##olome
anat
##iratory
alp
sher
sham
abu
leap
soaring
meh
nob
spy
spont
placing
trent
upr
theirs
perched
imply
repet
interactions
overtime
disgu
indones
precip
helm
remin
traces
##oths
requester
flights
slip
endors
endless
tales
mining
respiratory
delays
medi
postm
skip
triv
turner
admissions
creole
##ecd
annie
limiting
cultiv
promoted
enclos
domes
fortifications
##ova
arena
treating
woodward
standardized
contracting
speakers
violate
##ikh
ern
1000
indianapolis
anglo
encourages
hyper
rapha
darkness
1979
balloon
connecticut
spotted
flea
constitute
straightforward
complained
conversion
shallow
petition
compares
##worthy
troop
pico
pursuing
austria
workshops
comprises
pm2
abandon
wheat
adventures
soviets
carpets
masks
athens
motivational
coordinated
nepdg
outlaw
outdoors
suburb
landscaped
plausible
inquiries
felipe
liquor
puppet
excursion
explicitly
refresh
elasticity
grinned
observers
evidently
ignorance
spokesman
vessels
bethlehem
stephanopoulos
practitioners
pardon
bounty
appraisal
ginsburg
stolen
inappropriate
nevada
telegraph
nebraska
ais
bend
cm
eb
faded
garr
gym
hh
kin
kins
lt
mouse
nam
nag
nope
ov
pok
qa
rous
rings
rape
vest
wick
yor
zo
##nity
##gent
##gia
##wich
##inth
##inals
##arine
revered
##storm
stance
stagn
##rood
##urable
##sept
ank
shaking
shields
shapes
nebb
wears
chau
chase
oral
knights
##ripp
butler
##elli
canals
donors
sake
willie
adverse
peel
diver
boast
##akia
poem
##arks
lookout
##amped
##onsin
download
obel
handles
##phorus
instantly
planners
retal
##lette
sins
eman
watches
functional
communism
hotline
patrol
financed
invested
exclaimed
portal
raids
matth
pretend
classroom
certainty
clearing
generals
wont
harb
merits
##enna
irrig
168
educate
attracts
contributing
referrals
madame
architects
trusted
separation
bananas
packet
predomin
observatory
consisting
rebels
afforded
demonstrates
remarkably
categor
matched
etr
holyrood
vanished
rubens
##etti
boundaries
emphasize
uncertainties
gentlemen
neighbour
defenders
fabulous
belonged
storms
poisoning
interpretations
exploration
appointment
hijacked
alleys
hamlet
tanks
fragile
harvest
recruiting
joyce
hugo
transept
feminists
embarrassed
taxpayer
libertarian
invoice
preservation
chaos
nasa
observer
queens
prestigious
orchestra
canceled
rebellion
murmured
calculation
ingredients
noisy
phoenix
courage
rfp
temporarily
federally
bunk
camb
dug
danc
fh
gy
gum
hollow
hardship
jain
kab
lanes
ming
mck
mamm
nancy
piet
rage
slo
sends
tay
tore
yok
##math
##iencies
##nels
##dle
##uity
##based
##pro
##vent
##zer
##asters
##leine
rever
rebs
##chio
asp
heck
shit
weaving
chanc
leh
sovere
pristine
spun
spaces
maid
maps
maze
hiss
saves
energet
##oka
##oku
trig
uneas
repairs
intimate
grill
overlap
##iac
crushed
poke
committing
##ensively
backing
regent
madeleine
blown
idi
courbet
additions
slog
visions
differing
pharm
defended
careers
revival
proportions
auton
headline
sitcom
menorca
##tsa
205
annoy
181
deliveries
hooked
173
##ommon
cease
printer
potatoes
computerized
scream
impacted
similarities
snakes
##anni
sooner
secretaries
broadway
israelis
adjo
seasonal
positioned
shareholders
declare
titles
titled
hersh
401
warmth
decreases
injust
jacks
21st
dubbed
telecomm
cynical
disappear
transported
ambass
ambitious
montmart
prints
tune
octagonal
francisc
vegetarian
consultant
roofs
shelters
licenses
eliminating
calculate
penny
unemployed
bullf
trendy
gifted
repeatedly
satisfy
privileges
mentally
canton
emerge
ascend
mysteries
unreal
deliberately
frightened
paragraphs
liberties
marvelous
pitts
nhtsa
devastating
fernando
##frame
outfit
metaphor
helicopter
stereoty
intriguing
tuscany
lyrics
ptole
atmospheric
smarter
marriages
douglas
boud
cows
dues
fitz
hale
iup
jod
kurd
nah
nass
ral
tread
tended
tightly
vicious
##eu
##evelop
##ws
##jon
##zu
thigh
theod
##inians
##arms
##omphe
ree
albr
conced
chuck
##osa
nobel
clan
unn
uninter
unanim
##ounded
compos
persec
imprison
inclusion
diary
offense
interaction
overnight
twins
boating
1900
partisan
sco
finishing
poles
wayne
##olds
blm
blond
schwart
##racted
caution
mode
edif
entries
propose
confron
triomphe
incremental
curt
developments
headlines
watergate
testified
##ecy
info
opposing
tops
projection
broker
stealing
winters
romance
##boards
immun
129
vik
viable
antiqu
potter
166
grandfather
protective
contributes
normand
uncommon
##iki
banana
damn
ladder
stripped
combining
quarrel
draws
venues
degas
##iffs
dispatch
deduction
essence
misunder
beatty
laying
decoration
janet
automation
punish
proposition
spectrum
crying
appreciation
hillsides
variations
burns
earnest
montana
tunnels
enhancing
macroe
sheltered
hunter
mechanical
witnessed
gaunt
clinics
rhet
accomplishments
arcade
inputs
gorbach
purely
assassinated
reinfor
fragment
leaned
folklore
adoption
preceding
wolfe
inherent
wanna
##uela
bundle
disturbing
genoa
carnival
privatization
rhode
manifest
lanterns
siege
remembers
brooklyn
congrat
generalizability
schwartz
macroeconom
gorbachev
63
aj
bays
cp
dus
ecc
flic
git
gul
gour
hut
hhs
kat
kra
loses
mie
mask
ost
pip
pits
rents
tiled
voy
wat
##cod
##lings
##hard
##walk
thunder
##onos
##onso
##eses
##eding
##anth
tol
inacc
itiner
rejo
stem
hail
hagg
##urate
##irical
##ulates
weights
conform
frames
goss
sued
prado
plumb
donald
upscale
perug
tak
tavern
##agne
offensive
interference
grades
overly
disli
mule
cove
partially
actress
crick
scare
scrap
##licity
guer
firing
##ials
betty
thrust
backyard
downward
blues
schumer
acute
counts
genetic
studios
marit
martha
phill
##ugg
earl
insu
minoan
barbar
cheers
benefited
maturity
classics
morally
morgan
arche
waved
merr
##sha
hoff
breasts
cannon
encomp
##pring
doorway
potato
geographical
competence
devote
fellows
caste
selfish
wooded
148
murphy
##balls
unfor
convicted
tiber
##heart
sweaters
embroid
##obi
slowed
crossing
fashions
titan
jesuit
miserable
verify
magnitude
contrasts
decorative
consumed
##ohama
searched
premier
crafted
bowling
drafted
danvers
ninth
arabic
##marked
austin
vegetation
inquired
scientist
malaysian
scholar
workshared
negotiate
oxley
dismant
randomly
bureaucra
terrorism
partnerships
ganga
clinic
scarce
kirk
earthquakes
translated
shifts
stabil
optimistic
highlighted
dilution
ineffect
unreason
transmission
sympathy
prosecutors
subscribe
exhaust
mumm
outrage
barbecue
caleornia
sufficiently
intensity
championship
catastrophic
bosnia
woven
affiliated
lounge
hughes
mosquit
brittany
northerner
proliferation
lithu
raphael
taylor
yokohama
iupui
gossip
84
80s
bidding
bishop
dah
egl
fow
fiance
gwe
hilar
hik
kend
nab
pf
pel
penc
pyl
ramb
riot
tide
tame
wisc
zion
##mad
##mund
##fu
##diction
##bat
##hara
##kward
##was
##atics
##onian
##aned
##ington
tod
##otal
##utt
##roit
##chet
anecd
##amoto
ally
alger
aspir
##ados
heights
notorious
shiny
fren
thereafter
leith
##ivable
plag
##aph
loire
##aunt
adams
pean
agra
amy
implies
quo
##achel
rooney
discip
fever
feared
##bery
brightly
coc
goodwill
coloss
caring
carving
aftermath
polite
flats
persians
slower
warfare
talents
startup
importation
norad
##erness
humble
issu
controller
extending
camped
equation
annex
archives
apoc
budgeting
regulate
awkward
experiencing
158
sunsh
kingston
solar
periodic
domination
policymakers
flock
routinely
favors
divisions
lightning
appropriately
duch
purple
trustees
moses
err
boyfriend
strikes
creature
russert
affection
celebrates
cros
respective
sensual
constantine
commercials
complaining
capturing
giul
safire
symbolic
psychiat
pursued
pursuit
samurai
taller
managerial
##uki
circumstance
gamblers
contempt
saturdays
lengthy
resisted
penalties
delighted
revolt
sponsors
sporting
varying
reconcil
accommodations
borrowed
translation
rewarding
shifting
pirate
albums
bosphorus
rajput
seldom
avenues
niche
lodge
provincial
deterrent
producer
greeted
reproduction
discouraged
seventies
hmo
fantasy
breeze
exhausted
ceremonial
hispanic
kurds
nonsense
reckless
shogunate
jfk
##build
disorder
xiii
##governmental
lorenzo
shepher
unsuccessful
pigeons
sorbent
dereg
unconstitutional
sturdy
reminis
fhwa
boudoir
albright
vikings
mosquitoes
eglise
wisconsin
350
60s
ay
bened
eul
ffc
gn
giov
oval
pant
pca
pione
rale
rude
rita
sore
sib
wach
##mill
##oard
##nin
##uen
##hu
##xon
##kirts
##inqu
##atial
##orthy
inel
##itas
##itter
##icans
##leting
##ilings
##idity
stole
whil
hay
##aying
##iger
angle
##ationally
notew
chill
chris
chlor
##raine
knee
##ustomed
aboard
hass
mann
manages
##una
##unic
##ieu
lob
resur
peril
workload
amate
disabilities
herbs
goodby
scroll
##acon
smells
relo
tracked
##athe
blink
eviction
belts
systematic
marath
ende
organic
bothers
propert
skim
barn
baron
detroit
curse
airy
advantages
grav
seniors
transfers
guessed
mailing
investor
accountants
secured
shoppers
infect
operates
calle
problematic
reasoning
additionally
ceased
craig
traveler
immense
126
modernization
domain
simplicity
competitor
sentiment
determines
objection
lightly
sellers
cope
deadly
surrendered
animated
arrow
painful
##lusive
breakdown
indication
cardinals
hikes
embod
doubled
sensible
##ritical
magnet
adopting
advertisers
punished
exercises
industrialized
advocated
bells
laughing
ample
boilers
symph
ivory
concludes
comprised
prayers
kingdoms
obliged
disagreed
ashamed
dissent
dimensions
deposits
detection
teenagers
sabah
##laid
tailored
chestnut
steadily
spinning
racist
##ulsion
simpler
avenger
dictator
supervisors
patriotic
recreational
collaboration
obstacles
excavated
klein
stroke
puzzled
distracted
##children
prestige
dignity
massacre
turtles
diagnosis
tibetan
vouchers
grasp
einstein
alphab
mughal
santorini
nephew
amphithe
franciscan
pcaob
raleigh
noteworthy
goodbye
aol
dana
eiff
fist
ferv
gond
ironic
jee
lent
moss
melt
nond
nerve
nasty
rosen
sided
##say
##made
##fat
##crap
##de
##law
##gins
##giving
##bag
##path
##western
##washed
##erity
##oni
##esa
##educt
##reated
inhouse
ingl
##itous
##arming
##otted
bea
beaux
staged
##etics
haif
forcing
##chi
##amo
alumin
shack
##race
abolished
leaked
mead
##udic
##artisan
maison
arlington
##cier
sao
sai
unb
unab
pert
teens
tears
facial
intermed
rogers
##ption
twent
brink
scan
##ogues
servants
unders
carlos
##orde
finely
monkeys
blur
bloss
##luded
subd
warner
capitals
moder
retaining
retrie
valen
ruin
defensive
sinc
nationalism
signals
distress
nearest
2004
supportive
matisse
##oyant
apost
actively
sixties
magical
awak
172
horus
solo
vienna
ballet
reaches
specify
humanity
squir
civilized
sentenced
screened
sorting
alcoholic
memoir
walker
##awak
victories
119
appropriated
connell
hearted
##apping
damned
greenhouse
scenic
legislators
swear
respects
judgement
hostile
missionaries
gloves
jackets
kidna
spirits
welcoming
introducing
disappro
cooler
immigrant
powder
renting
illustrated
1929
revealing
hatred
sarawak
##compl
chemist
grip
launching
mahal
nicely
muttered
courtyards
philosopher
solemn
jimmy
recycled
assassination
conceived
hijackers
thoroughfare
disappointing
withdrew
unwilling
vulnerabilities
cantina
graphic
iranian
reconstruction
balcony
accumulated
serbian
muscles
zealand
offspring
subscribers
intervene
ancestors
tossed
sighed
corridor
disposable
confidentiality
rifle
exaggerated
fenner
compatible
##minster
skyscrap
umbrel
nightclubs
reconstructed
cyclades
abruptly
abstract
##unciation
galilee
injustice
pittsburgh
unreasonable
sunshine
endeav
properties
eiffel
aluminum
skyscrapers
aux
ds
dak
eternal
fence
fict
gur
hiv
holl
ig
lure
mull
nuns
oun
rats
ropes
rugs
ub
uk
vom
vain
voth
wy
##rays
##fol
##iences
##nik
##uke
##gie
##hed
##pill
##jman
##zhou
##atown
##esign
##enuous
##orout
##orical
##alds
inability
insect
##asth
isikoff
reception
stap
stern
stee
fores
##iguous
algar
shal
prose
franch
##illion
orr
knit
##ellation
spelling
maced
##unken
logg
compost
compact
compelling
fare
dijon
grind
boiled
coo
coh
poems
##angzhou
needing
guill
guangzhou
servant
moist
consume
rembrand
differs
highlands
blaz
supplier
flue
flute
##getown
wrench
warren
deploy
federation
realm
realignment
eds
##lett
delos
delta
organize
restoring
approving
demons
engaging
autorout
hardest
curiously
technically
designing
graft
testify
stuart
palms
palma
collectively
morality
salute
experimental
estimating
101
10am
156
posit
remembering
ceilings
specialist
122
epit
balancing
focal
rocket
divine
devot
debts
coptic
murray
optional
wordsworth
drinkers
requesting
sonora
acquiring
hurts
complexes
georgetown
imagined
climbed
farmworkers
preferences
commentators
skyline
ballot
garlic
##banes
microw
brian
complied
murderer
surveyed
elder
criticizing
powell
ghetto
breathed
consulted
deceased
sarbanes
##ukk
furnished
torch
carpent
attendance
distinctly
diseases
sponsor
1917
hawaiian
darn
stadiums
bolt
bolted
suspects
klay
triumphal
assembled
cafeter
weighing
plaque
outskirts
constrained
bernini
caterpill
broadcasting
quinta
bartolome
refreshing
elasticities
pistols
barbara
veto
baptist
phenomenon
panorama
relieved
deferred
hurricane
aesthetic
gaulle
disadvantage
exhilar
lumpur
tudjman
hebrew
incumbent
mornings
laundry
dazzling
uprising
obelisk
irrigation
kurdish
maritime
hikers
cocaine
amateur
haifa
steele
rembrandt
caterpillar
bun
baker
couch
dart
duct
daring
denn
ee
folded
hank
kud
kaz
krist
lapt
mate
nude
pup
rio
rained
raining
sop
ssa
ud
y2
yel
##rue
##try
##mers
##ien
##nell
##cad
##uaries
##pur
##35
##just
##zart
##esy
##ori
##isco
##icy
##leep
reese
stables
hak
##robe
##olved
wasted
healing
shy
##ulse
##essim
##ersed
##illas
##kew
chand
chip
succ
livel
spurs
outd
outpost
##ousy
upright
tear
tag
taj
tapped
ammon
amato
incidence
diana
disrupt
bohem
cogn
lac
cran
cram
crashed
pockets
##ensils
pollock
mozart
backd
invis
inviting
##fts
jocks
##weight
flip
flung
idiot
persist
marie
phones
standpoint
enduring
locate
drunken
esteem
homework
rests
charism
corinth
forming
grain
serene
2007
communal
certific
ideology
##tsin
mats
protested
equality
anna
mainframe
judging
interval
burnt
amongst
stuffed
solving
methodologies
164
165
participant
linear
accepts
protects
fells
110
pickup
##ycl
quicker
madras
violated
laborers
appearing
motives
spanning
cleaner
indicating
utensils
combines
lawsuits
documentary
crocod
venus
killer
cruises
urge
occurring
columnist
1964
1967
vacu
ethical
railways
matches
targeting
bronx
benid
acquisitions
speeches
preventing
##masters
1948
austere
wider
graduating
retailing
inventories
shady
illustration
1934
proceeded
workshop
recipes
buddhists
elegance
hunters
conqueror
instructed
calculations
poisoned
incorporating
motorc
saber
iraqi
enthusiasts
bosses
loral
bourbon
cyp
groceries
##keeper
racism
thrive
elevated
grandeur
inefficient
renewed
renewal
rituals
lagoon
hubbell
frightening
##writer
discourage
riviera
torture
nhh
salvador
aqueduct
parcels
insurers
fierce
betrayed
riots
incompet
enforced
entrepreneur
deductible
dinosaurs
pallad
dolphins
imaginative
vermont
leverage
discretionary
depreciation
prevalent
wiped
unbelievable
spontaneous
ernest
qaeda
pylon
apocaly
algarve
microwave
klayman
y2k
yeltsin
64
ale
awe
aided
cze
dual
fret
fitness
gaps
ic
kitt
lut
nba
nike
pans
patch
rend
rack
##apped
##occ
##oft
##lining
##gerton
##pack
##wall
##zi
thur
##erpt
##inan
##orously
##ingo
toes
toile
inlaid
##lements
##otec
##stick
##utive
stating
stately
stored
##chool
##ige
anonymous
alarm
asleep
notification
shattered
##teries
seam
##abol
leban
leaks
##arte
maur
plague
plateau
arn
##cian
sack
outlet
outline
unity
uniqu
unex
##inder
compelled
##ifer
workout
##vency
contam
dip
coats
##uctive
##icals
crowned
indiffer
carr
relies
monkey
stras
joan
blamed
evans
evocative
##wealth
flamb
subs
daylight
discern
discrep
marcus
modem
edgerton
organisms
redeem
minaret
carey
revisions
souls
builders
seemingly
barred
airline
developers
importantly
taxed
gravely
jonathan
patio
excerpt
stunt
password
oppose
growers
sidebar
sane
millionaire
steak
mercy
successor
promotes
courtroom
burton
accessed
##holder
##parents
antich
grandparents
devi
commissioner
obsessed
1985
custod
violations
favorites
frontier
separating
exceptions
communicated
narrator
##sethe
wilderness
respectable
louisville
mentioning
measurements
arafat
investigated
verification
1966
decorations
bombed
roller
dangers
petit
florentine
limitation
textiles
commitments
##mosis
puff
diego
robes
deficiencies
inquest
inspections
skinny
furnish
archaeology
calmly
oxy
torre
adequacy
baff
bailey
griff
dissaving
mahara
detecting
gauge
heyday
reminds
writings
clarify
accidentally
asserted
eagles
depressing
unclear
omn
ventura
outputs
uniforms
monarchs
wounded
##ulsive
solicited
indoor
linux
chinatown
adaptation
jefferson
narc
worshippers
pharaohs
cluster
ignorant
panoramic
disclose
kenneth
pompe
inferior
uncovered
inaugur
oscar
overcrowded
botanical
adultery
correlation
salamander
hypocris
beverly
temptation
harbors
adjoining
##hardt
inelig
whilst
inglis
intermediate
dakota
cafeteria
benidorm
czech
##oteca
450
6pm
81
aquar
billy
cuc
citing
cush
dyl
dwar
erupted
fits
gamble
hann
lust
mast
mcl
sang
tatt
vil
vcr
yields
zar
##mi
##mere
##cz
##cal
ingen
##asu
##eliness
##utable
##vering
##olith
##imburse
allev
##adda
shelf
##esses
proving
weed
seg
chow
chant
chron
sums
##gev
##ellers
sob
socially
prone
sphere
mang
saus
enron
clues
adri
pebb
completing
##ahan
##izers
pertaining
teod
amuse
sheets
impl
expat
quas
##group
fears
##uber
bred
lak
accuse
##ensible
carre
firth
afterward
throws
legends
deco
monster
assignment
remedy
##leside
joining
downhill
proves
blast
keynes
flank
busiest
##ocracy
persistent
slap
slide
wright
emperors
margu
realizing
##rection
rested
restruct
farrak
schooling
refund
refrig
refurb
thoughtful
barcel
percentages
##plan
##pless
##ilted
taxation
businessmen
processions
touring
communists
roommate
runner
patience
whitewashed
morals
##amese
policeman
##ieties
understands
delivers
sidewalk
harry
estimation
singers
greed
dolls
stepping
individually
questionable
noncompl
silic
immort
balk
coasts
geography
staffing
turin
footage
circulation
strongest
murals
surrender
golds
replen
campaigning
godfather
fairness
peacefully
germain
santi
substances
lawsuit
ignores
causeway
installing
rapids
senses
garments
##ipper
arawak
displaying
reliance
layout
##class
exercising
weld
shoe
##rofo
safely
ambient
ambleside
freshwater
melod
conceptual
occupy
1940
1947
virtue
irony
olives
1920
karn
jumping
mobil
consequently
photographed
wilkins
memorable
ashoka
dowd
detectives
digest
footh
clarified
whisper
stamped
330
depressed
disagreement
outlays
outlined
fragments
hudson
exploitation
rajasth
hypothetical
feminist
resemble
murders
pagan
landmarks
utilized
suspicions
spoiled
allegedly
butterf
premiums
worshipped
diplomatic
abundance
olympics
skeptical
pearl
ceremonies
contingent
wrestling
continuously
surgeon
peasants
enlighten
himalayas
comedies
lalley
adolesc
strawberries
consortium
stagnant
etruscan
cambod
energetic
slogan
montmartre
dusk
hoffman
hilarious
reconciliation
reminiscent
kittens
furnishings
aquarium
dylan
dwarf
marguer
91
au
aks
bub
bidd
ely
eug
hath
iz
jets
lil
lus
lomb
mason
nash
oath
ply
rendered
sff
ves
vint
vantage
vagu
yam
##acious
##rd
##rine
##eur
##eck
##sad
##mates
##200
##naires
##cane
##lash
##gone
##gence
##burs
##writ
##98
##jab
##inished
##ono
##real
##arity
##aria
##isa
##isi
isa
reactions
reimburse
onions
whist
wholes
forested
##very
almond
goats
##opy
##anto
bypass
aba
abol
leop
mecca
##oshi
noises
prc
spared
mae
##unks
arbit
##emen
clun
clark
unused
peep
peasant
complying
##herent
reside
##ifs
incon
inclusive
newt
newcom
contests
##achi
intergovernmental
overview
disburs
hercul
laur
crom
##akis
recession
invade
invading
monst
remsad
##ermark
subp
slab
obl
artwork
elimination
kindly
retains
##enees
insign
insert
defining
ministry
##arsely
refusing
audiences
detached
airports
particle
tournam
patent
mailed
portable
landf
electoral
prett
criter
statuary
183
operated
apol
understandable
departed
brock
harmed
greedy
regulators
facades
questionnaires
##ricted
filmm
bloom
vii
geometric
grandchildren
inflow
teaches
constructive
jerk
commonwealth
ensured
firef
bonnie
galleria
creativity
angels
corrective
dressing
1972
pathetic
journalistic
investigating
advertised
behaviors
shovel
voluntarily
prag
collar
catching
predictions
caval
bulbs
1923
cupboard
pyrenees
nomine
nomination
instruction
telephones
byzantines
converting
eagle
dominates
monitored
sugarcane
tailor
satisfying
floods
flooded
concealed
blowing
dragon
reinforce
phrases
tornado
bedrooms
mentor
paradox
hastily
pitre
renovation
struggles
dilig
owes
admirable
transmitted
summarizes
bernard
embarrassing
patriot
flourished
flourishing
vendor
advertisement
mathematic
envelopes
ryan
pronounced
disclosed
fiercely
hispanics
anchor
contingency
bumper
interfere
counterparts
flanked
lamps
downsizing
borneo
kiosks
jumbo
infinite
airplane
embassy
untouched
mehmet
matthew
kabuki
immunity
autoroute
invisible
corinthian
vacuum
strasbourg
flamboyant
oxygen
hypocrisy
farrakhan
bidders
##writers
tournaments
50s
512
86
auctions
cripp
dic
dess
dum
dys
eph
hides
icons
khan
lend
lug
mitch
nc
nfl
oven
osha
sank
wary
##ean
##table
##mes
##falls
##iantly
##car
##dad
##lion
##74
##bly
##hir
##hour
##hame
##xy
##ystem
##with
##woman
##juku
thai
##eroy
##esus
##ouin
tosh
andrea
isle
recept
harem
##imps
alc
##adic
heal
shaw
##ules
negr
fron
fruits
seal
doomed
chios
exor
knives
##riad
abortions
meiji
allerg
spice
maz
manners
arising
##emon
unins
unjust
##oused
##izable
newton
exported
grasm
overh
disreg
##rys
booming
coe
coven
lax
##ipur
accustomed
##licable
undist
undergrad
##iances
lottery
consent
decides
backward
trapped
##othy
specially
blair
##ressive
##ibu
slump
dayton
parl
parental
disco
elbow
modify
##conn
minisk
minamoto
##ificant
mete
metrics
comeback
nationality
autobi
curs
curved
mustang
concorde
cheating
cheeks
turnover
certifying
transp
ideological
patric
raf
raven
raft
clintons
pala
collects
morrow
apache
caletta
tradem
##brow
halted
broch
volley
succession
successors
plea
157
155
1500
socialist
irreg
cement
brah
##author
methodological
coupled
antit
tenants
civilians
destruct
entirety
##ogne
##umbers
hearts
madness
unfinished
favorable
strand
virgins
reformation
emergence
lowering
damaging
arrives
noticeable
voter
communicating
gardener
wilde
corrected
venerable
declar
biology
1977
sensation
garland
605
midday
disposition
boxing
literacy
warmly
meaningless
laser
bandit
ultra
vacations
telegram
predicts
repeats
cubans
brandy
dedication
irak
daddy
##iesta
efficiencies
##market
mirac
novelist
1945
semin
cartoons
transferring
3000
allocate
absorbers
osi
oversee
arcades
1919
speculation
waterfall
divorced
cousins
darned
gorge
unusually
antoni
accommodation
ecological
densely
rewarded
tanf
disneyland
exploit
cheerfully
fertil
lamar
lambs
promotion
renovations
struggled
cycles
boomers
offsetting
distinguished
prophecy
sailors
crawl
monopol
athletic
stimulating
metropolis
licensees
tutmosis
passionate
advertisements
prolong
excavations
mathematical
scrutin
frustrating
tangible
lobbyists
skepticism
ellison
wardrobe
triangle
ornamental
lungs
cedar
philippines
fossils
sprawling
prescribed
disgusting
jardin
hockey
intoxicated
predecessors
interpreted
eruption
sarcophagus
blanca
rectang
nightmare
transplant
bureaucratic
destroying
anatolia
trivial
persecution
##anthrop
ineffective
pencil
symphony
umbrella
fictional
grafton
laptop
lebanon
antichrist
teodoro
refriger
noncompliance
enlightenment
cromwell
insignificant
apollo
grasmere
76
apt
bows
cough
dair
dash
duration
eats
fold
gin
gem
gases
ip
juries
kor
mou
oy
oaks
pes
pod
rim
rated
rivals
sink
soda
tint
urea
vamp
wit
##ridge
##eer
##tm
##si
##schild
##master
##maker
##28
##far
##iary
##iken
##net
##dled
##ku
##konos
##erick
##atro
##escent
##enheim
ink
##itomo
##armed
##omot
##ioned
##iliar
##ileries
bew
beau
beats
##utant
stumbled
haired
forem
##imil
##imited
##amiliar
alas
##ths
shores
##este
coniston
dos
chan
cherry
goa
##rained
lia
##outed
prow
sphin
mafia
##unned
##qual
outn
trinity
unac
upward
mykonos
##ureen
amused
quai
offenders
##arets
grotes
brisk
coves
lace
laud
goodman
##ilel
decad
monot
traced
opulent
preschool
joc
makeup
madeir
evangel
flushed
flaming
systematically
addicted
subia
slice
emplo
wares
visc
basics
discont
handic
modifications
locomot
insane
defender
builder
popes
meditation
pointless
demograph
engra
nationalist
curves
curtain
signatures
graff
openly
chevy
extends
ideals
mailbox
##teenth
porte
##leyman
cretan
grouped
annivers
varieties
billing
trades
activist
experiments
mergers
judy
awfully
presenting
##ancies
brace
agreeing
encycl
labels
styl
turbul
competencies
modeled
debates
snack
eleanor
universally
copyr
118
1981
circles
picks
##ographers
militia
panama
influx
decisionmaking
royalty
##iquitous
bonap
alternate
juice
sandwich
denying
rounded
pleasures
hype
kills
candy
604
deductions
integrate
cambridge
remainder
1968
punjab
worrying
renamed
augment
italiane
2018
videot
gentilel
concentrate
forgiveness
forthcoming
1941
retailer
fanci
spectacle
roofed
sarah
scandals
proceeding
vacationers
neatly
heroin
dishon
bagh
overseer
nicer
sophia
##gregation
assertions
dominate
venetians
flags
subtract
sacrificed
reservation
sanctum
lorraine
stranger
pcs
tuileries
rodin
lucrative
admiral
fulfilled
australian
alabaster
greeting
pregnancy
stanley
dotted
exemption
exemptions
loyalty
intervening
frederick
travelling
sikhs
devastated
phenomena
humidity
vocab
metaph
theoretical
tucked
gutenberg
richer
oliveri
contradict
likeli
navigate
sesame
swallow
hierarchy
conspiracy
cautious
mascul
yankees
paralegal
perennial
trinf
tadminster
strolling
pokemon
autonomy
ralph
edifice
gourmet
cricket
insufficient
giovanni
ubiquitous
orrery
backdrop
##inancial
lakeland
goldsmith
marguerite
vaguely
isaac
monstrous
criterion
iraklion
foremost
sphinx
anniversary
likelihood
ao
bury
cries
dh
ech
ja
ka
kit
kow
kod
kannon
laughter
nl
pd
pk
piv
poul
pessim
rer
ras
ria
ridden
tart
tiss
vines
vern
yale
yelling
##ao
##ele
##tle
##ski
##obs
##namese
##cases
##dog
##uously
##paper
##vi
##vention
##kind
##yo
##yer
##yrin
##wara
##inform
##atur
##anese
##ali
##itism
##arium
##ela
isab
beings
reims
wholly
##roach
##chang
##chrome
##ollect
##olini
##amine
asyl
notor
shine
shiver
shipped
sherman
##ulum
proxim
weeds
fries
seine
sealed
goof
suite
##odern
##ffy
##nty
##ivities
spiel
spouses
donkey
##okie
tram
trout
trunk
unse
uphill
upheld
pepp
myriad
resc
impract
##agm
quad
diane
##elyn
intol
rogue
muff
laz
##ignant
##owning
scor
indict
##loon
carth
##issible
bets
invari
syria
assuring
highland
evac
lawful
##ollutant
flut
slack
showrooms
maraud
endow
endpoints
retreated
childish
edited
organizing
refin
avid
avant
fundament
economical
signing
formations
concise
serra
transit
admits
swiss
menace
musk
glowing
protests
gaoas
passive
natives
morb
varanas
archive
apoll
paste
thirst
healthcare
chooses
pleasing
##she
brake
horr
crab
blocked
label
labyrin
prevents
pots
tense
tenure
assisting
squat
devised
subjective
richly
snap
forehead
goldberg
penis
30pm
shrink
shrimp
fairy
135
erlen
tiers
alternatively
medication
uttered
ridge
primitive
celebrations
farmland
philanthrop
closet
multipollutant
photographer
hostel
starving
adjusting
##yrus
1969
truths
constitu
astrol
collins
catcher
colonel
##working
##lamation
inspire
inspiring
salesman
thanksgiving
variability
defeating
tunic
terraced
robot
porches
cabins
inquis
illustrations
proceeds
negotiating
quantify
filling
publishers
bustle
1952
1955
calculating
protestants
winged
detective
accomplishment
clarity
vietnamese
omitted
monetized
##anesh
reserves
translate
blacksmith
leaning
parliamentary
prudence
naive
optimal
hypotheses
cyber
cycling
owing
correspondent
barrier
##repres
ceramic
swinging
avenida
resembl
lucas
##kaido
lsfo
stanisl
polychrome
viceroy
commemorate
##immers
diplomacy
vigorously
trumpet
restrained
continuity
rebuilding
wreck
smokers
tucker
hurricanes
rouen
unrestricted
unlimited
fossil
reversed
##estimated
dwind
fidel
favourite
miami
pledge
appetite
##oppy
##colm
reopened
nickname
epidemic
##patient
barracks
mussolini
mundane
retaliation
dancers
mckin
telecommunic
ambassador
normandy
barbarians
bureaucracy
todd
giuliani
scrolls
skimming
alphabet
jeez
dsm
ammonia
##occup
uniquely
pompeii
karnak
aksa
antitrust
declaration
liaison
outnumber
graffiti
gentilello
kowloon
poultry
varanasi
erlenborn
resemblance
telecommunications
bip
bachel
cds
dared
ditch
gust
golly
hend
hints
ie
jas
jade
lum
lamb
mowing
ner
nail
py
peng
raz
rash
ratt
roses
vene
yug
yidd
zuck
##aid
##rade
##rise
##tained
##oise
##nard
##nbc
##cott
##uil
##uji
##liness
##ggy
##pin
##atis
##attering
##orate
##alys
##asive
##lee
beans
beams
reilly
##owers
##uters
##urer
##urbed
##igs
##igraph
##ignty
##imon
##adoes
##ulary
neh
frana
chorus
liz
lipp
##rians
##usa
lease
##elles
sof
##oslav
##ostyle
spine
##cience
##astrous
outsid
looming
enrich
clam
clash
pee
uso
someplace
resigned
##ccoli
ams
getty
quer
offended
interchange
disasters
disastrous
herald
##berman
brant
co2
##ignon
##owners
crane
crude
indies
indef
prefect
prefers
vec
recollect
betting
relates
backwards
invitation
monk
remot
remod
informative
secluded
downstream
costume
highways
governed
blument
kemp
##iban
##urned
idaho
slender
##ulars
empirical
basse
handwr
##phone
##ribes
taliban
insists
simpson
marker
refusal
aviation
postwar
proposes
issuing
barber
##places
gravel
gravey
patan
matrix
glen
electrical
generosity
harlem
garde
greg
ordering
waist
enjoyment
##shaw
purse
entertained
britann
holders
silhou
immune
encry
encirc
169
recordkeeping
argu
freud
treats
woody
void
connor
halles
unfamiliar
sociology
strain
viruses
ranked
culturebox
secretly
exceptional
cooks
kmart
physician
croses
slee
stationed
declines
respectful
tender
tendencies
integrating
responds
##took
affords
administrations
touching
consuming
demonstrations
premises
capacities
predicting
cowley
revolutionaries
appealed
guardian
powered
derwent
pulls
1944
virtues
porter
hypostyle
outcrop
shelves
licensed
falcons
berlin
vacc
grief
instructor
260
byzantium
overlook
coordinate
1915
whisky
asserts
surfing
291
29th
migration
globalization
corpses
conceal
levi
anticipate
theatrical
tornadoes
promotional
smoothly
dunes
prosperous
neckl
shouting
corresponding
resembles
admiration
lewisville
deterior
prospects
bearded
tolerance
legitim
tutank
anxiety
cottages
coronel
inspirational
fetus
scorecard
frustrated
wagons
diamonds
bastion
##uminous
marshall
condemned
vaulted
ornaments
illuminated
replica
toothp
safeguard
safeguards
unavail
nostalgia
amenities
tabloid
remnants
prejudice
ethnographic
fasab
fontaine
sepulcher
##proof
sovereignty
dismantled
disciples
meadows
exhilarating
outdated
bohemian
custodial
inaugurated
palacio
trademark
encycloped
copyright
bonaparte
vocabulary
kodak
proximity
spielberg
invariably
yiddish
zucker
blumenthal
britannia
94
aides
arose
baked
barts
cort
cites
dag
fau
fading
gw
gag
hok
hunch
huts
iber
iey
jol
mong
mentions
mamel
nist
nia
nik
nathan
pend
piss
rally
rains
sz
tensions
yog
##rs
##oire
##oidable
##iop
##nuts
##dal
##dings
##bone
##bank
##hall
##polo
##eras
##algam
##reet
ina
##ittering
##arthy
##asy
##ilater
bean
##ayan
aligned
asians
##term
fract
fringe
##illery
##keley
chasing
##ighter
liking
liabilities
exuber
##abl
##ellas
prisons
spells
sparsely
maureen
plug
ary
aroused
##cien
donating
sailed
outwe
outlying
enig
clich
clois
##oken
tray
upwards
peac
usher
resid
resale
rescue
implied
interact
interiors
interconn
roar
crumbling
scorn
preoccup
##ogen
##ensing
##acz
undergo
underwear
helen
moat
monso
stressed
presently
regimes
##onsible
effluent
scheck
flames
callers
cape
parap
parque
##ribed
retention
lasts
drastically
earmarked
defines
startling
performs
meter
metabol
##redict
skimmers
emble
eminent
emerald
confuse
chef
turnout
watering
##quez
portrays
portfol
internationally
pretended
infected
collector
##lessness
1800s
morrison
activists
paved
harold
breach
buyers
##parable
preview
viking
poorer
colleague
grandson
devoid
##ovia
debated
eighties
lighting
malcolm
140
pollard
standardization
violently
driveway
hopeful
banner
hurting
hurried
firearms
laden
ridin
predic
supermark
drawer
machin
wishing
quieter
cruz
1978
fastest
essays
extremes
submitting
camels
hostility
##maid
rainy
warmer
mountainous
constitutes
jeal
punct
giotto
jamaicans
gasped
sleepy
##worked
cheapest
pulp
malla
psychologists
bullets
comfortably
tougher
unprof
melted
powders
occupies
semester
mccarthy
snowed
gladi
vastly
containers
comprise
prayed
##offs
obligated
illegally
proudly
nominated
instructors
recovering
teenager
boulevards
recalled
youthful
exceeded
prosecution
innocence
disappointment
exploited
relying
mentality
rationale
stresses
supplemental
optimism
cancelled
weighs
disciplined
##keepers
outsour
enclave
1871
solicitation
collaborative
tiepolo
montego
stevenson
warnings
tapestry
withdrawal
warranty
vigorous
gerth
brewery
gleaming
abdul
browser
disposal
discriminate
tidal
enlar
adventurous
vieux
kuwa
philippe
endangered
confederate
lecture
unavoidable
undermine
addictive
blessing
mercenary
bakery
pesticide
adversely
accusations
aristocratic
sweden
harmonious
##aggio
contributors
jurisdiction
inexper
poker
lehrer
trigger
##eveloped
gauntlet
eccent
inaccurate
disliked
guerr
merrion
lithuania
fowler
muller
macedonia
guillotine
certificate
toilet
griffith
ineligible
zarco
alleviate
quasi
barcelona
santiago
rajasthan
butterflies
dessert
meteor
volleyball
destructive
grotesque
asylum
horrendous
indefin
arguably
encyclopedia
ieyasu
outweigh
cloisters
750
aar
bry
eis
fc
gt
ggd
hig
hart
hitch
jup
lss
lining
lingu
lenders
mg
mold
ooh
ocho
pied
pines
pave
pairs
qut
rios
render
tant
vist
wend
wto
ym
##aism
##rough
##ement
##eenth
##town
##mip
##mins
##moon
##25
##foot
##iards
##ienced
##cut
##low
##bot
##bury
##vell
##kakis
##jeeling
thie
thesis
thebes
##enian
##orial
##aragu
andre
##icenc
##leiman
##otam
##ilitation
beast
##uten
stif
haute
haps
forge
##urt
##olics
##irds
##adas
shen
proxy
##eston
atroc
seating
##kee
cham
chag
chunk
##rand
suh
suleiman
##opotam
exal
knox
meek
cano
##oster
##umble
##ivol
manchester
##apable
##asties
sag
outlines
outright
anyways
clown
unint
unhe
unadd
unauthor
uphold
upbeat
##ishi
##ahang
sheikh
thinker
incense
expose
quir
dias
reputed
intends
grotto
thanked
oversh
overheard
herd
brute
brush
bunt
scow
scour
scars
##ogu
##loge
deserved
guild
recalls
underway
mocked
backpack
backlash
oprah
strung
securing
johor
downlo
evie
##ermo
flop
slot
owning
cityof
depiction
##ksh
parody
phant
townhouse
simul
metals
easiest
propri
confessed
technician
signpost
##ilton
affluent
runaway
ideally
probable
terry
raided
gloss
nightly
congressman
calder
clearance
activated
pasta
broccoli
grease
villain
promont
judaism
winners
satan
poses
irresp
brac
filter
##parnas
labour
viability
periodically
##ushu
protections
debut
suscept
snatch
teachings
murdo
catholics
jerked
conventions
neglig
bushes
dukakis
##ambles
structural
surrounds
surprises
fifties
##adesh
strips
georges
cookies
softball
instituted
bankers
biased
radar
connecting
flexibilities
misrepres
verbal
##maic
fleeing
ibicenc
chiefs
deserts
bronzes
amazon
drafting
dodge
suspense
grove
unpredict
montparnas
weddings
vanity
hawk
strengthening
samuel
inventive
1936
tapas
victorious
gambler
comprehend
negotiation
dynasties
boundary
emphasizes
harmful
nurses
splendor
kyushu
launches
attendant
attendants
crusades
nicaragu
scholarships
sabb
overlooks
cellar
tubes
eagerly
frost
darjeeling
vulgar
embracing
authenticity
wheelch
nonfinancial
consolidation
owed
repaired
cuisines
gigot
excludes
dictionaries
mythology
rustic
instrumental
auctioned
deliberations
patriots
overwhelmed
reproduced
tsim
tsui
whipmasters
flaws
preserving
muscle
kleiman
##married
honeymoon
clutched
dwellings
bhair
bastille
clustered
transparency
mandrakes
recruitment
warehouse
helicopters
confrontation
lonely
caravaggio
timbered
swiftly
raiders
colonnaded
gratitude
glamour
synthesis
tabloids
lynn
volatility
fluctu
horton
vertical
postmodern
enclosure
aisle
kinsley
nebbish
gyps
uneasy
rhetoric
kendal
benedict
hassle
lobster
amphitheater
undersc
##ukkah
cucumbers
segovia
prettiest
dairy
unaccept
demographics
bachelor
venez
yugoslav
##alysis
brantley
silhouette
tutankham
hokkaido
inexperienced
lssm
qutb
ymca
unaddressed
irresponsible
murdoch
montparnasse
87
bm
belf
bung
cim
cunning
eric
gaming
giza
geared
hips
hilly
hinter
jc
kay
kum
kame
lone
lured
lana
mim
nets
pau
pamp
pony
rph
sinking
til
tink
tile
tina
vind
wipe
ya
yr
yadda
##avers
##rat
##eira
##mud
##mail
##dam
##lie
##pool
##person
##vo
##aton
##orio
##orient
##anile
##aluation
##reced
##reuil
##iso
thatcher
##iders
##idated
stig
stare
##etra
hamb
forrest
##urances
##sex
##sees
##seum
heated
notify
sharks
neads
frivol
seleyman
deity
dove
chi
chanting
##ighters
exchanged
##rio
abusive
yeats
soy
soho
##osium
canopy
##alling
##ivan
spit
spans
spelled
plac
plunder
hadrian
##cile
##quist
##endously
claw
clinger
adher
unimp
myr
##ahu
resume
resumed
perkins
workmanship
imputed
intercept
herbal
coch
coerc
centr
centrel
scored
scales
indisc
accusing
##loqu
needless
guiding
carmel
smoked
attent
polished
thrilled
remed
##aval
belle
##oco
slipping
housew
depended
surm
surchar
handica
kinda
capp
capped
edges
edgar
##cont
redesign
defenses
default
lett
prized
approvals
charities
sinatra
corral
avis
config
deterg
##loyd
grapp
numbered
daw
swine
majors
possessed
campanile
portals
glittering
passages
equals
infert
continent
classifications
behaved
annan
politely
##aughlin
##ucky
capitalism
harp
harrer
waver
culturally
merry
merged
154
descended
purity
breake
177
brag
##autions
stepmother
envy
couns
definitive
determin
divides
similarity
walkway
riches
richest
pressing
115
##ycles
wrongdo
centralized
keyes
englishman
displaced
shrinking
arrows
despise
despair
stockholders
gallon
savoy
juven
sands
combinations
efficacy
messed
celebrating
declares
commenters
exhibited
closes
1976
##itorial
ballmer
occurrence
607
excellence
investigator
camii
flynt
homer
gradual
progressives
constituted
californ
jeep
spectators
conditioned
precautions
dramat
brands
brandon
cowboy
suspended
forgive
relaxation
unpreced
babylon
melrose
mirrors
commanding
commandments
carriages
strengths
logistics
inspectors
samos
confirms
battered
symposium
advisors
workshare
ivy
lakeside
harmless
randomized
griev
absorb
nicolas
pedro
shocking
champagne
chronicles
attributable
knocking
huntington
exceeds
fostered
privileged
aggression
basilique
lindsay
dunge
wounds
uncont
hazards
axis
hesitate
weighed
nerves
acknowledging
luu
niches
##pitel
lodges
terrified
##affected
tolerant
stalact
serbia
cameron
persuaded
xvi
bazaars
kissed
vividly
cherpitel
culm
overwhelmingly
indirectly
tibet
endorsement
cassettes
vessel
relieve
drifted
kerr
adventurers
jfmip
revelation
celts
himalayan
entrepreneurs
bookstore
inscriptions
predecessor
oranges
cautiously
##hyd
unlocked
consecrated
plummet
volatile
shinjuku
squeeze
bookshop
daimler
endorsed
namely
chancel
ascendancy
unanimous
peanuts
pertinent
brinkley
positively
unexpl
mclaughlin
vintage
arbitr
subpart
##hameha
rectangular
fundamentally
stanislas
bipartisan
jupiter
unauthorized
unacceptable
tutankhamun
kamehameha
centrelink
breakeven
unprecedented
53
650
bids
cokie
dll
ego
gm
hitt
htm
joking
kast
lid
luk
mls
nr
ni
nud
nue
oira
pse
pam
pang
pact
puck
sri
sard
vp
vit
wired
zinc
##offic
##laz
##bin
##bod
##papers
##var
##vation
##vos
##yers
##yoshi
##13
thar
##oretto
##edded
##rec
inequ
##arians
##asions
##elo
##elieu
##ilian
##uter
##utta
stub
stip
##eterm
haze
aldon
##thest
##adi
hewn
shan
prostit
##estones
weary
fry
sean
##erees
chir
chast
gosp
coma
orrin
livest
##antau
abused
abuses
##cker
lex
sox
soothing
nood
##udy
##uming
pric
maui
plath
manson
##apur
##quer
loos
lofty
clip
clergy
une
##ccan
implying
impulse
##agar
contend
quench
gramm
rooft
##uez
overp
overpay
disband
bog
brim
broth
cocon
laura
crone
cramped
scal
scam
colomb
commons
##eph
desires
guitar
recur
##acies
carly
polling
decay
relent
backup
##aternity
symmet
assurances
tracing
longterm
evicted
evelyn
##ibus
flashing
genes
subsection
empt
depri
parr
payoff
discos
##phine
modesty
seti
gaza
edit
huang
insured
delir
startled
revise
refine
charred
charitable
metic
cleans
humil
##chnya
detr
curric
designers
nearer
chechnya
beneficiary
newshour
mush
portico
terr
stump
critique
statistic
operas
summoned
apath
calip
execute
awoke
##empt
posing
174
ceos
brava
illusion
##naire
solvency
antilles
potent
geological
staffed
humanitarian
##icultural
risky
freak
footpath
richelieu
malibu
woodland
normans
recommends
julia
keyboard
convict
duly
138
ensures
junction
tiered
creator
linkage
inns
croat
crossfire
preferring
tariffs
babys
glassware
midwest
connects
disposed
disputed
cathedrals
hunted
piles
proserous
compliment
liberated
sorbon
spirited
petra
searches
releases
cynicism
hellen
inspected
benign
ambitions
marched
bowls
thankfully
ninja
tuna
##guard
##guards
francs
commanded
widow
fortunes
praying
quantified
bounds
kitchens
oxford
disagrees
270
synonymous
nicotine
deposited
champs
sprink
implicit
hideyoshi
scarves
bleak
bleeding
tailors
oddly
subtit
cigars
ecst
palestinians
levy
prohibits
outlay
altarpiece
philosophical
dolly
hamilton
skewed
hungary
heavens
administering
akin
tricks
protocol
landscaping
elevator
forecasts
##waite
nazis
sophistication
prototype
bernstein
horns
##borne
terrifying
verdant
tolerate
stanford
indoors
vicinity
preserves
bundles
nonexistent
persuade
stringent
breezes
hanukkah
kobe
sustainable
somber
somalia
belgian
belgium
populist
turtle
vaults
triangular
rebellious
dentistry
stirred
sufficiency
screwed
counterpart
egus
enlightened
plunged
paramount
defectors
landlords
twisting
adorned
impaired
hosses
profoundly
impatiently
veronica
intimidating
rhythm
rehabilitation
disguise
yoritomo
ptolemaic
imprisoned
scoop
confronted
macroeconomics
flick
algeria
croseng
reloaded
dennis
kristol
cypress
indifferent
##olithic
restructuring
refurbished
silicon
lusitan
mitchell
undisturbed
refrigerator
peppers
intolerable
labyrinth
pengu
remotely
graveyard
unavailable
unprofitable
kuwait
canoeing
phantom
promontory
hambur
wrongdoing
stalactites
pseud
aldonka
livestock
5a
aide
a50
berm
dj
dough
dna
ferg
het
heter
kas
kag
koh
lance
lime
lama
lago
linger
morm
nie
ou
oils
rut
rug
sul
sans
vos
vase
##rational
##rimin
##rams
##eux
##mal
##mons
##obe
##feld
##ienne
##nc
##buck
##hoe
##pse
##kh
##atter
##orable
##ouded
##anon
##entious
##entiful
##ilcar
isis
beacon
reins
reuters
stagger
hauss
##ayama
##cha
##chre
##irth
##imi
aloud
alaska
shod
shone
shred
shik
##uled
##ulatory
nept
concess
frie
framed
dose
chess
chilled
sumpt
##rious
##uson
abbre
##cki
leak
lemon
soak
canoes
noec
##iven
spor
plentiful
manning
arises
enra
clone
ade
unlv
justices
peek
compiled
##ahoo
perakia
teatro
imperson
repr
repos
everest
intersection
grilled
roast
disd
herman
herbert
feast
muham
twe
##berry
booth
brun
coarse
crashing
acclaimed
preten
pole
poisons
poignant
##ogene
##locks
recount
undes
cargo
carville
smashed
attire
helena
polo
mole
conscience
decim
reloc
invoked
assimil
regain
regained
##atha
statehood
blat
acoust
flirt
genoc
generic
slid
empires
warming
warlord
surreal
daytime
showcase
arte
handg
feds
endure
valuing
gaudy
edict
drought
publicized
miners
nora
prizes
happier
demol
postp
skirt
trianon
milestones
##ucci
tyr
walt
##roned
swell
excise
campers
explores
southeastern
glared
glimps
northeastern
pretending
risking
nighttime
204
203
##ocks
policemen
##lique
brod
limp
staunch
steer
pleaded
authorize
authorizing
authoritative
socialists
##shot
burge
irrational
filipp
horribly
hopeless
administers
envision
periodicals
christened
styrofo
167
##otti
tenant
squad
destined
debating
walkers
lighted
holland
116
royko
opted
contracted
violation
honour
massage
arranging
dukes
motive
strategically
expressions
tipped
troubling
cardiov
##riptive
denial
battled
declaring
tarn
hyster
ledford
##ophis
darker
consisted
scramb
1973
ballroom
garn
midst
flowed
misle
##ascular
hostage
missionary
1962
1965
notebook
demonstrating
interventionists
folly
comparative
colonists
texts
lieberman
pulse
odys
unspo
precinct
fuzz
murderers
cooling
##olester
bellini
thankful
fascist
fascinated
earns
unprep
montreuil
challenger
melanch
deriv
afternoons
##iye
1922
rubbing
supremacy
dryly
batu
dynam
falwell
berkeley
conquer
fraudulent
wilshire
diversion
clicked
forbidding
sultans
mystical
digging
teenage
distinctions
pierced
chronicle
coordin
cellars
cooperate
bulls
bombay
coaching
hawaiians
streamlined
tabs
buffs
padd
hamilcar
blankets
aggressively
exploiting
jacques
exempl
thursdays
juanito
motionless
feminine
simplest
expansive
rusty
diameter
crawfish
puppies
compounds
flawed
flawless
warns
espn
##hisatt
shoguns
evolving
salvation
durbar
tremendously
pakistani
bulletin
aristocracy
condemn
fleece
corridors
preaching
pomona
toyota
compatibility
parameters
12866
confeder
hilton
nostalgic
##ukuji
jennings
transcript
squeezed
overdose
mercenaries
applauded
resentment
veronese
unscathed
syndrome
jagged
jogging
alpine
indonesian
ovitz
nassau
krakew
colossal
duchy
valencia
sincere
guru
apocalypse
deviations
mangrove
pebbles
elysees
hathor
sffas
reimbursement
toshogu
ipoh
vampire
##qualified
masculine
pivotal
endowment
niaaa
eccentric
indefinitely
thieves
atrocities
diaspor
overshad
unpredictable
territorial
bermuda
muhammad
pretense
styrofoam
cardiovascular
unspoiled
aims
bair
bending
cag
cork
dab
dau
dala
ff
fade
fuss
gel
hing
jams
katherine
lah
lame
lanc
lousy
lantau
m3
mell
nou
nan
naming
pi
pj
pand
pree
pase
rus
rushing
tene
wra
wink
wield
##mouth
##22
##fert
##cer
##lif
##van
##wind
##witz
##jar
##zas
theolog
##inence
##inia
##inarily
##atop
##atus
##atism
##eni
##ener
##edly
##alus
##itory
##aser
##icular
##elong
beware
relev
reimb
##stood
##stones
stain
stakes
whipped
##ayment
##chamber
##igo
##amas
alice
alarming
heming
shi
sherry
withhold
prost
weis
##ersen
fra
segments
chai
chania
chrys
goin
comf
##rain
sucked
suez
##opf
##opus
##odrome
exxon
abound
##abling
##abouts
##orting
##ortional
sofa
##ardom
mex
##ghia
##osystem
pruss
sped
spire
maneu
ard
arrog
donat
donalds
sage
saff
##endo
anyhow
loom
clause
trous
trays
unve
unacc
unmarried
unaffected
upstream
timeliness
complement
aggra
residences
themed
peru
workpapers
amber
amster
impart
incarn
incapable
expelled
interstate
grues
rochester
herb
boo
brom
crest
crush
indec
prey
preambles
poo
##ogical
##locked
##licted
righte
rightly
##acity
carne
fines
##issa
##issos
polar
somethin
syl
assisi
##yslaw
keb
evoke
evokes
lawmakers
##ocre
genres
calligraph
##ilyn
slipp
surpass
daycare
parried
marilyn
caen
modes
##uger
edmund
drill
##rolled
redist
huff
simone
charms
factions
believing
fundra
posting
proposing
proportional
skipped
confession
barrels
manageable
##ilts
taxis
watchers
graced
cheat
viewpoint
extract
extinct
patiently
sworn
##tened
possessions
milliken
severity
camper
teresa
crev
glor
infam
capitalize
trader
eyel
roadside
orderly
waving
youngsters
identities
identifiable
judith
107
159
irres
sung
##rett
bracket
filters
horrors
texoma
texaco
husky
dominating
geograph
imit
float
squash
turmo
grands
sentimental
riverside
snar
##anners
achieves
wonderfully
applicant
negatively
virus
sexy
emergencies
##iko
despatch
expressive
spaniards
acquaint
arrivals
gallic
messy
sweater
embell
embedded
physics
##neys
sculptor
sculptors
titans
rebutt
sensational
##rell
##haus
jesuits
splash
misgu
mickey
submarine
avoidance
beatrix
starved
conservatively
decorate
bordered
interviewing
gloomy
hanged
narrowly
dubious
sharm
praises
releasing
qualifications
tasty
tasting
breathe
repeating
lieu
drafts
libraries
dodgers
conflicting
shoots
spreadshe
robbers
laughs
pleasantly
hawks
semantic
inquire
shuttle
1930
deceived
container
imperfect
mileage
mouths
mcm
volunteering
orientation
##bitant
publishes
1958
fooled
forbid
exposures
kennedys
mahar
incorporates
clinicians
kosher
craftsmanship
cellular
concerted
alfonso
bricks
ferdin
streamline
omission
ecosystem
switching
prohibit
lesb
pinker
downturn
philosophers
solidarity
exploits
sanctuaries
maple
strangely
leonard
tinos
puerta
unwanted
pineapp
rodrig
habitat
orchids
portrayal
acknowledges
correspondents
dismissal
ineffic
hammered
fundamentalist
shaft
deliberate
lsny
reacted
incidentally
disgrace
undertaking
inherit
teddy
utilize
yachts
1868
tacky
tackle
reluctantly
accumulate
commemorates
databases
balearic
ducked
steamer
warranted
kissinger
wagner
unexpectedly
trimmed
##oshima
cherished
ellen
anchored
neuf
outfits
emotionally
surgeons
barbec
stereo
quotations
swayed
hippodrome
disorders
coincidence
carlton
fluid
pudding
perfumes
accelerate
terminology
hungerford
ruthless
glamorous
resignation
sarcophagi
jennifer
reefs
consecutive
quayle
sullivan
unstable
slammed
##rupulous
daimyo
golan
amarillo
discharge
irritating
misdeed
unscrupulous
rhythms
gibson
nobility
mediocre
garrison
ankle
predominantly
bullfights
miecz
voyage
encompasses
embroidered
titanic
deregulation
##bags
disapproval
ounce
ductwork
charisma
crocodiles
motorcycle
luther
arnold
adolescents
##2001
wholesale
cluny
nominee
ephesus
exorbitant
rafting
baghdad
nlada
##information
carthag
nehru
vecchio
fcic
downloaded
bhairav
surcharge
handicapped
lettuce
counsels
juvenile
kastro
priceless
neptune
abbrev
paseo
reimburs
donaldson
amsterdam
rebuttal
mieczyslaw
2nd
9th
bert
dand
eco
fod
gory
gabled
hr
ioc
jess
kais
khal
mih
nig
nun
nax
punt
rall
routh
raging
riley
sass
tying
vitt
witty
yahoo
##rith
##rud
##rition
##rued
##oin
##fied
##uy
##ueless
##lim
##lich
##laim
##lsw
##gore
##bus
##pas
##kill
##wau
##99
##11
##enos
##editary
inhib
##itatively
andersen
##omatop
ist
beers
reared
onomatop
ster
stems
##etz
hailed
forged
##olent
##igl
##imas
ald
alignment
##adena
heinous
shuman
frug
frances
seals
##illon
##erem
chal
cholester
##oper
##opia
lique
##antan
soaked
allotted
##ffen
##ection
mazz
plots
mania
arl
donor
donna
donkeys
loads
enabling
trench
unrem
justification
justinian
agony
agitated
reson
perot
perry
amun
amalgam
impover
##ichi
##grams
dile
rooted
disburse
herron
hereditary
fearing
##ittin
brune
coke
laf
partake
##aceut
crater
crescent
scent
##akian
indign
indisp
accred
accadem
coloured
##ensional
##angu
guin
reclaimed
##onder
underwent
legged
decree
relocation
invention
strenuous
takeover
eva
slaugh
##orns
showc
parcel
discarded
##phem
kindness
realities
realization
cavern
endowed
retro
##eney
reds
hump
defensible
minarets
builds
nationalists
postc
posters
propon
conferees
barth
barge
milwau
cured
advancing
directing
directive
2008
newsday
admitting
extensively
##althy
##text
menhir
exclamation
campo
untrue
palermo
infants
infirm
continual
1800
1812
##eaded
archb
capitalized
pawn
singh
villager
steaks
youngster
figuring
##onto
##shed
originals
sounding
responsive
sunrise
esplan
filmed
armored
silo
cannons
immature
127
121
methodologists
modernized
christie
##owski
mattered
floated
musician
screams
casting
##iums
livingston
copp
typewriter
146
##umbria
chapels
penrith
shrouded
settling
sexist
sexually
reformed
separates
damages
specification
##eteries
utmost
broadly
retirees
quarries
parisians
messiah
prediction
gardeners
institut
documenting
correction
climax
bikes
webster
discoveries
diner
dinners
balloons
609
martial
investigative
bloodshed
misstate
rainfor
rainbow
restrictive
straightened
springer
sorrow
conversely
usefulness
jeop
ullsw
microsc
vacant
telecon
telecom
petite
sharon
clocks
etienne
tasted
newsweeklies
pulpit
ambiguous
unsupp
preclud
starring
psyche
bully
wedlock
##zenji
vandals
miracles
commanders
bathe
blockb
weighted
1935
consultation
hatfield
chemistry
advisable
comprising
quantifiable
abandoning
honesty
allocations
##roads
dustin
belonging
rumor
sexuality
scandalous
gangs
##itano
sprung
702
sophie
ringing
excessively
arcaded
attribute
brilliantly
dominance
enthroned
updating
stairway
flooding
gracefully
levada
toxicant
anticipation
embraces
sacrifices
paired
dragging
ridiculously
elaborately
caribs
pitcher
cheerle
nao
##harth
allegiance
allegorical
benches
rococo
exclude
excluding
556
resembling
dictated
commodore
flourish
puppets
preparations
seafront
yielded
fisherman
fetch
reluctance
obstruct
marrying
commemorating
muddy
therapist
proclaim
mathematics
strokes
buttermere
puzzle
ribbon
ducks
parcells
bitterly
zealots
cemeteries
dwelling
caesare
cooperative
cloudy
perceive
alleyways
canadians
kimono
neuharth
parallels
restraint
##itarianism
populace
browsing
inapplicable
preacher
pasadena
mesopotam
caravans
ingredient
perfume
dividends
dolphin
robertson
empowerment
yankee
oasis
pesticides
marxist
troopers
outlawed
bullfight
treadmill
blonde
misunderstanding
earnestly
cpk
itinerary
plumbing
pfizer
anecdotes
plagiar
chlorine
staple
foresee
shalit
loggia
cohort
epitom
liveliest
cognitive
thurmond
immortal
mathematician
decadence
employs
handicra
trinfan
##changes
rescued
iberian
jolanta
machinery
piedmont
nicaragua
hinterland
frivolous
noodles
detrimental
sorbonne
lusitania
ferguson
burgeoning
odyssey
pjff
donatello
infamous
geographically
turmoil
misguided
fodder
kaiser
naxos
routha
cholesterol
impoverished
brunei
indispens
accademia
slaughtered
milwaukee
esplanade
ullswater
05
1st
83
bould
batch
bins
bio
bode
cin
cen
cyl
csa
dhs
danny
emm
econ
ecl
foll
fals
fitted
fsis
giles
horm
iq
ix
jig
kg
lig
lore
latt
lola
lenin
lido
nero
pfe
pash
pipe
rays
sier
ucl
vall
velve
wack
##afe
##eiro
##46
##oans
##ogram
##face
##iour
##nal
##not
##nings
##cur
##court
##dar
##las
##lest
##list
##gw
##gals
##py
##pal
##ymmet
##wright
##jc
##ju
##jahan
theft
##erary
##anos
##around
andy
##icable
reh
rey
rearing
reyn
reex
##ste
stam
##etary
whale
whales
hab
hamas
haghia
wast
##imented
##amachi
asymmet
heating
neon
neander
weep
deir
delet
chunks
orih
sue
##antes
##rier
##abar
##ellaneous
allergy
canon
##alled
spikes
mao
mace
plugs
arsen
##astics
sapp
##eming
##ende
loft
clog
cloning
adhere
trot
truman
unic
unear
unatt
unheard
unoffic
##ishna
compel
##ongated
residing
perse
pervas
teeming
shear
imped
incoming
##acha
interrog
##erving
roared
overha
twitch
brig
coaster
lakers
centim
centres
cranes
scree
##arkable
guam
guad
gugg
##acs
##acom
undergone
smugg
attach
##ometer
relat
programmatic
stride
strings
spears
provoked
##athos
blouse
supporter
##ibal
##ibald
##oculars
subcl
persia
paras
handing
handmade
elusive
maroon
modular
endured
retros
drowned
drudge
redef
redempt
minoans
careless
##leton
organizers
revaluation
chariot
sinister
correlated
median
believable
skins
distillery
productions
companions
advises
businessman
museu
graham
seren
##ashi
cheated
funerary
certifications
patrons
##cover
##iento
landings
interns
proto
##ecanese
understate
##oyed
behold
annunciation
hourly
stature
termination
summaries
apse
calv
calam
sala
salem
paella
paolo
##iddy
storyt
harrison
limb
volta
listens
blackened
choic
choke
waik
beachfront
wallpaper
104
10th
##enched
plead
winnie
questionnaire
descending
purification
puritan
suns
futile
##retched
essex
executions
ils
##aneum
specializing
agreeable
##prints
poorest
gears
staffs
assistants
##iterate
##roportion
alcoholics
doug
pressured
expectancy
copd
117
malabar
birch
langley
connot
replaces
##boro
journeys
avoids
convictions
straits
masses
decidedly
manufactures
motherhood
##iker
sonny
expressing
spanned
damning
greenery
exams
gallons
savo
packing
angles
broadc
bayeux
sweats
embar
embark
imaginary
##obia
denies
stationary
observes
observing
doubling
rapt
fixes
urb
urgent
disproportion
misery
verge
verified
buddy
liters
literal
sudan
truthful
battlefield
##cls
exercised
televised
prair
mixing
floral
catches
loser
safari
brotherhood
mexicans
ambience
freshly
freshman
odor
grassy
piccad
augustus
dodecanese
tribun
nodding
bulb
steward
burner
occupying
derives
rentals
robinson
1949
ironically
fanatic
inquiring
illustrating
forgetting
1931
rubble
seekers
rowlett
battery
watersports
adviser
advisor
lengths
quantities
berth
approximate
mechanics
nursery
torrent
ashes
bodhisatt
defendant
defendants
1957
succeeds
pillow
masada
absorption
overseeing
crushing
801
acidic
pedd
resolving
foal
appointments
230
binoculars
sponsoring
moonlight
backgrounds
whiskey
scarcely
coaches
ferr
skiathos
pondering
pads
padding
rampant
sustaining
faulty
reinvent
aeo
facilitated
pitched
unconvention
casualties
platforms
##bellows
1890
feminism
forecl
plaques
rosa
rosy
nicholas
vincent
prototyping
dictators
azur
dealership
fulfilling
delicately
precedent
cleverly
crawled
genuinely
stimul
stimulation
inherited
sympathetic
vineyard
yielding
utilizing
stalagm
snorkel
worshipping
slightest
kilometer
instincts
pronounce
1793
durable
queer
margins
boldly
sparked
dyes
outrageous
siena
ellis
automobiles
promulgate
chopped
buttons
interface
voucher
calcutta
rouge
penetration
penetrate
bosnian
lc50
tamil
accelerated
mistakenly
tractor
shahjahan
intoxication
inscription
gonzo
uninhab
kiosk
nightmares
echoed
paralegals
oasd
martyrdom
brazilian
bookshops
sketch
horrific
miscellaneous
syndic
ebay
wicker
jainism
mammoth
pharmaceut
fiancee
frenzy
blinked
rosenberg
twenties
kidnapped
insects
##iscovered
maurice
excerpts
baffled
cushion
tattoo
adriatic
amusement
balkans
foothills
eugene
izmir
inconven
miniskirts
autobiography
tintoretto
briskly
preschoolers
pdfa
notoriously
impractical
evacuated
mckinney
vaccine
aryans
metabolife
emblem
bryant
vistas
chagall
susceptible
infertile
lukas
nrcs
nueva
overpayments
coconut
a504
hetel
vosges
haussmann
tweak
genocide
dynamics
diaspora
relevance
hemingway
weisberg
trousers
righteous
calligraphy
fundraising
unremarkable
guinness
sierra
ucla
neanderth
orihuela
guggenheim
subclasses
waikiki
piccadilly
5pm
ail
aus
aure
bc
bse
boun
bats
cact
cages
cbs
cadd
cinder
dion
dul
dime
eid
elic
etern
eloqu
fuck
fumes
gad
gert
gems
ganesh
hk
jay
jahang
kad
kap
kite
kits
kiy
kitty
lending
mite
mals
nails
nanny
ps
panc
rica
rips
witt
yo
yu
##rans
##rown
##eel
##eau
##tel
##tower
##sky
##fax
##figer
##cit
##course
##uro
##lan
##gies
##gna
##but
##vid
##vie
##kaw
##wald
##winian
##31
##jur
##jac
##jima
##16
thas
thund
##inav
##ateness
##onne
##orge
##anse
##anity
topless
##assemb
##leboro
##otaph
ise
beque
##stant
##step
ons
ong
##idal
##idav
stau
stink
stove
sticking
stunned
hare
##chem
##olson
##igated
anten
##irting
##irled
alz
shab
shrew
shades
shipment
shuger
##ulu
neoc
nefert
wein
cone
congest
converse
##ersion
fray
seiz
doe
gogh
liby
exiled
##rip
##river
abil
##abal
##abilia
lexic
leagues
##outine
allig
##ffer
##iview
##ivoc
##ivism
spenc
mahab
plaint
##iecki
arles
##quoise
outing
##endra
##endum
looms
enters
cla
clare
clicking
cliche
clueless
##auer
adobe
unhar
##ongru
##ahs
##izu
##acked
amos
##agement
implements
welles
incongru
exposing
expanse
dior
dipped
interl
interred
robe
herring
##ubon
##ubstant
boyc
bride
coex
parted
##akusa
colum
recapt
##aca
##acoteca
##onduct
umeda
underestimated
smog
attleboro
##ometry
thrilling
decisive
deciview
backwater
monsters
##icken
stricken
##avis
blows
schwar
##ermouth
##feit
flashed
subl
slash
sliding
houseboats
cityel
##people
##ologna
discreet
elongated
marley
setup
estates
estuary
defl
farthest
numb
sinan
meth
aval
humming
audubon
booking
skating
emit
distorted
affidav
sitter
graves
server
funicular
newslet
turnaround
waterways
admiring
tyco
wales
crept
glazed
protein
palat
improv
nativity
classrooms
centerpiece
##ieth
involunt
##brows
sideways
sanction
harvey
sawyer
waiter
judah
regulating
facs
dealings
intervals
burke
accords
researched
##risty
towel
armenian
interestingly
blooming
eastwood
specialties
labs
prevailing
jewell
recordings
##eseen
paints
definite
deviation
##chief
subjected
snacks
beginners
copied
forefront
malok
saintes
julie
strait
duel
139
trustworthy
initiate
despised
eras
erisa
firearm
specifications
superf
principals
cornwall
angu
anglic
averages
evaluates
conductor
##rode
seasoning
doctrine
farmhouses
preferable
tarzan
##income
discovering
philips
letterman
louisian
rapists
1971
mortal
radiation
sadness
threatens
homo
restricting
sacristy
swimmers
spectator
contacting
ethiop
flora
qualifies
losers
etiqu
textbook
counselors
inspires
lieuten
marching
fuels
martini
picardy
auguste
psychic
psychologist
rosewind
grose
criticize
tunes
francaise
virtu
blocking
semitism
cabaret
##craper
carts
##anche
scandinav
batteries
galata
bounded
stakeholder
mcd
speeds
toronto
memorabilia
symbolism
nymp
fooling
forbade
succeeding
dimension
nicole
mystic
digit
rhine
kilgore
exclusion
implication
scarlet
divorces
darwinian
##friends
reconquest
accompany
eclect
ecology
reservoir
superbly
bolts
enthusiastically
fragrant
uniformly
enhancements
pinacoteca
ethnicity
faaade
cockt
cockermouth
musicals
ponta
jointly
axes
##uffs
cancellation
chickens
simplified
astronomical
lionel
cummins
lsn
surgical
undertake
reactionary
sweeps
gestures
pitti
spoil
harshly
narayan
papal
brutality
persuasive
ancestral
insurrection
wandered
clusters
dignified
pearls
mummy
disturbed
wrecked
dalai
bergen
bergman
pavilions
tidy
carlson
colonnade
bacon
organs
endanger
scrubbers
prescribe
fiduci
skyscraper
burdensome
amenophis
gonz
overcrowding
impairment
trekking
mitigate
lynch
##lassical
##giore
cascades
forfeited
repayment
aristocrats
sepulchre
sketches
pouring
overthrown
hilfiger
cultivate
boasting
neighbourhood
hardships
pietro
stereotypes
fitzs
nasser
uninteresting
curtains
congratulated
perugino
phillips
encompass
embroidery
plagued
issuance
sensuality
rajputs
shepherd
moderately
wyoming
carpenter
incompetent
entrepreneurial
chowk
sausage
replenishment
cambodia
obliv
landfills
filmmakers
allergic
uninsured
brochure
irregular
koran
viscusi
goofy
inquisition
outnumbered
queried
gladiators
bungal
remedies
waverley
gospel
disbanded
curriculum
croatia
penguin
staggering
glimpses
garnier
gruesome
ferdinand
archbishop
unsupported
mesopotamia
indispensable
cenotaph
econometric
reynolds
unofficial
pervasive
guadal
redemption
voltaire
prairie
aeo2001
cinderella
jahangir
thasos
neoclassical
spencer
unharmed
schwarz
06
6a
7th
a1
ace
ape
baking
cary
dunk
dsp
eust
ety
euc
fd
fon
gou
gion
gass
gull
ginger
hord
hons
hires
josh
kem
kib
kof
len
lays
lund
loll
lope
mp
mourn
miy
nd
nub
og
pian
ration
sr
siding
tins
von
vag
vila
wyn
##aci
##rades
##rera
##ears
##eaux
##tler
##23
##oos
##fi
##iere
##iose
##notes
##cies
##cule
##lene
##gain
##girl
##bro
##bie
##bred
##haye
##pace
##jas
##zter
thail
##enhaus
##orose
##oux
##aney
toe
topp
ing
inmates
##icter
##omer
##omous
##omania
##ionale
##elia
##otting
reeng
reinc
##stered
##owered
##veigh
##idy
stacks
stagg
##eta
hairc
forks
##rock
##roved
##rocket
##ayun
##ayette
anoint
##imo
##amation
##amiento
##adors
notified
noticing
shim
shark
shaky
nea
neil
wee
congl
frying
frantic
degr
deccan
doges
chol
chores
chilly
liver
liable
liken
exert
exley
exchanges
knoss
knitting
knots
kneeling
##ppe
##rium
abre
worms
##ffe
##umbs
spatial
plut
outward
logo
clive
unor
unad
peach
timid
timeless
timeline
##ishable
agn
usable
usda
teasing
ames
imposes
inco
##bleau
expensed
contends
diab
intently
grunt
roasted
herds
##pta
fec
##ittal
apples
boar
bois
1900s
coherent
##ipes
##ipher
cron
scoot
##akov
precon
poetic
vehe
commute
commenced
commuter
##solete
##ensely
recess
recounted
undisp
relic
relayed
relinqu
invoke
inventions
syd
syner
syrian
monolog
monroe
trait
traps
trailing
strat
stricter
joints
##onson
downright
##othe
informational
bladed
suppression
helpless
##ractive
flush
##ocl
slacks
obsolete
wrought
##orne
cityhall
bask
basque
discon
discred
handover
elites
elche
marion
marig
modules
##uga
##ribe
worldly
gaz
editions
drastic
drums
defence
minus
delle
homeowners
restart
soufri
avignon
humane
humorous
funders
sku
##xtap
signoria
differential
designate
watchful
heady
tempting
statesman
watered
extensions
##rewell
swap
switzer
porta
explos
explode
raff
raikes
gloria
internally
churchill
passport
improves
terminated
congressmen
tremb
activism
drained
merge
merging
ird
iras
irate
171
1700
##bois
braque
eszter
armey
bites
measurable
specials
imminent
immensely
123
##print
##cipher
specifics
competency
grandiose
summerhaye
##ynski
inflows
footing
protector
personalities
sniff
snorted
##annie
recognizable
constructing
referenced
referendum
multicultural
murcia
militant
##fficients
madison
unfold
honoring
303
commonplace
negara
appearances
trusting
momentum
##untamiento
eventual
specificity
strive
savage
medicinal
corniche
##zzi
##heiro
juxtap
sandal
coldly
conducts
casually
crooked
crooks
denials
biographer
preferential
doubted
cruising
scramble
skyrocket
radi
garuda
fieldwork
multiplied
urging
##ercise
permissible
dispens
clothed
entrances
splashed
submer
frequented
bordeaux
touches
proserity
sacr
distributing
gloom
tomato
astounding
narrowed
northernmost
festivities
bandw
angelico
weakened
weakening
cryst
premise
clockwise
##world
altars
tasteless
sevila
##losure
frankly
ode
unspe
precar
randall
220
225
psychoan
bulld
lunchtime
flattened
bothering
depictions
robbed
robbery
1946
bobby
##ckett
announcing
snowing
cartmel
lifelong
profitability
horseshoe
pm10
amazingly
freedoms
escort
conquerors
mechanic
torah
torches
dismounted
memorand
platoon
transforming
fabrics
belongings
rejection
##heads
mutually
conveniently
contrasting
fortresses
confidently
foil
revolver
revolts
coordinating
temperament
sultanate
chatting
froze
streamlining
coda
codification
migrated
breeds
cigar
fruitful
fostering
handedly
harvesting
enhancement
360
impeached
stressful
cantal
rigorous
encounters
lava
disciplinary
satisfactory
racquet
rivalry
dreamed
jazzercise
nazionale
impressionist
commodities
shaved
conjured
bedspread
puppy
disgusted
cracking
inherently
quarterbacks
utilization
depths
intentionally
princesses
jeffrey
josephine
commemorated
lisa
papacy
puzzles
##immons
announcements
aquatic
scouting
1889
barbarian
ancestry
bhak
wiser
rabbit
synagogues
outraged
spokeswoman
haunting
buttoned
wrestlers
massacres
vocal
stallion
##epsut
genoese
absentee
murmur
expedited
herodian
incomplete
jetty
rothschild
enlisted
1492
uncover
hatsh
bookstaver
benchmarking
iconocl
terminus
dwp
witches
undermined
mintie
ravines
whiteness
whitney
chimps
mughals
nightclub
fujiwara
sidney
plasterwork
mascot
browse
lovingly
anthropologists
soder
slick
kefir
cascade
indulge
colourful
epidemi
##ramatic
##strom
upgraded
discharged
overrun
overthrow
contributor
indonesia
refreshment
rousse
wicklow
antiquity
haggling
perugia
tiberias
aspirations
ayuntamiento
wachter
wachtler
fervent
gondola
twentieth
awakening
squirrels
devotion
crammed
vesuv
hercules
luggage
fronts
coefficients
covenant
undergraduate
brahman
seminar
prolonged
oyster
lauded
locomotive
turbulent
metaphys
tissue
morbidity
prefecture
handwritten
fontainebleau
cliches
portfolio
wendy
hapsburg
unhealthy
signposted
yugoslavia
detergent
grievances
uncontroll
arbitrary
##ephren
carlyle
footpaths
hellenistic
repository
undesir
warlords
scrambled
misleading
saffron
carnegie
kebap
barbecues
dilemm
pfeiffer
unattractive
choicers
savoie
broadcasts
embargo
foreclosed
stalagmites
abilene
sublime
anglican
dspb
etym
honshu
thailand
reincarn
staggered
vehement
undisputed
soufriyre
switzerland
eszterhas
812
aur
aix
bish
berry
bhar
bounced
binge
bologna
ces
cakes
cumbria
dice
dashed
dnc
foul
gior
gerald
gittin
hul
jars
jais
jorge
kon
kom
ket
kand
kota
lament
lloyd
mph
mism
mitz
nm
nra
nether
noses
pb
pare
rive
rah
sind
sats
tg
tem
touted
ugl
wist
wry
wak
zap
##tans
##mu
##mia
##mills
##oz
##overs
##free
##fold
##fires
##norm
##nalia
##cour
##lide
##log
##gings
##gio
##bble
##birds
##hel
##hart
##hpur
##pic
##pract
##poken
##vara
##km
##yg
##55
##jour
##zac
##zhen
thwart
thera
##atre
##athing
##atural
##esia
##ouk
##ouces
##anza
##aloes
##requ
##aras
##omics
##ilation
##ilant
bee
##stay
##stop
##owiecki
##veau
##utic
onardo
##ete
whitt
whims
haut
havel
##ceived
##olin
##oled
##olation
angr
anach
##iris
##imilar
##amy
alm
##adder
hew
heater
notch
notwith
shaping
withheld
neural
probe
##estrian
concier
fridays
seag
seize
seaw
dex
debr
deaf
dehyd
chern
orph
sucks
##odend
butcher
##abad
##cken
leaped
meats
allah
##umsy
prick
spill
spoon
spicy
##unct
arid
saver
saxt
outta
lojack
clad
clift
clumsy
adject
tramp
unass
unres
upside
peck
##isha
agin
##hernalia
resided
pervers
didion
##ineering
tearing
geth
impr
##agin
fakes
diaries
repression
##formed
interd
dising
##ptic
apprent
twists
bose
boaz
bobb
bru
brent
coy
##eryl
bucket
whichever
##asser
crad
scant
scalia
colmar
##loc
desolate
guise
afar
undeveloped
carb
caric
carlo
carson
##iality
##lected
attic
finland
finals
betsy
thress
throng
invitations
invasions
programmed
programmers
traits
strides
speck
costumed
##landa
toobin
bladder
##ibles
floppy
idle
sloping
wrink
deport
surowiecki
parry
parlor
payers
discourse
##phones
marin
marais
marvell
phall
americas
placement
module
##ribution
redgra
enticing
ruff
revis
reviving
lethal
prix
##sses
readings
markers
refined
mets
demise
posture
booked
booklet
props
skus
confisc
barc
hardwood
formats
differentiate
##plate
keepers
grape
serial
##azar
analog
menor
cretans
stucco
glouces
palt
equestrian
beheaded
opposes
##lemente
treach
salads
capitalist
currencies
##ielder
broder
freeway
parked
limbs
listings
figur
totals
maggiore
computing
facet
1500s
soundly
irrad
sunb
sunni
futur
cez
filthy
blooms
accessing
##akingly
1600
educating
staffers
turrets
##holes
##ropolis
sorted
devout
objectivity
richland
castilian
111
malpract
circulated
woodwork
voiced
romana
norms
bedouin
perfection
honors
strapped
negatives
fairfax
duende
democrac
137
136
momentary
reformers
banning
acquitted
fireplace
greenberg
stocked
secretive
cardboard
##zzo
dori
characterize
quarry
casellas
crochet
crosethe
denounced
macho
sleek
sleaz
battling
climbers
impressions
respecting
commenting
diners
urges
marty
midway
disple
homage
sacre
complac
battlements
eyebrows
weaker
briefings
florid
borr
predictably
doubtfully
pulau
murderous
trois
augustine
dodged
221
forgiven
groaned
fascination
earnhardt
unpaid
montg
melting
tuned
1943
boul
logistical
gladly
faithfully
academics
##iyama
1933
1939
1924
batman
imperative
brady
bradshaw
conquering
conquests
gayer
subsidize
ashore
##heimer
bonding
grizz
grized
nominating
dissimilar
advancement
athe
osiris
oversees
baux
rejecting
intellectually
auditorium
rhinos
sophom
compensated
idealistic
stupas
clarence
1914
lords
testimonies
buffaloes
lifting
accommodated
ceracz
levitt
sacrificing
lesvos
improperly
dragons
bolster
##horetz
##metics
enormously
tropic
traumatic
locker
gopnik
prescriptions
malaya
wetlands
spagh
spawn
unwel
vulnerability
akko
vitality
hesitation
orchards
1898
nepalese
eleventh
cosmetics
lucy
distinguishes
astronomy
nicholson
tightened
summarize
retreats
embarrassment
enactment
reactor
greetings
340
edwardian
kelantan
vicente
quintiles
shivaji
satellites
papyrus
rotten
ribeira
creep
fleeting
frustration
clutching
gerb
hanuman
molten
dyck
insistence
speculators
reckon
browsers
cassidy
dalmat
##semble
expedition
rhododend
inconsist
abbot
ricard
rifles
caravan
diminish
diminishing
unlucky
quotation
remembr
albanian
sprawl
overturned
scrubber
dreadful
conveyed
lectures
swallowed
scratching
alpha
interpreting
tenths
conspirator
assignments
imaginable
perpetual
miata
synthetic
incumbents
1453
mitigating
transcend
concurrent
infinitely
reunions
nicknamed
tumult
airplanes
embassies
bureaucrats
fasb
tulare
accusation
disparity
coleman
imbal
thriller
presorting
rehabilit
repetitive
disguised
chancell
annoyance
jodie
theodore
takayama
errone
psychiatric
##building
gondolas
unbear
subdued
moderates
hollings
carpenters
hakone
incompetence
palladio
maharaja
hannah
ingenious
expatriate
leopards
newcomers
pragmatic
diclemente
mazda
transponder
ravenna
moulin
podhoretz
jockey
discontin
augmented
dishonest
tartan
isabella
marauders
astrology
franaois
daggers
nikko
pissed
szary
##ilateral
residual
paraphernalia
guerrilla
##kshire
caldera
negligible
sabbath
benedictine
underscore
centrally
plummeted
stubborn
recurring
humiliation
mormon
friezes
enraged
disdain
acoustics
unprepared
melancholy
confederacy
overshadowed
nouveau
ruskin
pineapple
vittorio
caesarea
velvet
wacky
unearth
kiyom
alzheimer
shrewd
libya
incongruous
coexist
lieutenant
eclectic
lsnj
fiduciary
fitzsimmons
hordes
cholera
knosses
sydney
hatshepsut
jaisal
tgv
angrily
notwithstanding
seawater
debris
saxton
marvellous
redgrave
gloucester
malpractice
democracies
grizedale
4th
640
a2
bess
bans
bail
ci
ccls
ding
diz
dante
eia
egal
fos
fencing
fiesta
gte
groom
giac
hod
hound
hmm
iffen
jen
jub
kk
kicking
laps
mam
nol
nast
nca
ore
pint
pains
piety
pino
rys
raves
sara
siber
siesta
tou
tion
tah
tamp
tides
upp
uff
vap
vans
vino
vowed
wes
wong
waking
woes
zip
zola
##eon
##eanor
##tr
##test
##26
##fields
##cro
##long
##lery
##bis
##hop
##hoff
##pert
##vati
##kor
##kopf
##yp
##wc
##watch
##jan
##journ
##zko
##erb
##atri
##esco
##enians
##org
##ndon
##anum
##anian
##alt
##alore
inad
inlet
inpatient
andalus
##asp
##iser
##isen
##elos
##elago
##otion
ish
reigned
rewr
##stated
youells
onof
stardom
##role
##chen
##changing
##seilles
anj
anom
ants
##irling
##irlanda
##imile
##amud
hem
hei
hears
hefty
shap
shaving
##essing
atatur
##illity
##ereal
deft
decipher
chis
chalk
ori
supr
##opatra
##oding
yemen
##mpanum
##orem
leuch
mement
##ghada
##osseum
canv
canoe
noh
##ostic
##alla
##umi
spi
plaz
pluck
plump
manpower
##apidated
##quin
##astes
##astever
outages
##emis
##embourg
loot
loec
loading
ensh
enables
enroll
enrolled
clans
##auch
adoration
trastever
unapp
unification
unqualified
upt
pears
timothy
mys
myc
composing
agon
##aha
resides
##izi
amort
thinkin
##agena
farewell
newborn
##icho
replete
intra
intert
gram
roger
disrep
feats
appalling
twain
tweed
##berger
boone
brushed
##ipelago
crist
crust
crud
crises
scopus
inde
induce
accom
accuses
pref
preached
colosseum
##ogany
##angor
needn
##acion
##accio
carrey
undercut
##ords
fined
moyn
monitors
remake
stray
bls
blum
bliss
blunt
blaming
evictions
greatness
##ibs
##ibi
flap
flores
busily
subord
subvers
persisted
##gettable
slapped
warring
##pez
##peutic
parnell
parvati
payable
artworks
prodig
handel
handbook
ellor
phd
caus
talmud
gaap
gazed
gazu
drowning
entails
rupe
insure
insiders
strewn
carefree
##ssi
simulate
simbel
cleopatra
popped
corro
medina
humility
humayun
playful
playwright
effected
nationalities
emig
emulate
barrett
detour
detract
milestone
signaled
aired
##ceptive
develops
histories
histoire
businesslike
gravy
##azi
2009
runnin
tyrant
tympanum
walcott
hottest
pataki
swank
mailstream
accountant
campuses
southwestern
unto
landlocked
rake
glancing
protagon
completeness
infancy
morale
archety
archipelago
saletan
understandably
drab
analysed
johns
stopover
paving
singular
waits
waivers
villains
##ennes
representations
##ups
##upi
magdal
108
106
109
##ontal
hoard
researcher
sunburn
shortages
shortened
crabs
solitary
specialize
##istery
modernize
antoin
netany
doorstep
domest
imitation
turquoise
competitions
grandest
sentiments
louder
rivera
beginnings
historique
obsess
malt
multic
multim
multira
##ographies
furious
furiously
royale
144
polluted
tablecl
connery
connois
hallow
heartland
replies
applicability
unfiled
##borough
1300
jung
junky
hurghada
prepayment
firebrand
superl
articulated
articulate
strives
engineered
creators
savvy
dogma
packers
packaging
cornell
broadband
sandals
adjudic
embody
croaker
pleasurable
hygi
##incourt
##system
doubles
philae
pathways
rebirth
garibald
url
gateways
midland
learns
splitting
camar
reliant
verand
hosting
1963
1961
ombo
southerners
distributes
hangs
hangover
212
shoved
weaken
ethic
petty
petron
briefing
prawn
mixte
comparatively
besie
cynics
behavioral
doubtful
willingly
2011
unsur
tropez
picn
suspension
conception
arabian
mirr
widest
blockade
cartagena
ghuri
ghirlanda
sammy
inventor
olathe
lifers
1921
ruben
borderline
karen
coalitions
faludi
galle
galax
galerie
meatballs
mcint
mcgw
mcveigh
##ariat
oxide
subsidizing
dismal
maximizing
grie
1953
1959
plato
dissu
dissolution
masked
mahogany
motivate
##headed
mutiny
gauging
foe
sprang
trucking
1912
accidental
specim
hideous
bleed
##belly
ottomans
steeple
updike
coding
taboo
ventures
breeders
krishna
conceivable
densities
worshiped
dolom
uniformed
desktop
huddled
deems
sumatra
anthem
lamma
pinch
dunn
malayan
ainu
wednesdays
pitiful
tricky
hugely
hugging
ascert
hesit
motioned
1895
nonfiction
dilapidated
juror
selangor
enclaves
mitter
solicit
felony
equivalents
hammers
transmit
catering
1904
1907
refugee
crashes
delicacy
spirituality
barefoot
lodging
booster
provinces
collaborate
lsu
reigning
prepares
stimulate
reproductions
decentral
stevens
marvels
lifestyles
unnecessarily
unfairly
laurels
rivas
triumphant
bibli
##breaking
prolific
obstacle
muscat
msnbc
bathrooms
leaflet
bangl
bangalore
clutch
baptistery
hectare
sikh
tranquillity
##ranos
argentine
simultaneous
punches
cosmetic
stitches
chartres
contemplate
contemplating
hedge
warehouses
drifting
quoting
flanking
revelations
contradictions
foolishness
celest
enforcing
inaugural
albany
swamps
##escript
oscars
hustling
jarrah
shepard
umbria
attainment
ranchers
anthropology
corso
ducal
reunion
stacked
barrens
mantle
tumble
enchanting
impatient
disparate
bourgeoisie
gilbert
pisano
censure
trooper
refreshments
nebbishes
neighbouring
sitcoms
unrealistic
stereotype
concede
conceded
uninterested
composer
confronting
macroeconomic
rejoined
unforgettable
mummified
zionism
gnp
perilous
gravity
embodies
nondescript
unabashed
awakened
endeavor
blazing
hankinson
kudupi
succumb
lacquer
palladian
discrepancies
torrevie
expatri
almonds
newcomer
firefighters
pragmat
cavalry
disregard
patricia
fertilizer
monopolies
scrutinized
bowsher
bewild
madeiran
videotape
lizards
outsider
encryption
encircled
inaccess
ushered
monsoon
bracero
wheelchair
yawn
##oriented
cappella
##lazia
meticulous
fuzzy
hinges
tenements
bromide
slippery
spreadsheet
rodriguez
onomatoplazia
menhirs
infirmary
rainforest
preclude
blockbuster
asymmetrical
overhaul
uninhabited
elicited
gadget
##butz
bequeathed
alligator
facsimile
kibbutz
lollip
racquetball
rousseau
vesuvius
undesirable
aurang
nmcc
therapeutic
anachron
unresolved
disingenuous
rhododendrons
ricardian
remembrance
erroneous
kiyomizu
nolan
pinochet
uffizi
onofrio
ataturk
leuchter
disrepair
ellora
antoinette
netanyahu
multiracial
connoisse
garibaldi
ghirlandaio
mcgwire
torrevieja
03
9am
aub
bb
bening
bbc
berman
banners
cic
cec
dine
dord
dives
fiss
fury
fug
fero
gong
gilt
gatt
gilles
hick
ili
ji
ked
kok
kitten
kha
kaye
lard
lens
lank
leland
longh
luminous
mop
mour
mend
mish
mog
mante
motto
naw
ole
pah
pills
pinsky
rs
rssi
sally
serm
sids
srin
soutine
tether
tester
uly
vat
wiz
wade
wals
wires
wisely
wielder
yupp
yasser
zones
##rently
##rina
##rano
##tar
##tapur
##fus
##fair
##ihan
##cult
##dwell
##qs
##ukes
##gis
##bally
##blic
##bons
##hot
##pd
##pipes
##ych
##jid
##zena
thump
thaw
theres
theology
##inational
##atap
##esi
##anz
tof
##itic
##itud
##itans
##arc
##aris
##icient
##omi
##omiya
##enting
##elstein
##ilo
begg
rex
reworked
##starch
##stuffs
##vet
##idou
stumbling
##etected
##ethe
whore
fork
forens
##roix
##rogate
##urry
##ayana
##chins
##seman
##olence
##olph
wasting
##iri
heaps
shir
shri
shud
shuff
shimb
wither
neap
necks
neolithic
weave
frown
chel
chimp
charts
chilling
chora
orwell
##rawn
suites
liff
libel
exac
##rile
##riend
abiding
abnorm
##abs
##ellin
socks
##ighted
wors
noct
noir
##ffany
splin
sparse
maver
maids
plural
plush
manzan
##ciano
outage
lovel
clipp
clones
claust
clinging
willow
adorable
uned
unite
unix
unsh
unob
unequ
unarmed
upstate
pelee
compose
aga
agaa
agora
##ahon
workings
amends
impot
##agio
##agna
contested
quix
diag
offline
intang
inters
intersect
roaming
##uele
overl
overboard
overestim
overweight
disres
disinter
##pton
feign
booths
brist
brides
brighter
coated
cozy
centro
cray
scape
scru
scaf
scrapped
##akuji
induced
acclim
cola
collin
poop
commence
##angs
gujar
recitals
undetected
carve
##ondition
##acteria
smi
smelled
attained
bettel
remorse
longtime
downpl
downfall
provocative
suppressed
acad
flies
addit
subgroup
slots
legality
obedi
emph
deplet
##cedes
showroom
parano
artemis
marseilles
instability
realised
causal
moderation
talbot
retake
retiring
vale
edu
redo
redund
entice
entail
ruining
rupert
earners
revive
revamped
numer
priors
performer
seeming
popping
corb
corre
corros
##earing
increment
barons
detach
detected
curators
distortion
distrust
muster
##inski
advising
##plice
headache
##azard
##azquez
cheering
funn
##ucated
tyler
guessing
hotlines
swath
##alez
testifying
menes
musings
electorate
palheiro
##atsu
improvis
##oya
equitable
critically
static
1850
terminate
topk
authored
caldwell
condomin
salz
salle
salinger
salinity
currents
lowell
pasture
##perfect
departing
limous
greider
blackpool
villena
##ennial
foodstuffs
authorizes
satir
courtesy
152
descriptive
nonc
hoops
hooch
fuller
futures
brav
braun
bitch
shortest
shortfall
cracks
blob
cannes
accessories
124
euchar
modernist
ballets
suggestive
doorways
moms
typed
grandpa
destiny
##bson
##yne
totaling
inflated
memo
objected
casts
copying
112
foref
malo
malamud
##onyms
multinational
##ographs
142
147
checkbook
sociologists
##sonian
juliet
jericho
##otsky
30am
viral
massively
animation
dueling
painst
initiating
junct
expressly
tipper
tiffany
firewood
naturalistic
bonuses
catar
gallant
packets
cornstarch
annualized
juicy
cookie
santana
averaged
priorit
sweating
maternal
venge
venerated
##obic
##obile
denis
rounds
observable
mandar
quieted
baba
brownell
garner
mastery
gatehouse
##banks
extracur
extremists
boxer
misqu
beatles
flynn
starvation
buddhas
homic
graduation
easternmost
chaired
expands
captures
captivity
janitor
forwarded
applause
candidacy
rollers
welding
renoir
weakest
suffers
pete
petitions
sampled
praising
introduces
cheaply
##risk
sevilla
transporting
preparedness
ambush
ambival
grassmarket
troph
concentrating
clientele
cooled
tribut
##nesian
guarding
guardians
conflicted
luxembourg
dependency
robin
1940s
width
bougain
fanatics
logically
cabb
snowy
academia
confirming
illustrative
illustrious
1925
deceive
batter
lico
mouthed
magnificently
jumps
escorial
aiming
gaya
iceberg
nurseries
bodily
allocating
foolproof
witnessing
masjid
absorbing
atlas
dimensional
reputable
wingers
convened
penney
rumble
detector
gangster
reminders
pierce
smithsonian
guideline
compensate
compensatory
1918
scarred
chatted
frogs
##biased
ominous
staircases
buffer
veneto
padded
padua
thinner
subtly
mathews
hijackings
chateaux
corpse
corpus
steadfast
aerial
powerscourt
skew
novice
gopur
rationalize
memorials
heightened
pitfalls
wheeler
nucleus
graphs
huguen
ascended
cypr
habitats
portraying
##omachi
aggregated
1897
consolidate
gigg
victimized
mythic
bicycles
felic
desperation
fabrication
prophets
1905
supervisory
lyd
boosting
apologized
preceded
subscription
wolff
stimulated
oakland
pizzas
planetarium
discourages
yachting
gestured
linen
rivoli
injected
adaptations
unimagin
excavation
withdrawals
faintly
##iatowski
##associ
614
rotund
ribs
hooks
evolve
durham
pumps
catalina
dwellers
poseid
contestants
incorrectly
hectic
travolta
extravagance
tranquility
tossing
reassert
anchors
condemning
massacred
jaws
punched
vocational
maxwell
culpr
feasibility
theorists
alterman
buttresses
smoker
1789
exporting
passe
hauled
discriminating
rothko
sobering
societal
diminished
rudy
nutrition
catastrophe
716
1854
hippie
heirs
cadill
albania
lipstick
mintz
poniatowski
lunatic
chimney
jargon
forecasting
needlepoint
santorum
##itarians
slaughtering
invalides
invaluable
concurrently
prevalence
mounds
velazquez
martyrs
hypocritical
wigand
forfeiture
upgrade
destroys
censors
pompidou
strolled
precipit
vestig
yorkshire
chauff
emanuele
predominant
annoyed
fitzg
thighs
antiquities
rhetorical
reinforced
reinforcing
ajanta
stabilize
nabate
##aunting
shepherds
siblings
embodied
beaune
blossoms
auxer
ounces
kazin
sopranos
contamination
discrepancy
passwords
puffed
sausages
implants
keynesian
slapstick
lilies
abolish
disbursed
disbursing
herculaneum
slumped
cursed
madeirans
flamingo
vernon
fidelity
jasper
enriched
gregory
sleeve
necklace
mamelukes
exuberance
supermarkets
outsourcing
aarp
pavement
shenzhen
scowled
ibicenco
unimpressive
cochin
attentive
housewives
configured
prostitutes
colombia
symmetry
delirium
concessions
##ogeneous
brodkey
precincts
derivative
arrogant
sylph
irresist
embellished
mcmahon
trenches
lafayette
hormones
calamity
disproportionate
ailments
##juraho
shabby
nefertari
wellesley
avalon
jewellery
cornwallis
ethiopian
etiquette
rosewindow
gonzalez
lopez
anointed
abreast
synergies
baskets
sandalwood
submerged
memorandum
bhaktapur
uncontrollable
ketch
rahman
dexter
gethseman
bobbin
paltrow
spaghetti
unearthed
jaisalmer
giacomet
ncaa
inadvert
shapiro
canvases
enshr
accomplice
moynihan
corrobor
halloween
mitterrand
inaccessible
dordogne
mantegna
srinagar
ulysses
walsh
shimbun
liffey
exacerb
clippings
claustroph
disrespect
bettelheim
extracurric
gethsemane
3rd
8a
ave
aki
biting
bourn
bingo
cb
cache
dl
d9
dour
dach
eile
eater
eerie
fland
fused
fiat
fpas
fannie
gim
gub
gits
gerry
hose
hugged
ian
ick
ipo
iwas
jab
kut
kip
kwh
kwan
lur
lour
mh
mct
mits
momm
moust
ns
nw
nil
nand
nac
nih
nesting
oo
oig
oates
oss
pem
pach
pug
pinto
pimas
rie
rata
rimin
raged
ramble
sistine
tug
tending
ved
vas
vases
vows
vogue
vista
woo
waco
wadi
wjc
yore
za
##run
##rences
##rlich
##sia
##mig
##41
##oven
##fal
##fork
##frey
##nstr
##cated
##qq
##uine
##lia
##lination
##gre
##gang
##bos
##bind
##hole
##vd
##vous
##vine
##vakia
##kit
##kim
##wined
##zio
##17
##erely
##inates
##onissos
##eson
##enner
##enza
##orian
##orph
##eded
##ouver
##anational
tox
##rev
inert
insec
##arct
##isle
##omber
##ionage
##entin
##eliers
iter
iso
bees
reapp
rethy
##owl
##owitz
onion
##idth
##idos
sting
whips
whaling
haph
forts
##chor
wasdale
##igree
anas
anarch
anarchy
##impl
##aments
alo
alison
ascent
##adre
heel
shill
shant
shaken
withstood
neal
negev
prostitution
##mentioned
frowning
sewn
seizing
seym
segregation
##illian
dele
doj
doom
docks
dooms
doyle
chit
chenn
comical
suing
liar
##antics
exod
knot
knum
##ppings
##usions
##ustion
abbe
##aba
##abil
##abra
##about
##abue
lep
leaking
lemann
alluring
##oso
##nton
##ectory
##uma
##umann
maury
mazar
maenner
mankind
##iele
arbois
dont
donnell
##quets
##astical
sacked
sagar
outings
outfl
outbre
outpatient
##emouth
clips
cloned
##okko
ada
trink
unborn
unquest
unbiased
uphe
upriver
compuls
agatha
##ahi
resented
residency
##izen
pergam
peripher
workfare
amass
sheen
impulsive
##ountable
##agland
incidences
newark
expon
exposes
contri
contention
quits
quiver
quota
intu
interm
gren
rog
overfl
overtook
##pted
##ptus
##igny
##ignano
##reating
scum
scoring
##akable
indus
indist
colts
colgate
poised
vex
##ogenous
##inting
##loying
reclining
carroll
##onde
##ondo
undergoing
underdog
undertook
smug
smeared
polishing
moody
decap
decaying
backbone
syc
assists
trafal
seclusion
presided
##lesia
blouses
schm
schro
suppress
supposition
evan
flops
fluff
flirting
studded
ida
idas
addictions
slut
slang
slashed
wrang
empor
empress
empowered
warlocks
deposed
##atched
dayt
parach
parose
elway
elli
elaine
kinder
realist
caul
retra
gazing
edwin
esth
entren
defund
##vese
minn
ministers
federalism
delights
revising
restor
farce
simps
simmons
refrain
refectory
charco
meta
hume
##conomic
emin
confine
barak
milo
hardened
technicians
mustard
##azni
benefiting
walnuts
analogy
swore
invests
misses
testoster
probation
proficient
presidentas
whitebelly
glare
glitter
risings
shopkeepers
inflicted
continuation
2075
statistically
mori
##ankind
variously
archie
apologies
calming
calmed
generalization
dravid
##lius
lowincome
##brid
departures
bros
brokers
##issioned
hari
harper
grecian
cutlery
blackmail
reasoned
##enggan
steamed
mercedes
mounts
figs
judas
105
winston
##shund
burger
irca
bret
1700s
1715
##boa
holden
popularly
hopkins
craz
silks
amounted
immoral
envious
labeling
prevail
antics
antagon
printers
moma
recorder
floats
flocks
##zeb
squid
squab
frenchman
grounded
necessities
divisive
deval
closeout
sno
114
malicious
circling
pickles
##liners
fightin
famously
appropriateness
langkaw
wrongly
connolly
hallmark
madrile
shrug
shrunk
strained
painless
painfully
purpos
sexism
emerges
paneling
influencing
juno
expressways
separat
banquet
acquainted
greener
striving
davids
customary
indicative
packs
angered
wordperfect
characterization
combustion
messing
averaging
verses
##roductive
seasoned
superman
imagining
wildfires
maternity
climbs
bien
farmhouse
killers
philhar
wealthiest
masterful
mastercard
aragon
marta
heavier
dispersed
entrants
boxers
miscon
misbe
misuse
misinformation
camx
404
403
starter
littered
layoffs
##ggio
decorating
bottled
fleming
astley
eyeing
eyeballs
environmentalists
kidney
giuse
ibn
gasp
ethereal
peters
petrol
petrole
premiere
railings
etched
texture
##rified
counselor
hospitality
benz
pulitzer
holyhead
ambition
unsafe
##monic
births
gentler
dramas
branded
brandishing
yardley
comforted
dedicate
sticky
dieu
dads
criticisms
mirage
austrian
austerity
commands
chapelle
rangel
boules
hawth
tonic
ghazni
inventing
breaths
1937
drying
licensing
oversimpl
ivan
concluding
ratios
contentious
falcon
huns
monde
emphasizing
escaping
volunteered
reagents
resisting
spectacularly
torii
dishe
forestry
symbolizing
1951
suitcase
attendees
overseers
protesting
nicola
pedic
pedoph
##alyptus
reminding
exploratory
sewage
foals
provencal
clarification
1910
dialogues
bombings
frolic
buffet
##friars
sweetheart
jails
##hora
facilitating
recruited
forums
prudent
blindly
casualty
astronaut
hazmi
lavender
disciplines
editorialists
corresponds
elevating
snapping
foreclosure
unreli
myths
1874
dreary
breadth
admirers
fabricated
dictates
1903
fundamentalism
renewable
horned
lyons
enacting
lags
metroplex
superiority
fondue
extraordinarily
passionately
reorganize
obscurity
1869
coronation
tackled
pharaonic
quintess
espionage
accumulating
orthodoxy
diplomats
flashes
pronoun
tactic
distraction
wager
clutter
institutionalize
promenades
skeptics
1755
baptism
mocking
astonished
rabbi
phenomen
goddesses
ehrlich
marshland
brewing
orchestrated
grimaced
regretted
restraining
seduced
##from
speculating
belgacom
hyde
populism
clerks
genovese
greyfriars
dropship
dumping
theoretically
rooting
contemplation
mtv
wrecks
perplex
expeditions
hedges
paso
saladin
becker
lavishly
intrigue
1763
puddle
plunge
plunging
disadvantages
buzzing
bookstores
1707
colonnades
hackath
acceleration
curbside
jardins
practitioner
courageous
ravaged
affiliation
lunar
pacino
chimneys
lorenz
hustle
##mnon
assigning
delegating
intrusive
unsuccessfully
remnant
acrosethe
reopen
##rakia
cascading
mantel
dissemination
inhuman
mussels
antechamber
adolescent
obeyed
swedish
untouchables
strawberry
caucas
pisa
thernstr
hilary
repetition
repetitious
petitioned
kinabal
vestments
zoom
categorized
mckay
slobod
aspen
lehman
sovereign
maidan
hissed
idiots
idiotic
ambassadors
reeves
punishments
fragmented
cpas
eccles
katzen
inaccur
itineraries
coveted
fellowship
lithuanian
pioneers
resurrection
infectious
sentimentality
kleinman
unabomber
retrieve
iglesia
staples
moisture
deployment
eeac
charismatic
crocodile
contaminated
omnip
narciss
tattoos
ingenuity
melodramatic
masonry
whistled
slabs
landfill
diligent
diligence
patriotism
receptive
coefficient
patrician
miraculously
seminars
beaubourg
bracelets
stylized
fanciful
goldsmiths
echoes
jaipur
pkk
shivered
thirsty
dwindling
henderson
nerds
razor
##atisfied
##elleschi
necklaces
fractured
chefs
predicament
jealousy
enlarged
outweighed
eisner
simulac
glossary
suspenseful
cimabue
surmise
bragging
culminating
pangkor
inequality
quenching
brothel
oilskin
sporades
adept
brunelleschi
blatant
dauphine
preempt
theologians
prostagland
chrysler
comforts
acquaintance
lesbian
inefficiency
misdeeds
abbreviated
rallied
##ruder
##uyama
amalgamated
accreditation
handicrafts
follower
reexam
unicorn
centimeters
retrospective
dictatorship
cactus
caddesi
seizure
columned
newsletter
superficial
oblivious
bungalows
eucalyptus
fdr
##girls
unorthodox
incoherent
bandwidth
precarious
mitzpe
zapruder
futuristic
complacency
montgom
chancellor
supranational
plazas
mysore
mycena
causality
archetypal
besieged
mcintyre
dolomites
bangladesh
expatriates
aurangzeb
jiang
forensic
uneducated
scapego
numerical
painstakingly
mandarin
cabbage
rotunda
censorship
chauffeur
ketchup
extracurricular
bournemouth
dachshund
eileen
flanders
kipling
mcteer
moustache
rimini
rethymnon
haphazard
seymour
chennai
maennerchor
trafalgar
entrenched
simpsons
charcoal
testosterone
langkawi
philharmonic
petroleum
thernstroms
kinabalu
slobodan
prostaglandin
08
6th
82
aik
a12
bing
bian
bale
bisc
bitty
bacteria
cf
cly
cind
cerv
cpa
czes
cyrus
cnbc
deng
dung
egu
ebook
eros
fus
fink
fag
fath
foes
gam
gome
gedi
hca
iu
ios
jed
jave
kint
kond
kund
koon
kadem
kett
kla
lri
lille
md
nort
nong
nint
nord
oeu
ping
pich
pens
pater
poth
piled
pyre
pikes
rq
rames
raced
rolin
sis
sere
tm
tat
tian
tert
tys
taped
tainted
vign
vyg
wards
wann
yak
yates
yarn
##rusted
##mies
##oge
##ograms
##fels
##felt
##iu
##iam
##nan
##nos
##caster
##crates
##cropolis
##dress
##dered
##upt
##uities
##lit
##lis
##lides
##litz
##llos
##ben
##bad
##bility
##hous
##hito
##pot
##xes
##vil
##kt
##yu
##yden
##yfus
##39
##je
##jin
##zig
##zia
##zek
##19
thumbs
theban
##erog
##inikoff
##atable
##onar
##enh
##orp
##orloge
##ouac
##anja
##reate
##regn
inmate
##itiveness
##arle
##arism
##ariya
##isation
##icz
##omely
##enter
##elius
beet
beam
beamed
reiter
thats
##oway
stero
##etus
forear
##uras
##urus
##chle
##chur
##chschild
##olulu
wastes
##igu
##igor
##igue
anson
anita
anesth
anonym
anvil
##imeter
##amore
alibi
##thex
hep
hein
heian
hepat
shells
shacks
withstand
##ulance
##uloid
neur
necropolis
weyden
conley
conner
fraternity
atater
atirc
seedy
seques
doin
chek
chests
chenon
goose
como
orb
orsay
##opic
##opping
lib
##antaged
exult
exiles
byron
butch
##istes
##isting
##istice
aback
abide
##abaugh
lech
leant
soared
sojourn
worm
meand
allure
##oslo
cana
canary
##ffenberg
##ivided
##artic
prerog
spas
sput
spins
mack
plight
##ourished
##astly
sacks
sauna
saqq
outset
loch
ensc
##aup
wills
unle
unri
upn
myers
##ishly
compend
compress
usc
usat
resounding
perd
##ifl
##orman
taira
tails
taurus
impregn
impetus
incurs
newsc
##ichy
quitting
##grown
##grunt
diaz
reperc
offhand
intermar
interdiction
grub
grott
rood
roaring
overval
disem
disgrunt
heretics
##bergh
booty
boasted
boyne
bras
bram
brushing
cob
cox
partying
actresses
##owness
crows
crumbled
cronies
sciss
scrib
scala
accrue
colin
commens
##ogi
##integr
##ensky
gues
recons
carc
undercover
mayakov
sms
smir
finer
moh
moot
mojac
leger
decomp
backf
invites
gotta
travers
trailed
tracy
struts
informing
longabaugh
provoke
costner
highbrow
##athir
governs
##aville
blan
schor
schong
schiele
supposing
acutely
acorns
flared
sayin
busing
genesis
idol
idpa
beforehand
##atingly
subpr
subvert
subclass
subtext
usepa
pershing
slav
sloppy
warmed
deported
visig
surrogate
dayak
parched
paraly
payout
artisan
produci
marm
mari
marc
mario
realign
locke
valves
edgy
publicize
rediscovered
estr
insider
delac
revital
revoked
homemade
restless
priory
##ewick
refute
charlem
##etsu
demeanor
humankind
audible
putin
poster
bookcase
casey
skidd
skiers
confounding
barque
detest
detained
autop
formulate
distort
distances
##ceptions
##insic
affir
watcher
headaches
grazing
gravest
openings
processor
procession
processors
tempest
temperate
##ashtra
##ashiyama
cheats
cheval
##ucive
transist
allowable
wald
pats
patted
##cock
swings
possum
probing
profiled
profusion
excuses
untr
raiding
matador
glend
glaring
elective
##riced
grouping
northward
pretentious
palis
##gerie
improb
equivoc
infused
infring
infuri
annals
morant
marketable
caliber
calvin
condom
conducive
treason
salinas
projector
lowland
broc
paw
parkson
thirties
waal
millionaires
stealth
merci
beachside
judea
regulator
103
##cified
plethor
windmills
satirical
socialism
socialize
purists
posner
burlington
irving
hovering
hochschild
holder
##array
executing
armistice
horwitz
hopped
shorten
craggy
##autical
illus
bloated
cannibal
eastward
girlfriends
euphem
balmer
##ferencing
antarct
domains
geisha
paperback
tenets
##worker
flocked
impacting
##swald
routines
credential
inflamm
friendliness
castration
italia
referencing
multitude
woodburn
pollitt
hallway
checklist
unfl
unfolded
unfriend
sociologist
contractual
jerome
viollet
honolulu
301
displace
shrum
shrub
uncritical
motel
motifs
trusts
##appa
##ikaga
peacekeeping
dams
damasc
fireplaces
naturalization
bonnard
striped
davol
caters
savonar
##forth
##heit
deepest
doria
westerns
hiro
russell
priori
predeterm
bodyguards
narration
versace
shareholder
commercially
caselo
croce
denom
denby
biographies
touristy
raped
darkly
##beds
closure
garm
urine
occurrences
midwestern
miser
hostilities
bribery
magnetic
graders
conservatism
fleets
prospered
complains
astute
janina
jackie
behaviour
eyebrow
coffin
shoem
vaclav
petting
prague
mixes
qualification
apparatus
besar
disappears
councils
conditioner
2017
ambrose
grassland
trova
randi
genteel
##ethical
brando
tribune
golfing
lunches
fascism
flatly
kenzo
africans
pooling
islamist
shootings
shootdown
spreads
interprets
tunku
occupations
robi
##guin
1942
bathed
porc
porphy
fearful
fearless
semite
announces
241
ghett
ghastly
academie
plainly
1938
outcry
1927
cupola
rowe
licence
contempor
encouragement
mobility
falmouth
vacationing
oxbellows
resistant
scotch
##enthal
ashikaga
proudest
bodrum
nyatap
1956
##imento
dissol
pillows
crisp
supervise
osman
mahathir
stormy
##rigg
napoleonic
iraqis
rhym
cereal
celluloid
jimi
tubs
excesses
clarke
implicated
artifact
upsetting
bleach
bleached
transitional
liberalism
##inguishable
tabern
ventured
complicate
migrants
miguel
accommodating
assassins
assassinations
volcanoes
levine
hijacker
exceedingly
anticipates
prosecuted
reinv
kosovars
kathy
kathie
katharine
skelet
nonpartisan
cabinets
withdrawn
nova
novices
lindsey
pinn
koreans
rationality
navel
reneg
ascetic
rodman
rodney
aggregation
correspondence
rivalries
outspoken
ramsey
dreyfus
roswell
throb
crowning
summarizing
nineties
azale
storied
compromised
recreate
crawling
athlete
hubris
polynesian
seafaring
monsanto
discouraging
sympathizers
arieiro
tedious
patronage
stalin
crews
laureate
riviyre
arresting
muncaster
49ers
narthex
hookup
homelessness
pedestal
pronunciation
1886
tangled
lobbyist
hondas
baldwin
sparkling
rabbis
chocol
1805
reassuring
reassured
wireless
speculate
hydrogen
cryptic
abdic
abdication
1845
merchandising
dumped
stitching
alterations
adapting
diagnosed
bumpy
convento
survivor
cassette
dentists
presumed
9000
kenny
kennewick
abbaye
kerensky
mesh
aesthetics
roulette
ruddy
##racke
replicas
1857
stephanie
troublesome
suckers
taman
manipulating
##government
scratched
bassin
dividing
dividend
assaults
insulted
insulting
fiery
pacers
eruptions
hustled
pornographic
pledged
contraception
hebron
uninv
needlework
pigeon
695
corsica
acrob
acroset
fluctuate
ragged
unstead
escalated
sprayed
disseminated
prejudices
1513
tulun
vauban
perennially
foggy
golfer
horrified
horrifying
misconduct
thermal
unmist
overruns
awaits
awaiting
daschle
pomposity
cultivated
cmws
kinship
nagoya
pokhara
bunkhouse
aspire
pharmac
telecommuting
ptolemy
unnatural
imprisonment
normandie
misunderstand
reinforces
katz
dislikes
##heartedly
exhaustive
dahmer
fowl
aspiration
colossi
issuers
affectionately
pantry
pioneered
marathon
marathas
dissenting
distressing
apostles
kidnapping
endeavors
franchise
loggias
epitome
darnley
persistence
madrasa
apocalyptic
aleinikoff
czechoslo
immortality
foothold
crippled
alcazar
negril
brochures
evangelist
locomotives
turbulence
fancied
metaphors
contradictory
isabel
unseen
marauding
blacksmiths
dwindled
gustave
jasie
outsiders
encrypted
mameluke
yogurt
##ableness
peacock
preoccupied
supermarket
outsourced
meteorite
exalted
reputedly
scourge
proprietary
gypsum
mimic
pamph
placid
dawkins
dungeon
dungeons
hittite
html
rooftops
parrot
caliph
implicitly
hamburgers
lagoons
sulph
shoddy
recounts
handgun
filippo
hysteria
coordinator
unveiled
aggrav
carthaginians
hrc
khalili
punta
liqueurs
indignation
caverns
proponents
coppola
misstatements
attachment
serenity
calvary
storytelling
unconventional
pharmaceutical
inconvenient
gertis
stauffenberg
antennas
claude
boycott
affidavit
groseorloge
dunkan
kofukuji
reengineering
marigot
unspecified
cantaloupe
dilemma
netherlands
conciergerie
apprentices
tropicana
bessette
siberian
anjou
indebted
hygiene
gadgets
lollipop
ferocious
khajuraho
wizards
scruffy
corbett
corrosive
salzillo
braunfels
vengeance
huguenot
poseidon
auxerre
giacometti
gimignano
ickes
iwasaki
shillings
chitwan
exodus
trinkets
decapitated
davidson
misbeh
unreliable
phenomenal
finkelstein
javea
kondracke
kooning
nintendo
oeuvre
pichola
vygotsky
hepatitis
ataterk
chenonce
saqqara
impregnable
repercuss
disgruntled
commensurate
mayakovsky
mojacar
subprime
gravestones
plethora
unfriendly
damascus
savonarola
porphyry
nyatapola
320
7pm
9x
avers
aiding
bist
bum
bounce
bribes
cc
cis
cay
cud
ccc
dazed
eto
fated
fah
feng
fiddle
fuse
fusion
gir
gill
gist
gown
gep
gail
grop
gira
guts
ganda
giddy
hd
hic
homet
hues
hull
hds
hounded
ike
igs
jai
joked
kate
kamp
keller
kerem
kitano
lurch
lash
lenses
lumber
ludic
ml
mice
mide
mors
mists
molded
miya
nes
nailed
oswald
pest
pne
poked
pike
pisan
pesc
qum
qah
rin
rans
rife
ranc
rama
rican
rachel
rationally
sart
sap
tp
tate
tout
tarr
tara
tiring
tusc
uda
vr
vass
wen
wies
wits
wimp
xx
xen
yin
yells
zig
zag
zona
zanne
##acier
##rice
##eal
##tles
##mit
##merc
##overn
##oys
##fst
##four
##fru
##function
##folded
##iastical
##nis
##nap
##nath
##nected
##dles
##uzenji
##link
##lli
##laught
##71
##gered
##gger
##gency
##garten
##bome
##bog
##bek
##bourn
##pret
##pipe
##kdar
##yen
##ykt
##jp
##zon
##erd
##inari
##aten
##atas
##atious
##atifs
##enic
##oril
##anmen
##anji
##aline
##alded
##reted
##recy
inse
inund
##itaries
##arat
##aros
##asan
##icion
##icles
##ionally
##eles
##elage
##elines
##otrans
##ilight
##ilated
##ilting
beads
beige
rean
rework
##veying
##uta
##uties
onwards
##idenced
##lyph
stout
stag
stale
staging
stumble
whine
whining
whipping
##rooge
##chek
##seuse
##igrade
ancien
##imony
##imson
##amar
##amad
alarms
##through
asahi
##adol
heed
shuck
shaven
shales
shunned
##uli
##ulas
##estimate
wearily
frail
fridge
segal
dew
deau
deified
doge
chino
chuzenji
comrades
oratory
##racial
suaz
##opal
##opian
##opelos
##antically
knuck
knitted
knob
##ands
##andra
##andez
abor
leuke
soot
##ighting
meager
alliances
##ghai
canche
##ostro
##osterous
##ffes
##umen
##umont
##umonia
##artney
pry
spitting
mapp
manor
manic
manchur
##unaga
artery
arno
hadass
sau
outst
locks
lovable
enum
clung
clenched
adore
adige
trun
trite
trams
trude
tricked
trillion
unra
unrel
unmet
unload
unbeat
unworthy
unesco
upfront
peg
pew
timon
##ahmet
##herence
##ccarat
perak
perils
peraki
##ifi
workfar
tapping
taipa
amm
amer
amending
impla
##aget
##agency
incline
inclination
newman
expired
contended
quentin
quilting
dire
diaper
diapers
repert
repulse
reproach
offenses
evergre
intercourse
interracial
grudge
rox
roam
overrated
overstate
disbel
disintegr
disarray
heralded
##itte
appal
appliance
twilight
##berland
boiling
coz
coca
cobra
laut
##wny
buick
bukit
centigrade
crot
crum
criss
crimson
scares
scaling
scaff
scrooge
colder
commissions
##ogyn
##ogamy
guate
guilla
gupta
rightful
afro
aficion
undo
undone
undoc
undivided
##acqu
hereafter
##ilee
evenly
mayors
smast
smokes
##ianino
attaining
beta
thrills
decency
syll
syrac
monogamy
##icker
strom
secrecy
presume
longing
joys
joao
##landish
##athy
##avia
##avior
blames
blizz
blanche
blotting
keats
takeoff
evidenced
##wept
lawfully
flims
##urnal
reportage
caller
idyl
meanings
slat
slur
sloth
slashing
obese
warhol
##ossa
dayd
differed
parsis
paralysis
paroled
parmig
##ologique
payback
handker
fedge
marital
mariet
marino
realistically
retract
seth
childless
editing
redou
redep
este
esther
estoril
insol
insistent
insanity
defying
defiance
respa
caret
delaware
delinqu
farrow
priam
schooled
coratifs
##eka
humili
audacious
postcard
##renheit
propelled
skopelos
emilia
barro
detention
affix
taxable
##bein
directives
openness
visitation
chev
cheered
cheung
chechen
commune
benefact
seng
runners
viewpoints
extinction
##ierre
typh
patents
patna
mails
accountancy
##teau
construed
teller
weekdays
excru
portela
untrained
terenggan
rapp
##gression
crepe
glenn
glories
glitz
glacier
##ricate
palatial
risorg
badge
infid
reviewer
20s
2030
statu
sects
oppressed
lsca
growled
congressionally
mainstay
receivable
apenn
secondhand
calories
policing
billable
generalize
treks
salty
salted
projecting
draped
experimented
johnsen
brooke
brooks
freeways
storybook
sanit
hargarten
##umented
##oots
reasonableness
steaming
successive
awaken
facets
authoritarian
authorizations
##shev
irfa
hoover
hoax
brea
sunk
sunbat
britons
brakes
brackets
filip
armory
1200
viii
balboa
ratemaking
christi
countered
professions
162
1600s
domingo
teamwork
euros
##ushima
##apsed
environmentally
totalitarianism
devils
devoured
granting
##awed
snee
##factory
113
1100
constructions
forego
foreground
circled
treaties
##liner
multitas
pricey
1400
murillo
tvs
deadlines
militants
bedrock
sociological
boarded
religiously
favorably
animosity
uncanny
134
momentous
ensued
reformer
reforming
panned
panhand
fifteenth
expresses
expressway
attacker
boyd
hurled
##imsky
preposterous
fireworks
illiterate
gunfire
strife
stripping
stocking
##hoods
indications
medicines
utopian
complexities
##zzle
doric
dorothy
westerners
characterizes
parisian
messenger
narrating
narratives
latino
positioning
supersed
drawback
drawbacks
crook
##burgs
tombstones
respectfully
absolut
biologist
biographical
crossroads
farmworker
commentator
tarp
ledger
degli
mortg
mortals
dinard
horsemen
garish
urn
spacey
connector
extrap
honganji
misogyn
mistresses
hunts
huntin
camacha
405
veritable
hostess
starve
magnets
magnified
opposites
hombre
waitress
layoff
decorates
consummate
progression
decreed
bomber
complies
glove
kali
injunction
##asket
punishing
appliances
kidnap
renown
specter
entitywide
microphone
petrified
quarterly
comparability
altru
appreciative
repeal
amazement
entertainers
ambig
##monary
advocating
226
psychologically
bellies
immigrated
roseanne
dependents
criticizes
technicalities
professionally
preventable
tunis
deranged
robber
novelty
widower
enhances
semic
seminary
semantics
cabo
mccartney
##paid
240
##rehension
hypocr
shutters
olson
lifes
gatherings
rubbed
silverware
screenwriters
rowing
##eville
saturated
magnificence
copyp
shipbuilding
speeding
kentridge
##ariello
steelworkers
bureaus
oxid
torr
dismember
otis
baccarat
bodh
symbolize
busts
eliminates
dissatisfied
calculator
##glass
synonyms
masseuse
replacements
supervised
athenians
##zaria
rejects
pedal
rumored
##alytic
contrasted
boutros
motorized
piercing
sabot
smithy
##ylmerc
overload
wwii
bearings
scheduling
visionary
appointees
jimmu
arcane
imperialism
sultanahmet
bullion
332
335
transitioning
ferret
ferris
codified
ome
omaha
knocks
cloaks
migrate
thornton
flagellation
subtracted
creationists
levied
exceeding
gpo
prohibition
prohibiting
windswept
borrowers
bolshev
dolm
dolce
4000
consoled
granary
judgmental
blankley
329
palazzi
ornith
ornament
recruits
michelle
paneled
naomi
manuals
rodeo
consciously
blindfolded
allegation
franks
bourges
penthouse
cybers
1896
nepali
nervously
owl
elevate
boomer
simplifying
##olyn
adsl
mythical
##organized
partnering
distinguishing
rosenthal
solicitors
nonprofits
sailboat
1902
azure
azincourt
cumberland
lodgings
duplex
##flowers
compromises
precedes
substitution
substitutes
reacting
fonda
tschek
015
sequel
spook
jeffords
barton
saucepan
bundled
refresher
experimentation
woolen
rotting
ribbed
brutally
diplomat
pursuers
trumped
applebome
bastard
baptists
molesting
molinari
travellers
astonishment
dignitaries
sikkim
pearinsky
circuitry
deserving
collapsing
ferns
##luence
reassure
cordob
gleam
hinted
populists
stallions
theorist
horizontal
contemplated
ornamented
smokeless
endorsements
loopholes
hedon
illuminating
khaki
intensely
faculties
championships
loner
loneliness
rothenberg
alrighty
exaggerate
orientalism
diminutive
flanks
ballsbridge
contradiction
fluent
sieg
defects
navigator
benchmarks
albanians
comedian
infantry
jardim
manipulation
manipulated
tractors
fulfillment
ponte
pardons
lunged
lyrical
rankings
sourcing
tudor
botanic
intrinsic
acrosea
minerals
sneak
mosquito
##unciations
invalid
sullen
scrape
scraps
galileo
bakaly
chewed
chewing
spurred
compassionate
disseminating
disseminate
enchanted
anteced
upgrading
caucus
gillette
await
jagi
nobunaga
postmaster
trivia
gymn
kinsey
ltd
rousing
ankles
1688
mingle
reverted
maiden
##evelopment
theodos
composers
edifices
dispatches
gauntlets
schwartzkopf
piping
watteau
thunderstorm
tolls
phillies
unforeseen
bureaucracies
exhausting
nablus
peanut
disciple
erratic
benedykt
resurgence
infections
amphitheatre
fervor
lentil
vomited
grinding
wrenched
torchlight
denny
kazan
pupil
cranks
drunkenness
cypresses
fretwork
rendering
omnibus
villette
chantilly
refunds
adolescence
whistle
leopard
lauren
inserted
1836
shoveling
mathematicians
cripple
ovens
shawls
fronted
uninsp
overhanging
disregarded
miniskirt
cursing
stranded
miraculous
monoton
echizen
pessimistic
reruns
morbid
apollon
philanthropy
astrolog
franaaise
lippi
interchangeable
recollections
toothpaste
safeguarding
exuberant
interconnected
monsoons
jealous
aaron
unintention
snatched
misrepresent
bmw
belfry
tinker
unexplained
rooftop
bogus
relentless
refinement
apathy
babysitter
complimentary
hamburger
kagoshima
kohler
sumptuous
decimated
relocated
edicts
cagli
lancaster
piaget
##lifting
maneuver
incarnation
huffington
inheritance
bertol
mazzariello
cheerleader
foreseeable
epitomizes
cylinder
falsely
lattice
leninist
deleted
shearer
smuggled
connotations
embarked
tribunal
berthel
peddlers
oasdi
neanderthals
aurelius
eidyn
onslaught
methylmerc
virtuoso
cocktail
kemal
scooters
preconceived
bulldo
vehemently
bishops
misman
ugliness
unassuming
interdepend
sleazy
unwelcome
inconsistencies
jenkins
jubilee
orioles
trastevere
agonized
intertwined
protagonist
multimillion
firebrands
superlative
prawns
unsurpr
hesitant
bbq
##itudinal
beggar
chelimsky
mavericks
intangible
redundant
##associates
fitzgerald
abbeys
mazarin
upheaval
rogier
parachute
caulifl
minnows
madrilellos
giuseppe
ecclesiastical
aikman
cervantes
kettle
nongovern
tiananmen
tertre
compendium
guesthouse
schongauer
cannibalism
predetermined
caseload
shoemaker
sulphur
misbehavior
repercussions
etoile
fahrenheit
gephardt
gandaa
hometown
ludicrous
mideast
pneumonia
qumran
qahira
tuscalo
xenoph
##fruit
inundated
deauville
suazo
leukemia
hadassah
trudeau
workfarers
disbelief
scaffold
guillaume
undocumented
syracuse
flimsy
idyllic
parmigianino
handkerchief
excruci
terengganu
risorgimento
sunbathing
multitasking
panhandle
tschekan
methylmercury
cauliflower
8pm
bion
bard
bowness
ct
cout
cah
cures
cinc
caged
cems
couri
dit
danced
dented
ek
eut
fm
fad
fists
fiest
hp
hipa
iain
ionian
jug
jason
jett
jura
jih
jolly
joust
kah
kass
kak
kail
kaus
kanto
kacz
lest
luty
mch
mone
mates
mick
merm
munch
muted
mumbled
null
nai
nipp
oc
oim
oiled
olig
ousted
puss
pench
pitted
pacing
rar
rast
rced
rants
rital
ripe
rarity
sill
sra
sint
sals
sipping
tic
tse
tir
tuc
taper
tones
tetan
tighter
vying
vio
vats
vanc
vinc
wels
wob
wiley
®t
##aj
##aque
##rically
##ridding
##eim
##tna
##towers
##mine
##melon
##02
##oji
##ooked
##obey
##fn
##fle
##found
##federal
##iree
##iens
##ibert
##nose
##nia
##nox
##cuk
##dry
##dling
##daughter
##uh
##uates
##lable
##loth
##got
##bast
##bars
##hov
##hoku
##pach
##vakian
##kner
##yx
##wal
##jung
##jitas
##inov
##atized
##atio
##atories
##onition
##onico
##esized
##enia
##orie
##orah
##eder
##edict
##ougal
##anters
toast
topping
tohoku
##alin
##alis
##alom
##alid
##reve
##reja
ingest
inactive
##itian
##itled
##itute
##arf
##aru
##arth
##arations
##arazz
##arca
##icelli
##omyr
##leen
##entino
##elly
itbased
##oteric
##otically
##illet
##ilized
isid
bem
beards
beavis
reth
rehn
rezz
releg
thatch
##sta
##utani
stool
stony
starch
##etes
whim
whart
whiz
whack
hapless
forres
##urations
##aya
##chy
##chew
##chari
##sea
wasp
##igi
anah
##iras
##imov
alto
alvic
##these
asano
asimov
##ady
##aday
heathers
nothin
sht
shines
shrie
shreve
prozac
wept
weiss
congreg
conveying
frills
frisco
frantically
seab
semb
seism
degrad
chased
chasm
gos
comt
comrade
##rab
##raught
suz
sunt
##opo
##opers
##odle
##odils
##anti
exudes
abe
##abah
##abric
##ortment
##orea
##orementioned
leaps
##ellie
canong
##ffodils
##uding
##udis
##umerable
prat
prong
spies
spree
sperm
plo
plas
plow
plund
plagues
plastics
hisself
##apa
##ourmaid
##quette
sax
saudis
##ema
##endas
##endent
##endering
energ
clas
whatnot
adolf
tres
trident
trichy
unread
unpar
unifying
unev
unethical
upro
##indler
compulsive
agers
agde
agendas
usace
##onga
resil
resell
perl
perverse
didnt
workaday
teh
teasp
taks
taano
taanos
amin
amok
ambo
amiable
fauna
fajitas
incom
newfound
contag
quirt
quilts
##grade
##grass
repulsive
reparations
timekeeper
gris
grun
gritty
robb
rocca
overland
overarch
overgrown
overpaid
disobey
heretic
herding
hercule
##ptych
feb
feige
##ubanesh
##ubishi
howth
twink
boon
bric
bray
brine
cocked
##iping
##ipated
##iporea
cren
crank
crump
scutt
##akings
indira
inducing
coloring
vein
##oga
##soil
seeor
##enson
##veled
righty
serviced
aforementioned
recourse
undec
undulating
carolyn
##actic
underp
underpin
smash
smelling
##ordial
whereby
moyers
decry
relish
##aterial
mona
monter
assorted
assortment
strident
informally
presumes
regal
regrets
registry
##mmed
provost
proviso
##avy
bled
blends
blister
schwin
evap
countenance
##feas
helpers
flin
flair
flann
reportable
##ocity
##ocrates
idly
subter
slides
slows
slapping
obnox
##orned
deputies
visibly
capri
capone
##peak
showers
paroch
handouts
els
elm
fedex
marines
margo
phased
phyl
pheas
instig
caj
caur
modigl
endlessly
worldcom
retarded
retiree
valu
edged
lastly
redone
entailed
earner
carelessly
deluge
organizes
revises
importing
norquist
lethar
restit
farmed
chari
sinn
clement
pops
popolo
corst
##erno
believers
lessen
skala
bestowed
confluence
hardkn
curled
curzon
technologically
formulas
distressed
distaste
airsp
airborne
differentiated
controllers
conco
concourse
headphones
grains
grazed
serp
jonof
nearing
toured
cheet
##ucopia
##ismo
certior
transf
watermelon
daffy
daffodils
hotly
##rossed
swo
swam
milliporea
##tech
##temp
##tsburgh
weekday
excused
campground
landowners
raunch
matte
internship
protesters
protracted
pretender
palmer
understated
infilt
infantic
natrun
behaving
annuity
1815
oppression
morass
marketed
##ructures
powerless
archer
archangel
summed
summons
calais
caltech
clearest
condo
conduit
billboards
generates
generator
generously
draught
drags
pastel
##perform
deliverables
freezer
leastways
sanator
harms
harness
singles
gretna
cutter
waive
steering
magg
judean
10pm
1538
nonimm
responsiveness
bursa
irons
hoi
breasted
1770
brazen
esque
esoteric
filly
armour
horloge
privateers
hopping
shortcom
shortfalls
crapp
silenced
blois
specializes
learnt
immeas
immersed
immaterial
encased
##prot
episc
labored
modernizing
balmy
styled
antid
antith
antip
antib
161
1648
geology
papering
mindful
civilizations
typing
destabil
rockets
divan
devol
devotes
##ovo
debunk
deborah
commissioning
subjecting
felled
snoot
snows
snob
castan
castillo
assesses
malia
malaria
maledict
##onya
referenda
##ycling
royals
woodworking
143
pollen
opts
##umbles
heartfelt
bedding
socioe
##gne
chaplin
penic
penned
detailing
laboratories
englishmen
stylebook
strap
strauss
straps
fairs
uncles
rani
ranas
131
##ika
##ikan
##ikia
erase
errol
sonn
bany
hitter
##peded
greenville
appease
bonjour
illogical
selects
##ouched
principally
tradeoff
customized
sevens
catfish
packaged
cornered
cornucopia
cookbooks
israelites
michiko
beyaz
beyea
##ospitable
bayt
predators
sweeney
primaries
primordial
latitude
physi
banker
drawled
imagery
##sett
innumerable
wilder
wildest
croix
cropped
crocker
sleuth
##elessly
stationery
slowing
bihar
##neil
preferably
hybrid
sizeable
doubly
tenderly
mortar
tito
titus
rebound
horsepower
urs
germanic
perme
midi
dispersion
lucknow
blooded
misty
respondent
ftc
magnolia
buddies
treasurer
decorum
conferencing
botticelli
fleas
distribut
progresses
progressed
##opsis
tome
hangings
injun
billionaire
battleground
automot
interventionist
hinder
211
angelenos
coffers
coffins
swordfish
resorting
searchable
5000
craftwork
bagpipes
baggot
appreciating
safest
textbooks
seville
doubtless
hospitalized
2016
thorns
ambulatory
ambulance
unsatis
unsubstant
precurs
##aea
cube
cowed
mallor
golfers
bellagio
radioactive
groan
keno
defeats
vandal
terracott
renters
robots
laughable
virtuous
widows
ranged
semitic
logs
hollyh
mccj
cartouch
ghibert
macdonald
macneil
samoth
songket
inventors
olorose
lifeless
constitutionally
1932
ruby
[...]
