{
  "version": "1.0",
  "truncation": null,
  "padding": null,
  "added_tokens": [
    {
      "id": 0,
      "content": "[PAD]",
      "single_word": false,
      "lstrip": false,
      "rstrip": false,
      "normalized": false,
      "special": true
    },
    {
      "id": 1,
      "content": "[UNK]",
      "single_word": false,
      "lstrip": false,
      "rstrip": false,
      "normalized": false,
      "special": true
    },
    {
      "id": 2,
      "content": "[CLS]",
      "single_word": false,
      "lstrip": false,
      "rstrip": false,
      "normalized": false,
      "special": true
    },
    {
      "id": 3,
      "content": "[SEP]",
      "single_word": false,
      "lstrip": false,
      "rstrip": false,
      "normalized": false,
      "special": true
    },
    {
      "id": 4,
      "content": "[MASK]",
      "single_word": false,
      "lstrip": false,
      "rstrip": false,
      "normalized": false,
      "special": true
    }
  ],
  "normalizer": {
    "type": "BertNormalizer",
    "clean_text": true,
    "handle_chinese_chars": true,
    "strip_accents": null,
    "lowercase": true
  },
  "pre_tokenizer": {
    "type": "BertPreTokenizer"
  },
  "post_processor": {
    "type": "TemplateProcessing",
    "single": [
      {
        "SpecialToken": {
          "id": "[CLS]",
          "type_id": 0
        }
      },
      {
        "Sequence": {
          "id": "A",
          "type_id": 0
        }
      },
      {
        "SpecialToken": {
          "id": "[SEP]",
          "type_id": 0
        }
      }
    ],
    "pair": [
      {
        "SpecialToken": {
          "id": "[CLS]",
          "type_id": 0
        }
      },
      {
        "Sequence": {
          "id": "A",
          "type_id": 0
        }
      },
      {
        "SpecialToken": {
          "id": "[SEP]",
          "type_id": 0
        }
      },
      {
        "Sequence": {
          "id": "B",
          "type_id": 1
        }
      },
      {
        "SpecialToken": {
          "id": "[SEP]",
          "type_id": 1
        }
      }
    ],
    "special_tokens": {
      "[CLS]": {
        "id": "[CLS]",
        "ids": [
          2
        ],
        "tokens": [
          "[CLS]"
        ]
      },
      "[SEP]": {
        "id": "[SEP]",
        "ids": [
          3
        ],
        "tokens": [
          "[SEP]"
        ]
      }
    }
  },
  "decoder": {
    "type": "WordPiece",
    "prefix": "##",
    "cleanup": true
  },
  "model": {
    "type": "WordPiece",
    "unk_token": "[UNK]",
    "continuing_subword_prefix": "##",
    "max_input_chars_per_word": 100,
    "vocab": {
      "[PAD]": 0,
      "[UNK]": 1,
      "[CLS]": 2,
      "[SEP]": 3,
      "[MASK]": 4,
      "!": 5,
      "\"": 6,
      "#": 7,
      "$": 8,
      "%": 9,
      "&": 10,
      "'": 11,
      "(": 12,
      ")": 13,
      "*": 14,
      "+": 15,
      ",": 16,
      "-": 17,
      ".": 18,
      "/": 19,
      "0": 20,
      "1": 21,
      "2": 22,
      "3": 23,
      "4": 24,
      "5": 25,
      "6": 26,
      "7": 27,
      "8": 28,
      "9": 29,
      ":": 30,
      ";": 31,
      "<": 32,
      "=": 33,
      ">": 34,
      "?": 35,
      "@": 36,
      "[": 37,
      "\\": 38,
      "]": 39,
      "^": 40,
      "_": 41,
      "`": 42,
      "a": 43,
      "b": 44,
      "c": 45,
      "d": 46,
      "e": 47,
      "f": 48,
      "g": 49,
      "h": 50,
      "i": 51,
      "j": 52,
      "k": 53,
      "l": 54,
      "m": 55,
      "n": 56,
      "o": 57,
      "p": 58,
      "q": 59,
      "r": 60,
      "s": 61,
      "t": 62,
      "u": 63,
      "v": 64,
      "w": 65,
      "x": 66,
      "y": 67,
      "z": 68,
      "{": 69,
      "|": 70,
      "}": 71,
      "~": 72,
      "¡": 73,
      "¢": 74,
      "£": 75,
      "¥": 76,
      "§": 77,
      "¨": 78,
      "©": 79,
      "«": 80,
      "¬": 81,
      "®": 82,
      "¯": 83,
      "°": 84,
      "±": 85,
      "²": 86,
      "´": 87,
      "¶": 88,
      "·": 89,
      "¹": 90,
      "º": 91,
      "»": 92,
      "¼": 93,
      "½": 94,
      "¿": 95,
      "×": 96,
      "ß": 97,
      "æ": 98,
      "÷": 99,
      "ø": 100,
      "ı": 101,
      "ł": 102,
      "œ": 103,
      "ɑ": 104,
      "ɒ": 105,
      "ə": 106,
      "ɛ": 107,
      "ɡ": 108,
      "ɢ": 109,
      "ɪ": 110,
      "ɴ": 111,
      "ʀ": 112,
      "ʃ": 113,
      "ʌ": 114,
      "ʏ": 115,
      "ʒ": 116,
      "ʖ": 117,
      "ʙ": 118,
      "ʜ": 119,
      "ʟ": 120,
      "ʻ": 121,
      "ʼ": 122,
      "ʿ": 123,
      "ˈ": 124,
      "ˌ": 125,
      "ː": 126,
      "˙": 127,
      "˚": 128,
      "α": 129,
      "γ": 130,
      "δ": 131,
      "ε": 132,
      "η": 133,
      "ι": 134,
      "κ": 135,
      "λ": 136,
      "μ": 137,
      "ν": 138,
      "ο": 139,
      "π": 140,
      "ρ": 141,
      "ς": 142,
      "σ": 143,
      "τ": 144,
      "υ": 145,
      "φ": 146,
      "ψ": 147,
      "ω": 148,
      "а": 149,
      "б": 150,
      "в": 151,
      "г": 152,
      "д": 153,
      "е": 154,
      "з": 155,
      "и": 156,
      "к": 157,
      "л": 158,
      "м": 159,
      "н": 160,
      "о": 161,
      "п": 162,
      "р": 163,
      "с": 164,
      "т": 165,
      "у": 166,
      "ц": 167,
      "ч": 168,
      "ш": 169,
      "ы": 170,
      "ь": 171,
      "ю": 172,
      "ғ": 173,
      "א": 174,
      "ה": 175,
      "ו": 176,
      "ש": 177,
      "ا": 178,
      "ب": 179,
      "ة": 180,
      "ت": 181,
      "ح": 182,
      "خ": 183,
      "د": 184,
      "ر": 185,
      "ز": 186,
      "س": 187,
      "ص": 188,
      "ع": 189,
      "غ": 190,
      "ف": 191,
      "ق": 192,
      "ك": 193,
      "ل": 194,
      "م": 195,
      "ن": 196,
      "ه": 197,
      "و": 198,
      "ى": 199,
      "ي": 200,
      "چ": 201,
      "ی": 202,
      "ஜ": 203,
      "๏": 204,
      "ᴀ": 205,
      "ᴄ": 206,
      "ᴅ": 207,
      "ᴇ": 208,
      "ᴊ": 209,
      "ᴋ": 210,
      "ᴍ": 211,
      "ᴏ": 212,
      "ᴘ": 213,
      "ᴛ": 214,
      "ᴜ": 215,
      "ᴠ": 216,
      "ᴡ": 217,
      "ᴵ": 218,
      "‐": 219,
      "‑": 220,
      "–": 221,
      "—": 222,
      "―": 223,
      "‖": 224,
      "‘": 225,
      "’": 226,
      "“": 227,
      "”": 228,
      "„": 229,
      "†": 230,
      "•": 231,
      "…": 232,
      "′": 233,
      "″": 234,
      "›": 235,
      "‼": 236,
      "⁄": 237,
      "⁉": 238,
      "₀": 239,
      "₂": 240,
      "€": 241,
      "℅": 242,
      "ℐ": 243,
      "™": 244,
      "ℯ": 245,
      "ℴ": 246,
      "⅓": 247,
      "⇒": 248,
      "∎": 249,
      "−": 250,
      "∞": 251,
      "≤": 252,
      "⎌": 253,
      "⏺": 254,
      "━": 255,
      "┃": 256,
      "┈": 257,
      "┊": 258,
      "┳": 259,
      "═": 260,
      "╪": 261,
      "╭": 262,
      "╮": 263,
      "╯": 264,
      "╰": 265,
      "╱": 266,
      "╲": 267,
      "▀": 268,
      "▂": 269,
      "▄": 270,
      "█": 271,
      "▊": 272,
      "▋": 273,
      "▏": 274,
      "░": 275,
      "▒": 276,
      "▓": 277,
      "▔": 278,
      "▕": 279,
      "▬": 280,
      "▰": 281,
      "▱": 282,
      "▶": 283,
      "►": 284,
      "◄": 285,
      "○": 286,
      "●": 287,
      "◐": 288,
      "◕": 289,
      "☄": 290,
      "★": 291,
      "☆": 292,
      "☐": 293,
      "☑": 294,
      "☕": 295,
      "☝": 296,
      "☠": 297,
      "☭": 298,
      "☹": 299,
      "☺": 300,
      "☻": 301,
      "♀": 302,
      "♡": 303,
      "♥": 304,
      "♪": 305,
      "♫": 306,
      "♬": 307,
      "⚠": 308,
      "⚡": 309,
      "⚽": 310,
      "⚾": 311,
      "✅": 312,
      "✈": 313,
      "✋": 314,
      "✌": 315,
      "✔": 316,
      "✘": 317,
      "✨": 318,
      "✬": 319,
      "✰": 320,
      "✾": 321,
      "❄": 322,
      "❆": 323,
      "❌": 324,
      "❓": 325,
      "❔": 326,
      "❗": 327,
      "❣": 328,
      "❤": 329,
      "❥": 330,
      "➤": 331,
      "➥": 332,
      "⠀": 333,
      "⤵": 334,
      "⦁": 335,
      "⭕": 336,
      "。": 337,
      "チ": 338,
      "ツ": 339,
      "ニ": 340,
      "ハ": 341,
      "マ": 342,
      "ル": 343,
      "ロ": 344,
      "不": 345,
      "买": 346,
      "了": 347,
      "人": 348,
      "伎": 349,
      "会": 350,
      "你": 351,
      "关": 352,
      "卖": 353,
      "去": 354,
      "国": 355,
      "土": 356,
      "外": 357,
      "大": 358,
      "失": 359,
      "小": 360,
      "巨": 361,
      "年": 362,
      "式": 363,
      "得": 364,
      "怒": 365,
      "愤": 366,
      "成": 367,
      "所": 368,
      "收": 369,
      "是": 370,
      "月": 371,
      "有": 372,
      "来": 373,
      "株": 374,
      "歌": 375,
      "白": 376,
      "的": 377,
      "社": 378,
      "税": 379,
      "系": 380,
      "舞": 381,
      "要": 382,
      "豆": 383,
      "赢": 384,
      "都": 385,
      "钱": 386,
      "额": 387,
      "鬼": 388,
      "ﬁ": 389,
      "ﬂ": 390,
      "﴾": 391,
      "﴿": 392,
      "！": 393,
      "）": 394,
      "，": 395,
      "．": 396,
      "：": 397,
      "ｃ": 398,
      "ｉ": 399,
      "ｍ": 400,
      "ｏ": 401,
      "￼": 402,
      "𝐃": 403,
      "𝐅": 404,
      "𝐓": 405,
      "𝐔": 406,
      "𝐘": 407,
      "𝐚": 408,
      "𝐛": 409,
      "𝐜": 410,
      "𝐞": 411,
      "𝐡": 412,
      "𝐦": 413,
      "𝐨": 414,
      "𝐩": 415,
      "𝐬": 416,
      "𝐭": 417,
      "𝐮": 418,
      "𝐯": 419,
      "𝐰": 420,
      "𝐱": 421,
      "𝐲": 422,
      "𝐳": 423,
      "𝑩": 424,
      "𝑰": 425,
      "𝑺": 426,
      "𝑻": 427,
      "𝒀": 428,
      "𝒂": 429,
      "𝒃": 430,
      "𝒄": 431,
      "𝒅": 432,
      "𝒆": 433,
      "𝒇": 434,
      "𝒈": 435,
      "𝒉": 436,
      "𝒊": 437,
      "𝒋": 438,
      "𝒌": 439,
      "𝒍": 440,
      "𝒎": 441,
      "𝒏": 442,
      "𝒐": 443,
      "𝒑": 444,
      "𝒒": 445,
      "𝒓": 446,
      "𝒔": 447,
      "𝒕": 448,
      "𝒖": 449,
      "𝒗": 450,
      "𝒘": 451,
      "𝒙": 452,
      "𝒚": 453,
      "𝒛": 454,
      "𝒩": 455,
      "𝒶": 456,
      "𝒸": 457,
      "𝒻": 458,
      "𝒽": 459,
      "𝒾": 460,
      "𝓀": 461,
      "𝓁": 462,
      "𝓃": 463,
      "𝓅": 464,
      "𝓇": 465,
      "𝓈": 466,
      "𝓉": 467,
      "𝓊": 468,
      "𝓌": 469,
      "𝓎": 470,
      "𝓒": 471,
      "𝓲": 472,
      "𝓵": 473,
      "𝓿": 474,
      "𝗕": 475,
      "𝗙": 476,
      "𝗜": 477,
      "𝗢": 478,
      "𝗦": 479,
      "𝗧": 480,
      "𝗮": 481,
      "𝗯": 482,
      "𝗰": 483,
      "𝗱": 484,
      "𝗲": 485,
      "𝗳": 486,
      "𝗴": 487,
      "𝗵": 488,
      "𝗶": 489,
      "𝗹": 490,
      "𝗺": 491,
      "𝗻": 492,
      "𝗼": 493,
      "𝗽": 494,
      "𝗿": 495,
      "𝘀": 496,
      "𝘁": 497,
      "𝘂": 498,
      "𝘃": 499,
      "𝘄": 500,
      "𝘆": 501,
      "𝘦": 502,
      "𝘨": 503,
      "𝘩": 504,
      "𝘪": 505,
      "𝘮": 506,
      "𝘯": 507,
      "𝘰": 508,
      "𝘴": 509,
      "𝘵": 510,
      "𝙄": 511,
      "𝙏": 512,
      "𝙔": 513,
      "𝙖": 514,
      "𝙗": 515,
      "𝙘": 516,
      "𝙙": 517,
      "𝙚": 518,
      "𝙛": 519,
      "𝙜": 520,
      "𝙝": 521,
      "𝙞": 522,
      "𝙠": 523,
      "𝙡": 524,
      "𝙢": 525,
      "𝙣": 526,
      "𝙤": 527,
      "𝙥": 528,
      "𝙧": 529,
      "𝙨": 530,
      "𝙩": 531,
      "𝙪": 532,
      "𝙫": 533,
      "𝙬": 534,
      "𝙭": 535,
      "𝙮": 536,
      "𝟒": 537,
      "𝟓": 538,
      "𝟔": 539,
      "𝟬": 540,
      "𝟱": 541,
      "𝟳": 542,
      "🆘": 543,
      "🇦": 544,
      "🇨": 545,
      "🇳": 546,
      "🇵": 547,
      "🇷": 548,
      "🇸": 549,
      "🇺": 550,
      "🌍": 551,
      "🌏": 552,
      "🌞": 553,
      "🌟": 554,
      "🌮": 555,
      "🌸": 556,
      "🌺": 557,
      "🍁": 558,
      "🍺": 559,
      "🎁": 560,
      "🎄": 561,
      "🎯": 562,
      "🎰": 563,
      "🎶": 564,
      "🎼": 565,
      "🏆": 566,
      "🏉": 567,
      "🏐": 568,
      "🏝": 569,
      "🏻": 570,
      "🏼": 571,
      "🏽": 572,
      "🏾": 573,
      "🐒": 574,
      "🐟": 575,
      "🐡": 576,
      "🐴": 577,
      "🐻": 578,
      "🐽": 579,
      "👊": 580,
      "👌": 581,
      "👍": 582,
      "👎": 583,
      "👏": 584,
      "👠": 585,
      "👮": 586,
      "👶": 587,
      "👼": 588,
      "👿": 589,
      "💀": 590,
      "💋": 591,
      "💎": 592,
      "💕": 593,
      "💖": 594,
      "💙": 595,
      "💚": 596,
      "💛": 597,
      "💜": 598,
      "💟": 599,
      "💡": 600,
      "💤": 601,
      "💥": 602,
      "💨": 603,
      "💩": 604,
      "💪": 605,
      "💯": 606,
      "💰": 607,
      "💵": 608,
      "🔥": 609,
      "🔫": 610,
      "🕷": 611,
      "🖐": 612,
      "😀": 613,
      "😁": 614,
      "😂": 615,
      "😃": 616,
      "😄": 617,
      "😅": 618,
      "😆": 619,
      "😇": 620,
      "😈": 621,
      "😉": 622,
      "😊": 623,
      "😋": 624,
      "😍": 625,
      "😎": 626,
      "😏": 627,
      "😐": 628,
      "😑": 629,
      "😒": 630,
      "😔": 631,
      "😕": 632,
      "😖": 633,
      "😙": 634,
      "😛": 635,
      "😜": 636,
      "😝": 637,
      "😞": 638,
      "😟": 639,
      "😠": 640,
      "😡": 641,
      "😢": 642,
      "😣": 643,
      "😤": 644,
      "😥": 645,
      "😦": 646,
      "😨": 647,
      "😩": 648,
      "😪": 649,
      "😫": 650,
      "😬": 651,
      "😭": 652,
      "😮": 653,
      "😱": 654,
      "😲": 655,
      "😳": 656,
      "😴": 657,
      "😵": 658,
      "😶": 659,
      "🙀": 660,
      "🙁": 661,
      "🙂": 662,
      "🙃": 663,
      "🙄": 664,
      "🙈": 665,
      "🙉": 666,
      "🙊": 667,
      "🙏": 668,
      "🚽": 669,
      "🤑": 670,
      "🤒": 671,
      "🤓": 672,
      "🤔": 673,
      "🤕": 674,
      "🤗": 675,
      "🤘": 676,
      "🤡": 677,
      "🤢": 678,
      "🤣": 679,
      "🤤": 680,
      "🤥": 681,
      "🤧": 682,
      "🤪": 683,
      "🤯": 684,
      "🤴": 685,
      "🦁": 686,
      "🦊": 687,
      "##h": 688,
      "##a": 689,
      "##m": 690,
      "##e": 691,
      "##f": 692,
      "##u": 693,
      "##l": 694,
      "##b": 695,
      "##i": 696,
      "##r": 697,
      "##d": 698,
      "##q": 699,
      "##n": 700,
      "##s": 701,
      "##o": 702,
      "##g": 703,
      "##t": 704,
      "##p": 705,
      "##z": 706,
      "##x": 707,
      "##c": 708,
      "##k": 709,
      "##y": 710,
      "##3": 711,
      "##5": 712,
      "##2": 713,
      "##0": 714,
      "##1": 715,
      "##7": 716,
      "##v": 717,
      "##6": 718,
      "##w": 719,
      "##8": 720,
      "##j": 721,
      "##ᴀ": 722,
      "##ɴ": 723,
      "##9": 724,
      "##4": 725,
      "##⚾": 726,
      "##🏐": 727,
      "##𝒽": 728,
      "##𝒶": 729,
      "##𝓉": 730,
      "##🙄": 731,
      "##æ": 732,
      "##😇": 733,
      "##𝗼": 734,
      "##𝘂": 735,
      "##𝒆": 736,
      "##𝒃": 737,
      "##𝒖": 738,
      "##𝒌": 739,
      "##😁": 740,
      "##😎": 741,
      "##ə": 742,
      "##𝒐": 743,
      "##𝒓": 744,
      "##𝒔": 745,
      "##𝒕": 746,
      "##𝒂": 747,
      "##𝒍": 748,
      "##ᴵ": 749,
      "##ℴ": 750,
      "##𝓇": 751,
      "##ル": 752,
      "##ハ": 753,
      "##ニ": 754,
      "##チ": 755,
      "##ロ": 756,
      "##▀": 757,
      "##𝗶": 758,
      "##𝘁": 759,
      "##𝗵": 760,
      "##♪": 761,
      "##د": 762,
      "##و": 763,
      "##а": 764,
      "##л": 765,
      "##е": 766,
      "##н": 767,
      "##ь": 768,
      "##к": 769,
      "##и": 770,
      "##ʏ": 771,
      "##℅": 772,
      "##°": 773,
      "##ː": 774,
      "##ˈ": 775,
      "##ɒ": 776,
      "##ʒ": 777,
      "##ˌ": 778,
      "##𝙤": 779,
      "##𝙧": 780,
      "##𝙘": 781,
      "##𝙚": 782,
      "##😊": 783,
      "##ø": 784,
      "##ʻ": 785,
      "##𝙖": 786,
      "##𝙭": 787,
      "##𝒋": 788,
      "##𝒊": 789,
      "##𝒚": 790,
      "##😋": 791,
      "##𝒉": 792,
      "##´": 793,
      "##╲": 794,
      "##▂": 795,
      "##╱": 796,
      "##┈": 797,
      "##𝒘": 798,
      "##🏻": 799,
      "##😂": 800,
      "##ɑ": 801,
      "##ɪ": 802,
      "##ɛ": 803,
      "##μ": 804,
      "##𝙩": 805,
      "##𝙨": 806,
      "##ʀ": 807,
      "##⁄": 808,
      "##❤": 809,
      "##►": 810,
      "##𝙝": 811,
      "##𝒅": 812,
      "##₂": 813,
      "##𝓃": 814,
      "##𝓌": 815,
      "##✔": 816,
      "##ℐ": 817,
      "##ｏ": 818,
      "##ｍ": 819,
      "##ᴠ": 820,
      "##ᴇ": 821,
      "##ل": 822,
      "##ك": 823,
      "##ت": 824,
      "##ا": 825,
      "##ب": 826,
      "##𝙣": 827,
      "##𝗲": 828,
      "##𝗹": 829,
      "##⤵": 830,
      "##☻": 831,
      "##😡": 832,
      "##🤣": 833,
      "##¢": 834,
      "##ن": 835,
      "##𝙞": 836,
      "##𝙜": 837,
      "##𝙡": 838,
      "##𝙮": 839,
      "##𝗿": 840,
      "##𝗺": 841,
      "##ᴏ": 842,
      "##ᴘ": 843,
      "##ᴜ": 844,
      "##ʟ": 845,
      "##𝐨": 846,
      "##𝐦": 847,
      "##ᴅ": 848,
      "##™": 849,
      "##➤": 850,
      "##¨": 851,
      "##𝒄": 852,
      "##𝒒": 853,
      "##𝘃": 854,
      "##ʙ": 855,
      "##𝟱": 856,
      "##𝟬": 857,
      "##ي": 858,
      "##ق": 859,
      "##ɢ": 860,
      "##🤤": 861,
      "##😫": 862,
      "##🤑": 863,
      "##🤥": 864,
      "##🤪": 865,
      "##🙈": 866,
      "##🙉": 867,
      "##🙊": 868,
      "##🐡": 869,
      "##²": 870,
      "##═": 871,
      "##✬": 872,
      "##𝒎": 873,
      "##ᴡ": 874,
      "##ᴋ": 875,
      "##➥": 876,
      "##𝗻": 877,
      "##😆": 878,
      "##𝗱": 879,
      "##τ": 880,
      "##ο": 881,
      "##ρ": 882,
      "##γ": 883,
      "##η": 884,
      "##ᴍ": 885,
      "##ᴛ": 886,
      "##⚠": 887,
      "##ஜ": 888,
      "##▬": 889,
      "##🇦": 890,
      "##α": 891,
      "##ς": 892,
      "##𝒗": 893,
      "##😃": 894,
      "##😛": 895,
      "##🤡": 896,
      "##𝒏": 897,
      "##ʼ": 898,
      "##😲": 899,
      "##𝘰": 900,
      "##𝘮": 901,
      "##𝘦": 902,
      "##𝘵": 903,
      "##𝘩": 904,
      "##𝘪": 905,
      "##𝘯": 906,
      "##𝘨": 907,
      "##в": 908,
      "##ц": 909,
      "##ы": 910,
      "##г": 911,
      "##▏": 912,
      "##╰": 913,
      "##╯": 914,
      "##▕": 915,
      "##𝗮": 916,
      "##👎": 917,
      "##𝘀": 918,
      "##®": 919,
      "##💰": 920,
      "##💎": 921,
      "##𝙗": 922,
      "##𝙢": 923,
      "##⇒": 924,
      "##😅": 925,
      "##🎼": 926,
      "##❣": 927,
      "##ʃ": 928,
      "##ﬁ": 929,
      "##⚽": 930,
      "##𝙙": 931,
      "##♀": 932,
      "##ف": 933,
      "##ة": 934,
      "##𝓈": 935,
      "##ℯ": 936,
      "##💥": 937,
      "##🏼": 938,
      "##˚": 939,
      "##𝐭": 940,
      "##𝐩": 941,
      "##𝐬": 942,
      "##˙": 943,
      "##ى": 944,
      "##ι": 945,
      "##λ": 946,
      "##𝟔": 947,
      "##𝓲": 948,
      "##𝓿": 949,
      "##𝓵": 950,
      "##🇵": 951,
      "##🇷": 952,
      "##🇺": 953,
      "##🇸": 954,
      "##🇨": 955,
      "##💵": 956,
      "##🎄": 957,
      "##💟": 958,
      "##💋": 959,
      "##🎰": 960,
      "##🌺": 961,
      "##𝗰": 962,
      "##о": 963,
      "##п": 964,
      "##🤓": 965,
      "##▔": 966,
      "##┊": 967,
      "##ı": 968,
      "##𝙫": 969,
      "##🍁": 970,
      "##💨": 971,
      "##☺": 972,
      "##×": 973,
      "##𝙪": 974,
      "##𝒈": 975,
      "##𝙥": 976,
      "##🤕": 977,
      "##ᴄ": 978,
      "##😙": 979,
      "##💀": 980,
      "##☠": 981,
      "##🆘": 982,
      "##🎶": 983,
      "##👼": 984,
      "##🙏": 985,
      "##ß": 986,
      "##😔": 987,
      "##𝒇": 988,
      "##υ": 989,
      "##ε": 990,
      "##ν": 991,
      "##★": 992,
      "##😢": 993,
      "##س": 994,
      "##م": 995,
      "##🤴": 996,
      "##☕": 997,
      "##😳": 998,
      "##😉": 999,
      "##𝐰": 1000,
      "##╭": 1001,
      "##╮": 1002,
      "##┳": 1003,
      "##σ": 1004,
      "##ω": 1005,
      "##😍": 1006,
      "##✅": 1007,
      "##𝘆": 1008,
      "##❌": 1009,
      "##⭕": 1010,
      "##🙁": 1011,
      "##ʿ": 1012,
      "##♥": 1013,
      "##𝓅": 1014,
      "##𝒾": 1015,
      "##𝒑": 1016,
      "##𝙬": 1017,
      "##𝙛": 1018,
      "##π": 1019,
      "##κ": 1020,
      "##з": 1021,
      "##🇳": 1022,
      "##😀": 1023,
      "##ł": 1024,
      "##💕": 1025,
      "##𝗽": 1026,
      "##у": 1027,
      "##р": 1028,
      "##м": 1029,
      "##ו": 1030,
      "##א": 1031,
      "##ה": 1032,
      "##𝐚": 1033,
      "##𝐜": 1034,
      "##𝐡": 1035,
      "##▶": 1036,
      "##━": 1037,
      "##😄": 1038,
      "##𝙠": 1039,
      "##𝗴": 1040,
      "##▊": 1041,
      "##▋": 1042,
      "##₀": 1043,
      "##º": 1044,
      "##🏾": 1045,
      "##░": 1046,
      "##▒": 1047,
      "##▓": 1048,
      "##█": 1049,
      "##◕": 1050,
      "##✾": 1051,
      "##𝓁": 1052,
      "##🔥": 1053,
      "##𝘄": 1054,
      "##😜": 1055,
      "##🌸": 1056,
      "##𝐮": 1057,
      "##𝐛": 1058,
      "##𝐞": 1059,
      "##ح": 1060,
      "##ر": 1061,
      "##с": 1062,
      "##ه": 1063,
      "##т": 1064,
      "##𝒛": 1065,
      "##😣": 1066,
      "##ʜ": 1067,
      "##𝓊": 1068,
      "##ғ": 1069,
      "##𝐔": 1070,
      "##𝐱": 1071,
      "##𝟓": 1072,
      "##𝐅": 1073,
      "##𝐓": 1074,
      "##𝐃": 1075,
      "##𝐘": 1076,
      "##👍": 1077,
      "##✨": 1078,
      "##🌟": 1079,
      "##💜": 1080,
      "##д": 1081,
      "##😈": 1082,
      "##▰": 1083,
      "##غ": 1084,
      "##𝒙": 1085,
      "##┃": 1086,
      "##▱": 1087,
      "##🤧": 1088,
      "##🎯": 1089,
      "##💛": 1090,
      "##💚": 1091,
      "##💙": 1092,
      "##💖": 1093,
      "##ز": 1094,
      "##ی": 1095,
      "##😤": 1096,
      "##♫": 1097,
      "##♬": 1098,
      "##🤔": 1099,
      "##ɡ": 1100,
      "##🏽": 1101,
      "##😑": 1102,
      "##🏉": 1103,
      "##𝒸": 1104,
      "##𝓀": 1105,
      "##𝓎": 1106,
      "##𝗳": 1107,
      "##💩": 1108,
      "##چ": 1109,
      "##●": 1110,
      "##❥": 1111,
      "##خ": 1112,
      "##🤒": 1113,
      "##¹": 1114,
      "##👿": 1115,
      "##ч": 1116,
      "##ψ": 1117,
      "##👏": 1118,
      "##ʌ": 1119,
      "##ю": 1120,
      "##ш": 1121,
      "##⚡": 1122,
      "##☄": 1123,
      "##🙃": 1124,
      "##œ": 1125,
      "##🌍": 1126,
      "##◐": 1127,
      "##▄": 1128,
      "th": 1129,
      "the": 1130,
      "##er": 1131,
      "##in": 1132,
      "##at": 1133,
      "##on": 1134,
      "##en": 1135,
      "##ou": 1136,
      "##es": 1137,
      "##or": 1138,
      "##an": 1139,
      "an": 1140,
      "##ing": 1141,
      "to": 1142,
      "##ed": 1143,
      "##is": 1144,
      "##al": 1145,
      "##it": 1146,
      "##re": 1147,
      "of": 1148,
      "in": 1149,
      "and": 1150,
      "##ar": 1151,
      "##ic": 1152,
      "##om": 1153,
      "##as": 1154,
      "##ll": 1155,
      "is": 1156,
      "wh": 1157,
      "##ot": 1158,
      "##ion": 1159,
      "be": 1160,
      "##le": 1161,
      "##ly": 1162,
      "that": 1163,
      "you": 1164,
      "##ve": 1165,
      "##ent": 1166,
      "re": 1167,
      "##st": 1168,
      "it": 1169,
      "##se": 1170,
      "##ut": 1171,
      "##ac": 1172,
      "on": 1173,
      "##ow": 1174,
      "for": 1175,
      "##ld": 1176,
      "##id": 1177,
      "##ay": 1178,
      "##ad": 1179,
      "pr": 1180,
      "##et": 1181,
      "##ur": 1182,
      "##ig": 1183,
      "not": 1184,
      "st": 1185,
      "##ver": 1186,
      "##im": 1187,
      "##op": 1188,
      "##ol": 1189,
      "are": 1190,
      "ha": 1191,
      "##ir": 1192,
      "as": 1193,
      "##ct": 1194,
      "##ith": 1195,
      "ch": 1196,
      "he": 1197,
      "##am": 1198,
      "##ill": 1199,
      "##ch": 1200,
      "tr": 1201,
      "##ist": 1202,
      "with": 1203,
      "##ers": 1204,
      "##th": 1205,
      "##ce": 1206,
      "we": 1207,
      "do": 1208,
      "sh": 1209,
      "##ation": 1210,
      "li": 1211,
      "##ould": 1212,
      "have": 1213,
      "##ke": 1214,
      "they": 1215,
      "con": 1216,
      "go": 1217,
      "de": 1218,
      "this": 1219,
      "or": 1220,
      "se": 1221,
      "##ess": 1222,
      "##um": 1223,
      "##us": 1224,
      "##est": 1225,
      "##ate": 1226,
      "com": 1227,
      "##il": 1228,
      "was": 1229,
      "ne": 1230,
      "can": 1231,
      "su": 1232,
      "ab": 1233,
      "all": 1234,
      "##ht": 1235,
      "##ul": 1236,
      "so": 1237,
      "fr": 1238,
      "##pp": 1239,
      "##ter": 1240,
      "##ere": 1241,
      "##ust": 1242,
      "at": 1243,
      "but": 1244,
      "##ge": 1245,
      "##nd": 1246,
      "##ment": 1247,
      "who": 1248,
      "##ant": 1249,
      "##ity": 1250,
      "ex": 1251,
      "##out": 1252,
      "##ain": 1253,
      "##ally": 1254,
      "al": 1255,
      "##od": 1256,
      "##ore": 1257,
      "what": 1258,
      "##and": 1259,
      "pe": 1260,
      "##em": 1261,
      "##ome": 1262,
      "if": 1263,
      "by": 1264,
      "their": 1265,
      "pro": 1266,
      "le": 1267,
      "##ight": 1268,
      "wor": 1269,
      "##ort": 1270,
      "##ab": 1271,
      "your": 1272,
      "##one": 1273,
      "will": 1274,
      "##ive": 1275,
      "no": 1276,
      "##iv": 1277,
      "peop": 1278,
      "people": 1279,
      "##ies": 1280,
      "from": 1281,
      "##pe": 1282,
      "##au": 1283,
      "##un": 1284,
      "about": 1285,
      "##os": 1286,
      "would": 1287,
      "man": 1288,
      "##ost": 1289,
      "there": 1290,
      "has": 1291,
      "##ack": 1292,
      "un": 1293,
      "##ans": 1294,
      "me": 1295,
      "any": 1296,
      "his": 1297,
      "just": 1298,
      "##ie": 1299,
      "##if": 1300,
      "##art": 1301,
      "us": 1302,
      "##ous": 1303,
      "like": 1304,
      "##end": 1305,
      "am": 1306,
      "one": 1307,
      "##ose": 1308,
      "##ath": 1309,
      "##ump": 1310,
      "ag": 1311,
      "ar": 1312,
      "out": 1313,
      "##oc": 1314,
      "ma": 1315,
      "wom": 1316,
      "cou": 1317,
      "more": 1318,
      "don": 1319,
      "##ud": 1320,
      "##tr": 1321,
      "##ear": 1322,
      "##ite": 1323,
      "ta": 1324,
      "en": 1325,
      "##ard": 1326,
      "them": 1327,
      "##all": 1328,
      "##ue": 1329,
      "some": 1330,
      "cl": 1331,
      "trump": 1332,
      "##king": 1333,
      "how": 1334,
      "up": 1335,
      "ev": 1336,
      "##act": 1337,
      "##ci": 1338,
      "kn": 1339,
      "when": 1340,
      "oth": 1341,
      "get": 1342,
      "my": 1343,
      "##ame": 1344,
      "bec": 1345,
      "than": 1346,
      "##pt": 1347,
      "##oug": 1348,
      "##ib": 1349,
      "our": 1350,
      "##ast": 1351,
      "##ence": 1352,
      "dis": 1353,
      "##ong": 1354,
      "##ice": 1355,
      "cr": 1356,
      "##ions": 1357,
      "##hing": 1358,
      "bl": 1359,
      "##iz": 1360,
      "pl": 1361,
      "im": 1362,
      "ever": 1363,
      "lo": 1364,
      "ad": 1365,
      "##ap": 1366,
      "##ink": 1367,
      "know": 1368,
      "##ind": 1369,
      "##ag": 1370,
      "##ime": 1371,
      "##ause": 1372,
      "right": 1373,
      "res": 1374,
      "should": 1375,
      "were": 1376,
      "##her": 1377,
      "women": 1378,
      "gr": 1379,
      "did": 1380,
      "##pl": 1381,
      "##ian": 1382,
      "##el": 1383,
      "##ia": 1384,
      "##ich": 1385,
      "##ual": 1386,
      "##ect": 1387,
      "##ish": 1388,
      "ac": 1389,
      "her": 1390,
      "does": 1391,
      "##ical": 1392,
      "she": 1393,
      "pol": 1394,
      "other": 1395,
      "##ber": 1396,
      "year": 1397,
      "##ated": 1398,
      "te": 1399,
      "act": 1400,
      "##aw": 1401,
      "because": 1402,
      "##ub": 1403,
      "say": 1404,
      "int": 1405,
      "think": 1406,
      "been": 1407,
      "##are": 1408,
      "##ure": 1409,
      "##ff": 1410,
      "##ine": 1411,
      "##ree": 1412,
      "##age": 1413,
      "##ary": 1414,
      "##ult": 1415,
      "br": 1416,
      "only": 1417,
      "off": 1418,
      "##ks": 1419,
      "those": 1420,
      "need": 1421,
      "##ace": 1422,
      "part": 1423,
      "over": 1424,
      "sp": 1425,
      "##og": 1426,
      "many": 1427,
      "##ound": 1428,
      "coun": 1429,
      "sa": 1430,
      "inc": 1431,
      "po": 1432,
      "##int": 1433,
      "want": 1434,
      "per": 1435,
      "every": 1436,
      "##ough": 1437,
      "##ass": 1438,
      "time": 1439,
      "rep": 1440,
      "why": 1441,
      "##able": 1442,
      "##lic": 1443,
      "##ious": 1444,
      "which": 1445,
      "white": 1446,
      "##ide": 1447,
      "##urch": 1448,
      "now": 1449,
      "even": 1450,
      "dr": 1451,
      "had": 1452,
      "see": 1453,
      "being": 1454,
      "##ob": 1455,
      "##ism": 1456,
      "comm": 1457,
      "fe": 1458,
      "pre": 1459,
      "fa": 1460,
      "these": 1461,
      "good": 1462,
      "church": 1463,
      "then": 1464,
      "bel": 1465,
      "##ok": 1466,
      "rel": 1467,
      "##reat": 1468,
      "again": 1469,
      "him": 1470,
      "co": 1471,
      "##eric": 1472,
      "supp": 1473,
      "ob": 1474,
      "##ip": 1475,
      "und": 1476,
      "new": 1477,
      "canad": 1478,
      "app": 1479,
      "may": 1480,
      "##ild": 1481,
      "comp": 1482,
      "way": 1483,
      "##ens": 1484,
      "cons": 1485,
      "##our": 1486,
      "##fer": 1487,
      "qu": 1488,
      "americ": 1489,
      "##sel": 1490,
      "chr": 1491,
      "##ery": 1492,
      "##wn": 1493,
      "most": 1494,
      "##ire": 1495,
      "##ase": 1496,
      "under": 1497,
      "##ep": 1498,
      "gu": 1499,
      "##own": 1500,
      "##ance": 1501,
      "##ublic": 1502,
      "##ations": 1503,
      "christ": 1504,
      "##ves": 1505,
      "pres": 1506,
      "##way": 1507,
      "pers": 1508,
      "##ving": 1509,
      "mu": 1510,
      "##olic": 1511,
      "##ile": 1512,
      "##ict": 1513,
      "thing": 1514,
      "law": 1515,
      "af": 1516,
      "##gr": 1517,
      "spe": 1518,
      "wr": 1519,
      "belie": 1520,
      "well": 1521,
      "bet": 1522,
      "make": 1523,
      "could": 1524,
      "cath": 1525,
      "prob": 1526,
      "##so": 1527,
      "##qu": 1528,
      "own": 1529,
      "years": 1530,
      "##oy": 1531,
      "##itt": 1532,
      "state": 1533,
      "mar": 1534,
      "##ial": 1535,
      "##ory": 1536,
      "catholic": 1537,
      "dem": 1538,
      "ind": 1539,
      "##uc": 1540,
      "vot": 1541,
      "##00": 1542,
      "##ope": 1543,
      "very": 1544,
      "##ign": 1545,
      "much": 1546,
      "countr": 1547,
      "att": 1548,
      "##ons": 1549,
      "inter": 1550,
      "also": 1551,
      "##per": 1552,
      "##lim": 1553,
      "##vern": 1554,
      "govern": 1555,
      "into": 1556,
      "where": 1557,
      "##der": 1558,
      "##lect": 1559,
      "mus": 1560,
      "work": 1561,
      "##ents": 1562,
      "##ors": 1563,
      "##ach": 1564,
      "##ians": 1565,
      "##other": 1566,
      "##ists": 1567,
      "ser": 1568,
      "tax": 1569,
      "##fe": 1570,
      "acc": 1571,
      "em": 1572,
      "same": 1573,
      "men": 1574,
      "here": 1575,
      "fact": 1576,
      "person": 1577,
      "##ied": 1578,
      "back": 1579,
      "polit": 1580,
      "real": 1581,
      "call": 1582,
      "##ade": 1583,
      "##ty": 1584,
      "muslim": 1585,
      "id": 1586,
      "##ry": 1587,
      "##pect": 1588,
      "never": 1589,
      "fir": 1590,
      "support": 1591,
      "dec": 1592,
      "##ates": 1593,
      "ter": 1594,
      "str": 1595,
      "##ak": 1596,
      "god": 1597,
      "black": 1598,
      "tw": 1599,
      "fo": 1600,
      "##ible": 1601,
      "##ually": 1602,
      "government": 1603,
      "rec": 1604,
      "##ang": 1605,
      "##ident": 1606,
      "sc": 1607,
      "said": 1608,
      "imp": 1609,
      "world": 1610,
      "too": 1611,
      "let": 1612,
      "ass": 1613,
      "##ition": 1614,
      "rem": 1615,
      "##ful": 1616,
      "pay": 1617,
      "child": 1618,
      "bu": 1619,
      "##als": 1620,
      "sin": 1621,
      "##ative": 1622,
      "ke": 1623,
      "par": 1624,
      "##ise": 1625,
      "##ft": 1626,
      "really": 1627,
      "soci": 1628,
      "##orm": 1629,
      "read": 1630,
      "sex": 1631,
      "cont": 1632,
      "comment": 1633,
      "##ved": 1634,
      "sy": 1635,
      "##oss": 1636,
      "##lem": 1637,
      "its": 1638,
      "relig": 1639,
      "going": 1640,
      "##ting": 1641,
      "##ily": 1642,
      "def": 1643,
      "take": 1644,
      "##ord": 1645,
      "##ying": 1646,
      "dif": 1647,
      "point": 1648,
      "rac": 1649,
      "after": 1650,
      "fu": 1651,
      "##oth": 1652,
      "sch": 1653,
      "##ern": 1654,
      "inv": 1655,
      "contr": 1656,
      "20": 1657,
      "against": 1658,
      "elect": 1659,
      "##ale": 1660,
      "cor": 1661,
      "iss": 1662,
      "##ick": 1663,
      "##cept": 1664,
      "happ": 1665,
      "day": 1666,
      "cour": 1667,
      "##amp": 1668,
      "problem": 1669,
      "des": 1670,
      "##ocr": 1671,
      "##oney": 1672,
      "first": 1673,
      "long": 1674,
      "##thing": 1675,
      "won": 1676,
      "art": 1677,
      "life": 1678,
      "##con": 1679,
      "##less": 1680,
      "country": 1681,
      "##igh": 1682,
      "med": 1683,
      "thr": 1684,
      "down": 1685,
      "op": 1686,
      "##uth": 1687,
      "##ange": 1688,
      "still": 1689,
      "woman": 1690,
      "##be": 1691,
      "money": 1692,
      "##ating": 1693,
      "seem": 1694,
      "##enc": 1695,
      "liber": 1696,
      "canada": 1697,
      "##anc": 1698,
      "care": 1699,
      "##fore": 1700,
      "##ail": 1701,
      "som": 1702,
      "nothing": 1703,
      "reg": 1704,
      "prot": 1705,
      "##self": 1706,
      "public": 1707,
      "##iss": 1708,
      "##ew": 1709,
      "##alth": 1710,
      "believe": 1711,
      "such": 1712,
      "mat": 1713,
      "fl": 1714,
      "inf": 1715,
      "somet": 1716,
      "war": 1717,
      "leg": 1718,
      "ve": 1719,
      "car": 1720,
      "big": 1721,
      "##ning": 1722,
      "bas": 1723,
      "ro": 1724,
      "differ": 1725,
      "great": 1726,
      "sim": 1727,
      "bo": 1728,
      "##ues": 1729,
      "put": 1730,
      "bus": 1731,
      "##ave": 1732,
      "mo": 1733,
      "##olog": 1734,
      "##uct": 1735,
      "inst": 1736,
      "hel": 1737,
      "president": 1738,
      "##ro": 1739,
      "hum": 1740,
      "doesn": 1741,
      "another": 1742,
      "##ution": 1743,
      "ref": 1744,
      "##ities": 1745,
      "##ower": 1746,
      "gen": 1747,
      "isl": 1748,
      "##ug": 1749,
      "lead": 1750,
      "min": 1751,
      "post": 1752,
      "##ool": 1753,
      "better": 1754,
      "##ought": 1755,
      "##vers": 1756,
      "fam": 1757,
      "##ather": 1758,
      "artic": 1759,
      "reas": 1760,
      "##ude": 1761,
      "sm": 1762,
      "##tain": 1763,
      "##av": 1764,
      "##ics": 1765,
      "help": 1766,
      "while": 1767,
      "ment": 1768,
      "ho": 1769,
      "job": 1770,
      "before": 1771,
      "left": 1772,
      "ins": 1773,
      "##ational": 1774,
      "two": 1775,
      "disc": 1776,
      "made": 1777,
      "##ense": 1778,
      "sl": 1779,
      "el": 1780,
      "##tt": 1781,
      "cle": 1782,
      "##ra": 1783,
      "school": 1784,
      "far": 1785,
      "##stand": 1786,
      "end": 1787,
      "##uss": 1788,
      "jes": 1789,
      "imm": 1790,
      "ed": 1791,
      "sure": 1792,
      "##ject": 1793,
      "use": 1794,
      "both": 1795,
      "##rem": 1796,
      "##ren": 1797,
      "##kes": 1798,
      "##oun": 1799,
      "##ood": 1800,
      "didn": 1801,
      "come": 1802,
      "ph": 1803,
      "##ri": 1804,
      "democr": 1805,
      "look": 1806,
      "##cess": 1807,
      "##ress": 1808,
      "tal": 1809,
      "keep": 1810,
      "##imes": 1811,
      "kill": 1812,
      "##ps": 1813,
      "islam": 1814,
      "##ives": 1815,
      "prop": 1816,
      "sub": 1817,
      "jesus": 1818,
      "char": 1819,
      "##we": 1820,
      "vi": 1821,
      "old": 1822,
      "##ically": 1823,
      "##ility": 1824,
      "something": 1825,
      "prov": 1826,
      "show": 1827,
      "christian": 1828,
      "things": 1829,
      "##ah": 1830,
      "##get": 1831,
      "bill": 1832,
      "ill": 1833,
      "##urn": 1834,
      "##az": 1835,
      "commun": 1836,
      "actually": 1837,
      "find": 1838,
      "news": 1839,
      "##hip": 1840,
      "word": 1841,
      "mill": 1842,
      "must": 1843,
      "##arly": 1844,
      "tell": 1845,
      "##day": 1846,
      "opp": 1847,
      "since": 1848,
      "someone": 1849,
      "##vel": 1850,
      "terr": 1851,
      "resp": 1852,
      "mean": 1853,
      "got": 1854,
      "incl": 1855,
      "##ways": 1856,
      "##ts": 1857,
      "article": 1858,
      "lot": 1859,
      "ide": 1860,
      "understand": 1861,
      "last": 1862,
      "start": 1863,
      "##les": 1864,
      "##ize": 1865,
      "grou": 1866,
      "health": 1867,
      "anyone": 1868,
      "##ority": 1869,
      "##read": 1870,
      "##its": 1871,
      "high": 1872,
      "home": 1873,
      "yes": 1874,
      "##ness": 1875,
      "##iew": 1876,
      "fem": 1877,
      "hand": 1878,
      "##iness": 1879,
      "hist": 1880,
      "add": 1881,
      "obam": 1882,
      "quest": 1883,
      "##te": 1884,
      "##gn": 1885,
      "children": 1886,
      "without": 1887,
      "201": 1888,
      "exp": 1889,
      "agree": 1890,
      "gl": 1891,
      "guy": 1892,
      "stop": 1893,
      "##ently": 1894,
      "##ask": 1895,
      "htt": 1896,
      "always": 1897,
      "wat": 1898,
      "mon": 1899,
      "ant": 1900,
      "reason": 1901,
      "##aug": 1902,
      "##ock": 1903,
      "conf": 1904,
      "##led": 1905,
      "es": 1906,
      "cho": 1907,
      "free": 1908,
      "##llow": 1909,
      "ban": 1910,
      "others": 1911,
      "anything": 1912,
      "through": 1913,
      "pri": 1914,
      "wrong": 1915,
      "less": 1916,
      "jo": 1917,
      "##eral": 1918,
      "maybe": 1919,
      "##erv": 1920,
      "play": 1921,
      "##ittle": 1922,
      "american": 1923,
      "stand": 1924,
      "bad": 1925,
      "feel": 1926,
      "republic": 1927,
      "interest": 1928,
      "##ific": 1929,
      "little": 1930,
      "human": 1931,
      "##stem": 1932,
      "##red": 1933,
      "##igr": 1934,
      "et": 1935,
      "beh": 1936,
      "happen": 1937,
      "##inal": 1938,
      "change": 1939,
      "system": 1940,
      "viol": 1941,
      "sur": 1942,
      "##aim": 1943,
      "simp": 1944,
      "allow": 1945,
      "might": 1946,
      "##ither": 1947,
      "conc": 1948,
      "har": 1949,
      "##lly": 1950,
      "##lf": 1951,
      "doing": 1952,
      "##ants": 1953,
      "##ety": 1954,
      "##xt": 1955,
      "give": 1956,
      "contin": 1957,
      "##ings": 1958,
      "political": 1959,
      "##ward": 1960,
      "isn": 1961,
      "##ines": 1962,
      "##ody": 1963,
      "power": 1964,
      "democrat": 1965,
      "few": 1966,
      "obama": 1967,
      "##ably": 1968,
      "fund": 1969,
      "hard": 1970,
      "business": 1971,
      "##ute": 1972,
      "##ider": 1973,
      "run": 1974,
      "party": 1975,
      "##gress": 1976,
      "##ever": 1977,
      "19": 1978,
      "##eg": 1979,
      "stud": 1980,
      "issue": 1981,
      "##ited": 1982,
      "rights": 1983,
      "##ead": 1984,
      "pop": 1985,
      "giv": 1986,
      "cur": 1987,
      "const": 1988,
      "alask": 1989,
      "##use": 1990,
      "che": 1991,
      "trans": 1992,
      "love": 1993,
      "vote": 1994,
      "##ments": 1995,
      "muslims": 1996,
      "##ene": 1997,
      "##ices": 1998,
      "##acy": 1999,
      "etc": 2000,
      "claim": 2001,
      "##selves": 2002,
      "america": 2003,
      "family": 2004,
      "mor": 2005,
      "nor": 2006,
      "done": 2007,
      "cer": 2008,
      "around": 2009,
      "val": 2010,
      "num": 2011,
      "rest": 2012,
      "kid": 2013,
      "adm": 2014,
      "non": 2015,
      "##ized": 2016,
      "coll": 2017,
      "ll": 2018,
      "enough": 2019,
      "true": 2020,
      "##up": 2021,
      "##ouse": 2022,
      "maj": 2023,
      "social": 2024,
      "col": 2025,
      "##ops": 2026,
      "cost": 2027,
      "##ng": 2028,
      "used": 2029,
      "attack": 2030,
      "hope": 2031,
      "##bt": 2032,
      "mem": 2033,
      "dep": 2034,
      "form": 2035,
      "cult": 2036,
      "best": 2037,
      "##res": 2038,
      "terror": 2039,
      "seems": 2040,
      "immigr": 2041,
      "##reed": 2042,
      "eff": 2043,
      "pa": 2044,
      "live": 2045,
      "sec": 2046,
      "away": 2047,
      "matter": 2048,
      "##osed": 2049,
      "yet": 2050,
      "adv": 2051,
      "##gest": 2052,
      "ca": 2053,
      "history": 2054,
      "certain": 2055,
      "ra": 2056,
      "hate": 2057,
      "religious": 2058,
      "jew": 2059,
      "unt": 2060,
      "everyone": 2061,
      "else": 2062,
      "conserv": 2063,
      "question": 2064,
      "place": 2065,
      "den": 2066,
      "thought": 2067,
      "prof": 2068,
      "##ier": 2069,
      "ww": 2070,
      "different": 2071,
      "gay": 2072,
      "##orn": 2073,
      "##ender": 2074,
      "called": 2075,
      "civ": 2076,
      "ign": 2077,
      "consider": 2078,
      "ple": 2079,
      "course": 2080,
      "anti": 2081,
      "##ell": 2082,
      "##ond": 2083,
      "mind": 2084,
      "jud": 2085,
      "ent": 2086,
      "least": 2087,
      "##conom": 2088,
      "mil": 2089,
      "young": 2090,
      "follow": 2091,
      "plan": 2092,
      "includ": 2093,
      "cond": 2094,
      "##cc": 2095,
      "head": 2096,
      "ask": 2097,
      "ext": 2098,
      "case": 2099,
      "priest": 2100,
      "media": 2101,
      "##ivers": 2102,
      "econom": 2103,
      "today": 2104,
      "##ular": 2105,
      "ir": 2106,
      "educ": 2107,
      "##ately": 2108,
      "cit": 2109,
      "cent": 2110,
      "##arn": 2111,
      "found": 2112,
      "##ven": 2113,
      "##rect": 2114,
      "past": 2115,
      "mr": 2116,
      "hill": 2117,
      "needs": 2118,
      "aff": 2119,
      "kind": 2120,
      "##wh": 2121,
      "priv": 2122,
      "##bers": 2123,
      "pass": 2124,
      "police": 2125,
      "##aught": 2126,
      "report": 2127,
      "trying": 2128,
      "fin": 2129,
      "having": 2130,
      "##uring": 2131,
      "ap": 2132,
      "protect": 2133,
      "##aps": 2134,
      "view": 2135,
      "##ten": 2136,
      "poor": 2137,
      "gun": 2138,
      "wa": 2139,
      "liberal": 2140,
      "serv": 2141,
      "##ric": 2142,
      "##ars": 2143,
      "truth": 2144,
      "org": 2145,
      "##man": 2146,
      "hom": 2147,
      "pos": 2148,
      "##ready": 2149,
      "already": 2150,
      "saying": 2151,
      "##vious": 2152,
      "##used": 2153,
      "##ploy": 2154,
      "term": 2155,
      "exper": 2156,
      "clint": 2157,
      "##yp": 2158,
      "##ck": 2159,
      "##ween": 2160,
      "between": 2161,
      "sexual": 2162,
      "fail": 2163,
      "pope": 2164,
      "class": 2165,
      "nat": 2166,
      "based": 2167,
      "vict": 2168,
      "religion": 2169,
      "self": 2170,
      "themselves": 2171,
      "until": 2172,
      "national": 2173,
      "making": 2174,
      "##ural": 2175,
      "requ": 2176,
      "either": 2177,
      "cann": 2178,
      "auth": 2179,
      "eas": 2180,
      "mis": 2181,
      "##istr": 2182,
      "story": 2183,
      "civil": 2184,
      "states": 2185,
      "##ending": 2186,
      "makes": 2187,
      "wonder": 2188,
      "house": 2189,
      "accept": 2190,
      "sign": 2191,
      "ret": 2192,
      "camp": 2193,
      "citiz": 2194,
      "##itution": 2195,
      "opin": 2196,
      "invest": 2197,
      "cre": 2198,
      "##oph": 2199,
      "racist": 2200,
      "arg": 2201,
      "comments": 2202,
      "www": 2203,
      "set": 2204,
      "comple": 2205,
      "male": 2206,
      "pret": 2207,
      "deal": 2208,
      "##aching": 2209,
      "##ru": 2210,
      "next": 2211,
      "clinton": 2212,
      "list": 2213,
      "rather": 2214,
      "sup": 2215,
      "##ends": 2216,
      "canadian": 2217,
      "loo": 2218,
      "getting": 2219,
      "russ": 2220,
      "div": 2221,
      "mass": 2222,
      "##plain": 2223,
      "society": 2224,
      "faith": 2225,
      "##ont": 2226,
      "##ys": 2227,
      "fri": 2228,
      "polic": 2229,
      "lar": 2230,
      "##ash": 2231,
      "poss": 2232,
      "try": 2233,
      "protest": 2234,
      "hillary": 2235,
      "##ites": 2236,
      "##ix": 2237,
      "##irl": 2238,
      "marr": 2239,
      "sou": 2240,
      "name": 2241,
      "times": 2242,
      "prom": 2243,
      "countries": 2244,
      "mur": 2245,
      "says": 2246,
      "suprem": 2247,
      "miss": 2248,
      "##ired": 2249,
      "##ior": 2250,
      "simply": 2251,
      "##cial": 2252,
      "group": 2253,
      "bre": 2254,
      "##ands": 2255,
      "election": 2256,
      "10": 2257,
      "bish": 2258,
      "lat": 2259,
      "red": 2260,
      "open": 2261,
      "move": 2262,
      "##cr": 2263,
      "americans": 2264,
      "mod": 2265,
      "probably": 2266,
      "win": 2267,
      "alaska": 2268,
      "fed": 2269,
      "means": 2270,
      "##ology": 2271,
      "##haps": 2272,
      "however": 2273,
      "perhaps": 2274,
      "regard": 2275,
      "hu": 2276,
      "oh": 2277,
      "turn": 2278,
      "##ced": 2279,
      "city": 2280,
      "eng": 2281,
      "ago": 2282,
      "##uck": 2283,
      "sad": 2284,
      "respect": 2285,
      "west": 2286,
      "##ald": 2287,
      "please": 2288,
      "sol": 2289,
      "issues": 2290,
      "boy": 2291,
      "import": 2292,
      "##ortion": 2293,
      "million": 2294,
      "##qual": 2295,
      "##ination": 2296,
      "##ised": 2297,
      "stat": 2298,
      "once": 2299,
      "instead": 2300,
      "cannot": 2301,
      "control": 2302,
      "##gy": 2303,
      "sk": 2304,
      "given": 2305,
      "##idence": 2306,
      "##ount": 2307,
      "watch": 2308,
      "victim": 2309,
      "##eter": 2310,
      "##ces": 2311,
      "correct": 2312,
      "employ": 2313,
      "##irect": 2314,
      "##idd": 2315,
      "trude": 2316,
      "curr": 2317,
      "laws": 2318,
      "milit": 2319,
      "trudeau": 2320,
      "##body": 2321,
      "though": 2322,
      "##ai": 2323,
      "hon": 2324,
      "female": 2325,
      "##ner": 2326,
      "kids": 2327,
      "##cially": 2328,
      "##ote": 2329,
      "death": 2330,
      "##sw": 2331,
      "##atic": 2332,
      "partic": 2333,
      "incre": 2334,
      "##ample": 2335,
      "mark": 2336,
      "##ets": 2337,
      "illeg": 2338,
      "##empt": 2339,
      "ignor": 2340,
      "##ures": 2341,
      "##lish": 2342,
      "fun": 2343,
      "dou": 2344,
      "sit": 2345,
      "##ulation": 2346,
      "##ering": 2347,
      "girl": 2348,
      "respons": 2349,
      "000": 2350,
      "face": 2351,
      "lives": 2352,
      "each": 2353,
      "community": 2354,
      "abs": 2355,
      "##ina": 2356,
      "##ision": 2357,
      "##ortun": 2358,
      "##ee": 2359,
      "oil": 2360,
      "become": 2361,
      "sug": 2362,
      "pat": 2363,
      "##ention": 2364,
      "direct": 2365,
      "compan": 2366,
      "expect": 2367,
      "offic": 2368,
      "during": 2369,
      "serious": 2370,
      "example": 2371,
      "main": 2372,
      "##ret": 2373,
      "loc": 2374,
      "##pr": 2375,
      "##ember": 2376,
      "leaders": 2377,
      "working": 2378,
      "cap": 2379,
      "chang": 2380,
      "##ling": 2381,
      "##ument": 2382,
      "sci": 2383,
      "##li": 2384,
      "##ides": 2385,
      "fol": 2386,
      "build": 2387,
      "idea": 2388,
      "catholics": 2389,
      "guess": 2390,
      "##ny": 2391,
      "order": 2392,
      "teaching": 2393,
      "cover": 2394,
      "wal": 2395,
      "##iting": 2396,
      "##io": 2397,
      "words": 2398,
      "##rupt": 2399,
      "exc": 2400,
      "legal": 2401,
      "exact": 2402,
      "glob": 2403,
      "liberals": 2404,
      "espe": 2405,
      "especially": 2406,
      "suggest": 2407,
      "majority": 2408,
      "ear": 2409,
      "gener": 2410,
      "http": 2411,
      "small": 2412,
      "##ger": 2413,
      "likely": 2414,
      "##ience": 2415,
      "franc": 2416,
      "christians": 2417,
      "nation": 2418,
      "##ged": 2419,
      "sen": 2420,
      "unf": 2421,
      "remember": 2422,
      "sense": 2423,
      "prod": 2424,
      "##estr": 2425,
      "concern": 2426,
      "##ether": 2427,
      "result": 2428,
      "av": 2429,
      "hold": 2430,
      "sound": 2431,
      "##ences": 2432,
      "wee": 2433,
      "crit": 2434,
      "citizens": 2435,
      "bene": 2436,
      "opinion": 2437,
      "obvious": 2438,
      "including": 2439,
      "##ted": 2440,
      "answ": 2441,
      "##ency": 2442,
      "folks": 2443,
      "bi": 2444,
      "##ided": 2445,
      "##cond": 2446,
      "talk": 2447,
      "##br": 2448,
      "top": 2449,
      "##ified": 2450,
      "everything": 2451,
      "equal": 2452,
      "thank": 2453,
      "violence": 2454,
      "hear": 2455,
      "##ales": 2456,
      "##inking": 2457,
      "grow": 2458,
      "sho": 2459,
      "complete": 2460,
      "personal": 2461,
      "##ble": 2462,
      "pract": 2463,
      "##ages": 2464,
      "often": 2465,
      "##par": 2466,
      "treat": 2467,
      "crim": 2468,
      "proper": 2469,
      "bar": 2470,
      "##reg": 2471,
      "military": 2472,
      "living": 2473,
      "taxes": 2474,
      "number": 2475,
      "mental": 2476,
      "francis": 2477,
      "sw": 2478,
      "##ister": 2479,
      "court": 2480,
      "side": 2481,
      "important": 2482,
      "benef": 2483,
      "level": 2484,
      "haw": 2485,
      "##fu": 2486,
      "##ivid": 2487,
      "ok": 2488,
      "sor": 2489,
      "est": 2490,
      "whole": 2491,
      "sing": 2492,
      "evidence": 2493,
      "wants": 2494,
      "tot": 2495,
      "##por": 2496,
      "beg": 2497,
      "https": 2498,
      "extrem": 2499,
      "aren": 2500,
      "mention": 2501,
      "clear": 2502,
      "##ament": 2503,
      "cut": 2504,
      "race": 2505,
      "ord": 2506,
      "individ": 2507,
      "perf": 2508,
      "##ife": 2509,
      "##ne": 2510,
      "full": 2511,
      "##air": 2512,
      "##ned": 2513,
      "fear": 2514,
      "threat": 2515,
      "using": 2516,
      "second": 2517,
      "republican": 2518,
      "line": 2519,
      "whether": 2520,
      "except": 2521,
      "pretty": 2522,
      "inform": 2523,
      "racism": 2524,
      "##app": 2525,
      "jobs": 2526,
      "mess": 2527,
      "told": 2528,
      "##imate": 2529,
      "individual": 2530,
      "##hn": 2531,
      "##ove": 2532,
      "##ple": 2533,
      "bur": 2534,
      "appro": 2535,
      "days": 2536,
      "defin": 2537,
      "murder": 2538,
      "bring": 2539,
      "comes": 2540,
      "##ization": 2541,
      "##ators": 2542,
      "certainly": 2543,
      "hawai": 2544,
      "able": 2545,
      "conservative": 2546,
      "facts": 2547,
      "di": 2548,
      "##line": 2549,
      "##ional": 2550,
      "seen": 2551,
      "came": 2552,
      "##arch": 2553,
      "month": 2554,
      "priests": 2555,
      "freed": 2556,
      "belief": 2557,
      "##ler": 2558,
      "repres": 2559,
      "##atives": 2560,
      "entire": 2561,
      "fight": 2562,
      "arm": 2563,
      "donald": 2564,
      "##ots": 2565,
      "federal": 2566,
      "taking": 2567,
      "##gram": 2568,
      "organ": 2569,
      "##ases": 2570,
      "pur": 2571,
      "south": 2572,
      "program": 2573,
      "##ech": 2574,
      "discuss": 2575,
      "continue": 2576,
      "land": 2577,
      "invol": 2578,
      "destr": 2579,
      "crime": 2580,
      "exist": 2581,
      "exactly": 2582,
      "learn": 2583,
      "fair": 2584,
      "speak": 2585,
      "eur": 2586,
      "went": 2587,
      "met": 2588,
      "politic": 2589,
      "##ph": 2590,
      "trad": 2591,
      "##fully": 2592,
      "##iddle": 2593,
      "refer": 2594,
      "univers": 2595,
      "ident": 2596,
      "abortion": 2597,
      "##ital": 2598,
      "alm": 2599,
      "rid": 2600,
      "john": 2601,
      "freedom": 2602,
      "doct": 2603,
      "talking": 2604,
      "choice": 2605,
      "rich": 2606,
      "office": 2607,
      "china": 2608,
      "effect": 2609,
      "bud": 2610,
      "cand": 2611,
      "spec": 2612,
      "lost": 2613,
      "##ibility": 2614,
      "suc": 2615,
      "bit": 2616,
      "education": 2617,
      "##isl": 2618,
      "middle": 2619,
      "##ison": 2620,
      "arr": 2621,
      "common": 2622,
      "canadians": 2623,
      "dog": 2624,
      "stre": 2625,
      "quite": 2626,
      "gender": 2627,
      "bishops": 2628,
      "pot": 2629,
      "situ": 2630,
      "abuse": 2631,
      "spir": 2632,
      "lack": 2633,
      "##ify": 2634,
      "behav": 2635,
      "legisl": 2636,
      "teach": 2637,
      "##where": 2638,
      "##ended": 2639,
      "speech": 2640,
      "drug": 2641,
      "members": 2642,
      "paid": 2643,
      "##arr": 2644,
      "##ault": 2645,
      "##ken": 2646,
      "##rael": 2647,
      "doll": 2648,
      "europe": 2649,
      "wouldn": 2650,
      "north": 2651,
      "##rim": 2652,
      "israel": 2653,
      "##ator": 2654,
      "equ": 2655,
      "##ased": 2656,
      "##alf": 2657,
      "schools": 2658,
      "chines": 2659,
      "sorry": 2660,
      "##aign": 2661,
      "chinese": 2662,
      "pray": 2663,
      "almost": 2664,
      "low": 2665,
      "wasn": 2666,
      "100": 2667,
      "large": 2668,
      "campaign": 2669,
      "rul": 2670,
      "gets": 2671,
      "moral": 2672,
      "appear": 2673,
      "groups": 2674,
      "200": 2675,
      "answer": 2676,
      "##aff": 2677,
      "occ": 2678,
      "republicans": 2679,
      "fac": 2680,
      "clearly": 2681,
      "##velop": 2682,
      "##eign": 2683,
      "candid": 2684,
      "##cent": 2685,
      "democrats": 2686,
      "population": 2687,
      "illegal": 2688,
      "conv": 2689,
      "himself": 2690,
      "##ake": 2691,
      "coming": 2692,
      "suff": 2693,
      "culture": 2694,
      "disag": 2695,
      "current": 2696,
      "##ony": 2697,
      "rece": 2698,
      "test": 2699,
      "income": 2700,
      "##ient": 2701,
      "aw": 2702,
      "##uction": 2703,
      "ones": 2704,
      "reality": 2705,
      "##aud": 2706,
      "sent": 2707,
      "ris": 2708,
      "among": 2709,
      "##ik": 2710,
      "##aking": 2711,
      "politics": 2712,
      "rev": 2713,
      "##tern": 2714,
      "card": 2715,
      "stay": 2716,
      "ste": 2717,
      "private": 2718,
      "cred": 2719,
      "##iage": 2720,
      "buy": 2721,
      "three": 2722,
      "problems": 2723,
      "absol": 2724,
      "fire": 2725,
      "looking": 2726,
      "thanks": 2727,
      "goes": 2728,
      "stup": 2729,
      "develop": 2730,
      "##land": 2731,
      "sever": 2732,
      "constitution": 2733,
      "mer": 2734,
      "thinking": 2735,
      "progress": 2736,
      "##xual": 2737,
      "leave": 2738,
      "attempt": 2739,
      "fut": 2740,
      "##ins": 2741,
      "dam": 2742,
      "##co": 2743,
      "##ton": 2744,
      "father": 2745,
      "spirit": 2746,
      "##anger": 2747,
      "assault": 2748,
      "justice": 2749,
      "stupid": 2750,
      "took": 2751,
      "##aged": 2752,
      "along": 2753,
      "yourself": 2754,
      "##lling": 2755,
      "##ush": 2756,
      "killed": 2757,
      "##yn": 2758,
      "meet": 2759,
      "50": 2760,
      "nice": 2761,
      "##mm": 2762,
      "##uff": 2763,
      "vis": 2764,
      "represent": 2765,
      "##istic": 2766,
      "##ined": 2767,
      "##ury": 2768,
      "sac": 2769,
      "##hood": 2770,
      "##ats": 2771,
      "within": 2772,
      "islamic": 2773,
      "happened": 2774,
      "intern": 2775,
      "super": 2776,
      "lim": 2777,
      "parents": 2778,
      "lit": 2779,
      "##of": 2780,
      "fall": 2781,
      "wife": 2782,
      "wish": 2783,
      "admin": 2784,
      "policy": 2785,
      "week": 2786,
      "##orts": 2787,
      "##aring": 2788,
      "rad": 2789,
      "general": 2790,
      "neg": 2791,
      "sus": 2792,
      "voted": 2793,
      "intell": 2794,
      "##ames": 2795,
      "team": 2796,
      "mother": 2797,
      "jews": 2798,
      "##str": 2799,
      "allowed": 2800,
      "shoot": 2801,
      "elected": 2802,
      "sn": 2803,
      "peace": 2804,
      "local": 2805,
      "single": 2806,
      "naz": 2807,
      "cause": 2808,
      "##itted": 2809,
      "fal": 2810,
      "##oint": 2811,
      "future": 2812,
      "absolute": 2813,
      "##ark": 2814,
      "##ades": 2815,
      "author": 2816,
      "##ane": 2817,
      "air": 2818,
      "marriage": 2819,
      "##itions": 2820,
      "bir": 2821,
      "##ott": 2822,
      "worth": 2823,
      "due": 2824,
      "profess": 2825,
      "##orr": 2826,
      "doubt": 2827,
      "pu": 2828,
      "whate": 2829,
      "experience": 2830,
      "mom": 2831,
      "sour": 2832,
      "judge": 2833,
      "actions": 2834,
      "position": 2835,
      "##ging": 2836,
      "whatever": 2837,
      "service": 2838,
      "qual": 2839,
      "##ges": 2840,
      "##ank": 2841,
      "##xic": 2842,
      "heart": 2843,
      "15": 2844,
      "famil": 2845,
      "discrim": 2846,
      "close": 2847,
      "accord": 2848,
      "##ared": 2849,
      "##uly": 2850,
      "enc": 2851,
      "sal": 2852,
      "tre": 2853,
      "##ived": 2854,
      "##lus": 2855,
      "##osing": 2856,
      "##osexual": 2857,
      "dead": 2858,
      "billion": 2859,
      "immigration": 2860,
      "ce": 2861,
      "arab": 2862,
      "age": 2863,
      "strong": 2864,
      "half": 2865,
      "afric": 2866,
      "difference": 2867,
      "toward": 2868,
      "inde": 2869,
      "statement": 2870,
      "market": 2871,
      "ms": 2872,
      "fur": 2873,
      "##izing": 2874,
      "indust": 2875,
      "er": 2876,
      "friends": 2877,
      "short": 2878,
      "foreign": 2879,
      "##ther": 2880,
      "outs": 2881,
      "##ories": 2882,
      "thous": 2883,
      "united": 2884,
      "millions": 2885,
      "false": 2886,
      "worse": 2887,
      "supremac": 2888,
      "##ered": 2889,
      "disagree": 2890,
      "interesting": 2891,
      "femin": 2892,
      "process": 2893,
      "blame": 2894,
      "fav": 2895,
      "taken": 2896,
      "corpor": 2897,
      "mot": 2898,
      "unless": 2899,
      "neigh": 2900,
      "neighb": 2901,
      "infl": 2902,
      "##itive": 2903,
      "##bs": 2904,
      "voters": 2905,
      "inn": 2906,
      "investig": 2907,
      "possible": 2908,
      "eth": 2909,
      "imag": 2910,
      "##ield": 2911,
      "ye": 2912,
      "que": 2913,
      "present": 2914,
      "colle": 2915,
      "hat": 2916,
      "##ured": 2917,
      "##cut": 2918,
      "##ream": 2919,
      "behind": 2920,
      "lab": 2921,
      "##ergy": 2922,
      "step": 2923,
      "wing": 2924,
      "##ensive": 2925,
      "situation": 2926,
      "dist": 2927,
      "##for": 2928,
      "press": 2929,
      "corrupt": 2930,
      "##uses": 2931,
      "remain": 2932,
      "##ript": 2933,
      "administr": 2934,
      "criminal": 2935,
      "hit": 2936,
      "lad": 2937,
      "##aph": 2938,
      "congress": 2939,
      "longer": 2940,
      "##ief": 2941,
      "evil": 2942,
      "record": 2943,
      "percent": 2944,
      "##ards": 2945,
      "##ogn": 2946,
      "force": 2947,
      "surpr": 2948,
      "##by": 2949,
      "holy": 2950,
      "##iding": 2951,
      "##ples": 2952,
      "cal": 2953,
      "##ipp": 2954,
      "pred": 2955,
      "heard": 2956,
      "knows": 2957,
      "deb": 2958,
      "check": 2959,
      "walk": 2960,
      "30": 2961,
      "##ising": 2962,
      "##ters": 2963,
      "jewish": 2964,
      "success": 2965,
      "students": 2966,
      "water": 2967,
      "##tle": 2968,
      "##tar": 2969,
      "blacks": 2970,
      "##iving": 2971,
      "game": 2972,
      "immigrants": 2973,
      "##bo": 2974,
      "dom": 2975,
      "ru": 2976,
      "rele": 2977,
      "paying": 2978,
      "prev": 2979,
      "##ances": 2980,
      "explain": 2981,
      "appar": 2982,
      "argument": 2983,
      "known": 2984,
      "ps": 2985,
      "##ming": 2986,
      "bible": 2987,
      "##oke": 2988,
      "wanted": 2989,
      "ger": 2990,
      "born": 2991,
      "according": 2992,
      "##ction": 2993,
      "trust": 2994,
      "repe": 2995,
      "guys": 2996,
      "##crib": 2997,
      "assum": 2998,
      "destroy": 2999,
      "russia": 3000,
      "hawaii": 3001,
      "hous": 3002,
      "orig": 3003,
      "action": 3004,
      "relations": 3005,
      "provide": 3006,
      "danger": 3007,
      "usa": 3008,
      "##ened": 3009,
      "completely": 3010,
      "typ": 3011,
      "gre": 3012,
      "victims": 3013,
      "fig": 3014,
      "desp": 3015,
      "pun": 3016,
      "##urity": 3017,
      "dev": 3018,
      "earth": 3019,
      "##rop": 3020,
      "complain": 3021,
      "train": 3022,
      "behavior": 3023,
      "##cil": 3024,
      "economy": 3025,
      "##using": 3026,
      "ey": 3027,
      "address": 3028,
      "expl": 3029,
      "deser": 3030,
      "further": 3031,
      "information": 3032,
      "event": 3033,
      "hyp": 3034,
      "ann": 3035,
      "food": 3036,
      "honest": 3037,
      "##wise": 3038,
      "reading": 3039,
      "foc": 3040,
      "values": 3041,
      "road": 3042,
      "##uge": 3043,
      "##ring": 3044,
      "none": 3045,
      "insur": 3046,
      "##aper": 3047,
      "##oud": 3048,
      "enter": 3049,
      "log": 3050,
      "##oo": 3051,
      "light": 3052,
      "demand": 3053,
      "wait": 3054,
      "##ledge": 3055,
      "science": 3056,
      "economic": 3057,
      "western": 3058,
      "recogn": 3059,
      "##pel": 3060,
      "det": 3061,
      "##itting": 3062,
      "pen": 3063,
      "##onse": 3064,
      "truly": 3065,
      "deep": 3066,
      "calling": 3067,
      "simple": 3068,
      "##ophob": 3069,
      "hur": 3070,
      "special": 3071,
      "homeless": 3072,
      "sacr": 3073,
      "tradition": 3074,
      "##ilar": 3075,
      "subject": 3076,
      "itself": 3077,
      "rate": 3078,
      "several": 3079,
      "12": 3080,
      "bab": 3081,
      "college": 3082,
      "necess": 3083,
      "color": 3084,
      "##action": 3085,
      "project": 3086,
      "soon": 3087,
      "##atican": 3088,
      "##pet": 3089,
      "env": 3090,
      "politicians": 3091,
      "toget": 3092,
      "vatican": 3093,
      "asked": 3094,
      "##ening": 3095,
      "la": 3096,
      "together": 3097,
      "fake": 3098,
      "response": 3099,
      "account": 3100,
      "alone": 3101,
      "plac": 3102,
      "knew": 3103,
      "##ork": 3104,
      "activ": 3105,
      "perfect": 3106,
      "##ability": 3107,
      "needed": 3108,
      "obviously": 3109,
      "express": 3110,
      "wealth": 3111,
      "##ees": 3112,
      "decision": 3113,
      "refuge": 3114,
      "willing": 3115,
      "above": 3116,
      "##icult": 3117,
      "pal": 3118,
      "return": 3119,
      "##earch": 3120,
      "sla": 3121,
      "##oid": 3122,
      "fine": 3123,
      "started": 3124,
      "##umb": 3125,
      "mult": 3126,
      "##ission": 3127,
      "involved": 3128,
      "11": 3129,
      "lol": 3130,
      "dollars": 3131,
      "lies": 3132,
      "tar": 3133,
      "friend": 3134,
      "accom": 3135,
      "gave": 3136,
      "18": 3137,
      "body": 3138,
      "choose": 3139,
      "families": 3140,
      "##over": 3141,
      "costs": 3142,
      "book": 3143,
      "paul": 3144,
      "happy": 3145,
      "pie": 3146,
      "sym": 3147,
      "##ta": 3148,
      "research": 3149,
      "norm": 3150,
      "oppos": 3151,
      "##ential": 3152,
      "##ological": 3153,
      "leader": 3154,
      "homosexual": 3155,
      "phys": 3156,
      "##come": 3157,
      "upon": 3158,
      "huge": 3159,
      "vir": 3160,
      "hour": 3161,
      "##asc": 3162,
      "hig": 3163,
      "gas": 3164,
      "insurance": 3165,
      "birth": 3166,
      "property": 3167,
      "bank": 3168,
      "girls": 3169,
      "##iver": 3170,
      "afford": 3171,
      "distr": 3172,
      "safe": 3173,
      "tech": 3174,
      "ways": 3175,
      "absolutely": 3176,
      "running": 3177,
      "giving": 3178,
      "easy": 3179,
      "##que": 3180,
      "lie": 3181,
      "rules": 3182,
      "indeed": 3183,
      "companies": 3184,
      "opportun": 3185,
      "ah": 3186,
      "hell": 3187,
      "risk": 3188,
      "higher": 3189,
      "##ilt": 3190,
      "rap": 3191,
      "repl": 3192,
      "created": 3193,
      "conservatives": 3194,
      "##ird": 3195,
      "##itor": 3196,
      "services": 3197,
      "##old": 3198,
      "unc": 3199,
      "object": 3200,
      "unfortun": 3201,
      "forg": 3202,
      "daught": 3203,
      "ty": 3204,
      "security": 3205,
      "lea": 3206,
      "major": 3207,
      "oper": 3208,
      "##ese": 3209,
      "demon": 3210,
      "##ium": 3211,
      "pick": 3212,
      "stuff": 3213,
      "share": 3214,
      "sounds": 3215,
      "##irc": 3216,
      "##itten": 3217,
      "opt": 3218,
      "##lled": 3219,
      "gos": 3220,
      "extreme": 3221,
      "sold": 3222,
      "actual": 3223,
      "##idents": 3224,
      "mist": 3225,
      "rail": 3226,
      "##ively": 3227,
      "##ibly": 3228,
      "##dd": 3229,
      "mexic": 3230,
      "supposed": 3231,
      "terrorist": 3232,
      "worked": 3233,
      "democratic": 3234,
      "reasons": 3235,
      "couple": 3236,
      "path": 3237,
      "##ued": 3238,
      "budget": 3239,
      "hands": 3240,
      "shame": 3241,
      "bigot": 3242,
      "thousands": 3243,
      "otherwise": 3244,
      "obs": 3245,
      "global": 3246,
      "works": 3247,
      "2017": 3248,
      "room": 3249,
      "compet": 3250,
      "##ped": 3251,
      "later": 3252,
      "##ially": 3253,
      "medical": 3254,
      "critic": 3255,
      "seriously": 3256,
      "innoc": 3257,
      "outside": 3258,
      "access": 3259,
      "university": 3260,
      "base": 3261,
      "understanding": 3262,
      "heav": 3263,
      "2016": 3264,
      "whites": 3265,
      "supporters": 3266,
      "apparently": 3267,
      "lang": 3268,
      "##arm": 3269,
      "prefer": 3270,
      "pain": 3271,
      "circ": 3272,
      "da": 3273,
      "contrib": 3274,
      "bal": 3275,
      "climate": 3276,
      "##order": 3277,
      "voting": 3278,
      "hypocr": 3279,
      "ath": 3280,
      "##ones": 3281,
      "##iron": 3282,
      "prin": 3283,
      "area": 3284,
      "begin": 3285,
      "bey": 3286,
      "##ral": 3287,
      "killing": 3288,
      "native": 3289,
      "gop": 3290,
      "company": 3291,
      "grand": 3292,
      "suspect": 3293,
      "yeah": 3294,
      "radical": 3295,
      "rom": 3296,
      "cat": 3297,
      "hun": 3298,
      "link": 3299,
      "attention": 3300,
      "fix": 3301,
      "night": 3302,
      "shows": 3303,
      "administration": 3304,
      "wall": 3305,
      "takes": 3306,
      "forget": 3307,
      "doc": 3308,
      "written": 3309,
      "decades": 3310,
      "diff": 3311,
      "official": 3312,
      "meaning": 3313,
      "married": 3314,
      "former": 3315,
      "east": 3316,
      "##pay": 3317,
      "##fl": 3318,
      "##iction": 3319,
      "acr": 3320,
      "condem": 3321,
      "agend": 3322,
      "four": 3323,
      "##ych": 3324,
      "##itch": 3325,
      "##joy": 3326,
      "early": 3327,
      "creat": 3328,
      "##uce": 3329,
      "industry": 3330,
      "##ason": 3331,
      "##ature": 3332,
      "tor": 3333,
      "beliefs": 3334,
      "responsible": 3335,
      "kore": 3336,
      "sat": 3337,
      "sort": 3338,
      "enjoy": 3339,
      "san": 3340,
      "funny": 3341,
      "environ": 3342,
      "harm": 3343,
      "similar": 3344,
      "beyond": 3345,
      "candidate": 3346,
      "gone": 3347,
      "looks": 3348,
      "workers": 3349,
      "foot": 3350,
      "chance": 3351,
      "##amed": 3352,
      "##aster": 3353,
      "##ropri": 3354,
      "psych": 3355,
      "spend": 3356,
      "purp": 3357,
      "saw": 3358,
      "ut": 3359,
      "nations": 3360,
      "langu": 3361,
      "##ert": 3362,
      "##els": 3363,
      "##inals": 3364,
      "boys": 3365,
      "hus": 3366,
      "total": 3367,
      "numbers": 3368,
      "becom": 3369,
      "guns": 3370,
      "var": 3371,
      "sem": 3372,
      "weap": 3373,
      "aut": 3374,
      "estab": 3375,
      "across": 3376,
      "taxpay": 3377,
      "jour": 3378,
      "board": 3379,
      "decl": 3380,
      "influ": 3381,
      "medic": 3382,
      "value": 3383,
      "lower": 3384,
      "realize": 3385,
      "happens": 3386,
      "views": 3387,
      "difficult": 3388,
      "##unk": 3389,
      "del": 3390,
      "street": 3391,
      "horr": 3392,
      "adult": 3393,
      "subs": 3394,
      "##ished": 3395,
      "syr": 3396,
      "imagine": 3397,
      "considered": 3398,
      "cases": 3399,
      "council": 3400,
      "leadership": 3401,
      "environment": 3402,
      "##ench": 3403,
      "globe": 3404,
      "increase": 3405,
      "german": 3406,
      "rape": 3407,
      "fil": 3408,
      "privile": 3409,
      "quebe": 3410,
      "bom": 3411,
      "wow": 3412,
      "months": 3413,
      "tro": 3414,
      "reject": 3415,
      "##rew": 3416,
      "owners": 3417,
      "trade": 3418,
      "require": 3419,
      "##unch": 3420,
      "finan": 3421,
      "modern": 3422,
      "tried": 3423,
      "deter": 3424,
      "mag": 3425,
      "fool": 3426,
      "##ows": 3427,
      "neither": 3428,
      "25": 3429,
      "agenda": 3430,
      "describ": 3431,
      "##cl": 3432,
      "##oral": 3433,
      "##allen": 3434,
      "sick": 3435,
      "target": 3436,
      "##vant": 3437,
      "##etic": 3438,
      "##ained": 3439,
      "natural": 3440,
      "son": 3441,
      "gospel": 3442,
      "march": 3443,
      "##utions": 3444,
      "union": 3445,
      "relationship": 3446,
      "intellig": 3447,
      "flag": 3448,
      "sell": 3449,
      "enfor": 3450,
      "nature": 3451,
      "hund": 3452,
      "##ulous": 3453,
      "ground": 3454,
      "hundred": 3455,
      "##iation": 3456,
      "nobody": 3457,
      "lose": 3458,
      "couldn": 3459,
      "questions": 3460,
      "##eng": 3461,
      "histor": 3462,
      "##na": 3463,
      "ridic": 3464,
      "telling": 3465,
      "##utes": 3466,
      "wel": 3467,
      "favor": 3468,
      "##iod": 3469,
      "shot": 3470,
      "authority": 3471,
      "##inate": 3472,
      "price": 3473,
      "discussion": 3474,
      "capital": 3475,
      "##asing": 3476,
      "whose": 3477,
      "democracy": 3478,
      "building": 3479,
      "separ": 3480,
      "##son": 3481,
      "town": 3482,
      "##sh": 3483,
      "write": 3484,
      "bull": 3485,
      "establish": 3486,
      "practice": 3487,
      "haven": 3488,
      "alth": 3489,
      "cross": 3490,
      "poll": 3491,
      "attr": 3492,
      "changed": 3493,
      "prim": 3494,
      "save": 3495,
      "front": 3496,
      "although": 3497,
      "trave": 3498,
      "period": 3499,
      "challen": 3500,
      "##form": 3501,
      "die": 3502,
      "resour": 3503,
      "housing": 3504,
      "encour": 3505,
      "harper": 3506,
      "tur": 3507,
      "responsibility": 3508,
      "totally": 3509,
      "##go": 3510,
      "crimes": 3511,
      "christianity": 3512,
      "##iven": 3513,
      "regarding": 3514,
      "vers": 3515,
      "##like": 3516,
      "product": 3517,
      "break": 3518,
      "sil": 3519,
      "##ining": 3520,
      "policies": 3521,
      "##ley": 3522,
      "finally": 3523,
      "treatment": 3524,
      "##0s": 3525,
      "brain": 3526,
      "rule": 3527,
      "##ike": 3528,
      "##ires": 3529,
      "males": 3530,
      "ten": 3531,
      "##sequ": 3532,
      "attacks": 3533,
      "shouldn": 3534,
      "worst": 3535,
      "assoc": 3536,
      "##antly": 3537,
      "oreg": 3538,
      "speaking": 3539,
      "wrote": 3540,
      "aver": 3541,
      "##ball": 3542,
      "spending": 3543,
      "failed": 3544,
      "remo": 3545,
      "forward": 3546,
      "jail": 3547,
      "king": 3548,
      "oregon": 3549,
      "points": 3550,
      "##ularly": 3551,
      "quebec": 3552,
      "ii": 3553,
      "hy": 3554,
      "port": 3555,
      "##care": 3556,
      "deg": 3557,
      "recent": 3558,
      "lay": 3559,
      "anim": 3560,
      "churches": 3561,
      "conn": 3562,
      "idi": 3563,
      "##isions": 3564,
      "husb": 3565,
      "drop": 3566,
      "ep": 3567,
      "washing": 3568,
      "##umm": 3569,
      "avail": 3570,
      "bc": 3571,
      "lg": 3572,
      "forced": 3573,
      "terrorists": 3574,
      "nons": 3575,
      "role": 3576,
      "create": 3577,
      "clean": 3578,
      "language": 3579,
      "held": 3580,
      "brought": 3581,
      "benefit": 3582,
      "40": 3583,
      "##lement": 3584,
      "drive": 3585,
      "study": 3586,
      "unfortunately": 3587,
      "piece": 3588,
      "ontar": 3589,
      "pet": 3590,
      "sometimes": 3591,
      "##ises": 3592,
      "defend": 3593,
      "demonstr": 3594,
      "particular": 3595,
      "##kn": 3596,
      "throw": 3597,
      "source": 3598,
      "innocent": 3599,
      "signific": 3600,
      "provin": 3601,
      "##raph": 3602,
      "##cy": 3603,
      "##ey": 3604,
      "##lical": 3605,
      "carry": 3606,
      "type": 3607,
      "prison": 3608,
      "votes": 3609,
      "dangerous": 3610,
      "serve": 3611,
      "russian": 3612,
      "ine": 3613,
      "cele": 3614,
      "message": 3615,
      "##erate": 3616,
      "ur": 3617,
      "ge": 3618,
      "surv": 3619,
      "exam": 3620,
      "anal": 3621,
      "sect": 3622,
      "consci": 3623,
      "scient": 3624,
      "spent": 3625,
      "century": 3626,
      "##fort": 3627,
      "##edi": 3628,
      "mentally": 3629,
      "##azy": 3630,
      "##inated": 3631,
      "##set": 3632,
      "secret": 3633,
      "violent": 3634,
      "fre": 3635,
      "tem": 3636,
      "ess": 3637,
      "outr": 3638,
      "advoc": 3639,
      "terms": 3640,
      "gov": 3641,
      "thinks": 3642,
      "##room": 3643,
      "transg": 3644,
      "respond": 3645,
      "fill": 3646,
      "jap": 3647,
      "personally": 3648,
      "##acter": 3649,
      "quick": 3650,
      "lawy": 3651,
      "discrimination": 3652,
      "minor": 3653,
      "amaz": 3654,
      "celebr": 3655,
      "fasc": 3656,
      "alleg": 3657,
      "concept": 3658,
      "lots": 3659,
      "japan": 3660,
      "exe": 3661,
      "##aging": 3662,
      "##ero": 3663,
      "cultural": 3664,
      "writ": 3665,
      "knowledge": 3666,
      "vo": 3667,
      "racial": 3668,
      "near": 3669,
      "proof": 3670,
      "##irm": 3671,
      "##very": 3672,
      "hol": 3673,
      "lying": 3674,
      "mostly": 3675,
      "parish": 3676,
      "ontario": 3677,
      "cop": 3678,
      "shar": 3679,
      "##icted": 3680,
      "reform": 3681,
      "claims": 3682,
      "terrorism": 3683,
      "collect": 3684,
      "pict": 3685,
      "##uments": 3686,
      "fundament": 3687,
      "whom": 3688,
      "princi": 3689,
      "push": 3690,
      "determ": 3691,
      "journ": 3692,
      "neighbor": 3693,
      "prevent": 3694,
      "late": 3695,
      "##oses": 3696,
      "##aries": 3697,
      "parent": 3698,
      "required": 3699,
      "amount": 3700,
      "institution": 3701,
      "meant": 3702,
      "##uel": 3703,
      "funding": 3704,
      "status": 3705,
      "individuals": 3706,
      "refugees": 3707,
      "taught": 3708,
      "member": 3709,
      "third": 3710,
      "regardless": 3711,
      "occur": 3712,
      "##aks": 3713,
      "##itude": 3714,
      "inj": 3715,
      "toront": 3716,
      "field": 3717,
      "vide": 3718,
      "##com": 3719,
      "interp": 3720,
      "emb": 3721,
      "techn": 3722,
      "##ox": 3723,
      "solution": 3724,
      "concerned": 3725,
      "washington": 3726,
      "movement": 3727,
      "nonsense": 3728,
      "##ression": 3729,
      "minority": 3730,
      "particip": 3731,
      "places": 3732,
      "luck": 3733,
      "##und": 3734,
      "debt": 3735,
      "exce": 3736,
      "##plic": 3737,
      "depart": 3738,
      "doctr": 3739,
      "staff": 3740,
      "character": 3741,
      "lord": 3742,
      "##arily": 3743,
      "design": 3744,
      "lif": 3745,
      "daughter": 3746,
      "bishop": 3747,
      "##oad": 3748,
      "stra": 3749,
      "##akes": 3750,
      "##isc": 3751,
      "bush": 3752,
      "ball": 3753,
      "fel": 3754,
      "stated": 3755,
      "bat": 3756,
      "benefits": 3757,
      "mere": 3758,
      "##olution": 3759,
      "available": 3760,
      "minister": 3761,
      "impro": 3762,
      "average": 3763,
      "journal": 3764,
      "blood": 3765,
      "despite": 3766,
      "appoint": 3767,
      "##ails": 3768,
      "lgbt": 3769,
      "fault": 3770,
      "insult": 3771,
      "following": 3772,
      "shut": 3773,
      "saud": 3774,
      "count": 3775,
      "##ata": 3776,
      "lady": 3777,
      "progressive": 3778,
      "##val": 3779,
      "original": 3780,
      "##dp": 3781,
      "convers": 3782,
      "towards": 3783,
      "toronto": 3784,
      "defense": 3785,
      "##eal": 3786,
      "laug": 3787,
      "##bi": 3788,
      "remind": 3789,
      "kh": 3790,
      "weak": 3791,
      "reflect": 3792,
      "smart": 3793,
      "english": 3794,
      "employees": 3795,
      "hey": 3796,
      "ridiculous": 3797,
      "##path": 3798,
      "##enty": 3799,
      "connect": 3800,
      "##ouch": 3801,
      "##astr": 3802,
      "##iated": 3803,
      "pub": 3804,
      "financial": 3805,
      "##het": 3806,
      "toler": 3807,
      "appl": 3808,
      "subst": 3809,
      "usually": 3810,
      "fit": 3811,
      "##how": 3812,
      "stories": 3813,
      "##dom": 3814,
      "equality": 3815,
      "##ana": 3816,
      "##gry": 3817,
      "rates": 3818,
      "beat": 3819,
      "therefore": 3820,
      "pi": 3821,
      "affect": 3822,
      "opportunity": 3823,
      "##oken": 3824,
      "##umn": 3825,
      "16": 3826,
      "##cing": 3827,
      "rob": 3828,
      "include": 3829,
      "transgender": 3830,
      "anch": 3831,
      "hatred": 3832,
      "straight": 3833,
      "ver": 3834,
      "supporting": 3835,
      "turned": 3836,
      "figure": 3837,
      "##lying": 3838,
      "note": 3839,
      "##ival": 3840,
      "ignorant": 3841,
      "pm": 3842,
      "crow": 3843,
      "##ishing": 3844,
      "incom": 3845,
      "script": 3846,
      "##uit": 3847,
      "star": 3848,
      "previous": 3849,
      "charge": 3850,
      "restr": 3851,
      "alt": 3852,
      "##osp": 3853,
      "focus": 3854,
      "wit": 3855,
      "amend": 3856,
      "##arc": 3857,
      "narr": 3858,
      "offer": 3859,
      "saf": 3860,
      "perm": 3861,
      "##ij": 3862,
      "extr": 3863,
      "committed": 3864,
      "boo": 3865,
      "##more": 3866,
      "acts": 3867,
      "glad": 3868,
      "##yle": 3869,
      "lived": 3870,
      "loss": 3871,
      "nazi": 3872,
      "zero": 3873,
      "##orter": 3874,
      "ignore": 3875,
      "prem": 3876,
      "interv": 3877,
      "##enced": 3878,
      "justin": 3879,
      "pregn": 3880,
      "became": 3881,
      "anyway": 3882,
      "myself": 3883,
      "net": 3884,
      "consequ": 3885,
      "changes": 3886,
      "##atory": 3887,
      "appropri": 3888,
      "approach": 3889,
      "asking": 3890,
      "anchor": 3891,
      "arch": 3892,
      "quot": 3893,
      "hot": 3894,
      "##ping": 3895,
      "necessary": 3896,
      "brit": 3897,
      "##aa": 3898,
      "thus": 3899,
      "wear": 3900,
      "sand": 3901,
      "definition": 3902,
      "debate": 3903,
      "trou": 3904,
      "wind": 3905,
      "perform": 3906,
      "wik": 3907,
      "commit": 3908,
      "playing": 3909,
      "meas": 3910,
      "##egr": 3911,
      "impact": 3912,
      "##archy": 3913,
      "drugs": 3914,
      "disg": 3915,
      "phot": 3916,
      "apolog": 3917,
      "skill": 3918,
      "built": 3919,
      "intr": 3920,
      "reven": 3921,
      "programs": 3922,
      "contro": 3923,
      "##ification": 3924,
      "ba": 3925,
      "##ested": 3926,
      "guil": 3927,
      "##ma": 3928,
      "disp": 3929,
      "##bing": 3930,
      "##lear": 3931,
      "assume": 3932,
      "husband": 3933,
      "blind": 3934,
      "column": 3935,
      "isis": 3936,
      "disapp": 3937,
      "enforce": 3938,
      "ped": 3939,
      "vol": 3940,
      "avoid": 3941,
      "immedi": 3942,
      "basis": 3943,
      "putting": 3944,
      "popular": 3945,
      "misog": 3946,
      "14": 3947,
      "died": 3948,
      "##uced": 3949,
      "ideas": 3950,
      "rent": 3951,
      "##ners": 3952,
      "skin": 3953,
      "##ster": 3954,
      "##aming": 3955,
      "dut": 3956,
      "fellow": 3957,
      "palest": 3958,
      "##epend": 3959,
      "##let": 3960,
      "earn": 3961,
      "areas": 3962,
      "##ession": 3963,
      "manage": 3964,
      "supreme": 3965,
      "guilty": 3966,
      "##key": 3967,
      "17": 3968,
      "mc": 3969,
      "treated": 3970,
      "interpret": 3971,
      "ran": 3972,
      "##ift": 3973,
      "listen": 3974,
      "13": 3975,
      "corporate": 3976,
      "##pan": 3977,
      "purpose": 3978,
      "hop": 3979,
      "prior": 3980,
      "##nn": 3981,
      "latin": 3982,
      "hosp": 3983,
      "##lig": 3984,
      "led": 3985,
      "##ilities": 3986,
      "bunch": 3987,
      "divers": 3988,
      "supremacists": 3989,
      "independ": 3990,
      "##vert": 3991,
      "data": 3992,
      "putin": 3993,
      "appears": 3994,
      "mal": 3995,
      "##hold": 3996,
      "parties": 3997,
      "reasonable": 3998,
      "safety": 3999,
      "contract": 4000,
      "anc": 4001,
      "##aut": 4002,
      "##pir": 4003,
      "##others": 4004,
      "african": 4005,
      "articles": 4006,
      "##ii": 4007,
      "##know": 4008,
      "##inary": 4009,
      "resources": 4010,
      "commission": 4011,
      "standard": 4012,
      "entit": 4013,
      "veh": 4014,
      "send": 4015,
      "ens": 4016,
      "##ension": 4017,
      "dict": 4018,
      "slavery": 4019,
      "mand": 4020,
      "jun": 4021,
      "somehow": 4022,
      "welf": 4023,
      "letter": 4024,
      "fully": 4025,
      "recently": 4026,
      "fundamental": 4027,
      "educated": 4028,
      "daily": 4029,
      "phil": 4030,
      "illness": 4031,
      "players": 4032,
      "healthcare": 4033,
      "mentioned": 4034,
      "cust": 4035,
      "welfare": 4036,
      "supported": 4037,
      "promot": 4038,
      "matters": 4039,
      "easily": 4040,
      "prove": 4041,
      "host": 4042,
      "waste": 4043,
      "roman": 4044,
      "##uing": 4045,
      "altern": 4046,
      "integr": 4047,
      "addition": 4048,
      "supremacist": 4049,
      "virt": 4050,
      "##greg": 4051,
      "normal": 4052,
      "witness": 4053,
      "organization": 4054,
      "init": 4055,
      "##illy": 4056,
      "asian": 4057,
      "comb": 4058,
      "energy": 4059,
      "reported": 4060,
      "divor": 4061,
      "##ship": 4062,
      "##ode": 4063,
      "##ugg": 4064,
      "ability": 4065,
      "##ucture": 4066,
      "##ls": 4067,
      "mart": 4068,
      "decisions": 4069,
      "iran": 4070,
      "uk": 4071,
      "##outh": 4072,
      "evange": 4073,
      "brother": 4074,
      "secular": 4075,
      "teachers": 4076,
      "aware": 4077,
      "##nic": 4078,
      "ul": 4079,
      "driving": 4080,
      "chief": 4081,
      "ira": 4082,
      "cops": 4083,
      "conflic": 4084,
      "happening": 4085,
      "profit": 4086,
      "unlike": 4087,
      "constr": 4088,
      "execut": 4089,
      "indic": 4090,
      "anchorage": 4091,
      "korea": 4092,
      "instit": 4093,
      "identity": 4094,
      "ak": 4095,
      "enem": 4096,
      "liter": 4097,
      "gain": 4098,
      "admit": 4099,
      "raise": 4100,
      "clergy": 4101,
      "influence": 4102,
      "patri": 4103,
      "tra": 4104,
      "##ulations": 4105,
      "international": 4106,
      "eug": 4107,
      "alco": 4108,
      "acknow": 4109,
      "amendment": 4110,
      "shall": 4111,
      "prose": 4112,
      "baby": 4113,
      "beaut": 4114,
      "command": 4115,
      "alcoh": 4116,
      "site": 4117,
      "seeing": 4118,
      "senate": 4119,
      "proud": 4120,
      "saudi": 4121,
      "ideology": 4122,
      "vac": 4123,
      "##anda": 4124,
      "hurt": 4125,
      "bott": 4126,
      "##iced": 4127,
      "##uclear": 4128,
      "propag": 4129,
      "sides": 4130,
      "perpet": 4131,
      "##usion": 4132,
      "##umpt": 4133,
      "posts": 4134,
      "moment": 4135,
      "gays": 4136,
      "statements": 4137,
      "basic": 4138,
      "##ding": 4139,
      "citizen": 4140,
      "receive": 4141,
      "border": 4142,
      "goog": 4143,
      "hours": 4144,
      "##tw": 4145,
      "counter": 4146,
      "nazis": 4147,
      "caused": 4148,
      "logic": 4149,
      "##ocked": 4150,
      "##aft": 4151,
      "passed": 4152,
      "results": 4153,
      "nuclear": 4154,
      "select": 4155,
      "gives": 4156,
      "##amm": 4157,
      "door": 4158,
      "weapons": 4159,
      "60": 4160,
      "writing": 4161,
      "decided": 4162,
      "##ophobia": 4163,
      "space": 4164,
      "specific": 4165,
      "vehic": 4166,
      "je": 4167,
      "##iff": 4168,
      "standing": 4169,
      "fighting": 4170,
      "tv": 4171,
      "draw": 4172,
      "prices": 4173,
      "uns": 4174,
      "sens": 4175,
      "wild": 4176,
      "##anted": 4177,
      "interests": 4178,
      "##cise": 4179,
      "emot": 4180,
      "##ancy": 4181,
      "##itely": 4182,
      "##arian": 4183,
      "effort": 4184,
      "privilege": 4185,
      "##light": 4186,
      "##port": 4187,
      "##essed": 4188,
      "minim": 4189,
      "brown": 4190,
      "key": 4191,
      "communities": 4192,
      "appre": 4193,
      "err": 4194,
      "subsid": 4195,
      "iraq": 4196,
      "welcome": 4197,
      "eu": 4198,
      "paper": 4199,
      "teachings": 4200,
      "video": 4201,
      "green": 4202,
      "particularly": 4203,
      "syria": 4204,
      "tend": 4205,
      "significant": 4206,
      "five": 4207,
      "nut": 4208,
      "##lusion": 4209,
      "failure": 4210,
      "opinions": 4211,
      "traditional": 4212,
      "belong": 4213,
      "hundreds": 4214,
      "##bc": 4215,
      "gar": 4216,
      "##ays": 4217,
      "interested": 4218,
      "french": 4219,
      "investigation": 4220,
      "hier": 4221,
      "grad": 4222,
      "twe": 4223,
      "experi": 4224,
      "btw": 4225,
      "##erg": 4226,
      "dism": 4227,
      "ignorance": 4228,
      "ach": 4229,
      "negative": 4230,
      "mad": 4231,
      "growing": 4232,
      "mouth": 4233,
      "fan": 4234,
      "reve": 4235,
      "21": 4236,
      "mayor": 4237,
      "##anced": 4238,
      "worry": 4239,
      "decide": 4240,
      "cities": 4241,
      "religions": 4242,
      "knowing": 4243,
      "##ograph": 4244,
      "travel": 4245,
      "disgust": 4246,
      "##ground": 4247,
      "refuse": 4248,
      "fat": 4249,
      "##eth": 4250,
      "governments": 4251,
      "##ored": 4252,
      "accompl": 4253,
      "##raid": 4254,
      "positive": 4255,
      "apply": 4256,
      "review": 4257,
      "##ube": 4258,
      "conte": 4259,
      "humans": 4260,
      "mos": 4261,
      "deserve": 4262,
      "##yc": 4263,
      "reach": 4264,
      "##iful": 4265,
      "summ": 4266,
      "##iny": 4267,
      "career": 4268,
      "ren": 4269,
      "hero": 4270,
      "meth": 4271,
      "##ds": 4272,
      "dad": 4273,
      "afraid": 4274,
      "excell": 4275,
      "nearly": 4276,
      "feed": 4277,
      "cab": 4278,
      "##esh": 4279,
      "germany": 4280,
      "surprised": 4281,
      "jer": 4282,
      "apost": 4283,
      "##tm": 4284,
      "##kk": 4285,
      "racists": 4286,
      "degree": 4287,
      "##verse": 4288,
      "gold": 4289,
      "attend": 4290,
      "valid": 4291,
      "growth": 4292,
      "angry": 4293,
      "yout": 4294,
      "wearing": 4295,
      "alaskans": 4296,
      "student": 4297,
      "eyes": 4298,
      "appreci": 4299,
      "raised": 4300,
      "park": 4301,
      "credit": 4302,
      "diversity": 4303,
      "county": 4304,
      "##iers": 4305,
      "trib": 4306,
      "##uous": 4307,
      "##ann": 4308,
      "development": 4309,
      "meeting": 4310,
      "##ban": 4311,
      "keeping": 4312,
      "spiritual": 4313,
      "homes": 4314,
      "learned": 4315,
      "##icking": 4316,
      "criminals": 4317,
      "elim": 4318,
      "##aced": 4319,
      "opposed": 4320,
      "condemn": 4321,
      "##aling": 4322,
      "##erson": 4323,
      "greater": 4324,
      "##cript": 4325,
      "touch": 4326,
      "seek": 4327,
      "##ference": 4328,
      "2015": 4329,
      "harass": 4330,
      "damage": 4331,
      "##estic": 4332,
      "protection": 4333,
      "hasn": 4334,
      "currently": 4335,
      "related": 4336,
      "scand": 4337,
      "google": 4338,
      "bern": 4339,
      "##odox": 4340,
      "plus": 4341,
      "usual": 4342,
      "##urs": 4343,
      "document": 4344,
      "bigotry": 4345,
      "eugene": 4346,
      "##oser": 4347,
      "marg": 4348,
      "center": 4349,
      "rock": 4350,
      "plenty": 4351,
      "bias": 4352,
      "196": 4353,
      "squ": 4354,
      "##hib": 4355,
      "##acher": 4356,
      "legit": 4357,
      "okay": 4358,
      "mine": 4359,
      "vast": 4360,
      "joke": 4361,
      "picture": 4362,
      "abort": 4363,
      "##iring": 4364,
      "cate": 4365,
      "##omm": 4366,
      "assist": 4367,
      "excuse": 4368,
      "minorities": 4369,
      "context": 4370,
      "athe": 4371,
      "cash": 4372,
      "ndp": 4373,
      "notice": 4374,
      "various": 4375,
      "rational": 4376,
      "achie": 4377,
      "mich": 4378,
      "fast": 4379,
      "reb": 4380,
      "funds": 4381,
      "alcohol": 4382,
      "six": 4383,
      "htm": 4384,
      "ethnic": 4385,
      "##ha": 4386,
      "custom": 4387,
      "proven": 4388,
      "physical": 4389,
      "events": 4390,
      "retire": 4391,
      "shooting": 4392,
      "geor": 4393,
      "##iate": 4394,
      "cardinal": 4395,
      "gary": 4396,
      "fired": 4397,
      "possibly": 4398,
      "wer": 4399,
      "compar": 4400,
      "calls": 4401,
      "maintain": 4402,
      "taxpayers": 4403,
      "##uted": 4404,
      "caught": 4405,
      "bear": 4406,
      "chose": 4407,
      "##pective": 4408,
      "##gh": 4409,
      "anymore": 4410,
      "##bit": 4411,
      "seat": 4412,
      "quote": 4413,
      "doctrine": 4414,
      "cars": 4415,
      "theology": 4416,
      "##ester": 4417,
      "ali": 4418,
      "intent": 4419,
      "biggest": 4420,
      "sales": 4421,
      "wide": 4422,
      "##icide": 4423,
      "generation": 4424,
      "tit": 4425,
      "##istan": 4426,
      "intellect": 4427,
      "goal": 4428,
      "highly": 4429,
      "alber": 4430,
      "##ips": 4431,
      "##work": 4432,
      "officers": 4433,
      "topic": 4434,
      "publish": 4435,
      "##isters": 4436,
      "spread": 4437,
      "showing": 4438,
      "##iple": 4439,
      "candidates": 4440,
      "punish": 4441,
      "accur": 4442,
      "recall": 4443,
      "continues": 4444,
      "africa": 4445,
      "##ength": 4446,
      "prayer": 4447,
      "feminist": 4448,
      "strate": 4449,
      "moving": 4450,
      "received": 4451,
      "kkk": 4452,
      "propaganda": 4453,
      "broad": 4454,
      "increasing": 4455,
      "aud": 4456,
      "dream": 4457,
      "ang": 4458,
      "accus": 4459,
      "accused": 4460,
      "positions": 4461,
      "waiting": 4462,
      "eat": 4463,
      "##ulate": 4464,
      "weren": 4465,
      "24": 4466,
      "##icit": 4467,
      "governor": 4468,
      "##thood": 4469,
      "laugh": 4470,
      "tour": 4471,
      "model": 4472,
      "eye": 4473,
      "ken": 4474,
      "excellent": 4475,
      "compass": 4476,
      "department": 4477,
      "##alty": 4478,
      "allowing": 4479,
      "70": 4480,
      "orth": 4481,
      "consist": 4482,
      "amazing": 4483,
      "bother": 4484,
      "traff": 4485,
      "odd": 4486,
      "businesses": 4487,
      "90": 4488,
      "om": 4489,
      "mexico": 4490,
      "sanct": 4491,
      "deny": 4492,
      "199": 4493,
      "snow": 4494,
      "##uries": 4495,
      "##ape": 4496,
      "provided": 4497,
      "##ulated": 4498,
      "bes": 4499,
      "##rees": 4500,
      "tex": 4501,
      "du": 4502,
      "standards": 4503,
      "massive": 4504,
      "evangelical": 4505,
      "sentence": 4506,
      "successful": 4507,
      "missed": 4508,
      "cris": 4509,
      "##ki": 4510,
      "corruption": 4511,
      "pure": 4512,
      "starting": 4513,
      "directly": 4514,
      "ncr": 4515,
      "fort": 4516,
      "##onic": 4517,
      "visit": 4518,
      "resist": 4519,
      "european": 4520,
      "ahead": 4521,
      "nom": 4522,
      "lets": 4523,
      "budd": 4524,
      "recognize": 4525,
      "merely": 4526,
      "pap": 4527,
      "wed": 4528,
      "becoming": 4529,
      "sle": 4530,
      "apart": 4531,
      "##izations": 4532,
      "convin": 4533,
      "opposite": 4534,
      "leaving": 4535,
      "cow": 4536,
      "mort": 4537,
      "crazy": 4538,
      "planet": 4539,
      "double": 4540,
      "definitely": 4541,
      "orthodox": 4542,
      "##bed": 4543,
      "##ille": 4544,
      "honor": 4545,
      "##ceed": 4546,
      "adop": 4547,
      "watching": 4548,
      "opposition": 4549,
      "levels": 4550,
      "stopped": 4551,
      "irre": 4552,
      "comfort": 4553,
      "vanc": 4554,
      "hopefully": 4555,
      "##encies": 4556,
      "slow": 4557,
      "fly": 4558,
      "##char": 4559,
      "politically": 4560,
      "##ounts": 4561,
      "dav": 4562,
      "##ifying": 4563,
      "grab": 4564,
      "sun": 4565,
      "diss": 4566,
      "editor": 4567,
      "engine": 4568,
      "##he": 4569,
      "fbi": 4570,
      "kept": 4571,
      "consequences": 4572,
      "palestin": 4573,
      "believes": 4574,
      "vancou": 4575,
      "sadly": 4576,
      "##entially": 4577,
      "mail": 4578,
      "choices": 4579,
      "suffering": 4580,
      "armed": 4581,
      "wage": 4582,
      "##orse": 4583,
      "##isy": 4584,
      "posted": 4585,
      "improve": 4586,
      "crisis": 4587,
      "##iet": 4588,
      "##to": 4589,
      "anybody": 4590,
      "circum": 4591,
      "immediately": 4592,
      "reaction": 4593,
      "losing": 4594,
      "parts": 4595,
      "##ney": 4596,
      "vancouver": 4597,
      "##zz": 4598,
      "entr": 4599,
      "compared": 4600,
      "surely": 4601,
      "pf": 4602,
      "critical": 4603,
      "page": 4604,
      "##enous": 4605,
      "strugg": 4606,
      "80": 4607,
      "dark": 4608,
      "rise": 4609,
      "powerful": 4610,
      "displ": 4611,
      "expensive": 4612,
      "replace": 4613,
      "attract": 4614,
      "outrage": 4615,
      "season": 4616,
      "potential": 4617,
      "books": 4618,
      "bottom": 4619,
      "wars": 4620,
      "generally": 4621,
      "forgot": 4622,
      "dir": 4623,
      "unw": 4624,
      "fox": 4625,
      "terrible": 4626,
      "reporting": 4627,
      "beginning": 4628,
      "statist": 4629,
      "silly": 4630,
      "mid": 4631,
      "intelligence": 4632,
      "idiot": 4633,
      "attitude": 4634,
      "youtube": 4635,
      "ele": 4636,
      "helping": 4637,
      "continued": 4638,
      "limit": 4639,
      "##ictions": 4640,
      "hardly": 4641,
      "mistake": 4642,
      "burn": 4643,
      "exer": 4644,
      "sympath": 4645,
      "extremely": 4646,
      "frank": 4647,
      "included": 4648,
      "##mas": 4649,
      "legislature": 4650,
      "catholicism": 4651,
      "constitutional": 4652,
      "domestic": 4653,
      "##olf": 4654,
      "shown": 4655,
      "agreed": 4656,
      "##ama": 4657,
      "hispan": 4658,
      "removed": 4659,
      "anywhere": 4660,
      "##well": 4661,
      "changing": 4662,
      "voice": 4663,
      "crowd": 4664,
      "der": 4665,
      "rhet": 4666,
      "tough": 4667,
      "senator": 4668,
      "dollar": 4669,
      "indig": 4670,
      "doctor": 4671,
      "multiple": 4672,
      "500": 4673,
      "eventually": 4674,
      "conscience": 4675,
      "conversation": 4676,
      "plain": 4677,
      "##ague": 4678,
      "##lo": 4679,
      "##while": 4680,
      "limited": 4681,
      "trouble": 4682,
      "literally": 4683,
      "##ties": 4684,
      "officer": 4685,
      "purch": 4686,
      "perspective": 4687,
      "felt": 4688,
      "esc": 4689,
      "weeks": 4690,
      "extra": 4691,
      "rhetor": 4692,
      "track": 4693,
      "tells": 4694,
      "enforcement": 4695,
      "elections": 4696,
      "disci": 4697,
      "bs": 4698,
      "##ried": 4699,
      "##idency": 4700,
      "ready": 4701,
      "includes": 4702,
      "##book": 4703,
      "##iment": 4704,
      "ded": 4705,
      "pries": 4706,
      "##udes": 4707,
      "courts": 4708,
      "appropriate": 4709,
      "priesthood": 4710,
      "##erve": 4711,
      "studies": 4712,
      "entirely": 4713,
      "tom": 4714,
      "farm": 4715,
      "prime": 4716,
      "equally": 4717,
      "sources": 4718,
      "district": 4719,
      "wealthy": 4720,
      "interview": 4721,
      "bed": 4722,
      "##ifically": 4723,
      "coverage": 4724,
      "served": 4725,
      "##oles": 4726,
      "training": 4727,
      "revenue": 4728,
      "forces": 4729,
      "yours": 4730,
      "pan": 4731,
      "##ading": 4732,
      "fraud": 4733,
      "lob": 4734,
      "advant": 4735,
      "everybody": 4736,
      "cares": 4737,
      "hypocrisy": 4738,
      "missing": 4739,
      "streets": 4740,
      "compassion": 4741,
      "hang": 4742,
      "nfl": 4743,
      "search": 4744,
      "lic": 4745,
      "##verty": 4746,
      "professional": 4747,
      "cens": 4748,
      "acad": 4749,
      "poverty": 4750,
      "occup": 4751,
      "deli": 4752,
      "suffer": 4753,
      "vs": 4754,
      "cast": 4755,
      "dumb": 4756,
      "names": 4757,
      "quality": 4758,
      "##cer": 4759,
      "suppose": 4760,
      "looked": 4761,
      "typical": 4762,
      "worship": 4763,
      "teacher": 4764,
      "sector": 4765,
      "wonderful": 4766,
      "math": 4767,
      "stick": 4768,
      "tired": 4769,
      "saving": 4770,
      "heaven": 4771,
      "##oon": 4772,
      "join": 4773,
      "accepted": 4774,
      "embarr": 4775,
      "academ": 4776,
      "protected": 4777,
      "jump": 4778,
      "anth": 4779,
      "basically": 4780,
      "aid": 4781,
      "hall": 4782,
      "legislation": 4783,
      "indigenous": 4784,
      "bought": 4785,
      "swe": 4786,
      "historical": 4787,
      "moved": 4788,
      "behavi": 4789,
      "##bon": 4790,
      "clue": 4791,
      "british": 4792,
      "##lier": 4793,
      "cry": 4794,
      "autom": 4795,
      "pack": 4796,
      "stock": 4797,
      "internet": 4798,
      "##ously": 4799,
      "owned": 4800,
      "efforts": 4801,
      "argue": 4802,
      "##uctive": 4803,
      "committ": 4804,
      "helped": 4805,
      "officials": 4806,
      "aust": 4807,
      "rare": 4808,
      "neighborhood": 4809,
      "embarrass": 4810,
      "drunk": 4811,
      "negot": 4812,
      "hitler": 4813,
      "charged": 4814,
      "conflict": 4815,
      "asse": 4816,
      "sports": 4817,
      "##oked": 4818,
      "##iant": 4819,
      "presidential": 4820,
      "##ov": 4821,
      "##ole": 4822,
      "##ado": 4823,
      "expected": 4824,
      "cler": 4825,
      "surr": 4826,
      "ourselves": 4827,
      "holding": 4828,
      "attacked": 4829,
      "##aled": 4830,
      "club": 4831,
      "##ressed": 4832,
      "html": 4833,
      "selling": 4834,
      "scr": 4835,
      "constit": 4836,
      "litur": 4837,
      "defending": 4838,
      "consum": 4839,
      "sain": 4840,
      "doctors": 4841,
      "charges": 4842,
      "traffic": 4843,
      "kick": 4844,
      "incident": 4845,
      "gang": 4846,
      "plat": 4847,
      "intention": 4848,
      "residents": 4849,
      "japanese": 4850,
      "ult": 4851,
      "investment": 4852,
      "arabia": 4853,
      "repeated": 4854,
      "examples": 4855,
      "alternative": 4856,
      "mach": 4857,
      "neo": 4858,
      "reports": 4859,
      "football": 4860,
      "herself": 4861,
      "##ounded": 4862,
      "russians": 4863,
      "disgusting": 4864,
      "serving": 4865,
      "buying": 4866,
      "youth": 4867,
      "dress": 4868,
      "mercy": 4869,
      "blow": 4870,
      "relative": 4871,
      "desire": 4872,
      "remove": 4873,
      "island": 4874,
      "newsp": 4875,
      "heads": 4876,
      "effective": 4877,
      "scripture": 4878,
      "lock": 4879,
      "claiming": 4880,
      "percentage": 4881,
      "tim": 4882,
      "skills": 4883,
      "scandal": 4884,
      "george": 4885,
      "##aker": 4886,
      "played": 4887,
      "refused": 4888,
      "cheap": 4889,
      "incompet": 4890,
      "mir": 4891,
      "version": 4892,
      "beautiful": 4893,
      "##ocks": 4894,
      "persons": 4895,
      "supports": 4896,
      "core": 4897,
      "##ager": 4898,
      "slaves": 4899,
      "separate": 4900,
      "hide": 4901,
      "dogs": 4902,
      "##iveness": 4903,
      "##la": 4904,
      "background": 4905,
      "planned": 4906,
      "murdered": 4907,
      "becomes": 4908,
      "teen": 4909,
      "analys": 4910,
      "confirm": 4911,
      "##vey": 4912,
      "highest": 4913,
      "##wood": 4914,
      "##enn": 4915,
      "billions": 4916,
      "reduce": 4917,
      "symb": 4918,
      "fish": 4919,
      "considering": 4920,
      "vet": 4921,
      "myth": 4922,
      "offensive": 4923,
      "198": 4924,
      "cake": 4925,
      "presidency": 4926,
      "older": 4927,
      "denver": 4928,
      "increased": 4929,
      "conduct": 4930,
      "trial": 4931,
      "utter": 4932,
      "adults": 4933,
      "quickly": 4934,
      "mix": 4935,
      "hierarchy": 4936,
      "alberta": 4937,
      "ice": 4938,
      "##acare": 4939,
      "emp": 4940,
      "showed": 4941,
      "label": 4942,
      "executive": 4943,
      "mary": 4944,
      "##inc": 4945,
      "##atch": 4946,
      "##wards": 4947,
      "primary": 4948,
      "hospital": 4949,
      "mel": 4950,
      "quit": 4951,
      "##ucks": 4952,
      "insist": 4953,
      "throughout": 4954,
      "corporations": 4955,
      "fle": 4956,
      "voter": 4957,
      "sexually": 4958,
      "dele": 4959,
      "unb": 4960,
      "sexist": 4961,
      "dealing": 4962,
      "politician": 4963,
      "eg": 4964,
      "lands": 4965,
      "##iles": 4966,
      "aggress": 4967,
      "leading": 4968,
      "ny": 4969,
      "shop": 4970,
      "##here": 4971,
      "driver": 4972,
      "entitled": 4973,
      "22": 4974,
      "##itarian": 4975,
      "below": 4976,
      "sharia": 4977,
      "##ams": 4978,
      "suicide": 4979,
      "disres": 4980,
      "loved": 4981,
      "embr": 4982,
      "requires": 4983,
      "abus": 4984,
      "drink": 4985,
      "bomb": 4986,
      "disrespect": 4987,
      "##ights": 4988,
      "carbon": 4989,
      "foundation": 4990,
      "soul": 4991,
      "ni": 4992,
      "discover": 4993,
      "bag": 4994,
      "##uf": 4995,
      "specifically": 4996,
      "tick": 4997,
      "intended": 4998,
      "##aid": 4999,
      "##non": 5000,
      "##erous": 5001,
      "##imately": 5002,
      "##osen": 5003,
      "abortions": 5004,
      "##jud": 5005,
      "surprise": 5006,
      "dismiss": 5007,
      "jack": 5008,
      "##arant": 5009,
      "pros": 5010,
      "deport": 5011,
      "##vin": 5012,
      "loving": 5013,
      "agreement": 5014,
      "duty": 5015,
      "##ols": 5016,
      "dont": 5017,
      "obamacare": 5018,
      "minds": 5019,
      "management": 5020,
      "##ients": 5021,
      "likes": 5022,
      "attorn": 5023,
      "decent": 5024,
      "mission": 5025,
      "writer": 5026,
      "narrative": 5027,
      "hire": 5028,
      "##iped": 5029,
      "pull": 5030,
      "animals": 5031,
      "##iar": 5032,
      "trumps": 5033,
      "##ahah": 5034,
      "coal": 5035,
      "na": 5036,
      "webs": 5037,
      "##acept": 5038,
      "acceptable": 5039,
      "##ease": 5040,
      "contracept": 5041,
      "bringing": 5042,
      "criticism": 5043,
      "pipe": 5044,
      "##eel": 5045,
      "##oring": 5046,
      "independent": 5047,
      "##af": 5048,
      "liar": 5049,
      "acting": 5050,
      "thoughts": 5051,
      "complex": 5052,
      "faithful": 5053,
      "york": 5054,
      "##izes": 5055,
      "guarant": 5056,
      "owner": 5057,
      "engage": 5058,
      "circumst": 5059,
      "##50": 5060,
      "##aded": 5061,
      "blm": 5062,
      "spot": 5063,
      "##iled": 5064,
      "publicly": 5065,
      "morning": 5066,
      "communion": 5067,
      "##ushing": 5068,
      "##agan": 5069,
      "##ogue": 5070,
      "followed": 5071,
      "followers": 5072,
      "burke": 5073,
      "option": 5074,
      "conditions": 5075,
      "deaths": 5076,
      "197": 5077,
      "believed": 5078,
      "concerns": 5079,
      "##uary": 5080,
      "clar": 5081,
      "##ville": 5082,
      "incor": 5083,
      "plans": 5084,
      "mater": 5085,
      "identify": 5086,
      "##inating": 5087,
      "winning": 5088,
      "earlier": 5089,
      "orders": 5090,
      "gradu": 5091,
      "##ront": 5092,
      "##athers": 5093,
      "box": 5094,
      "types": 5095,
      "##ked": 5096,
      "perman": 5097,
      "infr": 5098,
      "section": 5099,
      "analysis": 5100,
      "exists": 5101,
      "prepar": 5102,
      "irrele": 5103,
      "theory": 5104,
      "##gment": 5105,
      "lawyers": 5106,
      "##umption": 5107,
      "aside": 5108,
      "##enders": 5109,
      "david": 5110,
      "somewhere": 5111,
      "mov": 5112,
      "hmm": 5113,
      "offered": 5114,
      "desper": 5115,
      "funded": 5116,
      "depend": 5117,
      "fought": 5118,
      "mcc": 5119,
      "##ables": 5120,
      "charl": 5121,
      "rome": 5122,
      "communic": 5123,
      "humanity": 5124,
      "bapt": 5125,
      "##icient": 5126,
      "##asion": 5127,
      "compr": 5128,
      "easier": 5129,
      "qualified": 5130,
      "calif": 5131,
      "estate": 5132,
      "organizations": 5133,
      "referring": 5134,
      "##anch": 5135,
      "causes": 5136,
      "settle": 5137,
      "empt": 5138,
      "imposs": 5139,
      "remains": 5140,
      "encourage": 5141,
      "games": 5142,
      "rig": 5143,
      "alive": 5144,
      "bigger": 5145,
      "constant": 5146,
      "dig": 5147,
      "##ented": 5148,
      "##ores": 5149,
      "pride": 5150,
      "protestant": 5151,
      "volun": 5152,
      "##asty": 5153,
      "##ago": 5154,
      "uh": 5155,
      "bath": 5156,
      "labor": 5157,
      "rout": 5158,
      "##ron": 5159,
      "##ums": 5160,
      "unp": 5161,
      "advantage": 5162,
      "greed": 5163,
      "trash": 5164,
      "promote": 5165,
      "pathetic": 5166,
      "hair": 5167,
      "females": 5168,
      "bankrupt": 5169,
      "online": 5170,
      "adn": 5171,
      "##airs": 5172,
      "roy": 5173,
      "##ici": 5174,
      "content": 5175,
      "##stream": 5176,
      "dish": 5177,
      "table": 5178,
      "##ique": 5179,
      "react": 5180,
      "justify": 5181,
      "relevant": 5182,
      "rhetoric": 5183,
      "##eless": 5184,
      "californ": 5185,
      "aspect": 5186,
      "dear": 5187,
      "applic": 5188,
      "practices": 5189,
      "broken": 5190,
      "ignored": 5191,
      "motiv": 5192,
      "##ached": 5193,
      "subm": 5194,
      "balance": 5195,
      "lawyer": 5196,
      "##men": 5197,
      "##adr": 5198,
      "upset": 5199,
      "besides": 5200,
      "gent": 5201,
      "image": 5202,
      "spin": 5203,
      "recomm": 5204,
      "horrible": 5205,
      "alleged": 5206,
      "bernie": 5207,
      "southern": 5208,
      "##gu": 5209,
      "##yr": 5210,
      "round": 5211,
      "sister": 5212,
      "vul": 5213,
      "canon": 5214,
      "##ocking": 5215,
      "oblig": 5216,
      "electoral": 5217,
      "arms": 5218,
      "hack": 5219,
      "##eration": 5220,
      "##istry": 5221,
      "##ustr": 5222,
      "##andon": 5223,
      "unre": 5224,
      "creating": 5225,
      "##orders": 5226,
      "elsewhere": 5227,
      "arrog": 5228,
      "purs": 5229,
      "method": 5230,
      "final": 5231,
      "guard": 5232,
      "regular": 5233,
      "protecting": 5234,
      "divorce": 5235,
      "lear": 5236,
      "impossible": 5237,
      "flu": 5238,
      "centuries": 5239,
      "taxpayer": 5240,
      "clerical": 5241,
      "##oler": 5242,
      "chic": 5243,
      "prohib": 5244,
      "##ray": 5245,
      "##den": 5246,
      "style": 5247,
      "legally": 5248,
      "solid": 5249,
      "prosecut": 5250,
      "uses": 5251,
      "contact": 5252,
      "courage": 5253,
      "capt": 5254,
      "##dden": 5255,
      "forever": 5256,
      "##iance": 5257,
      "twice": 5258,
      "instr": 5259,
      "fortun": 5260,
      "##ih": 5261,
      "sudden": 5262,
      "immigrant": 5263,
      "supremacy": 5264,
      "committee": 5265,
      "learning": 5266,
      "heter": 5267,
      "pfd": 5268,
      "bib": 5269,
      "##seless": 5270,
      "advice": 5271,
      "colorado": 5272,
      "sitting": 5273,
      "dece": 5274,
      "blue": 5275,
      "partis": 5276,
      "inher": 5277,
      "headline": 5278,
      "##ophobic": 5279,
      "challenge": 5280,
      "inside": 5281,
      "capable": 5282,
      "dioc": 5283,
      "garb": 5284,
      "##reh": 5285,
      "minutes": 5286,
      "ordained": 5287,
      "##ze": 5288,
      "france": 5289,
      "colon": 5290,
      "army": 5291,
      "intelligent": 5292,
      "institutions": 5293,
      "sund": 5294,
      "direction": 5295,
      "unions": 5296,
      "everywhere": 5297,
      "providing": 5298,
      "healthy": 5299,
      "firearm": 5300,
      "industr": 5301,
      "##mod": 5302,
      "wanting": 5303,
      "largest": 5304,
      "hearing": 5305,
      "soldiers": 5306,
      "scientific": 5307,
      "posting": 5308,
      "california": 5309,
      "lines": 5310,
      "##inger": 5311,
      "ended": 5312,
      "added": 5313,
      "divine": 5314,
      "technology": 5315,
      "cabin": 5316,
      "lau": 5317,
      "##oking": 5318,
      "##atically": 5319,
      "irrelevant": 5320,
      "minimum": 5321,
      "appreciate": 5322,
      "orient": 5323,
      "manner": 5324,
      "disorder": 5325,
      "bless": 5326,
      "##ufact": 5327,
      "eld": 5328,
      "##ms": 5329,
      "transl": 5330,
      "material": 5331,
      "perse": 5332,
      "troll": 5333,
      "manufact": 5334,
      "systems": 5335,
      "accurate": 5336,
      "infrastr": 5337,
      "bannon": 5338,
      "differences": 5339,
      "informed": 5340,
      "acknowledge": 5341,
      "##itable": 5342,
      "chosen": 5343,
      "resident": 5344,
      "conclusion": 5345,
      "cuts": 5346,
      "era": 5347,
      "fuel": 5348,
      "tact": 5349,
      "cold": 5350,
      "phone": 5351,
      "equival": 5352,
      "nu": 5353,
      "rat": 5354,
      "ug": 5355,
      "veter": 5356,
      "seeking": 5357,
      "feeling": 5358,
      "infrastructure": 5359,
      "somebody": 5360,
      "screw": 5361,
      "dump": 5362,
      "indian": 5363,
      "environmental": 5364,
      "handle": 5365,
      "##whel": 5366,
      "mainstream": 5367,
      "##uana": 5368,
      "amb": 5369,
      "conspir": 5370,
      "date": 5371,
      "vill": 5372,
      "##back": 5373,
      "marij": 5374,
      "##iday": 5375,
      "speaks": 5376,
      "feelings": 5377,
      "creation": 5378,
      "bod": 5379,
      "cam": 5380,
      "hind": 5381,
      "##off": 5382,
      "walking": 5383,
      "reference": 5384,
      "euchar": 5385,
      "propos": 5386,
      "dial": 5387,
      "pence": 5388,
      "disaster": 5389,
      "schol": 5390,
      "natives": 5391,
      "breath": 5392,
      "code": 5393,
      "via": 5394,
      "leftist": 5395,
      "alaskan": 5396,
      "central": 5397,
      "dim": 5398,
      "spl": 5399,
      "anger": 5400,
      "crap": 5401,
      "presence": 5402,
      "stands": 5403,
      "fant": 5404,
      "##outs": 5405,
      "active": 5406,
      "prejud": 5407,
      "wise": 5408,
      "closed": 5409,
      "strength": 5410,
      "catch": 5411,
      "retirement": 5412,
      "wake": 5413,
      "deliver": 5414,
      "sacrament": 5415,
      "jim": 5416,
      "##astic": 5417,
      "music": 5418,
      "pretend": 5419,
      "larger": 5420,
      "excl": 5421,
      "destruction": 5422,
      "marijuana": 5423,
      "abandon": 5424,
      "##ounce": 5425,
      "eastern": 5426,
      "designed": 5427,
      "##just": 5428,
      "feet": 5429,
      "began": 5430,
      "##ipping": 5431,
      "##ests": 5432,
      "blaming": 5433,
      "claimed": 5434,
      "activity": 5435,
      "##tery": 5436,
      "dems": 5437,
      "institutional": 5438,
      "khadr": 5439,
      "migr": 5440,
      "##ael": 5441,
      "appeal": 5442,
      "condition": 5443,
      "babies": 5444,
      "sir": 5445,
      "complic": 5446,
      "##tered": 5447,
      "filled": 5448,
      "##cription": 5449,
      "##itation": 5450,
      "comey": 5451,
      "##stood": 5452,
      "chap": 5453,
      "##town": 5454,
      "##ipped": 5455,
      "title": 5456,
      "kl": 5457,
      "intoler": 5458,
      "readers": 5459,
      "confused": 5460,
      "judges": 5461,
      "perfectly": 5462,
      "lu": 5463,
      "greatest": 5464,
      "shel": 5465,
      "ride": 5466,
      "overwhel": 5467,
      "root": 5468,
      "implement": 5469,
      "covered": 5470,
      "pock": 5471,
      "##aked": 5472,
      "##iable": 5473,
      "abused": 5474,
      "##aining": 5475,
      "resign": 5476,
      "accommod": 5477,
      "cel": 5478,
      "asia": 5479,
      "arguments": 5480,
      "enemy": 5481,
      "peoples": 5482,
      "consent": 5483,
      "advis": 5484,
      "misogyn": 5485,
      "rally": 5486,
      "frequ": 5487,
      "peter": 5488,
      "ladies": 5489,
      "size": 5490,
      "assert": 5491,
      "electric": 5492,
      "favour": 5493,
      "mut": 5494,
      "##ller": 5495,
      "comput": 5496,
      "strange": 5497,
      "warming": 5498,
      "##icks": 5499,
      "finding": 5500,
      "mike": 5501,
      "loy": 5502,
      "incred": 5503,
      "afgh": 5504,
      "##ucing": 5505,
      "oppose": 5506,
      "joe": 5507,
      "ordination": 5508,
      "keeps": 5509,
      "loud": 5510,
      "##dr": 5511,
      "##mp": 5512,
      "province": 5513,
      "##icial": 5514,
      "manip": 5515,
      "##ifice": 5516,
      "syn": 5517,
      "pointed": 5518,
      "turning": 5519,
      "##arter": 5520,
      "##acity": 5521,
      "##ders": 5522,
      "##iling": 5523,
      "##uded": 5524,
      "aca": 5525,
      "interpretation": 5526,
      "##onna": 5527,
      "promise": 5528,
      "largely": 5529,
      "##ched": 5530,
      "suggesting": 5531,
      "ya": 5532,
      "##owers": 5533,
      "supply": 5534,
      "contrary": 5535,
      "minded": 5536,
      "photo": 5537,
      "impl": 5538,
      "semit": 5539,
      "sanders": 5540,
      "editorial": 5541,
      "35": 5542,
      "cnn": 5543,
      "kim": 5544,
      "yester": 5545,
      "driven": 5546,
      "scream": 5547,
      "attacking": 5548,
      "wages": 5549,
      "##hh": 5550,
      "##rain": 5551,
      "employment": 5552,
      "doz": 5553,
      "measure": 5554,
      "yesterday": 5555,
      "named": 5556,
      "voc": 5557,
      "homosexuality": 5558,
      "vehicle": 5559,
      "revolution": 5560,
      "affordable": 5561,
      "circumstances": 5562,
      "coach": 5563,
      "store": 5564,
      "adul": 5565,
      "gather": 5566,
      "notion": 5567,
      "destroyed": 5568,
      "laity": 5569,
      "bound": 5570,
      "pregnant": 5571,
      "behaviour": 5572,
      "website": 5573,
      "##dy": 5574,
      "morality": 5575,
      "##eness": 5576,
      "ott": 5577,
      "##ss": 5578,
      "garbage": 5579,
      "leads": 5580,
      "allows": 5581,
      "divid": 5582,
      "achieve": 5583,
      "flat": 5584,
      "established": 5585,
      "##gregation": 5586,
      "threats": 5587,
      "susp": 5588,
      "austral": 5589,
      "defe": 5590,
      "islamophobia": 5591,
      "extremists": 5592,
      "battle": 5593,
      "philos": 5594,
      "afghan": 5595,
      "##20": 5596,
      "thom": 5597,
      "sole": 5598,
      "generations": 5599,
      "explo": 5600,
      "cancer": 5601,
      "hi": 5602,
      "##inct": 5603,
      "##ander": 5604,
      "sins": 5605,
      "slave": 5606,
      "##bish": 5607,
      "##enses": 5608,
      "roll": 5609,
      "arrested": 5610,
      "walker": 5611,
      "pc": 5612,
      "tort": 5613,
      "tiny": 5614,
      "reply": 5615,
      "communist": 5616,
      "confed": 5617,
      "banned": 5618,
      "legitimate": 5619,
      "ec": 5620,
      "recon": 5621,
      "june": 5622,
      "statistics": 5623,
      "empty": 5624,
      "cabinet": 5625,
      "entertain": 5626,
      "fathers": 5627,
      "23": 5628,
      "tear": 5629,
      "##usal": 5630,
      "block": 5631,
      "brothers": 5632,
      "profession": 5633,
      "feminists": 5634,
      "establishment": 5635,
      "published": 5636,
      "mob": 5637,
      "meanwhile": 5638,
      "listening": 5639,
      "origin": 5640,
      "sacrifice": 5641,
      "fascist": 5642,
      "ale": 5643,
      "weapon": 5644,
      "accomplish": 5645,
      "conven": 5646,
      "grace": 5647,
      "admitted": 5648,
      "facebook": 5649,
      "celib": 5650,
      "##cks": 5651,
      "##opath": 5652,
      "lied": 5653,
      "comparison": 5654,
      "sar": 5655,
      "twit": 5656,
      "##standing": 5657,
      "##ipedia": 5658,
      "chicago": 5659,
      "unem": 5660,
      "feels": 5661,
      "employee": 5662,
      "universities": 5663,
      "described": 5664,
      "##itudes": 5665,
      "pra": 5666,
      "jan": 5667,
      "societ": 5668,
      "fans": 5669,
      "describe": 5670,
      "cell": 5671,
      "##ino": 5672,
      "flo": 5673,
      "situations": 5674,
      "wikipedia": 5675,
      "##iders": 5676,
      "##illing": 5677,
      "cru": 5678,
      "pointing": 5679,
      "sett": 5680,
      "##orrow": 5681,
      "##fs": 5682,
      "##wide": 5683,
      "##isa": 5684,
      "blog": 5685,
      "expand": 5686,
      "##apped": 5687,
      "pedoph": 5688,
      "athlet": 5689,
      "perpetr": 5690,
      "permanent": 5691,
      "unemploy": 5692,
      "nasty": 5693,
      "unfair": 5694,
      "salv": 5695,
      "principles": 5696,
      "##cution": 5697,
      "india": 5698,
      "categ": 5699,
      "attorney": 5700,
      "rural": 5701,
      "saved": 5702,
      "presum": 5703,
      "introd": 5704,
      "display": 5705,
      "##mber": 5706,
      "##ky": 5707,
      "##yny": 5708,
      "drag": 5709,
      "smaller": 5710,
      "potus": 5711,
      "ensure": 5712,
      "conference": 5713,
      "commer": 5714,
      "viet": 5715,
      "cardinals": 5716,
      "credibility": 5717,
      "sunday": 5718,
      "james": 5719,
      "##aur": 5720,
      "curious": 5721,
      "promises": 5722,
      "animal": 5723,
      "tweet": 5724,
      "michael": 5725,
      "rub": 5726,
      "##ste": 5727,
      "flood": 5728,
      "sexuality": 5729,
      "peaceful": 5730,
      "jp": 5731,
      "liberty": 5732,
      "register": 5733,
      "charity": 5734,
      "speed": 5735,
      "heck": 5736,
      "strategy": 5737,
      "##qab": 5738,
      "##essions": 5739,
      "useful": 5740,
      "phr": 5741,
      "solve": 5742,
      "existence": 5743,
      "punishment": 5744,
      "pipeline": 5745,
      "##place": 5746,
      "cultures": 5747,
      "hawaiian": 5748,
      "##lers": 5749,
      "##omin": 5750,
      "contrad": 5751,
      "regime": 5752,
      "hateful": 5753,
      "teaches": 5754,
      "misogyny": 5755,
      "sleep": 5756,
      "##yl": 5757,
      "ash": 5758,
      "denied": 5759,
      "##orid": 5760,
      "##itors": 5761,
      "##idel": 5762,
      "downtown": 5763,
      "thousand": 5764,
      "necessarily": 5765,
      "philosoph": 5766,
      "300": 5767,
      "plant": 5768,
      "charter": 5769,
      "convicted": 5770,
      "release": 5771,
      "activities": 5772,
      "niqab": 5773,
      "dying": 5774,
      "rc": 5775,
      "noticed": 5776,
      "gotten": 5777,
      "mothers": 5778,
      "##hab": 5779,
      "socialist": 5780,
      "dirty": 5781,
      "##ater": 5782,
      "##otic": 5783,
      "##uls": 5784,
      "procl": 5785,
      "##ception": 5786,
      "drivers": 5787,
      "raped": 5788,
      "jeff": 5789,
      "comprom": 5790,
      "bure": 5791,
      "print": 5792,
      "outcome": 5793,
      "text": 5794,
      "expense": 5795,
      "irr": 5796,
      "##icated": 5797,
      "rejected": 5798,
      "platform": 5799,
      "bathroom": 5800,
      "sisters": 5801,
      "legislators": 5802,
      "existing": 5803,
      "texas": 5804,
      "promised": 5805,
      "superior": 5806,
      "associated": 5807,
      "integrity": 5808,
      "martin": 5809,
      "##ctr": 5810,
      "##ceived": 5811,
      "christmas": 5812,
      "signed": 5813,
      "##arth": 5814,
      "sexism": 5815,
      "universal": 5816,
      "developed": 5817,
      "delib": 5818,
      "lyn": 5819,
      "##ax": 5820,
      "##idge": 5821,
      "##urd": 5822,
      "supporter": 5823,
      "numerous": 5824,
      "raising": 5825,
      "newspaper": 5826,
      "borders": 5827,
      "broke": 5828,
      "spoke": 5829,
      "proposed": 5830,
      "latest": 5831,
      "protesters": 5832,
      "harassment": 5833,
      "exercise": 5834,
      "dishon": 5835,
      "din": 5836,
      "##wor": 5837,
      "disease": 5838,
      "overt": 5839,
      "ugly": 5840,
      "closer": 5841,
      "ignoring": 5842,
      "damn": 5843,
      "les": 5844,
      "ange": 5845,
      "factor": 5846,
      "signs": 5847,
      "function": 5848,
      "approval": 5849,
      "construction": 5850,
      "forcing": 5851,
      "production": 5852,
      "progressives": 5853,
      "conspiracy": 5854,
      "gee": 5855,
      "hr": 5856,
      "accident": 5857,
      "younger": 5858,
      "kingdom": 5859,
      "hoc": 5860,
      "max": 5861,
      "flaw": 5862,
      "genoc": 5863,
      "theolog": 5864,
      "scen": 5865,
      "honestly": 5866,
      "bureau": 5867,
      "narc": 5868,
      "pushing": 5869,
      "brand": 5870,
      "feminism": 5871,
      "expression": 5872,
      "##rep": 5873,
      "soft": 5874,
      "spring": 5875,
      "repr": 5876,
      "recover": 5877,
      "poorly": 5878,
      "imper": 5879,
      "essentially": 5880,
      "intellectual": 5881,
      "ber": 5882,
      "gonna": 5883,
      "##bling": 5884,
      "##inform": 5885,
      "##isf": 5886,
      "##gin": 5887,
      "impe": 5888,
      "letting": 5889,
      "substant": 5890,
      "thread": 5891,
      "##ulf": 5892,
      "coast": 5893,
      "instance": 5894,
      "##ught": 5895,
      "bills": 5896,
      "colour": 5897,
      "ethics": 5898,
      "pig": 5899,
      "##okes": 5900,
      "##bert": 5901,
      "firm": 5902,
      "projects": 5903,
      "partisan": 5904,
      "##ivity": 5905,
      "righte": 5906,
      "ends": 5907,
      "defined": 5908,
      "judgement": 5909,
      "survive": 5910,
      "vision": 5911,
      "##point": 5912,
      "unable": 5913,
      "sake": 5914,
      "reporter": 5915,
      "understood": 5916,
      "motion": 5917,
      "cree": 5918,
      "##auc": 5919,
      "citizenship": 5920,
      "eight": 5921,
      "fet": 5922,
      "pac": 5923,
      "##abled": 5924,
      "##idden": 5925,
      "biased": 5926,
      "cd": 5927,
      "nav": 5928,
      "threatened": 5929,
      "45": 5930,
      "##icious": 5931,
      "suit": 5932,
      "##ounced": 5933,
      "denial": 5934,
      "assuming": 5935,
      "gift": 5936,
      "ri": 5937,
      "##ae": 5938,
      "##mon": 5939,
      "##icing": 5940,
      "marry": 5941,
      "##ountain": 5942,
      "lucky": 5943,
      "eucharist": 5944,
      "wis": 5945,
      "##awa": 5946,
      "quiet": 5947,
      "busy": 5948,
      "lobby": 5949,
      "forb": 5950,
      "sust": 5951,
      "overwhelming": 5952,
      "2nd": 5953,
      "wyn": 5954,
      "##uting": 5955,
      "coff": 5956,
      "##rd": 5957,
      "grown": 5958,
      "forms": 5959,
      "dign": 5960,
      "ought": 5961,
      "##ifies": 5962,
      "cool": 5963,
      "pays": 5964,
      "disappoint": 5965,
      "biblical": 5966,
      "river": 5967,
      "illegally": 5968,
      "observ": 5969,
      "guilt": 5970,
      "houses": 5971,
      "penalty": 5972,
      "experienced": 5973,
      "faces": 5974,
      "controlled": 5975,
      "wood": 5976,
      "##nc": 5977,
      "puts": 5978,
      "fewer": 5979,
      "increases": 5980,
      "domin": 5981,
      "noted": 5982,
      "effects": 5983,
      "incorrect": 5984,
      "bare": 5985,
      "##itals": 5986,
      "disgr": 5987,
      "series": 5988,
      "ownership": 5989,
      "esp": 5990,
      "openly": 5991,
      "daughters": 5992,
      "polls": 5993,
      "silence": 5994,
      "dan": 5995,
      "##och": 5996,
      "smoke": 5997,
      "##ahu": 5998,
      "released": 5999,
      "righteous": 6000,
      "msm": 6001,
      "hired": 6002,
      "inqu": 6003,
      "suck": 6004,
      "grade": 6005,
      "sam": 6006,
      "judgment": 6007,
      "teams": 6008,
      "pressure": 6009,
      "determine": 6010,
      "connection": 6011,
      "protesting": 6012,
      "ordinary": 6013,
      "careful": 6014,
      "master": 6015,
      "##mb": 6016,
      "twist": 6017,
      "appointed": 6018,
      "disappear": 6019,
      "afghanistan": 6020,
      "tun": 6021,
      "##iety": 6022,
      "scre": 6023,
      "homosexuals": 6024,
      "objective": 6025,
      "##oom": 6026,
      "trip": 6027,
      "advert": 6028,
      "beings": 6029,
      "constantly": 6030,
      "expert": 6031,
      "##ashed": 6032,
      "properly": 6033,
      "28": 6034,
      "planning": 6035,
      "breaking": 6036,
      "association": 6037,
      "anthem": 6038,
      "pill": 6039,
      "blat": 6040,
      "demands": 6041,
      "elite": 6042,
      "antif": 6043,
      "affirm": 6044,
      "stage": 6045,
      "acqu": 6046,
      "oppon": 6047,
      "popes": 6048,
      "##lin": 6049,
      "parli": 6050,
      "slight": 6051,
      "2014": 6052,
      "watched": 6053,
      "##asy": 6054,
      "fees": 6055,
      "minute": 6056,
      "worthy": 6057,
      "roads": 6058,
      "prepared": 6059,
      "99": 6060,
      "ven": 6061,
      "shr": 6062,
      "starts": 6063,
      "accountable": 6064,
      "fisc": 6065,
      "onto": 6066,
      "till": 6067,
      "turns": 6068,
      "exclus": 6069,
      "lisa": 6070,
      "##rel": 6071,
      "##ains": 6072,
      "loves": 6073,
      "confront": 6074,
      "harder": 6075,
      "parliament": 6076,
      "##eds": 6077,
      "sees": 6078,
      "posters": 6079,
      "profits": 6080,
      "produce": 6081,
      "emotional": 6082,
      "error": 6083,
      "exception": 6084,
      "prayers": 6085,
      "ancest": 6086,
      "twitter": 6087,
      "##yan": 6088,
      "palestinians": 6089,
      "movie": 6090,
      "dude": 6091,
      "rein": 6092,
      "throwing": 6093,
      "agencies": 6094,
      "decade": 6095,
      "pension": 6096,
      "precise": 6097,
      "answers": 6098,
      "wedding": 6099,
      "##stein": 6100,
      "jose": 6101,
      "useless": 6102,
      "marx": 6103,
      "region": 6104,
      "failing": 6105,
      "lifet": 6106,
      "hispanic": 6107,
      "depl": 6108,
      "sea": 6109,
      "##iev": 6110,
      "poster": 6111,
      "gut": 6112,
      "##nes": 6113,
      "chair": 6114,
      "repeat": 6115,
      "iv": 6116,
      "##arks": 6117,
      "compare": 6118,
      "dogma": 6119,
      "hoping": 6120,
      "##bar": 6121,
      "##ka": 6122,
      "brut": 6123,
      "info": 6124,
      "troops": 6125,
      "merit": 6126,
      "deeply": 6127,
      "accusations": 6128,
      "trail": 6129,
      "spons": 6130,
      "compreh": 6131,
      "exposed": 6132,
      "arabs": 6133,
      "tolerance": 6134,
      "sites": 6135,
      "allies": 6136,
      "##cient": 6137,
      "badly": 6138,
      "reduced": 6139,
      "predict": 6140,
      "stere": 6141,
      "setting": 6142,
      "advocate": 6143,
      "rand": 6144,
      "infer": 6145,
      "##uma": 6146,
      "##unt": 6147,
      "restaur": 6148,
      "cbc": 6149,
      "cauc": 6150,
      "offended": 6151,
      "matth": 6152,
      "banks": 6153,
      "professor": 6154,
      "details": 6155,
      "liturgy": 6156,
      "eh": 6157,
      "##inity": 6158,
      "preach": 6159,
      "protests": 6160,
      "involve": 6161,
      "ble": 6162,
      "boss": 6163,
      "item": 6164,
      "richard": 6165,
      "additional": 6166,
      "contraception": 6167,
      "vietn": 6168,
      "concl": 6169,
      "regards": 6170,
      "focused": 6171,
      "pregnancy": 6172,
      "enemies": 6173,
      "crum": 6174,
      "remark": 6175,
      "deficit": 6176,
      "##resp": 6177,
      "bodies": 6178,
      "stuck": 6179,
      "##ancing": 6180,
      "passing": 6181,
      "cyc": 6182,
      "##porary": 6183,
      "severe": 6184,
      "grew": 6185,
      "##ec": 6186,
      "provides": 6187,
      "advance": 6188,
      "narciss": 6189,
      "matthew": 6190,
      "forum": 6191,
      "attempting": 6192,
      "recommend": 6193,
      "hockey": 6194,
      "documents": 6195,
      "products": 6196,
      "nk": 6197,
      "##hen": 6198,
      "managed": 6199,
      "##oster": 6200,
      "ministry": 6201,
      "classes": 6202,
      "summer": 6203,
      "repeatedly": 6204,
      "bond": 6205,
      "range": 6206,
      "##aire": 6207,
      "forth": 6208,
      "lifest": 6209,
      "naive": 6210,
      "accounts": 6211,
      "differently": 6212,
      "stereot": 6213,
      "27": 6214,
      "bow": 6215,
      "lane": 6216,
      "##ius": 6217,
      "exch": 6218,
      "causing": 6219,
      "picked": 6220,
      "participate": 6221,
      "comfortable": 6222,
      "bub": 6223,
      "deflect": 6224,
      "seemed": 6225,
      "neighbors": 6226,
      "earned": 6227,
      "##aces": 6228,
      "congr": 6229,
      "approved": 6230,
      "represents": 6231,
      "deserves": 6232,
      "mac": 6233,
      "##ias": 6234,
      "thug": 6235,
      "absurd": 6236,
      "cutting": 6237,
      "combat": 6238,
      "wynne": 6239,
      "email": 6240,
      "virtually": 6241,
      "mortg": 6242,
      "thomas": 6243,
      "kinds": 6244,
      "sheep": 6245,
      "compens": 6246,
      "refugee": 6247,
      "ss": 6248,
      "records": 6249,
      "wiki": 6250,
      "##ule": 6251,
      "cloth": 6252,
      "drinking": 6253,
      "satisf": 6254,
      "truck": 6255,
      "implic": 6256,
      "overall": 6257,
      "insane": 6258,
      "##riend": 6259,
      "neighbour": 6260,
      "suddenly": 6261,
      "cas": 6262,
      "wives": 6263,
      "tele": 6264,
      "believing": 6265,
      "decline": 6266,
      "match": 6267,
      "transport": 6268,
      "possibility": 6269,
      "deac": 6270,
      "pastor": 6271,
      "##nel": 6272,
      "##ung": 6273,
      "clown": 6274,
      "offense": 6275,
      "explan": 6276,
      "applied": 6277,
      "chem": 6278,
      "volunte": 6279,
      "mic": 6280,
      "reagan": 6281,
      "##ivil": 6282,
      "urban": 6283,
      "entry": 6284,
      "nope": 6285,
      "##othing": 6286,
      "sky": 6287,
      "heavy": 6288,
      "dictators": 6289,
      "cod": 6290,
      "compl": 6291,
      "crack": 6292,
      "intim": 6293,
      "span": 6294,
      "bully": 6295,
      "morally": 6296,
      "leaves": 6297,
      "promoting": 6298,
      "bened": 6299,
      "cart": 6300,
      "##encing": 6301,
      "succeed": 6302,
      "mol": 6303,
      "##ris": 6304,
      "gree": 6305,
      "cha": 6306,
      "ship": 6307,
      "determined": 6308,
      "emph": 6309,
      "testament": 6310,
      "scary": 6311,
      "##onym": 6312,
      "coop": 6313,
      "freedoms": 6314,
      "sacred": 6315,
      "limits": 6316,
      "##owski": 6317,
      "occurred": 6318,
      "license": 6319,
      "dishonest": 6320,
      "sending": 6321,
      "##ef": 6322,
      "##aments": 6323,
      "league": 6324,
      "runs": 6325,
      "director": 6326,
      "addressed": 6327,
      "ultimately": 6328,
      "aim": 6329,
      "hiring": 6330,
      "mountain": 6331,
      "demograph": 6332,
      "mont": 6333,
      "nationalist": 6334,
      "genocide": 6335,
      "##head": 6336,
      "cleric": 6337,
      "fairly": 6338,
      "deplor": 6339,
      "##orough": 6340,
      "##owed": 6341,
      "virgin": 6342,
      "dropped": 6343,
      "parenthood": 6344,
      "eliminate": 6345,
      "fash": 6346,
      "counsel": 6347,
      "nowhere": 6348,
      "denying": 6349,
      "buildings": 6350,
      "trained": 6351,
      "multi": 6352,
      "##ihad": 6353,
      "agency": 6354,
      "sport": 6355,
      "latter": 6356,
      "magister": 6357,
      "demanding": 6358,
      "scientists": 6359,
      "##under": 6360,
      "computer": 6361,
      "los": 6362,
      "warm": 6363,
      "uncivil": 6364,
      "idiots": 6365,
      "assad": 6366,
      "helps": 6367,
      "substance": 6368,
      "00": 6369,
      "prost": 6370,
      "presented": 6371,
      "heterosexual": 6372,
      "ital": 6373,
      "shared": 6374,
      "allah": 6375,
      "kelly": 6376,
      "senior": 6377,
      "attempts": 6378,
      "provincial": 6379,
      "os": 6380,
      "obtain": 6381,
      "structure": 6382,
      "assess": 6383,
      "illegals": 6384,
      "atheist": 6385,
      "bureaucr": 6386,
      "sessions": 6387,
      "presidents": 6388,
      "define": 6389,
      "regulations": 6390,
      "discour": 6391,
      "benedict": 6392,
      "dare": 6393,
      "jihad": 6394,
      "wo": 6395,
      "gross": 6396,
      "israeli": 6397,
      "faced": 6398,
      "##going": 6399,
      "acknowled": 6400,
      "##iat": 6401,
      "##bl": 6402,
      "##ns": 6403,
      "elder": 6404,
      "exempt": 6405,
      "receiving": 6406,
      "relationships": 6407,
      "vehicles": 6408,
      "reprod": 6409,
      "covering": 6410,
      "complaining": 6411,
      "mexicans": 6412,
      "adopt": 6413,
      "warning": 6414,
      "capacity": 6415,
      "familiar": 6416,
      "initi": 6417,
      "frankly": 6418,
      "ottawa": 6419,
      "##icip": 6420,
      "##illion": 6421,
      "lesson": 6422,
      "radio": 6423,
      "contribute": 6424,
      "silent": 6425,
      "vulner": 6426,
      "fashion": 6427,
      "tens": 6428,
      "secretary": 6429,
      "cub": 6430,
      "hence": 6431,
      "seven": 6432,
      "continuing": 6433,
      "salary": 6434,
      "foolish": 6435,
      "##coming": 6436,
      "##ett": 6437,
      "weight": 6438,
      "parag": 6439,
      "##ailed": 6440,
      "slaught": 6441,
      "retired": 6442,
      "destroying": 6443,
      "ukrain": 6444,
      "worried": 6445,
      "options": 6446,
      "mexican": 6447,
      "strict": 6448,
      "miles": 6449,
      "placed": 6450,
      "incompetent": 6451,
      "scholars": 6452,
      "##ws": 6453,
      "##orate": 6454,
      "bell": 6455,
      "##acle": 6456,
      "partner": 6457,
      "##gypt": 6458,
      "recognized": 6459,
      "mirr": 6460,
      "##uits": 6461,
      "##aning": 6462,
      "enlight": 6463,
      "sav": 6464,
      "arrest": 6465,
      "logical": 6466,
      "consistent": 6467,
      "egypt": 6468,
      "##ternal": 6469,
      "carrying": 6470,
      "revel": 6471,
      "emerg": 6472,
      "advent": 6473,
      "performance": 6474,
      "hij": 6475,
      "##ounding": 6476,
      "194": 6477,
      "swamp": 6478,
      "species": 6479,
      "steal": 6480,
      "authorities": 6481,
      "wisdom": 6482,
      "antifa": 6483,
      "##abb": 6484,
      "parking": 6485,
      "depends": 6486,
      "extremist": 6487,
      "principle": 6488,
      "yep": 6489,
      "##uther": 6490,
      "draft": 6491,
      "immoral": 6492,
      "huh": 6493,
      "employer": 6494,
      "writers": 6495,
      "26": 6496,
      "granted": 6497,
      "thrown": 6498,
      "holly": 6499,
      "injust": 6500,
      "lifetime": 6501,
      "rating": 6502,
      "orange": 6503,
      "##ques": 6504,
      "races": 6505,
      "charles": 6506,
      "ruling": 6507,
      "ske": 6508,
      "wash": 6509,
      "emails": 6510,
      "annual": 6511,
      "apologize": 6512,
      "phrase": 6513,
      "baker": 6514,
      "##inent": 6515,
      "##plom": 6516,
      "archbish": 6517,
      "recru": 6518,
      "extent": 6519,
      "2000": 6520,
      "facing": 6521,
      "opportunities": 6522,
      "mistakes": 6523,
      "discipl": 6524,
      "hug": 6525,
      "##aken": 6526,
      "player": 6527,
      "surprising": 6528,
      "declared": 6529,
      "syrian": 6530,
      "applies": 6531,
      "snowfl": 6532,
      "purchase": 6533,
      "aug": 6534,
      "sharing": 6535,
      "couples": 6536,
      "insp": 6537,
      "physically": 6538,
      "bigoted": 6539,
      "attrib": 6540,
      "ben": 6541,
      "stood": 6542,
      "sinc": 6543,
      "portland": 6544,
      "bon": 6545,
      "golf": 6546,
      "stal": 6547,
      "resol": 6548,
      "irish": 6549,
      "lgbtq": 6550,
      "sincere": 6551,
      "hiding": 6552,
      "mun": 6553,
      "##itz": 6554,
      "uncon": 6555,
      "spoken": 6556,
      "talked": 6557,
      "alien": 6558,
      "bob": 6559,
      "scot": 6560,
      "talks": 6561,
      "suggests": 6562,
      "replaced": 6563,
      "apostles": 6564,
      "theological": 6565,
      "##urally": 6566,
      "bron": 6567,
      "convention": 6568,
      "distur": 6569,
      "proclaim": 6570,
      "une": 6571,
      "saint": 6572,
      "salvation": 6573,
      "precisely": 6574,
      "gard": 6575,
      "pand": 6576,
      "burning": 6577,
      "diplom": 6578,
      "dialogue": 6579,
      "fiscal": 6580,
      "luther": 6581,
      "traged": 6582,
      "solutions": 6583,
      "referred": 6584,
      "assistance": 6585,
      "nun": 6586,
      "##orig": 6587,
      "evident": 6588,
      "##icts": 6589,
      "ending": 6590,
      "stats": 6591,
      "##ker": 6592,
      "tow": 6593,
      "falling": 6594,
      "deals": 6595,
      "meat": 6596,
      "straw": 6597,
      "founded": 6598,
      "accepting": 6599,
      "journalism": 6600,
      "lesb": 6601,
      "fif": 6602,
      "lazy": 6603,
      "##erved": 6604,
      "##ality": 6605,
      "##itage": 6606,
      "brings": 6607,
      "believers": 6608,
      "worker": 6609,
      "statues": 6610,
      "threatening": 6611,
      "ticket": 6612,
      "band": 6613,
      "##erry": 6614,
      "##ulu": 6615,
      "directed": 6616,
      "senators": 6617,
      "controvers": 6618,
      "1st": 6619,
      "element": 6620,
      "##ston": 6621,
      "evol": 6622,
      "##cious": 6623,
      "powers": 6624,
      "##esis": 6625,
      "asians": 6626,
      "##akers": 6627,
      "reminds": 6628,
      "##mo": 6629,
      "##gan": 6630,
      "##che": 6631,
      "delus": 6632,
      "proceed": 6633,
      "brag": 6634,
      "popul": 6635,
      "##what": 6636,
      "strongly": 6637,
      "celebrate": 6638,
      "##esville": 6639,
      "kevin": 6640,
      "tool": 6641,
      "wins": 6642,
      "emphas": 6643,
      "dest": 6644,
      "##law": 6645,
      "##post": 6646,
      "##osure": 6647,
      "reput": 6648,
      "##issions": 6649,
      "##ashing": 6650,
      "representative": 6651,
      "condemned": 6652,
      "dignity": 6653,
      "lifestyle": 6654,
      "##field": 6655,
      "##uine": 6656,
      "aborig": 6657,
      "clin": 6658,
      "clothing": 6659,
      "division": 6660,
      "organized": 6661,
      "academic": 6662,
      "orientation": 6663,
      "stri": 6664,
      "meetings": 6665,
      "distrib": 6666,
      "pushed": 6667,
      "mosque": 6668,
      "hollywood": 6669,
      "3rd": 6670,
      "picking": 6671,
      "murders": 6672,
      "sb": 6673,
      "heritage": 6674,
      "##lessly": 6675,
      "nationalists": 6676,
      "camps": 6677,
      "coward": 6678,
      "##bart": 6679,
      "champ": 6680,
      "##thy": 6681,
      "buff": 6682,
      "disgrace": 6683,
      "dnc": 6684,
      "pil": 6685,
      "habit": 6686,
      "trick": 6687,
      "sover": 6688,
      "somewhat": 6689,
      "evolution": 6690,
      "essential": 6691,
      "ancient": 6692,
      "excess": 6693,
      "revealed": 6694,
      "hal": 6695,
      "##ham": 6696,
      "##face": 6697,
      "##pper": 6698,
      "boom": 6699,
      "hole": 6700,
      "pleas": 6701,
      "steve": 6702,
      "firearms": 6703,
      "paragraph": 6704,
      "##ania": 6705,
      "stating": 6706,
      "scale": 6707,
      "stupidity": 6708,
      "entering": 6709,
      "##eer": 6710,
      "##do": 6711,
      "toxic": 6712,
      "remarks": 6713,
      "genuine": 6714,
      "2013": 6715,
      "loose": 6716,
      "fell": 6717,
      "refusing": 6718,
      "identified": 6719,
      "rough": 6720,
      "retr": 6721,
      "strike": 6722,
      "charlott": 6723,
      "roles": 6724,
      "van": 6725,
      "chick": 6726,
      "seats": 6727,
      "offering": 6728,
      "fails": 6729,
      "hearts": 6730,
      "walked": 6731,
      "expressed": 6732,
      "##ho": 6733,
      "##ya": 6734,
      "##ica": 6735,
      "thats": 6736,
      "impose": 6737,
      "smell": 6738,
      "affairs": 6739,
      "shooter": 6740,
      "sovereign": 6741,
      "ain": 6742,
      "unity": 6743,
      "unique": 6744,
      "burden": 6745,
      "medicine": 6746,
      "fundamentalist": 6747,
      "negoti": 6748,
      "airl": 6749,
      "bay": 6750,
      "empath": 6751,
      "corner": 6752,
      "virtue": 6753,
      "joy": 6754,
      "irony": 6755,
      "experts": 6756,
      "victory": 6757,
      "murk": 6758,
      "assaulted": 6759,
      "criticize": 6760,
      "renew": 6761,
      "australia": 6762,
      "joseph": 6763,
      "mandate": 6764,
      "##lu": 6765,
      "embrace": 6766,
      "ju": 6767,
      "consult": 6768,
      "employers": 6769,
      "supposedly": 6770,
      "medicare": 6771,
      "horse": 6772,
      "##itical": 6773,
      "flight": 6774,
      "legacy": 6775,
      "request": 6776,
      "evangelicals": 6777,
      "struggle": 6778,
      "charlottesville": 6779,
      "cite": 6780,
      "lou": 6781,
      "trig": 6782,
      "figures": 6783,
      "film": 6784,
      "hyper": 6785,
      "square": 6786,
      "aggressive": 6787,
      "vulnerable": 6788,
      "oce": 6789,
      "##ses": 6790,
      "avo": 6791,
      "temper": 6792,
      "sympathy": 6793,
      "##ba": 6794,
      "##bel": 6795,
      "##rant": 6796,
      "##entr": 6797,
      "deem": 6798,
      "##agn": 6799,
      "ram": 6800,
      "##ids": 6801,
      "bright": 6802,
      "oppression": 6803,
      "correctly": 6804,
      "awful": 6805,
      "competition": 6806,
      "requirement": 6807,
      "##anny": 6808,
      "web": 6809,
      "moderate": 6810,
      "##time": 6811,
      "##alling": 6812,
      "##soever": 6813,
      "scar": 6814,
      "dividend": 6815,
      "rot": 6816,
      "##oul": 6817,
      "proced": 6818,
      "univer": 6819,
      "hospitals": 6820,
      "archbishop": 6821,
      "sight": 6822,
      "weather": 6823,
      "grave": 6824,
      "assumption": 6825,
      "wondering": 6826,
      "medicaid": 6827,
      "rarely": 6828,
      "scenar": 6829,
      "jur": 6830,
      "sarc": 6831,
      "choosing": 6832,
      "stem": 6833,
      "whenever": 6834,
      "cruel": 6835,
      "winter": 6836,
      "estim": 6837,
      "150": 6838,
      "korean": 6839,
      "equivalent": 6840,
      "ego": 6841,
      "##eing": 6842,
      "##alu": 6843,
      "boat": 6844,
      "bike": 6845,
      "song": 6846,
      "cant": 6847,
      "frustr": 6848,
      "partners": 6849,
      "sacraments": 6850,
      "constitu": 6851,
      "prosper": 6852,
      "75": 6853,
      "bog": 6854,
      "eating": 6855,
      "file": 6856,
      "ton": 6857,
      "##onald": 6858,
      "writes": 6859,
      "robert": 6860,
      "economics": 6861,
      "primarily": 6862,
      "conscious": 6863,
      "pd": 6864,
      "wave": 6865,
      "xen": 6866,
      "##side": 6867,
      "weird": 6868,
      "friday": 6869,
      "##orted": 6870,
      "willi": 6871,
      "knee": 6872,
      "relatively": 6873,
      "##ries": 6874,
      "perceived": 6875,
      "territ": 6876,
      "campus": 6877,
      "friendly": 6878,
      "desperate": 6879,
      "explanation": 6880,
      "##owing": 6881,
      "ages": 6882,
      "##agers": 6883,
      "traitor": 6884,
      "catech": 6885,
      "buck": 6886,
      "loser": 6887,
      "##11": 6888,
      "##vi": 6889,
      "goods": 6890,
      "irrational": 6891,
      "murkowski": 6892,
      "gh": 6893,
      "qur": 6894,
      "tree": 6895,
      "##asm": 6896,
      "attitudes": 6897,
      "regularly": 6898,
      "kidding": 6899,
      "socialism": 6900,
      "vietnam": 6901,
      "sale": 6902,
      "unne": 6903,
      "grant": 6904,
      "##igned": 6905,
      "attended": 6906,
      "sinful": 6907,
      "mainland": 6908,
      "pulled": 6909,
      "##gs": 6910,
      "liked": 6911,
      "goodness": 6912,
      "##ressive": 6913,
      "transpar": 6914,
      "apology": 6915,
      "earning": 6916,
      "industrial": 6917,
      "prejudice": 6918,
      "whatsoever": 6919,
      "bigots": 6920,
      "conclus": 6921,
      "suggested": 6922,
      "capitalism": 6923,
      "400": 6924,
      "ongoing": 6925,
      "wein": 6926,
      "shout": 6927,
      "##ils": 6928,
      "infall": 6929,
      "patients": 6930,
      "weekend": 6931,
      "haters": 6932,
      "satan": 6933,
      "empire": 6934,
      "camer": 6935,
      "task": 6936,
      "ther": 6937,
      "##oning": 6938,
      "##cip": 6939,
      "handed": 6940,
      "opening": 6941,
      "correctness": 6942,
      "##appropri": 6943,
      "balanced": 6944,
      "marginal": 6945,
      "symbol": 6946,
      "universe": 6947,
      "##atures": 6948,
      "##ada": 6949,
      "contem": 6950,
      "educate": 6951,
      "divide": 6952,
      "markets": 6953,
      "doug": 6954,
      "il": 6955,
      "##eria": 6956,
      "whining": 6957,
      "stone": 6958,
      "gotta": 6959,
      "discriminate": 6960,
      "forgotten": 6961,
      "reward": 6962,
      "shir": 6963,
      "proves": 6964,
      "blessed": 6965,
      "simpl": 6966,
      "civility": 6967,
      "govt": 6968,
      "##da": 6969,
      "factors": 6970,
      "iron": 6971,
      "repeal": 6972,
      "fixed": 6973,
      "tragedy": 6974,
      "##house": 6975,
      "##real": 6976,
      "cheaper": 6977,
      "concerning": 6978,
      "diverse": 6979,
      "unfortunate": 6980,
      "allegations": 6981,
      "##acing": 6982,
      "branch": 6983,
      "stephen": 6984,
      "hotel": 6985,
      "nyt": 6986,
      "societies": 6987,
      "##iest": 6988,
      "bears": 6989,
      "##ulating": 6990,
      "##aste": 6991,
      "##asters": 6992,
      "cro": 6993,
      "crying": 6994,
      "activists": 6995,
      "affected": 6996,
      "palestinian": 6997,
      "cup": 6998,
      "dub": 6999,
      "overse": 7000,
      "struct": 7001,
      "plays": 7002,
      "breit": 7003,
      "veterans": 7004,
      "sarah": 7005,
      "exchange": 7006,
      "##ycl": 7007,
      "justified": 7008,
      "kneel": 7009,
      "imo": 7010,
      "payer": 7011,
      "inclus": 7012,
      "existed": 7013,
      "northern": 7014,
      "heavily": 7015,
      "machine": 7016,
      "neut": 7017,
      "load": 7018,
      "underm": 7019,
      "violation": 7020,
      "gospels": 7021,
      "encouraged": 7022,
      "britain": 7023,
      "diocese": 7024,
      "ow": 7025,
      "pak": 7026,
      "##ume": 7027,
      "donations": 7028,
      "mas": 7029,
      "portion": 7030,
      "cance": 7031,
      "smoking": 7032,
      "proportion": 7033,
      "memory": 7034,
      "credits": 7035,
      "bullying": 7036,
      "experiences": 7037,
      "fulf": 7038,
      "##ipe": 7039,
      "beating": 7040,
      "disabled": 7041,
      "cannab": 7042,
      "accountability": 7043,
      "targeted": 7044,
      "separation": 7045,
      "narrow": 7046,
      "junior": 7047,
      "sanctuary": 7048,
      "philosophy": 7049,
      "breitbart": 7050,
      "29": 7051,
      "finger": 7052,
      "ramp": 7053,
      "##eid": 7054,
      "paran": 7055,
      "masses": 7056,
      "privileged": 7057,
      "photos": 7058,
      "strateg": 7059,
      "ashamed": 7060,
      "rain": 7061,
      "##my": 7062,
      "##esy": 7063,
      "description": 7064,
      "investors": 7065,
      "khan": 7066,
      "buddh": 7067,
      "##gers": 7068,
      "concentr": 7069,
      "transfer": 7070,
      "plane": 7071,
      "acceptance": 7072,
      "convinced": 7073,
      "savings": 7074,
      "mortgage": 7075,
      "ideal": 7076,
      "holds": 7077,
      "parishes": 7078,
      "ballot": 7079,
      "thin": 7080,
      "stol": 7081,
      "##acted": 7082,
      "brill": 7083,
      "quarter": 7084,
      "glass": 7085,
      "arguing": 7086,
      "representatives": 7087,
      "sustain": 7088,
      "tab": 7089,
      "##omfort": 7090,
      "commenting": 7091,
      "bask": 7092,
      "193": 7093,
      "effectively": 7094,
      "stret": 7095,
      "intimid": 7096,
      "gap": 7097,
      "nra": 7098,
      "rant": 7099,
      "zeal": 7100,
      "disrupt": 7101,
      "consens": 7102,
      "discern": 7103,
      "fields": 7104,
      "athletes": 7105,
      "##ching": 7106,
      "fee": 7107,
      "feds": 7108,
      "commercial": 7109,
      "aparth": 7110,
      "souls": 7111,
      "opened": 7112,
      "verb": 7113,
      "previously": 7114,
      "customers": 7115,
      "assemb": 7116,
      "##inge": 7117,
      "stress": 7118,
      "addiction": 7119,
      "survey": 7120,
      "colleg": 7121,
      "encoun": 7122,
      "##alled": 7123,
      "spew": 7124,
      "cert": 7125,
      "johnson": 7126,
      "insulting": 7127,
      "engineering": 7128,
      "brave": 7129,
      "engaged": 7130,
      "2008": 7131,
      "episc": 7132,
      "demonstrate": 7133,
      "episcop": 7134,
      "rush": 7135,
      "yell": 7136,
      "myst": 7137,
      "honol": 7138,
      "suffered": 7139,
      "credible": 7140,
      "wishes": 7141,
      "typically": 7142,
      "magisterium": 7143,
      "dc": 7144,
      "conver": 7145,
      "everyday": 7146,
      "##angers": 7147,
      "letters": 7148,
      "emergency": 7149,
      "isol": 7150,
      "manif": 7151,
      "##berg": 7152,
      "adding": 7153,
      "secure": 7154,
      "employed": 7155,
      "favorite": 7156,
      "degrees": 7157,
      "fascism": 7158,
      "quotes": 7159,
      "emotion": 7160,
      "alex": 7161,
      "kor": 7162,
      "##ien": 7163,
      "##gar": 7164,
      "##att": 7165,
      "helpful": 7166,
      "civilians": 7167,
      "aka": 7168,
      "pakistan": 7169,
      "apartheid": 7170,
      "theft": 7171,
      "spr": 7172,
      "poison": 7173,
      "##roll": 7174,
      "behalf": 7175,
      "treason": 7176,
      "honolulu": 7177,
      "oct": 7178,
      "##sters": 7179,
      "magn": 7180,
      "committing": 7181,
      "selfish": 7182,
      "pictures": 7183,
      "laughing": 7184,
      "adultery": 7185,
      "##ota": 7186,
      "##oln": 7187,
      "fresh": 7188,
      "england": 7189,
      "1000": 7190,
      "journalists": 7191,
      "dimin": 7192,
      "linc": 7193,
      "##bled": 7194,
      "caring": 7195,
      "profound": 7196,
      "importance": 7197,
      "swed": 7198,
      "divorced": 7199,
      "wil": 7200,
      "unac": 7201,
      "bridge": 7202,
      "cook": 7203,
      "facilities": 7204,
      "premium": 7205,
      "deliber": 7206,
      "##inction": 7207,
      "inappropri": 7208,
      "surg": 7209,
      "provinces": 7210,
      "confederate": 7211,
      "lincoln": 7212,
      "hating": 7213,
      "##oca": 7214,
      "insight": 7215,
      "depression": 7216,
      "patr": 7217,
      "accomplished": 7218,
      "award": 7219,
      "##acies": 7220,
      "goals": 7221,
      "lee": 7222,
      "columb": 7223,
      "pretending": 7224,
      "personality": 7225,
      "stolen": 7226,
      "##eed": 7227,
      "thir": 7228,
      "blah": 7229,
      "brief": 7230,
      "obey": 7231,
      "remote": 7232,
      "2012": 7233,
      "biological": 7234,
      "resource": 7235,
      "65": 7236,
      "##ios": 7237,
      "tob": 7238,
      "station": 7239,
      "approve": 7240,
      "mccain": 7241,
      "48": 7242,
      "dar": 7243,
      "ryan": 7244,
      "##down": 7245,
      "doors": 7246,
      "offers": 7247,
      "wwii": 7248,
      "breaks": 7249,
      "europeans": 7250,
      "losers": 7251,
      "vit": 7252,
      "yr": 7253,
      "##umen": 7254,
      "realized": 7255,
      "famous": 7256,
      "mentality": 7257,
      "##hamm": 7258,
      "stance": 7259,
      "listed": 7260,
      "forgiveness": 7261,
      "mixed": 7262,
      "stereotyp": 7263,
      "hates": 7264,
      "sull": 7265,
      "unif": 7266,
      "preced": 7267,
      "parade": 7268,
      "household": 7269,
      "bubble": 7270,
      "unnecess": 7271,
      "gir": 7272,
      "rab": 7273,
      "##pass": 7274,
      "reasoning": 7275,
      "##ondon": 7276,
      "excuses": 7277,
      "unlikely": 7278,
      "convince": 7279,
      "cp": 7280,
      "lun": 7281,
      "##agon": 7282,
      "quo": 7283,
      "indo": 7284,
      "transit": 7285,
      "headed": 7286,
      "ironic": 7287,
      "pastoral": 7288,
      "compromise": 7289,
      "bread": 7290,
      "ties": 7291,
      "beach": 7292,
      "subsidies": 7293,
      "arrogant": 7294,
      "chemical": 7295,
      "cannabis": 7296,
      "##ocaust": 7297,
      "flying": 7298,
      "london": 7299,
      "##rich": 7300,
      "conce": 7301,
      "obstr": 7302,
      "harb": 7303,
      "pupp": 7304,
      "ethical": 7305,
      "measures": 7306,
      "audience": 7307,
      "congrat": 7308,
      "elderly": 7309,
      "amounts": 7310,
      "plants": 7311,
      "schem": 7312,
      "##ifications": 7313,
      "viewpoint": 7314,
      "ceo": 7315,
      "hunt": 7316,
      "declar": 7317,
      "solely": 7318,
      "##ches": 7319,
      "misle": 7320,
      "holocaust": 7321,
      "nix": 7322,
      "##bur": 7323,
      "nove": 7324,
      "carried": 7325,
      "roof": 7326,
      "legislative": 7327,
      "gal": 7328,
      "##isive": 7329,
      "pron": 7330,
      "trend": 7331,
      "segregation": 7332,
      "##pped": 7333,
      "paris": 7334,
      "perpetu": 7335,
      "november": 7336,
      "##row": 7337,
      "##kel": 7338,
      "suggestion": 7339,
      "attempted": 7340,
      "turkey": 7341,
      "commandments": 7342,
      "abusive": 7343,
      "barely": 7344,
      "lunch": 7345,
      "naft": 7346,
      "heat": 7347,
      "sher": 7348,
      "elites": 7349,
      "##riages": 7350,
      "shootings": 7351,
      "versus": 7352,
      "unbel": 7353,
      "thugs": 7354,
      "jr": 7355,
      "rcc": 7356,
      "##oly": 7357,
      "endors": 7358,
      "##inging": 7359,
      "conqu": 7360,
      "dispar": 7361,
      "blank": 7362,
      "##izz": 7363,
      "gras": 7364,
      "payments": 7365,
      "checks": 7366,
      "produced": 7367,
      "internal": 7368,
      "returns": 7369,
      "delay": 7370,
      "fab": 7371,
      "storm": 7372,
      "##anged": 7373,
      "respected": 7374,
      "labour": 7375,
      "steps": 7376,
      "purposes": 7377,
      "intolerance": 7378,
      "montreal": 7379,
      "##cos": 7380,
      "##ware": 7381,
      "carefully": 7382,
      "network": 7383,
      "shelter": 7384,
      "nafta": 7385,
      "##awn": 7386,
      "scared": 7387,
      "morals": 7388,
      "consideration": 7389,
      "ruled": 7390,
      "instruct": 7391,
      "colonial": 7392,
      "trigger": 7393,
      "ric": 7394,
      "##ym": 7395,
      "talent": 7396,
      "195": 7397,
      "capit": 7398,
      "injustice": 7399,
      "basket": 7400,
      "ted": 7401,
      "##oned": 7402,
      "contempt": 7403,
      "commentary": 7404,
      "ministers": 7405,
      "stealing": 7406,
      "shameful": 7407,
      "historically": 7408,
      "seattle": 7409,
      "cycle": 7410,
      "ka": 7411,
      "pitch": 7412,
      "beer": 7413,
      "##illed": 7414,
      "warri": 7415,
      "priority": 7416,
      "civilization": 7417,
      "switch": 7418,
      "inflation": 7419,
      "queen": 7420,
      "permit": 7421,
      "laun": 7422,
      "proposal": 7423,
      "fantasy": 7424,
      "frequently": 7425,
      "august": 7426,
      "uniform": 7427,
      "cu": 7428,
      "hil": 7429,
      "resur": 7430,
      "opposing": 7431,
      "commitment": 7432,
      "adopted": 7433,
      "loyal": 7434,
      "clerics": 7435,
      "aboriginal": 7436,
      "um": 7437,
      "dod": 7438,
      "##antic": 7439,
      "safer": 7440,
      "workplace": 7441,
      "serves": 7442,
      "endless": 7443,
      "glor": 7444,
      "conviction": 7445,
      "atheists": 7446,
      "gentlem": 7447,
      "hated": 7448,
      "shocked": 7449,
      "resc": 7450,
      "firing": 7451,
      "sociopath": 7452,
      "islamist": 7453,
      "treating": 7454,
      "motor": 7455,
      "checked": 7456,
      "devil": 7457,
      "hispanics": 7458,
      "unemployment": 7459,
      "33": 7460,
      "ts": 7461,
      "##lines": 7462,
      "##rist": 7463,
      "##vent": 7464,
      "##ibilities": 7465,
      "spouse": 7466,
      "pool": 7467,
      "sooner": 7468,
      "grounds": 7469,
      "reconcil": 7470,
      "vig": 7471,
      "refuses": 7472,
      "discussed": 7473,
      "represented": 7474,
      "links": 7475,
      "fools": 7476,
      "challenged": 7477,
      "aliens": 7478,
      "tactics": 7479,
      "##put": 7480,
      "##educ": 7481,
      "chin": 7482,
      "humor": 7483,
      "memor": 7484,
      "calc": 7485,
      "demonstrated": 7486,
      "tweets": 7487,
      "kiss": 7488,
      "mp": 7489,
      "adam": 7490,
      "scene": 7491,
      "##bell": 7492,
      "##ews": 7493,
      "florid": 7494,
      "addressing": 7495,
      "meaningful": 7496,
      "analog": 7497,
      "vacation": 7498,
      "disciples": 7499,
      "forest": 7500,
      "evalu": 7501,
      "authoritarian": 7502,
      "operating": 7503,
      "nuts": 7504,
      "assets": 7505,
      "spanish": 7506,
      "##roc": 7507,
      "##isons": 7508,
      "inner": 7509,
      "manager": 7510,
      "valu": 7511,
      "residential": 7512,
      "brilliant": 7513,
      "##kind": 7514,
      "sue": 7515,
      "resent": 7516,
      "spo": 7517,
      "incap": 7518,
      "parks": 7519,
      "injured": 7520,
      "delusional": 7521,
      "deliberately": 7522,
      "dun": 7523,
      "##itate": 7524,
      "reverse": 7525,
      "contributions": 7526,
      "resistance": 7527,
      "deme": 7528,
      "hunting": 7529,
      "satur": 7530,
      "outright": 7531,
      "voices": 7532,
      "cul": 7533,
      "msw": 7534,
      "##kers": 7535,
      "governing": 7536,
      "decre": 7537,
      "stopping": 7538,
      "increasingly": 7539,
      "coffee": 7540,
      "conclusions": 7541,
      "wolf": 7542,
      "##ford": 7543,
      "##urt": 7544,
      "##ivan": 7545,
      "lawsuit": 7546,
      "airport": 7547,
      "meaningless": 7548,
      "koran": 7549,
      "jones": 7550,
      "tries": 7551,
      "endorse": 7552,
      "solar": 7553,
      "ordered": 7554,
      "immediate": 7555,
      "biz": 7556,
      "jury": 7557,
      "yup": 7558,
      "##nell": 7559,
      "produc": 7560,
      "explicit": 7561,
      "##informed": 7562,
      "ire": 7563,
      "##ato": 7564,
      "lift": 7565,
      "adjust": 7566,
      "impression": 7567,
      "killer": 7568,
      "pattern": 7569,
      "returned": 7570,
      "jerk": 7571,
      "florida": 7572,
      "bust": 7573,
      "##life": 7574,
      "##ini": 7575,
      "##ona": 7576,
      "incidents": 7577,
      "laid": 7578,
      "gains": 7579,
      "pocket": 7580,
      "nixon": 7581,
      "##anes": 7582,
      "##chan": 7583,
      "trag": 7584,
      "##ula": 7585,
      "knights": 7586,
      "emer": 7587,
      "sadd": 7588,
      "bombs": 7589,
      "guarantee": 7590,
      "gif": 7591,
      "rif": 7592,
      "tone": 7593,
      "##ette": 7594,
      "weed": 7595,
      "libr": 7596,
      "whoever": 7597,
      "expenses": 7598,
      "temporary": 7599,
      "premise": 7600,
      "rg": 7601,
      "actively": 7602,
      "invited": 7603,
      "patriarch": 7604,
      "impeach": 7605,
      "scenario": 7606,
      "dys": 7607,
      "##emen": 7608,
      "unh": 7609,
      "scam": 7610,
      "sched": 7611,
      "millenn": 7612,
      "advocates": 7613,
      "restrict": 7614,
      "hostile": 7615,
      "blatant": 7616,
      "##respons": 7617,
      "##icable": 7618,
      "dissent": 7619,
      "##educated": 7620,
      "32": 7621,
      "##umber": 7622,
      "##iel": 7623,
      "requirements": 7624,
      "advocating": 7625,
      "collective": 7626,
      "incredibly": 7627,
      "tight": 7628,
      "##oration": 7629
    }
  }
}