[PAD]
[UNK]
[CLS]
[SEP]
[MASK]
!
"
#
$
%
&
'
(
)
*
+
,
-
.
/
0
1
2
3
4
5
6
7
8
9
:
;
<
=
>
?
@
[
\
]
^
_
`
a
b
c
d
e
f
g
h
i
j
k
l
m
n
o
p
q
r
s
t
u
v
w
x
y
z
{
|
}
~
¡
¢
£
¥
§
¨
©
«
¬
®
¯
°
±
²
´
¶
·
¹
º
»
¼
½
¿
×
ß
æ
÷
ø
ı
ł
œ
ɑ
ɒ
ə
ɛ
ɡ
ɢ
ɪ
ɴ
ʀ
ʃ
ʌ
ʏ
ʒ
ʖ
ʙ
ʜ
ʟ
ʻ
ʼ
ʿ
ˈ
ˌ
ː
˙
˚
α
γ
δ
ε
η
ι
κ
λ
μ
ν
ο
π
ρ
ς
σ
τ
υ
φ
ψ
ω
а
б
в
г
д
е
з
и
к
л
м
н
о
п
р
с
т
у
ц
ч
ш
ы
ь
ю
ғ
א
ה
ו
ש
ا
ب
ة
ت
ح
خ
د
ر
ز
س
ص
ع
غ
ف
ق
ك
ل
م
ن
ه
و
ى
ي
چ
ی
ஜ
๏
ᴀ
ᴄ
ᴅ
ᴇ
ᴊ
ᴋ
ᴍ
ᴏ
ᴘ
ᴛ
ᴜ
ᴠ
ᴡ
ᴵ
‐
‑
–
—
―
‖
‘
’
“
”
„
†
•
…
′
″
›
‼
⁄
⁉
₀
₂
€
℅
ℐ
™
ℯ
ℴ
⅓
⇒
∎
−
∞
≤
⎌
⏺
━
┃
┈
┊
┳
═
╪
╭
╮
╯
╰
╱
╲
▀
▂
▄
█
▊
▋
▏
░
▒
▓
▔
▕
▬
▰
▱
▶
►
◄
○
●
◐
◕
☄
★
☆
☐
☑
☕
☝
☠
☭
☹
☺
☻
♀
♡
♥
♪
♫
♬
⚠
⚡
⚽
⚾
✅
✈
✋
✌
✔
✘
✨
✬
✰
✾
❄
❆
❌
❓
❔
❗
❣
❤
❥
➤
➥
⠀
⤵
⦁
⭕
。
チ
ツ
ニ
ハ
マ
ル
ロ
不
买
了
人
伎
会
你
关
卖
去
国
土
外
大
失
小
巨
年
式
得
怒
愤
成
所
收
是
月
有
来
株
歌
白
的
社
税
系
舞
要
豆
赢
都
钱
额
鬼
ﬁ
ﬂ
﴾
﴿
！
）
，
．
：
ｃ
ｉ
ｍ
ｏ
￼
𝐃
𝐅
𝐓
𝐔
𝐘
𝐚
𝐛
𝐜
𝐞
𝐡
𝐦
𝐨
𝐩
𝐬
𝐭
𝐮
𝐯
𝐰
𝐱
𝐲
𝐳
𝑩
𝑰
𝑺
𝑻
𝒀
𝒂
𝒃
𝒄
𝒅
𝒆
𝒇
𝒈
𝒉
𝒊
𝒋
𝒌
𝒍
𝒎
𝒏
𝒐
𝒑
𝒒
𝒓
𝒔
𝒕
𝒖
𝒗
𝒘
𝒙
𝒚
𝒛
𝒩
𝒶
𝒸
𝒻
𝒽
𝒾
𝓀
𝓁
𝓃
𝓅
𝓇
𝓈
𝓉
𝓊
𝓌
𝓎
𝓒
𝓲
𝓵
𝓿
𝗕
𝗙
𝗜
𝗢
𝗦
𝗧
𝗮
𝗯
𝗰
𝗱
𝗲
𝗳
𝗴
𝗵
𝗶
𝗹
𝗺
𝗻
𝗼
𝗽
𝗿
𝘀
𝘁
𝘂
𝘃
𝘄
𝘆
𝘦
𝘨
𝘩
𝘪
𝘮
𝘯
𝘰
𝘴
𝘵
𝙄
𝙏
𝙔
𝙖
𝙗
𝙘
𝙙
𝙚
𝙛
𝙜
𝙝
𝙞
𝙠
𝙡
𝙢
𝙣
𝙤
𝙥
𝙧
𝙨
𝙩
𝙪
𝙫
𝙬
𝙭
𝙮
𝟒
𝟓
𝟔
𝟬
𝟱
𝟳
🆘
🇦
🇨
🇳
🇵
🇷
🇸
🇺
🌍
🌏
🌞
🌟
🌮
🌸
🌺
🍁
🍺
🎁
🎄
🎯
🎰
🎶
🎼
🏆
🏉
🏐
🏝
🏻
🏼
🏽
🏾
🐒
🐟
🐡
🐴
🐻
🐽
👊
👌
👍
👎
👏
👠
👮
👶
👼
👿
💀
💋
💎
💕
💖
💙
💚
💛
💜
💟
💡
💤
💥
💨
💩
💪
💯
💰
💵
🔥
🔫
🕷
🖐
😀
😁
😂
😃
😄
😅
😆
😇
😈
😉
😊
😋
😍
😎
😏
😐
😑
😒
😔
😕
😖
😙
😛
😜
😝
😞
😟
😠
😡
😢
😣
😤
😥
😦
😨
😩
😪
😫
😬
😭
😮
😱
😲
😳
😴
😵
😶
🙀
🙁
🙂
🙃
🙄
🙈
🙉
🙊
🙏
🚽
🤑
🤒
🤓
🤔
🤕
🤗
🤘
🤡
🤢
🤣
🤤
🤥
🤧
🤪
🤯
🤴
🦁
🦊
##h
##a
##m
##e
##f
##u
##l
##b
##i
##r
##d
##q
##n
##s
##o
##g
##t
##p
##z
##x
##c
##k
##y
##3
##5
##2
##0
##1
##7
##v
##6
##w
##8
##j
##ᴀ
##ɴ
##9
##4
##⚾
##🏐
##𝒽
##𝒶
##𝓉
##🙄
##æ
##😇
##𝗼
##𝘂
##𝒆
##𝒃
##𝒖
##𝒌
##😁
##😎
##ə
##𝒐
##𝒓
##𝒔
##𝒕
##𝒂
##𝒍
##ᴵ
##ℴ
##𝓇
##ル
##ハ
##ニ
##チ
##ロ
##▀
##𝗶
##𝘁
##𝗵
##♪
##د
##و
##а
##л
##е
##н
##ь
##к
##и
##ʏ
##℅
##°
##ː
##ˈ
##ɒ
##ʒ
##ˌ
##𝙤
##𝙧
##𝙘
##𝙚
##😊
##ø
##ʻ
##𝙖
##𝙭
##𝒋
##𝒊
##𝒚
##😋
##𝒉
##´
##╲
##▂
##╱
##┈
##𝒘
##🏻
##😂
##ɑ
##ɪ
##ɛ
##μ
##𝙩
##𝙨
##ʀ
##⁄
##❤
##►
##𝙝
##𝒅
##₂
##𝓃
##𝓌
##✔
##ℐ
##ｏ
##ｍ
##ᴠ
##ᴇ
##ل
##ك
##ت
##ا
##ب
##𝙣
##𝗲
##𝗹
##⤵
##☻
##😡
##🤣
##¢
##ن
##𝙞
##𝙜
##𝙡
##𝙮
##𝗿
##𝗺
##ᴏ
##ᴘ
##ᴜ
##ʟ
##𝐨
##𝐦
##ᴅ
##™
##➤
##¨
##𝒄
##𝒒
##𝘃
##ʙ
##𝟱
##𝟬
##ي
##ق
##ɢ
##🤤
##😫
##🤑
##🤥
##🤪
##🙈
##🙉
##🙊
##🐡
##²
##═
##✬
##𝒎
##ᴡ
##ᴋ
##➥
##𝗻
##😆
##𝗱
##τ
##ο
##ρ
##γ
##η
##ᴍ
##ᴛ
##⚠
##ஜ
##▬
##🇦
##α
##ς
##𝒗
##😃
##😛
##🤡
##𝒏
##ʼ
##😲
##𝘰
##𝘮
##𝘦
##𝘵
##𝘩
##𝘪
##𝘯
##𝘨
##в
##ц
##ы
##г
##▏
##╰
##╯
##▕
##𝗮
##👎
##𝘀
##®
##💰
##💎
##𝙗
##𝙢
##⇒
##😅
##🎼
##❣
##ʃ
##ﬁ
##⚽
##𝙙
##♀
##ف
##ة
##𝓈
##ℯ
##💥
##🏼
##˚
##𝐭
##𝐩
##𝐬
##˙
##ى
##ι
##λ
##𝟔
##𝓲
##𝓿
##𝓵
##🇵
##🇷
##🇺
##🇸
##🇨
##💵
##🎄
##💟
##💋
##🎰
##🌺
##𝗰
##о
##п
##🤓
##▔
##┊
##ı
##𝙫
##🍁
##💨
##☺
##×
##𝙪
##𝒈
##𝙥
##🤕
##ᴄ
##😙
##💀
##☠
##🆘
##🎶
##👼
##🙏
##ß
##😔
##𝒇
##υ
##ε
##ν
##★
##😢
##س
##م
##🤴
##☕
##😳
##😉
##𝐰
##╭
##╮
##┳
##σ
##ω
##😍
##✅
##𝘆
##❌
##⭕
##🙁
##ʿ
##♥
##𝓅
##𝒾
##𝒑
##𝙬
##𝙛
##π
##κ
##з
##🇳
##😀
##ł
##💕
##𝗽
##у
##р
##м
##ו
##א
##ה
##𝐚
##𝐜
##𝐡
##▶
##━
##😄
##𝙠
##𝗴
##▊
##▋
##₀
##º
##🏾
##░
##▒
##▓
##█
##◕
##✾
##𝓁
##🔥
##𝘄
##😜
##🌸
##𝐮
##𝐛
##𝐞
##ح
##ر
##с
##ه
##т
##𝒛
##😣
##ʜ
##𝓊
##ғ
##𝐔
##𝐱
##𝟓
##𝐅
##𝐓
##𝐃
##𝐘
##👍
##✨
##🌟
##💜
##д
##😈
##▰
##غ
##𝒙
##┃
##▱
##🤧
##🎯
##💛
##💚
##💙
##💖
##ز
##ی
##😤
##♫
##♬
##🤔
##ɡ
##🏽
##😑
##🏉
##𝒸
##𝓀
##𝓎
##𝗳
##💩
##چ
##●
##❥
##خ
##🤒
##¹
##👿
##ч
##ψ
##👏
##ʌ
##ю
##ш
##⚡
##☄
##🙃
##œ
##🌍
##◐
##▄
th
the
##er
##in
##at
##on
##en
##ou
##es
##or
##an
an
##ing
to
##ed
##is
##al
##it
##re
of
in
and
##ar
##ic
##om
##as
##ll
is
wh
##ot
##ion
be
##le
##ly
that
you
##ve
##ent
re
##st
it
##se
##ut
##ac
on
##ow
for
##ld
##id
##ay
##ad
pr
##et
##ur
##ig
not
st
##ver
##im
##op
##ol
are
ha
##ir
as
##ct
##ith
ch
he
##am
##ill
##ch
tr
##ist
with
##ers
##th
##ce
we
do
sh
##ation
li
##ould
have
##ke
they
con
go
de
this
or
se
##ess
##um
##us
##est
##ate
com
##il
was
ne
can
su
ab
all
##ht
##ul
so
fr
##pp
##ter
##ere
##ust
at
but
##ge
##nd
##ment
who
##ant
##ity
ex
##out
##ain
##ally
al
##od
##ore
what
##and
pe
##em
##ome
if
by
their
pro
le
##ight
wor
##ort
##ab
your
##one
will
##ive
no
##iv
peop
people
##ies
from
##pe
##au
##un
about
##os
would
man
##ost
there
has
##ack
un
##ans
me
any
his
just
##ie
##if
##art
us
##ous
like
##end
am
one
##ose
##ath
##ump
ag
ar
out
##oc
ma
wom
cou
more
don
##ud
##tr
##ear
##ite
ta
en
##ard
them
##all
##ue
some
cl
trump
##king
how
up
ev
##act
##ci
kn
when
oth
get
my
##ame
bec
than
##pt
##oug
##ib
our
##ast
##ence
dis
##ong
##ice
cr
##ions
##hing
bl
##iz
pl
im
ever
lo
ad
##ap
##ink
know
##ind
##ag
##ime
##ause
right
res
should
were
##her
women
gr
did
##pl
##ian
##el
##ia
##ich
##ual
##ect
##ish
ac
her
does
##ical
she
pol
other
##ber
year
##ated
te
act
##aw
because
##ub
say
int
think
been
##are
##ure
##ff
##ine
##ree
##age
##ary
##ult
br
only
off
##ks
those
need
##ace
part
over
sp
##og
many
##ound
coun
sa
inc
po
##int
want
per
every
##ough
##ass
time
rep
why
##able
##lic
##ious
which
white
##ide
##urch
now
even
dr
had
see
being
##ob
##ism
comm
fe
pre
fa
these
good
church
then
bel
##ok
rel
##reat
again
him
co
##eric
supp
ob
##ip
und
new
canad
app
may
##ild
comp
way
##ens
cons
##our
##fer
qu
americ
##sel
chr
##ery
##wn
most
##ire
##ase
under
##ep
gu
##own
##ance
##ublic
##ations
christ
##ves
pres
##way
pers
##ving
mu
##olic
##ile
##ict
thing
law
af
##gr
spe
wr
belie
well
bet
make
could
cath
prob
##so
##qu
own
years
##oy
##itt
state
mar
##ial
##ory
catholic
dem
ind
##uc
vot
##00
##ope
very
##ign
much
countr
att
##ons
inter
also
##per
##lim
##vern
govern
into
where
##der
##lect
mus
work
##ents
##ors
##ach
##ians
##other
##ists
ser
tax
##fe
acc
em
same
men
here
fact
person
##ied
back
polit
real
call
##ade
##ty
muslim
id
##ry
##pect
never
fir
support
dec
##ates
ter
str
##ak
god
black
tw
fo
##ible
##ually
government
rec
##ang
##ident
sc
said
imp
world
too
let
ass
##ition
rem
##ful
pay
child
bu
##als
sin
##ative
ke
par
##ise
##ft
really
soci
##orm
read
sex
cont
comment
##ved
sy
##oss
##lem
its
relig
going
##ting
##ily
def
take
##ord
##ying
dif
point
rac
after
fu
##oth
sch
##ern
inv
contr
20
against
elect
##ale
cor
iss
##ick
##cept
happ
day
cour
##amp
problem
des
##ocr
##oney
first
long
##thing
won
art
life
##con
##less
country
##igh
med
thr
down
op
##uth
##ange
still
woman
##be
money
##ating
seem
##enc
liber
canada
##anc
care
##fore
##ail
som
nothing
reg
prot
##self
public
##iss
##ew
##alth
believe
such
mat
fl
inf
somet
war
leg
ve
car
big
##ning
bas
ro
differ
great
sim
bo
##ues
put
bus
##ave
mo
##olog
##uct
inst
hel
president
##ro
hum
doesn
another
##ution
ref
##ities
##ower
gen
isl
##ug
lead
min
post
##ool
better
##ought
##vers
fam
##ather
artic
reas
##ude
sm
##tain
##av
##ics
help
while
ment
ho
job
before
left
ins
##ational
two
disc
made
##ense
sl
el
##tt
cle
##ra
school
far
##stand
end
##uss
jes
imm
ed
sure
##ject
use
both
##rem
##ren
##kes
##oun
##ood
didn
come
ph
##ri
democr
look
##cess
##ress
tal
keep
##imes
kill
##ps
islam
##ives
prop
sub
jesus
char
##we
vi
old
##ically
##ility
something
prov
show
christian
things
##ah
##get
bill
ill
##urn
##az
commun
actually
find
news
##hip
word
mill
must
##arly
tell
##day
opp
since
someone
##vel
terr
resp
mean
got
incl
##ways
##ts
article
lot
ide
understand
last
start
##les
##ize
grou
health
anyone
##ority
##read
##its
high
home
yes
##ness
##iew
fem
hand
##iness
hist
add
obam
quest
##te
##gn
children
without
201
exp
agree
gl
guy
stop
##ently
##ask
htt
always
wat
mon
ant
reason
##aug
##ock
conf
##led
es
cho
free
##llow
ban
others
anything
through
pri
wrong
less
jo
##eral
maybe
##erv
play
##ittle
american
stand
bad
feel
republic
interest
##ific
little
human
##stem
##red
##igr
et
beh
happen
##inal
change
system
viol
sur
##aim
simp
allow
might
##ither
conc
har
##lly
##lf
doing
##ants
##ety
##xt
give
contin
##ings
political
##ward
isn
##ines
##ody
power
democrat
few
obama
##ably
fund
hard
business
##ute
##ider
run
party
##gress
##ever
19
##eg
stud
issue
##ited
rights
##ead
pop
giv
cur
const
alask
##use
che
trans
love
vote
##ments
muslims
##ene
##ices
##acy
etc
claim
##selves
america
family
mor
nor
done
cer
around
val
num
rest
kid
adm
non
##ized
coll
ll
enough
true
##up
##ouse
maj
social
col
##ops
cost
##ng
used
attack
hope
##bt
mem
dep
form
cult
best
##res
terror
seems
immigr
##reed
eff
pa
live
sec
away
matter
##osed
yet
adv
##gest
ca
history
certain
ra
hate
religious
jew
unt
everyone
else
conserv
question
place
den
thought
prof
##ier
ww
different
gay
##orn
##ender
called
civ
ign
consider
ple
course
anti
##ell
##ond
mind
jud
ent
least
##conom
mil
young
follow
plan
includ
cond
##cc
head
ask
ext
case
priest
media
##ivers
econom
today
##ular
ir
educ
##ately
cit
cent
##arn
found
##ven
##rect
past
mr
hill
needs
aff
kind
##wh
priv
##bers
pass
police
##aught
report
trying
fin
having
##uring
ap
protect
##aps
view
##ten
poor
gun
wa
liberal
serv
##ric
##ars
truth
org
##man
hom
pos
##ready
already
saying
##vious
##used
##ploy
term
exper
clint
##yp
##ck
##ween
between
sexual
fail
pope
class
nat
based
vict
religion
self
themselves
until
national
making
##ural
requ
either
cann
auth
eas
mis
##istr
story
civil
states
##ending
makes
wonder
house
accept
sign
ret
camp
citiz
##itution
opin
invest
cre
##oph
racist
arg
comments
www
set
comple
male
pret
deal
##aching
##ru
next
clinton
list
rather
sup
##ends
canadian
loo
getting
russ
div
mass
##plain
society
faith
##ont
##ys
fri
polic
lar
##ash
poss
try
protest
hillary
##ites
##ix
##irl
marr
sou
name
times
prom
countries
mur
says
suprem
miss
##ired
##ior
simply
##cial
group
bre
##ands
election
10
bish
lat
red
open
move
##cr
americans
mod
probably
win
alaska
fed
means
##ology
##haps
however
perhaps
regard
hu
oh
turn
##ced
city
eng
ago
##uck
sad
respect
west
##ald
please
sol
issues
boy
import
##ortion
million
##qual
##ination
##ised
stat
once
instead
cannot
control
##gy
sk
given
##idence
##ount
watch
victim
##eter
##ces
correct
employ
##irect
##idd
trude
curr
laws
milit
trudeau
##body
though
##ai
hon
female
##ner
kids
##cially
##ote
death
##sw
##atic
partic
incre
##ample
mark
##ets
illeg
##empt
ignor
##ures
##lish
fun
dou
sit
##ulation
##ering
girl
respons
000
face
lives
each
community
abs
##ina
##ision
##ortun
##ee
oil
become
sug
pat
##ention
direct
compan
expect
offic
during
serious
example
main
##ret
loc
##pr
##ember
leaders
working
cap
chang
##ling
##ument
sci
##li
##ides
fol
build
idea
catholics
guess
##ny
order
teaching
cover
wal
##iting
##io
words
##rupt
exc
legal
exact
glob
liberals
espe
especially
suggest
majority
ear
gener
http
small
##ger
likely
##ience
franc
christians
nation
##ged
sen
unf
remember
sense
prod
##estr
concern
##ether
result
av
hold
sound
##ences
wee
crit
citizens
bene
opinion
obvious
including
##ted
answ
##ency
folks
bi
##ided
##cond
talk
##br
top
##ified
everything
equal
thank
violence
hear
##ales
##inking
grow
sho
complete
personal
##ble
pract
##ages
often
##par
treat
crim
proper
bar
##reg
military
living
taxes
number
mental
francis
sw
##ister
court
side
important
benef
level
haw
##fu
##ivid
ok
sor
est
whole
sing
evidence
wants
tot
##por
beg
https
extrem
aren
mention
clear
##ament
cut
race
ord
individ
perf
##ife
##ne
full
##air
##ned
fear
threat
using
second
republican
line
whether
except
pretty
inform
racism
##app
jobs
mess
told
##imate
individual
##hn
##ove
##ple
bur
appro
days
defin
murder
bring
comes
##ization
##ators
certainly
hawai
able
conservative
facts
di
##line
##ional
seen
came
##arch
month
priests
freed
belief
##ler
repres
##atives
entire
fight
arm
donald
##ots
federal
taking
##gram
organ
##ases
pur
south
program
##ech
discuss
continue
land
invol
destr
crime
exist
exactly
learn
fair
speak
eur
went
met
politic
##ph
trad
##fully
##iddle
refer
univers
ident
abortion
##ital
alm
rid
john
freedom
doct
talking
choice
rich
office
china
effect
bud
cand
spec
lost
##ibility
suc
bit
education
##isl
middle
##ison
arr
common
canadians
dog
stre
quite
gender
bishops
pot
situ
abuse
spir
lack
##ify
behav
legisl
teach
##where
##ended
speech
drug
members
paid
##arr
##ault
##ken
##rael
doll
europe
wouldn
north
##rim
israel
##ator
equ
##ased
##alf
schools
chines
sorry
##aign
chinese
pray
almost
low
wasn
100
large
campaign
rul
gets
moral
appear
groups
200
answer
##aff
occ
republicans
fac
clearly
##velop
##eign
candid
##cent
democrats
population
illegal
conv
himself
##ake
coming
suff
culture
disag
current
##ony
rece
test
income
##ient
aw
##uction
ones
reality
##aud
sent
ris
among
##ik
##aking
politics
rev
##tern
card
stay
ste
private
cred
##iage
buy
three
problems
absol
fire
looking
thanks
goes
stup
develop
##land
sever
constitution
mer
thinking
progress
##xual
leave
attempt
fut
##ins
dam
##co
##ton
father
spirit
##anger
assault
justice
stupid
took
##aged
along
yourself
##lling
##ush
killed
##yn
meet
50
nice
##mm
##uff
vis
represent
##istic
##ined
##ury
sac
##hood
##ats
within
islamic
happened
intern
super
lim
parents
lit
##of
fall
wife
wish
admin
policy
week
##orts
##aring
rad
general
neg
sus
voted
intell
##ames
team
mother
jews
##str
allowed
shoot
elected
sn
peace
local
single
naz
cause
##itted
fal
##oint
future
absolute
##ark
##ades
author
##ane
air
marriage
##itions
bir
##ott
worth
due
profess
##orr
doubt
pu
whate
experience
mom
sour
judge
actions
position
##ging
whatever
service
qual
##ges
##ank
##xic
heart
15
famil
discrim
close
accord
##ared
##uly
enc
sal
tre
##ived
##lus
##osing
##osexual
dead
billion
immigration
ce
arab
age
strong
half
afric
difference
toward
inde
statement
market
ms
fur
##izing
indust
er
friends
short
foreign
##ther
outs
##ories
thous
united
millions
false
worse
supremac
##ered
disagree
interesting
femin
process
blame
fav
taken
corpor
mot
unless
neigh
neighb
infl
##itive
##bs
voters
inn
investig
possible
eth
imag
##ield
ye
que
present
colle
hat
##ured
##cut
##ream
behind
lab
##ergy
step
wing
##ensive
situation
dist
##for
press
corrupt
##uses
remain
##ript
administr
criminal
hit
lad
##aph
congress
longer
##ief
evil
record
percent
##ards
##ogn
force
surpr
##by
holy
##iding
##ples
cal
##ipp
pred
heard
knows
deb
check
walk
30
##ising
##ters
jewish
success
students
water
##tle
##tar
blacks
##iving
game
immigrants
##bo
dom
ru
rele
paying
prev
##ances
explain
appar
argument
known
ps
##ming
bible
##oke
wanted
ger
born
according
##ction
trust
repe
guys
##crib
assum
destroy
russia
hawaii
hous
orig
action
relations
provide
danger
usa
##ened
completely
typ
gre
victims
fig
desp
pun
##urity
dev
earth
##rop
complain
train
behavior
##cil
economy
##using
ey
address
expl
deser
further
information
event
hyp
ann
food
honest
##wise
reading
foc
values
road
##uge
##ring
none
insur
##aper
##oud
enter
log
##oo
light
demand
wait
##ledge
science
economic
western
recogn
##pel
det
##itting
pen
##onse
truly
deep
calling
simple
##ophob
hur
special
homeless
sacr
tradition
##ilar
subject
itself
rate
several
12
bab
college
necess
color
##action
project
soon
##atican
##pet
env
politicians
toget
vatican
asked
##ening
la
together
fake
response
account
alone
plac
knew
##ork
activ
perfect
##ability
needed
obviously
express
wealth
##ees
decision
refuge
willing
above
##icult
pal
return
##earch
sla
##oid
fine
started
##umb
mult
##ission
involved
11
lol
dollars
lies
tar
friend
accom
gave
18
body
choose
families
##over
costs
book
paul
happy
pie
sym
##ta
research
norm
oppos
##ential
##ological
leader
homosexual
phys
##come
upon
huge
vir
hour
##asc
hig
gas
insurance
birth
property
bank
girls
##iver
afford
distr
safe
tech
ways
absolutely
running
giving
easy
##que
lie
rules
indeed
companies
opportun
ah
hell
risk
higher
##ilt
rap
repl
created
conservatives
##ird
##itor
services
##old
unc
object
unfortun
forg
daught
ty
security
lea
major
oper
##ese
demon
##ium
pick
stuff
share
sounds
##irc
##itten
opt
##lled
gos
extreme
sold
actual
##idents
mist
rail
##ively
##ibly
##dd
mexic
supposed
terrorist
worked
democratic
reasons
couple
path
##ued
budget
hands
shame
bigot
thousands
otherwise
obs
global
works
2017
room
compet
##ped
later
##ially
medical
critic
seriously
innoc
outside
access
university
base
understanding
heav
2016
whites
supporters
apparently
lang
##arm
prefer
pain
circ
da
contrib
bal
climate
##order
voting
hypocr
ath
##ones
##iron
prin
area
begin
bey
##ral
killing
native
gop
company
grand
suspect
yeah
radical
rom
cat
hun
link
attention
fix
night
shows
administration
wall
takes
forget
doc
written
decades
diff
official
meaning
married
former
east
##pay
##fl
##iction
acr
condem
agend
four
##ych
##itch
##joy
early
creat
##uce
industry
##ason
##ature
tor
beliefs
responsible
kore
sat
sort
enjoy
san
funny
environ
harm
similar
beyond
candidate
gone
looks
workers
foot
chance
##amed
##aster
##ropri
psych
spend
purp
saw
ut
nations
langu
##ert
##els
##inals
boys
hus
total
numbers
becom
guns
var
sem
weap
aut
estab
across
taxpay
jour
board
decl
influ
medic
value
lower
realize
happens
views
difficult
##unk
del
street
horr
adult
subs
##ished
syr
imagine
considered
cases
council
leadership
environment
##ench
globe
increase
german
rape
fil
privile
quebe
bom
wow
months
tro
reject
##rew
owners
trade
require
##unch
finan
modern
tried
deter
mag
fool
##ows
neither
25
agenda
describ
##cl
##oral
##allen
sick
target
##vant
##etic
##ained
natural
son
gospel
march
##utions
union
relationship
intellig
flag
sell
enfor
nature
hund
##ulous
ground
hundred
##iation
nobody
lose
couldn
questions
##eng
histor
##na
ridic
telling
##utes
wel
favor
##iod
shot
authority
##inate
price
discussion
capital
##asing
whose
democracy
building
separ
##son
town
##sh
write
bull
establish
practice
haven
alth
cross
poll
attr
changed
prim
save
front
although
trave
period
challen
##form
die
resour
housing
encour
harper
tur
responsibility
totally
##go
crimes
christianity
##iven
regarding
vers
##like
product
break
sil
##ining
policies
##ley
finally
treatment
##0s
brain
rule
##ike
##ires
males
ten
##sequ
attacks
shouldn
worst
assoc
##antly
oreg
speaking
wrote
aver
##ball
spending
failed
remo
forward
jail
king
oregon
points
##ularly
quebec
ii
hy
port
##care
deg
recent
lay
anim
churches
conn
idi
##isions
husb
drop
ep
washing
##umm
avail
bc
lg
forced
terrorists
nons
role
create
clean
language
held
brought
benefit
40
##lement
drive
study
unfortunately
piece
ontar
pet
sometimes
##ises
defend
demonstr
particular
##kn
throw
source
innocent
signific
provin
##raph
##cy
##ey
##lical
carry
type
prison
votes
dangerous
serve
russian
ine
cele
message
##erate
ur
ge
surv
exam
anal
sect
consci
scient
spent
century
##fort
##edi
mentally
##azy
##inated
##set
secret
violent
fre
tem
ess
outr
advoc
terms
gov
thinks
##room
transg
respond
fill
jap
personally
##acter
quick
lawy
discrimination
minor
amaz
celebr
fasc
alleg
concept
lots
japan
exe
##aging
##ero
cultural
writ
knowledge
vo
racial
near
proof
##irm
##very
hol
lying
mostly
parish
ontario
cop
shar
##icted
reform
claims
terrorism
collect
pict
##uments
fundament
whom
princi
push
determ
journ
neighbor
prevent
late
##oses
##aries
parent
required
amount
institution
meant
##uel
funding
status
individuals
refugees
taught
member
third
regardless
occur
##aks
##itude
inj
toront
field
vide
##com
interp
emb
techn
##ox
solution
concerned
washington
movement
nonsense
##ression
minority
particip
places
luck
##und
debt
exce
##plic
depart
doctr
staff
character
lord
##arily
design
lif
daughter
bishop
##oad
stra
##akes
##isc
bush
ball
fel
stated
bat
benefits
mere
##olution
available
minister
impro
average
journal
blood
despite
appoint
##ails
lgbt
fault
insult
following
shut
saud
count
##ata
lady
progressive
##val
original
##dp
convers
towards
toronto
defense
##eal
laug
##bi
remind
kh
weak
reflect
smart
english
employees
hey
ridiculous
##path
##enty
connect
##ouch
##astr
##iated
pub
financial
##het
toler
appl
subst
usually
fit
##how
stories
##dom
equality
##ana
##gry
rates
beat
therefore
pi
affect
opportunity
##oken
##umn
16
##cing
rob
include
transgender
anch
hatred
straight
ver
supporting
turned
figure
##lying
note
##ival
ignorant
pm
crow
##ishing
incom
script
##uit
star
previous
charge
restr
alt
##osp
focus
wit
amend
##arc
narr
offer
saf
perm
##ij
extr
committed
boo
##more
acts
glad
##yle
lived
loss
nazi
zero
##orter
ignore
prem
interv
##enced
justin
pregn
became
anyway
myself
net
consequ
changes
##atory
appropri
approach
asking
anchor
arch
quot
hot
##ping
necessary
brit
##aa
thus
wear
sand
definition
debate
trou
wind
perform
wik
commit
playing
meas
##egr
impact
##archy
drugs
disg
phot
apolog
skill
built
intr
reven
programs
contro
##ification
ba
##ested
guil
##ma
disp
##bing
##lear
assume
husband
blind
column
isis
disapp
enforce
ped
vol
avoid
immedi
basis
putting
popular
misog
14
died
##uced
ideas
rent
##ners
skin
##ster
##aming
dut
fellow
palest
##epend
##let
earn
areas
##ession
manage
supreme
guilty
##key
17
mc
treated
interpret
ran
##ift
listen
13
corporate
##pan
purpose
hop
prior
##nn
latin
hosp
##lig
led
##ilities
bunch
divers
supremacists
independ
##vert
data
putin
appears
mal
##hold
parties
reasonable
safety
contract
anc
##aut
##pir
##others
african
articles
##ii
##know
##inary
resources
commission
standard
entit
veh
send
ens
##ension
dict
slavery
mand
jun
somehow
welf
letter
fully
recently
fundamental
educated
daily
phil
illness
players
healthcare
mentioned
cust
welfare
supported
promot
matters
easily
prove
host
waste
roman
##uing
altern
integr
addition
supremacist
virt
##greg
normal
witness
organization
init
##illy
asian
comb
energy
reported
divor
##ship
##ode
##ugg
ability
##ucture
##ls
mart
decisions
iran
uk
##outh
evange
brother
secular
teachers
aware
##nic
ul
driving
chief
ira
cops
conflic
happening
profit
unlike
constr
execut
indic
anchorage
korea
instit
identity
ak
enem
liter
gain
admit
raise
clergy
influence
patri
tra
##ulations
international
eug
alco
acknow
amendment
shall
prose
baby
beaut
command
alcoh
site
seeing
senate
proud
saudi
ideology
vac
##anda
hurt
bott
##iced
##uclear
propag
sides
perpet
##usion
##umpt
posts
moment
gays
statements
basic
##ding
citizen
receive
border
goog
hours
##tw
counter
nazis
caused
logic
##ocked
##aft
passed
results
nuclear
select
gives
##amm
door
weapons
60
writing
decided
##ophobia
space
specific
vehic
je
##iff
standing
fighting
tv
draw
prices
uns
sens
wild
##anted
interests
##cise
emot
##ancy
##itely
##arian
effort
privilege
##light
##port
##essed
minim
brown
key
communities
appre
err
subsid
iraq
welcome
eu
paper
teachings
video
green
particularly
syria
tend
significant
five
nut
##lusion
failure
opinions
traditional
belong
hundreds
##bc
gar
##ays
interested
french
investigation
hier
grad
twe
experi
btw
##erg
dism
ignorance
ach
negative
mad
growing
mouth
fan
reve
21
mayor
##anced
worry
decide
cities
religions
knowing
##ograph
travel
disgust
##ground
refuse
fat
##eth
governments
##ored
accompl
##raid
positive
apply
review
##ube
conte
humans
mos
deserve
##yc
reach
##iful
summ
##iny
career
ren
hero
meth
##ds
dad
afraid
excell
nearly
feed
cab
##esh
germany
surprised
jer
apost
##tm
##kk
racists
degree
##verse
gold
attend
valid
growth
angry
yout
wearing
alaskans
student
eyes
appreci
raised
park
credit
diversity
county
##iers
trib
##uous
##ann
development
meeting
##ban
keeping
spiritual
homes
learned
##icking
criminals
elim
##aced
opposed
condemn
##aling
##erson
greater
##cript
touch
seek
##ference
2015
harass
damage
##estic
protection
hasn
currently
related
scand
google
bern
##odox
plus
usual
##urs
document
bigotry
eugene
##oser
marg
center
rock
plenty
bias
196
squ
##hib
##acher
legit
okay
mine
vast
joke
picture
abort
##iring
cate
##omm
assist
excuse
minorities
context
athe
cash
ndp
notice
various
rational
achie
mich
fast
reb
funds
alcohol
six
htm
ethnic
##ha
custom
proven
physical
events
retire
shooting
geor
##iate
cardinal
gary
fired
possibly
wer
compar
calls
maintain
taxpayers
##uted
caught
bear
chose
##pective
##gh
anymore
##bit
seat
quote
doctrine
cars
theology
##ester
ali
intent
biggest
sales
wide
##icide
generation
tit
##istan
intellect
goal
highly
alber
##ips
##work
officers
topic
publish
##isters
spread
showing
##iple
candidates
punish
accur
recall
continues
africa
##ength
prayer
feminist
strate
moving
received
kkk
propaganda
broad
increasing
aud
dream
ang
accus
accused
positions
waiting
eat
##ulate
weren
24
##icit
governor
##thood
laugh
tour
model
eye
ken
excellent
compass
department
##alty
allowing
70
orth
consist
amazing
bother
traff
odd
businesses
90
om
mexico
sanct
deny
199
snow
##uries
##ape
provided
##ulated
bes
##rees
tex
du
standards
massive
evangelical
sentence
successful
missed
cris
##ki
corruption
pure
starting
directly
ncr
fort
##onic
visit
resist
european
ahead
nom
lets
budd
recognize
merely
pap
wed
becoming
sle
apart
##izations
convin
opposite
leaving
cow
mort
crazy
planet
double
definitely
orthodox
##bed
##ille
honor
##ceed
adop
watching
opposition
levels
stopped
irre
comfort
vanc
hopefully
##encies
slow
fly
##char
politically
##ounts
dav
##ifying
grab
sun
diss
editor
engine
##he
fbi
kept
consequences
palestin
believes
vancou
sadly
##entially
mail
choices
suffering
armed
wage
##orse
##isy
posted
improve
crisis
##iet
##to
anybody
circum
immediately
reaction
losing
parts
##ney
vancouver
##zz
entr
compared
surely
pf
critical
page
##enous
strugg
80
dark
rise
powerful
displ
expensive
replace
attract
outrage
season
potential
books
bottom
wars
generally
forgot
dir
unw
fox
terrible
reporting
beginning
statist
silly
mid
intelligence
idiot
attitude
youtube
ele
helping
continued
limit
##ictions
hardly
mistake
burn
exer
sympath
extremely
frank
included
##mas
legislature
catholicism
constitutional
domestic
##olf
shown
agreed
##ama
hispan
removed
anywhere
##well
changing
voice
crowd
der
rhet
tough
senator
dollar
indig
doctor
multiple
500
eventually
conscience
conversation
plain
##ague
##lo
##while
limited
trouble
literally
##ties
officer
purch
perspective
felt
esc
weeks
extra
rhetor
track
tells
enforcement
elections
disci
bs
##ried
##idency
ready
includes
##book
##iment
ded
pries
##udes
courts
appropriate
priesthood
##erve
studies
entirely
tom
farm
prime
equally
sources
district
wealthy
interview
bed
##ifically
coverage
served
##oles
training
revenue
forces
yours
pan
##ading
fraud
lob
advant
everybody
cares
hypocrisy
missing
streets
compassion
hang
nfl
search
lic
##verty
professional
cens
acad
poverty
occup
deli
suffer
vs
cast
dumb
names
quality
##cer
suppose
looked
typical
worship
teacher
sector
wonderful
math
stick
tired
saving
heaven
##oon
join
accepted
embarr
academ
protected
jump
anth
basically
aid
hall
legislation
indigenous
bought
swe
historical
moved
behavi
##bon
clue
british
##lier
cry
autom
pack
stock
internet
##ously
owned
efforts
argue
##uctive
committ
helped
officials
aust
rare
neighborhood
embarrass
drunk
negot
hitler
charged
conflict
asse
sports
##oked
##iant
presidential
##ov
##ole
##ado
expected
cler
surr
ourselves
holding
attacked
##aled
club
##ressed
html
selling
scr
constit
litur
defending
consum
sain
doctors
charges
traffic
kick
incident
gang
plat
intention
residents
japanese
ult
investment
arabia
repeated
examples
alternative
mach
neo
reports
football
herself
##ounded
russians
disgusting
serving
buying
youth
dress
mercy
blow
relative
desire
remove
island
newsp
heads
effective
scripture
lock
claiming
percentage
tim
skills
scandal
george
##aker
played
refused
cheap
incompet
mir
version
beautiful
##ocks
persons
supports
core
##ager
slaves
separate
hide
dogs
##iveness
##la
background
planned
murdered
becomes
teen
analys
confirm
##vey
highest
##wood
##enn
billions
reduce
symb
fish
considering
vet
myth
offensive
198
cake
presidency
older
denver
increased
conduct
trial
utter
adults
quickly
mix
hierarchy
alberta
ice
##acare
emp
showed
label
executive
mary
##inc
##atch
##wards
primary
hospital
mel
quit
##ucks
insist
throughout
corporations
fle
voter
sexually
dele
unb
sexist
dealing
politician
eg
lands
##iles
aggress
leading
ny
shop
##here
driver
entitled
22
##itarian
below
sharia
##ams
suicide
disres
loved
embr
requires
abus
drink
bomb
disrespect
##ights
carbon
foundation
soul
ni
discover
bag
##uf
specifically
tick
intended
##aid
##non
##erous
##imately
##osen
abortions
##jud
surprise
dismiss
jack
##arant
pros
deport
##vin
loving
agreement
duty
##ols
dont
obamacare
minds
management
##ients
likes
attorn
decent
mission
writer
narrative
hire
##iped
pull
animals
##iar
trumps
##ahah
coal
na
webs
##acept
acceptable
##ease
contracept
bringing
criticism
pipe
##eel
##oring
independent
##af
liar
acting
thoughts
complex
faithful
york
##izes
guarant
owner
engage
circumst
##50
##aded
blm
spot
##iled
publicly
morning
communion
##ushing
##agan
##ogue
followed
followers
burke
option
conditions
deaths
197
believed
concerns
##uary
clar
##ville
incor
plans
mater
identify
##inating
winning
earlier
orders
gradu
##ront
##athers
box
types
##ked
perman
infr
section
analysis
exists
prepar
irrele
theory
##gment
lawyers
##umption
aside
##enders
david
somewhere
mov
hmm
offered
desper
funded
depend
fought
mcc
##ables
charl
rome
communic
humanity
bapt
##icient
##asion
compr
easier
qualified
calif
estate
organizations
referring
##anch
causes
settle
empt
imposs
remains
encourage
games
rig
alive
bigger
constant
dig
##ented
##ores
pride
protestant
volun
##asty
##ago
uh
bath
labor
rout
##ron
##ums
unp
advantage
greed
trash
promote
pathetic
hair
females
bankrupt
online
adn
##airs
roy
##ici
content
##stream
dish
table
##ique
react
justify
relevant
rhetoric
##eless
californ
aspect
dear
applic
practices
broken
ignored
motiv
##ached
subm
balance
lawyer
##men
##adr
upset
besides
gent
image
spin
recomm
horrible
alleged
bernie
southern
##gu
##yr
round
sister
vul
canon
##ocking
oblig
electoral
arms
hack
##eration
##istry
##ustr
##andon
unre
creating
##orders
elsewhere
arrog
purs
method
final
guard
regular
protecting
divorce
lear
impossible
flu
centuries
taxpayer
clerical
##oler
chic
prohib
##ray
##den
style
legally
solid
prosecut
uses
contact
courage
capt
##dden
forever
##iance
twice
instr
fortun
##ih
sudden
immigrant
supremacy
committee
learning
heter
pfd
bib
##seless
advice
colorado
sitting
dece
blue
partis
inher
headline
##ophobic
challenge
inside
capable
dioc
garb
##reh
minutes
ordained
##ze
france
colon
army
intelligent
institutions
sund
direction
unions
everywhere
providing
healthy
firearm
industr
##mod
wanting
largest
hearing
soldiers
scientific
posting
california
lines
##inger
ended
added
divine
technology
cabin
lau
##oking
##atically
irrelevant
minimum
appreciate
orient
manner
disorder
bless
##ufact
eld
##ms
transl
material
perse
troll
manufact
systems
accurate
infrastr
bannon
differences
informed
acknowledge
##itable
chosen
resident
conclusion
cuts
era
fuel
tact
cold
phone
equival
nu
rat
ug
veter
seeking
feeling
infrastructure
somebody
screw
dump
indian
environmental
handle
##whel
mainstream
##uana
amb
conspir
date
vill
##back
marij
##iday
speaks
feelings
creation
bod
cam
hind
##off
walking
reference
euchar
propos
dial
pence
disaster
schol
natives
breath
code
via
leftist
alaskan
central
dim
spl
anger
crap
presence
stands
fant
##outs
active
prejud
wise
closed
strength
catch
retirement
wake
deliver
sacrament
jim
##astic
music
pretend
larger
excl
destruction
marijuana
abandon
##ounce
eastern
designed
##just
feet
began
##ipping
##ests
blaming
claimed
activity
##tery
dems
institutional
khadr
migr
##ael
appeal
condition
babies
sir
complic
##tered
filled
##cription
##itation
comey
##stood
chap
##town
##ipped
title
kl
intoler
readers
confused
judges
perfectly
lu
greatest
shel
ride
overwhel
root
implement
covered
pock
##aked
##iable
abused
##aining
resign
accommod
cel
asia
arguments
enemy
peoples
consent
advis
misogyn
rally
frequ
peter
ladies
size
assert
electric
favour
mut
##ller
comput
strange
warming
##icks
finding
mike
loy
incred
afgh
##ucing
oppose
joe
ordination
keeps
loud
##dr
##mp
province
##icial
manip
##ifice
syn
pointed
turning
##arter
##acity
##ders
##iling
##uded
aca
interpretation
##onna
promise
largely
##ched
suggesting
ya
##owers
supply
contrary
minded
photo
impl
semit
sanders
editorial
35
cnn
kim
yester
driven
scream
attacking
wages
##hh
##rain
employment
doz
measure
yesterday
named
voc
homosexuality
vehicle
revolution
affordable
circumstances
coach
store
adul
gather
notion
destroyed
laity
bound
pregnant
behaviour
website
##dy
morality
##eness
ott
##ss
garbage
leads
allows
divid
achieve
flat
established
##gregation
threats
susp
austral
defe
islamophobia
extremists
battle
philos
afghan
##20
thom
sole
generations
explo
cancer
hi
##inct
##ander
sins
slave
##bish
##enses
roll
arrested
walker
pc
tort
tiny
reply
communist
confed
banned
legitimate
ec
recon
june
statistics
empty
cabinet
entertain
fathers
23
tear
##usal
block
brothers
profession
feminists
establishment
published
mob
meanwhile
listening
origin
sacrifice
fascist
ale
weapon
accomplish
conven
grace
admitted
facebook
celib
##cks
##opath
lied
comparison
sar
twit
##standing
##ipedia
chicago
unem
feels
employee
universities
described
##itudes
pra
jan
societ
fans
describe
cell
##ino
flo
situations
wikipedia
##iders
##illing
cru
pointing
sett
##orrow
##fs
##wide
##isa
blog
expand
##apped
pedoph
athlet
perpetr
permanent
unemploy
nasty
unfair
salv
principles
##cution
india
categ
attorney
rural
saved
presum
introd
display
##mber
##ky
##yny
drag
smaller
potus
ensure
conference
commer
viet
cardinals
credibility
sunday
james
##aur
curious
promises
animal
tweet
michael
rub
##ste
flood
sexuality
peaceful
jp
liberty
register
charity
speed
heck
strategy
##qab
##essions
useful
phr
solve
existence
punishment
pipeline
##place
cultures
hawaiian
##lers
##omin
contrad
regime
hateful
teaches
misogyny
sleep
##yl
ash
denied
##orid
##itors
##idel
downtown
thousand
necessarily
philosoph
300
plant
charter
convicted
release
activities
niqab
dying
rc
noticed
gotten
mothers
##hab
socialist
dirty
##ater
##otic
##uls
procl
##ception
drivers
raped
jeff
comprom
bure
print
outcome
text
expense
irr
##icated
rejected
platform
bathroom
sisters
legislators
existing
texas
promised
superior
associated
integrity
martin
##ctr
##ceived
christmas
signed
##arth
sexism
universal
developed
delib
lyn
##ax
##idge
##urd
supporter
numerous
raising
newspaper
borders
broke
spoke
proposed
latest
protesters
harassment
exercise
dishon
din
##wor
disease
overt
ugly
closer
ignoring
damn
les
ange
factor
signs
function
approval
construction
forcing
production
progressives
conspiracy
gee
hr
accident
younger
kingdom
hoc
max
flaw
genoc
theolog
scen
honestly
bureau
narc
pushing
brand
feminism
expression
##rep
soft
spring
repr
recover
poorly
imper
essentially
intellectual
ber
gonna
##bling
##inform
##isf
##gin
impe
letting
substant
thread
##ulf
coast
instance
##ught
bills
colour
ethics
pig
##okes
##bert
firm
projects
partisan
##ivity
righte
ends
defined
judgement
survive
vision
##point
unable
sake
reporter
understood
motion
cree
##auc
citizenship
eight
fet
pac
##abled
##idden
biased
cd
nav
threatened
45
##icious
suit
##ounced
denial
assuming
gift
ri
##ae
##mon
##icing
marry
##ountain
lucky
eucharist
wis
##awa
quiet
busy
lobby
forb
sust
overwhelming
2nd
wyn
##uting
coff
##rd
grown
forms
dign
ought
##ifies
cool
pays
disappoint
biblical
river
illegally
observ
guilt
houses
penalty
experienced
faces
controlled
wood
##nc
puts
fewer
increases
domin
noted
effects
incorrect
bare
##itals
disgr
series
ownership
esp
openly
daughters
polls
silence
dan
##och
smoke
##ahu
released
righteous
msm
hired
inqu
suck
grade
sam
judgment
teams
pressure
determine
connection
protesting
ordinary
careful
master
##mb
twist
appointed
disappear
afghanistan
tun
##iety
scre
homosexuals
objective
##oom
trip
advert
beings
constantly
expert
##ashed
properly
28
planning
breaking
association
anthem
pill
blat
demands
elite
antif
affirm
stage
acqu
oppon
popes
##lin
parli
slight
2014
watched
##asy
fees
minute
worthy
roads
prepared
99
ven
shr
starts
accountable
fisc
onto
till
turns
exclus
lisa
##rel
##ains
loves
confront
harder
parliament
##eds
sees
posters
profits
produce
emotional
error
exception
prayers
ancest
twitter
##yan
palestinians
movie
dude
rein
throwing
agencies
decade
pension
precise
answers
wedding
##stein
jose
useless
marx
region
failing
lifet
hispanic
depl
sea
##iev
poster
gut
##nes
chair
repeat
iv
##arks
compare
dogma
hoping
##bar
##ka
brut
info
troops
merit
deeply
accusations
trail
spons
compreh
exposed
arabs
tolerance
sites
allies
##cient
badly
reduced
predict
stere
setting
advocate
rand
infer
##uma
##unt
restaur
cbc
cauc
offended
matth
banks
professor
details
liturgy
eh
##inity
preach
protests
involve
ble
boss
item
richard
additional
contraception
vietn
concl
regards
focused
pregnancy
enemies
crum
remark
deficit
##resp
bodies
stuck
##ancing
passing
cyc
##porary
severe
grew
##ec
provides
advance
narciss
matthew
forum
attempting
recommend
hockey
documents
products
nk
##hen
managed
##oster
ministry
classes
summer
repeatedly
bond
range
##aire
forth
lifest
naive
accounts
differently
stereot
27
bow
lane
##ius
exch
causing
picked
participate
comfortable
bub
deflect
seemed
neighbors
earned
##aces
congr
approved
represents
deserves
mac
##ias
thug
absurd
cutting
combat
wynne
email
virtually
mortg
thomas
kinds
sheep
compens
refugee
ss
records
wiki
##ule
cloth
drinking
satisf
truck
implic
overall
insane
##riend
neighbour
suddenly
cas
wives
tele
believing
decline
match
transport
possibility
deac
pastor
##nel
##ung
clown
offense
explan
applied
chem
volunte
mic
reagan
##ivil
urban
entry
nope
##othing
sky
heavy
dictators
cod
compl
crack
intim
span
bully
morally
leaves
promoting
bened
cart
##encing
succeed
mol
##ris
gree
cha
ship
determined
emph
testament
scary
##onym
coop
freedoms
sacred
limits
##owski
occurred
license
dishonest
sending
##ef
##aments
league
runs
director
addressed
ultimately
aim
hiring
mountain
demograph
mont
nationalist
genocide
##head
cleric
fairly
deplor
##orough
##owed
virgin
dropped
parenthood
eliminate
fash
counsel
nowhere
denying
buildings
trained
multi
##ihad
agency
sport
latter
magister
demanding
scientists
##under
computer
los
warm
uncivil
idiots
assad
helps
substance
00
prost
presented
heterosexual
ital
shared
allah
kelly
senior
attempts
provincial
os
obtain
structure
assess
illegals
atheist
bureaucr
sessions
presidents
define
regulations
discour
benedict
dare
jihad
wo
gross
israeli
faced
##going
acknowled
##iat
##bl
##ns
elder
exempt
receiving
relationships
vehicles
reprod
covering
complaining
mexicans
adopt
warning
capacity
familiar
initi
frankly
ottawa
##icip
##illion
lesson
radio
contribute
silent
vulner
fashion
tens
secretary
cub
hence
seven
continuing
salary
foolish
##coming
##ett
weight
parag
##ailed
slaught
retired
destroying
ukrain
worried
options
mexican
strict
miles
placed
incompetent
scholars
##ws
##orate
bell
##acle
partner
##gypt
recognized
mirr
##uits
##aning
enlight
sav
arrest
logical
consistent
egypt
##ternal
carrying
revel
emerg
advent
performance
hij
##ounding
194
swamp
species
steal
authorities
wisdom
antifa
##abb
parking
depends
extremist
principle
yep
##uther
draft
immoral
huh
employer
writers
26
granted
thrown
holly
injust
lifetime
rating
orange
##ques
races
charles
ruling
ske
wash
emails
annual
apologize
phrase
baker
##inent
##plom
archbish
recru
extent
2000
facing
opportunities
mistakes
discipl
hug
##aken
player
surprising
declared
syrian
applies
snowfl
purchase
aug
sharing
couples
insp
physically
bigoted
attrib
ben
stood
sinc
portland
bon
golf
stal
resol
irish
lgbtq
sincere
hiding
mun
##itz
uncon
spoken
talked
alien
bob
scot
talks
suggests
replaced
apostles
theological
##urally
bron
convention
distur
proclaim
une
saint
salvation
precisely
gard
pand
burning
diplom
dialogue
fiscal
luther
traged
solutions
referred
assistance
nun
##orig
evident
##icts
ending
stats
##ker
tow
falling
deals
meat
straw
founded
accepting
journalism
lesb
fif
lazy
##erved
##ality
##itage
brings
believers
worker
statues
threatening
ticket
band
##erry
##ulu
directed
senators
controvers
1st
element
##ston
evol
##cious
powers
##esis
asians
##akers
reminds
##mo
##gan
##che
delus
proceed
brag
popul
##what
strongly
celebrate
##esville
kevin
tool
wins
emphas
dest
##law
##post
##osure
reput
##issions
##ashing
representative
condemned
dignity
lifestyle
##field
##uine
aborig
clin
clothing
division
organized
academic
orientation
stri
meetings
distrib
pushed
mosque
hollywood
3rd
picking
murders
sb
heritage
##lessly
nationalists
camps
coward
##bart
champ
##thy
buff
disgrace
dnc
pil
habit
trick
sover
somewhat
evolution
essential
ancient
excess
revealed
hal
##ham
##face
##pper
boom
hole
pleas
steve
firearms
paragraph
##ania
stating
scale
stupidity
entering
##eer
##do
toxic
remarks
genuine
2013
loose
fell
refusing
identified
rough
retr
strike
charlott
roles
van
chick
seats
offering
fails
hearts
walked
expressed
##ho
##ya
##ica
thats
impose
smell
affairs
shooter
sovereign
ain
unity
unique
burden
medicine
fundamentalist
negoti
airl
bay
empath
corner
virtue
joy
irony
experts
victory
murk
assaulted
criticize
renew
australia
joseph
mandate
##lu
embrace
ju
consult
employers
supposedly
medicare
horse
##itical
flight
legacy
request
evangelicals
struggle
charlottesville
cite
lou
trig
figures
film
hyper
square
aggressive
vulnerable
oce
##ses
avo
temper
sympathy
##ba
##bel
##rant
##entr
deem
##agn
ram
##ids
bright
oppression
correctly
awful
competition
requirement
##anny
web
moderate
##time
##alling
##soever
scar
dividend
rot
##oul
proced
univer
hospitals
archbishop
sight
weather
grave
assumption
wondering
medicaid
rarely
scenar
jur
sarc
choosing
stem
whenever
cruel
winter
estim
150
korean
equivalent
ego
##eing
##alu
boat
bike
song
cant
frustr
partners
sacraments
constitu
prosper
75
bog
eating
file
ton
##onald
writes
robert
economics
primarily
conscious
pd
wave
xen
##side
weird
friday
##orted
willi
knee
relatively
##ries
perceived
territ
campus
friendly
desperate
explanation
##owing
ages
##agers
traitor
catech
buck
loser
##11
##vi
goods
irrational
murkowski
gh
qur
tree
##asm
attitudes
regularly
kidding
socialism
vietnam
sale
unne
grant
##igned
attended
sinful
mainland
pulled
##gs
liked
goodness
##ressive
transpar
apology
earning
industrial
prejudice
whatsoever
bigots
conclus
suggested
capitalism
400
ongoing
wein
shout
##ils
infall
patients
weekend
haters
satan
empire
camer
task
ther
##oning
##cip
handed
opening
correctness
##appropri
balanced
marginal
symbol
universe
##atures
##ada
contem
educate
divide
markets
doug
il
##eria
whining
stone
gotta
discriminate
forgotten
reward
shir
proves
blessed
simpl
civility
govt
##da
factors
iron
repeal
fixed
tragedy
##house
##real
cheaper
concerning
diverse
unfortunate
allegations
##acing
branch
stephen
hotel
nyt
societies
##iest
bears
##ulating
##aste
##asters
cro
crying
activists
affected
palestinian
cup
dub
overse
struct
plays
breit
veterans
sarah
exchange
##ycl
justified
kneel
imo
payer
inclus
existed
northern
heavily
machine
neut
load
underm
violation
gospels
encouraged
britain
diocese
ow
pak
##ume
donations
mas
portion
cance
smoking
proportion
memory
credits
bullying
experiences
fulf
##ipe
beating
disabled
cannab
accountability
targeted
separation
narrow
junior
sanctuary
philosophy
breitbart
29
finger
ramp
##eid
paran
masses
privileged
photos
strateg
ashamed
rain
##my
##esy
description
investors
khan
buddh
##gers
concentr
transfer
plane
acceptance
convinced
savings
mortgage
ideal
holds
parishes
ballot
thin
stol
##acted
brill
quarter
glass
arguing
representatives
sustain
tab
##omfort
commenting
bask
193
effectively
stret
intimid
gap
nra
rant
zeal
disrupt
consens
discern
fields
athletes
##ching
fee
feds
commercial
aparth
souls
opened
verb
previously
customers
assemb
##inge
stress
addiction
survey
colleg
encoun
##alled
spew
cert
johnson
insulting
engineering
brave
engaged
2008
episc
demonstrate
episcop
rush
yell
myst
honol
suffered
credible
wishes
typically
magisterium
dc
conver
everyday
##angers
letters
emergency
isol
manif
##berg
adding
secure
employed
favorite
degrees
fascism
quotes
emotion
alex
kor
##ien
##gar
##att
helpful
civilians
aka
pakistan
apartheid
theft
spr
poison
##roll
behalf
treason
honolulu
oct
##sters
magn
committing
selfish
pictures
laughing
adultery
##ota
##oln
fresh
england
1000
journalists
dimin
linc
##bled
caring
profound
importance
swed
divorced
wil
unac
bridge
cook
facilities
premium
deliber
##inction
inappropri
surg
provinces
confederate
lincoln
hating
##oca
insight
depression
patr
accomplished
award
##acies
goals
lee
columb
pretending
personality
stolen
##eed
thir
blah
brief
obey
remote
2012
biological
resource
65
##ios
tob
station
approve
mccain
48
dar
ryan
##down
doors
offers
wwii
breaks
europeans
losers
vit
yr
##umen
realized
famous
mentality
##hamm
stance
listed
forgiveness
mixed
stereotyp
hates
sull
unif
preced
parade
household
bubble
unnecess
gir
rab
##pass
reasoning
##ondon
excuses
unlikely
convince
cp
lun
##agon
quo
indo
transit
headed
ironic
pastoral
compromise
bread
ties
beach
subsidies
arrogant
chemical
cannabis
##ocaust
flying
london
##rich
conce
obstr
harb
pupp
ethical
measures
audience
congrat
elderly
amounts
plants
schem
##ifications
viewpoint
ceo
hunt
declar
solely
##ches
misle
holocaust
nix
##bur
nove
carried
roof
legislative
gal
##isive
pron
trend
segregation
##pped
paris
perpetu
november
##row
##kel
suggestion
attempted
turkey
commandments
abusive
barely
lunch
naft
heat
sher
elites
##riages
shootings
versus
unbel
thugs
jr
rcc
##oly
endors
##inging
conqu
dispar
blank
##izz
gras
payments
checks
produced
internal
returns
delay
fab
storm
##anged
respected
labour
steps
purposes
intolerance
montreal
##cos
##ware
carefully
network
shelter
nafta
##awn
scared
morals
consideration
ruled
instruct
colonial
trigger
ric
##ym
talent
195
capit
injustice
basket
ted
##oned
contempt
commentary
ministers
stealing
shameful
historically
seattle
cycle
ka
pitch
beer
##illed
warri
priority
civilization
switch
inflation
queen
permit
laun
proposal
fantasy
frequently
august
uniform
cu
hil
resur
opposing
commitment
adopted
loyal
clerics
aboriginal
um
dod
##antic
safer
workplace
serves
endless
glor
conviction
atheists
gentlem
hated
shocked
resc
firing
sociopath
islamist
treating
motor
checked
devil
hispanics
unemployment
33
ts
##lines
##rist
##vent
##ibilities
spouse
pool
sooner
grounds
reconcil
vig
refuses
discussed
represented
links
fools
challenged
aliens
tactics
##put
##educ
chin
humor
memor
calc
demonstrated
tweets
kiss
mp
adam
scene
##bell
##ews
florid
addressing
meaningful
analog
vacation
disciples
forest
evalu
authoritarian
operating
nuts
assets
spanish
##roc
##isons
inner
manager
valu
residential
brilliant
##kind
sue
resent
spo
incap
parks
injured
delusional
deliberately
dun
##itate
reverse
contributions
resistance
deme
hunting
satur
outright
voices
cul
msw
##kers
governing
decre
stopping
increasingly
coffee
conclusions
wolf
##ford
##urt
##ivan
lawsuit
airport
meaningless
koran
jones
tries
endorse
solar
ordered
immediate
biz
jury
yup
##nell
produc
explicit
##informed
ire
##ato
lift
adjust
impression
killer
pattern
returned
jerk
florida
bust
##life
##ini
##ona
incidents
laid
gains
pocket
nixon
##anes
##chan
trag
##ula
knights
emer
sadd
bombs
guarantee
gif
rif
tone
##ette
weed
libr
whoever
expenses
temporary
premise
rg
actively
invited
patriarch
impeach
scenario
dys
##emen
unh
scam
sched
millenn
advocates
restrict
hostile
blatant
##respons
##icable
dissent
##educated
32
##umber
##iel
requirements
advocating
collective
incredibly
tight
##oration
