{
  "version": "1.0",
  "truncation": null,
  "padding": null,
  "added_tokens": [
    {
      "id": 0,
      "content": "[PAD]",
      "single_word": false,
      "lstrip": false,
      "rstrip": false,
      "normalized": false,
      "special": true
    },
    {
      "id": 1,
      "content": "[UNK]",
      "single_word": false,
      "lstrip": false,
      "rstrip": false,
      "normalized": false,
      "special": true
    },
    {
      "id": 2,
      "content": "[CLS]",
      "single_word": false,
      "lstrip": false,
      "rstrip": false,
      "normalized": false,
      "special": true
    },
    {
      "id": 3,
      "content": "[SEP]",
      "single_word": false,
      "lstrip": false,
      "rstrip": false,
      "normalized": false,
      "special": true
    },
    {
      "id": 4,
      "content": "[MASK]",
      "single_word": false,
      "lstrip": false,
      "rstrip": false,
      "normalized": false,
      "special": true
    }
  ],
  "normalizer": {
    "type": "BertNormalizer",
    "clean_text": true,
    "handle_chinese_chars": true,
    "strip_accents": null,
    "lowercase": true
  },
  "pre_tokenizer": {
    "type": "BertPreTokenizer"
  },
  "post_processor": {
    "type": "TemplateProcessing",
    "single": [
      {
        "SpecialToken": {
          "id": "[CLS]",
          "type_id": 0
        }
      },
      {
        "Sequence": {
          "id": "A",
          "type_id": 0
        }
      },
      {
        "SpecialToken": {
          "id": "[SEP]",
          "type_id": 0
        }
      }
    ],
    "pair": [
      {
        "SpecialToken": {
          "id": "[CLS]",
          "type_id": 0
        }
      },
      {
        "Sequence": {
          "id": "A",
          "type_id": 0
        }
      },
      {
        "SpecialToken": {
          "id": "[SEP]",
          "type_id": 0
        }
      },
      {
        "Sequence": {
          "id": "B",
          "type_id": 1
        }
      },
      {
        "SpecialToken": {
          "id": "[SEP]",
          "type_id": 1
        }
      }
    ],
    "special_tokens": {
      "[CLS]": {
        "id": "[CLS]",
        "ids": [
          2
        ],
        "tokens": [
          "[CLS]"
        ]
      },
      "[SEP]": {
        "id": "[SEP]",
        "ids": [
          3
        ],
        "tokens": [
          "[SEP]"
        ]
      }
    }
  },
  "decoder": {
    "type": "WordPiece",
    "prefix": "##",
    "cleanup": true
  },
  "model": {
    "type": "WordPiece",
    "unk_token": "[UNK]",
    "continuing_subword_prefix": "##",
    "max_input_chars_per_word": 100,
    "vocab": {
      "[PAD]": 0,
      "[UNK]": 1,
      "[CLS]": 2,
      "[SEP]": 3,
      "[MASK]": 4,
      "!": 5,
      "\"": 6,
      "#": 7,
      "$": 8,
      "%": 9,
      "&": 10,
      "'": 11,
      "(": 12,
      ")": 13,
      "*": 14,
      "+": 15,
      ",": 16,
      "-": 17,
      ".": 18,
      "/": 19,
      "0": 20,
      "1": 21,
      "2": 22,
      "3": 23,
      "4": 24,
      "5": 25,
      "6": 26,
      "7": 27,
      "8": 28,
      "9": 29,
      ":": 30,
      ";": 31,
      "<": 32,
      "=": 33,
      ">": 34,
      "?": 35,
      "@": 36,
      "[": 37,
      "\\": 38,
      "]": 39,
      "_": 40,
      "`": 41,
      "a": 42,
      "b": 43,
      "c": 44,
      "d": 45,
      "e": 46,
      "f": 47,
      "g": 48,
      "h": 49,
      "i": 50,
      "j": 51,
      "k": 52,
      "l": 53,
      "m": 54,
      "n": 55,
      "o": 56,
      "p": 57,
      "q": 58,
      "r": 59,
      "s": 60,
      "t": 61,
      "u": 62,
      "v": 63,
      "w": 64,
      "x": 65,
      "y": 66,
      "z": 67,
      "~": 68,
      "¡": 69,
      "£": 70,
      "¤": 71,
      "¦": 72,
      "¨": 73,
      "ª": 74,
      "«": 75,
      "®": 76,
      "°": 77,
      "º": 78,
      "œ": 79,
      "α": 80,
      "β": 81,
      "γ": 82,
      "δ": 83,
      "ε": 84,
      "ζ": 85,
      "η": 86,
      "ι": 87,
      "κ": 88,
      "σ": 89,
      "τ": 90,
      "υ": 91,
      "ω": 92,
      "–": 93,
      "—": 94,
      "’": 95,
      "“": 96,
      "”": 97,
      "‡": 98,
      "…": 99,
      "‰": 100,
      "€": 101,
      "##u": 102,
      "##z": 103,
      "##a": 104,
      "##n": 105,
      "##e": 106,
      "##t": 107,
      "##r": 108,
      "##g": 109,
      "##o": 110,
      "##d": 111,
      "##i": 112,
      "##c": 113,
      "##l": 114,
      "##s": 115,
      "##m": 116,
      "##7": 117,
      "##3": 118,
      "##5": 119,
      "##y": 120,
      "##h": 121,
      "##p": 122,
      "##v": 123,
      "##k": 124,
      "##1": 125,
      "##f": 126,
      "##w": 127,
      "##0": 128,
      "##8": 129,
      "##6": 130,
      "##b": 131,
      "##x": 132,
      "##4": 133,
      "##q": 134,
      "##j": 135,
      "##2": 136,
      "##9": 137,
      "##œ": 138,
      "##°": 139,
      "th": 140,
      "the": 141,
      "##er": 142,
      "##in": 143,
      "##at": 144,
      "##es": 145,
      "##on": 146,
      "##en": 147,
      "##or": 148,
      "##ed": 149,
      "##ou": 150,
      "##an": 151,
      "an": 152,
      "to": 153,
      "##ing": 154,
      "##al": 155,
      "in": 156,
      "of": 157,
      "##ar": 158,
      "##it": 159,
      "##re": 160,
      "and": 161,
      "##as": 162,
      "##is": 163,
      "##ic": 164,
      "##om": 165,
      "##ion": 166,
      "##le": 167,
      "##ent": 168,
      "be": 169,
      "##ll": 170,
      "it": 171,
      "re": 172,
      "##ve": 173,
      "is": 174,
      "that": 175,
      "##ot": 176,
      "##st": 177,
      "##ly": 178,
      "##ow": 179,
      "##ut": 180,
      "you": 181,
      "##et": 182,
      "on": 183,
      "##id": 184,
      "wh": 185,
      "st": 186,
      "##ct": 187,
      "for": 188,
      "##se": 189,
      "##ro": 190,
      "##ad": 191,
      "##ld": 192,
      "##ur": 193,
      "##ay": 194,
      "##ch": 195,
      "was": 196,
      "##ce": 197,
      "##ig": 198,
      "##ver": 199,
      "##ir": 200,
      "he": 201,
      "##ation": 202,
      "we": 203,
      "##im": 204,
      "##am": 205,
      "are": 206,
      "##th": 207,
      "ha": 208,
      "as": 209,
      "##ith": 210,
      "##ter": 211,
      "sh": 212,
      "##ol": 213,
      "##il": 214,
      "they": 215,
      "with": 216,
      "pro": 217,
      "##est": 218,
      "##ess": 219,
      "se": 220,
      "de": 221,
      "##ke": 222,
      "con": 223,
      "##ers": 224,
      "##ment": 225,
      "##ill": 226,
      "##ul": 227,
      "fr": 228,
      "##ere": 229,
      "ne": 230,
      "have": 231,
      "##op": 232,
      "go": 233,
      "ch": 234,
      "not": 235,
      "at": 236,
      "do": 237,
      "##nd": 238,
      "##and": 239,
      "##ould": 240,
      "com": 241,
      "su": 242,
      "##ate": 243,
      "or": 244,
      "##igh": 245,
      "##ant": 246,
      "##ge": 247,
      "##ain": 248,
      "li": 249,
      "##od": 250,
      "ex": 251,
      "but": 252,
      "##pp": 253,
      "kn": 254,
      "##ac": 255,
      "##ies": 256,
      "by": 257,
      "##ist": 258,
      "##us": 259,
      "ye": 260,
      "there": 261,
      "##ab": 262,
      "pr": 263,
      "al": 264,
      "tr": 265,
      "##ust": 266,
      "##ore": 267,
      "##ity": 268,
      "##ort": 269,
      "know": 270,
      "ab": 271,
      "from": 272,
      "##ome": 273,
      "so": 274,
      "##mp": 275,
      "##ost": 276,
      "##if": 277,
      "##ive": 278,
      "##ight": 279,
      "le": 280,
      "##gh": 281,
      "uh": 282,
      "wor": 283,
      "me": 284,
      "this": 285,
      "##out": 286,
      "##ally": 287,
      "##ard": 288,
      "can": 289,
      "##iv": 290,
      "##os": 291,
      "##all": 292,
      "##ie": 293,
      "##ap": 294,
      "##ud": 295,
      "man": 296,
      "##un": 297,
      "en": 298,
      "all": 299,
      "##art": 300,
      "##um": 301,
      "##ect": 302,
      "sp": 303,
      "##our": 304,
      "##ough": 305,
      "pl": 306,
      "his": 307,
      "ma": 308,
      "##el": 309,
      "ar": 310,
      "##au": 311,
      "had": 312,
      "has": 313,
      "one": 314,
      "were": 315,
      "##qu": 316,
      "##ast": 317,
      "like": 318,
      "##end": 319,
      "out": 320,
      "##em": 321,
      "un": 322,
      "pe": 323,
      "lo": 324,
      "about": 325,
      "sa": 326,
      "##one": 327,
      "if": 328,
      "bec": 329,
      "will": 330,
      "cl": 331,
      "##ok": 332,
      "##ous": 333,
      "their": 334,
      "ad": 335,
      "some": 336,
      "##ci": 337,
      "would": 338,
      "more": 339,
      "##ff": 340,
      "te": 341,
      "what": 342,
      "up": 343,
      "##act": 344,
      "##ice": 345,
      "tim": 346,
      "my": 347,
      "##ink": 348,
      "##ish": 349,
      "##ong": 350,
      "##ound": 351,
      "us": 352,
      "##ind": 353,
      "ag": 354,
      "just": 355,
      "##ions": 356,
      "##ib": 357,
      "##ack": 358,
      "##ople": 359,
      "##her": 360,
      "##ated": 361,
      "##ah": 362,
      "##iz": 363,
      "##oun": 364,
      "res": 365,
      "people": 366,
      "comp": 367,
      "gr": 368,
      "ac": 369,
      "them": 370,
      "##ther": 371,
      "##ause": 372,
      "##ure": 373,
      "year": 374,
      "##gr": 375,
      "don": 376,
      "no": 377,
      "work": 378,
      "##orm": 379,
      "##age": 380,
      "##ance": 381,
      "per": 382,
      "get": 383,
      "##ine": 384,
      "who": 385,
      "##ak": 386,
      "when": 387,
      "##ag": 388,
      "because": 389,
      "she": 390,
      "am": 391,
      "##ide": 392,
      "imp": 393,
      "well": 394,
      "##ans": 395,
      "yeah": 396,
      "think": 397,
      "been": 398,
      "exp": 399,
      "##ip": 400,
      "##ings": 401,
      "time": 402,
      "ev": 403,
      "inc": 404,
      "##ich": 405,
      "new": 406,
      "##ount": 407,
      "qu": 408,
      "##ence": 409,
      "cont": 410,
      "off": 411,
      "than": 412,
      "br": 413,
      "##ame": 414,
      "rep": 415,
      "##ations": 416,
      "fe": 417,
      "other": 418,
      "int": 419,
      "##ach": 420,
      "any": 421,
      "did": 422,
      "cr": 423,
      "over": 424,
      "##form": 425,
      "ro": 426,
      "##able": 427,
      "##ays": 428,
      "##ite": 429,
      "##ace": 430,
      "inter": 431,
      "co": 432,
      "##ue": 433,
      "##ck": 434,
      "her": 435,
      "##erv": 436,
      "car": 437,
      "ever": 438,
      "##ire": 439,
      "mu": 440,
      "its": 441,
      "how": 442,
      "dis": 443,
      "tw": 444,
      "##ub": 445,
      "##ult": 446,
      "##ose": 447,
      "most": 448,
      "##itt": 449,
      "##ery": 450,
      "app": 451,
      "##ary": 452,
      "good": 453,
      "##00": 454,
      "##so": 455,
      "##ree": 456,
      "bo": 457,
      "##wn": 458,
      "##ors": 459,
      "bu": 460,
      "po": 461,
      "##ry": 462,
      "part": 463,
      "act": 464,
      "##ber": 465,
      "##ade": 466,
      "your": 467,
      "##ign": 468,
      "could": 469,
      "19": 470,
      "##enc": 471,
      "##own": 472,
      "him": 473,
      "##ild": 474,
      "la": 475,
      "ta": 476,
      "which": 477,
      "dr": 478,
      "many": 479,
      "##reat": 480,
      "##hing": 481,
      "##ep": 482,
      "##uct": 483,
      "pre": 484,
      "##lic": 485,
      "##ia": 486,
      "sc": 487,
      "##lo": 488,
      "##ial": 489,
      "cent": 490,
      "said": 491,
      "##av": 492,
      "acc": 493,
      "##ass": 494,
      "##ical": 495,
      "##ments": 496,
      "ind": 497,
      "##fer": 498,
      "comm": 499,
      "##ens": 500,
      "only": 501,
      "##ied": 502,
      "every": 503,
      "see": 504,
      "af": 505,
      "want": 506,
      "now": 507,
      "##ase": 508,
      "##int": 509,
      "ve": 510,
      "str": 511,
      "gu": 512,
      "##ang": 513,
      "fo": 514,
      "very": 515,
      "##vel": 516,
      "mar": 517,
      "need": 518,
      "lot": 519,
      "##pt": 520,
      "serv": 521,
      "two": 522,
      "des": 523,
      "rec": 524,
      "right": 525,
      "##ory": 526,
      "may": 527,
      "into": 528,
      "##ents": 529,
      "##ates": 530,
      "##ond": 531,
      "bet": 532,
      "really": 533,
      "##ile": 534,
      "fir": 535,
      "##ition": 536,
      "should": 537,
      "also": 538,
      "und": 539,
      "these": 540,
      "##omet": 541,
      "##ian": 542,
      "years": 543,
      "sm": 544,
      "here": 545,
      "much": 546,
      "after": 547,
      "our": 548,
      "then": 549,
      "att": 550,
      "somet": 551,
      "col": 552,
      "##ty": 553,
      "look": 554,
      "thr": 555,
      "##og": 556,
      "fin": 557,
      "progr": 558,
      "under": 559,
      "um": 560,
      "mo": 561,
      "##ord": 562,
      "##lect": 563,
      "mon": 564,
      "even": 565,
      "##ail": 566,
      "##iss": 567,
      "##ving": 568,
      "cons": 569,
      "##are": 570,
      "##ick": 571,
      "##ved": 572,
      "back": 573,
      "leg": 574,
      "where": 575,
      "##cess": 576,
      "##ices": 577,
      "prob": 578,
      "dif": 579,
      "##ict": 580,
      "though": 581,
      "got": 582,
      "##ater": 583,
      "inv": 584,
      "##ities": 585,
      "going": 586,
      "##amp": 587,
      "program": 588,
      "sy": 589,
      "old": 590,
      "##les": 591,
      "##eral": 592,
      "dec": 593,
      "too": 594,
      "long": 595,
      "make": 596,
      "##cial": 597,
      "inform": 598,
      "way": 599,
      "sec": 600,
      "##ious": 601,
      "fu": 602,
      "rel": 603,
      "ass": 604,
      "first": 605,
      "spe": 606,
      "##vern": 607,
      "par": 608,
      "high": 609,
      "made": 610,
      "op": 611,
      "##sel": 612,
      "jo": 613,
      "##alk": 614,
      "prov": 615,
      "##its": 616,
      "pres": 617,
      "##ual": 618,
      "reg": 619,
      "hel": 620,
      "##oth": 621,
      "eff": 622,
      "cost": 623,
      "down": 624,
      "##ons": 625,
      "##ning": 626,
      "##ft": 627,
      "##ert": 628,
      "does": 629,
      "information": 630,
      "pol": 631,
      "##ys": 632,
      "##iew": 633,
      "govern": 634,
      "through": 635,
      "##land": 636,
      "rem": 637,
      "##iver": 638,
      "##fore": 639,
      "##ath": 640,
      "help": 641,
      "##mm": 642,
      "great": 643,
      "##gan": 644,
      "bl": 645,
      "##we": 646,
      "state": 647,
      "##ces": 648,
      "sch": 649,
      "##ful": 650,
      "##fe": 651,
      "##ouse": 652,
      "##lud": 653,
      "law": 654,
      "pub": 655,
      "those": 656,
      "take": 657,
      "used": 658,
      "##ational": 659,
      "##erm": 660,
      "requ": 661,
      "##ular": 662,
      "##ury": 663,
      "something": 664,
      "##ible": 665,
      "supp": 666,
      "##ily": 667,
      "##ting": 668,
      "##other": 669,
      "##way": 670,
      "count": 671,
      "##ific": 672,
      "stud": 673,
      "##urn": 674,
      "fl": 675,
      "bus": 676,
      "still": 677,
      "##ise": 678,
      "bel": 679,
      "things": 680,
      "before": 681,
      "litt": 682,
      "##ks": 683,
      "little": 684,
      "##ra": 685,
      "gen": 686,
      "##ject": 687,
      "##ually": 688,
      "hu": 689,
      "add": 690,
      "say": 691,
      "differ": 692,
      "report": 693,
      "oh": 694,
      "##lem": 695,
      "cour": 696,
      "##ility": 697,
      "##ange": 698,
      "use": 699,
      "##ather": 700,
      "##stem": 701,
      "call": 702,
      "pers": 703,
      "##ating": 704,
      "fam": 705,
      "##get": 706,
      "##als": 707,
      "wr": 708,
      "find": 709,
      "system": 710,
      "##ative": 711,
      "sub": 712,
      "includ": 713,
      "being": 714,
      "own": 715,
      "war": 716,
      "legal": 717,
      "emp": 718,
      "ll": 719,
      "government": 720,
      "mean": 721,
      "id": 722,
      "##ited": 723,
      "##uring": 724,
      "ke": 725,
      "##ards": 726,
      "ob": 727,
      "##atch": 728,
      "dep": 729,
      "art": 730,
      "sl": 731,
      "vis": 732,
      "##ress": 733,
      "city": 734,
      "##te": 735,
      "house": 736,
      "sur": 737,
      "##orn": 738,
      "such": 739,
      "##ven": 740,
      "didn": 741,
      "day": 742,
      "##pe": 743,
      "bas": 744,
      "show": 745,
      "prod": 746,
      "##ave": 747,
      "##ures": 748,
      "again": 749,
      "##thing": 750,
      "##olog": 751,
      "hand": 752,
      "##mb": 753,
      "small": 754,
      "##ix": 755,
      "cap": 756,
      "##eric": 757,
      "##oss": 758,
      "lar": 759,
      "##cr": 760,
      "around": 761,
      "##con": 762,
      "place": 763,
      "interest": 764,
      "pay": 765,
      "plan": 766,
      "last": 767,
      "world": 768,
      "##ics": 769,
      "##aint": 770,
      "##oney": 771,
      "child": 772,
      "fed": 773,
      "real": 774,
      "americ": 775,
      "agenc": 776,
      "##ues": 777,
      "ph": 778,
      "ret": 779,
      "##ered": 780,
      "##ene": 781,
      "pop": 782,
      "end": 783,
      "stand": 784,
      "##uc": 785,
      "##lish": 786,
      "el": 787,
      "199": 788,
      "inst": 789,
      "val": 790,
      "ed": 791,
      "found": 792,
      "mod": 793,
      "##oup": 794,
      "kind": 795,
      "##ug": 796,
      "import": 797,
      "never": 798,
      "loc": 799,
      "public": 800,
      "##ants": 801,
      "red": 802,
      "##ways": 803,
      "##led": 804,
      "home": 805,
      "##air": 806,
      "set": 807,
      "##cent": 808,
      "money": 809,
      "##ying": 810,
      "organ": 811,
      "##ool": 812,
      "##ives": 813,
      "ca": 814,
      "ear": 815,
      "while": 816,
      "min": 817,
      "est": 818,
      "three": 819,
      "##self": 820,
      "disc": 821,
      "resp": 822,
      "start": 823,
      "town": 824,
      "##ists": 825,
      "both": 826,
      "big": 827,
      "person": 828,
      "problem": 829,
      "tak": 830,
      "ins": 831,
      "##ars": 832,
      "ho": 833,
      "##ower": 834,
      "##ves": 835,
      "##ets": 836,
      "stre": 837,
      "num": 838,
      "##ident": 839,
      "federal": 840,
      "happ": 841,
      "organiz": 842,
      "##day": 843,
      "mak": 844,
      "century": 845,
      "ru": 846,
      "rest": 847,
      "same": 848,
      "best": 849,
      "school": 850,
      "might": 851,
      "ent": 852,
      "rev": 853,
      "read": 854,
      "better": 855,
      "##sc": 856,
      "##ew": 857,
      "##red": 858,
      "seem": 859,
      "always": 860,
      "cor": 861,
      "sin": 862,
      "##ss": 863,
      "far": 864,
      "char": 865,
      "thought": 866,
      "appro": 867,
      "different": 868,
      "sou": 869,
      "sim": 870,
      "##ably": 871,
      "##ood": 872,
      "##ri": 873,
      "nor": 874,
      "thing": 875,
      "del": 876,
      "services": 877,
      "prop": 878,
      "dem": 879,
      "build": 880,
      "##ek": 881,
      "hard": 882,
      "##ork": 883,
      "##az": 884,
      "belie": 885,
      "##ines": 886,
      "def": 887,
      "##conom": 888,
      "play": 889,
      "##iness": 890,
      "form": 891,
      "life": 892,
      "perform": 893,
      "come": 894,
      "let": 895,
      "##osed": 896,
      "talk": 897,
      "each": 898,
      "fund": 899,
      "met": 900,
      "##ren": 901,
      "few": 902,
      "put": 903,
      "##be": 904,
      "econom": 905,
      "point": 906,
      "mark": 907,
      "##xt": 908,
      "care": 909,
      "important": 910,
      "##llow": 911,
      "case": 912,
      "med": 913,
      "contro": 914,
      "during": 915,
      "effect": 916,
      "lead": 917,
      "eng": 918,
      "##chn": 919,
      "hum": 920,
      "##velop": 921,
      "fact": 922,
      "##ear": 923,
      "##ution": 924,
      "aud": 925,
      "av": 926,
      "##ern": 927,
      "##ently": 928,
      "sure": 929,
      "eas": 930,
      "##ody": 931,
      "another": 932,
      "post": 933,
      "national": 934,
      "##ains": 935,
      "less": 936,
      "##ween": 937,
      "between": 938,
      "ask": 939,
      "wom": 940,
      "##istr": 941,
      "must": 942,
      "##io": 943,
      "tour": 944,
      "cle": 945,
      "incre": 946,
      "bar": 947,
      "em": 948,
      "book": 949,
      "det": 950,
      "sk": 951,
      "mil": 952,
      "develop": 953,
      "chang": 954,
      "##tern": 955,
      "service": 956,
      "cur": 957,
      "result": 958,
      "##urch": 959,
      "product": 960,
      "techn": 961,
      "compan": 962,
      "iss": 963,
      "##loy": 964,
      "##ters": 965,
      "since": 966,
      "aut": 967,
      "##ized": 968,
      "##ids": 969,
      "percent": 970,
      "##hip": 971,
      "##ts": 972,
      "##ten": 973,
      "##ism": 974,
      "##ior": 975,
      "business": 976,
      "partic": 977,
      "sign": 978,
      "##res": 979,
      "##ier": 980,
      "manage": 981,
      "country": 982,
      "bene": 983,
      "##ced": 984,
      "adv": 985,
      "##ided": 986,
      "went": 987,
      "##der": 988,
      "air": 989,
      "tax": 990,
      "hist": 991,
      "watch": 992,
      "consid": 993,
      "##gest": 994,
      "ser": 995,
      "feel": 996,
      "##co": 997,
      "ext": 998,
      "fun": 999,
      "contr": 1000,
      "muse": 1001,
      "##ata": 1002,
      "visit": 1003,
      "design": 1004,
      "sever": 1005,
      "##lly": 1006,
      "##ize": 1007,
      "conc": 1008,
      "aff": 1009,
      "island": 1010,
      "keep": 1011,
      "##irect": 1012,
      "##ash": 1013,
      "##ired": 1014,
      "##cept": 1015,
      "##pl": 1016,
      "head": 1017,
      "##ilt": 1018,
      "commun": 1019,
      "che": 1020,
      "children": 1021,
      "four": 1022,
      "comple": 1023,
      "##cc": 1024,
      "benef": 1025,
      "##ason": 1026,
      "sit": 1027,
      "why": 1028,
      "number": 1029,
      "ty": 1030,
      "##ins": 1031,
      "##ital": 1032,
      "news": 1033,
      "times": 1034,
      "temp": 1035,
      "view": 1036,
      "turn": 1037,
      "adm": 1038,
      "##ural": 1039,
      "away": 1040,
      "run": 1041,
      "##ward": 1042,
      "area": 1043,
      "near": 1044,
      "quest": 1045,
      "process": 1046,
      "##uss": 1047,
      "finan": 1048,
      "##ao": 1049,
      "large": 1050,
      "yes": 1051,
      "trans": 1052,
      "sw": 1053,
      "##alth": 1054,
      "room": 1055,
      "once": 1056,
      "##oy": 1057,
      "employ": 1058,
      "sen": 1059,
      "direct": 1060,
      "prof": 1061,
      "guess": 1062,
      "hot": 1063,
      "management": 1064,
      "states": 1065,
      "rule": 1066,
      "##ron": 1067,
      "##ention": 1068,
      "##ever": 1069,
      "##ically": 1070,
      "water": 1071,
      "200": 1072,
      "##rew": 1073,
      "week": 1074,
      "control": 1075,
      "mill": 1076,
      "##ute": 1077,
      "miss": 1078,
      "##ling": 1079,
      "open": 1080,
      "mr": 1081,
      "cover": 1082,
      "account": 1083,
      "invest": 1084,
      "##ale": 1085,
      "##que": 1086,
      "data": 1087,
      "maj": 1088,
      "ide": 1089,
      "follow": 1090,
      "##ross": 1091,
      "##ici": 1092,
      "##ted": 1093,
      "cert": 1094,
      "month": 1095,
      "conf": 1096,
      "##ained": 1097,
      "##orts": 1098,
      "jon": 1099,
      "pat": 1100,
      "men": 1101,
      "##ends": 1102,
      "##aw": 1103,
      "##ank": 1104,
      "anal": 1105,
      "000": 1106,
      "prot": 1107,
      "bad": 1108,
      "tell": 1109,
      "done": 1110,
      "left": 1111,
      "programs": 1112,
      "mail": 1113,
      "museum": 1114,
      "several": 1115,
      "poss": 1116,
      "##ared": 1117,
      "##ined": 1118,
      "major": 1119,
      "##err": 1120,
      "##ds": 1121,
      "const": 1122,
      "president": 1123,
      "##ph": 1124,
      "next": 1125,
      "##gress": 1126,
      "test": 1127,
      "##ger": 1128,
      "##til": 1129,
      "##ected": 1130,
      "bud": 1131,
      "anything": 1132,
      "hour": 1133,
      "mus": 1134,
      "probably": 1135,
      "##ides": 1136,
      "impro": 1137,
      "five": 1138,
      "##ality": 1139,
      "##ble": 1140,
      "expl": 1141,
      "white": 1142,
      "intern": 1143,
      "##ee": 1144,
      "##ately": 1145,
      "without": 1146,
      "pret": 1147,
      "##ec": 1148,
      "south": 1149,
      "camp": 1150,
      "fri": 1151,
      "group": 1152,
      "tra": 1153,
      "elect": 1154,
      "##ought": 1155,
      "job": 1156,
      "doing": 1157,
      "enough": 1158,
      "da": 1159,
      "##stand": 1160,
      "gl": 1161,
      "clint": 1162,
      "secur": 1163,
      "polit": 1164,
      "took": 1165,
      "night": 1166,
      "allow": 1167,
      "##ology": 1168,
      "gao": 1169,
      "ann": 1170,
      "kids": 1171,
      "port": 1172,
      "called": 1173,
      "##ric": 1174,
      "cre": 1175,
      "youn": 1176,
      "enj": 1177,
      "support": 1178,
      "church": 1179,
      "north": 1180,
      "land": 1181,
      "built": 1182,
      "office": 1183,
      "clinton": 1184,
      "##ats": 1185,
      "##man": 1186,
      "##read": 1187,
      "along": 1188,
      "var": 1189,
      "grow": 1190,
      "nat": 1191,
      "walk": 1192,
      "pass": 1193,
      "class": 1194,
      "wanted": 1195,
      "pal": 1196,
      "crit": 1197,
      "##ock": 1198,
      "##ley": 1199,
      "family": 1200,
      "ris": 1201,
      "doesn": 1202,
      "shop": 1203,
      "give": 1204,
      "opp": 1205,
      "stu": 1206,
      "##ages": 1207,
      "beh": 1208,
      "fac": 1209,
      "came": 1210,
      "20": 1211,
      "american": 1212,
      "##augh": 1213,
      "require": 1214,
      "equ": 1215,
      "congress": 1216,
      "often": 1217,
      "mor": 1218,
      "##iven": 1219,
      "able": 1220,
      "audit": 1221,
      "review": 1222,
      "##ton": 1223,
      "##aining": 1224,
      "priv": 1225,
      "##ner": 1226,
      "power": 1227,
      "today": 1228,
      "##ness": 1229,
      "##body": 1230,
      "suc": 1231,
      "contin": 1232,
      "term": 1233,
      "top": 1234,
      "stat": 1235,
      "change": 1236,
      "certain": 1237,
      "##ral": 1238,
      "inf": 1239,
      "##ees": 1240,
      "until": 1241,
      "collect": 1242,
      "against": 1243,
      "name": 1244,
      "18": 1245,
      "main": 1246,
      "##ction": 1247,
      "pract": 1248,
      "##wh": 1249,
      "##ases": 1250,
      "popular": 1251,
      "rece": 1252,
      "market": 1253,
      "financial": 1254,
      "ste": 1255,
      "##ote": 1256,
      "oper": 1257,
      "happen": 1258,
      "##ision": 1259,
      "##iet": 1260,
      "pretty": 1261,
      "agencies": 1262,
      "##ime": 1263,
      "known": 1264,
      "lsc": 1265,
      "street": 1266,
      "##ruct": 1267,
      "##br": 1268,
      "sal": 1269,
      "summ": 1270,
      "second": 1271,
      "polic": 1272,
      "mat": 1273,
      "tre": 1274,
      "ra": 1275,
      "##aper": 1276,
      "enjoy": 1277,
      "##enn": 1278,
      "security": 1279,
      "arch": 1280,
      "##ark": 1281,
      "##side": 1282,
      "cond": 1283,
      "##ived": 1284,
      "however": 1285,
      "seen": 1286,
      "##els": 1287,
      "##erg": 1288,
      "agency": 1289,
      "believe": 1290,
      "gener": 1291,
      "##ames": 1292,
      "auth": 1293,
      "##ified": 1294,
      "center": 1295,
      "tu": 1296,
      "level": 1297,
      "performance": 1298,
      "ap": 1299,
      "##less": 1300,
      "past": 1301,
      "##imes": 1302,
      "costs": 1303,
      "understand": 1304,
      "##lement": 1305,
      "course": 1306,
      "ref": 1307,
      "exper": 1308,
      "##ensive": 1309,
      "general": 1310,
      "trad": 1311,
      "local": 1312,
      "##ering": 1313,
      "bill": 1314,
      "ok": 1315,
      "curr": 1316,
      "project": 1317,
      "examp": 1318,
      "ce": 1319,
      "order": 1320,
      "##most": 1321,
      "avail": 1322,
      "huh": 1323,
      "repres": 1324,
      "meet": 1325,
      "cal": 1326,
      "mov": 1327,
      "##ey": 1328,
      "six": 1329,
      "##ither": 1330,
      "##ivid": 1331,
      "provide": 1332,
      "activ": 1333,
      "##hn": 1334,
      "live": 1335,
      "bro": 1336,
      "##per": 1337,
      "##old": 1338,
      "##ency": 1339,
      "##oc": 1340,
      "getting": 1341,
      "hal": 1342,
      "having": 1343,
      "##ead": 1344,
      "##eng": 1345,
      "##ised": 1346,
      "vol": 1347,
      "##ether": 1348,
      "invol": 1349,
      "else": 1350,
      "##aring": 1351,
      "try": 1352,
      "united": 1353,
      "everything": 1354,
      "women": 1355,
      "##ump": 1356,
      "analys": 1357,
      "stop": 1358,
      "##ember": 1359,
      "deliver": 1360,
      "##arr": 1361,
      "john": 1362,
      "doll": 1363,
      "almost": 1364,
      "story": 1365,
      "terr": 1366,
      "##aut": 1367,
      "##pped": 1368,
      "quite": 1369,
      "low": 1370,
      "side": 1371,
      "free": 1372,
      "gre": 1373,
      "black": 1374,
      "depart": 1375,
      "success": 1376,
      "##ased": 1377,
      "building": 1378,
      "##aph": 1379,
      "wa": 1380,
      "capital": 1381,
      "study": 1382,
      "arm": 1383,
      "problems": 1384,
      "arr": 1385,
      "saving": 1386,
      "cut": 1387,
      "##ument": 1388,
      "spec": 1389,
      "days": 1390,
      "##gin": 1391,
      "lim": 1392,
      "asked": 1393,
      "10": 1394,
      "##ability": 1395,
      "##ract": 1396,
      "##ending": 1397,
      "offic": 1398,
      "list": 1399,
      "##uck": 1400,
      "win": 1401,
      "##li": 1402,
      "actually": 1403,
      "exec": 1404,
      "ey": 1405,
      "estim": 1406,
      "##ional": 1407,
      "reason": 1408,
      "health": 1409,
      "making": 1410,
      "million": 1411,
      "##ateg": 1412,
      "food": 1413,
      "orig": 1414,
      "##ission": 1415,
      "young": 1416,
      "ago": 1417,
      "least": 1418,
      "##idd": 1419,
      "available": 1420,
      "budget": 1421,
      "cult": 1422,
      "thir": 1423,
      "cho": 1424,
      "##ned": 1425,
      "##ivers": 1426,
      "san": 1427,
      "##ured": 1428,
      "vill": 1429,
      "##ients": 1430,
      "##lf": 1431,
      "based": 1432,
      "##ances": 1433,
      "fig": 1434,
      "mag": 1435,
      "hop": 1436,
      "##ulation": 1437,
      "saw": 1438,
      "among": 1439,
      "someone": 1440,
      "addition": 1441,
      "history": 1442,
      "##used": 1443,
      "maybe": 1444,
      "sta": 1445,
      "rul": 1446,
      "##up": 1447,
      "represent": 1448,
      "road": 1449,
      "occ": 1450,
      "told": 1451,
      "##iting": 1452,
      "beach": 1453,
      "individ": 1454,
      "##aster": 1455,
      "lawy": 1456,
      "says": 1457,
      "looked": 1458,
      "indust": 1459,
      "prom": 1460,
      "pie": 1461,
      "rather": 1462,
      "clear": 1463,
      "half": 1464,
      "experi": 1465,
      "gard": 1466,
      "whether": 1467,
      "isn": 1468,
      "##iving": 1469,
      "pos": 1470,
      "whole": 1471,
      "jap": 1472,
      "wasn": 1473,
      "comput": 1474,
      "won": 1475,
      "sug": 1476,
      "jud": 1477,
      "15": 1478,
      "tupp": 1479,
      "origin": 1480,
      "wind": 1481,
      "makes": 1482,
      "japan": 1483,
      "beaut": 1484,
      "stay": 1485,
      "tuppence": 1486,
      "exc": 1487,
      "##ife": 1488,
      "individual": 1489,
      "##ient": 1490,
      "fut": 1491,
      "##ench": 1492,
      "nice": 1493,
      "aw": 1494,
      "site": 1495,
      "social": 1496,
      "company": 1497,
      "resear": 1498,
      "research": 1499,
      "distr": 1500,
      "hous": 1501,
      "##ored": 1502,
      "##ources": 1503,
      "usually": 1504,
      "deal": 1505,
      "full": 1506,
      "##ik": 1507,
      "##aces": 1508,
      "har": 1509,
      "##uation": 1510,
      "##ont": 1511,
      "discuss": 1512,
      "pur": 1513,
      "including": 1514,
      "wall": 1515,
      "analysis": 1516,
      "##emp": 1517,
      "##ina": 1518,
      "working": 1519,
      "needs": 1520,
      "bre": 1521,
      "##hod": 1522,
      "##ended": 1523,
      "##ibility": 1524,
      "organizations": 1525,
      "##pect": 1526,
      "##vent": 1527,
      "##ences": 1528,
      "author": 1529,
      "non": 1530,
      "pa": 1531,
      "changes": 1532,
      "bit": 1533,
      "oth": 1534,
      "execut": 1535,
      "##idence": 1536,
      "love": 1537,
      "others": 1538,
      "nothing": 1539,
      "lear": 1540,
      "tomm": 1541,
      "short": 1542,
      "idea": 1543,
      "mount": 1544,
      "respons": 1545,
      "##ison": 1546,
      "trying": 1547,
      "##lished": 1548,
      "##ret": 1549,
      "present": 1550,
      "true": 1551,
      "diff": 1552,
      "court": 1553,
      "tommy": 1554,
      "ident": 1555,
      "##ination": 1556,
      "wond": 1557,
      "within": 1558,
      "sun": 1559,
      "either": 1560,
      "##ories": 1561,
      "needed": 1562,
      "benefits": 1563,
      "##ians": 1564,
      "##omm": 1565,
      "sometimes": 1566,
      "fish": 1567,
      "##sh": 1568,
      "##ield": 1569,
      "##aim": 1570,
      "question": 1571,
      "blo": 1572,
      "manag": 1573,
      "tow": 1574,
      "west": 1575,
      "york": 1576,
      "fil": 1577,
      "ir": 1578,
      "##rist": 1579,
      "okay": 1580,
      "yet": 1581,
      "interesting": 1582,
      "es": 1583,
      "later": 1584,
      "##bo": 1585,
      "king": 1586,
      "##icult": 1587,
      "enter": 1588,
      "hold": 1589,
      "sing": 1590,
      "brit": 1591,
      "future": 1592,
      "##anc": 1593,
      "remember": 1594,
      "due": 1595,
      "ple": 1596,
      "using": 1597,
      "early": 1598,
      "heard": 1599,
      "issues": 1600,
      "become": 1601,
      "seems": 1602,
      "tot": 1603,
      "sound": 1604,
      "sol": 1605,
      "##acy": 1606,
      "technology": 1607,
      "17": 1608,
      "rom": 1609,
      "income": 1610,
      "everyone": 1611,
      "estab": 1612,
      "##ane": 1613,
      "admin": 1614,
      "access": 1615,
      "##att": 1616,
      "amount": 1617,
      "accord": 1618,
      "method": 1619,
      "signific": 1620,
      "across": 1621,
      "##ully": 1622,
      "##utes": 1623,
      "eg": 1624,
      "##ged": 1625,
      "example": 1626,
      "step": 1627,
      "results": 1628,
      "##line": 1629,
      "agree": 1630,
      "difficult": 1631,
      "kill": 1632,
      "##pr": 1633,
      "stuff": 1634,
      "possible": 1635,
      "imm": 1636,
      "##ries": 1637,
      "bur": 1638,
      "buy": 1639,
      "travel": 1640,
      "rate": 1641,
      "looking": 1642,
      "##na": 1643,
      "private": 1644,
      "##over": 1645,
      "toget": 1646,
      "env": 1647,
      "tex": 1648,
      "##rop": 1649,
      "meas": 1650,
      "together": 1651,
      "##ell": 1652,
      "##ru": 1653,
      "##ense": 1654,
      "##aking": 1655,
      "postal": 1656,
      "coup": 1657,
      "final": 1658,
      "lab": 1659,
      "##par": 1660,
      "##atic": 1661,
      "systems": 1662,
      "standards": 1663,
      "face": 1664,
      "jew": 1665,
      "##by": 1666,
      "colle": 1667,
      "hill": 1668,
      "address": 1669,
      "fav": 1670,
      "eu": 1671,
      "given": 1672,
      "##lev": 1673,
      "hor": 1674,
      "##iod": 1675,
      "quality": 1676,
      "poor": 1677,
      "include": 1678,
      "reach": 1679,
      "park": 1680,
      "team": 1681,
      "regul": 1682,
      "##ndred": 1683,
      "attract": 1684,
      "hundred": 1685,
      "sat": 1686,
      "temple": 1687,
      "##iding": 1688,
      "educ": 1689,
      "outside": 1690,
      "special": 1691,
      "ant": 1692,
      "alth": 1693,
      "close": 1694,
      "miles": 1695,
      "christ": 1696,
      "sty": 1697,
      "although": 1698,
      "period": 1699,
      "economic": 1700,
      "profess": 1701,
      "##work": 1702,
      "consider": 1703,
      "pot": 1704,
      "##aps": 1705,
      "value": 1706,
      "coun": 1707,
      "ten": 1708,
      "gir": 1709,
      "##hold": 1710,
      "##ister": 1711,
      "12": 1712,
      "particular": 1713,
      "##cient": 1714,
      "civ": 1715,
      "worth": 1716,
      "east": 1717,
      "started": 1718,
      "improve": 1719,
      "##soci": 1720,
      "hours": 1721,
      "##ief": 1722,
      "months": 1723,
      "mom": 1724,
      "drug": 1725,
      "effective": 1726,
      "##itions": 1727,
      "taken": 1728,
      "suggest": 1729,
      "##vers": 1730,
      "##ilar": 1731,
      "##ued": 1732,
      "door": 1733,
      "typ": 1734,
      "significant": 1735,
      "ep": 1736,
      "descr": 1737,
      "death": 1738,
      "##ape": 1739,
      "im": 1740,
      "pu": 1741,
      "associ": 1742,
      "##ortun": 1743,
      "corp": 1744,
      "##cip": 1745,
      "prin": 1746,
      "mind": 1747,
      "##ety": 1748,
      "vi": 1749,
      "##elt": 1750,
      "enc": 1751,
      "paper": 1752,
      "##0s": 1753,
      "init": 1754,
      "dom": 1755,
      "move": 1756,
      "modern": 1757,
      "policy": 1758,
      "record": 1759,
      "talking": 1760,
      "beautif": 1761,
      "bal": 1762,
      "dest": 1763,
      "##ows": 1764,
      "##ica": 1765,
      "##ott": 1766,
      "arg": 1767,
      "coast": 1768,
      "ge": 1769,
      "##gle": 1770,
      "staff": 1771,
      "16": 1772,
      "compet": 1773,
      "foc": 1774,
      "dist": 1775,
      "##ials": 1776,
      "euro": 1777,
      "fall": 1778,
      "human": 1779,
      "particip": 1780,
      "drew": 1781,
      "flo": 1782,
      "mer": 1783,
      "##enty": 1784,
      "dollars": 1785,
      "computer": 1786,
      "##iron": 1787,
      "administr": 1788,
      "##cially": 1789,
      "environ": 1790,
      "##sw": 1791,
      "##fully": 1792,
      "daan": 1793,
      "sent": 1794,
      "hus": 1795,
      "##vious": 1796,
      "##ished": 1797,
      "net": 1798,
      "##ese": 1799,
      "claim": 1800,
      "behind": 1801,
      "department": 1802,
      "##uce": 1803,
      "french": 1804,
      "##ried": 1805,
      "held": 1806,
      "simp": 1807,
      "community": 1808,
      "##ming": 1809,
      "##ising": 1810,
      "himself": 1811,
      "shows": 1812,
      "##unch": 1813,
      "rock": 1814,
      "implement": 1815,
      "risk": 1816,
      "thous": 1817,
      "thousand": 1818,
      "paint": 1819,
      "tur": 1820,
      "##graph": 1821,
      "protect": 1822,
      "model": 1823,
      "tradition": 1824,
      "##mbers": 1825,
      "infl": 1826,
      "##itive": 1827,
      "civil": 1828,
      "lost": 1829,
      "squ": 1830,
      "##ator": 1831,
      "couldn": 1832,
      "knew": 1833,
      "return": 1834,
      "line": 1835,
      "repub": 1836,
      "easy": 1837,
      "summer": 1838,
      "age": 1839,
      "members": 1840,
      "workers": 1841,
      "woman": 1842,
      "##ready": 1843,
      "already": 1844,
      "complete": 1845,
      "according": 1846,
      "girl": 1847,
      "assist": 1848,
      "planning": 1849,
      "similar": 1850,
      "current": 1851,
      "##ove": 1852,
      "ones": 1853,
      "determ": 1854,
      "companies": 1855,
      "friend": 1856,
      "##ocr": 1857,
      "europe": 1858,
      "sn": 1859,
      "##atory": 1860,
      "approach": 1861,
      "movie": 1862,
      "necess": 1863,
      "political": 1864,
      "sell": 1865,
      "deb": 1866,
      "##ush": 1867,
      "grand": 1868,
      "required": 1869,
      "##ms": 1870,
      "strateg": 1871,
      "environment": 1872,
      "fail": 1873,
      "areas": 1874,
      "exist": 1875,
      "cases": 1876,
      "republic": 1877,
      "fine": 1878,
      "eval": 1879,
      "music": 1880,
      "became": 1881,
      "##itting": 1882,
      "development": 1883,
      "##selves": 1884,
      "organization": 1885,
      "##rin": 1886,
      "abs": 1887,
      "dou": 1888,
      "mem": 1889,
      "##band": 1890,
      "##ilities": 1891,
      "light": 1892,
      "demand": 1893,
      "fre": 1894,
      "##aur": 1895,
      "##ume": 1896,
      "foot": 1897,
      "famous": 1898,
      "specific": 1899,
      "eight": 1900,
      "rich": 1901,
      "personal": 1902,
      "##yn": 1903,
      "teach": 1904,
      "favor": 1905,
      "ele": 1906,
      "rout": 1907,
      "sho": 1908,
      "ground": 1909,
      "pick": 1910,
      "##ov": 1911,
      "##hol": 1912,
      "begin": 1913,
      "object": 1914,
      "##ature": 1915,
      "##aves": 1916,
      "couple": 1917,
      "hun": 1918,
      "studies": 1919,
      "total": 1920,
      "##omes": 1921,
      "fight": 1922,
      "accept": 1923,
      "works": 1924,
      "felt": 1925,
      "employees": 1926,
      "##where": 1927,
      "sort": 1928,
      "justice": 1929,
      "##ening": 1930,
      "answ": 1931,
      "fore": 1932,
      "fort": 1933,
      "requirements": 1934,
      "activities": 1935,
      "matter": 1936,
      "texas": 1937,
      "increase": 1938,
      "##ius": 1939,
      "##imin": 1940,
      "cred": 1941,
      "british": 1942,
      "beautiful": 1943,
      "husband": 1944,
      "gave": 1945,
      "##bs": 1946,
      "##ama": 1947,
      "bring": 1948,
      "rules": 1949,
      "alco": 1950,
      "grant": 1951,
      "##orp": 1952,
      "quick": 1953,
      "##ogn": 1954,
      "college": 1955,
      "ach": 1956,
      "cast": 1957,
      "sil": 1958,
      "interv": 1959,
      "##ball": 1960,
      "parents": 1961,
      "##amed": 1962,
      "doc": 1963,
      "subject": 1964,
      "likely": 1965,
      "##itch": 1966,
      "sus": 1967,
      "soon": 1968,
      "obs": 1969,
      "resources": 1970,
      "contrib": 1971,
      "##rect": 1972,
      "self": 1973,
      "##ourn": 1974,
      "impact": 1975,
      "expect": 1976,
      "scre": 1977,
      "concern": 1978,
      "delivery": 1979,
      "lit": 1980,
      "##aft": 1981,
      "mult": 1982,
      "##ny": 1983,
      "wouldn": 1984,
      "##itted": 1985,
      "river": 1986,
      "press": 1987,
      "alcohol": 1988,
      "considered": 1989,
      "wonder": 1990,
      "haven": 1991,
      "dev": 1992,
      "strong": 1993,
      "commission": 1994,
      "##ony": 1995,
      "cann": 1996,
      "##ining": 1997,
      "experience": 1998,
      "##ake": 1999,
      "takes": 2000,
      "lou": 2001,
      "##me": 2002,
      "##fact": 2003,
      "wife": 2004,
      "##thern": 2005,
      "collection": 2006,
      "began": 2007,
      "coming": 2008,
      "ill": 2009,
      "nation": 2010,
      "hear": 2011,
      "provided": 2012,
      "##ium": 2013,
      "taking": 2014,
      "achie": 2015,
      "##irc": 2016,
      "assess": 2017,
      "##uced": 2018,
      "industry": 2019,
      "##tion": 2020,
      "cop": 2021,
      "fur": 2022,
      "recogn": 2023,
      "charact": 2024,
      "type": 2025,
      "mur": 2026,
      "proper": 2027,
      "ital": 2028,
      "##ges": 2029,
      "##ify": 2030,
      "turned": 2031,
      "vict": 2032,
      "espe": 2033,
      "##son": 2034,
      "##bor": 2035,
      "poll": 2036,
      "aid": 2037,
      "##atives": 2038,
      "comes": 2039,
      "famil": 2040,
      "price": 2041,
      "america": 2042,
      "11": 2043,
      "##ypt": 2044,
      "univers": 2045,
      "restaur": 2046,
      "especially": 2047,
      "mal": 2048,
      "related": 2049,
      "fle": 2050,
      "friends": 2051,
      "sea": 2052,
      "leave": 2053,
      "minutes": 2054,
      "histor": 2055,
      "##yc": 2056,
      "##ential": 2057,
      "construct": 2058,
      "treat": 2059,
      "##ators": 2060,
      "##asing": 2061,
      "themselves": 2062,
      "milit": 2063,
      "adrin": 2064,
      "drink": 2065,
      "198": 2066,
      "reports": 2067,
      "eyes": 2068,
      "##ival": 2069,
      "common": 2070,
      "wood": 2071,
      "##ened": 2072,
      "sir": 2073,
      "words": 2074,
      "longer": 2075,
      "##oke": 2076,
      "##ique": 2077,
      "regard": 2078,
      "30": 2079,
      "lang": 2080,
      "brought": 2081,
      "14": 2082,
      "maint": 2083,
      "##omp": 2084,
      "single": 2085,
      "describ": 2086,
      "cust": 2087,
      "goes": 2088,
      "instead": 2089,
      "section": 2090,
      "journ": 2091,
      "saint": 2092,
      "repl": 2093,
      "du": 2094,
      "tv": 2095,
      "sect": 2096,
      "soci": 2097,
      "involved": 2098,
      "##urs": 2099,
      "above": 2100,
      "means": 2101,
      "check": 2102,
      "##ipp": 2103,
      "table": 2104,
      "##ots": 2105,
      "entire": 2106,
      "refer": 2107,
      "questions": 2108,
      "##tain": 2109,
      "standard": 2110,
      "emerg": 2111,
      "##pri": 2112,
      "worked": 2113,
      "board": 2114,
      "##iddle": 2115,
      "wrong": 2116,
      "living": 2117,
      "expensive": 2118,
      "figure": 2119,
      "viol": 2120,
      "gold": 2121,
      "offer": 2122,
      "hur": 2123,
      "funding": 2124,
      "sense": 2125,
      "##yal": 2126,
      "##use": 2127,
      "sold": 2128,
      "bir": 2129,
      "event": 2130,
      "appropri": 2131,
      "##app": 2132,
      "circ": 2133,
      "attorn": 2134,
      "mad": 2135,
      "central": 2136,
      "labor": 2137,
      "ii": 2138,
      "dead": 2139,
      "village": 2140,
      "middle": 2141,
      "houses": 2142,
      "changed": 2143,
      "base": 2144,
      "bed": 2145,
      "lawyers": 2146,
      "##umb": 2147,
      "##isions": 2148,
      "contract": 2149,
      "received": 2150,
      "jul": 2151,
      "opt": 2152,
      "late": 2153,
      "recent": 2154,
      "reporting": 2155,
      "##ze": 2156,
      "pen": 2157,
      "pain": 2158,
      "##ann": 2159,
      "sex": 2160,
      "france": 2161,
      "exact": 2162,
      "hall": 2163,
      "##istic": 2164,
      "key": 2165,
      "morning": 2166,
      "sett": 2167,
      "shr": 2168,
      "evidence": 2169,
      "displ": 2170,
      "recomm": 2171,
      "detail": 2172,
      "issue": 2173,
      "heart": 2174,
      "##uses": 2175,
      "english": 2176,
      "##bert": 2177,
      "cath": 2178,
      "fif": 2179,
      "democr": 2180,
      "economy": 2181,
      "lik": 2182,
      "relig": 2183,
      "hope": 2184,
      "archit": 2185,
      "executive": 2186,
      "ren": 2187,
      "chall": 2188,
      "places": 2189,
      "lake": 2190,
      "god": 2191,
      "opportun": 2192,
      "happened": 2193,
      "roman": 2194,
      "norm": 2195,
      "ancient": 2196,
      "##ols": 2197,
      "visitors": 2198,
      "item": 2199,
      "chap": 2200,
      "gets": 2201,
      "proposed": 2202,
      "vo": 2203,
      "##ledge": 2204,
      "surr": 2205,
      "mrs": 2206,
      "style": 2207,
      "influ": 2208,
      "foreign": 2209,
      "##aged": 2210,
      "twenty": 2211,
      "##epend": 2212,
      "happy": 2213,
      "##amb": 2214,
      "ens": 2215,
      "architect": 2216,
      "ways": 2217,
      "front": 2218,
      "huge": 2219,
      "100": 2220,
      "field": 2221,
      "mot": 2222,
      "struct": 2223,
      "further": 2224,
      "div": 2225,
      "washing": 2226,
      "neg": 2227,
      "jer": 2228,
      "##aced": 2229,
      "education": 2230,
      "fa": 2231,
      "jun": 2232,
      "anim": 2233,
      "##arch": 2234,
      "weather": 2235,
      "conn": 2236,
      "tried": 2237,
      "cannot": 2238,
      "applic": 2239,
      "comments": 2240,
      "suff": 2241,
      "perh": 2242,
      "poir": 2243,
      "military": 2244,
      "vir": 2245,
      "##aign": 2246,
      "population": 2247,
      "poirot": 2248,
      "campaign": 2249,
      "langu": 2250,
      "perhaps": 2251,
      "fair": 2252,
      "appear": 2253,
      "prep": 2254,
      "independ": 2255,
      "trust": 2256,
      "leaders": 2257,
      "##ping": 2258,
      "surpr": 2259,
      "##den": 2260,
      "##lin": 2261,
      "##let": 2262,
      "##ires": 2263,
      "purp": 2264,
      "##ler": 2265,
      "##hib": 2266,
      "investment": 2267,
      "##urance": 2268,
      "trade": 2269,
      "moment": 2270,
      "batt": 2271,
      "scr": 2272,
      "relations": 2273,
      "higher": 2274,
      "corpor": 2275,
      "exce": 2276,
      "hands": 2277,
      "hon": 2278,
      "##reme": 2279,
      "plans": 2280,
      "attack": 2281,
      "pict": 2282,
      "neigh": 2283,
      "party": 2284,
      "13": 2285,
      "mass": 2286,
      "prefer": 2287,
      "egypt": 2288,
      "unf": 2289,
      "expected": 2290,
      "##ental": 2291,
      "trou": 2292,
      "washington": 2293,
      "er": 2294,
      "reform": 2295,
      "##ization": 2296,
      "heav": 2297,
      "##ores": 2298,
      "##isc": 2299,
      "manu": 2300,
      "created": 2301,
      "##osing": 2302,
      "palace": 2303,
      "initi": 2304,
      "bon": 2305,
      "fire": 2306,
      "avo": 2307,
      "mother": 2308,
      "##ky": 2309,
      "decision": 2310,
      "custom": 2311,
      "artic": 2312,
      "inside": 2313,
      "wide": 2314,
      "##val": 2315,
      "plant": 2316,
      "acqu": 2317,
      "##ips": 2318,
      "green": 2319,
      "##ring": 2320,
      "books": 2321,
      "following": 2322,
      "rid": 2323,
      "speak": 2324,
      "buildings": 2325,
      "gall": 2326,
      "##airs": 2327,
      "piece": 2328,
      "square": 2329,
      "son": 2330,
      "knowledge": 2331,
      "saying": 2332,
      "defin": 2333,
      "manufact": 2334,
      "district": 2335,
      "lower": 2336,
      "pan": 2337,
      "aren": 2338,
      "gone": 2339,
      "spend": 2340,
      "bush": 2341,
      "hit": 2342,
      "##ai": 2343,
      "express": 2344,
      "break": 2345,
      "epa": 2346,
      "##erous": 2347,
      "attention": 2348,
      "designed": 2349,
      "chines": 2350,
      "royal": 2351,
      "anyone": 2352,
      "##aught": 2353,
      "seven": 2354,
      "##akes": 2355,
      "drive": 2356,
      "##iqu": 2357,
      "##itor": 2358,
      "unc": 2359,
      "##ept": 2360,
      "color": 2361,
      "secret": 2362,
      "julius": 2363,
      "##he": 2364,
      "select": 2365,
      "recently": 2366,
      "countries": 2367,
      "chinese": 2368,
      "mos": 2369,
      "third": 2370,
      "original": 2371,
      "creat": 2372,
      "spent": 2373,
      "funds": 2374,
      "effici": 2375,
      "groups": 2376,
      "natural": 2377,
      "practices": 2378,
      "character": 2379,
      "dam": 2380,
      "lived": 2381,
      "boy": 2382,
      "vot": 2383,
      "separ": 2384,
      "situation": 2385,
      "##isl": 2386,
      "##ification": 2387,
      "mess": 2388,
      "##ites": 2389,
      "##lled": 2390,
      "eat": 2391,
      "##lus": 2392,
      "super": 2393,
      "necessary": 2394,
      "##ades": 2395,
      "serious": 2396,
      "various": 2397,
      "game": 2398,
      "james": 2399,
      "itself": 2400,
      "training": 2401,
      "surround": 2402,
      "sav": 2403,
      "request": 2404,
      "paid": 2405,
      "##ograph": 2406,
      "##med": 2407,
      "comb": 2408,
      "household": 2409,
      "range": 2410,
      "desp": 2411,
      "culture": 2412,
      "##estern": 2413,
      "valley": 2414,
      "##olution": 2415,
      "span": 2416,
      "##issions": 2417,
      "hotel": 2418,
      "shops": 2419,
      "exam": 2420,
      "appe": 2421,
      "pack": 2422,
      "dog": 2423,
      "##rupt": 2424,
      "sand": 2425,
      "##hood": 2426,
      "deep": 2427,
      "princip": 2428,
      "spending": 2429,
      "stone": 2430,
      "action": 2431,
      "scen": 2432,
      "##set": 2433,
      "whate": 2434,
      "tourist": 2435,
      "apart": 2436,
      "whatever": 2437,
      "bank": 2438,
      "##ims": 2439,
      "2000": 2440,
      "rates": 2441,
      "geor": 2442,
      "cat": 2443,
      "##fect": 2444,
      "legisl": 2445,
      "supposed": 2446,
      "ju": 2447,
      "##ource": 2448,
      "chance": 2449,
      "moved": 2450,
      "##iction": 2451,
      "students": 2452,
      "engine": 2453,
      "included": 2454,
      "prim": 2455,
      "finally": 2456,
      "older": 2457,
      "views": 2458,
      "focus": 2459,
      "km": 2460,
      "lad": 2461,
      "stock": 2462,
      "##ronic": 2463,
      "gun": 2464,
      "ti": 2465,
      "taxes": 2466,
      "lack": 2467,
      "##ike": 2468,
      "trees": 2469,
      "##ios": 2470,
      "ord": 2471,
      "located": 2472,
      "broad": 2473,
      "germ": 2474,
      "##eks": 2475,
      "##eter": 2476,
      "save": 2477,
      "committ": 2478,
      "retire": 2479,
      "clean": 2480,
      "seemed": 2481,
      "##ded": 2482,
      "##ift": 2483,
      "isra": 2484,
      "complex": 2485,
      "auditors": 2486,
      "israel": 2487,
      "cook": 2488,
      "conduct": 2489,
      "traditional": 2490,
      "crow": 2491,
      "streets": 2492,
      "##ouch": 2493,
      "exactly": 2494,
      "##bur": 2495,
      "prior": 2496,
      "decided": 2497,
      "narr": 2498,
      "ingle": 2499,
      "tourists": 2500,
      "mary": 2501,
      "##iled": 2502,
      "prices": 2503,
      "##osp": 2504,
      "indian": 2505,
      "reported": 2506,
      "corn": 2507,
      "lat": 2508,
      "##idents": 2509,
      "lives": 2510,
      "guy": 2511,
      "correct": 2512,
      "society": 2513,
      "ingleth": 2514,
      "dav": 2515,
      "wish": 2516,
      "##und": 2517,
      "bey": 2518,
      "inglethorp": 2519,
      "##go": 2520,
      "peace": 2521,
      "##ped": 2522,
      "annual": 2523,
      "mater": 2524,
      "##of": 2525,
      "soft": 2526,
      "subst": 2527,
      "cold": 2528,
      "western": 2529,
      "##zz": 2530,
      "aver": 2531,
      "card": 2532,
      "##aries": 2533,
      "##ams": 2534,
      "##itten": 2535,
      "draw": 2536,
      "mich": 2537,
      "reven": 2538,
      "##uries": 2539,
      "efforts": 2540,
      "##apers": 2541,
      "americans": 2542,
      "covered": 2543,
      "impress": 2544,
      "thinking": 2545,
      "##uction": 2546,
      "##uary": 2547,
      "##igr": 2548,
      "wants": 2549,
      "laws": 2550,
      "increased": 2551,
      "benefit": 2552,
      "upon": 2553,
      "##orce": 2554,
      "conv": 2555,
      "altern": 2556,
      "body": 2557,
      "emb": 2558,
      "commer": 2559,
      "provides": 2560,
      "growth": 2561,
      "position": 2562,
      "link": 2563,
      "notice": 2564,
      "scul": 2565,
      "cause": 2566,
      "##ises": 2567,
      "internet": 2568,
      "vers": 2569,
      "season": 2570,
      "##hic": 2571,
      "communic": 2572,
      "cele": 2573,
      "sculpt": 2574,
      "died": 2575,
      "tomb": 2576,
      "weeks": 2577,
      "doct": 2578,
      "word": 2579,
      "toward": 2580,
      "adj": 2581,
      "##izing": 2582,
      "quar": 2583,
      "garden": 2584,
      "phys": 2585,
      "quickly": 2586,
      "di": 2587,
      "throughout": 2588,
      "islands": 2589,
      "celebr": 2590,
      "##utions": 2591,
      "fell": 2592,
      "medic": 2593,
      "tend": 2594,
      "##gn": 2595,
      "china": 2596,
      "learn": 2597,
      "assistance": 2598,
      "relationship": 2599,
      "##arily": 2600,
      "instit": 2601,
      "additional": 2602,
      "japanese": 2603,
      "credit": 2604,
      "university": 2605,
      "den": 2606,
      "##port": 2607,
      "inn": 2608,
      "##ude": 2609,
      "indic": 2610,
      "language": 2611,
      "deg": 2612,
      "##ights": 2613,
      "discover": 2614,
      "voice": 2615,
      "##illed": 2616,
      "favorite": 2617,
      "russ": 2618,
      "sant": 2619,
      "##xim": 2620,
      "##ength": 2621,
      "establish": 2622,
      "beyond": 2623,
      "swe": 2624,
      "share": 2625,
      "largest": 2626,
      "former": 2627,
      "document": 2628,
      "##oming": 2629,
      "station": 2630,
      "##umn": 2631,
      "lots": 2632,
      "##ological": 2633,
      "##ware": 2634,
      "reflect": 2635,
      "established": 2636,
      "ran": 2637,
      "##xic": 2638,
      "clients": 2639,
      "page": 2640,
      "remains": 2641,
      "international": 2642,
      "##ole": 2643,
      "feat": 2644,
      "dress": 2645,
      "respect": 2646,
      "production": 2647,
      "critical": 2648,
      "wild": 2649,
      "##str": 2650,
      "##ipment": 2651,
      "insurance": 2652,
      "increasing": 2653,
      "evalu": 2654,
      "ah": 2655,
      "size": 2656,
      "except": 2657,
      "pred": 2658,
      "developed": 2659,
      "tar": 2660,
      "mach": 2661,
      "led": 2662,
      "sle": 2663,
      "father": 2664,
      "##rod": 2665,
      "demon": 2666,
      "din": 2667,
      "force": 2668,
      "crime": 2669,
      "role": 2670,
      "helped": 2671,
      "gree": 2672,
      "hol": 2673,
      "perfect": 2674,
      "25": 2675,
      "attemp": 2676,
      "imag": 2677,
      "bab": 2678,
      "##inc": 2679,
      "includes": 2680,
      "anyway": 2681,
      "allowed": 2682,
      "dall": 2683,
      "ven": 2684,
      "farm": 2685,
      "kept": 2686,
      "##oon": 2687,
      "web": 2688,
      "bay": 2689,
      "fem": 2690,
      "round": 2691,
      "##sy": 2692,
      "##bers": 2693,
      "wealth": 2694,
      "proced": 2695,
      "gardens": 2696,
      "50": 2697,
      "##oint": 2698,
      "everybody": 2699,
      "slow": 2700,
      "cas": 2701,
      "fix": 2702,
      "vote": 2703,
      "##een": 2704,
      "##ging": 2705,
      "##bed": 2706,
      "##asons": 2707,
      "battle": 2708,
      "ban": 2709,
      "##orr": 2710,
      "clim": 2711,
      "generally": 2712,
      "pleas": 2713,
      "dor": 2714,
      "##uth": 2715,
      "emissions": 2716,
      "shopping": 2717,
      "continue": 2718,
      "observ": 2719,
      "wrote": 2720,
      "written": 2721,
      "interested": 2722,
      "despite": 2723,
      "##estic": 2724,
      "myself": 2725,
      "entities": 2726,
      "multip": 2727,
      "dallas": 2728,
      "named": 2729,
      "basis": 2730,
      "phil": 2731,
      "doub": 2732,
      "mand": 2733,
      "exhib": 2734,
      "published": 2735,
      "affect": 2736,
      "horse": 2737,
      "items": 2738,
      "sup": 2739,
      "growing": 2740,
      "##vert": 2741,
      "products": 2742,
      "equipment": 2743,
      "hosp": 2744,
      "previous": 2745,
      "officials": 2746,
      "sad": 2747,
      "events": 2748,
      "glass": 2749,
      "purch": 2750,
      "consist": 2751,
      "answer": 2752,
      "emergency": 2753,
      "cross": 2754,
      "fash": 2755,
      "rad": 2756,
      "threat": 2757,
      "##room": 2758,
      "mid": 2759,
      "##oph": 2760,
      "looks": 2761,
      "cand": 2762,
      "excell": 2763,
      "mist": 2764,
      "types": 2765,
      "dark": 2766,
      "##ne": 2767,
      "paris": 2768,
      "flow": 2769,
      "afford": 2770,
      "patients": 2771,
      "##ana": 2772,
      "##lling": 2773,
      "weap": 2774,
      "train": 2775,
      "region": 2776,
      "construction": 2777,
      "cit": 2778,
      "brown": 2779,
      "steps": 2780,
      "197": 2781,
      "decl": 2782,
      "volume": 2783,
      "recommend": 2784,
      "rights": 2785,
      "below": 2786,
      "internal": 2787,
      "families": 2788,
      "comment": 2789,
      "trip": 2790,
      "goals": 2791,
      "feet": 2792,
      "sites": 2793,
      "practice": 2794,
      "surv": 2795,
      "accounting": 2796,
      "fast": 2797,
      "##uments": 2798,
      "##iff": 2799,
      "pieces": 2800,
      "running": 2801,
      "choice": 2802,
      "senior": 2803,
      "nature": 2804,
      "operations": 2805,
      "lawyer": 2806,
      "letter": 2807,
      "lu": 2808,
      "mart": 2809,
      "##uted": 2810,
      "fres": 2811,
      "##ino": 2812,
      "hotels": 2813,
      "appropriate": 2814,
      "##roy": 2815,
      "opin": 2816,
      "difference": 2817,
      "##iques": 2818,
      "60": 2819,
      "gate": 2820,
      "agre": 2821,
      "reading": 2822,
      "louis": 2823,
      "average": 2824,
      "rain": 2825,
      "##cise": 2826,
      "bye": 2827,
      "mostly": 2828,
      "slate": 2829,
      "investig": 2830,
      "bought": 2831,
      "##tered": 2832,
      "whose": 2833,
      "##iety": 2834,
      "movies": 2835,
      "neighbor": 2836,
      "##egr": 2837,
      "sched": 2838,
      "##to": 2839,
      "##oses": 2840,
      "watching": 2841,
      "effort": 2842,
      "hy": 2843,
      "install": 2844,
      "meeting": 2845,
      "encour": 2846,
      "retirement": 2847,
      "serve": 2848,
      "trouble": 2849,
      "spanish": 2850,
      "ur": 2851,
      "##aded": 2852,
      "##ode": 2853,
      "blue": 2854,
      "levels": 2855,
      "tit": 2856,
      "spot": 2857,
      "phot": 2858,
      "schools": 2859,
      "authority": 2860,
      "blood": 2861,
      "ded": 2862,
      "##ceed": 2863,
      "prison": 2864,
      "regular": 2865,
      "terms": 2866,
      "##ask": 2867,
      "##leg": 2868,
      "medical": 2869,
      "measure": 2870,
      "fashion": 2871,
      "dang": 2872,
      "##wide": 2873,
      "ali": 2874,
      "effects": 2875,
      "journal": 2876,
      "carry": 2877,
      "nearly": 2878,
      "individuals": 2879,
      "##iest": 2880,
      "##enced": 2881,
      "floor": 2882,
      "administration": 2883,
      "excellent": 2884,
      "gar": 2885,
      "##ables": 2886,
      "leading": 2887,
      "beaches": 2888,
      "1996": 2889,
      "winter": 2890,
      "dut": 2891,
      "sens": 2892,
      "##ivity": 2893,
      "sports": 2894,
      "##aving": 2895,
      "sky": 2896,
      "je": 2897,
      "mis": 2898,
      "smaller": 2899,
      "mission": 2900,
      "##ob": 2901,
      "##erry": 2902,
      "##iling": 2903,
      "offers": 2904,
      "added": 2905,
      "##oring": 2906,
      "space": 2907,
      "club": 2908,
      "appar": 2909,
      "occur": 2910,
      "committee": 2911,
      "rap": 2912,
      "##ex": 2913,
      "cro": 2914,
      "##onse": 2915,
      "##ustr": 2916,
      "earth": 2917,
      "killed": 2918,
      "display": 2919,
      "particularly": 2920,
      "somebody": 2921,
      "entr": 2922,
      "certainly": 2923,
      "regulatory": 2924,
      "ensure": 2925,
      "##erve": 2926,
      "extreme": 2927,
      "restaurants": 2928,
      "cathed": 2929,
      "tom": 2930,
      "cloth": 2931,
      "mort": 2932,
      "##sequ": 2933,
      "##icians": 2934,
      "thirty": 2935,
      "german": 2936,
      "40": 2937,
      "ball": 2938,
      "alone": 2939,
      "##astic": 2940,
      "goods": 2941,
      "actions": 2942,
      "wait": 2943,
      "fly": 2944,
      "##more": 2945,
      "savings": 2946,
      "david": 2947,
      "mic": 2948,
      "beat": 2949,
      "integr": 2950,
      "accomp": 2951,
      "guid": 2952,
      "managers": 2953,
      "achieve": 2954,
      "host": 2955,
      "master": 2956,
      "stories": 2957,
      "##usal": 2958,
      "##yr": 2959,
      "response": 2960,
      "sounds": 2961,
      "##edi": 2962,
      "##olf": 2963,
      "disp": 2964,
      "frequ": 2965,
      "challeng": 2966,
      "##oud": 2967,
      "consum": 2968,
      "reduce": 2969,
      "easily": 2970,
      "##aughter": 2971,
      "article": 2972,
      "##reci": 2973,
      "connect": 2974,
      "ess": 2975,
      "spl": 2976,
      "accur": 2977,
      "##iced": 2978,
      "reasons": 2979,
      "seek": 2980,
      "equal": 2981,
      "successful": 2982,
      "path": 2983,
      "##ha": 2984,
      "restr": 2985,
      "playing": 2986,
      "##idge": 2987,
      "army": 2988,
      "bes": 2989,
      "luck": 2990,
      "##asc": 2991,
      "##ches": 2992,
      "##like": 2993,
      "##ax": 2994,
      "##ills": 2995,
      "believed": 2996,
      "rooms": 2997,
      "##ban": 2998,
      "subm": 2999,
      "cru": 3000,
      "quiet": 3001,
      "sci": 3002,
      "##ster": 3003,
      "reli": 3004,
      "simply": 3005,
      "conserv": 3006,
      "kal": 3007,
      "parts": 3008,
      "196": 3009,
      "tower": 3010,
      "##come": 3011,
      "##ille": 3012,
      "safe": 3013,
      "policies": 3014,
      "limited": 3015,
      "jewish": 3016,
      "jes": 3017,
      "inj": 3018,
      "##ulf": 3019,
      "track": 3020,
      "larger": 3021,
      "liber": 3022,
      "providing": 3023,
      "payments": 3024,
      "respond": 3025,
      "passed": 3026,
      "judge": 3027,
      "fisc": 3028,
      "ver": 3029,
      "##unt": 3030,
      "decor": 3031,
      "southern": 3032,
      "dro": 3033,
      "##eed": 3034,
      "expert": 3035,
      "points": 3036,
      "treas": 3037,
      "pil": 3038,
      "##lls": 3039,
      "confer": 3040,
      "requires": 3041,
      "magn": 3042,
      "column": 3043,
      "2001": 3044,
      "destroy": 3045,
      "cities": 3046,
      "dave": 3047,
      "star": 3048,
      "revenue": 3049,
      "india": 3050,
      "official": 3051,
      "estimates": 3052,
      "responsible": 3053,
      "film": 3054,
      "drugs": 3055,
      "##mer": 3056,
      "useful": 3057,
      "media": 3058,
      "director": 3059,
      "walls": 3060,
      "block": 3061,
      "beginning": 3062,
      "liter": 3063,
      "multiple": 3064,
      "cam": 3065,
      "##ung": 3066,
      "box": 3067,
      "centuries": 3068,
      "flex": 3069,
      "fiscal": 3070,
      "glo": 3071,
      "pros": 3072,
      "perm": 3073,
      "payment": 3074,
      "religious": 3075,
      "castle": 3076,
      "vac": 3077,
      "starting": 3078,
      "magaz": 3079,
      "agreed": 3080,
      "mention": 3081,
      "stood": 3082,
      "expand": 3083,
      "##ls": 3084,
      "##back": 3085,
      "##ara": 3086,
      "knows": 3087,
      "cars": 3088,
      "critics": 3089,
      "date": 3090,
      "adop": 3091,
      "estimate": 3092,
      "mix": 3093,
      "coll": 3094,
      "served": 3095,
      "obvious": 3096,
      "george": 3097,
      "decisions": 3098,
      "nearby": 3099,
      "sword": 3100,
      "methods": 3101,
      "potential": 3102,
      "participants": 3103,
      "grad": 3104,
      "interview": 3105,
      "##anced": 3106,
      "##iring": 3107,
      "##ornia": 3108,
      "budd": 3109,
      "mountains": 3110,
      "commercial": 3111,
      "adjust": 3112,
      "##iny": 3113,
      "##ively": 3114,
      "activity": 3115,
      "##omb": 3116,
      "sud": 3117,
      "truth": 3118,
      "spain": 3119,
      "##ously": 3120,
      "completely": 3121,
      "narrow": 3122,
      "ib": 3123,
      "sac": 3124,
      "forward": 3125,
      "ability": 3126,
      "towards": 3127,
      "eventually": 3128,
      "structure": 3129,
      "catch": 3130,
      "##atively": 3131,
      "ready": 3132,
      "esc": 3133,
      "##ones": 3134,
      "yourself": 3135,
      "variety": 3136,
      "christian": 3137,
      "gives": 3138,
      "##lier": 3139,
      "enjoyed": 3140,
      "##usalem": 3141,
      "giving": 3142,
      "pun": 3143,
      "ut": 3144,
      "##cil": 3145,
      "##change": 3146,
      "guide": 3147,
      "greater": 3148,
      "paying": 3149,
      "constant": 3150,
      "calif": 3151,
      "jerusalem": 3152,
      "hong": 3153,
      "##uit": 3154,
      "distrib": 3155,
      "republicans": 3156,
      "independent": 3157,
      "spect": 3158,
      "contains": 3159,
      "empire": 3160,
      "##teen": 3161,
      "discount": 3162,
      "series": 3163,
      "receive": 3164,
      "500": 3165,
      "##lt": 3166,
      "beg": 3167,
      "wear": 3168,
      "county": 3169,
      "phone": 3170,
      "factors": 3171,
      "property": 3172,
      "jama": 3173,
      "advert": 3174,
      "setting": 3175,
      "demonstr": 3176,
      "citiz": 3177,
      "kong": 3178,
      "spir": 3179,
      "eastern": 3180,
      "swim": 3181,
      "simple": 3182,
      "##ma": 3183,
      "##ira": 3184,
      "##ops": 3185,
      "chair": 3186,
      "exer": 3187,
      "compl": 3188,
      "qual": 3189,
      "coff": 3190,
      "capt": 3191,
      "newsp": 3192,
      "raised": 3193,
      "immedi": 3194,
      "opportunity": 3195,
      "lay": 3196,
      "therefore": 3197,
      "##itely": 3198,
      "constit": 3199,
      "domestic": 3200,
      "purpose": 3201,
      "ast": 3202,
      "rural": 3203,
      "spoke": 3204,
      "extra": 3205,
      "behav": 3206,
      "eye": 3207,
      "thousands": 3208,
      "hans": 3209,
      "touch": 3210,
      "stra": 3211,
      "politics": 3212,
      "oppos": 3213,
      "avoid": 3214,
      "cash": 3215,
      "las": 3216,
      "##aud": 3217,
      "propos": 3218,
      "aug": 3219,
      "caught": 3220,
      "source": 3221,
      "##aters": 3222,
      "analy": 3223,
      "billion": 3224,
      "ft": 3225,
      "tast": 3226,
      "jobs": 3227,
      "none": 3228,
      "##ners": 3229,
      "##fort": 3230,
      "shar": 3231,
      "search": 3232,
      "telev": 3233,
      "##icted": 3234,
      "basic": 3235,
      "electric": 3236,
      "entrance": 3237,
      "gas": 3238,
      "tick": 3239,
      "ange": 3240,
      "followed": 3241,
      "associated": 3242,
      "environmental": 3243,
      "##vey": 3244,
      "unless": 3245,
      "appl": 3246,
      "profit": 3247,
      "occas": 3248,
      "wonderful": 3249,
      "animals": 3250,
      "gi": 3251,
      "##ett": 3252,
      "appreci": 3253,
      "murder": 3254,
      "candid": 3255,
      "##ially": 3256,
      "meant": 3257,
      "flor": 3258,
      "function": 3259,
      "professional": 3260,
      "quarter": 3261,
      "cathedral": 3262,
      "prem": 3263,
      "influence": 3264,
      "##orrow": 3265,
      "##ented": 3266,
      "autom": 3267,
      "watched": 3268,
      "create": 3269,
      "fishing": 3270,
      "categ": 3271,
      "fest": 3272,
      "spring": 3273,
      "tele": 3274,
      "##ground": 3275,
      "subs": 3276,
      "regulations": 3277,
      "european": 3278,
      "route": 3279,
      "liked": 3280,
      "ign": 3281,
      "omb": 3282,
      "##ience": 3283,
      "convers": 3284,
      "note": 3285,
      "england": 3286,
      "easier": 3287,
      "band": 3288,
      "hang": 3289,
      "kid": 3290,
      "store": 3291,
      "stopped": 3292,
      "choose": 3293,
      "##eys": 3294,
      "reb": 3295,
      "oldest": 3296,
      "aware": 3297,
      "assessment": 3298,
      "attorney": 3299,
      "eth": 3300,
      "##iar": 3301,
      "##put": 3302,
      "thus": 3303,
      "##itz": 3304,
      "##roll": 3305,
      "##ibly": 3306,
      "amaz": 3307,
      "warm": 3308,
      "sector": 3309,
      "micro": 3310,
      "##ipped": 3311,
      "##wise": 3312,
      "##ado": 3313,
      "meaning": 3314,
      "strategic": 3315,
      "bott": 3316,
      "##wood": 3317,
      "closed": 3318,
      "ended": 3319,
      "1999": 3320,
      "biggest": 3321,
      "born": 3322,
      "oil": 3323,
      "##olute": 3324,
      "apply": 3325,
      "affected": 3326,
      "reached": 3327,
      "paintings": 3328,
      "hospital": 3329,
      "compared": 3330,
      "statements": 3331,
      "charge": 3332,
      "hanson": 3333,
      "talked": 3334,
      "science": 3335,
      "hair": 3336,
      "hurt": 3337,
      "separate": 3338,
      "##key": 3339,
      "clock": 3340,
      "funny": 3341,
      "stores": 3342,
      "opened": 3343,
      "mountain": 3344,
      "pet": 3345,
      "##iers": 3346,
      "##cl": 3347,
      "resort": 3348,
      "writ": 3349,
      "played": 3350,
      "walking": 3351,
      "currently": 3352,
      "dub": 3353,
      "##oted": 3354,
      "##ada": 3355,
      "progress": 3356,
      "sales": 3357,
      "representation": 3358,
      "debt": 3359,
      "treatment": 3360,
      "california": 3361,
      "nine": 3362,
      "##antage": 3363,
      "##ague": 3364,
      "discussed": 3365,
      "features": 3366,
      "##ena": 3367,
      "seeing": 3368,
      "alternative": 3369,
      "##ps": 3370,
      "shot": 3371,
      "statement": 3372,
      "northern": 3373,
      "majority": 3374,
      "association": 3375,
      "sudden": 3376,
      "##uing": 3377,
      "##edy": 3378,
      "##chan": 3379,
      "towns": 3380,
      "existing": 3381,
      "greek": 3382,
      "games": 3383,
      "mine": 3384,
      "arab": 3385,
      "willing": 3386,
      "brother": 3387,
      "craft": 3388,
      "1998": 3389,
      "21": 3390,
      "##nam": 3391,
      "adult": 3392,
      "prevent": 3393,
      "directly": 3394,
      "continued": 3395,
      "loss": 3396,
      "rail": 3397,
      "##gas": 3398,
      "##ula": 3399,
      "numbers": 3400,
      "race": 3401,
      "originally": 3402,
      "intervention": 3403,
      "die": 3404,
      "wine": 3405,
      "rele": 3406,
      "daily": 3407,
      "positive": 3408,
      "##can": 3409,
      "unit": 3410,
      "lose": 3411,
      "assum": 3412,
      "values": 3413,
      "location": 3414,
      "electronic": 3415,
      "##ergy": 3416,
      "claims": 3417,
      "heavy": 3418,
      "sleep": 3419,
      "##ji": 3420,
      "##rof": 3421,
      "plants": 3422,
      "clos": 3423,
      "##action": 3424,
      "thanks": 3425,
      "married": 3426,
      "##ucing": 3427,
      "ideas": 3428,
      "council": 3429,
      "prepared": 3430,
      "bono": 3431,
      "procedures": 3432,
      "opinion": 3433,
      "bord": 3434,
      "et": 3435,
      "##itude": 3436,
      "brief": 3437,
      "assets": 3438,
      "absolute": 3439,
      "television": 3440,
      "jan": 3441,
      "match": 3442,
      "tro": 3443,
      "##ule": 3444,
      "##izes": 3445,
      "nobody": 3446,
      "contact": 3447,
      "crimin": 3448,
      "caused": 3449,
      "waiting": 3450,
      "estimated": 3451,
      "violence": 3452,
      "shall": 3453,
      "colon": 3454,
      "target": 3455,
      "fol": 3456,
      "sight": 3457,
      "anymore": 3458,
      "emper": 3459,
      "italian": 3460,
      "od": 3461,
      "worse": 3462,
      "engage": 3463,
      "##umption": 3464,
      "corner": 3465,
      "coffee": 3466,
      "##lam": 3467,
      "##bb": 3468,
      "text": 3469,
      "cultural": 3470,
      "send": 3471,
      "##force": 3472,
      "compar": 3473,
      "insp": 3474,
      "testing": 3475,
      "risks": 3476,
      "counsel": 3477,
      "breat": 3478,
      "grew": 3479,
      "sources": 3480,
      "##kn": 3481,
      "boat": 3482,
      "evening": 3483,
      "italy": 3484,
      "homes": 3485,
      "##ael": 3486,
      "##ope": 3487,
      "trail": 3488,
      "uses": 3489,
      "remain": 3490,
      "musl": 3491,
      "attorneys": 3492,
      "frank": 3493,
      "##ffic": 3494,
      "draft": 3495,
      "strange": 3496,
      "minor": 3497,
      "entertain": 3498,
      "protection": 3499,
      "hind": 3500,
      "jack": 3501,
      "##mon": 3502,
      "theater": 3503,
      "##ander": 3504,
      "lew": 3505,
      "august": 3506,
      "##inating": 3507,
      "forced": 3508,
      "residents": 3509,
      "entity": 3510,
      "businesses": 3511,
      "cheap": 3512,
      "dinner": 3513,
      "weak": 3514,
      "offered": 3515,
      "accounts": 3516,
      "powerful": 3517,
      "architecture": 3518,
      "tal": 3519,
      "##inated": 3520,
      "grass": 3521,
      "thank": 3522,
      "terrible": 3523,
      "listen": 3524,
      "##ifying": 3525,
      "##aped": 3526,
      "earlier": 3527,
      "##ests": 3528,
      "introd": 3529,
      "symb": 3530,
      "definitely": 3531,
      "tough": 3532,
      "##cing": 3533,
      "welf": 3534,
      "temples": 3535,
      "controls": 3536,
      "martin": 3537,
      "welfare": 3538,
      "parties": 3539,
      "capac": 3540,
      "anti": 3541,
      "clothes": 3542,
      "conference": 3543,
      "##ream": 3544,
      "##ibilities": 3545,
      "amb": 3546,
      "repe": 3547,
      "cool": 3548,
      "disapp": 3549,
      "1997": 3550,
      "minim": 3551,
      "minute": 3552,
      "defense": 3553,
      "conditions": 3554,
      "immigr": 3555,
      "horr": 3556,
      "fifty": 3557,
      "daughter": 3558,
      "via": 3559,
      "##oes": 3560,
      "##iday": 3561,
      "##ipt": 3562,
      "interior": 3563,
      "guard": 3564,
      "foundation": 3565,
      "conclus": 3566,
      "learned": 3567,
      "ben": 3568,
      "lunch": 3569,
      "shown": 3570,
      "##cked": 3571,
      "spee": 3572,
      "manufacturing": 3573,
      "pow": 3574,
      "##inct": 3575,
      "##istics": 3576,
      "actual": 3577,
      "holy": 3578,
      "limit": 3579,
      "determine": 3580,
      "evaluation": 3581,
      "described": 3582,
      "fresh": 3583,
      "neighborhood": 3584,
      "papers": 3585,
      "samp": 3586,
      "##ca": 3587,
      "##eth": 3588,
      "alt": 3589,
      "march": 3590,
      "moving": 3591,
      "objectives": 3592,
      "july": 3593,
      "##outh": 3594,
      "standing": 3595,
      "routes": 3596,
      "err": 3597,
      "software": 3598,
      "citizens": 3599,
      "tall": 3600,
      "ult": 3601,
      "##onna": 3602,
      "##ulated": 3603,
      "uns": 3604,
      "##iveness": 3605,
      "member": 3606,
      "doubt": 3607,
      "##oles": 3608,
      "intended": 3609,
      "robert": 3610,
      "vegas": 3611,
      "calls": 3612,
      "arts": 3613,
      "16th": 3614,
      "painted": 3615,
      "nap": 3616,
      "rare": 3617,
      "19th": 3618,
      "performed": 3619,
      "vari": 3620,
      "cyn": 3621,
      "sund": 3622,
      "##week": 3623,
      "student": 3624,
      "transport": 3625,
      "employee": 3626,
      "susp": 3627,
      "regarding": 3628,
      "doctor": 3629,
      "bag": 3630,
      "chief": 3631,
      "##antic": 3632,
      "bridge": 3633,
      "overall": 3634,
      "firm": 3635,
      "##raid": 3636,
      "landsc": 3637,
      "critic": 3638,
      "acquis": 3639,
      "sor": 3640,
      "##men": 3641,
      "##reg": 3642,
      "##iles": 3643,
      "##azz": 3644,
      "##ycle": 3645,
      "picture": 3646,
      "cav": 3647,
      "##ney": 3648,
      "theory": 3649,
      "##eless": 3650,
      "unique": 3651,
      "feeling": 3652,
      "condition": 3653,
      "identify": 3654,
      "fasc": 3655,
      "psy": 3656,
      "##rial": 3657,
      "noted": 3658,
      "units": 3659,
      "remark": 3660,
      "implementation": 3661,
      "baby": 3662,
      "extremely": 3663,
      "thorn": 3664,
      "abuse": 3665,
      "##unk": 3666,
      "bron": 3667,
      "greatest": 3668,
      "writing": 3669,
      "revolution": 3670,
      "profession": 3671,
      "destroyed": 3672,
      "psych": 3673,
      "stick": 3674,
      "exchange": 3675,
      "slight": 3676,
      "newsweek": 3677,
      "housing": 3678,
      "identified": 3679,
      "failed": 3680,
      "grantees": 3681,
      "eld": 3682,
      "gore": 3683,
      "sitting": 3684,
      "unlike": 3685,
      "surpl": 3686,
      "cub": 3687,
      "ride": 3688,
      "wer": 3689,
      "commit": 3690,
      "##centr": 3691,
      "situ": 3692,
      "camping": 3693,
      "traffic": 3694,
      "examples": 3695,
      "suggested": 3696,
      "behavior": 3697,
      "bow": 3698,
      "vide": 3699,
      "afraid": 3700,
      "pictures": 3701,
      "jesus": 3702,
      "burn": 3703,
      "los": 3704,
      "client": 3705,
      "leader": 3706,
      "processes": 3707,
      "susan": 3708,
      "dedic": 3709,
      "dad": 3710,
      "rac": 3711,
      "##irt": 3712,
      "saf": 3713,
      "strug": 3714,
      "executives": 3715,
      "restaurant": 3716,
      "historical": 3717,
      "##burgh": 3718,
      "nin": 3719,
      "rent": 3720,
      "starr": 3721,
      "comfort": 3722,
      "dram": 3723,
      "projects": 3724,
      "##nes": 3725,
      "union": 3726,
      "willi": 3727,
      "guys": 3728,
      "helps": 3729,
      "##aza": 3730,
      "merc": 3731,
      "mall": 3732,
      "wed": 3733,
      "##ette": 3734,
      "libr": 3735,
      "##uctions": 3736,
      "busy": 3737,
      "write": 3738,
      "earn": 3739,
      "advoc": 3740,
      "industrial": 3741,
      "clearly": 3742,
      "pollution": 3743,
      "virgin": 3744,
      "dan": 3745,
      "monument": 3746,
      "pattern": 3747,
      "statue": 3748,
      "generation": 3749,
      "degree": 3750,
      "doro": 3751,
      "weren": 3752,
      "cow": 3753,
      "##ae": 3754,
      "##light": 3755,
      "##wor": 3756,
      "##ventions": 3757,
      "normal": 3758,
      "emperor": 3759,
      "award": 3760,
      "gent": 3761,
      "dod": 3762,
      "spread": 3763,
      "novel": 3764,
      "completed": 3765,
      "dollar": 3766,
      "please": 3767,
      "hills": 3768,
      "forg": 3769,
      "energy": 3770,
      "purs": 3771,
      "records": 3772,
      "straight": 3773,
      "capacity": 3774,
      "ham": 3775,
      "jane": 3776,
      "rise": 3777,
      "##los": 3778,
      "concentr": 3779,
      "thinks": 3780,
      "suppose": 3781,
      "republican": 3782,
      "efficient": 3783,
      "gro": 3784,
      "##ray": 3785,
      "##da": 3786,
      "goal": 3787,
      "18th": 3788,
      "network": 3789,
      "exercise": 3790,
      "fat": 3791,
      "yard": 3792,
      "##zen": 3793,
      "relev": 3794,
      "incent": 3795,
      "kinds": 3796,
      "bomb": 3797,
      "mexic": 3798,
      "log": 3799,
      "##riage": 3800,
      "hundreds": 3801,
      "initial": 3802,
      "material": 3803,
      "bi": 3804,
      "cards": 3805,
      "##gu": 3806,
      "##ago": 3807,
      "rob": 3808,
      "##ologies": 3809,
      "golden": 3810,
      "immediately": 3811,
      "gather": 3812,
      "##inary": 3813,
      "islam": 3814,
      "##unte": 3815,
      "otherwise": 3816,
      "mont": 3817,
      "shoot": 3818,
      "birth": 3819,
      "ahead": 3820,
      "understanding": 3821,
      "volunte": 3822,
      "22": 3823,
      "mir": 3824,
      "brand": 3825,
      "shouldn": 3826,
      "findings": 3827,
      "importance": 3828,
      "window": 3829,
      "imagine": 3830,
      "radio": 3831,
      "rand": 3832,
      "##ba": 3833,
      "print": 3834,
      "trib": 3835,
      "##oking": 3836,
      "feed": 3837,
      "1995": 3838,
      "advantage": 3839,
      "screening": 3840,
      "june": 3841,
      "primary": 3842,
      "##oh": 3843,
      "weight": 3844,
      "defe": 3845,
      "leaving": 3846,
      "finished": 3847,
      "reduced": 3848,
      "explain": 3849,
      "concerned": 3850,
      "golf": 3851,
      "tools": 3852,
      "lie": 3853,
      "offices": 3854,
      "centre": 3855,
      "career": 3856,
      "##icient": 3857,
      "##liance": 3858,
      "laugh": 3859,
      "##eria": 3860,
      "worry": 3861,
      "register": 3862,
      "snow": 3863,
      "appeal": 3864,
      "lady": 3865,
      "drop": 3866,
      "##asts": 3867,
      "fear": 3868,
      "desert": 3869,
      "fully": 3870,
      "depend": 3871,
      "produce": 3872,
      "conflic": 3873,
      "michael": 3874,
      "rue": 3875,
      "##pa": 3876,
      "imposs": 3877,
      "boil": 3878,
      "finance": 3879,
      "artists": 3880,
      "senate": 3881,
      "occup": 3882,
      "painting": 3883,
      "push": 3884,
      "##mber": 3885,
      "indeed": 3886,
      "police": 3887,
      "survey": 3888,
      "rulem": 3889,
      "lux": 3890,
      "il": 3891,
      "##af": 3892,
      "##dom": 3893,
      "##eries": 3894,
      "##reh": 3895,
      "##lex": 3896,
      "trial": 3897,
      "peak": 3898,
      "speaking": 3899,
      "##ancy": 3900,
      "corporate": 3901,
      "nod": 3902,
      "##iel": 3903,
      "interp": 3904,
      "##erved": 3905,
      "pool": 3906,
      "afric": 3907,
      "relax": 3908,
      "cafe": 3909,
      "responsibility": 3910,
      "fortun": 3911,
      "drinking": 3912,
      "absolutely": 3913,
      "entertainment": 3914,
      "speech": 3915,
      "mac": 3916,
      "vand": 3917,
      "##abor": 3918,
      "invent": 3919,
      "depends": 3920,
      "election": 3921,
      "201": 3922,
      "gallery": 3923,
      "acquisition": 3924,
      "oct": 3925,
      "##adem": 3926,
      "wel": 3927,
      "sevent": 3928,
      "hadn": 3929,
      "rose": 3930,
      "produced": 3931,
      "changing": 3932,
      "advice": 3933,
      "manager": 3934,
      "satis": 3935,
      "chapter": 3936,
      "magazine": 3937,
      "jamaica": 3938,
      "bath": 3939,
      "##ald": 3940,
      "##pper": 3941,
      "compliance": 3942,
      "decide": 3943,
      "freed": 3944,
      "challenges": 3945,
      "ultim": 3946,
      "##rid": 3947,
      "##west": 3948,
      "##otic": 3949,
      "shel": 3950,
      "##cious": 3951,
      "interventions": 3952,
      "##soft": 3953,
      "194": 3954,
      "keeping": 3955,
      "##pective": 3956,
      "recommendations": 3957,
      "microsoft": 3958,
      "filled": 3959,
      "jury": 3960,
      "##ij": 3961,
      "##iro": 3962,
      "##ieval": 3963,
      "##gry": 3964,
      "highest": 3965,
      "differences": 3966,
      "reduction": 3967,
      "status": 3968,
      "matters": 3969,
      "discussion": 3970,
      "legislation": 3971,
      "dangerous": 3972,
      "bul": 3973,
      "sam": 3974,
      "##ctions": 3975,
      "funded": 3976,
      "skills": 3977,
      "accountability": 3978,
      "17th": 3979,
      "version": 3980,
      "pleasant": 3981,
      "spectac": 3982,
      "##50": 3983,
      "##olic": 3984,
      "sem": 3985,
      "##using": 3986,
      "mel": 3987,
      "courts": 3988,
      "congressional": 3989,
      "recognized": 3990,
      "households": 3991,
      "substant": 3992,
      "weapons": 3993,
      "amp": 3994,
      "reve": 3995,
      "##apes": 3996,
      "helping": 3997,
      "realize": 3998,
      "markets": 3999,
      "calc": 4000,
      "football": 4001,
      "breath": 4002,
      "rulemaking": 4003,
      "24": 4004,
      "names": 4005,
      "tree": 4006,
      "forces": 4007,
      "##agon": 4008,
      "highly": 4009,
      "players": 4010,
      "fighting": 4011,
      "opportunities": 4012,
      "##has": 4013,
      "##tery": 4014,
      "handle": 4015,
      "schedule": 4016,
      "relevant": 4017,
      "iron": 4018,
      "scient": 4019,
      "ton": 4020,
      "concept": 4021,
      "##ulous": 4022,
      "franc": 4023,
      "buying": 4024,
      "guar": 4025,
      "gothic": 4026,
      "showed": 4027,
      "competition": 4028,
      "chapel": 4029,
      "machine": 4030,
      "impossible": 4031,
      "gift": 4032,
      "##uous": 4033,
      "##ril": 4034,
      "##etic": 4035,
      "##ulate": 4036,
      "medieval": 4037,
      "merch": 4038,
      "selling": 4039,
      "surrounding": 4040,
      "van": 4041,
      "##lig": 4042,
      "twice": 4043,
      "##berg": 4044,
      "supply": 4045,
      "flat": 4046,
      "presented": 4047,
      "determined": 4048,
      "ira": 4049,
      "lif": 4050,
      "##aging": 4051,
      "stret": 4052,
      "younger": 4053,
      "double": 4054,
      "leadership": 4055,
      "flexibility": 4056,
      "task": 4057,
      "##mos": 4058,
      "stew": 4059,
      "waste": 4060,
      "##ested": 4061,
      "tri": 4062,
      "grown": 4063,
      "##akers": 4064,
      "veget": 4065,
      "developing": 4066,
      "technical": 4067,
      "mosque": 4068,
      "mortality": 4069,
      "fan": 4070,
      "rang": 4071,
      "##erly": 4072,
      "##ender": 4073,
      "strength": 4074,
      "finding": 4075,
      "planned": 4076,
      "retail": 4077,
      "stands": 4078,
      "coverage": 4079,
      "raise": 4080,
      "windows": 4081,
      "girls": 4082,
      "surprised": 4083,
      "dublin": 4084,
      "gd": 4085,
      "gh": 4086,
      "tun": 4087,
      "vice": 4088,
      "##house": 4089,
      "aspect": 4090,
      "##ension": 4091,
      "editor": 4092,
      "transfer": 4093,
      "measures": 4094,
      "scenar": 4095,
      "song": 4096,
      "##oo": 4097,
      "frame": 4098,
      "suit": 4099,
      "unp": 4100,
      "somewhere": 4101,
      "imper": 4102,
      "vehic": 4103,
      "happens": 4104,
      "confir": 4105,
      "portug": 4106,
      "figures": 4107,
      "conducted": 4108,
      "medicare": 4109,
      "amazing": 4110,
      "library": 4111,
      "kar": 4112,
      "hell": 4113,
      "##ession": 4114,
      "lies": 4115,
      "enem": 4116,
      "aftern": 4117,
      "mob": 4118,
      "elig": 4119,
      "organizational": 4120,
      "jews": 4121,
      "concerns": 4122,
      "familiar": 4123,
      "guarant": 4124,
      "##ein": 4125,
      "##ament": 4126,
      "worried": 4127,
      "##endish": 4128,
      "boys": 4129,
      "command": 4130,
      "##enses": 4131,
      "reviews": 4132,
      "counter": 4133,
      "contributions": 4134,
      "massive": 4135,
      "female": 4136,
      "gradu": 4137,
      "cup": 4138,
      "dish": 4139,
      "##anch": 4140,
      "##oln": 4141,
      "scand": 4142,
      "argument": 4143,
      "cart": 4144,
      "hors": 4145,
      "##eness": 4146,
      "outc": 4147,
      "marble": 4148,
      "numerous": 4149,
      "tests": 4150,
      "addressed": 4151,
      "length": 4152,
      "compr": 4153,
      "decre": 4154,
      "edin": 4155,
      "restored": 4156,
      "asking": 4157,
      "involve": 4158,
      "##ancing": 4159,
      "##incoln": 4160,
      "swimming": 4161,
      "fit": 4162,
      "lincoln": 4163,
      "rough": 4164,
      "vast": 4165,
      "##inal": 4166,
      "leads": 4167,
      "returned": 4168,
      "options": 4169,
      "virt": 4170,
      "mcc": 4171,
      "forth": 4172,
      "##sec": 4173,
      "loved": 4174,
      "##cks": 4175,
      "driving": 4176,
      "moral": 4177,
      "territ": 4178,
      "santa": 4179,
      "cavendish": 4180,
      "edinburgh": 4181,
      "gain": 4182,
      "ou": 4183,
      "##iy": 4184,
      "##ller": 4185,
      "saved": 4186,
      "founded": 4187,
      "conversation": 4188,
      "aven": 4189,
      "##uk": 4190,
      "seat": 4191,
      "compon": 4192,
      "maintain": 4193,
      "details": 4194,
      "angeles": 4195,
      "gdp": 4196,
      "cio": 4197,
      "wit": 4198,
      "##mas": 4199,
      "##othing": 4200,
      "tea": 4201,
      "quant": 4202,
      "firms": 4203,
      "throw": 4204,
      "approxim": 4205,
      "techniques": 4206,
      "explained": 4207,
      "arrived": 4208,
      "illustr": 4209,
      "mile": 4210,
      "online": 4211,
      "putting": 4212,
      "##place": 4213,
      "statues": 4214,
      "lines": 4215,
      "##gs": 4216,
      "##do": 4217,
      "fraud": 4218,
      "becoming": 4219,
      "resident": 4220,
      "gotten": 4221,
      "holly": 4222,
      "skin": 4223,
      "improved": 4224,
      "requirement": 4225,
      "april": 4226,
      "cuts": 4227,
      "##iking": 4228,
      "shrine": 4229,
      "honor": 4230,
      "apartment": 4231,
      "engineering": 4232,
      "spirit": 4233,
      "era": 4234,
      "gay": 4235,
      "lic": 4236,
      "rub": 4237,
      "##ville": 4238,
      "##bal": 4239,
      "boats": 4240,
      "scene": 4241,
      "decline": 4242,
      "elements": 4243,
      "democrats": 4244,
      "guidance": 4245,
      "opposite": 4246,
      "mere": 4247,
      "##ini": 4248,
      "inqu": 4249,
      "resorts": 4250,
      "believes": 4251,
      "accepted": 4252,
      "unfortun": 4253,
      "message": 4254,
      "magnific": 4255,
      "horses": 4256,
      "consequ": 4257,
      "users": 4258,
      "compreh": 4259,
      "fellow": 4260,
      "##ictions": 4261,
      "employment": 4262,
      "facilities": 4263,
      "steel": 4264,
      "circum": 4265,
      "rena": 4266,
      "faith": 4267,
      "dedicated": 4268,
      "##gd": 4269,
      "##era": 4270,
      "##rel": 4271,
      "##oti": 4272,
      "chem": 4273,
      "proud": 4274,
      "owner": 4275,
      "owners": 4276,
      "audits": 4277,
      "brok": 4278,
      "satur": 4279,
      "climb": 4280,
      "title": 4281,
      "bare": 4282,
      "##equ": 4283,
      "dece": 4284,
      "##oked": 4285,
      "scott": 4286,
      "marriage": 4287,
      "fired": 4288,
      "issued": 4289,
      "announ": 4290,
      "movement": 4291,
      "distance": 4292,
      "row": 4293,
      "renn": 4294,
      "##ii": 4295,
      "shad": 4296,
      "ship": 4297,
      "noticed": 4298,
      "recon": 4299,
      "consult": 4300,
      "2002": 4301,
      "stake": 4302,
      "eleg": 4303,
      "challen": 4304,
      "discovered": 4305,
      "vacation": 4306,
      "bell": 4307,
      "carter": 4308,
      "bob": 4309,
      "topic": 4310,
      "apparently": 4311,
      "aim": 4312,
      "bound": 4313,
      "##erate": 4314,
      "##orters": 4315,
      "stated": 4316,
      "forget": 4317,
      "##adel": 4318,
      "heat": 4319,
      "enh": 4320,
      "contemp": 4321,
      "roof": 4322,
      "carved": 4323,
      "##issance": 4324,
      "inspect": 4325,
      "explan": 4326,
      "walked": 4327,
      "malays": 4328,
      "impressive": 4329,
      "flowers": 4330,
      "sunday": 4331,
      "der": 4332,
      "gal": 4333,
      "hen": 4334,
      "sar": 4335,
      "##orary": 4336,
      "##ched": 4337,
      "proceed": 4338,
      "pra": 4339,
      "##ortion": 4340,
      "##ishing": 4341,
      "schol": 4342,
      "models": 4343,
      "advis": 4344,
      "##insky": 4345,
      "##eyer": 4346,
      "irs": 4347,
      "holding": 4348,
      "damage": 4349,
      "consistent": 4350,
      "illeg": 4351,
      "pic": 4352,
      "##lers": 4353,
      "##ita": 4354,
      "##ulations": 4355,
      "flight": 4356,
      "fourth": 4357,
      "##what": 4358,
      "teams": 4359,
      "improvement": 4360,
      "victor": 4361,
      "freedom": 4362,
      "renaissance": 4363,
      "rennie": 4364,
      "300": 4365,
      "bat": 4366,
      "nurs": 4367,
      "##bon": 4368,
      "stage": 4369,
      "##aming": 4370,
      "haw": 4371,
      "pray": 4372,
      "symp": 4373,
      "defend": 4374,
      "forms": 4375,
      "pointed": 4376,
      "telling": 4377,
      "negative": 4378,
      "dropped": 4379,
      "vandem": 4380,
      "cab": 4381,
      "furn": 4382,
      "mond": 4383,
      "##ta": 4384,
      "##ham": 4385,
      "##arian": 4386,
      "meat": 4387,
      "##iza": 4388,
      "queen": 4389,
      "contain": 4390,
      "coal": 4391,
      "interests": 4392,
      "productivity": 4393,
      "irish": 4394,
      "principles": 4395,
      "afternoon": 4396,
      "lakes": 4397,
      "neat": 4398,
      "chic": 4399,
      "tru": 4400,
      "monaster": 4401,
      "##ront": 4402,
      "##holders": 4403,
      "physical": 4404,
      "vandemeyer": 4405,
      "tenn": 4406,
      "##bit": 4407,
      "##iption": 4408,
      "herself": 4409,
      "lawn": 4410,
      "letters": 4411,
      "tours": 4412,
      "hunt": 4413,
      "attempt": 4414,
      "native": 4415,
      "rome": 4416,
      "##itors": 4417,
      "hearing": 4418,
      "sept": 4419,
      "orient": 4420,
      "somewhat": 4421,
      "burden": 4422,
      "sections": 4423,
      "corporation": 4424,
      "william": 4425,
      "male": 4426,
      "pia": 4427,
      "waters": 4428,
      "##iders": 4429,
      "webs": 4430,
      "neither": 4431,
      "manner": 4432,
      "maxim": 4433,
      "upset": 4434,
      "academ": 4435,
      "##encies": 4436,
      "extent": 4437,
      "fairly": 4438,
      "russian": 4439,
      "fill": 4440,
      "lond": 4441,
      "tiny": 4442,
      "##gment": 4443,
      "##ding": 4444,
      "##ares": 4445,
      "##iture": 4446,
      "193": 4447,
      "monitor": 4448,
      "relatively": 4449,
      "remained": 4450,
      "weekend": 4451,
      "learning": 4452,
      "likes": 4453,
      "negoti": 4454,
      "application": 4455,
      "kent": 4456,
      "mouth": 4457,
      "wal": 4458,
      "recip": 4459,
      "conver": 4460,
      "owned": 4461,
      "factor": 4462,
      "facility": 4463,
      "broke": 4464,
      "##idden": 4465,
      "attractions": 4466,
      "picked": 4467,
      "silver": 4468,
      "constitution": 4469,
      "suddenly": 4470,
      "piazz": 4471,
      "london": 4472,
      "##tom": 4473,
      "##ford": 4474,
      "##ston": 4475,
      "##ida": 4476,
      "plenty": 4477,
      "governor": 4478,
      "entered": 4479,
      "documents": 4480,
      "screen": 4481,
      "surrounded": 4482,
      "january": 4483,
      "dyn": 4484,
      "ice": 4485,
      "##east": 4486,
      "##amble": 4487,
      "fee": 4488,
      "cry": 4489,
      "carri": 4490,
      "typically": 4491,
      "innov": 4492,
      "pyr": 4493,
      "centers": 4494,
      "madeira": 4495,
      "runs": 4496,
      "millions": 4497,
      "glad": 4498,
      "attractive": 4499,
      "balance": 4500,
      "nodded": 4501,
      "bou": 4502,
      "gamb": 4503,
      "nav": 4504,
      "##ses": 4505,
      "##stein": 4506,
      "speed": 4507,
      "visited": 4508,
      "conclud": 4509,
      "customers": 4510,
      "selection": 4511,
      "kenn": 4512,
      "mc": 4513,
      "##hab": 4514,
      "##ero": 4515,
      "##oned": 4516,
      "##thia": 4517,
      "placed": 4518,
      "amend": 4519,
      "overs": 4520,
      "howard": 4521,
      "governments": 4522,
      "slaves": 4523,
      "instance": 4524,
      "agreement": 4525,
      "friendly": 4526,
      "hyp": 4527,
      "fing": 4528,
      "##ais": 4529,
      "##rence": 4530,
      "##hi": 4531,
      "##orter": 4532,
      "perman": 4533,
      "##well": 4534,
      "##while": 4535,
      "responsibilities": 4536,
      "honest": 4537,
      "fixed": 4538,
      "alex": 4539,
      "fal": 4540,
      "soldiers": 4541,
      "photograph": 4542,
      "punish": 4543,
      "subsid": 4544,
      "border": 4545,
      "bure": 4546,
      "fab": 4547,
      "hate": 4548,
      "pound": 4549,
      "##elve": 4550,
      "loan": 4551,
      "click": 4552,
      "hero": 4553,
      "192": 4554,
      "museums": 4555,
      "salt": 4556,
      "roads": 4557,
      "memor": 4558,
      "penal": 4559,
      "crowd": 4560,
      "buddh": 4561,
      "occasion": 4562,
      "cynthia": 4563,
      "fascinating": 4564,
      "hollywood": 4565,
      "##lies": 4566,
      "##mark": 4567,
      "##itation": 4568,
      "whom": 4569,
      "storm": 4570,
      "chann": 4571,
      "##ght": 4572,
      "mechan": 4573,
      "clothing": 4574,
      "agric": 4575,
      "scot": 4576,
      "belong": 4577,
      "terror": 4578,
      "implemented": 4579,
      "electricity": 4580,
      "spectacular": 4581,
      "circumst": 4582,
      "challenge": 4583,
      "agricult": 4584,
      "iv": 4585,
      "tired": 4586,
      "ash": 4587,
      "##cket": 4588,
      "attend": 4589,
      "monica": 4590,
      "reductions": 4591,
      "approved": 4592,
      "managed": 4593,
      "detailed": 4594,
      "uncert": 4595,
      "slowly": 4596,
      "besides": 4597,
      "ol": 4598,
      "sister": 4599,
      "##pie": 4600,
      "##ider": 4601,
      "smart": 4602,
      "##raft": 4603,
      "defic": 4604,
      "covers": 4605,
      "protest": 4606,
      "reasonable": 4607,
      "newspaper": 4608,
      "safety": 4609,
      "27": 4610,
      "fgd": 4611,
      "##com": 4612,
      "##iment": 4613,
      "bright": 4614,
      "carp": 4615,
      "accident": 4616,
      "emphas": 4617,
      "##ardship": 4618,
      "basically": 4619,
      "technologies": 4620,
      "archae": 4621,
      "strategy": 4622,
      "copy": 4623,
      "secretary": 4624,
      "hat": 4625,
      "content": 4626,
      "reput": 4627,
      "obtain": 4628,
      "advent": 4629,
      "##ashed": 4630,
      "creating": 4631,
      "materials": 4632,
      "communication": 4633,
      "adopted": 4634,
      "ought": 4635,
      "approximately": 4636,
      "sather": 4637,
      "##pm": 4638,
      "carried": 4639,
      "dism": 4640,
      "195": 4641,
      "scale": 4642,
      "recover": 4643,
      "reviewed": 4644,
      "splend": 4645,
      "experts": 4646,
      "sorry": 4647,
      "slightly": 4648,
      "bod": 4649,
      "jump": 4650,
      "rat": 4651,
      "##zar": 4652,
      "##nic": 4653,
      "##ils": 4654,
      "##iously": 4655,
      "presence": 4656,
      "purchase": 4657,
      "incentives": 4658,
      "bureau": 4659,
      "aust": 4660,
      "enforce": 4661,
      "hasn": 4662,
      "pover": 4663,
      "guil": 4664,
      "magnificent": 4665,
      "##nel": 4666,
      "##aled": 4667,
      "##icip": 4668,
      "conven": 4669,
      "prime": 4670,
      "##igned": 4671,
      "reality": 4672,
      "patient": 4673,
      "explore": 4674,
      "magic": 4675,
      "christmas": 4676,
      "historic": 4677,
      "egyptian": 4678,
      "31": 4679,
      "##atically": 4680,
      "reag": 4681,
      "loans": 4682,
      "resist": 4683,
      "fees": 4684,
      "anywhere": 4685,
      "active": 4686,
      "reducing": 4687,
      "beauty": 4688,
      "replace": 4689,
      "sexual": 4690,
      "orders": 4691,
      "aliens": 4692,
      "dry": 4693,
      "gonna": 4694,
      "hers": 4695,
      "kitch": 4696,
      "losing": 4697,
      "sult": 4698,
      "##ris": 4699,
      "whe": 4700,
      "shock": 4701,
      "##umes": 4702,
      "adequ": 4703,
      "oblig": 4704,
      "depos": 4705,
      "1990": 4706,
      "succeed": 4707,
      "operating": 4708,
      "kingdom": 4709,
      "accurate": 4710,
      "proposal": 4711,
      "sharp": 4712,
      "poverty": 4713,
      "bars": 4714,
      "pages": 4715,
      "##gen": 4716,
      "##apt": 4717,
      "plus": 4718,
      "##izz": 4719,
      "brad": 4720,
      "cris": 4721,
      "bask": 4722,
      "advance": 4723,
      "debate": 4724,
      "motiv": 4725,
      "mentioned": 4726,
      "applied": 4727,
      "hindu": 4728,
      "ber": 4729,
      "dance": 4730,
      "##wards": 4731,
      "wearing": 4732,
      "leather": 4733,
      "offering": 4734,
      "##others": 4735,
      "##iverse": 4736,
      "publish": 4737,
      "direction": 4738,
      "computers": 4739,
      "strategies": 4740,
      "appeared": 4741,
      "taste": 4742,
      "symbol": 4743,
      "outcomes": 4744,
      "truly": 4745,
      "##off": 4746,
      "onto": 4747,
      "clin": 4748,
      "##aked": 4749,
      "contained": 4750,
      "##onds": 4751,
      "join": 4752,
      "extensive": 4753,
      "communities": 4754,
      "churches": 4755,
      "specifically": 4756,
      "eighty": 4757,
      "initiatives": 4758,
      "encourage": 4759,
      "criminal": 4760,
      "ny": 4761,
      "##time": 4762,
      "thick": 4763,
      "##eration": 4764,
      "craz": 4765,
      "smiled": 4766,
      "decade": 4767,
      "artist": 4768,
      "edge": 4769,
      "charles": 4770,
      "effectively": 4771,
      "teacher": 4772,
      "appreciate": 4773,
      "kentuck": 4774,
      "2a": 4775,
      "##head": 4776,
      "shut": 4777,
      "becomes": 4778,
      "intel": 4779,
      "poison": 4780,
      "partners": 4781,
      "elimin": 4782,
      "belief": 4783,
      "processing": 4784,
      "focused": 4785,
      "religion": 4786,
      "ibiza": 4787,
      "illegal": 4788,
      "mas": 4789,
      "ine": 4790,
      "##ads": 4791,
      "launch": 4792,
      "##ifications": 4793,
      "wars": 4794,
      "meetings": 4795,
      "departments": 4796,
      "richard": 4797,
      "pressure": 4798,
      "recognize": 4799,
      "guns": 4800,
      "weapon": 4801,
      "decorated": 4802,
      "advertising": 4803,
      "elderly": 4804,
      "witness": 4805,
      "guilty": 4806,
      "pm": 4807,
      "##awn": 4808,
      "##ari": 4809,
      "forest": 4810,
      "##irts": 4811,
      "league": 4812,
      "relief": 4813,
      "vision": 4814,
      "bigger": 4815,
      "criteria": 4816,
      "experienced": 4817,
      "napole": 4818,
      "piazza": 4819,
      "wil": 4820,
      "##hs": 4821,
      "shape": 4822,
      "decades": 4823,
      "provisions": 4824,
      "barg": 4825,
      "portion": 4826,
      "stayed": 4827,
      "harbor": 4828,
      "absor": 4829,
      "##orpor": 4830,
      "displays": 4831,
      "cable": 4832,
      "cave": 4833,
      "fought": 4834,
      "os": 4835,
      "delic": 4836,
      "notes": 4837,
      "worksh": 4838,
      "instruct": 4839,
      "valu": 4840,
      "carefully": 4841,
      "emot": 4842,
      "transform": 4843,
      "privacy": 4844,
      "villages": 4845,
      "baseball": 4846,
      "customer": 4847,
      "##heim": 4848,
      "obviously": 4849,
      "video": 4850,
      "elegant": 4851,
      "code": 4852,
      "eating": 4853,
      "hom": 4854,
      "sick": 4855,
      "##tions": 4856,
      "sharing": 4857,
      "gods": 4858,
      "alive": 4859,
      "worst": 4860,
      "twelve": 4861,
      "fool": 4862,
      "consumption": 4863,
      "effectiveness": 4864,
      "audience": 4865,
      "functions": 4866,
      "package": 4867,
      "essential": 4868,
      "distribution": 4869,
      "september": 4870,
      "90": 4871,
      "fant": 4872,
      "ky": 4873,
      "nom": 4874,
      "ox": 4875,
      "oce": 4876,
      "penn": 4877,
      "##ties": 4878,
      "##aling": 4879,
      "atl": 4880,
      "dole": 4881,
      "sov": 4882,
      "crimes": 4883,
      "syn": 4884,
      "readers": 4885,
      "solution": 4886,
      "entirely": 4887,
      "animal": 4888,
      "initiative": 4889,
      "sculpture": 4890,
      "supreme": 4891,
      "duty": 4892,
      "divers": 4893,
      "##uff": 4894,
      "delight": 4895,
      "cutting": 4896,
      "limits": 4897,
      "harm": 4898,
      "##ellig": 4899,
      "wooden": 4900,
      "democratic": 4901,
      "previously": 4902,
      "urban": 4903,
      "rapid": 4904,
      "festival": 4905,
      "closer": 4906,
      "surpluses": 4907,
      "cere": 4908,
      "alloc": 4909,
      "cliff": 4910,
      "expend": 4911,
      "moon": 4912,
      "background": 4913,
      "statewide": 4914,
      "valid": 4915,
      "formal": 4916,
      "##phere": 4917,
      "supported": 4918,
      "shook": 4919,
      "independence": 4920,
      "reliability": 4921,
      "eligible": 4922,
      "80": 4923,
      "rum": 4924,
      "va": 4925,
      "##ober": 4926,
      "##hen": 4927,
      "##alia": 4928,
      "nep": 4929,
      "complic": 4930,
      "incorpor": 4931,
      "##anged": 4932,
      "lawrence": 4933,
      "obt": 4934,
      "realized": 4935,
      "increases": 4936,
      "politicians": 4937,
      "happening": 4938,
      "option": 4939,
      "selected": 4940,
      "mistake": 4941,
      "accomplish": 4942,
      "random": 4943,
      "october": 4944,
      "dust": 4945,
      "hide": 4946,
      "ped": 4947,
      "conqu": 4948,
      "champ": 4949,
      "leaves": 4950,
      "fewer": 4951,
      "careful": 4952,
      "classical": 4953,
      "continues": 4954,
      "totally": 4955,
      "purposes": 4956,
      "landscape": 4957,
      "##craft": 4958,
      "spr": 4959,
      "teen": 4960,
      "grants": 4961,
      "parks": 4962,
      "delay": 4963,
      "defined": 4964,
      "concert": 4965,
      "opening": 4966,
      "sugar": 4967,
      "medicine": 4968,
      "russia": 4969,
      "##rofit": 4970,
      "monday": 4971,
      "napoleon": 4972,
      "26": 4973,
      "pier": 4974,
      "tent": 4975,
      "vren": 4976,
      "##oto": 4977,
      "##owned": 4978,
      "laid": 4979,
      "strict": 4980,
      "helpful": 4981,
      "phase": 4982,
      "ends": 4983,
      "vrenna": 4984,
      "bother": 4985,
      "gates": 4986,
      "##enance": 4987,
      "##lying": 4988,
      "##illy": 4989,
      "plaza": 4990,
      "remo": 4991,
      "missed": 4992,
      "confidence": 4993,
      "allows": 4994,
      "collections": 4995,
      "pulled": 4996,
      "dogs": 4997,
      "scenes": 4998,
      "columns": 4999,
      "assumed": 5000,
      "scotland": 5001,
      "dig": 5002,
      "hire": 5003,
      "ot": 5004,
      "##han": 5005,
      "intellig": 5006,
      "possibility": 5007,
      "cell": 5008,
      "motor": 5009,
      "predict": 5010,
      "bottom": 5011,
      "comfortable": 5012,
      "comprehensive": 5013,
      "70": 5014,
      "ath": 5015,
      "gross": 5016,
      "sides": 5017,
      "##gar": 5018,
      "##iance": 5019,
      "##ship": 5020,
      "##see": 5021,
      "aside": 5022,
      "##acing": 5023,
      "##alls": 5024,
      "crus": 5025,
      "overlo": 5026,
      "detect": 5027,
      "amounts": 5028,
      "describes": 5029,
      "primarily": 5030,
      "seeking": 5031,
      "lewinsky": 5032,
      "ocean": 5033,
      "pill": 5034,
      "vary": 5035,
      "hey": 5036,
      "##aker": 5037,
      "carol": 5038,
      "assume": 5039,
      "percentage": 5040,
      "fifteen": 5041,
      "fields": 5042,
      "adults": 5043,
      "bau": 5044,
      "crop": 5045,
      "##hal": 5046,
      "##lets": 5047,
      "##abilities": 5048,
      "resource": 5049,
      "dise": 5050,
      "remind": 5051,
      "stuck": 5052,
      "britain": 5053,
      "improvements": 5054,
      "administrative": 5055,
      "expectations": 5056,
      "replaced": 5057,
      "sufficient": 5058,
      "schedul": 5059,
      "liberal": 5060,
      "sacr": 5061,
      "iraq": 5062,
      "upper": 5063,
      "##ext": 5064,
      "shore": 5065,
      "unus": 5066,
      "severe": 5067,
      "professor": 5068,
      "journey": 5069,
      "philos": 5070,
      "frequently": 5071,
      "troops": 5072,
      "scholars": 5073,
      "nix": 5074,
      "##water": 5075,
      "##ateau": 5076,
      "aband": 5077,
      "##acts": 5078,
      "brill": 5079,
      "diss": 5080,
      "scared": 5081,
      "columb": 5082,
      "1994": 5083,
      "organized": 5084,
      "controvers": 5085,
      "stup": 5086,
      "replied": 5087,
      "##ipping": 5088,
      "appears": 5089,
      "convin": 5090,
      "lucky": 5091,
      "forgot": 5092,
      "unfortunately": 5093,
      "wing": 5094,
      "##for": 5095,
      "##okes": 5096,
      "disag": 5097,
      "underst": 5098,
      "subsequ": 5099,
      "##crib": 5100,
      "skies": 5101,
      "supporting": 5102,
      "facade": 5103,
      "arms": 5104,
      "representatives": 5105,
      "jewel": 5106,
      "destination": 5107,
      "ridic": 5108,
      "efficiency": 5109,
      "institute": 5110,
      "consumer": 5111,
      "chicago": 5112,
      "reputation": 5113,
      "sultan": 5114,
      "ec": 5115,
      "nic": 5116,
      "rh": 5117,
      "riding": 5118,
      "angry": 5119,
      "##ivals": 5120,
      "plain": 5121,
      "unable": 5122,
      "acid": 5123,
      "coord": 5124,
      "everywhere": 5125,
      "fuel": 5126,
      "calling": 5127,
      "depict": 5128,
      "surf": 5129,
      "showing": 5130,
      "possibly": 5131,
      "crafts": 5132,
      "interpret": 5133,
      "scandal": 5134,
      "crisis": 5135,
      "bunch": 5136,
      "##how": 5137,
      "##fa": 5138,
      "anse": 5139,
      "##itan": 5140,
      "atmos": 5141,
      "##usion": 5142,
      "##actions": 5143,
      "committed": 5144,
      "visiting": 5145,
      "turns": 5146,
      "presidential": 5147,
      "explor": 5148,
      "escape": 5149,
      "virginia": 5150,
      "tonight": 5151,
      "imperial": 5152,
      "crazy": 5153,
      "##urb": 5154,
      "##terday": 5155,
      "chronic": 5156,
      "##pping": 5157,
      "myst": 5158,
      "stress": 5159,
      "smoke": 5160,
      "joined": 5161,
      "hardly": 5162,
      "cheaper": 5163,
      "yesterday": 5164,
      "directors": 5165,
      "protected": 5166,
      "buried": 5167,
      "observed": 5168,
      "conservative": 5169,
      "teleph": 5170,
      "broken": 5171,
      "circumstances": 5172,
      "atmosphere": 5173,
      "##iation": 5174,
      "##icial": 5175,
      "youth": 5176,
      "##elines": 5177,
      "ages": 5178,
      "##agas": 5179,
      "expos": 5180,
      "discr": 5181,
      "jones": 5182,
      "holds": 5183,
      "attraction": 5184,
      "grounds": 5185,
      "fortress": 5186,
      "superv": 5187,
      "alien": 5188,
      "tomorrow": 5189,
      "franklin": 5190,
      "pyram": 5191,
      "permanent": 5192,
      "mut": 5193,
      "tel": 5194,
      "##zant": 5195,
      "##ef": 5196,
      "##inent": 5197,
      "##entially": 5198,
      "##ading": 5199,
      "byzant": 5200,
      "spons": 5201,
      "upd": 5202,
      "compens": 5203,
      "recyc": 5204,
      "tourism": 5205,
      "contrast": 5206,
      "15th": 5207,
      "catholic": 5208,
      "##going": 5209,
      "treasury": 5210,
      "rebu": 5211,
      "400": 5212,
      "##orough": 5213,
      "stars": 5214,
      "gray": 5215,
      "crack": 5216,
      "append": 5217,
      "smith": 5218,
      "courty": 5219,
      "approval": 5220,
      "facing": 5221,
      "trading": 5222,
      "paul": 5223,
      "doctors": 5224,
      "dramatic": 5225,
      "valuable": 5226,
      "nixon": 5227,
      "23": 5228,
      "soph": 5229,
      "##tr": 5230,
      "##lines": 5231,
      "##ico": 5232,
      "##iber": 5233,
      "regional": 5234,
      "transition": 5235,
      "ideal": 5236,
      "arrange": 5237,
      "pull": 5238,
      "flood": 5239,
      "victims": 5240,
      "bird": 5241,
      "penins": 5242,
      "submitted": 5243,
      "pilgr": 5244,
      "ba": 5245,
      "bust": 5246,
      "cig": 5247,
      "dial": 5248,
      "math": 5249,
      "##rig": 5250,
      "##ox": 5251,
      "##rees": 5252,
      "forty": 5253,
      "##imp": 5254,
      "dozen": 5255,
      "plat": 5256,
      "clo": 5257,
      "anybody": 5258,
      "regulation": 5259,
      "raising": 5260,
      "domin": 5261,
      "competitive": 5262,
      "birds": 5263,
      "surprising": 5264,
      "expression": 5265,
      "connection": 5266,
      "tickets": 5267,
      "folks": 5268,
      "basket": 5269,
      "intellect": 5270,
      "dream": 5271,
      "sulf": 5272,
      "taught": 5273,
      "##sey": 5274,
      "##erson": 5275,
      "trend": 5276,
      "cried": 5277,
      "highway": 5278,
      "investments": 5279,
      "auditor": 5280,
      "madrid": 5281,
      "manufactur": 5282,
      "expressed": 5283,
      "literature": 5284,
      "minimum": 5285,
      "cu": 5286,
      "ire": 5287,
      "nations": 5288,
      "##fo": 5289,
      "##otes": 5290,
      "stations": 5291,
      "friday": 5292,
      "mans": 5293,
      "sport": 5294,
      "##aken": 5295,
      "depress": 5296,
      "artif": 5297,
      "testim": 5298,
      "##employ": 5299,
      "distinct": 5300,
      "necessarily": 5301,
      "banks": 5302,
      "sensitive": 5303,
      "released": 5304,
      "conflict": 5305,
      "ultimately": 5306,
      "fro": 5307,
      "fda": 5308,
      "ga": 5309,
      "gang": 5310,
      "kick": 5311,
      "sale": 5312,
      "##ingu": 5313,
      "##uts": 5314,
      "chose": 5315,
      "poland": 5316,
      "facts": 5317,
      "significantly": 5318,
      "image": 5319,
      "shoes": 5320,
      "litig": 5321,
      "surprise": 5322,
      "voters": 5323,
      "##exp": 5324,
      "stewardship": 5325,
      "peninsula": 5326,
      "jim": 5327,
      "tub": 5328,
      "##rib": 5329,
      "thorough": 5330,
      "reject": 5331,
      "##ilit": 5332,
      "alf": 5333,
      "plays": 5334,
      "coop": 5335,
      "coach": 5336,
      "bull": 5337,
      "smell": 5338,
      "assert": 5339,
      "awful": 5340,
      "loud": 5341,
      "prepare": 5342,
      "ordered": 5343,
      "##know": 5344,
      "saturday": 5345,
      "punishment": 5346,
      "uncertain": 5347,
      "33": 5348,
      "cous": 5349,
      "eag": 5350,
      "kir": 5351,
      "viet": 5352,
      "ww": 5353,
      "##dy": 5354,
      "##antly": 5355,
      "pride": 5356,
      "##outs": 5357,
      "appoint": 5358,
      "assump": 5359,
      "##ologists": 5360,
      "represented": 5361,
      "global": 5362,
      "muslim": 5363,
      "territory": 5364,
      "oversight": 5365,
      "assumptions": 5366,
      "29": 5367,
      "caves": 5368,
      "dim": 5369,
      "dating": 5370,
      "pc": 5371,
      "ring": 5372,
      "sab": 5373,
      "##front": 5374,
      "##ura": 5375,
      "##ola": 5376,
      "doors": 5377,
      "unemploy": 5378,
      "feature": 5379,
      "stream": 5380,
      "##book": 5381,
      "styles": 5382,
      "achieved": 5383,
      "recommended": 5384,
      "neighb": 5385,
      "candidate": 5386,
      "category": 5387,
      "splendid": 5388,
      "##life": 5389,
      "chain": 5390,
      "signed": 5391,
      "breed": 5392,
      "participate": 5393,
      "claimed": 5394,
      "pleasure": 5395,
      "appendix": 5396,
      "00": 5397,
      "##omas": 5398,
      "lift": 5399,
      "context": 5400,
      "flower": 5401,
      "perspective": 5402,
      "harder": 5403,
      "aircraft": 5404,
      "affairs": 5405,
      "summary": 5406,
      "delivered": 5407,
      "typical": 5408,
      "victory": 5409,
      "mercury": 5410,
      "ireland": 5411,
      "cats": 5412,
      "dates": 5413,
      "kings": 5414,
      "lord": 5415,
      "##road": 5416,
      "excess": 5417,
      "##isted": 5418,
      "##osen": 5419,
      "acknow": 5420,
      "brick": 5421,
      "signs": 5422,
      "investors": 5423,
      "improving": 5424,
      "officer": 5425,
      "maintenance": 5426,
      "colorado": 5427,
      "indiana": 5428,
      "latest": 5429,
      "##works": 5430,
      "bin": 5431,
      "##aic": 5432,
      "##greg": 5433,
      "##bel": 5434,
      "resol": 5435,
      "##aka": 5436,
      "##agger": 5437,
      "hole": 5438,
      "economics": 5439,
      "temper": 5440,
      "largely": 5441,
      "steep": 5442,
      "johnson": 5443,
      "turning": 5444,
      "structures": 5445,
      "expanded": 5446,
      "vent": 5447,
      "##oty": 5448,
      "weir": 5449,
      "##abbed": 5450,
      "expenses": 5451,
      "greatly": 5452,
      "blow": 5453,
      "##ugged": 5454,
      "revol": 5455,
      "sentence": 5456,
      "contribution": 5457,
      "definition": 5458,
      "increasingly": 5459,
      "guidelines": 5460,
      "mexico": 5461,
      "henry": 5462,
      "peter": 5463,
      "##bles": 5464,
      "tob": 5465,
      "##arts": 5466,
      "graph": 5467,
      "attest": 5468,
      "##ogue": 5469,
      "remaining": 5470,
      "estate": 5471,
      "silence": 5472,
      "iii": 5473,
      "##kyo": 5474,
      "wealthy": 5475,
      "sample": 5476,
      "transportation": 5477,
      "bronze": 5478,
      "scottish": 5479,
      "nursing": 5480,
      "bork": 5481,
      "cod": 5482,
      "jail": 5483,
      "ske": 5484,
      "##inations": 5485,
      "##ona": 5486,
      "whitting": 5487,
      "stamp": 5488,
      "##uration": 5489,
      "brain": 5490,
      "desk": 5491,
      "colors": 5492,
      "monet": 5493,
      "depending": 5494,
      "1993": 5495,
      "considering": 5496,
      "listed": 5497,
      "positions": 5498,
      "films": 5499,
      "memory": 5500,
      "repeated": 5501,
      "cin": 5502,
      "ferry": 5503,
      "util": 5504,
      "##sa": 5505,
      "##12": 5506,
      "tokyo": 5507,
      "##itals": 5508,
      "knock": 5509,
      "usual": 5510,
      "implic": 5511,
      "brings": 5512,
      "heads": 5513,
      "hoping": 5514,
      "turk": 5515,
      "teaching": 5516,
      "settlement": 5517,
      "normally": 5518,
      "articles": 5519,
      "voting": 5520,
      "accompan": 5521,
      "giant": 5522,
      "categories": 5523,
      "writer": 5524,
      "tennis": 5525,
      "borrow": 5526,
      "core": 5527,
      "ment": 5528,
      "rank": 5529,
      "veter": 5530,
      "##cend": 5531,
      "prove": 5532,
      "truck": 5533,
      "knowing": 5534,
      "quit": 5535,
      "preamble": 5536,
      "indians": 5537,
      "serves": 5538,
      "slim": 5539,
      "causes": 5540,
      "player": 5541,
      "ski": 5542,
      "tells": 5543,
      "improper": 5544,
      "rising": 5545,
      "volcan": 5546,
      "suggests": 5547,
      "combination": 5548,
      "frequent": 5549,
      "chemical": 5550,
      "whittington": 5551,
      "bout": 5552,
      "hidden": 5553,
      "##gers": 5554,
      "##cas": 5555,
      "##point": 5556,
      "ships": 5557,
      "sew": 5558,
      "conce": 5559,
      "##asty": 5560,
      "outdo": 5561,
      "evolution": 5562,
      "scar": 5563,
      "strip": 5564,
      "studied": 5565,
      "portra": 5566,
      "exclus": 5567,
      "consideration": 5568,
      "turkey": 5569,
      "13th": 5570,
      "communications": 5571,
      "odd": 5572,
      "residential": 5573,
      "artifacts": 5574,
      "75": 5575,
      "fans": 5576,
      "tig": 5577,
      "##ias": 5578,
      "bear": 5579,
      "##stairs": 5580,
      "albert": 5581,
      "enth": 5582,
      "arc": 5583,
      "explo": 5584,
      "attrib": 5585,
      "entry": 5586,
      "confident": 5587,
      "##standing": 5588,
      "allowances": 5589,
      "measured": 5590,
      "properly": 5591,
      "attacks": 5592,
      "institution": 5593,
      "begun": 5594,
      "candidates": 5595,
      "powers": 5596,
      "aspects": 5597,
      "soviet": 5598,
      "les": 5599,
      "tap": 5600,
      "thomas": 5601,
      "theat": 5602,
      "output": 5603,
      "drawn": 5604,
      "plane": 5605,
      "marked": 5606,
      "opera": 5607,
      "treated": 5608,
      "argue": 5609,
      "falling": 5610,
      "##ushed": 5611,
      "14th": 5612,
      "catal": 5613,
      "maryland": 5614,
      "sweet": 5615,
      "welcome": 5616,
      "francis": 5617,
      "shadow": 5618,
      "bradley": 5619,
      "carolina": 5620,
      "dining": 5621,
      "pig": 5622,
      "tor": 5623,
      "##uces": 5624,
      "##gl": 5625,
      "##verse": 5626,
      "clar": 5627,
      "joint": 5628,
      "##raw": 5629,
      "corrupt": 5630,
      "faces": 5631,
      "winning": 5632,
      "occurred": 5633,
      "sacred": 5634,
      "florida": 5635,
      "suspic": 5636,
      "framework": 5637,
      "furniture": 5638,
      "sulfur": 5639,
      "##itative": 5640,
      "rein": 5641,
      "##amber": 5642,
      "prosec": 5643,
      "fran": 5644,
      "##iform": 5645,
      "nox": 5646,
      "enjo": 5647,
      "faced": 5648,
      "choices": 5649,
      "judgment": 5650,
      "implementing": 5651,
      "reference": 5652,
      "applications": 5653,
      "uncle": 5654,
      "relationships": 5655,
      "exhibits": 5656,
      "newspapers": 5657,
      "stretch": 5658,
      "merely": 5659,
      "hawai": 5660,
      "understood": 5661,
      "intellectual": 5662,
      "gif": 5663,
      "wore": 5664,
      "##aver": 5665,
      "##wr": 5666,
      "##lla": 5667,
      "asian": 5668,
      "gran": 5669,
      "accomm": 5670,
      "elabor": 5671,
      "##isms": 5672,
      "##board": 5673,
      "failure": 5674,
      "settled": 5675,
      "renov": 5676,
      "galleries": 5677,
      "combined": 5678,
      "germany": 5679,
      "muslims": 5680,
      "december": 5681,
      "monastery": 5682,
      "weird": 5683,
      "accommod": 5684,
      "ble": 5685,
      "kil": 5686,
      "kath": 5687,
      "##icing": 5688,
      "reward": 5689,
      "forb": 5690,
      "incred": 5691,
      "buff": 5692,
      "desire": 5693,
      "assass": 5694,
      "preserved": 5695,
      "subt": 5696,
      "medit": 5697,
      "surely": 5698,
      "feels": 5699,
      "tested": 5700,
      "classes": 5701,
      "lively": 5702,
      "characters": 5703,
      "characteristics": 5704,
      "##ographic": 5705,
      "latin": 5706,
      "sadd": 5707,
      "reliable": 5708,
      "conclusions": 5709,
      "consequences": 5710,
      "stakeholders": 5711,
      "kos": 5712,
      "lately": 5713,
      "oz": 5714,
      "tight": 5715,
      "##acco": 5716,
      "so2": 5717,
      "##ached": 5718,
      "##encing": 5719,
      "recall": 5720,
      "finish": 5721,
      "cazar": 5722,
      "switch": 5723,
      "palest": 5724,
      "opposed": 5725,
      "bills": 5726,
      "listening": 5727,
      "lovely": 5728,
      "applicable": 5729,
      "preferred": 5730,
      "capture": 5731,
      "railway": 5732,
      "struggle": 5733,
      "daniel": 5734,
      "satisf": 5735,
      "website": 5736,
      "complicated": 5737,
      "exposure": 5738,
      "boss": 5739,
      "ramp": 5740,
      "sought": 5741,
      "##bby": 5742,
      "##semb": 5743,
      "##rose": 5744,
      "shif": 5745,
      "sum": 5746,
      "sust": 5747,
      "worker": 5748,
      "ours": 5749,
      "attitude": 5750,
      "locals": 5751,
      "sets": 5752,
      "earned": 5753,
      "##bey": 5754,
      "keeps": 5755,
      "mainly": 5756,
      "harv": 5757,
      "anticip": 5758,
      "participation": 5759,
      "devoted": 5760,
      "##burg": 5761,
      "survive": 5762,
      "masterpie": 5763,
      "commitment": 5764,
      "bauer": 5765,
      "stupid": 5766,
      "fount": 5767,
      "pit": 5768,
      "##town": 5769,
      "##bi": 5770,
      "##llo": 5771,
      "whis": 5772,
      "enorm": 5773,
      "driven": 5774,
      "prev": 5775,
      "##uese": 5776,
      "minister": 5777,
      "financing": 5778,
      "##ruction": 5779,
      "superb": 5780,
      "investigation": 5781,
      "ticket": 5782,
      "islamic": 5783,
      "portuguese": 5784,
      "testimony": 5785,
      "faster": 5786,
      "##rich": 5787,
      "##yl": 5788,
      "##anes": 5789,
      "asia": 5790,
      "chick": 5791,
      "alle": 5792,
      "reserv": 5793,
      "febr": 5794,
      "smoking": 5795,
      "monuments": 5796,
      "legend": 5797,
      "1992": 5798,
      "thoughts": 5799,
      "electron": 5800,
      "collected": 5801,
      "calm": 5802,
      "involving": 5803,
      "exciting": 5804,
      "rocks": 5805,
      "regardless": 5806,
      "divided": 5807,
      "principle": 5808,
      "crowded": 5809,
      "carrying": 5810,
      "begins": 5811,
      "inspired": 5812,
      "conclusion": 5813,
      "substantial": 5814,
      "mccain": 5815,
      "kennedy": 5816,
      "enforcement": 5817,
      "disease": 5818,
      "february": 5819,
      "35": 5820,
      "gp": 5821,
      "mental": 5822,
      "meal": 5823,
      "mah": 5824,
      "emission": 5825,
      "equally": 5826,
      "##box": 5827,
      "bedroom": 5828,
      "venet": 5829,
      "situations": 5830,
      "reagan": 5831,
      "cigar": 5832,
      "turkish": 5833,
      "tons": 5834,
      "wise": 5835,
      "##ux": 5836,
      "##rant": 5837,
      "##ja": 5838,
      "##ano": 5839,
      "inner": 5840,
      "##anta": 5841,
      "outcome": 5842,
      "grace": 5843,
      "interim": 5844,
      "marks": 5845,
      "finest": 5846,
      "providers": 5847,
      "ruins": 5848,
      "transl": 5849,
      "elections": 5850,
      "ceiling": 5851,
      "150": 5852,
      "towers": 5853,
      "solid": 5854,
      "violent": 5855,
      "sandy": 5856,
      "scenario": 5857,
      "explanation": 5858,
      "gor": 5859,
      "jac": 5860,
      "map": 5861,
      "nile": 5862,
      "trop": 5863,
      "inhab": 5864,
      "shared": 5865,
      "chat": 5866,
      "trick": 5867,
      "lee": 5868,
      "reporters": 5869,
      "intent": 5870,
      "carib": 5871,
      "poet": 5872,
      "desper": 5873,
      "empty": 5874,
      "visits": 5875,
      "charged": 5876,
      "johnny": 5877,
      "linked": 5878,
      "accuracy": 5879,
      "beside": 5880,
      "comparison": 5881,
      "vehicle": 5882,
      "malaysia": 5883,
      "ottom": 5884,
      "ridiculous": 5885,
      "28": 5886,
      "hij": 5887,
      "kl": 5888,
      "##mar": 5889,
      "##pay": 5890,
      "ther": 5891,
      "##erning": 5892,
      "disney": 5893,
      "prec": 5894,
      "warri": 5895,
      "charming": 5896,
      "##resp": 5897,
      "admitted": 5898,
      "officers": 5899,
      "experiences": 5900,
      "##ikes": 5901,
      "remembered": 5902,
      "traveling": 5903,
      "educational": 5904,
      "avoided": 5905,
      "dutch": 5906,
      "chairman": 5907,
      "buddhist": 5908,
      "philosoph": 5909,
      "tobacco": 5910,
      "hijack": 5911,
      "##my": 5912,
      "##pan": 5913,
      "##enz": 5914,
      "##ania": 5915,
      "shaped": 5916,
      "lock": 5917,
      "##cipl": 5918,
      "disaster": 5919,
      "parent": 5920,
      "blame": 5921,
      "publication": 5922,
      "charges": 5923,
      "profits": 5924,
      "operation": 5925,
      "cooking": 5926,
      "perfectly": 5927,
      "writers": 5928,
      "volunteer": 5929,
      "2010": 5930,
      "gambling": 5931,
      "occasionally": 5932,
      "element": 5933,
      "pitch": 5934,
      "##fast": 5935,
      "##wan": 5936,
      "##20": 5937,
      "input": 5938,
      "stair": 5939,
      "stared": 5940,
      "spin": 5941,
      "reserve": 5942,
      "scary": 5943,
      "handed": 5944,
      "sanct": 5945,
      "teachers": 5946,
      "democracy": 5947,
      "latter": 5948,
      "consumers": 5949,
      "unusual": 5950,
      "cycle": 5951,
      "kr": 5952,
      "##nn": 5953,
      "toxic": 5954,
      "##esty": 5955,
      "##estone": 5956,
      "chest": 5957,
      "yellow": 5958,
      "uniform": 5959,
      "overse": 5960,
      "##aints": 5961,
      "natalia": 5962,
      "projected": 5963,
      "excited": 5964,
      "##anean": 5965,
      "constructed": 5966,
      "suffered": 5967,
      "degrees": 5968,
      "strugg": 5969,
      "courtyard": 5970,
      "unemployment": 5971,
      "bol": 5972,
      "migr": 5973,
      "pine": 5974,
      "tues": 5975,
      "##adium": 5976,
      "##ulating": 5977,
      "fruit": 5978,
      "chateau": 5979,
      "worship": 5980,
      "somehow": 5981,
      "##ipe": 5982,
      "precise": 5983,
      "strike": 5984,
      "monarch": 5985,
      "retired": 5986,
      "##ternal": 5987,
      "resulted": 5988,
      "represents": 5989,
      "judges": 5990,
      "pottery": 5991,
      "existence": 5992,
      "hung": 5993,
      "documentation": 5994,
      "adequate": 5995,
      "basketball": 5996,
      "ozone": 5997,
      "bor": 5998,
      "fert": 5999,
      "pure": 6000,
      "##coming": 6001,
      "##met": 6002,
      "##itated": 6003,
      "##asion": 6004,
      "##etr": 6005,
      "forever": 6006,
      "branch": 6007,
      "serving": 6008,
      "finn": 6009,
      "persons": 6010,
      "charl": 6011,
      "##bell": 6012,
      "annually": 6013,
      "exceed": 6014,
      "seriously": 6015,
      "israeli": 6016,
      "boilerm": 6017,
      "boulev": 6018,
      "lying": 6019,
      "om": 6020,
      "tone": 6021,
      "vul": 6022,
      "wage": 6023,
      "##oir": 6024,
      "##che": 6025,
      "##istical": 6026,
      "trained": 6027,
      "191": 6028,
      "tail": 6029,
      "guided": 6030,
      "stead": 6031,
      "stepped": 6032,
      "##ructure": 6033,
      "sixty": 6034,
      "analyses": 6035,
      "convention": 6036,
      "casual": 6037,
      "earthqu": 6038,
      "restrictions": 6039,
      "colonial": 6040,
      "patterns": 6041,
      "components": 6042,
      "penalty": 6043,
      "kyoto": 6044,
      "telephone": 6045,
      "ae": 6046,
      "cer": 6047,
      "gop": 6048,
      "rice": 6049,
      "rival": 6050,
      "tab": 6051,
      "##rad": 6052,
      "thin": 6053,
      "##istan": 6054,
      "blade": 6055,
      "basil": 6056,
      "concerning": 6057,
      "privile": 6058,
      "elsewhere": 6059,
      "successfully": 6060,
      "images": 6061,
      "settle": 6062,
      "principal": 6063,
      "regularly": 6064,
      "clubs": 6065,
      "split": 6066,
      "error": 6067,
      "barely": 6068,
      "cabin": 6069,
      "cinem": 6070,
      "cios": 6071,
      "nur": 6072,
      "pac": 6073,
      "##uge": 6074,
      "##gate": 6075,
      "height": 6076,
      "proved": 6077,
      "deem": 6078,
      "##ushing": 6079,
      "alb": 6080,
      "##oster": 6081,
      "manual": 6082,
      "plastic": 6083,
      "grave": 6084,
      "shoulder": 6085,
      "asset": 6086,
      "writes": 6087,
      "instances": 6088,
      "metal": 6089,
      "classic": 6090,
      "facilit": 6091,
      "generations": 6092,
      "promot": 6093,
      "researchers": 6094,
      "faa": 6095,
      "requested": 6096,
      "links": 6097,
      "sculptures": 6098,
      "tombs": 6099,
      "folk": 6100,
      "engagement": 6101,
      "remarkable": 6102,
      "dome": 6103,
      "por": 6104,
      "tan": 6105,
      "wages": 6106,
      "##cast": 6107,
      "##ya": 6108,
      "##oupe": 6109,
      "##stream": 6110,
      "##ete": 6111,
      "##thy": 6112,
      "##orted": 6113,
      "plot": 6114,
      "##ansas": 6115,
      "elected": 6116,
      "species": 6117,
      "nonp": 6118,
      "suspect": 6119,
      "division": 6120,
      "climate": 6121,
      "immigration": 6122,
      "cuba": 6123,
      "defeat": 6124,
      "inventory": 6125,
      "scientific": 6126,
      "agricultural": 6127,
      "alfred": 6128,
      "bio": 6129,
      "pir": 6130,
      "##gy": 6131,
      "##iors": 6132,
      "stadium": 6133,
      "##aine": 6134,
      "ads": 6135,
      "impe": 6136,
      "expense": 6137,
      "accused": 6138,
      "formed": 6139,
      "performances": 6140,
      "employers": 6141,
      "weekly": 6142,
      "creation": 6143,
      "involves": 6144,
      "waited": 6145,
      "arrive": 6146,
      "sunset": 6147,
      "traveled": 6148,
      "answered": 6149,
      "fault": 6150,
      "breakfast": 6151,
      "examination": 6152,
      "michel": 6153,
      "weakness": 6154,
      "altar": 6155,
      "channel": 6156,
      "nepal": 6157,
      "cuis": 6158,
      "ain": 6159,
      "dar": 6160,
      "hired": 6161,
      "##bar": 6162,
      "##itures": 6163,
      "##omed": 6164,
      "ongoing": 6165,
      "shift": 6166,
      "shirt": 6167,
      "##estr": 6168,
      "##essed": 6169,
      "noise": 6170,
      "discipl": 6171,
      "relative": 6172,
      "puts": 6173,
      "countryside": 6174,
      "explains": 6175,
      "staying": 6176,
      "awards": 6177,
      "eleven": 6178,
      "eleph": 6179,
      "copies": 6180,
      "handsome": 6181,
      "priority": 6182,
      "celebrated": 6183,
      "holiday": 6184,
      "survived": 6185,
      "analyz": 6186,
      "disappoint": 6187,
      "cnn": 6188,
      "fena": 6189,
      "gagas": 6190,
      "pink": 6191,
      "tip": 6192,
      "##uze": 6193,
      "##rast": 6194,
      "##arm": 6195,
      "##ota": 6196,
      "stable": 6197,
      "##ante": 6198,
      "leon": 6199,
      "##enda": 6200,
      "outl": 6201,
      "unw": 6202,
      "tech": 6203,
      "user": 6204,
      "##aks": 6205,
      "##ache": 6206,
      "personnel": 6207,
      "##hips": 6208,
      "affair": 6209,
      "cheer": 6210,
      "missing": 6211,
      "securities": 6212,
      "infrast": 6213,
      "promote": 6214,
      "excuse": 6215,
      "addresses": 6216,
      "approaches": 6217,
      "demands": 6218,
      "treaty": 6219,
      "##annon": 6220,
      "panel": 6221,
      "requests": 6222,
      "fresco": 6223,
      "installation": 6224,
      "professionals": 6225,
      "disagree": 6226,
      "jewelry": 6227,
      "dancing": 6228,
      "figh": 6229,
      "gau": 6230,
      "jose": 6231,
      "wet": 6232,
      "##la": 6233,
      "##illes": 6234,
      "aggress": 6235,
      "residence": 6236,
      "compare": 6237,
      "sheep": 6238,
      "##ipa": 6239,
      "everyday": 6240,
      "recru": 6241,
      "flag": 6242,
      "locations": 6243,
      "economists": 6244,
      "musee": 6245,
      "receiving": 6246,
      "falls": 6247,
      "describe": 6248,
      "bags": 6249,
      "amendment": 6250,
      "mediterr": 6251,
      "36": 6252,
      "32": 6253,
      "aci": 6254,
      "pace": 6255,
      "ter": 6256,
      "vital": 6257,
      "##case": 6258,
      "##itable": 6259,
      "##aders": 6260,
      "haz": 6261,
      "priest": 6262,
      "nov": 6263,
      "whenever": 6264,
      "visible": 6265,
      "controlled": 6266,
      "practical": 6267,
      "description": 6268,
      "objects": 6269,
      "hunting": 6270,
      "machines": 6271,
      "danger": 6272,
      "introduced": 6273,
      "rarely": 6274,
      "situated": 6275,
      "recipients": 6276,
      "bodies": 6277,
      "www": 6278,
      "mediterranean": 6279,
      "ak": 6280,
      "dio": 6281,
      "nerv": 6282,
      "roles": 6283,
      "anton": 6284,
      "##ingly": 6285,
      "##imate": 6286,
      "abbey": 6287,
      "canal": 6288,
      "outs": 6289,
      "##ouses": 6290,
      "##acted": 6291,
      "interrupt": 6292,
      "cock": 6293,
      "##ensions": 6294,
      "smile": 6295,
      "##eared": 6296,
      "barri": 6297,
      "nonf": 6298,
      "apartments": 6299,
      "horrible": 6300,
      "karf": 6301,
      "bench": 6302,
      "lind": 6303,
      "rene": 6304,
      "##isters": 6305,
      "##oma": 6306,
      "stro": 6307,
      "stairs": 6308,
      "##quar": 6309,
      "evil": 6310,
      "pocket": 6311,
      "##ensus": 6312,
      "finds": 6313,
      "capable": 6314,
      "admit": 6315,
      "palazz": 6316,
      "prompt": 6317,
      "promise": 6318,
      "winds": 6319,
      "romans": 6320,
      "administrator": 6321,
      "examined": 6322,
      "farmers": 6323,
      "ethnic": 6324,
      "wednes": 6325,
      "african": 6326,
      "enemies": 6327,
      "avenue": 6328,
      "enhance": 6329,
      "enthus": 6330,
      "dip": 6331,
      "derry": 6332,
      "sna": 6333,
      "tin": 6334,
      "wound": 6335,
      "##comm": 6336,
      "anth": 6337,
      "##chal": 6338,
      "withd": 6339,
      "boards": 6340,
      "1990s": 6341,
      "popularity": 6342,
      "authors": 6343,
      "##aimed": 6344,
      "accordance": 6345,
      "recorded": 6346,
      "bringing": 6347,
      "pollut": 6348,
      "substance": 6349,
      "cousin": 6350,
      "ottoman": 6351,
      "boring": 6352,
      "vs": 6353,
      "##ois": 6354,
      "##bre": 6355,
      "##amental": 6356,
      "##opes": 6357,
      "##ordan": 6358,
      "downtown": 6359,
      "instru": 6360,
      "farther": 6361,
      "simpl": 6362,
      "curious": 6363,
      "advanced": 6364,
      "airport": 6365,
      "20th": 6366,
      "ruled": 6367,
      "dealing": 6368,
      "agreements": 6369,
      "malay": 6370,
      "referred": 6371,
      "contracts": 6372,
      "examine": 6373,
      "drawing": 6374,
      "mixed": 6375,
      "converted": 6376,
      "kentucky": 6377,
      "removed": 6378,
      "instruments": 6379,
      "aer": 6380,
      "dol": 6381,
      "dict": 6382,
      "file": 6383,
      "hes": 6384,
      "pair": 6385,
      "##ato": 6386,
      "##attered": 6387,
      "##owed": 6388,
      "stroll": 6389,
      "##the": 6390,
      "neck": 6391,
      "canada": 6392,
      "drunk": 6393,
      "scope": 6394,
      "studying": 6395,
      "phr": 6396,
      "employed": 6397,
      "continuing": 6398,
      "operate": 6399,
      "managing": 6400,
      "periods": 6401,
      "appearance": 6402,
      "peaceful": 6403,
      "dorcas": 6404,
      "encouraged": 6405,
      "buddha": 6406,
      "qualified": 6407,
      "astron": 6408,
      "triump": 6409,
      "announced": 6410,
      "alexander": 6411,
      "expenditures": 6412,
      "erect": 6413,
      "fiction": 6414,
      "yield": 6415,
      "##right": 6416,
      "##ician": 6417,
      "forum": 6418,
      "frag": 6419,
      "##ifies": 6420,
      "##ifice": 6421,
      "guadel": 6422,
      "mayor": 6423,
      "taxi": 6424,
      "directed": 6425,
      "greuze": 6426,
      "responses": 6427,
      "contribute": 6428,
      "duke": 6429,
      "legislative": 6430,
      "cruise": 6431,
      "immigrants": 6432,
      "contemporary": 6433,
      "archaeological": 6434,
      "attestation": 6435,
      "enormous": 6436,
      "bost": 6437,
      "##oque": 6438,
      "##ora": 6439,
      "##urally": 6440,
      "habit": 6441,
      "chamb": 6442,
      "chamber": 6443,
      "myster": 6444,
      "acting": 6445,
      "souven": 6446,
      "milk": 6447,
      "visitor": 6448,
      "traum": 6449,
      "allowing": 6450,
      "egg": 6451,
      "closely": 6452,
      "heavily": 6453,
      "mandatory": 6454,
      "prosper": 6455,
      "##known": 6456,
      "africa": 6457,
      "pounds": 6458,
      "compensation": 6459,
      "recycling": 6460,
      "elaborate": 6461,
      "guadeloupe": 6462,
      "bos": 6463,
      "diverse": 6464,
      "hud": 6465,
      "pul": 6466,
      "##here": 6467,
      "##bul": 6468,
      "##bound": 6469,
      "##oration": 6470,
      "stark": 6471,
      "##iguration": 6472,
      "abortion": 6473,
      "nove": 6474,
      "repair": 6475,
      "pope": 6476,
      "headed": 6477,
      "auditing": 6478,
      "juan": 6479,
      "crowds": 6480,
      "commerce": 6481,
      "exhibit": 6482,
      "festivals": 6483,
      "comprom": 6484,
      "spiritual": 6485,
      "monitoring": 6486,
      "hersheim": 6487,
      "gpra": 6488,
      "tuesday": 6489,
      "boston": 6490,
      "hersheimmer": 6491,
      "dre": 6492,
      "gig": 6493,
      "jordan": 6494,
      "##oly": 6495,
      "##lv": 6496,
      "rely": 6497,
      "##adays": 6498,
      "##tering": 6499,
      "gosh": 6500,
      "trips": 6501,
      "##acks": 6502,
      "donations": 6503,
      "nowadays": 6504,
      "struck": 6505,
      "caf": 6506,
      "protoc": 6507,
      "northwest": 6508,
      "statistics": 6509,
      "representative": 6510,
      "romantic": 6511,
      "colorful": 6512,
      "ordinary": 6513,
      "venice": 6514,
      "conservatives": 6515,
      "captured": 6516,
      "premature": 6517,
      "release": 6518,
      "byzantine": 6519,
      "boulevard": 6520,
      "souvenir": 6521,
      "ow": 6522,
      "pont": 6523,
      "rams": 6524,
      "sits": 6525,
      "torn": 6526,
      "##days": 6527,
      "##uting": 6528,
      "##vered": 6529,
      "weigh": 6530,
      "frustr": 6531,
      "##anda": 6532,
      "exemp": 6533,
      "knife": 6534,
      "unknown": 6535,
      "expans": 6536,
      "consol": 6537,
      "cairo": 6538,
      "fundamental": 6539,
      "##ception": 6540,
      "blacks": 6541,
      "authorities": 6542,
      "wondered": 6543,
      "solic": 6544,
      "killing": 6545,
      "12th": 6546,
      "answers": 6547,
      "1980s": 6548,
      "reforms": 6549,
      "impression": 6550,
      "flying": 6551,
      "blocks": 6552,
      "ibm": 6553,
      "sleeping": 6554,
      "mirr": 6555,
      "luxury": 6556,
      "wheel": 6557,
      "cant": 6558,
      "gaz": 6559,
      "tables": 6560,
      "vic": 6561,
      "##iant": 6562,
      "##atoes": 6563,
      "ang": 6564,
      "proof": 6565,
      "orange": 6566,
      "unh": 6567,
      "##ipts": 6568,
      "buchan": 6569,
      "informed": 6570,
      "modest": 6571,
      "resulting": 6572,
      "confused": 6573,
      "cream": 6574,
      "seconds": 6575,
      "corps": 6576,
      "achieving": 6577,
      "maintained": 6578,
      "optim": 6579,
      "fifth": 6580,
      "widely": 6581,
      "indicate": 6582,
      "integrated": 6583,
      "unlikely": 6584,
      "##losure": 6585,
      "vietnam": 6586,
      "neighbors": 6587,
      "tropical": 6588,
      "vulner": 6589,
      "bour": 6590,
      "cy": 6591,
      "dil": 6592,
      "diction": 6593,
      "hou": 6594,
      "ze": 6595,
      "##inian": 6596,
      "##imination": 6597,
      "assemb": 6598,
      "prud": 6599,
      "##une": 6600,
      "##oured": 6601,
      "grade": 6602,
      "yours": 6603,
      "lav": 6604,
      "parli": 6605,
      "statistical": 6606,
      "##whel": 6607,
      "##arrass": 6608,
      "architectural": 6609,
      "physicians": 6610,
      "pilot": 6611,
      "minority": 6612,
      "diversity": 6613,
      "infrastructure": 6614,
      "pav": 6615,
      "sau": 6616,
      "sights": 6617,
      "##gia": 6618,
      "alleg": 6619,
      "unified": 6620,
      "upstairs": 6621,
      "roll": 6622,
      "##iana": 6623,
      "conscious": 6624,
      "remote": 6625,
      "courses": 6626,
      "corresp": 6627,
      "designs": 6628,
      "##awa": 6629,
      "riders": 6630,
      "evaluate": 6631,
      "photo": 6632,
      "decrease": 6633,
      "dismiss": 6634,
      "subsequent": 6635,
      "wednesday": 6636,
      "cum": 6637,
      "gains": 6638,
      "kore": 6639,
      "lam": 6640,
      "pad": 6641,
      "rational": 6642,
      "##uine": 6643,
      "##tan": 6644,
      "##cer": 6645,
      "##kins": 6646,
      "thro": 6647,
      "inland": 6648,
      "chosen": 6649,
      "exotic": 6650,
      "unre": 6651,
      "imposed": 6652,
      "imposing": 6653,
      "quiz": 6654,
      "partner": 6655,
      "drag": 6656,
      "##ensity": 6657,
      "monte": 6658,
      "assumption": 6659,
      "mini": 6660,
      "extr": 6661,
      "extended": 6662,
      "funchal": 6663,
      "limestone": 6664,
      "accessible": 6665,
      "epis": 6666,
      "corporations": 6667,
      "##under": 6668,
      "embr": 6669,
      "opinions": 6670,
      "injured": 6671,
      "hanging": 6672,
      "laughed": 6673,
      "enemy": 6674,
      "memorial": 6675,
      "chicken": 6676,
      "chambers": 6677,
      "ram": 6678,
      "##ocent": 6679,
      "##inate": 6680,
      "tool": 6681,
      "##ighth": 6682,
      "prize": 6683,
      "sole": 6684,
      "pla": 6685,
      "locked": 6686,
      "overwhel": 6687,
      "##ubb": 6688,
      "invasion": 6689,
      "baroque": 6690,
      "musical": 6691,
      "lands": 6692,
      "projections": 6693,
      "encoun": 6694,
      "acceptable": 6695,
      "multi": 6696,
      "discovery": 6697,
      "magazines": 6698,
      "satisfact": 6699,
      "confirmed": 6700,
      "oriented": 6701,
      "deficit": 6702,
      "kitchen": 6703,
      "sophistic": 6704,
      "acknowled": 6705,
      "buchanan": 6706,
      "ax": 6707,
      "dying": 6708,
      "##aff": 6709,
      "##iate": 6710,
      "wash": 6711,
      "##irm": 6712,
      "fright": 6713,
      "##gean": 6714,
      "##abled": 6715,
      "lev": 6716,
      "##oken": 6717,
      "monop": 6718,
      "requiring": 6719,
      "flav": 6720,
      "visibility": 6721,
      "##riend": 6722,
      "##bean": 6723,
      "employer": 6724,
      "morris": 6725,
      "authent": 6726,
      "refused": 6727,
      "figured": 6728,
      "recognition": 6729,
      "femin": 6730,
      "crucial": 6731,
      "permit": 6732,
      "analyst": 6733,
      "lewis": 6734,
      "groc": 6735,
      "pushed": 6736,
      "vegetables": 6737,
      "praise": 6738,
      "pyramid": 6739,
      "litigation": 6740,
      "aegean": 6741,
      "astronom": 6742,
      "parliament": 6743,
      "55": 6744,
      "lined": 6745,
      "na": 6746,
      "##aust": 6747,
      "##idays": 6748,
      "##urd": 6749,
      "##keep": 6750,
      "lean": 6751,
      "noble": 6752,
      "##agues": 6753,
      "supplement": 6754,
      "supplies": 6755,
      "captain": 6756,
      "personally": 6757,
      "admir": 6758,
      "swung": 6759,
      "walks": 6760,
      "topics": 6761,
      "189": 6762,
      "refuge": 6763,
      "volunt": 6764,
      "healthy": 6765,
      "beautifully": 6766,
      "divorce": 6767,
      "creative": 6768,
      "embarrass": 6769,
      "declined": 6770,
      "criminals": 6771,
      "martinique": 6772,
      "obtained": 6773,
      "pilgrims": 6774,
      "ceram": 6775,
      "diox": 6776,
      "bern": 6777,
      "fcc": 6778,
      "rod": 6779,
      "tas": 6780,
      "##rah": 6781,
      "##iot": 6782,
      "##eds": 6783,
      "##oms": 6784,
      "isol": 6785,
      "##illing": 6786,
      "##uns": 6787,
      "##aki": 6788,
      "acts": 6789,
      "skill": 6790,
      "passage": 6791,
      "##engers": 6792,
      "encl": 6793,
      "determining": 6794,
      "innocent": 6795,
      "indicated": 6796,
      "declared": 6797,
      "integrity": 6798,
      "errors": 6799,
      "frescoes": 6800,
      "dioxide": 6801,
      "gap": 6802,
      "##yard": 6803,
      "##ked": 6804,
      "##ester": 6805,
      "##omach": 6806,
      "orch": 6807,
      "crown": 6808,
      "roc": 6809,
      "pools": 6810,
      "assurance": 6811,
      "parad": 6812,
      "metric": 6813,
      "factory": 6814,
      "lessons": 6815,
      "feelings": 6816,
      "swing": 6817,
      "weekends": 6818,
      "passing": 6819,
      "palais": 6820,
      "oppon": 6821,
      "difficulty": 6822,
      "influenced": 6823,
      "establishing": 6824,
      "installed": 6825,
      "apparel": 6826,
      "quietly": 6827,
      "opposition": 6828,
      "bowl": 6829,
      "earnings": 6830,
      "fabric": 6831,
      "kosov": 6832,
      "fond": 6833,
      "rode": 6834,
      "##iated": 6835,
      "##oral": 6836,
      "forec": 6837,
      "##ros": 6838,
      "orn": 6839,
      "hast": 6840,
      "aggreg": 6841,
      "striking": 6842,
      "southeast": 6843,
      "portray": 6844,
      "##idding": 6845,
      "identity": 6846,
      "victim": 6847,
      "bombing": 6848,
      "dynasty": 6849,
      "implications": 6850,
      "caribbean": 6851,
      "houston": 6852,
      "45": 6853,
      "aic": 6854,
      "bond": 6855,
      "ging": 6856,
      "jr": 6857,
      "pond": 6858,
      "wid": 6859,
      "##ria": 6860,
      "anx": 6861,
      "stry": 6862,
      "shil": 6863,
      "prohib": 6864,
      "##osition": 6865,
      "shell": 6866,
      "##ubs": 6867,
      "supports": 6868,
      "soul": 6869,
      "performing": 6870,
      "viewed": 6871,
      "southwest": 6872,
      "nato": 6873,
      "summar": 6874,
      "methodology": 6875,
      "addressing": 6876,
      "grande": 6877,
      "committees": 6878,
      "globe": 6879,
      "adjustment": 6880,
      "proposals": 6881,
      "seventy": 6882,
      "abandoned": 6883,
      "theatre": 6884,
      "ramses": 6885,
      "rig": 6886,
      "rust": 6887,
      "wolf": 6888,
      "##ki": 6889,
      "##field": 6890,
      "##cher": 6891,
      "dear": 6892,
      "##agers": 6893,
      "newly": 6894,
      "joy": 6895,
      "handling": 6896,
      "productive": 6897,
      "transm": 6898,
      "salary": 6899,
      "identifying": 6900,
      "similarly": 6901,
      "languages": 6902,
      "damaged": 6903,
      "voted": 6904,
      "treasures": 6905,
      "premium": 6906,
      "hypoth": 6907,
      "interpretation": 6908,
      "nurse": 6909,
      "strychn": 6910,
      "gained": 6911,
      "hated": 6912,
      "pin": 6913,
      "ug": 6914,
      "##ull": 6915,
      "##zes": 6916,
      "##lied": 6917,
      "##fall": 6918,
      "##bour": 6919,
      "threw": 6920,
      "##areness": 6921,
      "beer": 6922,
      "shout": 6923,
      "liqu": 6924,
      "##acious": 6925,
      "prest": 6926,
      "trends": 6927,
      "##iva": 6928,
      "crash": 6929,
      "craw": 6930,
      "cents": 6931,
      "reluct": 6932,
      "blank": 6933,
      "starts": 6934,
      "taxpay": 6935,
      "northeast": 6936,
      "passengers": 6937,
      "housed": 6938,
      "prince": 6939,
      "distingu": 6940,
      "gentlem": 6941,
      "license": 6942,
      "inquir": 6943,
      "concluded": 6944,
      "austral": 6945,
      "controversial": 6946,
      "kirby": 6947,
      "gifts": 6948,
      "impeach": 6949,
      "november": 6950,
      "authentic": 6951,
      "aicpa": 6952,
      "strychnine": 6953,
      "bible": 6954,
      "cos": 6955,
      "mit": 6956,
      "tape": 6957,
      "##eas": 6958,
      "##oons": 6959,
      "##ko": 6960,
      "thurs": 6961,
      "##alf": 6962,
      "##itage": 6963,
      "##rep": 6964,
      "reaction": 6965,
      "hav": 6966,
      "exists": 6967,
      "tran": 6968,
      "outstanding": 6969,
      "agents": 6970,
      "theme": 6971,
      "blind": 6972,
      "raj": 6973,
      "awareness": 6974,
      "iran": 6975,
      "considerable": 6976,
      "woods": 6977,
      "institutions": 6978,
      "hospitals": 6979,
      "purchased": 6980,
      "shelter": 6981,
      "forgotten": 6982,
      "album": 6983,
      "renew": 6984,
      "shiloh": 6985,
      "600": 6986,
      "diving": 6987,
      "pizz": 6988,
      "##uits": 6989,
      "##mir": 6990,
      "##inity": 6991,
      "doz": 6992,
      "##ques": 6993,
      "agenda": 6994,
      "##agn": 6995,
      "indig": 6996,
      "regions": 6997,
      "surg": 6998,
      "valuation": 6999,
      "marketing": 7000,
      "terrace": 7001,
      "hoped": 7002,
      "returns": 7003,
      "routine": 7004,
      "universal": 7005,
      "unfair": 7006,
      "sculpted": 7007,
      "recommendation": 7008,
      "drove": 7009,
      "scenarios": 7010,
      "manufacturers": 7011,
      "basilica": 7012,
      "correspond": 7013,
      "800": 7014,
      "95": 7015,
      "az": 7016,
      "bread": 7017,
      "cyc": 7018,
      "dun": 7019,
      "hiring": 7020,
      "jazz": 7021,
      "lod": 7022,
      "mild": 7023,
      "mothers": 7024,
      "nipa": 7025,
      "pp": 7026,
      "pent": 7027,
      "rot": 7028,
      "wt": 7029,
      "toler": 7030,
      "##olis": 7031,
      "external": 7032,
      "##usted": 7033,
      "##ems": 7034,
      "resem": 7035,
      "heritage": 7036,
      "guides": 7037,
      "decent": 7038,
      "highlight": 7039,
      "presents": 7040,
      "ceo": 7041,
      "hopes": 7042,
      "excurs": 7043,
      "breaking": 7044,
      "authorized": 7045,
      "filed": 7046,
      "##boys": 7047,
      "enterpr": 7048,
      "paperwork": 7049,
      "coastal": 7050,
      "absence": 7051,
      "silent": 7052,
      "illness": 7053,
      "checked": 7054,
      "attacked": 7055,
      "dressed": 7056,
      "swords": 7057,
      "##ettes": 7058,
      "etc": 7059,
      "jackson": 7060,
      "fingers": 7061,
      "false": 7062,
      "columbus": 7063,
      "bic": 7064,
      "pays": 7065,
      "rit": 7066,
      "##yon": 7067,
      "##esque": 7068,
      "shannon": 7069,
      "##istry": 7070,
      "##ava": 7071,
      "guests": 7072,
      "provision": 7073,
      "handled": 7074,
      "lasted": 7075,
      "childhood": 7076,
      "discour": 7077,
      "constr": 7078,
      "terminal": 7079,
      "administer": 7080,
      "traditionally": 7081,
      "granted": 7082,
      "expecting": 7083,
      "ensuring": 7084,
      "ignored": 7085,
      "ninet": 7086,
      "concentration": 7087,
      "gathered": 7088,
      "roughly": 7089,
      "component": 7090,
      "cliffs": 7091,
      "platform": 7092,
      "veterans": 7093,
      "dies": 7094,
      "dame": 7095,
      "jur": 7096,
      "till": 7097,
      "##aa": 7098,
      "##ih": 7099,
      "##pit": 7100,
      "##stone": 7101,
      "##udes": 7102,
      "##unning": 7103,
      "##aux": 7104,
      "myth": 7105,
      "undert": 7106,
      "mons": 7107,
      "genuine": 7108,
      "transactions": 7109,
      "certification": 7110,
      "patron": 7111,
      "nights": 7112,
      "##ocaust": 7113,
      "pleased": 7114,
      "reaching": 7115,
      "objective": 7116,
      "maintaining": 7117,
      "settings": 7118,
      "initially": 7119,
      "acquired": 7120,
      "holocaust": 7121,
      "constantly": 7122,
      "burned": 7123,
      "ghost": 7124,
      "vehicles": 7125,
      "mobile": 7126,
      "delightful": 7127,
      "erected": 7128,
      "pag": 7129,
      "sons": 7130,
      "zoo": 7131,
      "##row": 7132,
      "##xual": 7133,
      "##esis": 7134,
      "##orca": 7135,
      "anc": 7136,
      "##oli": 7137,
      "##olitan": 7138,
      "deals": 7139,
      "##uls": 7140,
      "##ardo": 7141,
      "exposed": 7142,
      "offset": 7143,
      "boom": 7144,
      "##avag": 7145,
      "strang": 7146,
      "smo": 7147,
      "assign": 7148,
      "warn": 7149,
      "moderate": 7150,
      "clever": 7151,
      "temporary": 7152,
      "campus": 7153,
      "palm": 7154,
      "equival": 7155,
      "entering": 7156,
      "solve": 7157,
      "solutions": 7158,
      "argued": 7159,
      "inflation": 7160,
      "motion": 7161,
      "establishment": 7162,
      "songs": 7163,
      "rapidly": 7164,
      "outdoor": 7165,
      "consolid": 7166,
      "ls": 7167,
      "nuc": 7168,
      "##rument": 7169,
      "##ka": 7170,
      "##ales": 7171,
      "stomach": 7172,
      "trials": 7173,
      "para": 7174,
      "##erman": 7175,
      "instrument": 7176,
      "designated": 7177,
      "##aws": 7178,
      "allowance": 7179,
      "palaces": 7180,
      "187": 7181,
      "cultures": 7182,
      "exclud": 7183,
      "dealers": 7184,
      "wondering": 7185,
      "deaths": 7186,
      "fallen": 7187,
      "stronger": 7188,
      "denied": 7189,
      "challenging": 7190,
      "interviews": 7191,
      "extraord": 7192,
      "florence": 7193,
      "sticks": 7194,
      "surplus": 7195,
      "ninety": 7196,
      "carrier": 7197,
      "convenient": 7198,
      "franco": 7199,
      "hawaii": 7200,
      "venetian": 7201,
      "nervous": 7202,
      "palazzo": 7203,
      "nucle": 7204,
      "auction": 7205,
      "ron": 7206,
      "vine": 7207,
      "##night": 7208,
      "##war": 7209,
      "inher": 7210,
      "beard": 7211,
      "##utory": 7212,
      "##ima": 7213,
      "##thod": 7214,
      "ate": 7215,
      "pron": 7216,
      "uncon": 7217,
      "usa": 7218,
      "actor": 7219,
      "drivers": 7220,
      "relating": 7221,
      "##ologist": 7222,
      "plano": 7223,
      "publications": 7224,
      "reader": 7225,
      "files": 7226,
      "##onym": 7227,
      "assessing": 7228,
      "suffer": 7229,
      "ladin": 7230,
      "broadcast": 7231,
      "##inois": 7232,
      "editorial": 7233,
      "reconst": 7234,
      "atlanta": 7235,
      "boutiques": 7236,
      "earthquake": 7237,
      "cuisine": 7238,
      "protocols": 7239,
      "42": 7240,
      "dir": 7241,
      "horn": 7242,
      "lion": 7243,
      "mun": 7244,
      "nit": 7245,
      "ros": 7246,
      "ves": 7247,
      "##fish": 7248,
      "##ashing": 7249,
      "##urred": 7250,
      "shirts": 7251,
      "conj": 7252,
      "comedy": 7253,
      "##acle": 7254,
      "alike": 7255,
      "##erves": 7256,
      "owns": 7257,
      "beneath": 7258,
      "covering": 7259,
      "passion": 7260,
      "statutory": 7261,
      "burning": 7262,
      "illinois": 7263,
      "diam": 7264,
      "christianity": 7265,
      "##iptions": 7266,
      "cowboys": 7267,
      "mexican": 7268,
      "lifesty": 7269,
      "confirm": 7270,
      "sacrifice": 7271,
      "trauma": 7272,
      "tasks": 7273,
      "ritual": 7274,
      "93": 7275,
      "cater": 7276,
      "fel": 7277,
      "fulf": 7278,
      "sate": 7279,
      "tie": 7280,
      "wow": 7281,
      "##troll": 7282,
      "##lights": 7283,
      "##wa": 7284,
      "theories": 7285,
      "##inos": 7286,
      "inject": 7287,
      "##etime": 7288,
      "##licit": 7289,
      "assigned": 7290,
      "remove": 7291,
      "retreat": 7292,
      "personality": 7293,
      "medica": 7294,
      "destruction": 7295,
      "commonly": 7296,
      "hitler": 7297,
      "superior": 7298,
      "supposedly": 7299,
      "journalists": 7300,
      "touched": 7301,
      "picturesque": 7302,
      "portugal": 7303,
      "virtually": 7304,
      "sympath": 7305,
      "maximum": 7306,
      "constitutional": 7307,
      "concerts": 7308,
      "mystery": 7309,
      "sewing": 7310,
      "wtp": 7311,
      "37": 7312,
      "bh": 7313,
      "dat": 7314,
      "dal": 7315,
      "naz": 7316,
      "oak": 7317,
      "##fl": 7318,
      "##ican": 7319,
      "reign": 7320,
      "shade": 7321,
      "##olate": 7322,
      "##opher": 7323,
      "suits": 7324,
      "##eling": 7325,
      "legit": 7326,
      "adding": 7327,
      "meanwhile": 7328,
      "produc": 7329,
      "planet": 7330,
      "humans": 7331,
      "mailers": 7332,
      "statute": 7333,
      "enjoyable": 7334,
      "stops": 7335,
      "##attle": 7336,
      "murd": 7337,
      "engineer": 7338,
      "alternatives": 7339,
      "fashioned": 7340,
      "injury": 7341,
      "automated": 7342,
      "trails": 7343,
      "finger": 7344,
      "surface": 7345,
      "biograph": 7346,
      "hiking": 7347,
      "rib": 7348,
      "vin": 7349,
      "##zy": 7350,
      "##organ": 7351,
      "##isk": 7352,
      "sees": 7353,
      "sequ": 7354,
      "abroad": 7355,
      "##aping": 7356,
      "spo": 7357,
      "nose": 7358,
      "##aches": 7359,
      "rolling": 7360,
      "accum": 7361,
      "descend": 7362,
      "secure": 7363,
      "paral": 7364,
      "restoration": 7365,
      "entit": 7366,
      "talks": 7367,
      "economically": 7368,
      "barr": 7369,
      "promised": 7370,
      "prominent": 7371,
      "puert": 7372,
      "balanced": 7373,
      "argent": 7374,
      "networks": 7375,
      "soldier": 7376,
      "shrines": 7377,
      "impressed": 7378,
      "utility": 7379,
      "advocates": 7380,
      "defeated": 7381,
      "fortune": 7382,
      "merchant": 7383,
      "convinced": 7384,
      "mathem": 7385,
      "monetary": 7386,
      "prosecut": 7387,
      "granite": 7388,
      "joseph": 7389,
      "ugly": 7390,
      "dup": 7391,
      "gulf": 7392,
      "wines": 7393,
      "##taining": 7394,
      "##cy": 7395,
      "##oning": 7396,
      "seas": 7397,
      "##uscan": 7398,
      "sail": 7399,
      "incident": 7400,
      "##load": 7401,
      "fox": 7402,
      "attended": 7403,
      "flour": 7404,
      "belt": 7405,
      "define": 7406,
      "transaction": 7407,
      "profile": 7408,
      "##lessly": 7409,
      "experiment": 7410,
      "discusses": 7411,
      "christians": 7412,
      "subjects": 7413,
      "historically": 7414,
      "customs": 7415,
      "attempts": 7416,
      "injuries": 7417,
      "advertise": 7418,
      "profitable": 7419,
      "talent": 7420,
      "macau": 7421,
      "intelligence": 7422,
      "enjoys": 7423,
      "dozens": 7424,
      "paragraph": 7425,
      "##thodox": 7426,
      "dirty": 7427,
      "satell": 7428,
      "medicaid": 7429,
      "nh": 7430,
      "ted": 7431,
      "tied": 7432,
      "##gage": 7433,
      "##any": 7434,
      "##rem": 7435,
      "##roph": 7436,
      "##essions": 7437,
      "notre": 7438,
      "suic": 7439,
      "##istent": 7440,
      "themes": 7441,
      "evol": 7442,
      "190": 7443,
      "score": 7444,
      "indo": 7445,
      "recre": 7446,
      "throne": 7447,
      "monks": 7448,
      "edition": 7449,
      "simulation": 7450,
      "heading": 7451,
      "behalf": 7452,
      "industries": 7453,
      "discussions": 7454,
      "travelers": 7455,
      "pund": 7456,
      "jungle": 7457,
      "deeply": 7458,
      "substit": 7459,
      "holidays": 7460,
      "gateway": 7461,
      "collabor": 7462,
      "inev": 7463,
      "fantastic": 7464,
      "explorer": 7465,
      "fountain": 7466,
      "boris": 7467,
      "nonprofit": 7468,
      "cot": 7469,
      "cott": 7470,
      "hars": 7471,
      "harr": 7472,
      "ry": 7473,
      "sorts": 7474,
      "##lah": 7475,
      "##orous": 7476,
      "##alo": 7477,
      "##sters": 7478,
      "stor": 7479,
      "stim": 7480,
      "stained": 7481,
      "##oda": 7482,
      "exha": 7483,
      "##ounced": 7484,
      "gras": 7485,
      "intention": 7486,
      "##00s": 7487,
      "invited": 7488,
      "editors": 7489,
      "proph": 7490,
      "badly": 7491,
      "musc": 7492,
      "exploring": 7493,
      "oklah": 7494,
      "calend": 7495,
      "armed": 7496,
      "dominated": 7497,
      "coastline": 7498,
      "membership": 7499,
      "silk": 7500,
      "flee": 7501,
      "speaker": 7502,
      "legislature": 7503,
      "##sylv": 7504,
      "crose": 7505,
      "prospect": 7506,
      "guarantee": 7507,
      "derived": 7508,
      "carriers": 7509,
      "emphasis": 7510,
      "ineff": 7511,
      "pennsylv": 7512,
      "pierre": 7513,
      "discrimination": 7514,
      "philosophy": 7515,
      "expansion": 7516,
      "99": 7517,
      "hatch": 7518,
      "lin": 7519,
      "pump": 7520,
      "##ault": 7521,
      "##inction": 7522,
      "##esth": 7523,
      "##rete": 7524,
      "##owing": 7525,
      "stones": 7526,
      "libert": 7527,
      "schem": 7528,
      "##cription": 7529,
      "letting": 7530,
      "beneficial": 7531,
      "accountable": 7532,
      "monthly": 7533,
      "186": 7534,
      "availability": 7535,
      "##liers": 7536,
      "assistant": 7537,
      "regarded": 7538,
      "beds": 7539,
      "connected": 7540,
      "priorities": 7541,
      "reflected": 7542,
      "measurement": 7543,
      "jeans": 7544,
      "displayed": 7545,
      "responded": 7546,
      "verd": 7547,
      "quarterback": 7548,
      "graduate": 7549,
      "dishes": 7550,
      "cryst": 7551,
      "innovative": 7552,
      "deficits": 7553,
      "rebuilt": 7554,
      "##avery": 7555,
      "##quarters": 7556,
      "kosovo": 7557,
      "nineteen": 7558,
      "pennsylvania": 7559,
      "cete": 7560,
      "foster": 7561,
      "pushing": 7562,
      "rab": 7563,
      "rav": 7564,
      "tact": 7565,
      "tapes": 7566,
      "wol": 7567,
      "zero": 7568,
      "##hem": 7569,
      "##oric": 7570,
      "##inger": 7571,
      "notion": 7572,
      "driver": 7573,
      "preced": 7574,
      "scout": 7575,
      "mood": 7576,
      "phen": 7577,
      "retain": 7578,
      "hardware": 7579,
      "contrary": 7580,
      "transpar": 7581,
      "prototy": 7582,
      "esp": 7583,
      "stephen": 7584,
      "educated": 7585,
      "madonna": 7586,
      "jersey": 7587,
      "1970s": 7588,
      "treasure": 7589,
      "relaxed": 7590,
      "involvement": 7591,
      "bureaucr": 7592,
      "uncertainty": 7593,
      "skept": 7594,
      "weaknesses": 7595,
      "paradise": 7596,
      "smooth": 7597,
      "cfo": 7598,
      "dot": 7599,
      "ferr": 7600,
      "riv": 7601,
      "tack": 7602,
      "##lom": 7603,
      "##hand": 7604,
      "toph": 7605,
      "inch": 7606,
      "whip": 7607,
      "yep": 7608,
      "soil": 7609,
      "leaf": 7610,
      "spoken": 7611,
      "##eled": 7612,
      "compound": 7613,
      "brut": 7614,
      "brothers": 7615,
      "reprod": 7616,
      "apple": 7617,
      "##ails": 7618,
      "provin": 7619,
      "##lands": 7620,
      "homeland": 7621,
      "causing": 7622,
      "simon": 7623,
      "skilled": 7624,
      "naturally": 7625,
      "arrest": 7626,
      "arrested": 7627,
      "villa": 7628,
      "turks": 7629,
      "demanded": 7630,
      "credibility": 7631,
      "strongly": 7632,
      "drinks": 7633,
      "wildlife": 7634,
      "exhibition": 7635,
      "threatened": 7636,
      "prisoner": 7637,
      "demonstration": 7638,
      "occasional": 7639,
      "wedding": 7640,
      "occupied": 7641,
      "ultimate": 7642,
      "guaranteed": 7643,
      "eliminate": 7644,
      "beliefs": 7645,
      "emotional": 7646,
      "springs": 7647,
      "surprisingly": 7648,
      "portrait": 7649,
      "tapest": 7650,
      "masterpiece": 7651,
      "boilermakers": 7652,
      "triumph": 7653,
      "prosperity": 7654,
      "sauce": 7655,
      "gingrich": 7656,
      "topham": 7657,
      "39": 7658,
      "duck": 7659,
      "hub": 7660,
      "tort": 7661,
      "wick": 7662,
      "##oe": 7663,
      "##mand": 7664,
      "##pers": 7665,
      "##vre": 7666,
      "##10": 7667,
      "##orse": 7668,
      "tok": 7669,
      "bears": 7670,
      "cha": 7671,
      "tries": 7672,
      "abc": 7673,
      "##eline": 7674,
      "acres": 7675,
      "carbon": 7676,
      "marry": 7677,
      "ohio": 7678,
      "depth": 7679,
      "tournam": 7680,
      "serb": 7681,
      "ruling": 7682,
      "shortly": 7683,
      "couples": 7684,
      "rocky": 7685,
      "suffering": 7686,
      "heaven": 7687,
      "reflects": 7688,
      "adjusted": 7689,
      "##rofits": 7690,
      "targets": 7691,
      "peaks": 7692,
      "revealed": 7693,
      "merchants": 7694,
      "carpet": 7695,
      "supervis": 7696,
      "steady": 7697,
      "dictionary": 7698,
      "throat": 7699,
      "cem": 7700,
      "fet": 7701,
      "fate": 7702,
      "lists": 7703,
      "##liss": 7704,
      "##iter": 7705,
      "##isite": 7706,
      "stan": 7707,
      "nema": 7708,
      "outr": 7709,
      "comply": 7710,
      "##cking": 7711,
      "marvel": 7712,
      "colony": 7713,
      "warning": 7714,
      "delhi": 7715,
      "metrop": 7716,
      "apolog": 7717,
      "arrival": 7718,
      "rulers": 7719,
      "significance": 7720,
      "attracted": 7721,
      "contributed": 7722,
      "scrut": 7723,
      "exception": 7724,
      "jeff": 7725,
      "connections": 7726,
      "lifetime": 7727,
      "adventure": 7728,
      "fantas": 7729,
      "brilliant": 7730,
      "inhabit": 7731,
      "aerob": 7732,
      "phrase": 7733,
      "satisfaction": 7734,
      "prestig": 7735,
      "pizza": 7736,
      "oklahoma": 7737,
      "cage": 7738,
      "elev": 7739,
      "erupt": 7740,
      "fancy": 7741,
      "fbi": 7742,
      "hiding": 7743,
      "kash": 7744,
      "pitt": 7745,
      "zone": 7746,
      "##ran": 7747,
      "##king": 7748,
      "##jo": 7749,
      "##ati": 7750,
      "anger": 7751,
      "##child": 7752,
      "##igan": 7753,
      "shield": 7754,
      "socc": 7755,
      "worn": 7756,
      "incidents": 7757,
      "twin": 7758,
      "##eps": 7759,
      "wanting": 7760,
      "margin": 7761,
      "deserve": 7762,
      "legs": 7763,
      "polish": 7764,
      "wrest": 7765,
      "phar": 7766,
      "coron": 7767,
      "engaged": 7768,
      "admission": 7769,
      "directions": 7770,
      "patri": 7771,
      "greet": 7772,
      "representing": 7773,
      "measuring": 7774,
      "princess": 7775,
      "focuses": 7776,
      "device": 7777,
      "godd": 7778,
      "campaigns": 7779,
      "revenues": 7780,
      "babies": 7781,
      "##rooms": 7782,
      "1960s": 7783,
      "expertise": 7784,
      "boxes": 7785,
      "adopt": 7786,
      "discounts": 7787,
      "racial": 7788,
      "gentle": 7789,
      "transferred": 7790,
      "bargain": 7791,
      "enthusi": 7792,
      "impeachment": 7793,
      "surgery": 7794,
      "extraordinary": 7795,
      "datab": 7796,
      "kashmir": 7797,
      "soccer": 7798,
      "44": 7799,
      "dc": 7800,
      "hm": 7801,
      "nets": 7802,
      "tong": 7803,
      "##aire": 7804,
      "##mony": 7805,
      "##ym": 7806,
      "##pes": 7807,
      "##vings": 7808,
      "##ederal": 7809,
      "relic": 7810,
      "##idable": 7811,
      "##rogen": 7812,
      "##amin": 7813,
      "##amic": 7814,
      "shorter": 7815,
      "prol": 7816,
      "cans": 7817,
      "perth": 7818,
      "quint": 7819,
      "poly": 7820,
      "pregn": 7821,
      "ourselves": 7822,
      "moor": 7823,
      "proven": 7824,
      "obsc": 7825,
      "slavery": 7826,
      "produces": 7827,
      "mines": 7828,
      "revised": 7829,
      "deliber": 7830,
      "headquarters": 7831,
      "refres": 7832,
      "wake": 7833,
      "listened": 7834,
      "worthy": 7835,
      "appropriations": 7836,
      "renowned": 7837,
      "romanesque": 7838,
      "troub": 7839,
      "districts": 7840,
      "celebrate": 7841,
      "evaluations": 7842,
      "purchases": 7843,
      "demonstrate": 7844,
      "ignore": 7845,
      "dependent": 7846,
      "advisory": 7847,
      "academic": 7848,
      "resistance": 7849,
      "scheduled": 7850,
      "facilitate": 7851,
      "38": 7852,
      "34": 7853,
      "700": 7854,
      "bonds": 7855,
      "dud": 7856,
      "fer": 7857,
      "gest": 7858,
      "hc": 7859,
      "lag": 7860,
      "mam": 7861,
      "nar": 7862,
      "rides": 7863,
      "wave": 7864,
      "xiv": 7865,
      "##pread": 7866,
      "##atures": 7867,
      "##itious": 7868,
      "istan": 7869,
      "##ching": 7870,
      "alab": 7871,
      "alley": 7872,
      "abund": 7873,
      "unexp": 7874,
      "loves": 7875,
      "loyal": 7876,
      "moreover": 7877,
      "aged": 7878,
      "grate": 7879,
      "roy": 7880,
      "fled": 7881,
      "warrant": 7882,
      "##ressed": 7883,
      "1991": 7884,
      "follows": 7885,
      "glor": 7886,
      "suggestions": 7887,
      "puzz": 7888,
      "modeling": 7889,
      "polls": 7890,
      "votes": 7891,
      "demonstrated": 7892,
      "applies": 7893,
      "repeat": 7894,
      "horror": 7895,
      "crops": 7896,
      "mansion": 7897,
      "exclusive": 7898,
      "bauerstein": 7899,
      "jacob": 7900,
      "staircase": 7901,
      "withdraw": 7902,
      "unhapp": 7903,
      "hastings": 7904,
      "cotton": 7905,
      "hcfa": 7906,
      "istanbul": 7907,
      "bib": 7908,
      "dense": 7909,
      "dirt": 7910,
      "luc": 7911,
      "nich": 7912,
      "vend": 7913,
      "##laimed": 7914,
      "##har": 7915,
      "##pir": 7916,
      "##isons": 7917,
      "reorgan": 7918,
      "stall": 7919,
      "convent": 7920,
      "conrad": 7921,
      "gov": 7922,
      "choc": 7923,
      "notable": 7924,
      "##iev": 7925,
      "##elle": 7926,
      "sailing": 7927,
      "explicit": 7928,
      "overcome": 7929,
      "prepar": 7930,
      "shoulders": 7931,
      "moors": 7932,
      "invaded": 7933,
      "costly": 7934,
      "##athers": 7935,
      "persu": 7936,
      "populations": 7937,
      "edward": 7938,
      "##ugs": 7939,
      "porto": 7940,
      "generated": 7941,
      "refers": 7942,
      "traditions": 7943,
      "reasonably": 7944,
      "hillside": 7945,
      "competing": 7946,
      "circle": 7947,
      "versa": 7948,
      "fashionable": 7949,
      "garb": 7950,
      "camer": 7951,
      "distributed": 7952,
      "immediate": 7953,
      "subscrib": 7954,
      "losses": 7955,
      "aimed": 7956,
      "ceremony": 7957,
      "intelligent": 7958,
      "francisco": 7959,
      "warriors": 7960,
      "antonio": 7961,
      "sophisticated": 7962,
      "analysts": 7963,
      "ceramics": 7964,
      "ornate": 7965,
      "goddess": 7966,
      "aqu": 7967,
      "bom": 7968,
      "ell": 7969,
      "faint": 7970,
      "nas": 7971,
      "pas": 7972,
      "rivers": 7973,
      "##ga": 7974,
      "##cul": 7975,
      "##mate": 7976,
      "##vas": 7977,
      "##kes": 7978,
      "##bits": 7979,
      "##ongh": 7980,
      "##isan": 7981,
      "##char": 7982,
      "shiva": 7983,
      "##oped": 7984,
      "tripp": 7985,
      "cancer": 7986,
      "##ieur": 7987,
      "spare": 7988,
      "ark": 7989,
      "unne": 7990,
      "clou": 7991,
      "grin": 7992,
      "##achus": 7993,
      "carvings": 7994,
      "##osexual": 7995,
      "boost": 7996,
      "##angelo": 7997,
      "subur": 7998,
      "obst": 7999,
      "farming": 8000,
      "technological": 8001,
      "concrete": 8002,
      "mainland": 8003,
      "sixth": 8004,
      "poorly": 8005,
      "antiques": 8006,
      "arguments": 8007,
      "competitors": 8008,
      "lights": 8009,
      "hearings": 8010,
      "1989": 8011,
      "appeals": 8012,
      "photos": 8013,
      "submit": 8014,
      "camera": 8015,
      "permitted": 8016,
      "fatal": 8017,
      "prayer": 8018,
      "subsidy": 8019,
      "electronics": 8020,
      "hazard": 8021,
      "interrupted": 8022,
      "diplom": 8023,
      "voluntary": 8024,
      "thursday": 8025,
      "lifestyle": 8026,
      "49": 8027,
      "bart": 8028,
      "ceter": 8029,
      "eve": 8030,
      "fame": 8031,
      "fake": 8032,
      "pension": 8033,
      "tut": 8034,
      "tends": 8035,
      "vba": 8036,
      "ward": 8037,
      "wished": 8038,
      "yach": 8039,
      "##erable": 8040,
      "##imental": 8041,
      "trump": 8042,
      "traged": 8043,
      "cance": 8044,
      "unr": 8045,
      "comptroll": 8046,
      "reporter": 8047,
      "commem": 8048,
      "##iano": 8049,
      "moham": 8050,
      "whereas": 8051,
      "joke": 8052,
      "flash": 8053,
      "flank": 8054,
      "##rapped": 8055,
      "slave": 8056,
      "capita": 8057,
      "museo": 8058,
      "questioned": 8059,
      "colleagues": 8060,
      "120": 8061,
      "pupp": 8062,
      "balear": 8063,
      "battles": 8064,
      "acquire": 8065,
      "quarters": 8066,
      "formerly": 8067,
      "greece": 8068,
      "attempted": 8069,
      "procedure": 8070,
      "mistakes": 8071,
      "prisoners": 8072,
      "rapier": 8073,
      "exerc": 8074,
      "engagements": 8075,
      "inspir": 8076,
      "counseling": 8077,
      "sponsored": 8078,
      "volcanic": 8079,
      "alleged": 8080,
      "sanctuary": 8081,
      "barriers": 8082,
      "harsh": 8083,
      "##mandu": 8084,
      "density": 8085,
      "hi": 8086,
      "mud": 8087,
      "oly": 8088,
      "slo": 8089,
      "vig": 8090,
      "wire": 8091,
      "##ui": 8092,
      "##uel": 8093,
      "##mers": 8094,
      "##mother": 8095,
      "##bc": 8096,
      "##anas": 8097,
      "inches": 8098,
      "##ader": 8099,
      "proc": 8100,
      "neut": 8101,
      "exqu": 8102,
      "cloud": 8103,
      "commod": 8104,
      "attached": 8105,
      "thrown": 8106,
      "visa": 8107,
      "elastic": 8108,
      "publicly": 8109,
      "homeless": 8110,
      "ruined": 8111,
      "crete": 8112,
      "varied": 8113,
      "classification": 8114,
      "2020": 8115,
      "steve": 8116,
      "salv": 8117,
      "trem": 8118,
      "volumes": 8119,
      "excav": 8120,
      "dealt": 8121,
      "failing": 8122,
      "hungry": 8123,
      "obser": 8124,
      "11th": 8125,
      "fleet": 8126,
      "neglect": 8127,
      "bayliss": 8128,
      "observation": 8129,
      "affects": 8130,
      "integration": 8131,
      "literary": 8132,
      "expanding": 8133,
      "gathering": 8134,
      "convince": 8135,
      "rejected": 8136,
      "kathmandu": 8137,
      "nuclear": 8138,
      "unnecess": 8139,
      "mohammed": 8140,
      "olymp": 8141,
      "hint": 8142,
      "lor": 8143,
      "rush": 8144,
      "##rome": 8145,
      "##lor": 8146,
      "##iner": 8147,
      "##rets": 8148,
      "hect": 8149,
      "shog": 8150,
      "severn": 8151,
      "spots": 8152,
      "quoted": 8153,
      "nowhere": 8154,
      "instinct": 8155,
      "economies": 8156,
      "easter": 8157,
      "barry": 8158,
      "barnes": 8159,
      "communist": 8160,
      "steam": 8161,
      "generate": 8162,
      "promen": 8163,
      "eggs": 8164,
      "hillary": 8165,
      "antique": 8166,
      "minded": 8167,
      "determination": 8168,
      "devast": 8169,
      "assessments": 8170,
      "massachus": 8171,
      "planted": 8172,
      "davis": 8173,
      "casino": 8174,
      "hosts": 8175,
      "essentially": 8176,
      "concentrations": 8177,
      "scientists": 8178,
      "retailers": 8179,
      "succeeded": 8180,
      "clinical": 8181,
      "skiing": 8182,
      "evolutionary": 8183,
      "incredible": 8184,
      "pacific": 8185,
      "michelangelo": 8186,
      "monsieur": 8187,
      "calendar": 8188,
      "01": 8189,
      "98": 8190,
      "cited": 8191,
      "crew": 8192,
      "dental": 8193,
      "ken": 8194,
      "mol": 8195,
      "porce": 8196,
      "ts": 8197,
      "##lined": 8198,
      "##vic": 8199,
      "##fare": 8200,
      "##born": 8201,
      "##oret": 8202,
      "##orrect": 8203,
      "inexp": 8204,
      "##asant": 8205,
      "##otte": 8206,
      "della": 8207,
      "orthodox": 8208,
      "lips": 8209,
      "##udi": 8210,
      "precious": 8211,
      "moves": 8212,
      "joe": 8213,
      "helms": 8214,
      "buses": 8215,
      "planets": 8216,
      "disclosure": 8217,
      "lesson": 8218,
      "followers": 8219,
      "youngest": 8220,
      "arranged": 8221,
      "paused": 8222,
      "texan": 8223,
      "geograph": 8224,
      "protecting": 8225,
      "illum": 8226,
      "seaf": 8227,
      "hurry": 8228,
      "drawings": 8229,
      "featured": 8230,
      "mandates": 8231,
      "restrict": 8232,
      "assuming": 8233,
      "cuban": 8234,
      "academy": 8235,
      "ratio": 8236,
      "osaka": 8237,
      "ceremon": 8238,
      "athlet": 8239,
      "##seeing": 8240,
      "privilege": 8241,
      "aggressive": 8242,
      "inhabitants": 8243,
      "unexpected": 8244,
      "massachuset": 8245,
      "dick": 8246,
      "ko": 8247,
      "pist": 8248,
      "sending": 8249,
      "##rison": 8250,
      "##gian": 8251,
      "##makers": 8252,
      "ingr": 8253,
      "infer": 8254,
      "stab": 8255,
      "##urning": 8256,
      "##ila": 8257,
      "##illo": 8258,
      "universe": 8259,
      "pear": 8260,
      "export": 8261,
      "timely": 8262,
      "offs": 8263,
      "brid": 8264,
      "##ords": 8265,
      "worldwide": 8266,
      "hook": 8267,
      "humid": 8268,
      "extend": 8269,
      "steal": 8270,
      "currency": 8271,
      "irr": 8272,
      "horiz": 8273,
      "princes": 8274,
      "civilization": 8275,
      "nationwide": 8276,
      "rider": 8277,
      "investigations": 8278,
      "duties": 8279,
      "literally": 8280,
      "matching": 8281,
      "limitations": 8282,
      "criticism": 8283,
      "boiler": 8284,
      "launched": 8285,
      "eager": 8286,
      "cataly": 8287,
      "harvard": 8288,
      "precisely": 8289,
      "porch": 8290,
      "extravag": 8291,
      "grocery": 8292,
      "havana": 8293,
      "satellite": 8294,
      "suicide": 8295,
      "crystal": 8296,
      "67": 8297,
      "bid": 8298,
      "bang": 8299,
      "dy": 8300,
      "ms": 8301,
      "pak": 8302,
      "ties": 8303,
      "wool": 8304,
      "##kin": 8305,
      "##bing": 8306,
      "##arks": 8307,
      "##omy": 8308,
      "stabbed": 8309,
      "##olta": 8310,
      "seats": 8311,
      "##illa": 8312,
      "meals": 8313,
      "##enders": 8314,
      "##endous": 8315,
      "lobby": 8316,
      "adapt": 8317,
      "impose": 8318,
      "incomp": 8319,
      "contest": 8320,
      "slopes": 8321,
      "producing": 8322,
      "payroll": 8323,
      "##ugawa": 8324,
      "format": 8325,
      "medium": 8326,
      "postage": 8327,
      "curve": 8328,
      "confusion": 8329,
      "professors": 8330,
      "potentially": 8331,
      "balcon": 8332,
      "efficiently": 8333,
      "attempting": 8334,
      "flexible": 8335,
      "variation": 8336,
      "remarked": 8337,
      "pursu": 8338,
      "volunteers": 8339,
      "proceedings": 8340,
      "channels": 8341,
      "schedules": 8342,
      "anticipated": 8343,
      "therap": 8344,
      "analyzed": 8345,
      "mirror": 8346,
      "monopoly": 8347,
      "phenom": 8348,
      "aerobics": 8349,
      "comptroller": 8350,
      "porcel": 8351,
      "massachusetts": 8352,
      "pakistan": 8353,
      "48": 8354,
      "65": 8355,
      "77": 8356,
      "baza": 8357,
      "cree": 8358,
      "dent": 8359,
      "gle": 8360,
      "hid": 8361,
      "mwe": 8362,
      "nick": 8363,
      "punch": 8364,
      "si": 8365,
      "sq": 8366,
      "sque": 8367,
      "waves": 8368,
      "##gio": 8369,
      "##dr": 8370,
      "##wart": 8371,
      "##orke": 8372,
      "##itudes": 8373,
      "##stit": 8374,
      "##anted": 8375,
      "trim": 8376,
      "resolution": 8377,
      "evident": 8378,
      "coat": 8379,
      "colored": 8380,
      "underground": 8381,
      "spear": 8382,
      "suppliers": 8383,
      "warned": 8384,
      "artific": 8385,
      "imported": 8386,
      "signature": 8387,
      "affirm": 8388,
      "waterfront": 8389,
      "2005": 8390,
      "classified": 8391,
      "180": 8392,
      "receives": 8393,
      "arches": 8394,
      "grey": 8395,
      "argues": 8396,
      "floors": 8397,
      "snorke": 8398,
      "acceptance": 8399,
      "references": 8400,
      "contractor": 8401,
      "preparing": 8402,
      "combat": 8403,
      "stocks": 8404,
      "indicates": 8405,
      "evaluating": 8406,
      "slept": 8407,
      "disappeared": 8408,
      "malls": 8409,
      "pursue": 8410,
      "bias": 8411,
      "shooting": 8412,
      "tribes": 8413,
      "fortunate": 8414,
      "announce": 8415,
      "victorian": 8416,
      "coalition": 8417,
      "accompanied": 8418,
      "mysterious": 8419,
      "unhappy": 8420,
      "47": 8421,
      "hip": 8422,
      "honey": 8423,
      "kle": 8424,
      "pap": 8425,
      "vamp": 8426,
      "##gments": 8427,
      "##down": 8428,
      "##yards": 8429,
      "##po": 8430,
      "##ani": 8431,
      "##itarian": 8432,
      "##ador": 8433,
      "##cho": 8434,
      "dean": 8435,
      "##mental": 8436,
      "butter": 8437,
      "##uster": 8438,
      "abrah": 8439,
      "worsh": 8440,
      "envelop": 8441,
      "arist": 8442,
      "teeth": 8443,
      "straw": 8444,
      "recycle": 8445,
      "##ermen": 8446,
      "adds": 8447,
      "retrofits": 8448,
      "respected": 8449,
      "formula": 8450,
      "posted": 8451,
      "188": 8452,
      "immense": 8453,
      "recording": 8454,
      "balt": 8455,
      "administrators": 8456,
      "1980": 8457,
      "referral": 8458,
      "norman": 8459,
      "panor": 8460,
      "correctly": 8461,
      "physically": 8462,
      "mandate": 8463,
      "jean": 8464,
      "mortgage": 8465,
      "paths": 8466,
      "appreciated": 8467,
      "meaningful": 8468,
      "birthday": 8469,
      "luxur": 8470,
      "territories": 8471,
      "climbing": 8472,
      "symptom": 8473,
      "agriculture": 8474,
      "partnership": 8475,
      "chatter": 8476,
      "cabinet": 8477,
      "priests": 8478,
      "ancest": 8479,
      "tokugawa": 8480,
      "chocolate": 8481,
      "berg": 8482,
      "kiss": 8483,
      "lau": 8484,
      "vivid": 8485,
      "wan": 8486,
      "##eem": 8487,
      "##iable": 8488,
      "##lu": 8489,
      "##falls": 8490,
      "##enberg": 8491,
      "react": 8492,
      "procl": 8493,
      "chin": 8494,
      "ornam": 8495,
      "exit": 8496,
      "##ortions": 8497,
      "##apse": 8498,
      "##ouri": 8499,
      "peer": 8500,
      "que": 8501,
      "scots": 8502,
      "accent": 8503,
      "backed": 8504,
      "regret": 8505,
      "studio": 8506,
      "ending": 8507,
      "mailer": 8508,
      "summit": 8509,
      "##liest": 8510,
      "execution": 8511,
      "winding": 8512,
      "excite": 8513,
      "fishermen": 8514,
      "yorker": 8515,
      "difficulties": 8516,
      "distinction": 8517,
      "bankrupt": 8518,
      "focusing": 8519,
      "threats": 8520,
      "aston": 8521,
      "neighborhoods": 8522,
      "ownership": 8523,
      "depression": 8524,
      "appointed": 8525,
      "corruption": 8526,
      "charlotte": 8527,
      "compromise": 8528,
      "equivalent": 8529,
      "nitrogen": 8530,
      "pharao": 8531,
      "tragedy": 8532,
      "commemor": 8533,
      "abraham": 8534,
      "bac": 8535,
      "lis": 8536,
      "pose": 8537,
      "pale": 8538,
      "rugged": 8539,
      "wins": 8540,
      "##aics": 8541,
      "##iat": 8542,
      "##adv": 8543,
      "##kefe": 8544,
      "org": 8545,
      "##osh": 8546,
      "unions": 8547,
      "clut": 8548,
      "workforce": 8549,
      "intr": 8550,
      "##aved": 8551,
      "afgh": 8552,
      "marine": 8553,
      "deserves": 8554,
      "betray": 8555,
      "invaders": 8556,
      "provider": 8557,
      "approve": 8558,
      "differently": 8559,
      "senator": 8560,
      "armor": 8561,
      "promul": 8562,
      "pulling": 8563,
      "demanding": 8564,
      "checks": 8565,
      "circular": 8566,
      "engineers": 8567,
      "santo": 8568,
      "predicted": 8569,
      "250": 8570,
      "advocacy": 8571,
      "industrialist": 8572,
      "feedback": 8573,
      "relaxing": 8574,
      "bullet": 8575,
      "navy": 8576,
      "amendments": 8577,
      "saddam": 8578,
      "nonfederal": 8579,
      "overwhelming": 8580,
      "rockefe": 8581,
      "aggregate": 8582,
      "moorish": 8583,
      "72": 8584,
      "bree": 8585,
      "cad": 8586,
      "fier": 8587,
      "ger": 8588,
      "nave": 8589,
      "pants": 8590,
      "pets": 8591,
      "tale": 8592,
      "wag": 8593,
      "##ture": 8594,
      "##rical": 8595,
      "##oll": 8596,
      "##va": 8597,
      "##fr": 8598,
      "toy": 8599,
      "##itivity": 8600,
      "bearing": 8601,
      "stunning": 8602,
      "ford": 8603,
      "forests": 8604,
      "##theless": 8605,
      "spark": 8606,
      "lovers": 8607,
      "##active": 8608,
      "disability": 8609,
      "disadv": 8610,
      "##look": 8611,
      "spell": 8612,
      "artistic": 8613,
      "##resses": 8614,
      "caps": 8615,
      "nevertheless": 8616,
      "advised": 8617,
      "landed": 8618,
      "collecting": 8619,
      "salad": 8620,
      "presentation": 8621,
      "175": 8622,
      "girlf": 8623,
      "compete": 8624,
      "absurd": 8625,
      "circus": 8626,
      "hopefully": 8627,
      "scenery": 8628,
      "consistently": 8629,
      "interviewed": 8630,
      "textile": 8631,
      "printed": 8632,
      "inspector": 8633,
      "inspection": 8634,
      "nye": 8635,
      "incorporated": 8636,
      "pillars": 8637,
      "updated": 8638,
      "gorge": 8639,
      "fighters": 8640,
      "vulnerable": 8641,
      "pentagon": 8642,
      "paralle": 8643,
      "puerto": 8644,
      "clouds": 8645,
      "rockefeller": 8646,
      "43": 8647,
      "41": 8648,
      "59": 8649,
      "bast": 8650,
      "bike": 8651,
      "fern": 8652,
      "ic": 8653,
      "tang": 8654,
      "##uate": 8655,
      "##fers": 8656,
      "inapp": 8657,
      "##arn": 8658,
      "##idency": 8659,
      "##iga": 8660,
      "chances": 8661,
      "##ighter": 8662,
      "butt": 8663,
      "##abeth": 8664,
      "##umin": 8665,
      "##izer": 8666,
      "##izabeth": 8667,
      "workplace": 8668,
      "##anship": 8669,
      "incorrect": 8670,
      "brows": 8671,
      "intim": 8672,
      "crypt": 8673,
      "partly": 8674,
      "actors": 8675,
      "##ensed": 8676,
      "string": 8677,
      "supporters": 8678,
      "keys": 8679,
      "populated": 8680,
      "elizabeth": 8681,
      "barb": 8682,
      "milan": 8683,
      "missions": 8684,
      "missile": 8685,
      "anne": 8686,
      "passes": 8687,
      "generous": 8688,
      "discussing": 8689,
      "burial": 8690,
      "approached": 8691,
      "sells": 8692,
      "existed": 8693,
      "painter": 8694,
      "settlers": 8695,
      "influences": 8696,
      "germans": 8697,
      "declining": 8698,
      "1960": 8699,
      "jamaican": 8700,
      "shares": 8701,
      "searching": 8702,
      "automob": 8703,
      "criticized": 8704,
      "dramatically": 8705,
      "reveal": 8706,
      "suitable": 8707,
      "alexand": 8708,
      "ratings": 8709,
      "homosexual": 8710,
      "atlantic": 8711,
      "mansions": 8712,
      "satisfied": 8713,
      "pirates": 8714,
      "prudie": 8715,
      "tranqu": 8716,
      "grateful": 8717,
      "aristocr": 8718,
      "900": 8719,
      "brew": 8720,
      "dumb": 8721,
      "hond": 8722,
      "naked": 8723,
      "ray": 8724,
      "##rals": 8725,
      "##don": 8726,
      "##hin": 8727,
      "##his": 8728,
      "##father": 8729,
      "##erie": 8730,
      "##omo": 8731,
      "##lete": 8732,
      "stal": 8733,
      "shame": 8734,
      "##acent": 8735,
      "spokes": 8736,
      "##elon": 8737,
      "##asted": 8738,
      "##ishes": 8739,
      "agent": 8740,
      "newer": 8741,
      "brass": 8742,
      "feas": 8743,
      "intake": 8744,
      "cares": 8745,
      "boots": 8746,
      "bund": 8747,
      "bucks": 8748,
      "##lical": 8749,
      "guest": 8750,
      "returning": 8751,
      "modified": 8752,
      "sinai": 8753,
      "metaph": 8754,
      "email": 8755,
      "milose": 8756,
      "technique": 8757,
      "airlines": 8758,
      "cheese": 8759,
      "millenn": 8760,
      "missouri": 8761,
      "configuration": 8762,
      "anno": 8763,
      "condem": 8764,
      "##elled": 8765,
      "associates": 8766,
      "##otto": 8767,
      "participated": 8768,
      "hurric": 8769,
      "avoiding": 8770,
      "panels": 8771,
      "breaks": 8772,
      "michigan": 8773,
      "respectively": 8774,
      "casa": 8775,
      "encouraging": 8776,
      "utter": 8777,
      "utah": 8778,
      "complain": 8779,
      "benj": 8780,
      "graduated": 8781,
      "publishing": 8782,
      "delicious": 8783,
      "borrowing": 8784,
      "overseas": 8785,
      "inquiry": 8786,
      "duplic": 8787,
      "relics": 8788,
      "46": 8789,
      "lane": 8790,
      "pile": 8791,
      "pork": 8792,
      "sigh": 8793,
      "wives": 8794,
      "##care": 8795,
      "##cape": 8796,
      "##vin": 8797,
      "##enon": 8798,
      "toss": 8799,
      "inade": 8800,
      "##iti": 8801,
      "##leans": 8802,
      "##lyn": 8803,
      "##aye": 8804,
      "##irable": 8805,
      "asc": 8806,
      "sel": 8807,
      "deer": 8808,
      "comic": 8809,
      "orleans": 8810,
      "spite": 8811,
      "hispan": 8812,
      "outlook": 8813,
      "inclus": 8814,
      "intense": 8815,
      "drives": 8816,
      "screw": 8817,
      "indirect": 8818,
      "underlying": 8819,
      "popul": 8820,
      "valle": 8821,
      "valued": 8822,
      "insight": 8823,
      "corrid": 8824,
      "charm": 8825,
      "economist": 8826,
      "barbe": 8827,
      "completion": 8828,
      "##iciary": 8829,
      "##idespread": 8830,
      "dawn": 8831,
      "182": 8832,
      "receipt": 8833,
      "stein": 8834,
      "179": 8835,
      "balances": 8836,
      "merit": 8837,
      "failures": 8838,
      "sectors": 8839,
      "emerged": 8840,
      "penang": 8841,
      "shrugged": 8842,
      "junior": 8843,
      "plantation": 8844,
      "mosaics": 8845,
      "creatures": 8846,
      "achievement": 8847,
      "collaps": 8848,
      "bottles": 8849,
      "introduction": 8850,
      "incentive": 8851,
      "registered": 8852,
      "motivation": 8853,
      "masters": 8854,
      "delicate": 8855,
      "obtaining": 8856,
      "depicting": 8857,
      "arrangements": 8858,
      "bustling": 8859,
      "frozen": 8860,
      "chemicals": 8861,
      "institutional": 8862,
      "poetry": 8863,
      "linda": 8864,
      "cafes": 8865,
      "assembly": 8866,
      "cosm": 8867,
      "mathemat": 8868,
      "cemet": 8869,
      "exquisite": 8870,
      "artificial": 8871,
      "milosevic": 8872,
      "benjamin": 8873,
      "inadequ": 8874,
      "benn": 8875,
      "dances": 8876,
      "rating": 8877,
      "races": 8878,
      "sba": 8879,
      "widespread": 8880,
      "xv": 8881,
      "##uity": 8882,
      "##inople": 8883,
      "##asso": 8884,
      "reass": 8885,
      "stiff": 8886,
      "##changed": 8887,
      "##olo": 8888,
      "fred": 8889,
      "neu": 8890,
      "neo": 8891,
      "button": 8892,
      "##aco": 8893,
      "priced": 8894,
      "alter": 8895,
      "trains": 8896,
      "##iful": 8897,
      "##unction": 8898,
      "arth": 8899,
      "unt": 8900,
      "##cia": 8901,
      "aging": 8902,
      "exped": 8903,
      "cobb": 8904,
      "goodness": 8905,
      "buck": 8906,
      "##into": 8907,
      "highlights": 8908,
      "counted": 8909,
      "geno": 8910,
      "##atherine": 8911,
      "visual": 8912,
      "capit": 8913,
      "hobby": 8914,
      "##riate": 8915,
      "defending": 8916,
      "performers": 8917,
      "engines": 8918,
      "lesser": 8919,
      "menu": 8920,
      "possess": 8921,
      "politically": 8922,
      "billions": 8923,
      "foods": 8924,
      "bitter": 8925,
      "singer": 8926,
      "fails": 8927,
      "impacts": 8928,
      "devices": 8929,
      "1988": 8930,
      "emerging": 8931,
      "foreigners": 8932,
      "celebrities": 8933,
      "imagination": 8934,
      "glasses": 8935,
      "installations": 8936,
      "tomatoes": 8937,
      "prospective": 8938,
      "permits": 8939,
      "adjustments": 8940,
      "borders": 8941,
      "naples": 8942,
      "picasso": 8943,
      "jumped": 8944,
      "kentuckian": 8945,
      "synag": 8946,
      "vault": 8947,
      "strictly": 8948,
      "rebuild": 8949,
      "dialogue": 8950,
      "pollutants": 8951,
      "dreams": 8952,
      "zeal": 8953,
      "episode": 8954,
      "cale": 8955,
      "dign": 8956,
      "kam": 8957,
      "mum": 8958,
      "merg": 8959,
      "rick": 8960,
      "silly": 8961,
      "voc": 8962,
      "##ua": 8963,
      "##top": 8964,
      "##cus": 8965,
      "##esford": 8966,
      "anch": 8967,
      "reich": 8968,
      "relo": 8969,
      "chop": 8970,
      "notably": 8971,
      "##anting": 8972,
      "exagger": 8973,
      "trash": 8974,
      "canad": 8975,
      "##uman": 8976,
      "outf": 8977,
      "outer": 8978,
      "##eman": 8979,
      "donated": 8980,
      "##ags": 8981,
      "quote": 8982,
      "replic": 8983,
      "bugs": 8984,
      "consists": 8985,
      "##sels": 8986,
      "planes": 8987,
      "retr": 8988,
      "audited": 8989,
      "contrad": 8990,
      "viewing": 8991,
      "patr": 8992,
      "##aware": 8993,
      "gardening": 8994,
      "sounded": 8995,
      "178": 8996,
      "bald": 8997,
      "richards": 8998,
      "flew": 8999,
      "junk": 9000,
      "suffici": 9001,
      "communicate": 9002,
      "deny": 9003,
      "observations": 9004,
      "exhibitions": 9005,
      "crossed": 9006,
      "escaped": 9007,
      "tastes": 9008,
      "advocate": 9009,
      "bathroom": 9010,
      "merchand": 9011,
      "explanations": 9012,
      "victoria": 9013,
      "websites": 9014,
      "shocked": 9015,
      "obligations": 9016,
      "beresford": 9017,
      "cooper": 9018,
      "temperature": 9019,
      "shifted": 9020,
      "conventional": 9021,
      "disappointed": 9022,
      "entitled": 9023,
      "unnecessary": 9024,
      "excitement": 9025,
      "cbo": 9026,
      "gently": 9027,
      "han": 9028,
      "hamp": 9029,
      "hike": 9030,
      "jal": 9031,
      "jam": 9032,
      "kim": 9033,
      "mumb": 9034,
      "sik": 9035,
      "session": 9036,
      "##bu": 9037,
      "theaters": 9038,
      "##isure": 9039,
      "##enth": 9040,
      "##roe": 9041,
      "##ayed": 9042,
      "##keys": 9043,
      "align": 9044,
      "alert": 9045,
      "abd": 9046,
      "leisure": 9047,
      "loose": 9048,
      "closing": 9049,
      "donation": 9050,
      "containing": 9051,
      "braz": 9052,
      "reply": 9053,
      "coins": 9054,
      "bold": 9055,
      "guards": 9056,
      "smiling": 9057,
      "##ogether": 9058,
      "invo": 9059,
      "governmental": 9060,
      "bases": 9061,
      "locally": 9062,
      "publicity": 9063,
      "insur": 9064,
      "insist": 9065,
      "makers": 9066,
      "particles": 9067,
      "admired": 9068,
      "finances": 9069,
      "swall": 9070,
      "##aughters": 9071,
      "equipped": 9072,
      "reviewing": 9073,
      "raises": 9074,
      "moments": 9075,
      "minds": 9076,
      "universities": 9077,
      "1987": 9078,
      "149": 9079,
      "circuit": 9080,
      "ladies": 9081,
      "cleaning": 9082,
      "sweep": 9083,
      "evaluated": 9084,
      "evaluators": 9085,
      "achievements": 9086,
      "restricted": 9087,
[...]
