[PAD]
[UNK]
[CLS]
[SEP]
[MASK]
!
"
#
$
%
&
'
(
)
*
+
,
-
.
/
0
1
2
3
4
5
6
7
8
9
:
;
<
=
>
?
@
[
\
]
_
`
a
b
c
d
e
f
g
h
i
j
k
l
m
n
o
p
q
r
s
t
u
v
w
x
y
z
~
¡
£
¤
¦
¨
ª
«
®
°
º
œ
α
β
γ
δ
ε
ζ
η
ι
κ
σ
τ
υ
ω
–
—
’
“
”
‡
…
‰
€
##u
##z
##a
##n
##e
##t
##r
##g
##o
##d
##i
##c
##l
##s
##m
##7
##3
##5
##y
##h
##p
##v
##k
##1
##f
##w
##0
##8
##6
##b
##x
##4
##q
##j
##2
##9
##œ
##°
th
the
##er
##in
##at
##es
##on
##en
##or
##ed
##ou
##an
an
to
##ing
##al
in
of
##ar
##it
##re
and
##as
##is
##ic
##om
##ion
##le
##ent
be
##ll
it
re
##ve
is
that
##ot
##st
##ly
##ow
##ut
you
##et
on
##id
wh
st
##ct
for
##se
##ro
##ad
##ld
##ur
##ay
##ch
was
##ce
##ig
##ver
##ir
he
##ation
we
##im
##am
are
##th
ha
as
##ith
##ter
sh
##ol
##il
they
with
pro
##est
##ess
se
de
##ke
con
##ers
##ment
##ill
##ul
fr
##ere
ne
have
##op
go
ch
not
at
do
##nd
##and
##ould
com
su
##ate
or
##igh
##ant
##ge
##ain
li
##od
ex
but
##pp
kn
##ac
##ies
by
##ist
##us
ye
there
##ab
pr
al
tr
##ust
##ore
##ity
##ort
know
ab
from
##ome
so
##mp
##ost
##if
##ive
##ight
le
##gh
uh
wor
me
this
##out
##ally
##ard
can
##iv
##os
##all
##ie
##ap
##ud
man
##un
en
all
##art
##um
##ect
sp
##our
##ough
pl
his
ma
##el
ar
##au
had
has
one
were
##qu
##ast
like
##end
out
##em
un
pe
lo
about
sa
##one
if
bec
will
cl
##ok
##ous
their
ad
some
##ci
would
more
##ff
te
what
up
##act
##ice
tim
my
##ink
##ish
##ong
##ound
us
##ind
ag
just
##ions
##ib
##ack
##ople
##her
##ated
##ah
##iz
##oun
res
people
comp
gr
ac
them
##ther
##ause
##ure
year
##gr
don
no
work
##orm
##age
##ance
per
get
##ine
who
##ak
when
##ag
because
she
am
##ide
imp
well
##ans
yeah
think
been
exp
##ip
##ings
time
ev
inc
##ich
new
##ount
qu
##ence
cont
off
than
br
##ame
rep
##ations
fe
other
int
##ach
any
did
cr
over
##form
ro
##able
##ays
##ite
##ace
inter
co
##ue
##ck
her
##erv
car
ever
##ire
mu
its
how
dis
tw
##ub
##ult
##ose
most
##itt
##ery
app
##ary
good
##00
##so
##ree
bo
##wn
##ors
bu
po
##ry
part
act
##ber
##ade
your
##ign
could
19
##enc
##own
him
##ild
la
ta
which
dr
many
##reat
##hing
##ep
##uct
pre
##lic
##ia
sc
##lo
##ial
cent
said
##av
acc
##ass
##ical
##ments
ind
##fer
comm
##ens
only
##ied
every
see
af
want
now
##ase
##int
ve
str
gu
##ang
fo
very
##vel
mar
need
lot
##pt
serv
two
des
rec
right
##ory
may
into
##ents
##ates
##ond
bet
really
##ile
fir
##ition
should
also
und
these
##omet
##ian
years
sm
here
much
after
our
then
att
somet
col
##ty
look
thr
##og
fin
progr
under
um
mo
##ord
##lect
mon
even
##ail
##iss
##ving
cons
##are
##ick
##ved
back
leg
where
##cess
##ices
prob
dif
##ict
though
got
##ater
inv
##ities
going
##amp
program
sy
old
##les
##eral
dec
too
long
make
##cial
inform
way
sec
##ious
fu
rel
ass
first
spe
##vern
par
high
made
op
##sel
jo
##alk
prov
##its
pres
##ual
reg
hel
##oth
eff
cost
down
##ons
##ning
##ft
##ert
does
information
pol
##ys
##iew
govern
through
##land
rem
##iver
##fore
##ath
help
##mm
great
##gan
bl
##we
state
##ces
sch
##ful
##fe
##ouse
##lud
law
pub
those
take
used
##ational
##erm
requ
##ular
##ury
something
##ible
supp
##ily
##ting
##other
##way
count
##ific
stud
##urn
fl
bus
still
##ise
bel
things
before
litt
##ks
little
##ra
gen
##ject
##ually
hu
add
say
differ
report
oh
##lem
cour
##ility
##ange
use
##ather
##stem
call
pers
##ating
fam
##get
##als
wr
find
system
##ative
sub
includ
being
own
war
legal
emp
ll
government
mean
id
##ited
##uring
ke
##ards
ob
##atch
dep
art
sl
vis
##ress
city
##te
house
sur
##orn
such
##ven
didn
day
##pe
bas
show
prod
##ave
##ures
again
##thing
##olog
hand
##mb
small
##ix
cap
##eric
##oss
lar
##cr
around
##con
place
interest
pay
plan
last
world
##ics
##aint
##oney
child
fed
real
americ
agenc
##ues
ph
ret
##ered
##ene
pop
end
stand
##uc
##lish
el
199
inst
val
ed
found
mod
##oup
kind
##ug
import
never
loc
public
##ants
red
##ways
##led
home
##air
set
##cent
money
##ying
organ
##ool
##ives
ca
ear
while
min
est
three
##self
disc
resp
start
town
##ists
both
big
person
problem
tak
ins
##ars
ho
##ower
##ves
##ets
stre
num
##ident
federal
happ
organiz
##day
mak
century
ru
rest
same
best
school
might
ent
rev
read
better
##sc
##ew
##red
seem
always
cor
sin
##ss
far
char
thought
appro
different
sou
sim
##ably
##ood
##ri
nor
thing
del
services
prop
dem
build
##ek
hard
##ork
##az
belie
##ines
def
##conom
play
##iness
form
life
perform
come
let
##osed
talk
each
fund
met
##ren
few
put
##be
econom
point
mark
##xt
care
important
##llow
case
med
contro
during
effect
lead
eng
##chn
hum
##velop
fact
##ear
##ution
aud
av
##ern
##ently
sure
eas
##ody
another
post
national
##ains
less
##ween
between
ask
wom
##istr
must
##io
tour
cle
incre
bar
em
book
det
sk
mil
develop
chang
##tern
service
cur
result
##urch
product
techn
compan
iss
##loy
##ters
since
aut
##ized
##ids
percent
##hip
##ts
##ten
##ism
##ior
business
partic
sign
##res
##ier
manage
country
bene
##ced
adv
##ided
went
##der
air
tax
hist
watch
consid
##gest
ser
feel
##co
ext
fun
contr
muse
##ata
visit
design
sever
##lly
##ize
conc
aff
island
keep
##irect
##ash
##ired
##cept
##pl
head
##ilt
commun
che
children
four
comple
##cc
benef
##ason
sit
why
number
ty
##ins
##ital
news
times
temp
view
turn
adm
##ural
away
run
##ward
area
near
quest
process
##uss
finan
##ao
large
yes
trans
sw
##alth
room
once
##oy
employ
sen
direct
prof
guess
hot
management
states
rule
##ron
##ention
##ever
##ically
water
200
##rew
week
control
mill
##ute
miss
##ling
open
mr
cover
account
invest
##ale
##que
data
maj
ide
follow
##ross
##ici
##ted
cert
month
conf
##ained
##orts
jon
pat
men
##ends
##aw
##ank
anal
000
prot
bad
tell
done
left
programs
mail
museum
several
poss
##ared
##ined
major
##err
##ds
const
president
##ph
next
##gress
test
##ger
##til
##ected
bud
anything
hour
mus
probably
##ides
impro
five
##ality
##ble
expl
white
intern
##ee
##ately
without
pret
##ec
south
camp
fri
group
tra
elect
##ought
job
doing
enough
da
##stand
gl
clint
secur
polit
took
night
allow
##ology
gao
ann
kids
port
called
##ric
cre
youn
enj
support
church
north
land
built
office
clinton
##ats
##man
##read
along
var
grow
nat
walk
pass
class
wanted
pal
crit
##ock
##ley
family
ris
doesn
shop
give
opp
stu
##ages
beh
fac
came
20
american
##augh
require
equ
congress
often
mor
##iven
able
audit
review
##ton
##aining
priv
##ner
power
today
##ness
##body
suc
contin
term
top
stat
change
certain
##ral
inf
##ees
until
collect
against
name
18
main
##ction
pract
##wh
##ases
popular
rece
market
financial
ste
##ote
oper
happen
##ision
##iet
pretty
agencies
##ime
known
lsc
street
##ruct
##br
sal
summ
second
polic
mat
tre
ra
##aper
enjoy
##enn
security
arch
##ark
##side
cond
##ived
however
seen
##els
##erg
agency
believe
gener
##ames
auth
##ified
center
tu
level
performance
ap
##less
past
##imes
costs
understand
##lement
course
ref
exper
##ensive
general
trad
local
##ering
bill
ok
curr
project
examp
ce
order
##most
avail
huh
repres
meet
cal
mov
##ey
six
##ither
##ivid
provide
activ
##hn
live
bro
##per
##old
##ency
##oc
getting
hal
having
##ead
##eng
##ised
vol
##ether
invol
else
##aring
try
united
everything
women
##ump
analys
stop
##ember
deliver
##arr
john
doll
almost
story
terr
##aut
##pped
quite
low
side
free
gre
black
depart
success
##ased
building
##aph
wa
capital
study
arm
problems
arr
saving
cut
##ument
spec
days
##gin
lim
asked
10
##ability
##ract
##ending
offic
list
##uck
win
##li
actually
exec
ey
estim
##ional
reason
health
making
million
##ateg
food
orig
##ission
young
ago
least
##idd
available
budget
cult
thir
cho
##ned
##ivers
san
##ured
vill
##ients
##lf
based
##ances
fig
mag
hop
##ulation
saw
among
someone
addition
history
##used
maybe
sta
rul
##up
represent
road
occ
told
##iting
beach
individ
##aster
lawy
says
looked
indust
prom
pie
rather
clear
half
experi
gard
whether
isn
##iving
pos
whole
jap
wasn
comput
won
sug
jud
15
tupp
origin
wind
makes
japan
beaut
stay
tuppence
exc
##ife
individual
##ient
fut
##ench
nice
aw
site
social
company
resear
research
distr
hous
##ored
##ources
usually
deal
full
##ik
##aces
har
##uation
##ont
discuss
pur
including
wall
analysis
##emp
##ina
working
needs
bre
##hod
##ended
##ibility
organizations
##pect
##vent
##ences
author
non
pa
changes
bit
oth
execut
##idence
love
others
nothing
lear
tomm
short
idea
mount
respons
##ison
trying
##lished
##ret
present
true
diff
court
tommy
ident
##ination
wond
within
sun
either
##ories
needed
benefits
##ians
##omm
sometimes
fish
##sh
##ield
##aim
question
blo
manag
tow
west
york
fil
ir
##rist
okay
yet
interesting
es
later
##bo
king
##icult
enter
hold
sing
brit
future
##anc
remember
due
ple
using
early
heard
issues
become
seems
tot
sound
sol
##acy
technology
17
rom
income
everyone
estab
##ane
admin
access
##att
amount
accord
method
signific
across
##ully
##utes
eg
##ged
example
step
results
##line
agree
difficult
kill
##pr
stuff
possible
imm
##ries
bur
buy
travel
rate
looking
##na
private
##over
toget
env
tex
##rop
meas
together
##ell
##ru
##ense
##aking
postal
coup
final
lab
##par
##atic
systems
standards
face
jew
##by
colle
hill
address
fav
eu
given
##lev
hor
##iod
quality
poor
include
reach
park
team
regul
##ndred
attract
hundred
sat
temple
##iding
educ
outside
special
ant
alth
close
miles
christ
sty
although
period
economic
profess
##work
consider
pot
##aps
value
coun
ten
gir
##hold
##ister
12
particular
##cient
civ
worth
east
started
improve
##soci
hours
##ief
months
mom
drug
effective
##itions
taken
suggest
##vers
##ilar
##ued
door
typ
significant
ep
descr
death
##ape
im
pu
associ
##ortun
corp
##cip
prin
mind
##ety
vi
##elt
enc
paper
##0s
init
dom
move
modern
policy
record
talking
beautif
bal
dest
##ows
##ica
##ott
arg
coast
ge
##gle
staff
16
compet
foc
dist
##ials
euro
fall
human
particip
drew
flo
mer
##enty
dollars
computer
##iron
administr
##cially
environ
##sw
##fully
daan
sent
hus
##vious
##ished
net
##ese
claim
behind
department
##uce
french
##ried
held
simp
community
##ming
##ising
himself
shows
##unch
rock
implement
risk
thous
thousand
paint
tur
##graph
protect
model
tradition
##mbers
infl
##itive
civil
lost
squ
##ator
couldn
knew
return
line
repub
easy
summer
age
members
workers
woman
##ready
already
complete
according
girl
assist
planning
similar
current
##ove
ones
determ
companies
friend
##ocr
europe
sn
##atory
approach
movie
necess
political
sell
deb
##ush
grand
required
##ms
strateg
environment
fail
areas
exist
cases
republic
fine
eval
music
became
##itting
development
##selves
organization
##rin
abs
dou
mem
##band
##ilities
light
demand
fre
##aur
##ume
foot
famous
specific
eight
rich
personal
##yn
teach
favor
ele
rout
sho
ground
pick
##ov
##hol
begin
object
##ature
##aves
couple
hun
studies
total
##omes
fight
accept
works
felt
employees
##where
sort
justice
##ening
answ
fore
fort
requirements
activities
matter
texas
increase
##ius
##imin
cred
british
beautiful
husband
gave
##bs
##ama
bring
rules
alco
grant
##orp
quick
##ogn
college
ach
cast
sil
interv
##ball
parents
##amed
doc
subject
likely
##itch
sus
soon
obs
resources
contrib
##rect
self
##ourn
impact
expect
scre
concern
delivery
lit
##aft
mult
##ny
wouldn
##itted
river
press
alcohol
considered
wonder
haven
dev
strong
commission
##ony
cann
##ining
experience
##ake
takes
lou
##me
##fact
wife
##thern
collection
began
coming
ill
nation
hear
provided
##ium
taking
achie
##irc
assess
##uced
industry
##tion
cop
fur
recogn
charact
type
mur
proper
ital
##ges
##ify
turned
vict
espe
##son
##bor
poll
aid
##atives
comes
famil
price
america
11
##ypt
univers
restaur
especially
mal
related
fle
friends
sea
leave
minutes
histor
##yc
##ential
construct
treat
##ators
##asing
themselves
milit
adrin
drink
198
reports
eyes
##ival
common
wood
##ened
sir
words
longer
##oke
##ique
regard
30
lang
brought
14
maint
##omp
single
describ
cust
goes
instead
section
journ
saint
repl
du
tv
sect
soci
involved
##urs
above
means
check
##ipp
table
##ots
entire
refer
questions
##tain
standard
emerg
##pri
worked
board
##iddle
wrong
living
expensive
figure
viol
gold
offer
hur
funding
sense
##yal
##use
sold
bir
event
appropri
##app
circ
attorn
mad
central
labor
ii
dead
village
middle
houses
changed
base
bed
lawyers
##umb
##isions
contract
received
jul
opt
late
recent
reporting
##ze
pen
pain
##ann
sex
france
exact
hall
##istic
key
morning
sett
shr
evidence
displ
recomm
detail
issue
heart
##uses
english
##bert
cath
fif
democr
economy
lik
relig
hope
archit
executive
ren
chall
places
lake
god
opportun
happened
roman
norm
ancient
##ols
visitors
item
chap
gets
proposed
vo
##ledge
surr
mrs
style
influ
foreign
##aged
twenty
##epend
happy
##amb
ens
architect
ways
front
huge
100
field
mot
struct
further
div
washing
neg
jer
##aced
education
fa
jun
anim
##arch
weather
conn
tried
cannot
applic
comments
suff
perh
poir
military
vir
##aign
population
poirot
campaign
langu
perhaps
fair
appear
prep
independ
trust
leaders
##ping
surpr
##den
##lin
##let
##ires
purp
##ler
##hib
investment
##urance
trade
moment
batt
scr
relations
higher
corpor
exce
hands
hon
##reme
plans
attack
pict
neigh
party
13
mass
prefer
egypt
unf
expected
##ental
trou
washington
er
reform
##ization
heav
##ores
##isc
manu
created
##osing
palace
initi
bon
fire
avo
mother
##ky
decision
custom
artic
inside
wide
##val
plant
acqu
##ips
green
##ring
books
following
rid
speak
buildings
gall
##airs
piece
square
son
knowledge
saying
defin
manufact
district
lower
pan
aren
gone
spend
bush
hit
##ai
express
break
epa
##erous
attention
designed
chines
royal
anyone
##aught
seven
##akes
drive
##iqu
##itor
unc
##ept
color
secret
julius
##he
select
recently
countries
chinese
mos
third
original
creat
spent
funds
effici
groups
natural
practices
character
dam
lived
boy
vot
separ
situation
##isl
##ification
mess
##ites
##lled
eat
##lus
super
necessary
##ades
serious
various
game
james
itself
training
surround
sav
request
paid
##ograph
##med
comb
household
range
desp
culture
##estern
valley
##olution
span
##issions
hotel
shops
exam
appe
pack
dog
##rupt
sand
##hood
deep
princip
spending
stone
action
scen
##set
whate
tourist
apart
whatever
bank
##ims
2000
rates
geor
cat
##fect
legisl
supposed
ju
##ource
chance
moved
##iction
students
engine
included
prim
finally
older
views
focus
km
lad
stock
##ronic
gun
ti
taxes
lack
##ike
trees
##ios
ord
located
broad
germ
##eks
##eter
save
committ
retire
clean
seemed
##ded
##ift
isra
complex
auditors
israel
cook
conduct
traditional
crow
streets
##ouch
exactly
##bur
prior
decided
narr
ingle
tourists
mary
##iled
prices
##osp
indian
reported
corn
lat
##idents
lives
guy
correct
society
ingleth
dav
wish
##und
bey
inglethorp
##go
peace
##ped
annual
mater
##of
soft
subst
cold
western
##zz
aver
card
##aries
##ams
##itten
draw
mich
reven
##uries
efforts
##apers
americans
covered
impress
thinking
##uction
##uary
##igr
wants
laws
increased
benefit
upon
##orce
conv
altern
body
emb
commer
provides
growth
position
link
notice
scul
cause
##ises
internet
vers
season
##hic
communic
cele
sculpt
died
tomb
weeks
doct
word
toward
adj
##izing
quar
garden
phys
quickly
di
throughout
islands
celebr
##utions
fell
medic
tend
##gn
china
learn
assistance
relationship
##arily
instit
additional
japanese
credit
university
den
##port
inn
##ude
indic
language
deg
##ights
discover
voice
##illed
favorite
russ
sant
##xim
##ength
establish
beyond
swe
share
largest
former
document
##oming
station
##umn
lots
##ological
##ware
reflect
established
ran
##xic
clients
page
remains
international
##ole
feat
dress
respect
production
critical
wild
##str
##ipment
insurance
increasing
evalu
ah
size
except
pred
developed
tar
mach
led
sle
father
##rod
demon
din
force
crime
role
helped
gree
hol
perfect
25
attemp
imag
bab
##inc
includes
anyway
allowed
dall
ven
farm
kept
##oon
web
bay
fem
round
##sy
##bers
wealth
proced
gardens
50
##oint
everybody
slow
cas
fix
vote
##een
##ging
##bed
##asons
battle
ban
##orr
clim
generally
pleas
dor
##uth
emissions
shopping
continue
observ
wrote
written
interested
despite
##estic
myself
entities
multip
dallas
named
basis
phil
doub
mand
exhib
published
affect
horse
items
sup
growing
##vert
products
equipment
hosp
previous
officials
sad
events
glass
purch
consist
answer
emergency
cross
fash
rad
threat
##room
mid
##oph
looks
cand
excell
mist
types
dark
##ne
paris
flow
afford
patients
##ana
##lling
weap
train
region
construction
cit
brown
steps
197
decl
volume
recommend
rights
below
internal
families
comment
trip
goals
feet
sites
practice
surv
accounting
fast
##uments
##iff
pieces
running
choice
senior
nature
operations
lawyer
letter
lu
mart
##uted
fres
##ino
hotels
appropriate
##roy
opin
difference
##iques
60
gate
agre
reading
louis
average
rain
##cise
bye
mostly
slate
investig
bought
##tered
whose
##iety
movies
neighbor
##egr
sched
##to
##oses
watching
effort
hy
install
meeting
encour
retirement
serve
trouble
spanish
ur
##aded
##ode
blue
levels
tit
spot
phot
schools
authority
blood
ded
##ceed
prison
regular
terms
##ask
##leg
medical
measure
fashion
dang
##wide
ali
effects
journal
carry
nearly
individuals
##iest
##enced
floor
administration
excellent
gar
##ables
leading
beaches
1996
winter
dut
sens
##ivity
sports
##aving
sky
je
mis
smaller
mission
##ob
##erry
##iling
offers
added
##oring
space
club
appar
occur
committee
rap
##ex
cro
##onse
##ustr
earth
killed
display
particularly
somebody
entr
certainly
regulatory
ensure
##erve
extreme
restaurants
cathed
tom
cloth
mort
##sequ
##icians
thirty
german
40
ball
alone
##astic
goods
actions
wait
fly
##more
savings
david
mic
beat
integr
accomp
guid
managers
achieve
host
master
stories
##usal
##yr
response
sounds
##edi
##olf
disp
frequ
challeng
##oud
consum
reduce
easily
##aughter
article
##reci
connect
ess
spl
accur
##iced
reasons
seek
equal
successful
path
##ha
restr
playing
##idge
army
bes
luck
##asc
##ches
##like
##ax
##ills
believed
rooms
##ban
subm
cru
quiet
sci
##ster
reli
simply
conserv
kal
parts
196
tower
##come
##ille
safe
policies
limited
jewish
jes
inj
##ulf
track
larger
liber
providing
payments
respond
passed
judge
fisc
ver
##unt
decor
southern
dro
##eed
expert
points
treas
pil
##lls
confer
requires
magn
column
2001
destroy
cities
dave
star
revenue
india
official
estimates
responsible
film
drugs
##mer
useful
media
director
walls
block
beginning
liter
multiple
cam
##ung
box
centuries
flex
fiscal
glo
pros
perm
payment
religious
castle
vac
starting
magaz
agreed
mention
stood
expand
##ls
##back
##ara
knows
cars
critics
date
adop
estimate
mix
coll
served
obvious
george
decisions
nearby
sword
methods
potential
participants
grad
interview
##anced
##iring
##ornia
budd
mountains
commercial
adjust
##iny
##ively
activity
##omb
sud
truth
spain
##ously
completely
narrow
ib
sac
forward
ability
towards
eventually
structure
catch
##atively
ready
esc
##ones
yourself
variety
christian
gives
##lier
enjoyed
##usalem
giving
pun
ut
##cil
##change
guide
greater
paying
constant
calif
jerusalem
hong
##uit
distrib
republicans
independent
spect
contains
empire
##teen
discount
series
receive
500
##lt
beg
wear
county
phone
factors
property
jama
advert
setting
demonstr
citiz
kong
spir
eastern
swim
simple
##ma
##ira
##ops
chair
exer
compl
qual
coff
capt
newsp
raised
immedi
opportunity
lay
therefore
##itely
constit
domestic
purpose
ast
rural
spoke
extra
behav
eye
thousands
hans
touch
stra
politics
oppos
avoid
cash
las
##aud
propos
aug
caught
source
##aters
analy
billion
ft
tast
jobs
none
##ners
##fort
shar
search
telev
##icted
basic
electric
entrance
gas
tick
ange
followed
associated
environmental
##vey
unless
appl
profit
occas
wonderful
animals
gi
##ett
appreci
murder
candid
##ially
meant
flor
function
professional
quarter
cathedral
prem
influence
##orrow
##ented
autom
watched
create
fishing
categ
fest
spring
tele
##ground
subs
regulations
european
route
liked
ign
omb
##ience
convers
note
england
easier
band
hang
kid
store
stopped
choose
##eys
reb
oldest
aware
assessment
attorney
eth
##iar
##put
thus
##itz
##roll
##ibly
amaz
warm
sector
micro
##ipped
##wise
##ado
meaning
strategic
bott
##wood
closed
ended
1999
biggest
born
oil
##olute
apply
affected
reached
paintings
hospital
compared
statements
charge
hanson
talked
science
hair
hurt
separate
##key
clock
funny
stores
opened
mountain
pet
##iers
##cl
resort
writ
played
walking
currently
dub
##oted
##ada
progress
sales
representation
debt
treatment
california
nine
##antage
##ague
discussed
features
##ena
seeing
alternative
##ps
shot
statement
northern
majority
association
sudden
##uing
##edy
##chan
towns
existing
greek
games
mine
arab
willing
brother
craft
1998
21
##nam
adult
prevent
directly
continued
loss
rail
##gas
##ula
numbers
race
originally
intervention
die
wine
rele
daily
positive
##can
unit
lose
assum
values
location
electronic
##ergy
claims
heavy
sleep
##ji
##rof
plants
clos
##action
thanks
married
##ucing
ideas
council
prepared
bono
procedures
opinion
bord
et
##itude
brief
assets
absolute
television
jan
match
tro
##ule
##izes
nobody
contact
crimin
caused
waiting
estimated
violence
shall
colon
target
fol
sight
anymore
emper
italian
od
worse
engage
##umption
corner
coffee
##lam
##bb
text
cultural
send
##force
compar
insp
testing
risks
counsel
breat
grew
sources
##kn
boat
evening
italy
homes
##ael
##ope
trail
uses
remain
musl
attorneys
frank
##ffic
draft
strange
minor
entertain
protection
hind
jack
##mon
theater
##ander
lew
august
##inating
forced
residents
entity
businesses
cheap
dinner
weak
offered
accounts
powerful
architecture
tal
##inated
grass
thank
terrible
listen
##ifying
##aped
earlier
##ests
introd
symb
definitely
tough
##cing
welf
temples
controls
martin
welfare
parties
capac
anti
clothes
conference
##ream
##ibilities
amb
repe
cool
disapp
1997
minim
minute
defense
conditions
immigr
horr
fifty
daughter
via
##oes
##iday
##ipt
interior
guard
foundation
conclus
learned
ben
lunch
shown
##cked
spee
manufacturing
pow
##inct
##istics
actual
holy
limit
determine
evaluation
described
fresh
neighborhood
papers
samp
##ca
##eth
alt
march
moving
objectives
july
##outh
standing
routes
err
software
citizens
tall
ult
##onna
##ulated
uns
##iveness
member
doubt
##oles
intended
robert
vegas
calls
arts
16th
painted
nap
rare
19th
performed
vari
cyn
sund
##week
student
transport
employee
susp
regarding
doctor
bag
chief
##antic
bridge
overall
firm
##raid
landsc
critic
acquis
sor
##men
##reg
##iles
##azz
##ycle
picture
cav
##ney
theory
##eless
unique
feeling
condition
identify
fasc
psy
##rial
noted
units
remark
implementation
baby
extremely
thorn
abuse
##unk
bron
greatest
writing
revolution
profession
destroyed
psych
stick
exchange
slight
newsweek
housing
identified
failed
grantees
eld
gore
sitting
unlike
surpl
cub
ride
wer
commit
##centr
situ
camping
traffic
examples
suggested
behavior
bow
vide
afraid
pictures
jesus
burn
los
client
leader
processes
susan
dedic
dad
rac
##irt
saf
strug
executives
restaurant
historical
##burgh
nin
rent
starr
comfort
dram
projects
##nes
union
willi
guys
helps
##aza
merc
mall
wed
##ette
libr
##uctions
busy
write
earn
advoc
industrial
clearly
pollution
virgin
dan
monument
pattern
statue
generation
degree
doro
weren
cow
##ae
##light
##wor
##ventions
normal
emperor
award
gent
dod
spread
novel
completed
dollar
please
hills
forg
energy
purs
records
straight
capacity
ham
jane
rise
##los
concentr
thinks
suppose
republican
efficient
gro
##ray
##da
goal
18th
network
exercise
fat
yard
##zen
relev
incent
kinds
bomb
mexic
log
##riage
hundreds
initial
material
bi
cards
##gu
##ago
rob
##ologies
golden
immediately
gather
##inary
islam
##unte
otherwise
mont
shoot
birth
ahead
understanding
volunte
22
mir
brand
shouldn
findings
importance
window
imagine
radio
rand
##ba
print
trib
##oking
feed
1995
advantage
screening
june
primary
##oh
weight
defe
leaving
finished
reduced
explain
concerned
golf
tools
lie
offices
centre
career
##icient
##liance
laugh
##eria
worry
register
snow
appeal
lady
drop
##asts
fear
desert
fully
depend
produce
conflic
michael
rue
##pa
imposs
boil
finance
artists
senate
occup
painting
push
##mber
indeed
police
survey
rulem
lux
il
##af
##dom
##eries
##reh
##lex
trial
peak
speaking
##ancy
corporate
nod
##iel
interp
##erved
pool
afric
relax
cafe
responsibility
fortun
drinking
absolutely
entertainment
speech
mac
vand
##abor
invent
depends
election
201
gallery
acquisition
oct
##adem
wel
sevent
hadn
rose
produced
changing
advice
manager
satis
chapter
magazine
jamaica
bath
##ald
##pper
compliance
decide
freed
challenges
ultim
##rid
##west
##otic
shel
##cious
interventions
##soft
194
keeping
##pective
recommendations
microsoft
filled
jury
##ij
##iro
##ieval
##gry
highest
differences
reduction
status
matters
discussion
legislation
dangerous
bul
sam
##ctions
funded
skills
accountability
17th
version
pleasant
spectac
##50
##olic
sem
##using
mel
courts
congressional
recognized
households
substant
weapons
amp
reve
##apes
helping
realize
markets
calc
football
breath
rulemaking
24
names
tree
forces
##agon
highly
players
fighting
opportunities
##has
##tery
handle
schedule
relevant
iron
scient
ton
concept
##ulous
franc
buying
guar
gothic
showed
competition
chapel
machine
impossible
gift
##uous
##ril
##etic
##ulate
medieval
merch
selling
surrounding
van
##lig
twice
##berg
supply
flat
presented
determined
ira
lif
##aging
stret
younger
double
leadership
flexibility
task
##mos
stew
waste
##ested
tri
grown
##akers
veget
developing
technical
mosque
mortality
fan
rang
##erly
##ender
strength
finding
planned
retail
stands
coverage
raise
windows
girls
surprised
dublin
gd
gh
tun
vice
##house
aspect
##ension
editor
transfer
measures
scenar
song
##oo
frame
suit
unp
somewhere
imper
vehic
happens
confir
portug
figures
conducted
medicare
amazing
library
kar
hell
##ession
lies
enem
aftern
mob
elig
organizational
jews
concerns
familiar
guarant
##ein
##ament
worried
##endish
boys
command
##enses
reviews
counter
contributions
massive
female
gradu
cup
dish
##anch
##oln
scand
argument
cart
hors
##eness
outc
marble
numerous
tests
addressed
length
compr
decre
edin
restored
asking
involve
##ancing
##incoln
swimming
fit
lincoln
rough
vast
##inal
leads
returned
options
virt
mcc
forth
##sec
loved
##cks
driving
moral
territ
santa
cavendish
edinburgh
gain
ou
##iy
##ller
saved
founded
conversation
aven
##uk
seat
compon
maintain
details
angeles
gdp
cio
wit
##mas
##othing
tea
quant
firms
throw
approxim
techniques
explained
arrived
illustr
mile
online
putting
##place
statues
lines
##gs
##do
fraud
becoming
resident
gotten
holly
skin
improved
requirement
april
cuts
##iking
shrine
honor
apartment
engineering
spirit
era
gay
lic
rub
##ville
##bal
boats
scene
decline
elements
democrats
guidance
opposite
mere
##ini
inqu
resorts
believes
accepted
unfortun
message
magnific
horses
consequ
users
compreh
fellow
##ictions
employment
facilities
steel
circum
rena
faith
dedicated
##gd
##era
##rel
##oti
chem
proud
owner
owners
audits
brok
satur
climb
title
bare
##equ
dece
##oked
scott
marriage
fired
issued
announ
movement
distance
row
renn
##ii
shad
ship
noticed
recon
consult
2002
stake
eleg
challen
discovered
vacation
bell
carter
bob
topic
apparently
aim
bound
##erate
##orters
stated
forget
##adel
heat
enh
contemp
roof
carved
##issance
inspect
explan
walked
malays
impressive
flowers
sunday
der
gal
hen
sar
##orary
##ched
proceed
pra
##ortion
##ishing
schol
models
advis
##insky
##eyer
irs
holding
damage
consistent
illeg
pic
##lers
##ita
##ulations
flight
fourth
##what
teams
improvement
victor
freedom
renaissance
rennie
300
bat
nurs
##bon
stage
##aming
haw
pray
symp
defend
forms
pointed
telling
negative
dropped
vandem
cab
furn
mond
##ta
##ham
##arian
meat
##iza
queen
contain
coal
interests
productivity
irish
principles
afternoon
lakes
neat
chic
tru
monaster
##ront
##holders
physical
vandemeyer
tenn
##bit
##iption
herself
lawn
letters
tours
hunt
attempt
native
rome
##itors
hearing
sept
orient
somewhat
burden
sections
corporation
william
male
pia
waters
##iders
webs
neither
manner
maxim
upset
academ
##encies
extent
fairly
russian
fill
lond
tiny
##gment
##ding
##ares
##iture
193
monitor
relatively
remained
weekend
learning
likes
negoti
application
kent
mouth
wal
recip
conver
owned
factor
facility
broke
##idden
attractions
picked
silver
constitution
suddenly
piazz
london
##tom
##ford
##ston
##ida
plenty
governor
entered
documents
screen
surrounded
january
dyn
ice
##east
##amble
fee
cry
carri
typically
innov
pyr
centers
madeira
runs
millions
glad
attractive
balance
nodded
bou
gamb
nav
##ses
##stein
speed
visited
conclud
customers
selection
kenn
mc
##hab
##ero
##oned
##thia
placed
amend
overs
howard
governments
slaves
instance
agreement
friendly
hyp
fing
##ais
##rence
##hi
##orter
perman
##well
##while
responsibilities
honest
fixed
alex
fal
soldiers
photograph
punish
subsid
border
bure
fab
hate
pound
##elve
loan
click
hero
192
museums
salt
roads
memor
penal
crowd
buddh
occasion
cynthia
fascinating
hollywood
##lies
##mark
##itation
whom
storm
chann
##ght
mechan
clothing
agric
scot
belong
terror
implemented
electricity
spectacular
circumst
challenge
agricult
iv
tired
ash
##cket
attend
monica
reductions
approved
managed
detailed
uncert
slowly
besides
ol
sister
##pie
##ider
smart
##raft
defic
covers
protest
reasonable
newspaper
safety
27
fgd
##com
##iment
bright
carp
accident
emphas
##ardship
basically
technologies
archae
strategy
copy
secretary
hat
content
reput
obtain
advent
##ashed
creating
materials
communication
adopted
ought
approximately
sather
##pm
carried
dism
195
scale
recover
reviewed
splend
experts
sorry
slightly
bod
jump
rat
##zar
##nic
##ils
##iously
presence
purchase
incentives
bureau
aust
enforce
hasn
pover
guil
magnificent
##nel
##aled
##icip
conven
prime
##igned
reality
patient
explore
magic
christmas
historic
egyptian
31
##atically
reag
loans
resist
fees
anywhere
active
reducing
beauty
replace
sexual
orders
aliens
dry
gonna
hers
kitch
losing
sult
##ris
whe
shock
##umes
adequ
oblig
depos
1990
succeed
operating
kingdom
accurate
proposal
sharp
poverty
bars
pages
##gen
##apt
plus
##izz
brad
cris
bask
advance
debate
motiv
mentioned
applied
hindu
ber
dance
##wards
wearing
leather
offering
##others
##iverse
publish
direction
computers
strategies
appeared
taste
symbol
outcomes
truly
##off
onto
clin
##aked
contained
##onds
join
extensive
communities
churches
specifically
eighty
initiatives
encourage
criminal
ny
##time
thick
##eration
craz
smiled
decade
artist
edge
charles
effectively
teacher
appreciate
kentuck
2a
##head
shut
becomes
intel
poison
partners
elimin
belief
processing
focused
religion
ibiza
illegal
mas
ine
##ads
launch
##ifications
wars
meetings
departments
richard
pressure
recognize
guns
weapon
decorated
advertising
elderly
witness
guilty
pm
##awn
##ari
forest
##irts
league
relief
vision
bigger
criteria
experienced
napole
piazza
wil
##hs
shape
decades
provisions
barg
portion
stayed
harbor
absor
##orpor
displays
cable
cave
fought
os
delic
notes
worksh
instruct
valu
carefully
emot
transform
privacy
villages
baseball
customer
##heim
obviously
video
elegant
code
eating
hom
sick
##tions
sharing
gods
alive
worst
twelve
fool
consumption
effectiveness
audience
functions
package
essential
distribution
september
90
fant
ky
nom
ox
oce
penn
##ties
##aling
atl
dole
sov
crimes
syn
readers
solution
entirely
animal
initiative
sculpture
supreme
duty
divers
##uff
delight
cutting
limits
harm
##ellig
wooden
democratic
previously
urban
rapid
festival
closer
surpluses
cere
alloc
cliff
expend
moon
background
statewide
valid
formal
##phere
supported
shook
independence
reliability
eligible
80
rum
va
##ober
##hen
##alia
nep
complic
incorpor
##anged
lawrence
obt
realized
increases
politicians
happening
option
selected
mistake
accomplish
random
october
dust
hide
ped
conqu
champ
leaves
fewer
careful
classical
continues
totally
purposes
landscape
##craft
spr
teen
grants
parks
delay
defined
concert
opening
sugar
medicine
russia
##rofit
monday
napoleon
26
pier
tent
vren
##oto
##owned
laid
strict
helpful
phase
ends
vrenna
bother
gates
##enance
##lying
##illy
plaza
remo
missed
confidence
allows
collections
pulled
dogs
scenes
columns
assumed
scotland
dig
hire
ot
##han
intellig
possibility
cell
motor
predict
bottom
comfortable
comprehensive
70
ath
gross
sides
##gar
##iance
##ship
##see
aside
##acing
##alls
crus
overlo
detect
amounts
describes
primarily
seeking
lewinsky
ocean
pill
vary
hey
##aker
carol
assume
percentage
fifteen
fields
adults
bau
crop
##hal
##lets
##abilities
resource
dise
remind
stuck
britain
improvements
administrative
expectations
replaced
sufficient
schedul
liberal
sacr
iraq
upper
##ext
shore
unus
severe
professor
journey
philos
frequently
troops
scholars
nix
##water
##ateau
aband
##acts
brill
diss
scared
columb
1994
organized
controvers
stup
replied
##ipping
appears
convin
lucky
forgot
unfortunately
wing
##for
##okes
disag
underst
subsequ
##crib
skies
supporting
facade
arms
representatives
jewel
destination
ridic
efficiency
institute
consumer
chicago
reputation
sultan
ec
nic
rh
riding
angry
##ivals
plain
unable
acid
coord
everywhere
fuel
calling
depict
surf
showing
possibly
crafts
interpret
scandal
crisis
bunch
##how
##fa
anse
##itan
atmos
##usion
##actions
committed
visiting
turns
presidential
explor
escape
virginia
tonight
imperial
crazy
##urb
##terday
chronic
##pping
myst
stress
smoke
joined
hardly
cheaper
yesterday
directors
protected
buried
observed
conservative
teleph
broken
circumstances
atmosphere
##iation
##icial
youth
##elines
ages
##agas
expos
discr
jones
holds
attraction
grounds
fortress
superv
alien
tomorrow
franklin
pyram
permanent
mut
tel
##zant
##ef
##inent
##entially
##ading
byzant
spons
upd
compens
recyc
tourism
contrast
15th
catholic
##going
treasury
rebu
400
##orough
stars
gray
crack
append
smith
courty
approval
facing
trading
paul
doctors
dramatic
valuable
nixon
23
soph
##tr
##lines
##ico
##iber
regional
transition
ideal
arrange
pull
flood
victims
bird
penins
submitted
pilgr
ba
bust
cig
dial
math
##rig
##ox
##rees
forty
##imp
dozen
plat
clo
anybody
regulation
raising
domin
competitive
birds
surprising
expression
connection
tickets
folks
basket
intellect
dream
sulf
taught
##sey
##erson
trend
cried
highway
investments
auditor
madrid
manufactur
expressed
literature
minimum
cu
ire
nations
##fo
##otes
stations
friday
mans
sport
##aken
depress
artif
testim
##employ
distinct
necessarily
banks
sensitive
released
conflict
ultimately
fro
fda
ga
gang
kick
sale
##ingu
##uts
chose
poland
facts
significantly
image
shoes
litig
surprise
voters
##exp
stewardship
peninsula
jim
tub
##rib
thorough
reject
##ilit
alf
plays
coop
coach
bull
smell
assert
awful
loud
prepare
ordered
##know
saturday
punishment
uncertain
33
cous
eag
kir
viet
ww
##dy
##antly
pride
##outs
appoint
assump
##ologists
represented
global
muslim
territory
oversight
assumptions
29
caves
dim
dating
pc
ring
sab
##front
##ura
##ola
doors
unemploy
feature
stream
##book
styles
achieved
recommended
neighb
candidate
category
splendid
##life
chain
signed
breed
participate
claimed
pleasure
appendix
00
##omas
lift
context
flower
perspective
harder
aircraft
affairs
summary
delivered
typical
victory
mercury
ireland
cats
dates
kings
lord
##road
excess
##isted
##osen
acknow
brick
signs
investors
improving
officer
maintenance
colorado
indiana
latest
##works
bin
##aic
##greg
##bel
resol
##aka
##agger
hole
economics
temper
largely
steep
johnson
turning
structures
expanded
vent
##oty
weir
##abbed
expenses
greatly
blow
##ugged
revol
sentence
contribution
definition
increasingly
guidelines
mexico
henry
peter
##bles
tob
##arts
graph
attest
##ogue
remaining
estate
silence
iii
##kyo
wealthy
sample
transportation
bronze
scottish
nursing
bork
cod
jail
ske
##inations
##ona
whitting
stamp
##uration
brain
desk
colors
monet
depending
1993
considering
listed
positions
films
memory
repeated
cin
ferry
util
##sa
##12
tokyo
##itals
knock
usual
implic
brings
heads
hoping
turk
teaching
settlement
normally
articles
voting
accompan
giant
categories
writer
tennis
borrow
core
ment
rank
veter
##cend
prove
truck
knowing
quit
preamble
indians
serves
slim
causes
player
ski
tells
improper
rising
volcan
suggests
combination
frequent
chemical
whittington
bout
hidden
##gers
##cas
##point
ships
sew
conce
##asty
outdo
evolution
scar
strip
studied
portra
exclus
consideration
turkey
13th
communications
odd
residential
artifacts
75
fans
tig
##ias
bear
##stairs
albert
enth
arc
explo
attrib
entry
confident
##standing
allowances
measured
properly
attacks
institution
begun
candidates
powers
aspects
soviet
les
tap
thomas
theat
output
drawn
plane
marked
opera
treated
argue
falling
##ushed
14th
catal
maryland
sweet
welcome
francis
shadow
bradley
carolina
dining
pig
tor
##uces
##gl
##verse
clar
joint
##raw
corrupt
faces
winning
occurred
sacred
florida
suspic
framework
furniture
sulfur
##itative
rein
##amber
prosec
fran
##iform
nox
enjo
faced
choices
judgment
implementing
reference
applications
uncle
relationships
exhibits
newspapers
stretch
merely
hawai
understood
intellectual
gif
wore
##aver
##wr
##lla
asian
gran
accomm
elabor
##isms
##board
failure
settled
renov
galleries
combined
germany
muslims
december
monastery
weird
accommod
ble
kil
kath
##icing
reward
forb
incred
buff
desire
assass
preserved
subt
medit
surely
feels
tested
classes
lively
characters
characteristics
##ographic
latin
sadd
reliable
conclusions
consequences
stakeholders
kos
lately
oz
tight
##acco
so2
##ached
##encing
recall
finish
cazar
switch
palest
opposed
bills
listening
lovely
applicable
preferred
capture
railway
struggle
daniel
satisf
website
complicated
exposure
boss
ramp
sought
##bby
##semb
##rose
shif
sum
sust
worker
ours
attitude
locals
sets
earned
##bey
keeps
mainly
harv
anticip
participation
devoted
##burg
survive
masterpie
commitment
bauer
stupid
fount
pit
##town
##bi
##llo
whis
enorm
driven
prev
##uese
minister
financing
##ruction
superb
investigation
ticket
islamic
portuguese
testimony
faster
##rich
##yl
##anes
asia
chick
alle
reserv
febr
smoking
monuments
legend
1992
thoughts
electron
collected
calm
involving
exciting
rocks
regardless
divided
principle
crowded
carrying
begins
inspired
conclusion
substantial
mccain
kennedy
enforcement
disease
february
35
gp
mental
meal
mah
emission
equally
##box
bedroom
venet
situations
reagan
cigar
turkish
tons
wise
##ux
##rant
##ja
##ano
inner
##anta
outcome
grace
interim
marks
finest
providers
ruins
transl
elections
ceiling
150
towers
solid
violent
sandy
scenario
explanation
gor
jac
map
nile
trop
inhab
shared
chat
trick
lee
reporters
intent
carib
poet
desper
empty
visits
charged
johnny
linked
accuracy
beside
comparison
vehicle
malaysia
ottom
ridiculous
28
hij
kl
##mar
##pay
ther
##erning
disney
prec
warri
charming
##resp
admitted
officers
experiences
##ikes
remembered
traveling
educational
avoided
dutch
chairman
buddhist
philosoph
tobacco
hijack
##my
##pan
##enz
##ania
shaped
lock
##cipl
disaster
parent
blame
publication
charges
profits
operation
cooking
perfectly
writers
volunteer
2010
gambling
occasionally
element
pitch
##fast
##wan
##20
input
stair
stared
spin
reserve
scary
handed
sanct
teachers
democracy
latter
consumers
unusual
cycle
kr
##nn
toxic
##esty
##estone
chest
yellow
uniform
overse
##aints
natalia
projected
excited
##anean
constructed
suffered
degrees
strugg
courtyard
unemployment
bol
migr
pine
tues
##adium
##ulating
fruit
chateau
worship
somehow
##ipe
precise
strike
monarch
retired
##ternal
resulted
represents
judges
pottery
existence
hung
documentation
adequate
basketball
ozone
bor
fert
pure
##coming
##met
##itated
##asion
##etr
forever
branch
serving
finn
persons
charl
##bell
annually
exceed
seriously
israeli
boilerm
boulev
lying
om
tone
vul
wage
##oir
##che
##istical
trained
191
tail
guided
stead
stepped
##ructure
sixty
analyses
convention
casual
earthqu
restrictions
colonial
patterns
components
penalty
kyoto
telephone
ae
cer
gop
rice
rival
tab
##rad
thin
##istan
blade
basil
concerning
privile
elsewhere
successfully
images
settle
principal
regularly
clubs
split
error
barely
cabin
cinem
cios
nur
pac
##uge
##gate
height
proved
deem
##ushing
alb
##oster
manual
plastic
grave
shoulder
asset
writes
instances
metal
classic
facilit
generations
promot
researchers
faa
requested
links
sculptures
tombs
folk
engagement
remarkable
dome
por
tan
wages
##cast
##ya
##oupe
##stream
##ete
##thy
##orted
plot
##ansas
elected
species
nonp
suspect
division
climate
immigration
cuba
defeat
inventory
scientific
agricultural
alfred
bio
pir
##gy
##iors
stadium
##aine
ads
impe
expense
accused
formed
performances
employers
weekly
creation
involves
waited
arrive
sunset
traveled
answered
fault
breakfast
examination
michel
weakness
altar
channel
nepal
cuis
ain
dar
hired
##bar
##itures
##omed
ongoing
shift
shirt
##estr
##essed
noise
discipl
relative
puts
countryside
explains
staying
awards
eleven
eleph
copies
handsome
priority
celebrated
holiday
survived
analyz
disappoint
cnn
fena
gagas
pink
tip
##uze
##rast
##arm
##ota
stable
##ante
leon
##enda
outl
unw
tech
user
##aks
##ache
personnel
##hips
affair
cheer
missing
securities
infrast
promote
excuse
addresses
approaches
demands
treaty
##annon
panel
requests
fresco
installation
professionals
disagree
jewelry
dancing
figh
gau
jose
wet
##la
##illes
aggress
residence
compare
sheep
##ipa
everyday
recru
flag
locations
economists
musee
receiving
falls
describe
bags
amendment
mediterr
36
32
aci
pace
ter
vital
##case
##itable
##aders
haz
priest
nov
whenever
visible
controlled
practical
description
objects
hunting
machines
danger
introduced
rarely
situated
recipients
bodies
www
mediterranean
ak
dio
nerv
roles
anton
##ingly
##imate
abbey
canal
outs
##ouses
##acted
interrupt
cock
##ensions
smile
##eared
barri
nonf
apartments
horrible
karf
bench
lind
rene
##isters
##oma
stro
stairs
##quar
evil
pocket
##ensus
finds
capable
admit
palazz
prompt
promise
winds
romans
administrator
examined
farmers
ethnic
wednes
african
enemies
avenue
enhance
enthus
dip
derry
sna
tin
wound
##comm
anth
##chal
withd
boards
1990s
popularity
authors
##aimed
accordance
recorded
bringing
pollut
substance
cousin
ottoman
boring
vs
##ois
##bre
##amental
##opes
##ordan
downtown
instru
farther
simpl
curious
advanced
airport
20th
ruled
dealing
agreements
malay
referred
contracts
examine
drawing
mixed
converted
kentucky
removed
instruments
aer
dol
dict
file
hes
pair
##ato
##attered
##owed
stroll
##the
neck
canada
drunk
scope
studying
phr
employed
continuing
operate
managing
periods
appearance
peaceful
dorcas
encouraged
buddha
qualified
astron
triump
announced
alexander
expenditures
erect
fiction
yield
##right
##ician
forum
frag
##ifies
##ifice
guadel
mayor
taxi
directed
greuze
responses
contribute
duke
legislative
cruise
immigrants
contemporary
archaeological
attestation
enormous
bost
##oque
##ora
##urally
habit
chamb
chamber
myster
acting
souven
milk
visitor
traum
allowing
egg
closely
heavily
mandatory
prosper
##known
africa
pounds
compensation
recycling
elaborate
guadeloupe
bos
diverse
hud
pul
##here
##bul
##bound
##oration
stark
##iguration
abortion
nove
repair
pope
headed
auditing
juan
crowds
commerce
exhibit
festivals
comprom
spiritual
monitoring
hersheim
gpra
tuesday
boston
hersheimmer
dre
gig
jordan
##oly
##lv
rely
##adays
##tering
gosh
trips
##acks
donations
nowadays
struck
caf
protoc
northwest
statistics
representative
romantic
colorful
ordinary
venice
conservatives
captured
premature
release
byzantine
boulevard
souvenir
ow
pont
rams
sits
torn
##days
##uting
##vered
weigh
frustr
##anda
exemp
knife
unknown
expans
consol
cairo
fundamental
##ception
blacks
authorities
wondered
solic
killing
12th
answers
1980s
reforms
impression
flying
blocks
ibm
sleeping
mirr
luxury
wheel
cant
gaz
tables
vic
##iant
##atoes
ang
proof
orange
unh
##ipts
buchan
informed
modest
resulting
confused
cream
seconds
corps
achieving
maintained
optim
fifth
widely
indicate
integrated
unlikely
##losure
vietnam
neighbors
tropical
vulner
bour
cy
dil
diction
hou
ze
##inian
##imination
assemb
prud
##une
##oured
grade
yours
lav
parli
statistical
##whel
##arrass
architectural
physicians
pilot
minority
diversity
infrastructure
pav
sau
sights
##gia
alleg
unified
upstairs
roll
##iana
conscious
remote
courses
corresp
designs
##awa
riders
evaluate
photo
decrease
dismiss
subsequent
wednesday
cum
gains
kore
lam
pad
rational
##uine
##tan
##cer
##kins
thro
inland
chosen
exotic
unre
imposed
imposing
quiz
partner
drag
##ensity
monte
assumption
mini
extr
extended
funchal
limestone
accessible
epis
corporations
##under
embr
opinions
injured
hanging
laughed
enemy
memorial
chicken
chambers
ram
##ocent
##inate
tool
##ighth
prize
sole
pla
locked
overwhel
##ubb
invasion
baroque
musical
lands
projections
encoun
acceptable
multi
discovery
magazines
satisfact
confirmed
oriented
deficit
kitchen
sophistic
acknowled
buchanan
ax
dying
##aff
##iate
wash
##irm
fright
##gean
##abled
lev
##oken
monop
requiring
flav
visibility
##riend
##bean
employer
morris
authent
refused
figured
recognition
femin
crucial
permit
analyst
lewis
groc
pushed
vegetables
praise
pyramid
litigation
aegean
astronom
parliament
55
lined
na
##aust
##idays
##urd
##keep
lean
noble
##agues
supplement
supplies
captain
personally
admir
swung
walks
topics
189
refuge
volunt
healthy
beautifully
divorce
creative
embarrass
declined
criminals
martinique
obtained
pilgrims
ceram
diox
bern
fcc
rod
tas
##rah
##iot
##eds
##oms
isol
##illing
##uns
##aki
acts
skill
passage
##engers
encl
determining
innocent
indicated
declared
integrity
errors
frescoes
dioxide
gap
##yard
##ked
##ester
##omach
orch
crown
roc
pools
assurance
parad
metric
factory
lessons
feelings
swing
weekends
passing
palais
oppon
difficulty
influenced
establishing
installed
apparel
quietly
opposition
bowl
earnings
fabric
kosov
fond
rode
##iated
##oral
forec
##ros
orn
hast
aggreg
striking
southeast
portray
##idding
identity
victim
bombing
dynasty
implications
caribbean
houston
45
aic
bond
ging
jr
pond
wid
##ria
anx
stry
shil
prohib
##osition
shell
##ubs
supports
soul
performing
viewed
southwest
nato
summar
methodology
addressing
grande
committees
globe
adjustment
proposals
seventy
abandoned
theatre
ramses
rig
rust
wolf
##ki
##field
##cher
dear
##agers
newly
joy
handling
productive
transm
salary
identifying
similarly
languages
damaged
voted
treasures
premium
hypoth
interpretation
nurse
strychn
gained
hated
pin
ug
##ull
##zes
##lied
##fall
##bour
threw
##areness
beer
shout
liqu
##acious
prest
trends
##iva
crash
craw
cents
reluct
blank
starts
taxpay
northeast
passengers
housed
prince
distingu
gentlem
license
inquir
concluded
austral
controversial
kirby
gifts
impeach
november
authentic
aicpa
strychnine
bible
cos
mit
tape
##eas
##oons
##ko
thurs
##alf
##itage
##rep
reaction
hav
exists
tran
outstanding
agents
theme
blind
raj
awareness
iran
considerable
woods
institutions
hospitals
purchased
shelter
forgotten
album
renew
shiloh
600
diving
pizz
##uits
##mir
##inity
doz
##ques
agenda
##agn
indig
regions
surg
valuation
marketing
terrace
hoped
returns
routine
universal
unfair
sculpted
recommendation
drove
scenarios
manufacturers
basilica
correspond
800
95
az
bread
cyc
dun
hiring
jazz
lod
mild
mothers
nipa
pp
pent
rot
wt
toler
##olis
external
##usted
##ems
resem
heritage
guides
decent
highlight
presents
ceo
hopes
excurs
breaking
authorized
filed
##boys
enterpr
paperwork
coastal
absence
silent
illness
checked
attacked
dressed
swords
##ettes
etc
jackson
fingers
false
columbus
bic
pays
rit
##yon
##esque
shannon
##istry
##ava
guests
provision
handled
lasted
childhood
discour
constr
terminal
administer
traditionally
granted
expecting
ensuring
ignored
ninet
concentration
gathered
roughly
component
cliffs
platform
veterans
dies
dame
jur
till
##aa
##ih
##pit
##stone
##udes
##unning
##aux
myth
undert
mons
genuine
transactions
certification
patron
nights
##ocaust
pleased
reaching
objective
maintaining
settings
initially
acquired
holocaust
constantly
burned
ghost
vehicles
mobile
delightful
erected
pag
sons
zoo
##row
##xual
##esis
##orca
anc
##oli
##olitan
deals
##uls
##ardo
exposed
offset
boom
##avag
strang
smo
assign
warn
moderate
clever
temporary
campus
palm
equival
entering
solve
solutions
argued
inflation
motion
establishment
songs
rapidly
outdoor
consolid
ls
nuc
##rument
##ka
##ales
stomach
trials
para
##erman
instrument
designated
##aws
allowance
palaces
187
cultures
exclud
dealers
wondering
deaths
fallen
stronger
denied
challenging
interviews
extraord
florence
sticks
surplus
ninety
carrier
convenient
franco
hawaii
venetian
nervous
palazzo
nucle
auction
ron
vine
##night
##war
inher
beard
##utory
##ima
##thod
ate
pron
uncon
usa
actor
drivers
relating
##ologist
plano
publications
reader
files
##onym
assessing
suffer
ladin
broadcast
##inois
editorial
reconst
atlanta
boutiques
earthquake
cuisine
protocols
42
dir
horn
lion
mun
nit
ros
ves
##fish
##ashing
##urred
shirts
conj
comedy
##acle
alike
##erves
owns
beneath
covering
passion
statutory
burning
illinois
diam
christianity
##iptions
cowboys
mexican
lifesty
confirm
sacrifice
trauma
tasks
ritual
93
cater
fel
fulf
sate
tie
wow
##troll
##lights
##wa
theories
##inos
inject
##etime
##licit
assigned
remove
retreat
personality
medica
destruction
commonly
hitler
superior
supposedly
journalists
touched
picturesque
portugal
virtually
sympath
maximum
constitutional
concerts
mystery
sewing
wtp
37
bh
dat
dal
naz
oak
##fl
##ican
reign
shade
##olate
##opher
suits
##eling
legit
adding
meanwhile
produc
planet
humans
mailers
statute
enjoyable
stops
##attle
murd
engineer
alternatives
fashioned
injury
automated
trails
finger
surface
biograph
hiking
rib
vin
##zy
##organ
##isk
sees
sequ
abroad
##aping
spo
nose
##aches
rolling
accum
descend
secure
paral
restoration
entit
talks
economically
barr
promised
prominent
puert
balanced
argent
networks
soldier
shrines
impressed
utility
advocates
defeated
fortune
merchant
convinced
mathem
monetary
prosecut
granite
joseph
ugly
dup
gulf
wines
##taining
##cy
##oning
seas
##uscan
sail
incident
##load
fox
attended
flour
belt
define
transaction
profile
##lessly
experiment
discusses
christians
subjects
historically
customs
attempts
injuries
advertise
profitable
talent
macau
intelligence
enjoys
dozens
paragraph
##thodox
dirty
satell
medicaid
nh
ted
tied
##gage
##any
##rem
##roph
##essions
notre
suic
##istent
themes
evol
190
score
indo
recre
throne
monks
edition
simulation
heading
behalf
industries
discussions
travelers
pund
jungle
deeply
substit
holidays
gateway
collabor
inev
fantastic
explorer
fountain
boris
nonprofit
cot
cott
hars
harr
ry
sorts
##lah
##orous
##alo
##sters
stor
stim
stained
##oda
exha
##ounced
gras
intention
##00s
invited
editors
proph
badly
musc
exploring
oklah
calend
armed
dominated
coastline
membership
silk
flee
speaker
legislature
##sylv
crose
prospect
guarantee
derived
carriers
emphasis
ineff
pennsylv
pierre
discrimination
philosophy
expansion
99
hatch
lin
pump
##ault
##inction
##esth
##rete
##owing
stones
libert
schem
##cription
letting
beneficial
accountable
monthly
186
availability
##liers
assistant
regarded
beds
connected
priorities
reflected
measurement
jeans
displayed
responded
verd
quarterback
graduate
dishes
cryst
innovative
deficits
rebuilt
##avery
##quarters
kosovo
nineteen
pennsylvania
cete
foster
pushing
rab
rav
tact
tapes
wol
zero
##hem
##oric
##inger
notion
driver
preced
scout
mood
phen
retain
hardware
contrary
transpar
prototy
esp
stephen
educated
madonna
jersey
1970s
treasure
relaxed
involvement
bureaucr
uncertainty
skept
weaknesses
paradise
smooth
cfo
dot
ferr
riv
tack
##lom
##hand
toph
inch
whip
yep
soil
leaf
spoken
##eled
compound
brut
brothers
reprod
apple
##ails
provin
##lands
homeland
causing
simon
skilled
naturally
arrest
arrested
villa
turks
demanded
credibility
strongly
drinks
wildlife
exhibition
threatened
prisoner
demonstration
occasional
wedding
occupied
ultimate
guaranteed
eliminate
beliefs
emotional
springs
surprisingly
portrait
tapest
masterpiece
boilermakers
triumph
prosperity
sauce
gingrich
topham
39
duck
hub
tort
wick
##oe
##mand
##pers
##vre
##10
##orse
tok
bears
cha
tries
abc
##eline
acres
carbon
marry
ohio
depth
tournam
serb
ruling
shortly
couples
rocky
suffering
heaven
reflects
adjusted
##rofits
targets
peaks
revealed
merchants
carpet
supervis
steady
dictionary
throat
cem
fet
fate
lists
##liss
##iter
##isite
stan
nema
outr
comply
##cking
marvel
colony
warning
delhi
metrop
apolog
arrival
rulers
significance
attracted
contributed
scrut
exception
jeff
connections
lifetime
adventure
fantas
brilliant
inhabit
aerob
phrase
satisfaction
prestig
pizza
oklahoma
cage
elev
erupt
fancy
fbi
hiding
kash
pitt
zone
##ran
##king
##jo
##ati
anger
##child
##igan
shield
socc
worn
incidents
twin
##eps
wanting
margin
deserve
legs
polish
wrest
phar
coron
engaged
admission
directions
patri
greet
representing
measuring
princess
focuses
device
godd
campaigns
revenues
babies
##rooms
1960s
expertise
boxes
adopt
discounts
racial
gentle
transferred
bargain
enthusi
impeachment
surgery
extraordinary
datab
kashmir
soccer
44
dc
hm
nets
tong
##aire
##mony
##ym
##pes
##vings
##ederal
relic
##idable
##rogen
##amin
##amic
shorter
prol
cans
perth
quint
poly
pregn
ourselves
moor
proven
obsc
slavery
produces
mines
revised
deliber
headquarters
refres
wake
listened
worthy
appropriations
renowned
romanesque
troub
districts
celebrate
evaluations
purchases
demonstrate
ignore
dependent
advisory
academic
resistance
scheduled
facilitate
38
34
700
bonds
dud
fer
gest
hc
lag
mam
nar
rides
wave
xiv
##pread
##atures
##itious
istan
##ching
alab
alley
abund
unexp
loves
loyal
moreover
aged
grate
roy
fled
warrant
##ressed
1991
follows
glor
suggestions
puzz
modeling
polls
votes
demonstrated
applies
repeat
horror
crops
mansion
exclusive
bauerstein
jacob
staircase
withdraw
unhapp
hastings
cotton
hcfa
istanbul
bib
dense
dirt
luc
nich
vend
##laimed
##har
##pir
##isons
reorgan
stall
convent
conrad
gov
choc
notable
##iev
##elle
sailing
explicit
overcome
prepar
shoulders
moors
invaded
costly
##athers
persu
populations
edward
##ugs
porto
generated
refers
traditions
reasonably
hillside
competing
circle
versa
fashionable
garb
camer
distributed
immediate
subscrib
losses
aimed
ceremony
intelligent
francisco
warriors
antonio
sophisticated
analysts
ceramics
ornate
goddess
aqu
bom
ell
faint
nas
pas
rivers
##ga
##cul
##mate
##vas
##kes
##bits
##ongh
##isan
##char
shiva
##oped
tripp
cancer
##ieur
spare
ark
unne
clou
grin
##achus
carvings
##osexual
boost
##angelo
subur
obst
farming
technological
concrete
mainland
sixth
poorly
antiques
arguments
competitors
lights
hearings
1989
appeals
photos
submit
camera
permitted
fatal
prayer
subsidy
electronics
hazard
interrupted
diplom
voluntary
thursday
lifestyle
49
bart
ceter
eve
fame
fake
pension
tut
tends
vba
ward
wished
yach
##erable
##imental
trump
traged
cance
unr
comptroll
reporter
commem
##iano
moham
whereas
joke
flash
flank
##rapped
slave
capita
museo
questioned
colleagues
120
pupp
balear
battles
acquire
quarters
formerly
greece
attempted
procedure
mistakes
prisoners
rapier
exerc
engagements
inspir
counseling
sponsored
volcanic
alleged
sanctuary
barriers
harsh
##mandu
density
hi
mud
oly
slo
vig
wire
##ui
##uel
##mers
##mother
##bc
##anas
inches
##ader
proc
neut
exqu
cloud
commod
attached
thrown
visa
elastic
publicly
homeless
ruined
crete
varied
classification
2020
steve
salv
trem
volumes
excav
dealt
failing
hungry
obser
11th
fleet
neglect
bayliss
observation
affects
integration
literary
expanding
gathering
convince
rejected
kathmandu
nuclear
unnecess
mohammed
olymp
hint
lor
rush
##rome
##lor
##iner
##rets
hect
shog
severn
spots
quoted
nowhere
instinct
economies
easter
barry
barnes
communist
steam
generate
promen
eggs
hillary
antique
minded
determination
devast
assessments
massachus
planted
davis
casino
hosts
essentially
concentrations
scientists
retailers
succeeded
clinical
skiing
evolutionary
incredible
pacific
michelangelo
monsieur
calendar
01
98
cited
crew
dental
ken
mol
porce
ts
##lined
##vic
##fare
##born
##oret
##orrect
inexp
##asant
##otte
della
orthodox
lips
##udi
precious
moves
joe
helms
buses
planets
disclosure
lesson
followers
youngest
arranged
paused
texan
geograph
protecting
illum
seaf
hurry
drawings
featured
mandates
restrict
assuming
cuban
academy
ratio
osaka
ceremon
athlet
##seeing
privilege
aggressive
inhabitants
unexpected
massachuset
dick
ko
pist
sending
##rison
##gian
##makers
ingr
infer
stab
##urning
##ila
##illo
universe
pear
export
timely
offs
brid
##ords
worldwide
hook
humid
extend
steal
currency
irr
horiz
princes
civilization
nationwide
rider
investigations
duties
literally
matching
limitations
criticism
boiler
launched
eager
cataly
harvard
precisely
porch
extravag
grocery
havana
satellite
suicide
crystal
67
bid
bang
dy
ms
pak
ties
wool
##kin
##bing
##arks
##omy
stabbed
##olta
seats
##illa
meals
##enders
##endous
lobby
adapt
impose
incomp
contest
slopes
producing
payroll
##ugawa
format
medium
postage
curve
confusion
professors
potentially
balcon
efficiently
attempting
flexible
variation
remarked
pursu
volunteers
proceedings
channels
schedules
anticipated
therap
analyzed
mirror
monopoly
phenom
aerobics
comptroller
porcel
massachusetts
pakistan
48
65
77
baza
cree
dent
gle
hid
mwe
nick
punch
si
sq
sque
waves
##gio
##dr
##wart
##orke
##itudes
##stit
##anted
trim
resolution
evident
coat
colored
underground
spear
suppliers
warned
artific
imported
signature
affirm
waterfront
2005
classified
180
receives
arches
grey
argues
floors
snorke
acceptance
references
contractor
preparing
combat
stocks
indicates
evaluating
slept
disappeared
malls
pursue
bias
shooting
tribes
fortunate
announce
victorian
coalition
accompanied
mysterious
unhappy
47
hip
honey
kle
pap
vamp
##gments
##down
##yards
##po
##ani
##itarian
##ador
##cho
dean
##mental
butter
##uster
abrah
worsh
envelop
arist
teeth
straw
recycle
##ermen
adds
retrofits
respected
formula
posted
188
immense
recording
balt
administrators
1980
referral
norman
panor
correctly
physically
mandate
jean
mortgage
paths
appreciated
meaningful
birthday
luxur
territories
climbing
symptom
agriculture
partnership
chatter
cabinet
priests
ancest
tokugawa
chocolate
berg
kiss
lau
vivid
wan
##eem
##iable
##lu
##falls
##enberg
react
procl
chin
ornam
exit
##ortions
##apse
##ouri
peer
que
scots
accent
backed
regret
studio
ending
mailer
summit
##liest
execution
winding
excite
fishermen
yorker
difficulties
distinction
bankrupt
focusing
threats
aston
neighborhoods
ownership
depression
appointed
corruption
charlotte
compromise
equivalent
nitrogen
pharao
tragedy
commemor
abraham
bac
lis
pose
pale
rugged
wins
##aics
##iat
##adv
##kefe
org
##osh
unions
clut
workforce
intr
##aved
afgh
marine
deserves
betray
invaders
provider
approve
differently
senator
armor
promul
pulling
demanding
checks
circular
engineers
santo
predicted
250
advocacy
industrialist
feedback
relaxing
bullet
navy
amendments
saddam
nonfederal
overwhelming
rockefe
aggregate
moorish
72
bree
cad
fier
ger
nave
pants
pets
tale
wag
##ture
##rical
##oll
##va
##fr
toy
##itivity
bearing
stunning
ford
forests
##theless
spark
lovers
##active
disability
disadv
##look
spell
artistic
##resses
caps
nevertheless
advised
landed
collecting
salad
presentation
175
girlf
compete
absurd
circus
hopefully
scenery
consistently
interviewed
textile
printed
inspector
inspection
nye
incorporated
pillars
updated
gorge
fighters
vulnerable
pentagon
paralle
puerto
clouds
rockefeller
43
41
59
bast
bike
fern
ic
tang
##uate
##fers
inapp
##arn
##idency
##iga
chances
##ighter
butt
##abeth
##umin
##izer
##izabeth
workplace
##anship
incorrect
brows
intim
crypt
partly
actors
##ensed
string
supporters
keys
populated
elizabeth
barb
milan
missions
missile
anne
passes
generous
discussing
burial
approached
sells
existed
painter
settlers
influences
germans
declining
1960
jamaican
shares
searching
automob
criticized
dramatically
reveal
suitable
alexand
ratings
homosexual
atlantic
mansions
satisfied
pirates
prudie
tranqu
grateful
aristocr
900
brew
dumb
hond
naked
ray
##rals
##don
##hin
##his
##father
##erie
##omo
##lete
stal
shame
##acent
spokes
##elon
##asted
##ishes
agent
newer
brass
feas
intake
cares
boots
bund
bucks
##lical
guest
returning
modified
sinai
metaph
email
milose
technique
airlines
cheese
millenn
missouri
configuration
anno
condem
##elled
associates
##otto
participated
hurric
avoiding
panels
breaks
michigan
respectively
casa
encouraging
utter
utah
complain
benj
graduated
publishing
delicious
borrowing
overseas
inquiry
duplic
relics
46
lane
pile
pork
sigh
wives
##care
##cape
##vin
##enon
toss
inade
##iti
##leans
##lyn
##aye
##irable
asc
sel
deer
comic
orleans
spite
hispan
outlook
inclus
intense
drives
screw
indirect
underlying
popul
valle
valued
insight
corrid
charm
economist
barbe
completion
##iciary
##idespread
dawn
182
receipt
stein
179
balances
merit
failures
sectors
emerged
penang
shrugged
junior
plantation
mosaics
creatures
achievement
collaps
bottles
introduction
incentive
registered
motivation
masters
delicate
obtaining
depicting
arrangements
bustling
frozen
chemicals
institutional
poetry
linda
cafes
assembly
cosm
mathemat
cemet
exquisite
artificial
milosevic
benjamin
inadequ
benn
dances
rating
races
sba
widespread
xv
##uity
##inople
##asso
reass
stiff
##changed
##olo
fred
neu
neo
button
##aco
priced
alter
trains
##iful
##unction
arth
unt
##cia
aging
exped
cobb
goodness
buck
##into
highlights
counted
geno
##atherine
visual
capit
hobby
##riate
defending
performers
engines
lesser
menu
possess
politically
billions
foods
bitter
singer
fails
impacts
devices
1988
emerging
foreigners
celebrities
imagination
glasses
installations
tomatoes
prospective
permits
adjustments
borders
naples
picasso
jumped
kentuckian
synag
vault
strictly
rebuild
dialogue
pollutants
dreams
zeal
episode
cale
dign
kam
mum
merg
rick
silly
voc
##ua
##top
##cus
##esford
anch
reich
relo
chop
notably
##anting
exagger
trash
canad
##uman
outf
outer
##eman
donated
##ags
quote
replic
bugs
consists
##sels
planes
retr
audited
contrad
viewing
patr
##aware
gardening
sounded
178
bald
richards
flew
junk
suffici
communicate
deny
observations
exhibitions
crossed
escaped
tastes
advocate
bathroom
merchand
explanations
victoria
websites
shocked
obligations
beresford
cooper
temperature
shifted
conventional
disappointed
entitled
unnecessary
excitement
cbo
gently
han
hamp
hike
jal
jam
kim
mumb
sik
session
##bu
theaters
##isure
##enth
##roe
##ayed
##keys
align
alert
abd
leisure
loose
closing
donation
containing
braz
reply
coins
bold
guards
smiling
##ogether
invo
governmental
bases
locally
publicity
insur
insist
makers
particles
admired
finances
swall
##aughters
equipped
reviewing
raises
moments
minds
universities
1987
149
circuit
ladies
cleaning
sweep
evaluated
evaluators
achievements
restricted
collapse
constantinople
complaints
ignor
odds
logic
counterp
validity
controversy
cooperation
lifted
buffalo
desperate
souvenirs
astronomer
gentleman
storage
tournament
database
garbage
procure
porcelain
cemetery
hence
iolta
lan
mt
mes
nut
vie
wand
##zing
##rum
##mat
##hy
##ito
##owa
stability
stalls
##imore
asks
notor
comed
lip
lied
##acc
peop
usps
grab
grabbed
sheer
brave
carries
scores
parade
registr
pubs
endorse
elite
restore
proportion
posts
funeral
investing
glimp
annoy
185
184
trek
specified
filing
singing
burd
civic
saints
deadline
conducting
greeks
procedural
casinos
philipp
qualitative
bottle
minimal
sampling
altogether
monumental
conflicts
virtual
allocation
delayed
coordination
resolved
suspicious
##enzo
vineyards
##onymous
argentina
netscape
seafood
chatterbox
arthur
glimpse
bot
biz
bapt
hats
lets
lung
mask
nons
roth
sed
vet
vague
yan
##ras
##och
##pass
##bow
##rels
shots
fried
manip
enl
maus
timing
perp
incons
contents
intensive
interven
carn
tai
strongh
marsh
margar
legacy
opm
##athan
flu
depicted
##cont
retrofit
caes
ears
coral
formidable
humor
financially
reviewers
lowest
harass
identical
merger
describing
superst
packed
tracks
nonex
applying
closest
hindus
fortunately
calculated
triang
mechanisms
convenience
kitchell
transformed
kicked
ranking
portraits
kilomet
elephants
novak
flavor
refugees
injection
biography
outrage
promenade
pursuant
affirmative
afghan
stronghold
bah
daughters
foss
gsa
hier
rico
tib
##away
##cue
##sm
##70
##arse
##ione
beef
##acles
safer
grim
perce
amid
wells
root
##cker
disg
##itty
scouts
scattered
seeks
sometime
relie
##crow
realistic
earliest
thoughtfully
factories
cleared
certified
annette
landing
alongside
salaries
armies
suggestion
arguing
civilian
eighteen
picking
louvre
offerings
basement
painters
applicants
troubles
mosaic
creates
versus
diagn
affordable
surviv
tracking
arabs
contacted
awarded
occupation
substantially
negotiated
walter
adventur
obligation
overlooking
mutual
cloak
venture
renovated
accommodate
palestinian
##estrian
gauve
recruit
anxious
reluctant
bicycle
scrutiny
inexpensive
bridges
baltimore
fierce
61
96
bite
cite
cute
census
diet
dump
ease
fy
gender
hitting
ku
kansas
ritz
##gg
##hor
##houses
##pered
##arial
##itis
andrew
##icism
rebell
stages
##ami
seasons
convey
##ando
##antages
##oded
plate
loop
beck
clay
donate
intrig
roots
interf
drank
index
##ference
desired
consensus
costumes
capabilities
larry
happily
readily
propag
audio
mainstream
steven
departure
winner
thirteen
identification
##aneously
burst
considerations
associations
turt
approaching
lacking
narrative
##unded
##oleum
holes
mistaken
1974
deduct
sensitivity
flyer
cruel
automatic
variable
suspected
williams
concepts
rangers
quantitative
recovery
champions
scholarship
manufacturer
confidential
sustain
leonardo
##committ
constraints
administered
producers
ingred
catalyst
dur
dimin
dagger
eighth
jet
kur
nost
rhod
rental
sway
tuscan
ware
wrapped
##ez
##rian
##rics
##gal
##de
##atra
toys
##rey
##omin
##omfort
dei
dock
##uscr
##apher
manuscr
alliance
##umed
##inking
feud
carl
twisted
##uba
bump
drum
##issipp
probability
longest
secular
preserve
supper
callie
wrap
surge
discl
hobb
simult
senor
mississipp
##phia
authorization
##aneous
grandmother
murm
definitions
wishes
adjacent
tendency
fema
radical
journalism
apparent
videos
throwing
##related
monasteries
protestant
struggling
isolated
##bourg
shouted
tongue
alabama
neutral
shogun
luxurious
annoying
mausoleum
mississippi
62
73
71
divid
gand
gab
iowa
poured
rud
rushed
soup
wis
##limin
##sp
##hou
##bl
##onia
##enous
##rection
##rog
helic
##olished
##ulative
chart
##usive
spouse
pepper
saudi
##oker
adam
composed
offsh
coco
cared
disord
actu
acted
centered
parole
##seless
bless
##icially
possession
glance
privat
operational
salon
array
budgetary
dealer
executed
125
screens
males
dull
democrat
bonus
planting
separated
lacks
philadel
conferences
citizen
automatically
assumes
appealing
baths
ranging
wilson
severely
subsequently
volcano
palestine
reservations
cigarettes
fertile
pavil
legitimate
murdered
tapestries
arkansas
alexandria
burdens
helicop
philadelphia
58
aph
aesth
bent
cul
kau
pestic
sisters
tony
##mere
##hist
##onic
##anches
toll
##isers
stir
stitch
##iments
pricing
##umber
##endered
##oks
upcoming
amended
amiga
bra
carr
disabled
scuba
afterwards
legally
fuji
presidency
supplied
demons
##awed
##awak
operator
##bridge
refuse
sixteen
judicial
entertaining
##oval
screaming
religions
furthermore
script
massac
bones
broader
ranks
##aska
beaten
accomplished
restriction
willingness
racing
seventh
##iyre
enhanced
contempl
picnic
mechanism
olive
deposit
deposition
emotion
resolve
forbes
elephant
enclosed
opponents
descendants
seaside
versailles
symptoms
aids
aunt
bits
dive
nu
nara
sid
wre
##essee
inbound
stol
haul
habits
##ulent
yelled
thereby
##osaur
enlight
##arten
ariz
##acked
overl
coinc
boasts
bug
prelimin
fold
evenings
relatives
assault
preserv
presidents
remarks
genius
subcommitt
handful
caut
admire
possibilities
nightlife
facult
continuous
practically
tuition
traders
origins
occurs
halfway
wonders
##shire
christopher
destinations
societ
##ippers
voices
characteristic
eaten
examining
consistency
survival
louisiana
journalist
dispute
accurately
respondents
analyze
symbols
conditioning
mallorca
logical
luxor
unple
guarantees
conquer
pyramids
##trap
codes
knocked
ramparts
electronically
settlements
discipline
acknowledged
taxpayers
australia
scheme
tactics
biblical
gild
hits
jf
jokes
ri
tank
##tic
##oen
##iah
##hill
toled
##ala
##rea
##isy
beth
##veys
stays
##ithe
sep
seed
convert
liability
##osity
##apore
enacted
spa
spends
adverse
reserved
acre
##gram
overt
##berts
guilt
##iley
wherever
programming
regards
addict
modification
extrem
designer
swift
confront
nightcl
maine
traded
sunny
parking
worthwhile
descriptions
obsession
recognizing
1983
1982
structured
honored
uncomfort
##iosity
##burse
flowing
agrees
flytrap
dispos
responding
##class
bulk
honorable
tennessee
sharply
absorber
worksharing
allocated
pilgrim
legendary
cigarette
cinema
encounter
transparent
girlfriend
feasible
inadequate
capitol
peoples
tibet
arizona
preliminary
cia
dare
flem
gut
hipp
icon
kh
kios
nest
pall
porn
piano
ric
vib
wander
##din
##cour
##sr
##mond
##vy
##orus
##arre
revel
##roc
chairs
exter
abb
meets
allies
unm
adap
##akia
incurred
intric
cruc
roberts
heroes
preach
prehist
##anging
invite
relate
assured
costing
governors
courage
deput
endang
simulations
defect
swamp
swept
202
promises
singapore
colleges
attracts
specialty
floating
accordingly
memories
accepting
130
separately
georgia
celebrity
horseback
crossing
balls
ethics
sightseeing
talented
altitude
semi
vegetable
eligibility
rubin
negotiations
naval
photographs
photography
motivated
eliminated
discrimin
masterpieces
warrior
bosn
diesel
reorganization
inspiration
yanke
66
awhile
ced
hates
lap
osc
raw
ruth
rope
sic
sessions
xii
##mill
##matic
##manship
##yre
##yth
##jud
thread
##inter
##esters
##enger
tooth
##lli
reed
##tha
##istically
alph
trace
spraw
##astroph
ups
comparing
grav
yearly
conting
intend
dislike
appra
fires
invented
##rake
courth
foundations
hoc
pointe
controlling
emily
deter
miller
camps
glory
landmark
salmon
##enna
lowered
freeze
greens
budgets
choir
villagers
jewels
specialized
epic
devil
copper
custody
contractors
catastroph
dresses
affecting
purchasing
permission
progressive
railroad
colonn
##guard
melaka
quantity
oriental
transformation
athens
columbia
dialect
thoroughly
breeding
incredibly
graceful
##marks
fighter
cockpit
valleys
registration
97
bored
cattle
dere
gord
hed
lush
ses
sizes
tier
wagon
##zare
##no
##nie
##gins
##min
##vens
##fp
##erge
##oro
reck
staring
seated
seized
segment
cher
alban
lect
##osis
##uda
plates
plains
max
##quet
unco
lobb
sheet
accidents
lotus
moore
removal
hugh
slaughter
instant
founder
viewers
termin
generating
irre
favour
favored
regulated
associate
jerry
convinc
sadly
targeted
revolutionary
##worth
novels
interpre
unfortunate
reconf
innovation
navig
terrorists
witnesses
graphic
enjoying
toxicity
korea
solely
excursions
reconstruct
municip
substitute
prototypes
brutal
pregnant
lisbon
inapprop
synagogue
procurement
offshore
austr
cel
cass
celt
dow
ff
gee
lc
lone
rif
sie
tid
tul
wo
yards
##uously
##za
##zan
##nu
##rix
##dale
##lass
##making
##66
##bted
##isans
beating
stere
##sein
##section
##rol
##imb
##iman
shake
shakes
shinto
##ili
##ulously
chips
suited
alan
alright
soap
cane
arise
unl
unst
cler
usage
nob
##ager
officially
overr
mugh
##ometric
attitudes
conspir
deciding
persian
famine
##ression
smallest
founding
farms
charity
meters
pointing
##iov
extension
##inson
profound
confed
confusing
##mann
grows
passaic
statutes
practition
generators
sanctions
ruler
judgments
##retion
considerably
movements
hussein
absent
##ovitz
assessed
italians
##umbling
penetr
initiated
messages
banking
celebration
sweat
farmer
1970
garage
liberation
liberals
samples
taller
birthplace
seventeen
reveals
ranges
tunnel
##uku
bargaining
foolish
incorporate
champion
gaul
revolving
tiger
blew
intentions
##oiselle
dolph
enterprise
undertaken
dudovitz
tremendous
##stitution
promulg
merchandise
hobbies
gabr
stolen
hik
pom
pause
ports
ross
vish
verm
vouch
##uana
##ni
##iji
##len
##post
##ports
##vest
##burn
##enin
##oust
##alg
##otine
whit
##urf
heels
deities
##ulates
neph
chew
##ista
alumn
alps
##aug
##emoiselle
unbel
clue
grat
whoever
exports
branches
overcrow
herod
disabilities
##loved
accus
indul
lott
blades
counting
insult
mighty
skull
curiosity
auto
advise
fourteen
stealing
##brand
noneth
bloody
burg
specialists
europeans
sne
observe
historian
referring
mademoiselle
egyptians
complexity
cooked
reflection
##chester
briefly
##losures
printing
henri
advisers
innovations
conclude
replacement
instructions
utilities
attributed
assassin
harvest
gigantic
allegations
francois
balearics
therapy
bizarre
subcommittee
gabriel
nephew
alumni
nonetheless
57
bland
cord
csr
eh
gon
ile
jus
lump
pip
rous
rented
som
slic
wig
zelon
##rous
##sis
##ho
##bet
##inge
##repr
##omon
reef
##state
forment
##sect
shah
dell
deck
##odes
als
canvas
spray
outbound
load
upr
##grad
quaint
brow
##lock
intoxic
downs
addiction
handy
capability
##aires
ruin
demographic
formation
watergate
invested
terrific
170
texans
128
suggesting
disturb
fights
expects
expectation
alcoholism
chapters
establishments
featuring
mixture
##etta
landscapes
psychology
graduates
cups
sarc
terrorist
satheri
1950s
trucks
suspicion
fountains
inhabited
prosecutor
exhausted
ferries
bazaar
jalan
botan
unpleasant
toledo
vishnu
burgund
##reprene
hh
mow
maps
tips
useless
wings
##eu
##15
##fman
##wi
##wich
##eda
##oul
revers
whites
weld
shipping
docket
allen
unaware
##izations
grain
amen
newest
offensive
buzz
dried
mock
relied
prescrib
costa
schwart
countless
gene
feder
minar
skim
advances
serge
islanders
infant
practiced
cef
choosing
magical
##she
participating
historians
reno
influential
1000
speaks
indicators
commented
603
comparable
citizenship
unsure
dependence
stretches
recipient
honestly
willey
pedestrian
stamps
intellectuals
subtle
saddle
desperately
snapped
vsl
lavish
frightened
embarrassed
preparation
horizon
propaganda
manuscripts
gilded
exterior
courthouse
schwartz
ais
diver
fare
fles
jog
ly
mike
pon
pensions
rou
sized
tires
##boy
##onian
##alay
inaug
##reach
reverse
shining
##olas
##oline
chains
abst
abrupt
manh
enfor
plaster
resent
perj
shep
overhead
appet
drama
prejud
sco
needle
desc
##iani
attending
colour
underm
underne
assure
parce
param
joining
presum
##ertime
remn
bluff
wrist
keen
artisans
slope
entreprene
senators
##lington
accountants
politician
amongst
judged
judiciary
walled
solved
stephan
claiming
credible
pressed
commissioned
nationally
maintains
divor
independently
scratch
deeper
dinosaur
threatening
neighboring
essay
camel
punished
occasions
bands
amazed
ambitious
variables
robust
drops
cartoon
defenders
dynamic
belonged
terrorism
archaeologists
recovered
bothered
pillar
varying
supervision
prevention
migrant
snake
hesitated
hypothesis
mitig
deliberately
troubled
vendors
millennium
cobbled
richardson
simultaneously
##zarek
underneath
78
88
bish
boud
dated
dread
danc
dwell
eil
fid
fathers
fwi
jard
jenn
lyn
oro
pud
sour
tire
witch
##uch
##ean
##isse
beloved
reun
##sem
##irer
##ambo
sha
shin
shed
##ilia
atop
orang
exile
##usible
sober
leap
canyon
##apolis
##udge
##unci
enqu
##umer
plun
##aste
untr
peel
adul
upgr
compat
grip
##grapher
perf
perception
impl
incumb
roose
twist
poets
partially
##velt
desirable
inval
counties
flows
empower
##ologically
charging
mills
##iciencies
portions
landl
183
brook
arriving
##attan
footst
hunger
cops
recognizes
1986
145
divide
erotic
mosc
packages
versions
banned
philip
midnight
pilots
spirits
##itzer
miracle
amph
faithful
carpets
clinic
reliefs
shoreline
excessive
sustained
opponent
fulfill
inevitable
obscure
suburbs
hectares
gorgeous
##donald
actuarial
kaufman
uncomfortable
eilat
enquirer
roosevelt
63
bount
hust
kes
lyr
mister
nbc
rfp
tens
woke
##ecess
##inative
##itary
rear
reception
##celer
fraction
##opp
##abs
traces
lever
lover
timber
##aho
acceler
noon
inclined
##ounted
quay
feared
cohen
marij
parish
remem
blanc
lasting
worlds
retained
earning
mineral
streams
resting
formally
barrel
technically
benefited
admissions
varies
rises
behave
deliveries
awa
sunlight
##elling
potatoes
sentences
answering
sooner
1984
##umbled
broadway
embass
degas
predecess
qualify
asth
bandits
prevented
disappear
concentrated
tribe
decreased
praised
buddhism
##piece
synth
expenditure
conquered
overlooked
distinctive
accompanying
exclusively
tigers
cinemas
promoting
cheerful
terre
dismissed
##ighthouse
consolidated
intimid
bennett
margaret
gandhi
faculty
gordon
convincing
inappropriate
formentera
marijuana
56
cure
ein
gum
hort
java
ling
lubb
mouse
pity
pbs
raining
sain
tension
vel
vatic
wip
##view
##win
##48
##inging
##aly
##alous
##arine
##asters
reci
##ido
stem
chau
knees
manif
##umble
spices
loaded
justify
resid
quotes
disk
preval
commander
mars
##ailing
regime
##onsin
##wear
depreci
slam
slip
phoen
ende
insights
revision
tempor
protests
opposing
apology
apaches
delivering
terribly
greco
harmon
paula
mounted
geographic
competent
squares
grandfather
pressures
friendship
unfunded
ern
knowledgeable
arena
fixing
commentary
titian
decorative
gradually
constitute
functioning
telecomm
bowed
spreading
stretched
hello
lengthy
maximize
wheels
nyt
abandon
outdoors
stretching
whispered
precision
benchmark
pollutant
korean
##keeping
summarized
liquid
indigenous
excursion
ronald
cottage
##children
##luent
spokesman
brazil
caesar
harassment
aphis
prehistoric
shakespe
presumably
moscow
lubbock
sainte
recipe
52
90s
bind
bak
beng
cp
czarek
echo
gays
gins
gym
hoss
lions
lyon
merr
pard
ripped
tam
vert
zen
##uci
##nas
##nels
##col
##card
##cos
##mel
##power
##oulos
##itar
##itate
##asp
##isive
belly
##llers
stur
##uri
##urity
##urai
aswan
deleg
##oping
atm
trap
##una
##ours
plum
##quest
peas
peers
pecul
adorn
nobles
disrupt
goodby
1950
himalay
committing
##ints
marina
##ailed
##erald
informal
relation
provence
prescription
blown
warner
surveys
##ainties
insisted
holl
emerge
skirts
cheek
tempted
risen
receipts
operators
cells
hilltop
##workers
##holder
destro
environments
##anne
architects
##archy
attacking
panthe
corners
establishes
respective
doubled
mandated
darkness
investigate
hyd
garment
integral
disputes
gasoline
giants
conversations
arabia
contacts
introduce
minimize
guarded
macroe
tunnels
illustrate
aimd
heroic
dusty
acknowledge
graphics
elementary
boilermaker
deemed
windsurf
anthrop
tornado
consciousness
orchest
liquor
taxpayer
pundits
metropolitan
apologize
marginal
ceremonial
extravagant
balconies
vampire
parallel
utterly
mumbai
taiwan
nonexchange
disgust
survivors
municipal
austria
celtic
flesh
endeav
peculiar
goodbye
macroeconom
54
64
74
bambo
cd
dw
gear
ipm
lighthouse
oas
oreg
pomp
ponds
rage
sip
tud
tiber
wider
##will
haun
##olome
seeds
goya
chim
exh
##acies
trave
abilities
##ardy
##unic
enable
spun
unim
clan
justified
##heric
##ounce
compass
composition
impair
brack
boot
##veland
thriving
monit
opens
governing
blm
##ermere
fluct
belts
kells
shower
handles
##conn
payche
edo
moder
##ugg
readiness
norther
playground
##beat
careers
medici
auton
2003
missiles
confess
practicing
secondary
mature
raids
arched
freezing
listing
villas
windermere
holdings
killer
buyer
distant
castro
litter
appropriation
halls
georgian
reportedly
submission
jesse
jacket
ninth
##worthy
##guards
tribal
feeding
bathing
subsidies
penalties
warsaw
removing
crusaders
craftsmen
arrangement
trendy
repeatedly
arcade
miniature
distinguish
indigent
juris
evolved
ceteau
coroner
gesture
abundant
lorenzo
snorkeling
automobile
homosexuality
canadian
ingredients
feudal
pavilion
flemish
greenspan
lobbying
siege
burgundy
federally
sergeant
vatican
shakespeare
pantheon
bamboo
oregon
catherine
ker
kin
kan
lanes
mant
mound
ov
rape
rude
troy
zo
##taking
##lades
##mo
##ker
##was
##onies
##anim
anonymous
anderson
rewards
revered
forcing
##rove
wears
##iston
alp
albe
tract
abo
##ifix
##ifiable
spy
uneas
unchanged
loving
adoles
##izable
acrose
##aky
##akura
repay
dissem
partition
##berries
lazy
maria
##icks
backs
secrets
bloss
flame
slipped
revival
delays
clearing
booksh
skys
signal
##iera
##cca
glam
secured
continental
##amese
terrain
limiting
promoted
questioning
travels
##ella
antiqu
snakes
grantee
quicker
screamed
referrals
hurts
manufacture
selecting
cleaned
draws
evaluator
venue
##ophag
layers
tallest
breathtaking
1930s
1920s
oliver
bargains
absorbed
oxley
rumors
exploration
dominant
##books
veteran
##points
attributes
switched
struggled
monarchy
prompted
frustrating
axe
washed
forecast
sequence
pundit
verdict
prestigious
astonishing
cosmop
hampshire
lantern
intriguing
crucifix
unbeliev
stephanop
footsteps
temporarily
bengal
windsurfing
monitored
albeit
02
69
bass
duc
fi
gn
gaining
hay
nerve
pits
rip
sod
wisc
##uum
##uated
##rale
##gent
##mart
##ken
##fia
##fty
thomp
##itating
##itably
##rood
weed
shaded
##ilings
##estim
conced
goss
sued
alic
altered
trag
manages
ench
clich
##ishment
grapes
acro
nobel
ami
imprison
crying
overtime
boating
scro
smar
thrill
olds
parale
polite
hugo
kinderg
reduces
marking
controller
aviv
cleveland
advantages
communism
turner
financed
explored
annie
stupa
203
continually
collective
marketplace
##enne
calle
terraces
awake
identifies
173
ballet
163
debts
trusted
plantations
characterized
examines
ladder
##ospheric
denver
russians
banana
observatory
citadel
spotted
frequency
liberty
permitting
escal
advertisers
symbolic
holyrood
variations
sorb
##agonal
vegetarian
illustrates
hypocr
reagent
update
cracked
litigants
jimmy
tube
assertion
catalog
pige
charlie
dictator
fragile
cumulative
vessels
diamond
confirmation
nazi
prophet
skeptical
supervisor
fantasy
refresh
cameras
phenomenon
creek
afghanistan
intricate
promulgated
sarcophag
wisconsin
thompson
85
bun
gil
gib
imb
jaw
lut
loses
nag
nass
nasty
tag
wat
##aus
##dg
##pat
##fu
##friend
##word
##walk
##bat
theoret
##oubted
##aro
##ente
ree
rever
sto
##urable
##chitis
heir
shapes
nel
knights
##istine
hiss
outreach
unav
unhe
theirs
acute
overd
coc
coin
dispar
drain
marx
undoubted
attain
##vernmental
##erton
hug
differing
retal
imports
esteem
discretion
insuff
rua
revived
defended
poste
bookst
developments
considers
communists
tempt
processed
transpl
swed
roommate
accounted
majestic
testament
pretend
glow
creole
stepping
summers
summertime
eyed
##boats
176
printer
viable
160
sentencing
hunter
husbands
obsessed
checking
contracting
shrubs
manufactured
secretly
linking
documentary
reflecting
females
casc
mistress
urged
##ilingual
commercials
distribute
complained
analyt
appreciation
ethn
crafted
etr
minorities
bronchitis
mercen
groves
welcom
substantive
comprises
boundaries
malaysian
lawns
mcdonald
uncertainties
adequately
conquest
reminded
coordinated
depicts
revolt
renovation
hijacked
krug
analyzing
akbar
anthony
frustrated
prohibited
conjunction
nhh
nasa
observers
devastating
nickn
murmured
deputy
hughes
reconfiguration
hikers
aboard
cosmopolitan
welcomed
ald
bunk
dazz
fen
fas
font
gol
gour
jaff
kab
kend
lun
masc
patch
tiles
##uv
##aise
##ien
##13
##wick
angle
##omic
itiner
rect
##etto
stole
##iratory
defer
congr
nev
chase
##geois
##abet
meg
##arded
canals
placing
saves
gram
amy
amar
quart
brains
rolled
interaction
cove
poems
strikes
colt
synd
##athe
blend
blond
blaz
busiest
suburb
kelly
basin
mino
metro
factual
barn
curb
autumn
particulate
profiles
waterfalls
##phy
exploded
passenger
stevens
volat
winters
healthcare
additionally
originated
towering
solar
romance
attracting
stylish
necessity
seller
credited
contribut
impacted
treating
journals
speakers
cleaner
revenge
ranch
predomin
doubts
1979
declare
401
beatty
1967
injust
##backs
demonstrates
spiral
qualities
searched
applaud
borne
comparisons
talents
sundays
elder
biological
stewart
scandals
##iya
concludes
fabulous
accidentally
emphasized
clinics
tenth
digital
sacrific
nicer
neighbour
mentally
rewarding
shifting
spinning
plotz
pirate
canton
gaze
bourgeois
plausible
isolation
inherent
vinci
recreation
wicked
prestige
pitts
prolif
glorious
hazardous
commodity
pistol
envelope
fernando
metaphor
sufficiently
wandering
kilometers
championship
societies
sepul
pilgrimage
stereoty
alsace
disturbing
boudoir
asthma
skyscr
stephanopoulos
gossip
smarter
nelson
undoubtedly
analytical
92
couch
dues
hhs
japp
kins
kidding
lal
lighter
mul
mint
morn
nan
nagas
nuts
pour
pending
rows
rita
tad
voth
ville
yok
##giving
##ders
##drop
##car
##lise
##went
##bes
thunder
##esome
##isp
beaux
rehab
##rolo
##adda
##urbed
heights
ascend
shiny
orr
oral
##acca
##usc
trin
##ustomed
##mphis
memphis
##udic
allied
maid
outlets
unn
##oka
grid
grill
amusing
incomes
quot
brib
repairs
caring
discip
disgu
underwater
blues
famed
kef
caution
respiratory
maker
hardest
companion
serbs
menorca
explaining
nightm
projection
wax
awesome
wallace
eglise
favors
doorway
epid
domes
protective
lightning
##ynes
contributes
cannon
replacing
laboratory
scrub
panic
##held
combine
lacked
convicted
innoc
indicator
threaten
candle
cros
cathedrale
hosted
challenged
discounted
complaint
proposition
##etti
murderer
kidna
ethical
colonies
drafted
bowling
laughing
rubens
saturdays
shadows
consultant
consultants
scholar
ashamed
deposits
oxides
nepdg
crusader
cloister
kram
uniforms
embrace
portrayed
enterprises
libertarian
grinned
olympic
athletes
tranquil
hurricane
genoa
outfit
patrick
inconsistent
perceived
manhattan
shepher
bone
cm
cet
hog
hilt
hardship
kel
loun
moss
owe
pione
ral
rents
sib
tents
vain
voy
##eff
##ti
##tes
##cs
##cod
##fire
theod
##ono
topped
##isa
##isco
##icy
##icut
##lehem
##entine
stap
stern
stored
staged
forfe
##chio
weights
seld
##illion
##ulse
nebr
knight
unlo
##izability
perenn
amate
overth
rooney
rolls
dischar
indones
needing
servants
firing
finishing
backyard
remin
subway
##ainted
phases
minnes
problematic
shoppers
morgan
operates
matt
arche
ceilings
stopping
promising
noncom
shortage
##ommon
irrig
##boat
remembering
competitor
humanity
sentenced
assisted
dougl
fortified
credits
##balls
contributing
woodward
##apping
preference
mosqu
cardinal
physician
indication
surviving
investigators
titles
misunder
hostile
##banes
veron
angel
matched
trailer
powered
psychological
racist
hamm
hammer
##after
sheltered
revealing
calculation
rubber
galile
sarbanes
emphasize
emotions
accomplishments
teenagers
reminds
rhyth
bait
depressed
gaunt
conceived
scarce
satisfy
translated
prosecutors
marvelous
wrestling
bartolome
disadvantage
kamakura
sweeping
preservation
bethlehem
adapted
sicily
dereg
ernest
ginsburg
compassion
krugman
jaffa
epidem
68
84
80s
cv
dorm
eb
fow
fitting
hil
hilar
iz
kaz
lamp
rale
raph
ramb
sends
##zo
##nity
##rent
##gi
##lings
##lav
##master
##75
##yle
##kward
##fri
##inan
##inous
##educt
##ington
##llas
reop
shorts
##olith
seam
frowned
##opular
goat
dos
meh
##osa
enact
enabled
mae
##astically
##cio
donald
offended
bruce
crashed
crushed
mule
disli
tavern
##eph
precip
##licity
scare
stripped
smok
mold
consort
governance
requester
genetic
perspect
obey
##criptions
endless
mining
reads
barik
eman
curt
issu
headline
investor
prett
glanced
landmarks
equity
info
infin
181
generals
generalizability
sixties
greed
arrow
cultiv
thirds
windy
awkward
breast
courtroom
horus
sorting
fortifications
##ipper
violate
##anni
frontier
uncommon
voter
indianapolis
lawsuit
documented
mandrake
1975
martyr
investigated
encourages
sensible
jealous
verify
petition
janet
troop
ambass
speeches
cynical
dedication
tribute
deserted
calculate
vanished
strengthen
unpopular
skinned
consequence
gamblers
subsidized
tubacca
pigs
fertility
promotion
folkl
enthusias
dragged
episodes
gentlemen
pagoda
felipe
inevitably
exhaust
chaos
elasticity
evidently
announcement
proclaimed
duplicate
hispanic
rebellion
rhode
aesthetic
apprais
practitioners
lyrics
sturdy
alicante
tragic
kindergarten
nagasaki
minnesota
douglas
raleigh
perspectives
79
bend
bened
bidding
fost
flic
giov
lus
nancy
pf
rag
tide
vest
##upp
##nut
##namese
##iences
##vable
##bling
##jon
thumb
##inth
##inals
##eses
##eding
inex
inacc
##armed
bever
beij
##idity
##roid
##urate
wasted
##iguous
heb
##imm
##thew
hack
hagg
##mented
frames
chand
chron
chios
notices
##andy
butler
alumin
trent
mann
spont
pled
pean
resign
compos
grades
repet
intact
interactive
##ckets
twins
actress
marit
backing
specially
##oths
download
poles
##luded
subclass
governmentwide
capitals
pharm
homework
##scale
correl
farr
defensive
metres
taxed
serene
affil
cheers
guessed
protested
musicians
##ecd
anna
freely
reasoning
harb
harbour
solomon
potter
129
domed
policymakers
similarities
snap
hunters
devot
cope
treatments
duomo
appropriately
madame
deadly
fairness
requesting
##ography
scenic
positioned
diary
wildly
slowed
bananas
rainy
misd
connecticut
cruises
sciences
spectrum
laying
rebels
warmth
tales
powder
psychiat
earnest
coward
octagonal
scientist
francisc
avenger
inquest
consulted
consulting
negotiate
storms
mechanical
ivory
brightly
resisted
motivational
pm2
crusade
reminder
appointment
renovations
pitre
wounded
simpler
cantina
vicious
encountered
feminists
bernini
lodge
liberties
wolves
supervisors
fantasies
explicitly
subscribe
bombs
wardro
laund
queens
bankruptcy
pharaohs
sighed
collapsed
caleornia
leisurely
notorious
annoyed
turtles
tuscany
wisdom
overlap
nightclubs
yankees
reconstructed
woven
##unciation
amphithe
bounty
atmospheric
orchestra
sorbent
kramenin
nebraska
noncompl
beijing
aluminum
51
bore
bays
balk
camb
duct
dug
eiff
fitz
gary
iup
jain
kual
kurd
nude
posed
piet
rats
tended
##rac
##diction
##sen
##mith
##mont
##pur
##path
##vis
##inn
##inas
##inians
##itical
beasts
##storm
stance
shy
conform
fra
suck
knee
albr
abu
soaring
hass
willie
##oku
##ounding
compost
compact
compelling
grind
##aga
##agne
eviction
overnight
roller
goodwill
buys
pockets
scan
##aven
guill
martha
descent
lookout
consent
relies
opium
##othy
downstairs
blamed
belg
slap
slower
organize
organizing
propose
concur
confron
confined
##ecy
landf
growers
tops
halt
##racted
judging
distracted
##sha
kingston
immun
##parents
126
domain
domination
simplicity
debated
grandparents
objection
##umbers
painful
##lette
unfor
acquiring
moses
packet
sandstone
sandwich
legislators
tiers
corrected
dropping
adoption
layer
behaviors
giul
functional
elders
burnt
burns
welcoming
spectacle
strengthened
##uki
belongs
partnerships
launching
witnessed
workshared
loudly
vietnamese
temperatures
reinfor
inputs
monarchs
##laid
anglo
montego
frightening
anxiety
blanket
excluded
riviera
aqueduct
obstacles
yacht
unrestr
excavated
observer
pearl
breeze
honda
inclusion
reloc
perjury
brooklyn
proliferation
seldom
eiffel
iupui
kuala
aj
aol
dess
dak
fh
faded
hale
hank
kas
mi
mie
mast
nc
oval
pel
ropes
sop
somed
uk
##ns
##nin
##rd
##gue
##iets
##cere
##lon
##based
##onso
##oria
ank
anecd
##real
##reated
##asu
##leine
##utt
##add
healing
weaving
asp
sher
shaking
shores
nebb
cherry
succ
knit
##acon
trig
aba
spaces
plateau
arn
likewise
clust
offense
fever
boast
poke
pooh
##berry
mare
marcus
needy
thrust
##amped
madeleine
regent
##athed
studios
flue
flaws
callers
wright
subia
idiot
realign
endors
##uccess
locate
organisms
disclosures
happier
entries
sins
charism
deficiencies
forming
deterr
watches
contrasts
benefici
annex
portal
facial
equation
morally
privately
operated
cease
specify
budgeting
exclaimed
##iki
breasts
##pring
regulate
periodic
flock
grandchildren
lightly
flea
motives
boyfriend
separation
israelis
adjo
quarrel
imaginative
affection
crocod
dispatch
reliance
conservation
judgement
magnitude
vacuum
complaining
constitu
angels
ignoring
conversion
compares
cooler
variability
remarkably
##ohama
2015
illustrations
consequently
roofs
permanently
hinduism
eliminating
masks
workshops
nominal
soviets
detective
philosopher
sponsor
sporting
cousins
sabah
exploited
gifted
accommodations
gorb
disneyland
hijackers
bolted
steadily
earthquakes
tablo
transmission
routinely
assignment
pronounced
paragraphs
harris
province
mamm
diplomatic
stabil
incompet
ancestors
##frame
barbecue
exaggerated
##build
invoice
deductible
massacre
##bursement
xiii
ffc
clerk
keswick
paycheck
northerner
pigeons
cocaine
yokohama
##inancial
enthusiasm
noncompliance
someday
beneficiaries
89
arose
cau
cows
das
dart
denn
diana
fence
fiance
jod
lt
lingu
ming
qa
rack
raz
rivals
rosen
tore
tread
yam
##uke
##nik
##eur
##eeling
##sad
##ski
##made
##mates
##hu
##hed
##vals
##western
##ori
##alds
##arity
##itr
##itter
##isi
##eters
##adic
##vere
shack
shattered
prose
seattle
goats
noting
prado
alarm
worries
melt
##ardt
##unks
mahal
mafia
unity
sake
upscale
graves
##group
ammon
implies
evac
intimate
anytime
cran
cripp
crowned
herbs
carth
carlos
poem
partisan
fog
marath
marri
marco
recession
##iane
thrive
backdrop
remsad
flights
genre
##getown
emplo
kevin
baseline
##cript
edg
ministry
hollow
approvals
proportions
nationalism
2004
mailing
campbell
daim
classics
classroom
matthew
raid
experimental
ceos
capitalism
156
sunsh
accessed
methodologies
agreeing
traveler
labeled
educate
puff
encomp
participant
computerized
civilians
##ova
objections
castles
standardization
cathol
ensured
jerk
georgetown
substances
lawsuits
embod
sweaters
shareholders
consisting
triple
fastest
lucr
investigating
missionaries
consumed
decoration
magnet
sudan
meantime
premier
telegraph
rebel
emperors
drafting
cheapest
unsuccess
transported
landscaped
gentile
pursued
pursuing
robes
randy
prints
boilers
semester
tune
elegance
recipes
carpent
interpretations
bullf
blowing
skew
tightly
alleys
bedrooms
hijacking
tanks
disappointing
unwilling
##achev
recruiting
fragments
solicited
monopol
joyce
licensees
##eastern
renewed
sympathy
advertisement
indoor
muscles
bureaucracy
provincial
stanley
enthusiastic
neglected
pharaoh
bundle
mumm
retrie
counterparts
nonsense
perpet
vibrant
##minster
conspiracy
vermont
unbelievable
nevada
injustice
pittsburgh
amateur
albright
dakota
gorbachev
encompass
350
gy
git
gur
hath
hmos
ig
ironic
jets
lac
lust
lend
lure
pto
rally
sore
wy
wield
##uil
##aig
##bly
##erget
##inqu
##esa
##orout
inability
##iters
##icans
rejo
wholes
stack
fores
##chy
##iger
hak
##teries
sham
sev
##ersed
##illas
fron
trinity
##mpt
##iffer
##ective
spacious
maison
maze
##ela
unanim
lob
sai
teens
##ounded
donors
workout
persec
imply
contam
bred
brink
britt
rogers
carving
cargo
mund
bohem
tapped
##uctive
accustomed
stras
servant
coloss
##ogy
umbre
inviting
syria
wayne
rembrand
blink
blessed
flaming
courbet
keynes
retention
eds
cake
insane
seemingly
sincere
souls
propert
audiences
touring
barbar
autorout
signals
##oyant
hotline
ideals
patience
##phorus
gloss
morals
salam
raiders
apost
apoc
terrified
filmm
172
antich
168
merits
sentiment
rocket
forehead
murals
shrimp
divisions
purple
panama
messed
softly
seasonal
dijon
respects
imagined
##orrent
hyper
installing
titan
deduction
garlic
displaying
tracked
automation
##adox
diego
##rofo
shallow
firmly
bronx
renting
pursuit
semin
quantify
illustrated
skinny
filling
ashoka
austin
poisoned
poisoning
workshop
detection
diseases
rhet
recycled
distinctly
ganga
eagerly
kirk
fertil
promptly
optimistic
embraced
lewisville
admirable
distinguished
rajput
renewal
strangers
reconstruction
ryan
grasp
wolfe
geographical
humidity
wanna
betrayed
dignity
contradict
pesticides
kiosks
bosnia
sprawling
overcrowded
dancers
incumbent
wiped
pardon
destroying
autonomy
raphael
folklore
maritime
franciscan
edgerton
sunshine
catholics
lucrative
ptolem
rembrandt
53
70s
au
bilingual
cuc
fist
fret
hann
ja
jag
lil
osha
rings
riot
tay
urea
vint
wp
wach
zion
##ollo
##link
##hr
##vos
##washed
##bra
##xon
##atial
##esc
##esy
##oni
ante
toile
##ingo
inlaid
##arms
##oman
beans
stee
##amo
shit
##olia
chris
atomic
livest
##ppers
yelling
thereafter
prag
algar
sovere
leaks
allerg
##ection
plague
outd
loire
upward
uso
resur
graz
graft
gracious
noisy
perug
perched
##akhan
sheets
impract
evans
newcom
crude
craig
carav
carriage
disgr
prefers
##icals
footh
thres
throws
undergrad
monkey
legends
spelling
helm
blur
requesters
supplier
additions
persians
warmer
visions
realism
startup
bothers
hoff
happiness
revisions
corinth
charter
approving
delos
defining
##erness
sket
##tsa
airpl
extending
designers
##leyman
equality
morality
morrison
mainframe
##ructive
raft
apollo
refurb
greedy
101
experiencing
##ikh
presentations
bloom
##boards
##ancies
methodological
reaches
166
164
protects
modeled
determines
finely
scream
alcoholic
pollock
110
drinkers
wooded
140
hurting
mosques
combines
juice
celebrating
russert
santor
venues
##iffs
garland
essence
1966
jesuit
camii
laser
breathing
industrialized
1940
samurai
licenses
contempt
inspections
attendance
publishers
wilkins
harmony
predictable
unusually
floods
dominates
tubes
theatrical
##writer
rewarded
bosses
mysteries
dilution
unreal
groceries
##keeper
supplementary
premiums
australian
warnings
unconstitution
broadcasting
spoiled
nhtsa
jefferson
exercising
##uela
elasticities
offspring
strawberries
panorama
panoramic
corridor
ignorance
confidentiality
disorder
jfk
alphabet
hockey
accusations
uprising
bishop
leverage
embassy
adolesc
dazzling
congrat
reminis
hilarious
fhwa
gentilello
properties
livestock
algarve
apt
awe
aided
baker
garr
jar
mate
pk
piss
poker
rus
rugs
sr
sank
ssa
soda
ub
wto
waved
zar
##gie
##occ
##dle
##cane
##lash
##mad
##hir
##pill
##kind
##jman
##aned
toes
ink
ingl
##omph
bea
bells
##stick
##ados
##aying
hail
haunt
proxim
chill
traced
##ifices
leaked
energet
sparse
plag
plumb
araf
arlington
unex
clown
adams
tear
donating
workload
pert
pertaining
incon
quo
repr
cram
crane
overh
overly
robb
interactions
co2
actively
dragon
strand
##ption
thrilled
consci
decad
paradox
downward
schumer
addicted
persist
deploy
federation
retaining
modifications
earl
hood
thoughtful
norad
delib
baron
curtain
businessmen
designing
##pless
headlines
##asonable
sitcom
transfers
seniors
2007
menace
testify
camped
salute
maturity
refuses
158
##ikoff
presenting
specialist
styl
administrations
snack
debates
shovel
devi
murray
##ycl
violations
hearted
lakeland
influx
campaigning
appearing
uncons
creature
surroundings
conviction
exceptions
commentators
occurring
luckily
vacations
adopting
catching
layout
writings
dubbed
21st
jackets
introducing
immigrant
powell
commitments
videot
bombay
surveyed
managerial
melod
calculations
breathed
cupboard
dishon
avenues
inquired
chemistry
pico
nurses
lakeside
olives
austere
hersh
wheat
osi
delighted
incorporating
sugarcane
courtyards
bagh
thoroughfare
concealed
reinforce
##writers
forbidden
assassinated
bosphorus
vulnerabilities
assembled
summarizes
inquiries
pagan
lsfo
caterpill
producer
accumulated
preceding
shields
greeted
quinta
suburban
puppet
klein
icons
philippines
privatization
enlighten
richer
lonely
rifle
dolphins
vouchers
botanical
abstract
abruptly
landlord
telecommunic
tudjman
crucifixion
gourmet
prettiest
appraisal
wardrobe
kurdish
dessert
marriages
strasbourg
corinthian
arafat
caterpillar
bub
bows
cors
cush
dia
dwe
ely
gases
kat
mck
mower
mats
oath
ply
sack
sang
yor
##uaries
##zhou
##naires
##rays
##iently
##iantly
##cz
##si
##pro
##fol
##wara
##99
thie
##itations
rebs
##otted
##sept
##chi
##chool
##cel
##irical
##ationally
##olved
##ulum
franch
##opy
chant
chip
knives
knox
##usa
prow
prone
allev
sob
meiji
##arte
spice
spans
##astrous
outn
outline
unve
myri
##ahan
##izers
##akis
amuse
brah
cries
crick
disastrous
twent
1900
laur
strain
guang
lottery
deserved
unders
monster
monkeys
backup
oprah
##wealth
flats
##angel
systematic
warren
warming
warfare
obel
lasts
realm
phill
##enees
popes
mode
modem
capped
rested
demolished
comeback
fundament
##iograph
curs
##plan
nearest
jonathan
patio
testified
musk
electrical
oppose
certainty
collectively
policeman
refrig
ceased
##ocative
##arried
sidebar
sidewalk
successor
155
awfully
questionnaires
stuffed
tenants
165
focal
favorable
favorites
pressing
devote
commonwealth
wordsworth
standardized
centralized
surrendered
##lett
scrap
galleria
breakdown
secretaries
damn
corrective
drawer
communicated
celebrates
balloon
microw
responds
decorations
literacy
utens
spectators
arabic
preventing
railways
thanksgiving
targeting
italiane
benid
criticizing
safire
advocated
novelist
shelters
1947
1948
decreasing
vacationers
prayers
1934
pyrenees
memorable
##market
splendor
jumping
kingdoms
oxy
exploit
outputs
shifts
1919
privileges
suspects
disciplined
gigot
unreasonable
plaque
overwhelmed
admiration
transept
albums
highlighted
discourage
##ulsion
passionate
murders
collaboration
linux
torture
enthusiasts
refreshing
abundance
puzzled
lucas
niche
canceled
exercises
slogan
illuminated
athletic
aristocratic
mathematical
anchor
fossil
relieved
diagnosis
tibetan
lumpur
inaugur
divorced
jardin
adultery
manifest
phoenix
etruscan
kendal
orrery
disciples
giovanni
farrakhan
giuliani
ammonia
taylor
sovereign
myriad
guangzhou
ay
aquar
cough
cens
cze
dus
daring
gul
hut
hunch
lith
lapt
nie
nike
nba
nuns
ost
pod
penc
tum
tame
tatt
wary
yadda
zuck
##gon
##dal
##cases
##juku
##22
##erity
##orical
##orously
##arming
##arthy
##ication
reese
##otal
##utant
##eterm
##etics
whil
whist
stating
##roit
##roads
##chet
heck
shiver
shaft
chasing
yell
pristine
tram
triv
mead
mang
ally
spurs
sphin
spicy
unin
##oused
amato
expat
exported
incidence
brag
brush
brisk
drif
marie
backp
makeup
secluded
presort
regimes
downhill
blument
##ermark
counts
wrench
##ressive
showrooms
handica
phones
endow
standpoint
hooked
rests
restruct
##rians
mete
marker
importantly
engaging
humble
sku
curse
curves
##ilted
turnout
##ieties
##brow
##bria
tucker
experiments
trades
dolls
waist
10am
nicely
differs
questionable
filter
buyers
tenure
vienna
balancing
staffing
civilized
linear
assisting
memoir
shoe
victories
1981
madness
surrender
fax
connell
ridge
lowering
efficiencies
spanning
complexes
cooks
embroid
fells
indicating
venus
banner
observing
fashions
1972
deductions
measurements
ballot
consuming
1964
verification
qualifications
capturing
murderers
colonel
textiles
jacks
cubans
libraries
danvers
hillsides
montmart
volunteering
brandy
seventies
1944
retailing
ghetto
mobil
mccarthy
chemist
sarah
sarawak
proceeded
furnished
dismant
instructed
penny
overlook
iraqi
ecological
telephones
byzantines
sponsors
utilized
ranked
translate
chestnut
struggles
promotional
stadiums
nonfinancial
triumphal
yields
bourbon
dilig
feminist
naive
iranian
instrumental
inefficient
dotted
elevated
subscribers
flanked
olympics
inclusive
ignorant
comedies
philippe
fossils
interfere
bumper
helicopters
##umbered
cautious
disposable
pallad
catastrophic
minaret
prevalent
kabuki
mornings
irrigation
spontaneous
laundry
hassle
guillotine
unrestricted
antichrist
inglis
proximity
utensils
czech
sphinx
blumenthal
ao
aux
borr
emm
hikes
lent
nl
nash
nfl
roses
##dog
##iop
##law
##hara
##kas
##kirts
theor
##erite
##inished
##esign
##onos
##enuous
##orthy
inhouse
##itous
##itism
##reed
##reuil
##lements
beats
rearing
##otam
onions
asyl
goa
chess
bypass
abol
##ifa
canoe
spur
##elf
arising
arbit
uno
cluster
##ibu
resc
peril
##agm
intensity
overhe
intermed
interference
partial
##owners
taj
accuse
margu
betty
fines
backward
jocks
preschool
remedy
blast
flip
flamb
subd
artwork
daylight
retros
edges
##ugos
schooling
proposes
metrics
detroit
curiously
particle
airy
natives
stuart
behold
morrow
continuity
collects
archives
understandable
activist
##olds
##author
sane
promotes
151
1500
awak
harry
antitr
epit
recordings
destructive
argu
coasts
distress
squir
pickup
accepts
caste
commissioner
coptic
murphy
1985
148
violated
##ambur
structural
divine
animated
preferences
gallon
royalty
##heart
separating
tiered
softball
gardener
tender
predictions
farmworkers
afforded
1977
louisville
garments
1968
blocked
constantine
demonstrations
inspiring
broncos
forgiveness
1945
bulbs
vegetation
cartoons
comprised
comprehend
broker
deceased
shady
reconcil
symph
circumstance
hatred
adventures
accomplishment
motorc
predicting
heyday
##forward
stressed
sophia
depressing
asserts
mentor
exploitation
whisper
tailored
darn
gauge
stroke
strolling
weighs
solicitation
grandeur
rustic
rajas
discouraged
jurors
bearded
diamonds
rituals
intentionally
transparency
hmo
narc
evelyn
unrest
inferior
worshippers
browser
untouch
vaulted
zealand
invoices
vaguely
surgeon
helicopter
addictive
oscar
favourite
mughal
gaulle
entrepreneur
fidel
jurisdiction
scrolls
theoretical
temptation
borneo
lounge
adjoining
lobster
brittany
autoroute
threshold
enlightenment
telecommunications
microwave
benidorm
oxygen
aquarium
asylum
antitrust
60s
750
94
aar
bach
bidd
dic
dire
diane
eug
eternal
fict
gin
jee
kay
lum
lining
lomb
misc
nathan
ooh
pam
sided
tint
vp
vik
yog
##uji
##dad
##dings
##math
##hour
##bir
##bled
##just
##atown
##ali
inh
inel
##leep
beings
##llation
reim
isab
stables
stagn
##seum
##roach
hewn
weary
##amine
##amoto
asleep
shug
sherman
seleyman
##opotam
chow
notew
sums
exor
exch
##usions
##abol
alas
abused
abolished
sof
solem
##ifer
leith
##oshi
##apur
##umbo
spike
spiel
arawak
##qual
unab
tears
##iban
reside
griff
donalds
noises
amused
evie
offenders
fears
crest
interact
coven
careless
bully
scam
indign
monstr
highlands
proves
regain
remod
flung
genes
slender
planners
importation
organic
restoring
performs
economical
carey
autob
runner
processions
ideology
whitewater
walker
passive
statuary
steak
matrix
matisse
tucked
billy
broch
successes
estimation
thirst
individually
harmed
purse
irreg
solving
labour
##parnas
regulators
potato
122
modernization
turbul
squad
sno
selfish
screened
30pm
emergence
violently
appropriated
laborers
hearts
trustees
unfinished
bonap
creativity
damned
messy
combining
##sethe
kmart
cardinals
alternate
sculptors
celebrations
denying
inns
wilderness
slee
rounded
midday
midwest
skyline
rapids
vacc
touching
taliban
ambient
disappro
acquisitions
mercy
hamlet
montparnas
samos
calculating
triomph
retailer
karn
graduating
boundary
advisors
furnish
##marked
protestants
obliged
harmful
rumor
dissent
smells
330
29th
pcs
saber
lesvos
torch
subtract
whisky
reservation
solidarity
withdrew
phrases
repaired
owes
exempl
cyp
prudence
paved
sophistication
556
embarrassing
resemble
barracks
recreational
cottages
skepticism
reproduction
serbian
densely
geography
pistols
barbara
hurricanes
carnival
hierarchy
adventurers
shogunate
swiftly
uncovered
pompe
aisle
dinosaurs
remembers
horton
##colm
lanterns
insufficient
ralph
disliked
cambod
realignment
deterrent
toilet
grafton
unconstitutional
reminiscent
inconven
deliberate
refriger
lithu
zucker
bidders
noteworthy
donaldson
montparnasse
triomphe
450
86
dah
dys
fading
gem
gamble
geared
hambur
iey
jas
koh
lace
lamb
lorr
lana
laughter
nail
nope
pup
rains
ratt
tiled
yugos
##nard
##ea
##evelop
##table
##tained
##oise
##obe
##iac
##iary
##low
##schild
##mes
##mund
##vi
##kakis
tod
insect
isa
##etical
##ige
haifa
seals
##ulator
##opia
chanting
notification
pric
pruss
prizes
abortions
leban
enron
##artisan
spouses
arrog
##emen
unac
looming
sag
sailed
teod
upwards
agra
reson
resigned
complying
compelled
implied
impati
newt
brant
brun
overview
intergo
interiors
coh
cocon
coves
coats
carre
##uber
goodman
strung
aftermath
attent
monk
consume
backwards
relates
spells
parental
opulent
blair
fla
slide
slump
basics
retains
enduring
kinda
kindly
insert
charitable
builder
builders
easiest
developers
curved
productions
taxation
extends
cheating
transp
watering
patric
patrol
improv
whitewashed
trapped
205
morb
##lessness
activists
succession
waver
execute
estimating
millionaire
villain
entertained
plea
pleasing
pots
encycl
geometric
competencies
sellers
richest
picks
murdo
118
dukakis
circulation
madras
shrink
virgins
firef
savoy
laden
stockholders
narrator
wishing
alternatively
communicating
swear
stationed
dressing
multipoll
mandr
declines
luu
604
investigator
titled
sensual
rapt
starving
collar
meaningless
petit
salesman
closet
thankful
suspense
daddy
straightforward
concentrate
mirac
defeating
occupy
fitness
virtue
##masters
licensed
enhancing
proceeds
negotiating
converse
dynam
1952
nomine
detectives
flooded
dimensions
ventura
borrowed
reinvent
prosecution
hawaiian
accommodation
assassination
mahara
purely
cuisines
akin
outskirts
weighing
optimal
cyber
lambs
leaned
leaning
supplemental
bernard
rigid
crawfish
##repres
cyclades
tapestry
metropolis
eruption
salvador
devastated
balcony
enlar
cautiously
conqueror
riots
contingency
dowd
unstable
parcels
compatible
predecessors
einstein
exhilar
uneasy
paralegal
sarcophagus
##patient
tadminster
mosquit
galilee
rhythm
mehmet
ambassador
lusitan
hebrew
persecution
bohemian
cucumbers
steele
outdated
hoffman
energetic
thieves
handicapped
flamboyant
rajasth
spielberg
autobiograph
bonaparte
ieyasu
yugoslav
intergovernmental
murdoch
multipollutant
76
91
aks
a50
cind
cds
dile
dual
dair
dyl
dwar
ee
ech
eph
fits
gwe
gaps
giza
iber
juries
kum
lon
pou
pant
pyl
rend
rated
rained
ridden
tina
vom
vind
##gence
##iards
##iago
##cad
##lining
##76
##yers
##kill
##far
##ws
##bury
##bank
##200
thigh
thai
##erc
##enot
##anth
##alypt
##reet
##asi
##asive
recept
reactions
##uten
##utive
##utta
stip
forested
##ayan
shan
shrew
##iliar
##ileries
proving
seal
seine
##kel
##ules
frenz
neads
chan
##anto
liabilities
##acio
aligned
trout
leak
lemon
##ivable
##ivities
plunder
##elong
##eliness
sao
clun
adher
adri
grapp
expose
quer
contend
brian
reputed
anyways
crap
overp
intercept
interchange
interconn
coeff
hercul
disasters
scorn
##ensible
vec
##ogene
mocked
##issible
backlash
invari
symm
relent
joc
stately
lawful
realizing
##centric
discos
discern
sinister
sinatra
proposing
lethal
avid
nationalist
airports
concise
communal
admitting
certific
mailed
clintons
porte
varieties
criter
continuously
steaks
tuileries
brock
##olded
delivers
successors
arranging
speculation
clearance
154
harem
##shot
burge
label
recordkeeping
protections
##ushu
eighties
teaches
silhou
strongest
cannons
malcolm
hurried
julia
chapels
negatively
surprises
reformation
greenhouse
##iquitous
damaging
bankers
germain
candy
excellence
declar
605
urge
journalistic
senses
disposition
pathetic
quieter
flexibilities
truths
complied
gasped
florentine
bandit
amazon
positively
guardian
freshwater
weddings
cowboy
forgive
##paid
occupies
shelf
bullets
ample
irony
unprofit
##iye
mileage
inquis
3000
converting
kenneth
1929
instruction
kyushu
randomly
digging
flooding
dominate
##foot
coaching
torre
clarify
suspicions
anticipate
prevents
preview
overseer
bolt
omn
casualties
gravely
barrier
fragment
cafeter
swinging
rusty
transmitted
tolerance
exclude
legitim
sailors
evolving
stimulating
prophecy
rabbit
bureaucratic
serbia
erupted
troubling
persuade
allegedly
squee
chinatown
bacon
corridors
veto
outrageous
warehouse
disorders
blessing
emotionally
endangered
interpreted
##algam
downsizing
enforced
appetite
remnants
synthesis
depreciation
himalayas
mercenaries
deferred
minoan
innocence
##olithic
correlation
affiliated
ubiquitous
##occup
alleviate
obelisk
whilst
meteor
intermediate
vikings
shuger
isaac
teodoro
dwarf
unprofitable
03
512
81
