{
  "version": "1.0",
  "truncation": null,
  "padding": null,
  "added_tokens": [
    {
      "id": 0,
      "content": "[PAD]",
      "single_word": false,
      "lstrip": false,
      "rstrip": false,
      "normalized": false,
      "special": true
    },
    {
      "id": 1,
      "content": "[UNK]",
      "single_word": false,
      "lstrip": false,
      "rstrip": false,
      "normalized": false,
      "special": true
    },
    {
      "id": 2,
      "content": "[CLS]",
      "single_word": false,
      "lstrip": false,
      "rstrip": false,
      "normalized": false,
      "special": true
    },
    {
      "id": 3,
      "content": "[SEP]",
      "single_word": false,
      "lstrip": false,
      "rstrip": false,
      "normalized": false,
      "special": true
    },
    {
      "id": 4,
      "content": "[MASK]",
      "single_word": false,
      "lstrip": false,
      "rstrip": false,
      "normalized": false,
      "special": true
    }
  ],
  "normalizer": {
    "type": "BertNormalizer",
    "clean_text": true,
    "handle_chinese_chars": true,
    "strip_accents": null,
    "lowercase": true
  },
  "pre_tokenizer": {
    "type": "BertPreTokenizer"
  },
  "post_processor": {
    "type": "TemplateProcessing",
    "single": [
      {
        "SpecialToken": {
          "id": "[CLS]",
          "type_id": 0
        }
      },
      {
        "Sequence": {
          "id": "A",
          "type_id": 0
        }
      },
      {
        "SpecialToken": {
          "id": "[SEP]",
          "type_id": 0
        }
      }
    ],
    "pair": [
      {
        "SpecialToken": {
          "id": "[CLS]",
          "type_id": 0
        }
      },
      {
        "Sequence": {
          "id": "A",
          "type_id": 0
        }
      },
      {
        "SpecialToken": {
          "id": "[SEP]",
          "type_id": 0
        }
      },
      {
        "Sequence": {
          "id": "B",
          "type_id": 1
        }
      },
      {
        "SpecialToken": {
          "id": "[SEP]",
          "type_id": 1
        }
      }
    ],
    "special_tokens": {
      "[CLS]": {
        "id": "[CLS]",
        "ids": [
          2
        ],
        "tokens": [
          "[CLS]"
        ]
      },
      "[SEP]": {
        "id": "[SEP]",
        "ids": [
          3
        ],
        "tokens": [
          "[SEP]"
        ]
      }
    }
  },
  "decoder": {
    "type": "WordPiece",
    "prefix": "##",
    "cleanup": true
  },
  "model": {
    "type": "WordPiece",
    "unk_token": "[UNK]",
    "continuing_subword_prefix": "##",
    "max_input_chars_per_word": 100,
    "vocab": {
      "[PAD]": 0,
      "[UNK]": 1,
      "[CLS]": 2,
      "[SEP]": 3,
      "[MASK]": 4,
      "!": 5,
      "\"": 6,
      "#": 7,
      "$": 8,
      "%": 9,
      "&": 10,
      "'": 11,
      "(": 12,
      ")": 13,
      "*": 14,
      "+": 15,
      ",": 16,
      "-": 17,
      ".": 18,
      "/": 19,
      "0": 20,
      "1": 21,
      "2": 22,
      "3": 23,
      "4": 24,
      "5": 25,
      "6": 26,
      "7": 27,
      "8": 28,
      "9": 29,
      ":": 30,
      ";": 31,
      "<": 32,
      "=": 33,
      ">": 34,
      "?": 35,
      "@": 36,
      "[": 37,
      "\\": 38,
      "]": 39,
      "_": 40,
      "`": 41,
      "a": 42,
      "b": 43,
      "c": 44,
      "d": 45,
      "e": 46,
      "f": 47,
      "g": 48,
      "h": 49,
      "i": 50,
      "j": 51,
      "k": 52,
      "l": 53,
      "m": 54,
      "n": 55,
      "o": 56,
      "p": 57,
      "q": 58,
      "r": 59,
      "s": 60,
      "t": 61,
      "u": 62,
      "v": 63,
      "w": 64,
      "x": 65,
      "y": 66,
      "z": 67,
      "{": 68,
      "~": 69,
      "¡": 70,
      "£": 71,
      "¤": 72,
      "¦": 73,
      "¨": 74,
      "ª": 75,
      "«": 76,
      "®": 77,
      "°": 78,
      "º": 79,
      "œ": 80,
      "α": 81,
      "β": 82,
      "γ": 83,
      "δ": 84,
      "ε": 85,
      "ζ": 86,
      "η": 87,
      "ι": 88,
      "κ": 89,
      "σ": 90,
      "τ": 91,
      "υ": 92,
      "ω": 93,
      "х": 94,
      "–": 95,
      "—": 96,
      "’": 97,
      "“": 98,
      "”": 99,
      "‡": 100,
      "…": 101,
      "‰": 102,
      "€": 103,
      "##u": 104,
      "##r": 105,
      "##s": 106,
      "##e": 107,
      "##l": 108,
      "##f": 109,
      "##t": 110,
      "##i": 111,
      "##m": 112,
      "##p": 113,
      "##n": 114,
      "##o": 115,
      "##g": 116,
      "##h": 117,
      "##a": 118,
      "##d": 119,
      "##c": 120,
      "##w": 121,
      "##v": 122,
      "##y": 123,
      "##k": 124,
      "##b": 125,
      "##z": 126,
      "##x": 127,
      "##q": 128,
      "##0": 129,
      "##9": 130,
      "##1": 131,
      "##j": 132,
      "##2": 133,
      "##3": 134,
      "##5": 135,
      "##4": 136,
      "##8": 137,
      "##6": 138,
      "##7": 139,
      "##°": 140,
      "##œ": 141,
      "th": 142,
      "the": 143,
      "##er": 144,
      "##in": 145,
      "##at": 146,
      "##es": 147,
      "##on": 148,
      "##en": 149,
      "##or": 150,
      "##ed": 151,
      "##ou": 152,
      "##nd": 153,
      "##an": 154,
      "##ing": 155,
      "to": 156,
      "##al": 157,
      "of": 158,
      "##ar": 159,
      "in": 160,
      "##it": 161,
      "##re": 162,
      "and": 163,
      "##as": 164,
      "##is": 165,
      "##ic": 166,
      "##om": 167,
      "##ion": 168,
      "##le": 169,
      "##ent": 170,
      "##el": 171,
      "it": 172,
      "##il": 173,
      "be": 174,
      "##ot": 175,
      "is": 176,
      "re": 177,
      "that": 178,
      "##st": 179,
      "##ow": 180,
      "##ve": 181,
      "##ut": 182,
      "you": 183,
      "on": 184,
      "##id": 185,
      "##ly": 186,
      "##et": 187,
      "st": 188,
      "##ct": 189,
      "wh": 190,
      "ha": 191,
      "for": 192,
      "##ro": 193,
      "##ur": 194,
      "##ay": 195,
      "##se": 196,
      "##ch": 197,
      "##ver": 198,
      "was": 199,
      "##ol": 200,
      "##ig": 201,
      "##ce": 202,
      "##ir": 203,
      "an": 204,
      "##ation": 205,
      "##im": 206,
      "##am": 207,
      "al": 208,
      "##th": 209,
      "are": 210,
      "##ad": 211,
      "##ld": 212,
      "as": 213,
      "he": 214,
      "##ith": 215,
      "##ter": 216,
      "sh": 217,
      "##ul": 218,
      "they": 219,
      "with": 220,
      "not": 221,
      "pro": 222,
      "##ess": 223,
      "ne": 224,
      "##est": 225,
      "we": 226,
      "con": 227,
      "##ers": 228,
      "##ment": 229,
      "fr": 230,
      "##ill": 231,
      "##ke": 232,
      "have": 233,
      "se": 234,
      "##ere": 235,
      "at": 236,
      "de": 237,
      "ch": 238,
      "##op": 239,
      "do": 240,
      "go": 241,
      "com": 242,
      "##ra": 243,
      "su": 244,
      "or": 245,
      "##ould": 246,
      "##igh": 247,
      "##ant": 248,
      "##od": 249,
      "li": 250,
      "##ge": 251,
      "ex": 252,
      "##ate": 253,
      "##ain": 254,
      "kn": 255,
      "there": 256,
      "##pp": 257,
      "but": 258,
      "##us": 259,
      "##ri": 260,
      "##ist": 261,
      "by": 262,
      "##and": 263,
      "ye": 264,
      "##ust": 265,
      "##ity": 266,
      "know": 267,
      "##ck": 268,
      "##ab": 269,
      "ab": 270,
      "##ort": 271,
      "from": 272,
      "##ore": 273,
      "##ies": 274,
      "##mp": 275,
      "so": 276,
      "##ell": 277,
      "uh": 278,
      "##ost": 279,
      "le": 280,
      "##ome": 281,
      "##ight": 282,
      "wor": 283,
      "##out": 284,
      "##gh": 285,
      "this": 286,
      "##ally": 287,
      "##ard": 288,
      "me": 289,
      "##ff": 290,
      "##os": 291,
      "can": 292,
      "all": 293,
      "##all": 294,
      "##ud": 295,
      "##ive": 296,
      "en": 297,
      "##un": 298,
      "##ect": 299,
      "man": 300,
      "##iv": 301,
      "##um": 302,
      "##art": 303,
      "ma": 304,
      "pr": 305,
      "sp": 306,
      "pl": 307,
      "his": 308,
      "no": 309,
      "##ough": 310,
      "has": 311,
      "had": 312,
      "one": 313,
      "##ap": 314,
      "##ie": 315,
      "##our": 316,
      "ar": 317,
      "##ci": 318,
      "##au": 319,
      "were": 320,
      "##qu": 321,
      "##ast": 322,
      "un": 323,
      "out": 324,
      "sa": 325,
      "don": 326,
      "##end": 327,
      "##em": 328,
      "about": 329,
      "lo": 330,
      "will": 331,
      "cl": 332,
      "##ok": 333,
      "like": 334,
      "pe": 335,
      "ad": 336,
      "if": 337,
      "their": 338,
      "tr": 339,
      "##ous": 340,
      "what": 341,
      "bec": 342,
      "up": 343,
      "##ice": 344,
      "would": 345,
      "tim": 346,
      "any": 347,
      "##ound": 348,
      "my": 349,
      "just": 350,
      "##ind": 351,
      "##ink": 352,
      "more": 353,
      "##ish": 354,
      "##ong": 355,
      "##one": 356,
      "us": 357,
      "##ions": 358,
      "some": 359,
      "ag": 360,
      "comp": 361,
      "##ated": 362,
      "##oun": 363,
      "##ah": 364,
      "##her": 365,
      "res": 366,
      "them": 367,
      "##if": 368,
      "##cc": 369,
      "##ure": 370,
      "##iz": 371,
      "##ther": 372,
      "##ople": 373,
      "per": 374,
      "year": 375,
      "people": 376,
      "##ance": 377,
      "work": 378,
      "##orm": 379,
      "##ack": 380,
      "##ine": 381,
      "##ause": 382,
      "te": 383,
      "ta": 384,
      "get": 385,
      "who": 386,
      "when": 387,
      "she": 388,
      "did": 389,
      "am": 390,
      "##ans": 391,
      "##ide": 392,
      "##age": 393,
      "imp": 394,
      "yeah": 395,
      "well": 396,
      "##ven": 397,
      "been": 398,
      "think": 399,
      "because": 400,
      "exp": 401,
      "##ount": 402,
      "##gr": 403,
      "fa": 404,
      "di": 405,
      "new": 406,
      "inc": 407,
      "##ely": 408,
      "time": 409,
      "qu": 410,
      "##ame": 411,
      "##ings": 412,
      "##ag": 413,
      "##ble": 414,
      "##ich": 415,
      "off": 416,
      "cont": 417,
      "##ence": 418,
      "rep": 419,
      "##ations": 420,
      "ever": 421,
      "##ays": 422,
      "int": 423,
      "##ach": 424,
      "than": 425,
      "its": 426,
      "##able": 427,
      "other": 428,
      "##form": 429,
      "car": 430,
      "gr": 431,
      "over": 432,
      "inter": 433,
      "##ue": 434,
      "##erv": 435,
      "ro": 436,
      "her": 437,
      "dis": 438,
      "##ite": 439,
      "fe": 440,
      "mu": 441,
      "how": 442,
      "##ub": 443,
      "##ry": 444,
      "##pt": 445,
      "##ery": 446,
      "tw": 447,
      "##itt": 448,
      "##ult": 449,
      "app": 450,
      "##ary": 451,
      "##ose": 452,
      "##ber": 453,
      "##hing": 454,
      "##00": 455,
      "br": 456,
      "la": 457,
      "##ors": 458,
      "bo": 459,
      "co": 460,
      "##ip": 461,
      "##ree": 462,
      "##wn": 463,
      "only": 464,
      "most": 465,
      "19": 466,
      "##own": 467,
      "##ign": 468,
      "good": 469,
      "part": 470,
      "act": 471,
      "bu": 472,
      "your": 473,
      "##so": 474,
      "could": 475,
      "##enc": 476,
      "##ade": 477,
      "##ild": 478,
      "him": 479,
      "every": 480,
      "which": 481,
      "##reat": 482,
      "##ace": 483,
      "cr": 484,
      "##uct": 485,
      "said": 486,
      "pre": 487,
      "cent": 488,
      "##ical": 489,
      "sc": 490,
      "##ak": 491,
      "##ia": 492,
      "##ass": 493,
      "##ments": 494,
      "ind": 495,
      "acc": 496,
      "comm": 497,
      "##lo": 498,
      "col": 499,
      "ve": 500,
      "po": 501,
      "##ens": 502,
      "see": 503,
      "##int": 504,
      "##ase": 505,
      "now": 506,
      "##ang": 507,
      "very": 508,
      "##lic": 509,
      "##og": 510,
      "many": 511,
      "##ep": 512,
      "af": 513,
      "need": 514,
      "gu": 515,
      "want": 516,
      "##ving": 517,
      "##vel": 518,
      "mar": 519,
      "right": 520,
      "des": 521,
      "##ire": 522,
      "serv": 523,
      "rec": 524,
      "##ory": 525,
      "two": 526,
      "really": 527,
      "into": 528,
      "##ates": 529,
      "should": 530,
      "und": 531,
      "##ond": 532,
      "fir": 533,
      "##ac": 534,
      "##ition": 535,
      "##ents": 536,
      "these": 537,
      "##ved": 538,
      "lot": 539,
      "##ile": 540,
      "here": 541,
      "may": 542,
      "bet": 543,
      "never": 544,
      "sm": 545,
      "##act": 546,
      "##als": 547,
      "hel": 548,
      "much": 549,
      "##ty": 550,
      "years": 551,
      "does": 552,
      "um": 553,
      "even": 554,
      "under": 555,
      "our": 556,
      "then": 557,
      "att": 558,
      "look": 559,
      "after": 560,
      "##king": 561,
      "also": 562,
      "##ian": 563,
      "##ord": 564,
      "progr": 565,
      "##omet": 566,
      "##lect": 567,
      "pol": 568,
      "fin": 569,
      "mo": 570,
      "thr": 571,
      "##ful": 572,
      "##iss": 573,
      "where": 574,
      "cons": 575,
      "mon": 576,
      "##ict": 577,
      "leg": 578,
      "back": 579,
      "##ater": 580,
      "somet": 581,
      "going": 582,
      "inv": 583,
      "dec": 584,
      "##ices": 585,
      "way": 586,
      "rel": 587,
      "##ick": 588,
      "got": 589,
      "##ities": 590,
      "sy": 591,
      "##cial": 592,
      "though": 593,
      "program": 594,
      "tra": 595,
      "str": 596,
      "##amp": 597,
      "old": 598,
      "##are": 599,
      "##eral": 600,
      "long": 601,
      "par": 602,
      "inform": 603,
      "sec": 604,
      "op": 605,
      "diff": 606,
      "ass": 607,
      "make": 608,
      "too": 609,
      "##vern": 610,
      "##ial": 611,
      "##ft": 612,
      "down": 613,
      "first": 614,
      "rem": 615,
      "##old": 616,
      "high": 617,
      "reg": 618,
      "jo": 619,
      "##its": 620,
      "pres": 621,
      "##les": 622,
      "##ert": 623,
      "made": 624,
      "##ces": 625,
      "spe": 626,
      "##und": 627,
      "eff": 628,
      "##ons": 629,
      "##ning": 630,
      "cost": 631,
      "##mm": 632,
      "##elf": 633,
      "##oth": 634,
      "##ious": 635,
      "##ys": 636,
      "##iew": 637,
      "govern": 638,
      "information": 639,
      "through": 640,
      "prov": 641,
      "##fore": 642,
      "bl": 643,
      "##thing": 644,
      "##ath": 645,
      "##av": 646,
      "##gan": 647,
      "##ail": 648,
      "##ood": 649,
      "great": 650,
      "##ouse": 651,
      "##way": 652,
      "state": 653,
      "sch": 654,
      "##land": 655,
      "ev": 656,
      "ke": 657,
      "take": 658,
      "pub": 659,
      "help": 660,
      "##ury": 661,
      "requ": 662,
      "law": 663,
      "##ational": 664,
      "##oll": 665,
      "those": 666,
      "##lud": 667,
      "still": 668,
      "##erm": 669,
      "##ress": 670,
      "##ks": 671,
      "##fe": 672,
      "supp": 673,
      "count": 674,
      "##other": 675,
      "used": 676,
      "##we": 677,
      "didn": 678,
      "ac": 679,
      "##ract": 680,
      "##ting": 681,
      "##urn": 682,
      "bel": 683,
      "fl": 684,
      "stud": 685,
      "before": 686,
      "bus": 687,
      "litt": 688,
      "little": 689,
      "##ib": 690,
      "##ular": 691,
      "##ual": 692,
      "##oc": 693,
      "##ject": 694,
      "oh": 695,
      "gen": 696,
      "something": 697,
      "report": 698,
      "say": 699,
      "##ied": 700,
      "##ility": 701,
      "##stem": 702,
      "##ise": 703,
      "add": 704,
      "things": 705,
      "##ating": 706,
      "system": 707,
      "##iver": 708,
      "call": 709,
      "##get": 710,
      "use": 711,
      "id": 712,
      "##ather": 713,
      "cour": 714,
      "sub": 715,
      "pers": 716,
      "find": 717,
      "mean": 718,
      "##ually": 719,
      "wr": 720,
      "##ily": 721,
      "##cess": 722,
      "own": 723,
      "war": 724,
      "government": 725,
      "fam": 726,
      "##ible": 727,
      "includ": 728,
      "legal": 729,
      "##ited": 730,
      "##uring": 731,
      "ll": 732,
      "house": 733,
      "sl": 734,
      "emp": 735,
      "##ards": 736,
      "ob": 737,
      "##atch": 738,
      "##orn": 739,
      "city": 740,
      "vis": 741,
      "##ange": 742,
      "differ": 743,
      "##ways": 744,
      "sur": 745,
      "##led": 746,
      "##ced": 747,
      "dep": 748,
      "being": 749,
      "day": 750,
      "such": 751,
      "##pe": 752,
      "art": 753,
      "bas": 754,
      "show": 755,
      "hand": 756,
      "cap": 757,
      "again": 758,
      "##ures": 759,
      "pay": 760,
      "prod": 761,
      "##oss": 762,
      "##olog": 763,
      "##mb": 764,
      "interest": 765,
      "##eric": 766,
      "el": 767,
      "disc": 768,
      "##ked": 769,
      "##ics": 770,
      "around": 771,
      "small": 772,
      "place": 773,
      "##ool": 774,
      "ca": 775,
      "##ph": 776,
      "##ug": 777,
      "fed": 778,
      "world": 779,
      "plan": 780,
      "ph": 781,
      "##ered": 782,
      "americ": 783,
      "kind": 784,
      "inst": 785,
      "stand": 786,
      "##ues": 787,
      "real": 788,
      "last": 789,
      "found": 790,
      "##ative": 791,
      "199": 792,
      "agenc": 793,
      "mod": 794,
      "##ix": 795,
      "##con": 796,
      "##lish": 797,
      "child": 798,
      "ret": 799,
      "tal": 800,
      "lar": 801,
      "##oney": 802,
      "##aint": 803,
      "##sc": 804,
      "val": 805,
      "end": 806,
      "always": 807,
      "##ene": 808,
      "loc": 809,
      "dr": 810,
      "public": 811,
      "ed": 812,
      "ga": 813,
      "set": 814,
      "red": 815,
      "##ms": 816,
      "##rib": 817,
      "##ants": 818,
      "##oup": 819,
      "organ": 820,
      "##kes": 821,
      "##rect": 822,
      "same": 823,
      "##ves": 824,
      "ear": 825,
      "import": 826,
      "min": 827,
      "est": 828,
      "money": 829,
      "resp": 830,
      "pop": 831,
      "##rol": 832,
      "while": 833,
      "town": 834,
      "ent": 835,
      "##cent": 836,
      "##ars": 837,
      "three": 838,
      "##ying": 839,
      "del": 840,
      "##day": 841,
      "ru": 842,
      "ins": 843,
      "stre": 844,
      "##te": 845,
      "##ident": 846,
      "start": 847,
      "##ives": 848,
      "century": 849,
      "federal": 850,
      "def": 851,
      "home": 852,
      "proble": 853,
      "person": 854,
      "happ": 855,
      "##ew": 856,
      "organiz": 857,
      "##ower": 858,
      "##ists": 859,
      "rev": 860,
      "care": 861,
      "both": 862,
      "rest": 863,
      "school": 864,
      "big": 865,
      "far": 866,
      "read": 867,
      "num": 868,
      "pri": 869,
      "##ets": 870,
      "nor": 871,
      "sin": 872,
      "thing": 873,
      "##ody": 874,
      "##red": 875,
      "##ss": 876,
      "appro": 877,
      "##ork": 878,
      "best": 879,
      "sim": 880,
      "build": 881,
      "##ines": 882,
      "char": 883,
      "let": 884,
      "sou": 885,
      "seem": 886,
      "thought": 887,
      "##ific": 888,
      "##osed": 889,
      "met": 890,
      "##ek": 891,
      "eas": 892,
      "dem": 893,
      "##ably": 894,
      "perform": 895,
      "life": 896,
      "cor": 897,
      "services": 898,
      "##fer": 899,
      "##iness": 900,
      "bar": 901,
      "play": 902,
      "come": 903,
      "##conom": 904,
      "anything": 905,
      "cle": 906,
      "might": 907,
      "##ently": 908,
      "##ern": 909,
      "med": 910,
      "each": 911,
      "put": 912,
      "fund": 913,
      "prop": 914,
      "fact": 915,
      "##ren": 916,
      "belie": 917,
      "av": 918,
      "point": 919,
      "effect": 920,
      "hum": 921,
      "few": 922,
      "during": 923,
      "hard": 924,
      "better": 925,
      "eng": 926,
      "##ution": 927,
      "aud": 928,
      "case": 929,
      "##ici": 930,
      "econom": 931,
      "less": 932,
      "##chn": 933,
      "hu": 934,
      "##ear": 935,
      "lead": 936,
      "##velop": 937,
      "post": 938,
      "##xt": 939,
      "sk": 940,
      "sure": 941,
      "tri": 942,
      "national": 943,
      "book": 944,
      "##ween": 945,
      "em": 946,
      "between": 947,
      "wom": 948,
      "##tern": 949,
      "incre": 950,
      "comple": 951,
      "different": 952,
      "another": 953,
      "important": 954,
      "service": 955,
      "rule": 956,
      "det": 957,
      "must": 958,
      "mil": 959,
      "chang": 960,
      "cur": 961,
      "##ains": 962,
      "iss": 963,
      "develop": 964,
      "since": 965,
      "techn": 966,
      "##ters": 967,
      "aut": 968,
      "##air": 969,
      "##urch": 970,
      "percent": 971,
      "compan": 972,
      "mark": 973,
      "form": 974,
      "result": 975,
      "dist": 976,
      "product": 977,
      "##hip": 978,
      "##ids": 979,
      "tour": 980,
      "##ically": 981,
      "country": 982,
      "##ided": 983,
      "sign": 984,
      "control": 985,
      "partic": 986,
      "away": 987,
      "##ins": 988,
      "##cept": 989,
      "air": 990,
      "adv": 991,
      "##ized": 992,
      "business": 993,
      "##be": 994,
      "bene": 995,
      "##res": 996,
      "watch": 997,
      "##loy": 998,
      "##ull": 999,
      "tax": 1000,
      "consid": 1001,
      "manage": 1002,
      "hist": 1003,
      "went": 1004,
      "##pl": 1005,
      "conc": 1006,
      "##ined": 1007,
      "##der": 1008,
      "##ilt": 1009,
      "##ds": 1010,
      "ser": 1011,
      "aff": 1012,
      "feel": 1013,
      "design": 1014,
      "keep": 1015,
      "visit": 1016,
      "gra": 1017,
      "##ten": 1018,
      "##ata": 1019,
      "muse": 1020,
      "island": 1021,
      "##ier": 1022,
      "ext": 1023,
      "##ash": 1024,
      "doesn": 1025,
      "head": 1026,
      "##az": 1027,
      "##ts": 1028,
      "fun": 1029,
      "sit": 1030,
      "che": 1031,
      "##uss": 1032,
      "news": 1033,
      "##gest": 1034,
      "##ention": 1035,
      "area": 1036,
      "why": 1037,
      "##ason": 1038,
      "##ital": 1039,
      "benef": 1040,
      "##ever": 1041,
      "run": 1042,
      "commun": 1043,
      "open": 1044,
      "turn": 1045,
      "process": 1046,
      "##uc": 1047,
      "temp": 1048,
      "four": 1049,
      "direct": 1050,
      "children": 1051,
      "##ism": 1052,
      "quest": 1053,
      "near": 1054,
      "times": 1055,
      "##ling": 1056,
      "##self": 1057,
      "##ward": 1058,
      "200": 1059,
      "water": 1060,
      "room": 1061,
      "##ired": 1062,
      "##alth": 1063,
      "##ural": 1064,
      "guess": 1065,
      "sen": 1066,
      "ide": 1067,
      "ty": 1068,
      "states": 1069,
      "##io": 1070,
      "number": 1071,
      "view": 1072,
      "trans": 1073,
      "once": 1074,
      "wal": 1075,
      "hot": 1076,
      "jon": 1077,
      "adm": 1078,
      "mr": 1079,
      "cover": 1080,
      "##rew": 1081,
      "sever": 1082,
      "cert": 1083,
      "finan": 1084,
      "##ron": 1085,
      "sw": 1086,
      "##ize": 1087,
      "prof": 1088,
      "week": 1089,
      "data": 1090,
      "##ross": 1091,
      "yes": 1092,
      "##ollow": 1093,
      "mill": 1094,
      "prob": 1095,
      "conf": 1096,
      "da": 1097,
      "management": 1098,
      "pat": 1099,
      "miss": 1100,
      "left": 1101,
      "nothing": 1102,
      "invest": 1103,
      "account": 1104,
      "maj": 1105,
      "employ": 1106,
      "allow": 1107,
      "without": 1108,
      "##ately": 1109,
      "##que": 1110,
      "##ted": 1111,
      "anal": 1112,
      "follow": 1113,
      "mail": 1114,
      "##orts": 1115,
      "##man": 1116,
      "##oy": 1117,
      "men": 1118,
      "done": 1119,
      "##ected": 1120,
      "const": 1121,
      "##co": 1122,
      "##ale": 1123,
      "bud": 1124,
      "tell": 1125,
      "test": 1126,
      "##body": 1127,
      "exc": 1128,
      "mus": 1129,
      "month": 1130,
      "programs": 1131,
      "president": 1132,
      "poss": 1133,
      "##gress": 1134,
      "##ared": 1135,
      "##til": 1136,
      "museum": 1137,
      "prot": 1138,
      "bad": 1139,
      "camp": 1140,
      "##ality": 1141,
      "##els": 1142,
      "white": 1143,
      "doing": 1144,
      "ra": 1145,
      "000": 1146,
      "major": 1147,
      "gl": 1148,
      "##ger": 1149,
      "##ee": 1150,
      "clint": 1151,
      "##ends": 1152,
      "pret": 1153,
      "##ec": 1154,
      "intern": 1155,
      "expl": 1156,
      "land": 1157,
      "five": 1158,
      "elect": 1159,
      "##ides": 1160,
      "south": 1161,
      "hour": 1162,
      "enough": 1163,
      "next": 1164,
      "##ric": 1165,
      "probably": 1166,
      "##read": 1167,
      "group": 1168,
      "##ology": 1169,
      "##ats": 1170,
      "support": 1171,
      "north": 1172,
      "night": 1173,
      "port": 1174,
      "##ley": 1175,
      "built": 1176,
      "cre": 1177,
      "kids": 1178,
      "secur": 1179,
      "clinton": 1180,
      "##stand": 1181,
      "took": 1182,
      "gao": 1183,
      "job": 1184,
      "impro": 1185,
      "ter": 1186,
      "##ought": 1187,
      "large": 1188,
      "stu": 1189,
      "ann": 1190,
      "church": 1191,
      "polit": 1192,
      "ref": 1193,
      "pass": 1194,
      "pal": 1195,
      "fri": 1196,
      "give": 1197,
      "youn": 1198,
      "shop": 1199,
      "called": 1200,
      "nat": 1201,
      "ris": 1202,
      "several": 1203,
      "20": 1204,
      "mat": 1205,
      "office": 1206,
      "along": 1207,
      "##ained": 1208,
      "equ": 1209,
      "##ton": 1210,
      "priv": 1211,
      "##ged": 1212,
      "class": 1213,
      "came": 1214,
      "crit": 1215,
      "review": 1216,
      "american": 1217,
      "grow": 1218,
      "audit": 1219,
      "today": 1220,
      "require": 1221,
      "able": 1222,
      "contin": 1223,
      "opp": 1224,
      "beh": 1225,
      "##ock": 1226,
      "##wh": 1227,
      "##ness": 1228,
      "stat": 1229,
      "collect": 1230,
      "congress": 1231,
      "certain": 1232,
      "against": 1233,
      "##ior": 1234,
      "until": 1235,
      "pract": 1236,
      "##ner": 1237,
      "family": 1238,
      "inf": 1239,
      "mor": 1240,
      "##ead": 1241,
      "market": 1242,
      "var": 1243,
      "##ank": 1244,
      "change": 1245,
      "enj": 1246,
      "18": 1247,
      "dri": 1248,
      "##ral": 1249,
      "top": 1250,
      "power": 1251,
      "term": 1252,
      "seen": 1253,
      "oper": 1254,
      "##ute": 1255,
      "sect": 1256,
      "##ases": 1257,
      "##augh": 1258,
      "##side": 1259,
      "##ned": 1260,
      "gener": 1261,
      "lsc": 1262,
      "rece": 1263,
      "##ision": 1264,
      "street": 1265,
      "everything": 1266,
      "##ruct": 1267,
      "pretty": 1268,
      "##ees": 1269,
      "name": 1270,
      "happen": 1271,
      "##ages": 1272,
      "second": 1273,
      "financial": 1274,
      "main": 1275,
      "agencies": 1276,
      "known": 1277,
      "##ote": 1278,
      "summ": 1279,
      "giv": 1280,
      "polic": 1281,
      "security": 1282,
      "costs": 1283,
      "wanted": 1284,
      "##less": 1285,
      "##ime": 1286,
      "##ames": 1287,
      "arch": 1288,
      "auth": 1289,
      "tre": 1290,
      "##aper": 1291,
      "cond": 1292,
      "performance": 1293,
      "##ety": 1294,
      "##gy": 1295,
      "level": 1296,
      "sal": 1297,
      "wa": 1298,
      "center": 1299,
      "agency": 1300,
      "##lement": 1301,
      "cal": 1302,
      "ap": 1303,
      "however": 1304,
      "bill": 1305,
      "huh": 1306,
      "##ining": 1307,
      "ok": 1308,
      "stay": 1309,
      "##vers": 1310,
      "project": 1311,
      "understand": 1312,
      "##ither": 1313,
      "course": 1314,
      "often": 1315,
      "mov": 1316,
      "##per": 1317,
      "##uck": 1318,
      "exper": 1319,
      "trad": 1320,
      "dra": 1321,
      "clear": 1322,
      "curr": 1323,
      "local": 1324,
      "believe": 1325,
      "meet": 1326,
      "past": 1327,
      "examp": 1328,
      "##hn": 1329,
      "avail": 1330,
      "pa": 1331,
      "##ey": 1332,
      "##ru": 1333,
      "activ": 1334,
      "invol": 1335,
      "##ering": 1336,
      "##ivid": 1337,
      "##iel": 1338,
      "enjoy": 1339,
      "##ccess": 1340,
      "provide": 1341,
      "general": 1342,
      "##ump": 1343,
      "##ised": 1344,
      "bro": 1345,
      "hal": 1346,
      "repres": 1347,
      "else": 1348,
      "having": 1349,
      "##ken": 1350,
      "popular": 1351,
      "problem": 1352,
      "##most": 1353,
      "##ether": 1354,
      "six": 1355,
      "stop": 1356,
      "john": 1357,
      "united": 1358,
      "getting": 1359,
      "story": 1360,
      "won": 1361,
      "##ember": 1362,
      "order": 1363,
      "analys": 1364,
      "##li": 1365,
      "##ased": 1366,
      "capital": 1367,
      "##ional": 1368,
      "low": 1369,
      "ste": 1370,
      "deliver": 1371,
      "##upp": 1372,
      "free": 1373,
      "women": 1374,
      "gre": 1375,
      "##ency": 1376,
      "depart": 1377,
      "##pped": 1378,
      "##aring": 1379,
      "##ission": 1380,
      "doll": 1381,
      "vol": 1382,
      "##idd": 1383,
      "cut": 1384,
      "##used": 1385,
      "saving": 1386,
      "isn": 1387,
      "health": 1388,
      "building": 1389,
      "##ified": 1390,
      "##ark": 1391,
      "success": 1392,
      "problems": 1393,
      "side": 1394,
      "##ensive": 1395,
      "least": 1396,
      "try": 1397,
      "har": 1398,
      "##oot": 1399,
      "##ability": 1400,
      "##imes": 1401,
      "10": 1402,
      "ey": 1403,
      "rul": 1404,
      "budget": 1405,
      "black": 1406,
      "reason": 1407,
      "everyone": 1408,
      "ten": 1409,
      "lim": 1410,
      "study": 1411,
      "says": 1412,
      "san": 1413,
      "##ending": 1414,
      "actually": 1415,
      "list": 1416,
      "almost": 1417,
      "days": 1418,
      "quite": 1419,
      "estim": 1420,
      "sta": 1421,
      "##gin": 1422,
      "told": 1423,
      "making": 1424,
      "million": 1425,
      "available": 1426,
      "thir": 1427,
      "exec": 1428,
      "##eng": 1429,
      "wasn": 1430,
      "asked": 1431,
      "road": 1432,
      "cho": 1433,
      "win": 1434,
      "cult": 1435,
      "fig": 1436,
      "orig": 1437,
      "young": 1438,
      "vill": 1439,
      "saw": 1440,
      "mer": 1441,
      "ago": 1442,
      "##ured": 1443,
      "based": 1444,
      "food": 1445,
      "##ients": 1446,
      "gard": 1447,
      "##ances": 1448,
      "whole": 1449,
      "##aster": 1450,
      "##ulation": 1451,
      "mag": 1452,
      "beach": 1453,
      "looked": 1454,
      "history": 1455,
      "live": 1456,
      "lea": 1457,
      "individ": 1458,
      "whether": 1459,
      "##ored": 1460,
      "jap": 1461,
      "occ": 1462,
      "sing": 1463,
      "experi": 1464,
      "site": 1465,
      "represent": 1466,
      "comput": 1467,
      "addition": 1468,
      "japan": 1469,
      "prom": 1470,
      "among": 1471,
      "##iting": 1472,
      "indust": 1473,
      "vi": 1474,
      "jud": 1475,
      "rather": 1476,
      "##aut": 1477,
      "hop": 1478,
      "##cif": 1479,
      "half": 1480,
      "pie": 1481,
      "fac": 1482,
      "##br": 1483,
      "lawy": 1484,
      "origin": 1485,
      "wind": 1486,
      "sug": 1487,
      "idea": 1488,
      "##sel": 1489,
      "company": 1490,
      "##ps": 1491,
      "##ont": 1492,
      "15": 1493,
      "tot": 1494,
      "pos": 1495,
      "maybe": 1496,
      "social": 1497,
      "deal": 1498,
      "mount": 1499,
      "hous": 1500,
      "##ument": 1501,
      "tomm": 1502,
      "##ient": 1503,
      "aw": 1504,
      "non": 1505,
      "##ife": 1506,
      "tommy": 1507,
      "fut": 1508,
      "##uation": 1509,
      "##ench": 1510,
      "full": 1511,
      "discuss": 1512,
      "wall": 1513,
      "##ries": 1514,
      "ident": 1515,
      "changes": 1516,
      "pur": 1517,
      "analysis": 1518,
      "bre": 1519,
      "author": 1520,
      "##ources": 1521,
      "tupp": 1522,
      "makes": 1523,
      "yet": 1524,
      "##ibility": 1525,
      "resear": 1526,
      "research": 1527,
      "##ried": 1528,
      "##ived": 1529,
      "tuppence": 1530,
      "sat": 1531,
      "##ina": 1532,
      "##idence": 1533,
      "court": 1534,
      "##lished": 1535,
      "working": 1536,
      "including": 1537,
      "organizations": 1538,
      "##emp": 1539,
      "##ians": 1540,
      "##ences": 1541,
      "##sh": 1542,
      "##pect": 1543,
      "##vent": 1544,
      "okay": 1545,
      "ple": 1546,
      "##na": 1547,
      "respons": 1548,
      "##ories": 1549,
      "sun": 1550,
      "west": 1551,
      "execut": 1552,
      "question": 1553,
      "true": 1554,
      "benefits": 1555,
      "ir": 1556,
      "##omm": 1557,
      "##hod": 1558,
      "someone": 1559,
      "##anc": 1560,
      "##ively": 1561,
      "desc": 1562,
      "sound": 1563,
      "##ended": 1564,
      "##ret": 1565,
      "present": 1566,
      "york": 1567,
      "ce": 1568,
      "fil": 1569,
      "enter": 1570,
      "##rist": 1571,
      "##arr": 1572,
      "within": 1573,
      "es": 1574,
      "manag": 1575,
      "arm": 1576,
      "either": 1577,
      "ho": 1578,
      "hold": 1579,
      "brit": 1580,
      "##aim": 1581,
      "tow": 1582,
      "heard": 1583,
      "nice": 1584,
      "trying": 1585,
      "short": 1586,
      "needs": 1587,
      "later": 1588,
      "rom": 1589,
      "blo": 1590,
      "fish": 1591,
      "bra": 1592,
      "lear": 1593,
      "usually": 1594,
      "oth": 1595,
      "issues": 1596,
      "remember": 1597,
      "technology": 1598,
      "##bo": 1599,
      "needed": 1600,
      "##ination": 1601,
      "private": 1602,
      "future": 1603,
      "others": 1604,
      "bit": 1605,
      "sol": 1606,
      "stuff": 1607,
      "17": 1608,
      "early": 1609,
      "il": 1610,
      "estab": 1611,
      "beaut": 1612,
      "king": 1613,
      "##ison": 1614,
      "cra": 1615,
      "imm": 1616,
      "hor": 1617,
      "##rict": 1618,
      "interesting": 1619,
      "##ane": 1620,
      "##lev": 1621,
      "bur": 1622,
      "income": 1623,
      "accord": 1624,
      "using": 1625,
      "example": 1626,
      "signific": 1627,
      "amount": 1628,
      "travel": 1629,
      "outside": 1630,
      "step": 1631,
      "wond": 1632,
      "agree": 1633,
      "buy": 1634,
      "across": 1635,
      "possible": 1636,
      "admin": 1637,
      "seems": 1638,
      "access": 1639,
      "##irl": 1640,
      "become": 1641,
      "##up": 1642,
      "postal": 1643,
      "method": 1644,
      "results": 1645,
      "##pr": 1646,
      "##utes": 1647,
      "##att": 1648,
      "face": 1649,
      "temple": 1650,
      "##ration": 1651,
      "env": 1652,
      "standards": 1653,
      "given": 1654,
      "lab": 1655,
      "tex": 1656,
      "meas": 1657,
      "poor": 1658,
      "hill": 1659,
      "systems": 1660,
      "easy": 1661,
      "##atic": 1662,
      "##ateg": 1663,
      "special": 1664,
      "east": 1665,
      "kill": 1666,
      "##aking": 1667,
      "looking": 1668,
      "regul": 1669,
      "##hold": 1670,
      "##line": 1671,
      "jew": 1672,
      "colle": 1673,
      "address": 1674,
      "##aces": 1675,
      "miles": 1676,
      "rate": 1677,
      "##par": 1678,
      "final": 1679,
      "eu": 1680,
      "##ued": 1681,
      "christ": 1682,
      "sil": 1683,
      "12": 1684,
      "##icult": 1685,
      "quality": 1686,
      "##iod": 1687,
      "##soci": 1688,
      "ep": 1689,
      "girl": 1690,
      "##ister": 1691,
      "sty": 1692,
      "team": 1693,
      "##ows": 1694,
      "toget": 1695,
      "reach": 1696,
      "coup": 1697,
      "##by": 1698,
      "##enty": 1699,
      "##elt": 1700,
      "##cient": 1701,
      "talking": 1702,
      "profess": 1703,
      "period": 1704,
      "include": 1705,
      "economic": 1706,
      "enc": 1707,
      "together": 1708,
      "particular": 1709,
      "specif": 1710,
      "hund": 1711,
      "modern": 1712,
      "abs": 1713,
      "hundred": 1714,
      "ant": 1715,
      "associ": 1716,
      "sometimes": 1717,
      "mom": 1718,
      "pot": 1719,
      "bal": 1720,
      "consider": 1721,
      "net": 1722,
      "cann": 1723,
      "suggest": 1724,
      "civ": 1725,
      "##over": 1726,
      "love": 1727,
      "knew": 1728,
      "door": 1729,
      "difficult": 1730,
      "##ortun": 1731,
      "worth": 1732,
      "attract": 1733,
      "##itions": 1734,
      "fav": 1735,
      "##0s": 1736,
      "##iding": 1737,
      "coun": 1738,
      "prin": 1739,
      "taken": 1740,
      "educ": 1741,
      "alth": 1742,
      "coast": 1743,
      "mind": 1744,
      "im": 1745,
      "staff": 1746,
      "value": 1747,
      "although": 1748,
      "due": 1749,
      "##cip": 1750,
      "paper": 1751,
      "##iled": 1752,
      "move": 1753,
      "drug": 1754,
      "talk": 1755,
      "park": 1756,
      "started": 1757,
      "##ivers": 1758,
      "init": 1759,
      "hours": 1760,
      "significant": 1761,
      "record": 1762,
      "dest": 1763,
      "##ott": 1764,
      "improve": 1765,
      "policy": 1766,
      "16": 1767,
      "daan": 1768,
      "hus": 1769,
      "ge": 1770,
      "##work": 1771,
      "foc": 1772,
      "death": 1773,
      "##fully": 1774,
      "##iron": 1775,
      "compet": 1776,
      "matter": 1777,
      "##ilar": 1778,
      "##cially": 1779,
      "dom": 1780,
      "flo": 1781,
      "##raph": 1782,
      "##enn": 1783,
      "##ape": 1784,
      "particip": 1785,
      "##ready": 1786,
      "euro": 1787,
      "already": 1788,
      "held": 1789,
      "computer": 1790,
      "drew": 1791,
      "environ": 1792,
      "typ": 1793,
      "couldn": 1794,
      "##ming": 1795,
      "##ense": 1796,
      "simp": 1797,
      "human": 1798,
      "department": 1799,
      "##ica": 1800,
      "months": 1801,
      "##where": 1802,
      "tur": 1803,
      "##gle": 1804,
      "##ze": 1805,
      "##ising": 1806,
      "##uce": 1807,
      "##unch": 1808,
      "##iful": 1809,
      "paint": 1810,
      "model": 1811,
      "line": 1812,
      "squ": 1813,
      "##ese": 1814,
      "##vious": 1815,
      "himself": 1816,
      "fall": 1817,
      "dollars": 1818,
      "shows": 1819,
      "behind": 1820,
      "french": 1821,
      "##iter": 1822,
      "##band": 1823,
      "##itting": 1824,
      "##ished": 1825,
      "##por": 1826,
      "implement": 1827,
      "woman": 1828,
      "approach": 1829,
      "music": 1830,
      "lost": 1831,
      "administ": 1832,
      "arg": 1833,
      "summer": 1834,
      "assist": 1835,
      "civil": 1836,
      "##aps": 1837,
      "claim": 1838,
      "##mbers": 1839,
      "##kely": 1840,
      "##atory": 1841,
      "repub": 1842,
      "##tain": 1843,
      "##erg": 1844,
      "rock": 1845,
      "##sw": 1846,
      "necess": 1847,
      "grand": 1848,
      "fre": 1849,
      "members": 1850,
      "sent": 1851,
      "movie": 1852,
      "europe": 1853,
      "return": 1854,
      "##ator": 1855,
      "##val": 1856,
      "exist": 1857,
      "accept": 1858,
      "current": 1859,
      "##ove": 1860,
      "ground": 1861,
      "##bs": 1862,
      "organization": 1863,
      "infl": 1864,
      "community": 1865,
      "fine": 1866,
      "##ush": 1867,
      "planning": 1868,
      "risk": 1869,
      "development": 1870,
      "dou": 1871,
      "environment": 1872,
      "thous": 1873,
      "thousand": 1874,
      "determ": 1875,
      "age": 1876,
      "##rin": 1877,
      "according": 1878,
      "##hol": 1879,
      "demand": 1880,
      "republic": 1881,
      "protect": 1882,
      "tradition": 1883,
      "eval": 1884,
      "studies": 1885,
      "foot": 1886,
      "friend": 1887,
      "cannot": 1888,
      "impact": 1889,
      "companies": 1890,
      "sn": 1891,
      "##rop": 1892,
      "sell": 1893,
      "rout": 1894,
      "anyone": 1895,
      "deb": 1896,
      "walk": 1897,
      "areas": 1898,
      "increase": 1899,
      "total": 1900,
      "mem": 1901,
      "scre": 1902,
      "required": 1903,
      "beautiful": 1904,
      "personal": 1905,
      "haven": 1906,
      "rules": 1907,
      "cases": 1908,
      "ones": 1909,
      "sort": 1910,
      "##ilities": 1911,
      "husband": 1912,
      "exact": 1913,
      "similar": 1914,
      "concern": 1915,
      "workers": 1916,
      "close": 1917,
      "##ume": 1918,
      "##chie": 1919,
      "cred": 1920,
      "##acy": 1921,
      "object": 1922,
      "rich": 1923,
      "##ogn": 1924,
      "justice": 1925,
      "became": 1926,
      "fort": 1927,
      "##ges": 1928,
      "##itch": 1929,
      "hun": 1930,
      "##yn": 1931,
      "##ature": 1932,
      "##ening": 1933,
      "##selves": 1934,
      "##ius": 1935,
      "fle": 1936,
      "##imin": 1937,
      "political": 1938,
      "alco": 1939,
      "bring": 1940,
      "entire": 1941,
      "light": 1942,
      "eight": 1943,
      "grant": 1944,
      "##aur": 1945,
      "fight": 1946,
      "ele": 1947,
      "teach": 1948,
      "single": 1949,
      "subject": 1950,
      "requirements": 1951,
      "press": 1952,
      "considered": 1953,
      "felt": 1954,
      "river": 1955,
      "doc": 1956,
      "commission": 1957,
      "texas": 1958,
      "alcohol": 1959,
      "div": 1960,
      "fore": 1961,
      "lou": 1962,
      "##itted": 1963,
      "##ama": 1964,
      "wouldn": 1965,
      "activities": 1966,
      "sus": 1967,
      "resources": 1968,
      "##aw": 1969,
      "begin": 1970,
      "regard": 1971,
      "answ": 1972,
      "##irc": 1973,
      "gave": 1974,
      "british": 1975,
      "##itive": 1976,
      "dev": 1977,
      "couple": 1978,
      "##omes": 1979,
      "##amed": 1980,
      "cast": 1981,
      "famous": 1982,
      "achie": 1983,
      "fell": 1984,
      "recogn": 1985,
      "employees": 1986,
      "parents": 1987,
      "ital": 1988,
      "##ield": 1989,
      "delivery": 1990,
      "hear": 1991,
      "expect": 1992,
      "##ny": 1993,
      "leave": 1994,
      "works": 1995,
      "##aves": 1996,
      "collection": 1997,
      "favor": 1998,
      "univers": 1999,
      "hol": 2000,
      "college": 2001,
      "##ium": 2002,
      "defin": 2003,
      "##fact": 2004,
      "self": 2005,
      "##ball": 2006,
      "quick": 2007,
      "fur": 2008,
      "##ov": 2009,
      "vict": 2010,
      "##ony": 2011,
      "interv": 2012,
      "related": 2013,
      "##rem": 2014,
      "cop": 2015,
      "pick": 2016,
      "wife": 2017,
      "##thern": 2018,
      "assess": 2019,
      "##ourn": 2020,
      "longer": 2021,
      "turned": 2022,
      "##oring": 2023,
      "comes": 2024,
      "soon": 2025,
      "contrib": 2026,
      "obs": 2027,
      "type": 2028,
      "began": 2029,
      "living": 2030,
      "strong": 2031,
      "experience": 2032,
      "espe": 2033,
      "saint": 2034,
      "histor": 2035,
      "nation": 2036,
      "offic": 2037,
      "taking": 2038,
      "takes": 2039,
      "price": 2040,
      "treat": 2041,
      "##iet": 2042,
      "construct": 2043,
      "wrong": 2044,
      "eyes": 2045,
      "especially": 2046,
      "coming": 2047,
      "198": 2048,
      "mal": 2049,
      "mur": 2050,
      "##lin": 2051,
      "reports": 2052,
      "famil": 2053,
      "adrin": 2054,
      "mult": 2055,
      "sea": 2056,
      "##yc": 2057,
      "##ators": 2058,
      "involved": 2059,
      "america": 2060,
      "wonder": 2061,
      "likely": 2062,
      "sir": 2063,
      "##atives": 2064,
      "charact": 2065,
      "industry": 2066,
      "##uced": 2067,
      "11": 2068,
      "provided": 2069,
      "##ential": 2070,
      "refer": 2071,
      "proper": 2072,
      "tv": 2073,
      "wood": 2074,
      "instead": 2075,
      "ii": 2076,
      "##ler": 2077,
      "##asing": 2078,
      "section": 2079,
      "circ": 2080,
      "##urs": 2081,
      "goes": 2082,
      "##iddle": 2083,
      "##oke": 2084,
      "offer": 2085,
      "restaur": 2086,
      "##ograph": 2087,
      "milit": 2088,
      "bir": 2089,
      "aid": 2090,
      "figure": 2091,
      "##pri": 2092,
      "themselves": 2093,
      "table": 2094,
      "aren": 2095,
      "common": 2096,
      "effective": 2097,
      "questions": 2098,
      "14": 2099,
      "##umb": 2100,
      "houses": 2101,
      "##use": 2102,
      "dead": 2103,
      "repl": 2104,
      "soci": 2105,
      "words": 2106,
      "middle": 2107,
      "##ify": 2108,
      "minutes": 2109,
      "describ": 2110,
      "drink": 2111,
      "maint": 2112,
      "sense": 2113,
      "gold": 2114,
      "means": 2115,
      "lang": 2116,
      "##ened": 2117,
      "ask": 2118,
      "above": 2119,
      "roy": 2120,
      "opt": 2121,
      "cust": 2122,
      "appropri": 2123,
      "complet": 2124,
      "##fect": 2125,
      "heart": 2126,
      "issue": 2127,
      "central": 2128,
      "check": 2129,
      "mad": 2130,
      "##ann": 2131,
      "board": 2132,
      "morning": 2133,
      "base": 2134,
      "poll": 2135,
      "standard": 2136,
      "brought": 2137,
      "attorn": 2138,
      "vo": 2139,
      "bed": 2140,
      "jul": 2141,
      "journ": 2142,
      "worked": 2143,
      "evidence": 2144,
      "hall": 2145,
      "##bor": 2146,
      "god": 2147,
      "labor": 2148,
      "friends": 2149,
      "##uses": 2150,
      "village": 2151,
      "30": 2152,
      "france": 2153,
      "reporting": 2154,
      "detail": 2155,
      "viol": 2156,
      "key": 2157,
      "vari": 2158,
      "##aining": 2159,
      "pen": 2160,
      "surr": 2161,
      "roman": 2162,
      "visitors": 2163,
      "##ping": 2164,
      "##ots": 2165,
      "hands": 2166,
      "contract": 2167,
      "norm": 2168,
      "##bert": 2169,
      "relig": 2170,
      "100": 2171,
      "sold": 2172,
      "lawyers": 2173,
      "individual": 2174,
      "cath": 2175,
      "conn": 2176,
      "comments": 2177,
      "recent": 2178,
      "late": 2179,
      "recomm": 2180,
      "changed": 2181,
      "##isions": 2182,
      "proposed": 2183,
      "unf": 2184,
      "received": 2185,
      "ancient": 2186,
      "##istic": 2187,
      "twenty": 2188,
      "sett": 2189,
      "funding": 2190,
      "sex": 2191,
      "english": 2192,
      "style": 2193,
      "##aign": 2194,
      "further": 2195,
      "##oura": 2196,
      "poir": 2197,
      "economy": 2198,
      "##hib": 2199,
      "campaign": 2200,
      "##ique": 2201,
      "##den": 2202,
      "executive": 2203,
      "front": 2204,
      "avo": 2205,
      "poirot": 2206,
      "hur": 2207,
      "jer": 2208,
      "##epend": 2209,
      "archit": 2210,
      "washing": 2211,
      "neg": 2212,
      "chap": 2213,
      "displ": 2214,
      "exactly": 2215,
      "democ": 2216,
      "happened": 2217,
      "mrs": 2218,
      "hon": 2219,
      "##son": 2220,
      "foreign": 2221,
      "##ledge": 2222,
      "speak": 2223,
      "event": 2224,
      "huge": 2225,
      "hope": 2226,
      "arr": 2227,
      "vir": 2228,
      "expensive": 2229,
      "architect": 2230,
      "pain": 2231,
      "##app": 2232,
      "anim": 2233,
      "fair": 2234,
      "applic": 2235,
      "shr": 2236,
      "places": 2237,
      "population": 2238,
      "happy": 2239,
      "du": 2240,
      "##isc": 2241,
      "ens": 2242,
      "perh": 2243,
      "tried": 2244,
      "fif": 2245,
      "chall": 2246,
      "trust": 2247,
      "independ": 2248,
      "opportun": 2249,
      "purp": 2250,
      "inside": 2251,
      "books": 2252,
      "perhaps": 2253,
      "struct": 2254,
      "leaders": 2255,
      "influ": 2256,
      "mot": 2257,
      "expected": 2258,
      "plans": 2259,
      "##let": 2260,
      "##omp": 2261,
      "weather": 2262,
      "##ake": 2263,
      "##urance": 2264,
      "lake": 2265,
      "surpr": 2266,
      "ran": 2267,
      "##ring": 2268,
      "##ai": 2269,
      "suff": 2270,
      "investment": 2271,
      "corpor": 2272,
      "jun": 2273,
      "mass": 2274,
      "##gypt": 2275,
      "moment": 2276,
      "neigh": 2277,
      "unc": 2278,
      "##lus": 2279,
      "##amb": 2280,
      "##ization": 2281,
      "washington": 2282,
      "stra": 2283,
      "##rible": 2284,
      "gets": 2285,
      "military": 2286,
      "##gn": 2287,
      "perfect": 2288,
      "manu": 2289,
      "appear": 2290,
      "attack": 2291,
      "egypt": 2292,
      "##ols": 2293,
      "attention": 2294,
      "##ky": 2295,
      "lived": 2296,
      "langu": 2297,
      "er": 2298,
      "ti": 2299,
      "item": 2300,
      "education": 2301,
      "pict": 2302,
      "ren": 2303,
      "initi": 2304,
      "buildings": 2305,
      "##airs": 2306,
      "decision": 2307,
      "reform": 2308,
      "13": 2309,
      "emerg": 2310,
      "square": 2311,
      "party": 2312,
      "mother": 2313,
      "relations": 2314,
      "fire": 2315,
      "##ores": 2316,
      "created": 2317,
      "strateg": 2318,
      "epa": 2319,
      "##ival": 2320,
      "completely": 2321,
      "##arch": 2322,
      "##ental": 2323,
      "son": 2324,
      "##ires": 2325,
      "prep": 2326,
      "valley": 2327,
      "mos": 2328,
      "desp": 2329,
      "bush": 2330,
      "green": 2331,
      "ways": 2332,
      "chines": 2333,
      "piece": 2334,
      "decided": 2335,
      "ban": 2336,
      "##ction": 2337,
      "trade": 2338,
      "gone": 2339,
      "##iqu": 2340,
      "express": 2341,
      "district": 2342,
      "chinese": 2343,
      "designed": 2344,
      "boy": 2345,
      "located": 2346,
      "palace": 2347,
      "drive": 2348,
      "third": 2349,
      "pan": 2350,
      "##ceed": 2351,
      "manufact": 2352,
      "higher": 2353,
      "request": 2354,
      "trou": 2355,
      "household": 2356,
      "james": 2357,
      "knowledge": 2358,
      "break": 2359,
      "##ik": 2360,
      "following": 2361,
      "span": 2362,
      "peace": 2363,
      "acqu": 2364,
      "spend": 2365,
      "julius": 2366,
      "funds": 2367,
      "hit": 2368,
      "##osing": 2369,
      "allowed": 2370,
      "dam": 2371,
      "lower": 2372,
      "necessary": 2373,
      "custom": 2374,
      "whate": 2375,
      "surround": 2376,
      "whatever": 2377,
      "gall": 2378,
      "artic": 2379,
      "hotel": 2380,
      "recently": 2381,
      "color": 2382,
      "royal": 2383,
      "kept": 2384,
      "specific": 2385,
      "bon": 2386,
      "rid": 2387,
      "##ped": 2388,
      "##ging": 2389,
      "super": 2390,
      "##issions": 2391,
      "plant": 2392,
      "arri": 2393,
      "batt": 2394,
      "creat": 2395,
      "stri": 2396,
      "saying": 2397,
      "itself": 2398,
      "eat": 2399,
      "germ": 2400,
      "##ades": 2401,
      "original": 2402,
      "game": 2403,
      "dog": 2404,
      "select": 2405,
      "clean": 2406,
      "secret": 2407,
      "action": 2408,
      "paid": 2409,
      "##estern": 2410,
      "deep": 2411,
      "##isl": 2412,
      "situation": 2413,
      "separ": 2414,
      "culture": 2415,
      "groups": 2416,
      "prefer": 2417,
      "practices": 2418,
      "vot": 2419,
      "##ims": 2420,
      "natural": 2421,
      "ill": 2422,
      "##med": 2423,
      "2000": 2424,
      "seven": 2425,
      "##eter": 2426,
      "countries": 2427,
      "ord": 2428,
      "spending": 2429,
      "##ouch": 2430,
      "scen": 2431,
      "##hood": 2432,
      "##ites": 2433,
      "cat": 2434,
      "gun": 2435,
      "lack": 2436,
      "##ronic": 2437,
      "apart": 2438,
      "pack": 2439,
      "appe": 2440,
      "serious": 2441,
      "auditors": 2442,
      "lad": 2443,
      "##olution": 2444,
      "##erous": 2445,
      "spent": 2446,
      "taxes": 2447,
      "shops": 2448,
      "exam": 2449,
      "sav": 2450,
      "##icient": 2451,
      "character": 2452,
      "ju": 2453,
      "mess": 2454,
      "stone": 2455,
      "fail": 2456,
      "finally": 2457,
      "princip": 2458,
      "##orp": 2459,
      "engine": 2460,
      "range": 2461,
      "##venue": 2462,
      "##ded": 2463,
      "##ource": 2464,
      "stock": 2465,
      "corn": 2466,
      "##ios": 2467,
      "included": 2468,
      "##ief": 2469,
      "rates": 2470,
      "comb": 2471,
      "seemed": 2472,
      "crow": 2473,
      "sand": 2474,
      "##ification": 2475,
      "complex": 2476,
      "legisl": 2477,
      "geor": 2478,
      "##ef": 2479,
      "##itten": 2480,
      "cook": 2481,
      "committ": 2482,
      "broad": 2483,
      "moved": 2484,
      "isra": 2485,
      "##rupt": 2486,
      "israel": 2487,
      "focus": 2488,
      "training": 2489,
      "##uction": 2490,
      "supposed": 2491,
      "retire": 2492,
      "##of": 2493,
      "##he": 2494,
      "conv": 2495,
      "word": 2496,
      "reported": 2497,
      "altern": 2498,
      "soft": 2499,
      "indian": 2500,
      "ingle": 2501,
      "ali": 2502,
      "efforts": 2503,
      "annual": 2504,
      "streets": 2505,
      "##zz": 2506,
      "##aught": 2507,
      "trees": 2508,
      "ingleth": 2509,
      "mich": 2510,
      "quar": 2511,
      "aver": 2512,
      "km": 2513,
      "western": 2514,
      "bey": 2515,
      "ang": 2516,
      "older": 2517,
      "views": 2518,
      "prim": 2519,
      "save": 2520,
      "##uals": 2521,
      "##eks": 2522,
      "notice": 2523,
      "card": 2524,
      "lat": 2525,
      "prior": 2526,
      "society": 2527,
      "##set": 2528,
      "##oes": 2529,
      "##ams": 2530,
      "credit": 2531,
      "remains": 2532,
      "inglethorp": 2533,
      "##ript": 2534,
      "dav": 2535,
      "chance": 2536,
      "americans": 2537,
      "hi": 2538,
      "##aries": 2539,
      "none": 2540,
      "##ole": 2541,
      "##row": 2542,
      "##osp": 2543,
      "wish": 2544,
      "##ana": 2545,
      "lives": 2546,
      "internet": 2547,
      "##for": 2548,
      "offici": 2549,
      "laws": 2550,
      "russ": 2551,
      "##port": 2552,
      "##uries": 2553,
      "throughout": 2554,
      "traditional": 2555,
      "growth": 2556,
      "mary": 2557,
      "mater": 2558,
      "narr": 2559,
      "tourist": 2560,
      "conduct": 2561,
      "sant": 2562,
      "##eness": 2563,
      "subst": 2564,
      "various": 2565,
      "doct": 2566,
      "assistance": 2567,
      "##eless": 2568,
      "indic": 2569,
      "##umpt": 2570,
      "voice": 2571,
      "gree": 2572,
      "cold": 2573,
      "##xic": 2574,
      "except": 2575,
      "students": 2576,
      "communic": 2577,
      "swe": 2578,
      "increased": 2579,
      "position": 2580,
      "benefit": 2581,
      "##bur": 2582,
      "upon": 2583,
      "covered": 2584,
      "draw": 2585,
      "cele": 2586,
      "force": 2587,
      "university": 2588,
      "##ises": 2589,
      "provides": 2590,
      "document": 2591,
      "##ror": 2592,
      "died": 2593,
      "japanese": 2594,
      "adj": 2595,
      "phys": 2596,
      "body": 2597,
      "##umn": 2598,
      "garden": 2599,
      "celebr": 2600,
      "link": 2601,
      "guy": 2602,
      "##ipment": 2603,
      "share": 2604,
      "##izing": 2605,
      "prices": 2606,
      "correct": 2607,
      "ah": 2608,
      "established": 2609,
      "emb": 2610,
      "additional": 2611,
      "##ara": 2612,
      "##idents": 2613,
      "impress": 2614,
      "everybody": 2615,
      "commer": 2616,
      "##ological": 2617,
      "bank": 2618,
      "##hic": 2619,
      "##cks": 2620,
      "dor": 2621,
      "toward": 2622,
      "wants": 2623,
      "medic": 2624,
      "season": 2625,
      "china": 2626,
      "scul": 2627,
      "critical": 2628,
      "cause": 2629,
      "##arily": 2630,
      "vers": 2631,
      "inn": 2632,
      "##illed": 2633,
      "slow": 2634,
      "bi": 2635,
      "sculpt": 2636,
      "sle": 2637,
      "##itely": 2638,
      "respect": 2639,
      "islands": 2640,
      "beyond": 2641,
      "##apers": 2642,
      "clients": 2643,
      "wild": 2644,
      "station": 2645,
      "former": 2646,
      "gardens": 2647,
      "reflect": 2648,
      "instit": 2649,
      "language": 2650,
      "cas": 2651,
      "father": 2652,
      "pred": 2653,
      "thinking": 2654,
      "paris": 2655,
      "democr": 2656,
      "despite": 2657,
      "cro": 2658,
      "wide": 2659,
      "weeks": 2660,
      "emissions": 2661,
      "affect": 2662,
      "##oon": 2663,
      "##ights": 2664,
      "insurance": 2665,
      "farm": 2666,
      "tomb": 2667,
      "##ength": 2668,
      "establish": 2669,
      "mach": 2670,
      "role": 2671,
      "relationship": 2672,
      "size": 2673,
      "nobody": 2674,
      "##rod": 2675,
      "##ude": 2676,
      "##ift": 2677,
      "##iction": 2678,
      "evalu": 2679,
      "ven": 2680,
      "written": 2681,
      "interested": 2682,
      "developed": 2683,
      "##go": 2684,
      "##utions": 2685,
      "continue": 2686,
      "imag": 2687,
      "##uth": 2688,
      "sup": 2689,
      "equipment": 2690,
      "bay": 2691,
      "den": 2692,
      "shopping": 2693,
      "##oming": 2694,
      "international": 2695,
      "dress": 2696,
      "round": 2697,
      "##oint": 2698,
      "##roy": 2699,
      "clim": 2700,
      "##bb": 2701,
      "tar": 2702,
      "myself": 2703,
      "discover": 2704,
      "##vert": 2705,
      "exhib": 2706,
      "anyway": 2707,
      "doub": 2708,
      "##sy": 2709,
      "##ware": 2710,
      "##leg": 2711,
      "proced": 2712,
      "feat": 2713,
      "led": 2714,
      "dall": 2715,
      "50": 2716,
      "page": 2717,
      "fix": 2718,
      "extrem": 2719,
      "bab": 2720,
      "##een": 2721,
      "attemp": 2722,
      "increasing": 2723,
      "generally": 2724,
      "tend": 2725,
      "practice": 2726,
      "learn": 2727,
      "##ne": 2728,
      "deg": 2729,
      "below": 2730,
      "tourists": 2731,
      "din": 2732,
      "quickly": 2733,
      "alone": 2734,
      "clos": 2735,
      "decl": 2736,
      "dallas": 2737,
      "vote": 2738,
      "published": 2739,
      "25": 2740,
      "##inc": 2741,
      "##xim": 2742,
      "train": 2743,
      "cand": 2744,
      "##aced": 2745,
      "phil": 2746,
      "encoura": 2747,
      "web": 2748,
      "production": 2749,
      "running": 2750,
      "pleas": 2751,
      "rap": 2752,
      "entities": 2753,
      "cross": 2754,
      "fash": 2755,
      "surv": 2756,
      "fem": 2757,
      "favorite": 2758,
      "sad": 2759,
      "##estic": 2760,
      "goals": 2761,
      "dark": 2762,
      "crime": 2763,
      "install": 2764,
      "certainly": 2765,
      "mand": 2766,
      "events": 2767,
      "emergency": 2768,
      "heav": 2769,
      "fres": 2770,
      "cru": 2771,
      "sites": 2772,
      "dro": 2773,
      "hy": 2774,
      "wealth": 2775,
      "construction": 2776,
      "##onst": 2777,
      "##room": 2778,
      "comment": 2779,
      "patients": 2780,
      "##iff": 2781,
      "##oph": 2782,
      "region": 2783,
      "##more": 2784,
      "rights": 2785,
      "basis": 2786,
      "named": 2787,
      "slate": 2788,
      "hosp": 2789,
      "rad": 2790,
      "looks": 2791,
      "wrote": 2792,
      "products": 2793,
      "movies": 2794,
      "answer": 2795,
      "##ob": 2796,
      "brown": 2797,
      "largest": 2798,
      "horse": 2799,
      "observ": 2800,
      "steps": 2801,
      "field": 2802,
      "includes": 2803,
      "officials": 2804,
      "letter": 2805,
      "complete": 2806,
      "##ipp": 2807,
      "feet": 2808,
      "choice": 2809,
      "definitely": 2810,
      "##itor": 2811,
      "growing": 2812,
      "families": 2813,
      "threat": 2814,
      "##edi": 2815,
      "consist": 2816,
      "extra": 2817,
      "spanish": 2818,
      "purch": 2819,
      "lots": 2820,
      "accounting": 2821,
      "glass": 2822,
      "recommend": 2823,
      "average": 2824,
      "bought": 2825,
      "weap": 2826,
      "appropriate": 2827,
      "mid": 2828,
      "louis": 2829,
      "effects": 2830,
      "##ha": 2831,
      "opin": 2832,
      "sky": 2833,
      "carry": 2834,
      "blue": 2835,
      "helped": 2836,
      "excell": 2837,
      "floor": 2838,
      "gar": 2839,
      "##tered": 2840,
      "difference": 2841,
      "senior": 2842,
      "internal": 2843,
      "ign": 2844,
      "197": 2845,
      "nature": 2846,
      "##ode": 2847,
      "flow": 2848,
      "##scape": 2849,
      "volume": 2850,
      "fast": 2851,
      "##egr": 2852,
      "multip": 2853,
      "retirement": 2854,
      "whose": 2855,
      "sched": 2856,
      "ball": 2857,
      "##uted": 2858,
      "club": 2859,
      "afford": 2860,
      "operations": 2861,
      "mist": 2862,
      "##asons": 2863,
      "serve": 2864,
      "hotels": 2865,
      "meeting": 2866,
      "absol": 2867,
      "items": 2868,
      "##aded": 2869,
      "earth": 2870,
      "mart": 2871,
      "phot": 2872,
      "easily": 2873,
      "##bers": 2874,
      "##erc": 2875,
      "terms": 2876,
      "hers": 2877,
      "tit": 2878,
      "space": 2879,
      "previous": 2880,
      "measure": 2881,
      "cit": 2882,
      "gate": 2883,
      "ur": 2884,
      "agre": 2885,
      "german": 2886,
      "##uments": 2887,
      "pieces": 2888,
      "##iques": 2889,
      "ara": 2890,
      "ded": 2891,
      "scr": 2892,
      "medical": 2893,
      "authority": 2894,
      "battle": 2895,
      "##iced": 2896,
      "##iling": 2897,
      "reb": 2898,
      "quiet": 2899,
      "schools": 2900,
      "leading": 2901,
      "terrible": 2902,
      "trouble": 2903,
      "path": 2904,
      "sens": 2905,
      "fashion": 2906,
      "individuals": 2907,
      "60": 2908,
      "lawyer": 2909,
      "types": 2910,
      "##ett": 2911,
      "##ips": 2912,
      "##enced": 2913,
      "regulatory": 2914,
      "master": 2915,
      "##ux": 2916,
      "##ables": 2917,
      "##ches": 2918,
      "1996": 2919,
      "sounds": 2920,
      "cathed": 2921,
      "bye": 2922,
      "##ivity": 2923,
      "levels": 2924,
      "goods": 2925,
      "blood": 2926,
      "rain": 2927,
      "##ox": 2928,
      "##wide": 2929,
      "occur": 2930,
      "spot": 2931,
      "##astic": 2932,
      "actions": 2933,
      "reading": 2934,
      "destroy": 2935,
      "display": 2936,
      "luck": 2937,
      "mort": 2938,
      "appar": 2939,
      "particularly": 2940,
      "achieve": 2941,
      "##ba": 2942,
      "watching": 2943,
      "investig": 2944,
      "administration": 2945,
      "##olf": 2946,
      "sports": 2947,
      "offers": 2948,
      "effort": 2949,
      "##ex": 2950,
      "stood": 2951,
      "cloth": 2952,
      "integr": 2953,
      "##icians": 2954,
      "mis": 2955,
      "##usal": 2956,
      "mostly": 2957,
      "guid": 2958,
      "connect": 2959,
      "committee": 2960,
      "##ax": 2961,
      "##idge": 2962,
      "winter": 2963,
      "beaches": 2964,
      "mic": 2965,
      "##ban": 2966,
      "stories": 2967,
      "nearly": 2968,
      "managers": 2969,
      "journal": 2970,
      "ensure": 2971,
      "dang": 2972,
      "sci": 2973,
      "entr": 2974,
      "##omb": 2975,
      "simply": 2976,
      "dut": 2977,
      "ess": 2978,
      "##cious": 2979,
      "disp": 2980,
      "mission": 2981,
      "##cked": 2982,
      "##unt": 2983,
      "closed": 2984,
      "##aughter": 2985,
      "david": 2986,
      "40": 2987,
      "##erve": 2988,
      "perm": 2989,
      "regular": 2990,
      "tower": 2991,
      "excellent": 2992,
      "jes": 2993,
      "tom": 2994,
      "##oses": 2995,
      "subm": 2996,
      "reduce": 2997,
      "thirty": 2998,
      "mention": 2999,
      "##onse": 3000,
      "savings": 3001,
      "fly": 3002,
      "ful": 3003,
      "somebody": 3004,
      "accomp": 3005,
      "host": 3006,
      "spl": 3007,
      "equal": 3008,
      "##rit": 3009,
      "##rel": 3010,
      "added": 3011,
      "trip": 3012,
      "##ills": 3013,
      "revenue": 3014,
      "payments": 3015,
      "administr": 3016,
      "##come": 3017,
      "##sequ": 3018,
      "army": 3019,
      "cities": 3020,
      "obvious": 3021,
      "dave": 3022,
      "wait": 3023,
      "##ira": 3024,
      "simple": 3025,
      "beat": 3026,
      "safe": 3027,
      "reli": 3028,
      "2001": 3029,
      "smaller": 3030,
      "cam": 3031,
      "ver": 3032,
      "##iny": 3033,
      "media": 3034,
      "respond": 3035,
      "passed": 3036,
      "judge": 3037,
      "walls": 3038,
      "restaurants": 3039,
      "liter": 3040,
      "immedi": 3041,
      "avoid": 3042,
      "##ma": 3043,
      "##ster": 3044,
      "prison": 3045,
      "india": 3046,
      "response": 3047,
      "frequ": 3048,
      "official": 3049,
      "##erry": 3050,
      "column": 3051,
      "##ests": 3052,
      "successful": 3053,
      "##ille": 3054,
      "accur": 3055,
      "##asc": 3056,
      "confer": 3057,
      "box": 3058,
      "religious": 3059,
      "yourself": 3060,
      "budd": 3061,
      "##oud": 3062,
      "payment": 3063,
      "killed": 3064,
      "drugs": 3065,
      "article": 3066,
      "conserv": 3067,
      "cars": 3068,
      "rooms": 3069,
      "policies": 3070,
      "film": 3071,
      "fisc": 3072,
      "mountains": 3073,
      "treas": 3074,
      "believed": 3075,
      "jewish": 3076,
      "flex": 3077,
      "196": 3078,
      "estimates": 3079,
      "magn": 3080,
      "decor": 3081,
      "neighbor": 3082,
      "pil": 3083,
      "##anced": 3084,
      "##reci": 3085,
      "knows": 3086,
      "truth": 3087,
      "potential": 3088,
      "##ask": 3089,
      "##vey": 3090,
      "##ung": 3091,
      "hong": 3092,
      "##eed": 3093,
      "##atively": 3094,
      "star": 3095,
      "playing": 3096,
      "##yr": 3097,
      "grad": 3098,
      "##utely": 3099,
      "participants": 3100,
      "adop": 3101,
      "centuries": 3102,
      "consum": 3103,
      "southern": 3104,
      "kal": 3105,
      "##back": 3106,
      "beginning": 3107,
      "director": 3108,
      "ut": 3109,
      "expert": 3110,
      "paying": 3111,
      "limited": 3112,
      "fiscal": 3113,
      "points": 3114,
      "constant": 3115,
      "ft": 3116,
      "hom": 3117,
      "inj": 3118,
      "contr": 3119,
      "kong": 3120,
      "chair": 3121,
      "parts": 3122,
      "phone": 3123,
      "hans": 3124,
      "george": 3125,
      "##usalem": 3126,
      "lit": 3127,
      "touch": 3128,
      "warm": 3129,
      "ready": 3130,
      "responsible": 3131,
      "jerusalem": 3132,
      "lay": 3133,
      "requires": 3134,
      "critics": 3135,
      "giving": 3136,
      "magaz": 3137,
      "pros": 3138,
      "served": 3139,
      "useful": 3140,
      "larger": 3141,
      "christian": 3142,
      "property": 3143,
      "sud": 3144,
      "newsp": 3145,
      "independent": 3146,
      "glo": 3147,
      "beg": 3148,
      "spoke": 3149,
      "providing": 3150,
      "adjust": 3151,
      "sac": 3152,
      "nearby": 3153,
      "methods": 3154,
      "ast": 3155,
      "bes": 3156,
      "convers": 3157,
      "ability": 3158,
      "discount": 3159,
      "castle": 3160,
      "liber": 3161,
      "entertain": 3162,
      "interview": 3163,
      "bri": 3164,
      "##uary": 3165,
      "##ops": 3166,
      "basic": 3167,
      "capt": 3168,
      "oppos": 3169,
      "gives": 3170,
      "##ornia": 3171,
      "je": 3172,
      "reasons": 3173,
      "forward": 3174,
      "compl": 3175,
      "empire": 3176,
      "eastern": 3177,
      "distrib": 3178,
      "sword": 3179,
      "calif": 3180,
      "republicans": 3181,
      "##lier": 3182,
      "constit": 3183,
      "##uit": 3184,
      "##ously": 3185,
      "expand": 3186,
      "setting": 3187,
      "##cy": 3188,
      "county": 3189,
      "animals": 3190,
      "receive": 3191,
      "structure": 3192,
      "##iring": 3193,
      "anymore": 3194,
      "analy": 3195,
      "estimate": 3196,
      "associated": 3197,
      "source": 3198,
      "##teen": 3199,
      "omb": 3200,
      "wear": 3201,
      "advert": 3202,
      "agreed": 3203,
      "##put": 3204,
      "##change": 3205,
      "remain": 3206,
      "bott": 3207,
      "pun": 3208,
      "##ament": 3209,
      "note": 3210,
      "raised": 3211,
      "politics": 3212,
      "domestic": 3213,
      "narrow": 3214,
      "hate": 3215,
      "ib": 3216,
      "spain": 3217,
      "greater": 3218,
      "series": 3219,
      "hang": 3220,
      "##aged": 3221,
      "decisions": 3222,
      "swim": 3223,
      "environmental": 3224,
      "date": 3225,
      "rural": 3226,
      "##gg": 3227,
      "##ave": 3228,
      "variety": 3229,
      "absolutely": 3230,
      "mix": 3231,
      "##aters": 3232,
      "spir": 3233,
      "contains": 3234,
      "guide": 3235,
      "watched": 3236,
      "electric": 3237,
      "sector": 3238,
      "mountain": 3239,
      "multiple": 3240,
      "catch": 3241,
      "las": 3242,
      "##cil": 3243,
      "autom": 3244,
      "eye": 3245,
      "route": 3246,
      "meant": 3247,
      "starting": 3248,
      "regulations": 3249,
      "##fort": 3250,
      "spring": 3251,
      "billion": 3252,
      "##ones": 3253,
      "coff": 3254,
      "propos": 3255,
      "stopped": 3256,
      "towards": 3257,
      "science": 3258,
      "fest": 3259,
      "##oh": 3260,
      "opportunity": 3261,
      "hanson": 3262,
      "married": 3263,
      "restrict": 3264,
      "activity": 3265,
      "cathedral": 3266,
      "##cul": 3267,
      "shar": 3268,
      "spect": 3269,
      "charge": 3270,
      "european": 3271,
      "alternative": 3272,
      "##men": 3273,
      "progress": 3274,
      "candid": 3275,
      "band": 3276,
      "born": 3277,
      "kid": 3278,
      "ul": 3279,
      "##ners": 3280,
      "purpose": 3281,
      "influence": 3282,
      "entrance": 3283,
      "500": 3284,
      "appl": 3285,
      "jobs": 3286,
      "tick": 3287,
      "therefore": 3288,
      "demonst": 3289,
      "factors": 3290,
      "fishing": 3291,
      "jama": 3292,
      "##cl": 3293,
      "store": 3294,
      "assessment": 3295,
      "greek": 3296,
      "exerc": 3297,
      "qual": 3298,
      "opened": 3299,
      "continued": 3300,
      "sor": 3301,
      "##cing": 3302,
      "affected": 3303,
      "##wood": 3304,
      "create": 3305,
      "hair": 3306,
      "telev": 3307,
      "directly": 3308,
      "roll": 3309,
      "##ada": 3310,
      "##rap": 3311,
      "prem": 3312,
      "##aily": 3313,
      "professional": 3314,
      "strategic": 3315,
      "##eys": 3316,
      "imposs": 3317,
      "england": 3318,
      "followed": 3319,
      "currently": 3320,
      "tast": 3321,
      "cash": 3322,
      "apply": 3323,
      "statements": 3324,
      "talked": 3325,
      "profit": 3326,
      "occas": 3327,
      "##iar": 3328,
      "meaning": 3329,
      "vac": 3330,
      "paintings": 3331,
      "micro": 3332,
      "bord": 3333,
      "categ": 3334,
      "gas": 3335,
      "##ground": 3336,
      "behav": 3337,
      "challeng": 3338,
      "flor": 3339,
      "played": 3340,
      "thousands": 3341,
      "21": 3342,
      "caught": 3343,
      "worse": 3344,
      "northern": 3345,
      "attorney": 3346,
      "sudden": 3347,
      "aug": 3348,
      "fol": 3349,
      "##to": 3350,
      "##itz": 3351,
      "rele": 3352,
      "ended": 3353,
      "association": 3354,
      "quarter": 3355,
      "jack": 3356,
      "loss": 3357,
      "##chan": 3358,
      "1999": 3359,
      "unless": 3360,
      "sleep": 3361,
      "eth": 3362,
      "##ience": 3363,
      "intervention": 3364,
      "##key": 3365,
      "1998": 3366,
      "electronic": 3367,
      "enjoyed": 3368,
      "daily": 3369,
      "##nes": 3370,
      "##ergy": 3371,
      "##ena": 3372,
      "unit": 3373,
      "cry": 3374,
      "rent": 3375,
      "##ino": 3376,
      "##oted": 3377,
      "clearly": 3378,
      "gi": 3379,
      "jan": 3380,
      "##wise": 3381,
      "thus": 3382,
      "search": 3383,
      "compared": 3384,
      "failed": 3385,
      "debt": 3386,
      "straight": 3387,
      "pet": 3388,
      "##gas": 3389,
      "sho": 3390,
      "clock": 3391,
      "##aud": 3392,
      "##ula": 3393,
      "choose": 3394,
      "eventually": 3395,
      "shall": 3396,
      "commercial": 3397,
      "citiz": 3398,
      "hind": 3399,
      "weak": 3400,
      "wonderful": 3401,
      "angel": 3402,
      "send": 3403,
      "##rated": 3404,
      "contact": 3405,
      "appreci": 3406,
      "seeing": 3407,
      "oldest": 3408,
      "estimated": 3409,
      "##wor": 3410,
      "##ils": 3411,
      "stores": 3412,
      "resort": 3413,
      "coll": 3414,
      "statement": 3415,
      "italian": 3416,
      "murder": 3417,
      "corner": 3418,
      "shot": 3419,
      "##ope": 3420,
      "values": 3421,
      "california": 3422,
      "impossible": 3423,
      "##ule": 3424,
      "##tim": 3425,
      "assum": 3426,
      "##ially": 3427,
      "reached": 3428,
      "nine": 3429,
      "amaz": 3430,
      "towns": 3431,
      "sales": 3432,
      "##antage": 3433,
      "##rif": 3434,
      "crimin": 3435,
      "saf": 3436,
      "dub": 3437,
      "mine": 3438,
      "##zy": 3439,
      "invent": 3440,
      "minor": 3441,
      "originally": 3442,
      "craft": 3443,
      "treatment": 3444,
      "##uing": 3445,
      "brother": 3446,
      "prevent": 3447,
      "ideas": 3448,
      "separate": 3449,
      "willing": 3450,
      "claims": 3451,
      "features": 3452,
      "brief": 3453,
      "##ander": 3454,
      "entity": 3455,
      "majority": 3456,
      "hurt": 3457,
      "target": 3458,
      "pra": 3459,
      "assets": 3460,
      "##umption": 3461,
      "wine": 3462,
      "colon": 3463,
      "existing": 3464,
      "games": 3465,
      "sight": 3466,
      "wel": 3467,
      "##rof": 3468,
      "italy": 3469,
      "hospital": 3470,
      "destroyed": 3471,
      "et": 3472,
      "match": 3473,
      "tele": 3474,
      "funny": 3475,
      "procedures": 3476,
      "##iers": 3477,
      "##vely": 3478,
      "boat": 3479,
      "firm": 3480,
      "decre": 3481,
      "cheap": 3482,
      "##mon": 3483,
      "worry": 3484,
      "testing": 3485,
      "representation": 3486,
      "discussed": 3487,
      "##force": 3488,
      "bor": 3489,
      "##dom": 3490,
      "chief": 3491,
      "plants": 3492,
      "adult": 3493,
      "emper": 3494,
      "musl": 3495,
      "listen": 3496,
      "cultural": 3497,
      "shown": 3498,
      "capac": 3499,
      "aware": 3500,
      "attorneys": 3501,
      "##making": 3502,
      "rail": 3503,
      "##bed": 3504,
      "lew": 3505,
      "introd": 3506,
      "bono": 3507,
      "opinion": 3508,
      "theater": 3509,
      "liked": 3510,
      "##ffic": 3511,
      "evening": 3512,
      "risks": 3513,
      "location": 3514,
      "easier": 3515,
      "violence": 3516,
      "lose": 3517,
      "condition": 3518,
      "samp": 3519,
      "television": 3520,
      "##inct": 3521,
      "frank": 3522,
      "sitting": 3523,
      "##itude": 3524,
      "interior": 3525,
      "##ibilities": 3526,
      "please": 3527,
      "prepared": 3528,
      "doctor": 3529,
      "fresh": 3530,
      "daughter": 3531,
      "grew": 3532,
      "disapp": 3533,
      "remained": 3534,
      "insp": 3535,
      "identify": 3536,
      "od": 3537,
      "##ham": 3538,
      "##aped": 3539,
      "offered": 3540,
      "numbers": 3541,
      "walking": 3542,
      "council": 3543,
      "##rial": 3544,
      "##week": 3545,
      "doubt": 3546,
      "conference": 3547,
      "coffee": 3548,
      "breat": 3549,
      "die": 3550,
      "compar": 3551,
      "text": 3552,
      "bridge": 3553,
      "march": 3554,
      "standing": 3555,
      "limit": 3556,
      "gore": 3557,
      "sund": 3558,
      "unli": 3559,
      "repe": 3560,
      "desert": 3561,
      "architecture": 3562,
      "fu": 3563,
      "los": 3564,
      "race": 3565,
      "engage": 3566,
      "##ucing": 3567,
      "doro": 3568,
      "heavy": 3569,
      "clothes": 3570,
      "##ji": 3571,
      "evaluation": 3572,
      "bag": 3573,
      "biggest": 3574,
      "learned": 3575,
      "anti": 3576,
      "homes": 3577,
      "oil": 3578,
      "##onna": 3579,
      "transport": 3580,
      "bul": 3581,
      "##inating": 3582,
      "##eth": 3583,
      "amb": 3584,
      "function": 3585,
      "jesus": 3586,
      "immediately": 3587,
      "neighborhood": 3588,
      "cool": 3589,
      "draft": 3590,
      "implementation": 3591,
      "nap": 3592,
      "vegas": 3593,
      "earlier": 3594,
      "ben": 3595,
      "pul": 3596,
      "welf": 3597,
      "##ream": 3598,
      "alt": 3599,
      "welfare": 3600,
      "lunch": 3601,
      "tro": 3602,
      "vide": 3603,
      "uses": 3604,
      "parties": 3605,
      "symb": 3606,
      "##ibly": 3607,
      "newsweek": 3608,
      "waiting": 3609,
      "##inated": 3610,
      "calls": 3611,
      "defense": 3612,
      "immig": 3613,
      "temples": 3614,
      "holy": 3615,
      "extremely": 3616,
      "sources": 3617,
      "thorn": 3618,
      "minim": 3619,
      "##roll": 3620,
      "performed": 3621,
      "##levant": 3622,
      "protection": 3623,
      "member": 3624,
      "objectives": 3625,
      "regarding": 3626,
      "burn": 3627,
      "forced": 3628,
      "uns": 3629,
      "manufacturing": 3630,
      "rue": 3631,
      "##outh": 3632,
      "##istics": 3633,
      "residents": 3634,
      "robert": 3635,
      "19th": 3636,
      "hills": 3637,
      "routes": 3638,
      "##ycle": 3639,
      "bron": 3640,
      "feeling": 3641,
      "conditions": 3642,
      "industrial": 3643,
      "determine": 3644,
      "acquis": 3645,
      "fully": 3646,
      "tough": 3647,
      "wer": 3648,
      "##lam": 3649,
      "writing": 3650,
      "counsel": 3651,
      "ahead": 3652,
      "dinner": 3653,
      "august": 3654,
      "bomb": 3655,
      "papers": 3656,
      "##oles": 3657,
      "guard": 3658,
      "shouldn": 3659,
      "described": 3660,
      "behavior": 3661,
      "cub": 3662,
      "theory": 3663,
      "starr": 3664,
      "thanks": 3665,
      "grass": 3666,
      "dram": 3667,
      "susan": 3668,
      "july": 3669,
      "predict": 3670,
      "##ipped": 3671,
      "##iveness": 3672,
      "actual": 3673,
      "prec": 3674,
      "spee": 3675,
      "controls": 3676,
      "businesses": 3677,
      "stayed": 3678,
      "grantees": 3679,
      "historical": 3680,
      "martin": 3681,
      "pow": 3682,
      "##ney": 3683,
      "noted": 3684,
      "1997": 3685,
      "generation": 3686,
      "via": 3687,
      "##ael": 3688,
      "##can": 3689,
      "forg": 3690,
      "mexic": 3691,
      "intended": 3692,
      "commit": 3693,
      "moving": 3694,
      "write": 3695,
      "accounts": 3696,
      "camping": 3697,
      "projects": 3698,
      "dollar": 3699,
      "susp": 3700,
      "software": 3701,
      "bow": 3702,
      "##los": 3703,
      "##mer": 3704,
      "##iles": 3705,
      "##riage": 3706,
      "thinks": 3707,
      "psy": 3708,
      "##izes": 3709,
      "minute": 3710,
      "##ventions": 3711,
      "16th": 3712,
      "lie": 3713,
      "energy": 3714,
      "foundation": 3715,
      "##iday": 3716,
      "##antic": 3717,
      "traffic": 3718,
      "capacity": 3719,
      "revolution": 3720,
      "completed": 3721,
      "baby": 3722,
      "pic": 3723,
      "union": 3724,
      "conclus": 3725,
      "dedic": 3726,
      "psych": 3727,
      "##reg": 3728,
      "surpl": 3729,
      "201": 3730,
      "birth": 3731,
      "cav": 3732,
      "incent": 3733,
      "##uctions": 3734,
      "##action": 3735,
      "##azz": 3736,
      "picture": 3737,
      "weren": 3738,
      "cyn": 3739,
      "ride": 3740,
      "##light": 3741,
      "##irt": 3742,
      "units": 3743,
      "caused": 3744,
      "18th": 3745,
      "identified": 3746,
      "rand": 3747,
      "##ris": 3748,
      "##iest": 3749,
      "##ado": 3750,
      "advoc": 3751,
      "statue": 3752,
      "powerful": 3753,
      "normal": 3754,
      "thank": 3755,
      "track": 3756,
      "screening": 3757,
      "concerned": 3758,
      "award": 3759,
      "shoot": 3760,
      "concent": 3761,
      "##pper": 3762,
      "##akes": 3763,
      "pattern": 3764,
      "pictures": 3765,
      "michael": 3766,
      "eld": 3767,
      "##ulf": 3768,
      "libr": 3769,
      "client": 3770,
      "##ague": 3771,
      "painted": 3772,
      "gent": 3773,
      "willi": 3774,
      "arts": 3775,
      "situ": 3776,
      "employee": 3777,
      "suggested": 3778,
      "restaurant": 3779,
      "pollution": 3780,
      "fifty": 3781,
      "cow": 3782,
      "dan": 3783,
      "ira": 3784,
      "exchange": 3785,
      "tall": 3786,
      "executives": 3787,
      "fasc": 3788,
      "##raid": 3789,
      "brand": 3790,
      "overall": 3791,
      "student": 3792,
      "golden": 3793,
      "trib": 3794,
      "busy": 3795,
      "slight": 3796,
      "emperor": 3797,
      "nin": 3798,
      "##ae": 3799,
      "stick": 3800,
      "comfort": 3801,
      "##liance": 3802,
      "republican": 3803,
      "radio": 3804,
      "bell": 3805,
      "dod": 3806,
      "processes": 3807,
      "profession": 3808,
      "mall": 3809,
      "##ray": 3810,
      "##ette": 3811,
      "guys": 3812,
      "understanding": 3813,
      "records": 3814,
      "recognized": 3815,
      "wed": 3816,
      "monument": 3817,
      "findings": 3818,
      "1995": 3819,
      "importance": 3820,
      "virgin": 3821,
      "abuse": 3822,
      "survey": 3823,
      "##mber": 3824,
      "##zen": 3825,
      "relax": 3826,
      "positive": 3827,
      "housing": 3828,
      "purs": 3829,
      "dad": 3830,
      "golf": 3831,
      "discussion": 3832,
      "22": 3833,
      "fat": 3834,
      "mel": 3835,
      "greatest": 3836,
      "critic": 3837,
      "examples": 3838,
      "jury": 3839,
      "earn": 3840,
      "challen": 3841,
      "##burgh": 3842,
      "rise": 3843,
      "yard": 3844,
      "##inary": 3845,
      "stew": 3846,
      "novel": 3847,
      "unp": 3848,
      "effici": 3849,
      "election": 3850,
      "##ancy": 3851,
      "lady": 3852,
      "lux": 3853,
      "wid": 3854,
      "print": 3855,
      "afraid": 3856,
      "police": 3857,
      "##ushed": 3858,
      "gro": 3859,
      "##da": 3860,
      "nod": 3861,
      "##ca": 3862,
      "spread": 3863,
      "anywhere": 3864,
      "career": 3865,
      "##aza": 3866,
      "conflic": 3867,
      "satis": 3868,
      "##50": 3869,
      "##lex": 3870,
      "compliance": 3871,
      "##ago": 3872,
      "interventions": 3873,
      "initial": 3874,
      "snow": 3875,
      "imagine": 3876,
      "hell": 3877,
      "##asts": 3878,
      "afric": 3879,
      "appeal": 3880,
      "citizens": 3881,
      "offices": 3882,
      "strug": 3883,
      "flat": 3884,
      "material": 3885,
      "cards": 3886,
      "ken": 3887,
      "##rid": 3888,
      "##ials": 3889,
      "##adem": 3890,
      "concept": 3891,
      "rose": 3892,
      "filled": 3893,
      "##ested": 3894,
      "strange": 3895,
      "highly": 3896,
      "chapter": 3897,
      "june": 3898,
      "households": 3899,
      "pu": 3900,
      "##oking": 3901,
      "##mos": 3902,
      "islam": 3903,
      "pool": 3904,
      "obtain": 3905,
      "leaving": 3906,
      "weapons": 3907,
      "arab": 3908,
      "pull": 3909,
      "depend": 3910,
      "senate": 3911,
      "jane": 3912,
      "vand": 3913,
      "##otic": 3914,
      "suppose": 3915,
      "##etic": 3916,
      "waste": 3917,
      "finance": 3918,
      "produce": 3919,
      "leader": 3920,
      "##ields": 3921,
      "194": 3922,
      "explain": 3923,
      "gather": 3924,
      "##eria": 3925,
      "defe": 3926,
      "goal": 3927,
      "plenty": 3928,
      "acquisition": 3929,
      "oct": 3930,
      "interp": 3931,
      "##berg": 3932,
      "register": 3933,
      "stands": 3934,
      "rulemaking": 3935,
      "advantage": 3936,
      "matters": 3937,
      "mosque": 3938,
      "exercise": 3939,
      "##mas": 3940,
      "##abor": 3941,
      "##ender": 3942,
      "hundreds": 3943,
      "mir": 3944,
      "otherwise": 3945,
      "fear": 3946,
      "technical": 3947,
      "markets": 3948,
      "accountability": 3949,
      "17th": 3950,
      "network": 3951,
      "unfortun": 3952,
      "degree": 3953,
      "ton": 3954,
      "suit": 3955,
      "peak": 3956,
      "mont": 3957,
      "keeping": 3958,
      "window": 3959,
      "bath": 3960,
      "laugh": 3961,
      "yell": 3962,
      "##rant": 3963,
      "##iving": 3964,
      "competition": 3965,
      "scenar": 3966,
      "names": 3967,
      "##west": 3968,
      "relevant": 3969,
      "handle": 3970,
      "produced": 3971,
      "version": 3972,
      "mortality": 3973,
      "sevent": 3974,
      "lies": 3975,
      "feed": 3976,
      "efficient": 3977,
      "reduction": 3978,
      "responsibility": 3979,
      "gallery": 3980,
      "aust": 3981,
      "##gu": 3982,
      "neither": 3983,
      "incor": 3984,
      "##ologies": 3985,
      "kinds": 3986,
      "advice": 3987,
      "status": 3988,
      "schedule": 3989,
      "entertainment": 3990,
      "##ois": 3991,
      "##sec": 3992,
      "weight": 3993,
      "##ieval": 3994,
      "happens": 3995,
      "medieval": 3996,
      "involve": 3997,
      "football": 3998,
      "drinking": 3999,
      "ultim": 4000,
      "speech": 4001,
      "tun": 4002,
      "##erved": 4003,
      "##soft": 4004,
      "manager": 4005,
      "machine": 4006,
      "funded": 4007,
      "corporate": 4008,
      "substant": 4009,
      "flexibility": 4010,
      "microsoft": 4011,
      "fan": 4012,
      "worst": 4013,
      "indeed": 4014,
      "guar": 4015,
      "decide": 4016,
      "helping": 4017,
      "skills": 4018,
      "double": 4019,
      "legislation": 4020,
      "mcc": 4021,
      "forces": 4022,
      "##olic": 4023,
      "courts": 4024,
      "cafe": 4025,
      "occup": 4026,
      "pleasant": 4027,
      "recommendations": 4028,
      "veget": 4029,
      "showed": 4030,
      "trial": 4031,
      "changing": 4032,
      "congressional": 4033,
      "merch": 4034,
      "fighting": 4035,
      "amp": 4036,
      "##ald": 4037,
      "sem": 4038,
      "##enses": 4039,
      "presented": 4040,
      "##has": 4041,
      "transfer": 4042,
      "girls": 4043,
      "lif": 4044,
      "boil": 4045,
      "command": 4046,
      "depict": 4047,
      "totally": 4048,
      "accepted": 4049,
      "determined": 4050,
      "concerns": 4051,
      "fortun": 4052,
      "primary": 4053,
      "spectac": 4054,
      "library": 4055,
      "gain": 4056,
      "##eries": 4057,
      "unique": 4058,
      "speaking": 4059,
      "differences": 4060,
      "walked": 4061,
      "painting": 4062,
      "medicare": 4063,
      "sam": 4064,
      "##using": 4065,
      "artists": 4066,
      "terra": 4067,
      "scient": 4068,
      "coverage": 4069,
      "reviews": 4070,
      "gh": 4071,
      "tools": 4072,
      "highest": 4073,
      "helps": 4074,
      "##sid": 4075,
      "players": 4076,
      "##ifying": 4077,
      "founded": 4078,
      "chapel": 4079,
      "surprised": 4080,
      "magazine": 4081,
      "buying": 4082,
      "stret": 4083,
      "freed": 4084,
      "virt": 4085,
      "gradu": 4086,
      "jamaica": 4087,
      "guarant": 4088,
      "bother": 4089,
      "##lig": 4090,
      "##ortion": 4091,
      "##unte": 4092,
      "loved": 4093,
      "supply": 4094,
      "territ": 4095,
      "angeles": 4096,
      "##ctions": 4097,
      "franc": 4098,
      "aftern": 4099,
      "finished": 4100,
      "organizational": 4101,
      "announ": 4102,
      "volunte": 4103,
      "surrounding": 4104,
      "opposite": 4105,
      "lines": 4106,
      "rang": 4107,
      "vice": 4108,
      "centre": 4109,
      "gotten": 4110,
      "gothic": 4111,
      "editor": 4112,
      "figures": 4113,
      "opportunities": 4114,
      "breath": 4115,
      "##reh": 4116,
      "firms": 4117,
      "strength": 4118,
      "finding": 4119,
      "##pective": 4120,
      "leadership": 4121,
      "challenges": 4122,
      "der": 4123,
      "iron": 4124,
      "reve": 4125,
      "##verse": 4126,
      "aspect": 4127,
      "log": 4128,
      "vehic": 4129,
      "skin": 4130,
      "raise": 4131,
      "familiar": 4132,
      "circum": 4133,
      "24": 4134,
      "##pa": 4135,
      "forth": 4136,
      "##ession": 4137,
      "hadn": 4138,
      "##ension": 4139,
      "elig": 4140,
      "reduced": 4141,
      "merc": 4142,
      "holly": 4143,
      "hors": 4144,
      "##ein": 4145,
      "##anch": 4146,
      "online": 4147,
      "frame": 4148,
      "mac": 4149,
      "remo": 4150,
      "developing": 4151,
      "portug": 4152,
      "measures": 4153,
      "selling": 4154,
      "van": 4155,
      "##oo": 4156,
      "entirely": 4157,
      "cart": 4158,
      "gd": 4159,
      "##ta": 4160,
      "glad": 4161,
      "requirement": 4162,
      "honor": 4163,
      "engineering": 4164,
      "santa": 4165,
      "song": 4166,
      "vast": 4167,
      "planned": 4168,
      "younger": 4169,
      "dublin": 4170,
      "era": 4171,
      "tap": 4172,
      "tiny": 4173,
      "##oned": 4174,
      "faith": 4175,
      "twice": 4176,
      "realize": 4177,
      "tests": 4178,
      "apr": 4179,
      "irish": 4180,
      "block": 4181,
      "massive": 4182,
      "climb": 4183,
      "##cra": 4184,
      "enem": 4185,
      "mob": 4186,
      "retail": 4187,
      "confir": 4188,
      "details": 4189,
      "swimming": 4190,
      "##uous": 4191,
      "##mar": 4192,
      "##tery": 4193,
      "shel": 4194,
      "grown": 4195,
      "windows": 4196,
      "argument": 4197,
      "task": 4198,
      "inqu": 4199,
      "stated": 4200,
      "throw": 4201,
      "audits": 4202,
      "illust": 4203,
      "conversation": 4204,
      "dedicated": 4205,
      "##nam": 4206,
      "##endish": 4207,
      "compon": 4208,
      "resident": 4209,
      "depends": 4210,
      "inspect": 4211,
      "##iro": 4212,
      "##inal": 4213,
      "tea": 4214,
      "bob": 4215,
      "numerous": 4216,
      "##place": 4217,
      "facilities": 4218,
      "##ancing": 4219,
      "arrived": 4220,
      "spirit": 4221,
      "gift": 4222,
      "tree": 4223,
      "##house": 4224,
      "##othing": 4225,
      "chem": 4226,
      "##oked": 4227,
      "##gry": 4228,
      "carri": 4229,
      "marriage": 4230,
      "##idden": 4231,
      "rough": 4232,
      "##gd": 4233,
      "forget": 4234,
      "asking": 4235,
      "heat": 4236,
      "boys": 4237,
      "counter": 4238,
      "returned": 4239,
      "cab": 4240,
      "lic": 4241,
      "length": 4242,
      "##ugh": 4243,
      "##equ": 4244,
      "users": 4245,
      "imper": 4246,
      "scand": 4247,
      "monaster": 4248,
      "issued": 4249,
      "options": 4250,
      "row": 4251,
      "##ding": 4252,
      "##bon": 4253,
      "##orters": 4254,
      "##oln": 4255,
      "##ulous": 4256,
      "quant": 4257,
      "##eyer": 4258,
      "guidance": 4259,
      "gdp": 4260,
      "##oti": 4261,
      "factor": 4262,
      "cuts": 4263,
      "irs": 4264,
      "malays": 4265,
      "female": 4266,
      "hyp": 4267,
      "dangerous": 4268,
      "cavendish": 4269,
      "horses": 4270,
      "somewhere": 4271,
      "relatively": 4272,
      "models": 4273,
      "refused": 4274,
      "jews": 4275,
      "contributions": 4276,
      "maintain": 4277,
      "democrats": 4278,
      "##incoln": 4279,
      "amazing": 4280,
      "bou": 4281,
      "cio": 4282,
      "lincoln": 4283,
      "noticed": 4284,
      "dece": 4285,
      "##unk": 4286,
      "fourth": 4287,
      "conducted": 4288,
      "vandem": 4289,
      "haw": 4290,
      "##cket": 4291,
      "outc": 4292,
      "roof": 4293,
      "consult": 4294,
      "instru": 4295,
      "topic": 4296,
      "burden": 4297,
      "shad": 4298,
      "carter": 4299,
      "leads": 4300,
      "moral": 4301,
      "driving": 4302,
      "##uk": 4303,
      "##erly": 4304,
      "sept": 4305,
      "vandemeyer": 4306,
      "##iy": 4307,
      "worried": 4308,
      "enh": 4309,
      "contain": 4310,
      "##akers": 4311,
      "restored": 4312,
      "##insky": 4313,
      "advis": 4314,
      "apartment": 4315,
      "##bal": 4316,
      "chic": 4317,
      "techniques": 4318,
      "sunday": 4319,
      "kar": 4320,
      "mile": 4321,
      "rome": 4322,
      "##ero": 4323,
      "##ched": 4324,
      "movement": 4325,
      "corporation": 4326,
      "constitution": 4327,
      "ol": 4328,
      "##ais": 4329,
      "compr": 4330,
      "contemp": 4331,
      "193": 4332,
      "decline": 4333,
      "academ": 4334,
      "edin": 4335,
      "steel": 4336,
      "dish": 4337,
      "por": 4338,
      "sar": 4339,
      "carved": 4340,
      "seek": 4341,
      "believes": 4342,
      "title": 4343,
      "april": 4344,
      "bound": 4345,
      "rub": 4346,
      "wit": 4347,
      "##ini": 4348,
      "satur": 4349,
      "magnific": 4350,
      "edinburgh": 4351,
      "cell": 4352,
      "fit": 4353,
      "##era": 4354,
      "marble": 4355,
      "2002": 4356,
      "perman": 4357,
      "192": 4358,
      "owned": 4359,
      "explained": 4360,
      "silver": 4361,
      "buddh": 4362,
      "##ulated": 4363,
      "fraud": 4364,
      "pray": 4365,
      "distance": 4366,
      "telling": 4367,
      "victor": 4368,
      "shrine": 4369,
      "herself": 4370,
      "william": 4371,
      "bat": 4372,
      "gal": 4373,
      "##tom": 4374,
      "owners": 4375,
      "instance": 4376,
      "productivity": 4377,
      "statues": 4378,
      "honest": 4379,
      "surrounded": 4380,
      "slowly": 4381,
      "afternoon": 4382,
      "shut": 4383,
      "lawn": 4384,
      "addressed": 4385,
      "screen": 4386,
      "january": 4387,
      "boring": 4388,
      "consequ": 4389,
      "speed": 4390,
      "slaves": 4391,
      "improved": 4392,
      "russian": 4393,
      "impressive": 4394,
      "apparently": 4395,
      "##iment": 4396,
      "ship": 4397,
      "seat": 4398,
      "lakes": 4399,
      "responsibilities": 4400,
      "suprem": 4401,
      "circumst": 4402,
      "hen": 4403,
      "##rate": 4404,
      "##ev": 4405,
      "##do": 4406,
      "forms": 4407,
      "##adel": 4408,
      "proceed": 4409,
      "saved": 4410,
      "symp": 4411,
      "explan": 4412,
      "eleg": 4413,
      "elements": 4414,
      "consistent": 4415,
      "sorry": 4416,
      "vacation": 4417,
      "gay": 4418,
      "waters": 4419,
      "##ii": 4420,
      "becoming": 4421,
      "queen": 4422,
      "coal": 4423,
      "schol": 4424,
      "putting": 4425,
      "pointed": 4426,
      "suddenly": 4427,
      "dry": 4428,
      "lond": 4429,
      "##hi": 4430,
      "compreh": 4431,
      "bright": 4432,
      "boats": 4433,
      "flight": 4434,
      "negoti": 4435,
      "nodded": 4436,
      "native": 4437,
      "nurs": 4438,
      "hasn": 4439,
      "tours": 4440,
      "illeg": 4441,
      "fairly": 4442,
      "mouth": 4443,
      "##arian": 4444,
      "meat": 4445,
      "content": 4446,
      "fired": 4447,
      "provid": 4448,
      "conclud": 4449,
      "stake": 4450,
      "rena": 4451,
      "damage": 4452,
      "selection": 4453,
      "message": 4454,
      "dropped": 4455,
      "##ught": 4456,
      "##hab": 4457,
      "whom": 4458,
      "##ront": 4459,
      "furn": 4460,
      "hat": 4461,
      "pia": 4462,
      "##inger": 4463,
      "recip": 4464,
      "plain": 4465,
      "resorts": 4466,
      "holding": 4467,
      "attractions": 4468,
      "physical": 4469,
      "london": 4470,
      "aim": 4471,
      "##well": 4472,
      "overs": 4473,
      "governments": 4474,
      "agreement": 4475,
      "negative": 4476,
      "principles": 4477,
      "innov": 4478,
      "nav": 4479,
      "va": 4480,
      "##atically": 4481,
      "##orary": 4482,
      "stage": 4483,
      "proud": 4484,
      "agric": 4485,
      "amend": 4486,
      "##ardship": 4487,
      "approxim": 4488,
      "advent": 4489,
      "runs": 4490,
      "facility": 4491,
      "teams": 4492,
      "picked": 4493,
      "neighb": 4494,
      "fixed": 4495,
      "hollywood": 4496,
      "300": 4497,
      "alex": 4498,
      "mond": 4499,
      "##ita": 4500,
      "##ishing": 4501,
      "##issance": 4502,
      "madeira": 4503,
      "visited": 4504,
      "interests": 4505,
      "discovered": 4506,
      "attempt": 4507,
      "agricult": 4508,
      "ice": 4509,
      "jump": 4510,
      "mc": 4511,
      "##aming": 4512,
      "##pping": 4513,
      "##agon": 4514,
      "rob": 4515,
      "letters": 4516,
      "broke": 4517,
      "##holders": 4518,
      "application": 4519,
      "freedom": 4520,
      "ber": 4521,
      "bure": 4522,
      "kent": 4523,
      "chann": 4524,
      "tru": 4525,
      "scene": 4526,
      "weekend": 4527,
      "border": 4528,
      "gamb": 4529,
      "##lers": 4530,
      "##itors": 4531,
      "hearing": 4532,
      "manner": 4533,
      "remark": 4534,
      "renaissance": 4535,
      "rat": 4536,
      "##ford": 4537,
      "##apt": 4538,
      "reductions": 4539,
      "defic": 4540,
      "roads": 4541,
      "entered": 4542,
      "piazz": 4543,
      "renn": 4544,
      "##stein": 4545,
      "##amble": 4546,
      "neat": 4547,
      "scott": 4548,
      "owner": 4549,
      "basically": 4550,
      "improvement": 4551,
      "communication": 4552,
      "photograph": 4553,
      "##encies": 4554,
      "employment": 4555,
      "hunt": 4556,
      "flowers": 4557,
      "##nic": 4558,
      "maxim": 4559,
      "defend": 4560,
      "balance": 4561,
      "electricity": 4562,
      "loan": 4563,
      "unfortunately": 4564,
      "spectacular": 4565,
      "##gment": 4566,
      "##com": 4567,
      "##ston": 4568,
      "1990": 4569,
      "memor": 4570,
      "documents": 4571,
      "challenge": 4572,
      "dyn": 4573,
      "fgd": 4574,
      "##bit": 4575,
      "thom": 4576,
      "clothing": 4577,
      "worksh": 4578,
      "learning": 4579,
      "##lies": 4580,
      "orient": 4581,
      "likes": 4582,
      "mechan": 4583,
      "##iza": 4584,
      "dism": 4585,
      "brad": 4586,
      "direction": 4587,
      "reasonable": 4588,
      "managed": 4589,
      "encourage": 4590,
      "safety": 4591,
      "bars": 4592,
      "fal": 4593,
      "gonna": 4594,
      "iv": 4595,
      "kitch": 4596,
      "##ville": 4597,
      "presence": 4598,
      "operating": 4599,
      "archae": 4600,
      "copy": 4601,
      "aliens": 4602,
      "##ription": 4603,
      "rennie": 4604,
      "##rence": 4605,
      "##ari": 4606,
      "##ida": 4607,
      "hero": 4608,
      "strate": 4609,
      "subsid": 4610,
      "approved": 4611,
      "typically": 4612,
      "secretary": 4613,
      "drop": 4614,
      "pound": 4615,
      "##east": 4616,
      "##thia": 4617,
      "unable": 4618,
      "smiled": 4619,
      "crowd": 4620,
      "bureau": 4621,
      "egg": 4622,
      "fill": 4623,
      "male": 4624,
      "sister": 4625,
      "centers": 4626,
      "monica": 4627,
      "extent": 4628,
      "museums": 4629,
      "terror": 4630,
      "sections": 4631,
      "friendly": 4632,
      "newspaper": 4633,
      "strategy": 4634,
      "##nel": 4635,
      "conqu": 4636,
      "suc": 4637,
      "fee": 4638,
      "scale": 4639,
      "communities": 4640,
      "patient": 4641,
      "churches": 4642,
      "punish": 4643,
      "shook": 4644,
      "video": 4645,
      "##iture": 4646,
      "howard": 4647,
      "smart": 4648,
      "perfectly": 4649,
      "succeed": 4650,
      "bond": 4651,
      "esc": 4652,
      "##pie": 4653,
      "##off": 4654,
      "whe": 4655,
      "ash": 4656,
      "aband": 4657,
      "cu": 4658,
      "pm": 4659,
      "carried": 4660,
      "incentives": 4661,
      "cynthia": 4662,
      "bod": 4663,
      "mas": 4664,
      "195": 4665,
      "emphas": 4666,
      "computers": 4667,
      "attractive": 4668,
      "regardless": 4669,
      "27": 4670,
      "##time": 4671,
      "##pm": 4672,
      "alive": 4673,
      "wearing": 4674,
      "placed": 4675,
      "##owned": 4676,
      "pover": 4677,
      "strict": 4678,
      "join": 4679,
      "belong": 4680,
      "##ashed": 4681,
      "explore": 4682,
      "kingdom": 4683,
      "orders": 4684,
      "reag": 4685,
      "carp": 4686,
      "fees": 4687,
      "attend": 4688,
      "governor": 4689,
      "oblig": 4690,
      "reviewed": 4691,
      "christmas": 4692,
      "penal": 4693,
      "soldiers": 4694,
      "hindu": 4695,
      "wil": 4696,
      "##icip": 4697,
      "resist": 4698,
      "salt": 4699,
      "magic": 4700,
      "pressure": 4701,
      "splend": 4702,
      "dole": 4703,
      "upset": 4704,
      "protest": 4705,
      "##what": 4706,
      "uncert": 4707,
      "customers": 4708,
      "mentioned": 4709,
      "adopted": 4710,
      "fascinating": 4711,
      "september": 4712,
      "magnificent": 4713,
      "onto": 4714,
      "enforce": 4715,
      "plus": 4716,
      "strategies": 4717,
      "purchase": 4718,
      "ox": 4719,
      "##aled": 4720,
      "##alia": 4721,
      "shape": 4722,
      "adequ": 4723,
      "covers": 4724,
      "harbor": 4725,
      "##zar": 4726,
      "##itation": 4727,
      "leather": 4728,
      "elimin": 4729,
      "edge": 4730,
      "barg": 4731,
      "religion": 4732,
      "guns": 4733,
      "poverty": 4734,
      "ought": 4735,
      "pyr": 4736,
      "##elve": 4737,
      "offering": 4738,
      "scot": 4739,
      "##others": 4740,
      "publish": 4741,
      "harm": 4742,
      "implemented": 4743,
      "eighty": 4744,
      "creating": 4745,
      "obviously": 4746,
      "fool": 4747,
      "tor": 4748,
      "##wards": 4749,
      "webs": 4750,
      "disag": 4751,
      "technologies": 4752,
      "processing": 4753,
      "advertising": 4754,
      "truly": 4755,
      "gri": 4756,
      "sather": 4757,
      "##cel": 4758,
      "storm": 4759,
      "##ulate": 4760,
      "somewhat": 4761,
      "intel": 4762,
      "underst": 4763,
      "##phere": 4764,
      "##eration": 4765,
      "##ico": 4766,
      "meetings": 4767,
      "detailed": 4768,
      "initiative": 4769,
      "proposal": 4770,
      "random": 4771,
      "fab": 4772,
      "##ares": 4773,
      "forest": 4774,
      "##umes": 4775,
      "wars": 4776,
      "effectively": 4777,
      "experienced": 4778,
      "absor": 4779,
      "debate": 4780,
      "recognize": 4781,
      "applied": 4782,
      "##rog": 4783,
      "provisions": 4784,
      "reality": 4785,
      "increases": 4786,
      "specifically": 4787,
      "fellow": 4788,
      "##heim": 4789,
      "criminal": 4790,
      "gentle": 4791,
      "sult": 4792,
      "##sa": 4793,
      "##icious": 4794,
      "shock": 4795,
      "divers": 4796,
      "advance": 4797,
      "focused": 4798,
      "replace": 4799,
      "sexual": 4800,
      "appeared": 4801,
      "materials": 4802,
      "reput": 4803,
      "##igned": 4804,
      "delight": 4805,
      "hardly": 4806,
      "landscape": 4807,
      "option": 4808,
      "initiatives": 4809,
      "symbol": 4810,
      "ny": 4811,
      "os": 4812,
      "leaves": 4813,
      "prime": 4814,
      "trail": 4815,
      "depos": 4816,
      "millions": 4817,
      "##while": 4818,
      "sharp": 4819,
      "slightly": 4820,
      "gross": 4821,
      "ky": 4822,
      "loans": 4823,
      "clin": 4824,
      "parks": 4825,
      "audience": 4826,
      "collections": 4827,
      "historic": 4828,
      "reliability": 4829,
      "sharing": 4830,
      "notes": 4831,
      "click": 4832,
      "launch": 4833,
      "emot": 4834,
      "napole": 4835,
      "witness": 4836,
      "nom": 4837,
      "##ober": 4838,
      "##aked": 4839,
      "teacher": 4840,
      "egyptian": 4841,
      "democratic": 4842,
      "urban": 4843,
      "festival": 4844,
      "occasion": 4845,
      "october": 4846,
      "kentuck": 4847,
      "ath": 4848,
      "thick": 4849,
      "cris": 4850,
      "charles": 4851,
      "calm": 4852,
      "awful": 4853,
      "80": 4854,
      "ba": 4855,
      "##za": 4856,
      "##erate": 4857,
      "accident": 4858,
      "instruct": 4859,
      "skies": 4860,
      "criteria": 4861,
      "loud": 4862,
      "forgot": 4863,
      "ot": 4864,
      "oce": 4865,
      "##water": 4866,
      "##irts": 4867,
      "sov": 4868,
      "syn": 4869,
      "defined": 4870,
      "supported": 4871,
      "happening": 4872,
      "britain": 4873,
      "distribution": 4874,
      "eligible": 4875,
      "elegant": 4876,
      "31": 4877,
      "##road": 4878,
      "transform": 4879,
      "trading": 4880,
      "package": 4881,
      "rapid": 4882,
      "experts": 4883,
      "supreme": 4884,
      "piazza": 4885,
      "##elled": 4886,
      "active": 4887,
      "decade": 4888,
      "belief": 4889,
      "calcul": 4890,
      "departments": 4891,
      "solution": 4892,
      "russia": 4893,
      "columns": 4894,
      "taste": 4895,
      "outcomes": 4896,
      "code": 4897,
      "eating": 4898,
      "##head": 4899,
      "##lets": 4900,
      "conven": 4901,
      "##ellig": 4902,
      "becomes": 4903,
      "expend": 4904,
      "##anged": 4905,
      "recover": 4906,
      "consumption": 4907,
      "missed": 4908,
      "privacy": 4909,
      "cutting": 4910,
      "customer": 4911,
      "bottom": 4912,
      "bust": 4913,
      "nic": 4914,
      "penn": 4915,
      "##gl": 4916,
      "anybody": 4917,
      "guil": 4918,
      "confidence": 4919,
      "villages": 4920,
      "purposes": 4921,
      "sufficient": 4922,
      "decorated": 4923,
      "illegal": 4924,
      "sick": 4925,
      "league": 4926,
      "contained": 4927,
      "partners": 4928,
      "poison": 4929,
      "decades": 4930,
      "possibly": 4931,
      "richard": 4932,
      "independence": 4933,
      "cere": 4934,
      "dance": 4935,
      "hide": 4936,
      "sides": 4937,
      "##alls": 4938,
      "overse": 4939,
      "artist": 4940,
      "cave": 4941,
      "1994": 4942,
      "effectiveness": 4943,
      "percentage": 4944,
      "classical": 4945,
      "beauty": 4946,
      "animal": 4947,
      "motiv": 4948,
      "closer": 4949,
      "90": 4950,
      "rh": 4951,
      "##iance": 4952,
      "##ket": 4953,
      "alloc": 4954,
      "carefully": 4955,
      "readers": 4956,
      "functions": 4957,
      "wooden": 4958,
      "selected": 4959,
      "ibiza": 4960,
      "appreciate": 4961,
      "lewinsky": 4962,
      "cable": 4963,
      "fant": 4964,
      "gates": 4965,
      "pages": 4966,
      "tent": 4967,
      "tel": 4968,
      "upper": 4969,
      "##ses": 4970,
      "##oto": 4971,
      "carol": 4972,
      "valid": 4973,
      "portion": 4974,
      "approximately": 4975,
      "cup": 4976,
      "dig": 4977,
      "##ties": 4978,
      "hey": 4979,
      "lucky": 4980,
      "unlike": 4981,
      "dust": 4982,
      "tired": 4983,
      "aside": 4984,
      "atmos": 4985,
      "plaza": 4986,
      "##acing": 4987,
      "bigger": 4988,
      "##ifications": 4989,
      "limits": 4990,
      "rebu": 4991,
      "elderly": 4992,
      "2a": 4993,
      "losing": 4994,
      "##hen": 4995,
      "##han": 4996,
      "atl": 4997,
      "##cco": 4998,
      "realized": 4999,
      "detect": 5000,
      "formal": 5001,
      "besides": 5002,
      "surpluses": 5003,
      "chicago": 5004,
      "circumstances": 5005,
      "atmosphere": 5006,
      "bau": 5007,
      "##hal": 5008,
      "##zed": 5009,
      "conver": 5010,
      "##ria": 5011,
      "crimes": 5012,
      "reducing": 5013,
      "professor": 5014,
      "litig": 5015,
      "pulled": 5016,
      "guilty": 5017,
      "cliff": 5018,
      "teen": 5019,
      "brill": 5020,
      "everywhere": 5021,
      "crus": 5022,
      "statewide": 5023,
      "assumed": 5024,
      "monday": 5025,
      "ped": 5026,
      "wing": 5027,
      "append": 5028,
      "phase": 5029,
      "continues": 5030,
      "baseball": 5031,
      "superv": 5032,
      "connection": 5033,
      "duty": 5034,
      "accurate": 5035,
      "cats": 5036,
      "pill": 5037,
      "##sey": 5038,
      "##ateau": 5039,
      "laid": 5040,
      "smith": 5041,
      "relief": 5042,
      "vision": 5043,
      "approval": 5044,
      "stup": 5045,
      "dogs": 5046,
      "sculpture": 5047,
      "essential": 5048,
      "##rofit": 5049,
      "iraq": 5050,
      "interpret": 5051,
      "ocean": 5052,
      "fought": 5053,
      "fields": 5054,
      "reject": 5055,
      "gods": 5056,
      "arms": 5057,
      "resol": 5058,
      "intellig": 5059,
      "remind": 5060,
      "supporting": 5061,
      "motor": 5062,
      "##craft": 5063,
      "26": 5064,
      "70": 5065,
      "hire": 5066,
      "##gar": 5067,
      "champ": 5068,
      "##antly": 5069,
      "overlo": 5070,
      "twelve": 5071,
      "background": 5072,
      "spec": 5073,
      "fewer": 5074,
      "napoleon": 5075,
      "pier": 5076,
      "##ls": 5077,
      "##orter": 5078,
      "organized": 5079,
      "journey": 5080,
      "teleph": 5081,
      "kenned": 5082,
      "nix": 5083,
      "rum": 5084,
      "##iation": 5085,
      "##zant": 5086,
      "##aling": 5087,
      "byzant": 5088,
      "yester": 5089,
      "representatives": 5090,
      "hole": 5091,
      "amounts": 5092,
      "penins": 5093,
      "displays": 5094,
      "stewardship": 5095,
      "scandal": 5096,
      "permanent": 5097,
      "scholars": 5098,
      "dim": 5099,
      "stars": 5100,
      "dise": 5101,
      "moon": 5102,
      "lawrence": 5103,
      "allows": 5104,
      "stuck": 5105,
      "describes": 5106,
      "medicine": 5107,
      "incorpor": 5108,
      "yesterday": 5109,
      "forb": 5110,
      "myst": 5111,
      "expos": 5112,
      "##agas": 5113,
      "remaining": 5114,
      "politicians": 5115,
      "replied": 5116,
      "frequently": 5117,
      "fo": 5118,
      "grants": 5119,
      "acid": 5120,
      "empty": 5121,
      "showing": 5122,
      "opening": 5123,
      "directors": 5124,
      "expectations": 5125,
      "primarily": 5126,
      "previously": 5127,
      "literature": 5128,
      "vren": 5129,
      "##bel": 5130,
      "##aka": 5131,
      "regional": 5132,
      "treasury": 5133,
      "intellect": 5134,
      "vrenna": 5135,
      "##la": 5136,
      "##elines": 5137,
      "##uts": 5138,
      "chose": 5139,
      "plat": 5140,
      "plays": 5141,
      "joined": 5142,
      "horrible": 5143,
      "grounds": 5144,
      "replaced": 5145,
      "efficiency": 5146,
      "bunch": 5147,
      "gang": 5148,
      "mut": 5149,
      "##ext": 5150,
      "##ented": 5151,
      "complic": 5152,
      "coord": 5153,
      "courty": 5154,
      "ends": 5155,
      "delay": 5156,
      "concert": 5157,
      "visiting": 5158,
      "fortress": 5159,
      "victims": 5160,
      "convin": 5161,
      "##umptions": 5162,
      "weapon": 5163,
      "schedul": 5164,
      "accomplish": 5165,
      "conservative": 5166,
      "fuel": 5167,
      "peninsula": 5168,
      "escape": 5169,
      "##uable": 5170,
      "##now": 5171,
      "larg": 5172,
      "protected": 5173,
      "explor": 5174,
      "paul": 5175,
      "15th": 5176,
      "birds": 5177,
      "fifteen": 5178,
      "pilgr": 5179,
      "troops": 5180,
      "scotland": 5181,
      "##rig": 5182,
      "##edy": 5183,
      "##ading": 5184,
      "##erson": 5185,
      "chronic": 5186,
      "##aker": 5187,
      "committed": 5188,
      "assume": 5189,
      "madrid": 5190,
      "catholic": 5191,
      "alien": 5192,
      "philos": 5193,
      "crafts": 5194,
      "comprehensive": 5195,
      "riding": 5196,
      "##rovers": 5197,
      "compens": 5198,
      "columb": 5199,
      "writ": 5200,
      "distinct": 5201,
      "turns": 5202,
      "facade": 5203,
      "buried": 5204,
      "turning": 5205,
      "scenes": 5206,
      "institute": 5207,
      "submitted": 5208,
      "mexico": 5209,
      "imperial": 5210,
      "nixon": 5211,
      "eag": 5212,
      "sab": 5213,
      "##greg": 5214,
      "##ura": 5215,
      "anse": 5216,
      "nep": 5217,
      "resource": 5218,
      "coop": 5219,
      "assumptions": 5220,
      "calling": 5221,
      "subsequ": 5222,
      "revol": 5223,
      "image": 5224,
      "manufactur": 5225,
      "dramatic": 5226,
      "comfortable": 5227,
      "##aly": 5228,
      "##itan": 5229,
      "##ulations": 5230,
      "spr": 5231,
      "##okes": 5232,
      "gray": 5233,
      "appoint": 5234,
      "auditor": 5235,
      "crazy": 5236,
      "significantly": 5237,
      "ordered": 5238,
      "virginia": 5239,
      "sultan": 5240,
      "23": 5241,
      "##enance": 5242,
      "sole": 5243,
      "##ells": 5244,
      "##iously": 5245,
      "##ugged": 5246,
      "careful": 5247,
      "confident": 5248,
      "sugar": 5249,
      "contrast": 5250,
      "tickets": 5251,
      "released": 5252,
      "reputation": 5253,
      "sale": 5254,
      "##lines": 5255,
      "##iber": 5256,
      "##ola": 5257,
      "unus": 5258,
      "feature": 5259,
      "##actions": 5260,
      "facts": 5261,
      "exclus": 5262,
      "possibility": 5263,
      "silence": 5264,
      "improvements": 5265,
      "appears": 5266,
      "consumer": 5267,
      "oversight": 5268,
      "appendix": 5269,
      "largely": 5270,
      "bout": 5271,
      "##yl": 5272,
      "bear": 5273,
      "whitting": 5274,
      "doors": 5275,
      "tourism": 5276,
      "presidential": 5277,
      "bird": 5278,
      "jim": 5279,
      "##ilit": 5280,
      "mans": 5281,
      "controvers": 5282,
      "stress": 5283,
      "jones": 5284,
      "broken": 5285,
      "represented": 5286,
      "achieved": 5287,
      "arrange": 5288,
      "observed": 5289,
      "mistake": 5290,
      "adults": 5291,
      "soph": 5292,
      "##uff": 5293,
      "##fa": 5294,
      "##jack": 5295,
      "##rees": 5296,
      "ages": 5297,
      "poland": 5298,
      "surf": 5299,
      "iii": 5300,
      "crisis": 5301,
      "nations": 5302,
      "##here": 5303,
      "##dy": 5304,
      "##uration": 5305,
      "helpful": 5306,
      "affairs": 5307,
      "ideal": 5308,
      "conflict": 5309,
      "territory": 5310,
      "whittington": 5311,
      "fer": 5312,
      "ww": 5313,
      "##life": 5314,
      "##icing": 5315,
      "##imp": 5316,
      "sport": 5317,
      "dial": 5318,
      "delivered": 5319,
      "##book": 5320,
      "surprise": 5321,
      "indiana": 5322,
      "franklin": 5323,
      "transportation": 5324,
      "##entially": 5325,
      "##urb": 5326,
      "shoes": 5327,
      "sew": 5328,
      "implic": 5329,
      "##acts": 5330,
      "assert": 5331,
      "jewel": 5332,
      "definition": 5333,
      "voting": 5334,
      "cig": 5335,
      "rare": 5336,
      "##nis": 5337,
      "spons": 5338,
      "recyc": 5339,
      "greatly": 5340,
      "investments": 5341,
      "raising": 5342,
      "silent": 5343,
      "necessarily": 5344,
      "expressed": 5345,
      "administrative": 5346,
      "liberal": 5347,
      "ring": 5348,
      "forever": 5349,
      "excess": 5350,
      "truck": 5351,
      "upd": 5352,
      "depress": 5353,
      "signs": 5354,
      "extensive": 5355,
      "steep": 5356,
      "viet": 5357,
      "holds": 5358,
      "failure": 5359,
      "##exp": 5360,
      "saturday": 5361,
      "kos": 5362,
      "pig": 5363,
      "##kn": 5364,
      "##icial": 5365,
      "youth": 5366,
      "forty": 5367,
      "chain": 5368,
      "expenses": 5369,
      "seeking": 5370,
      "artif": 5371,
      "cheaper": 5372,
      "structures": 5373,
      "##kyo": 5374,
      "##going": 5375,
      "tonight": 5376,
      "splendid": 5377,
      "uncertain": 5378,
      "bin": 5379,
      "tub": 5380,
      "##how": 5381,
      "##itals": 5382,
      "##lying": 5383,
      "proven": 5384,
      "##aging": 5385,
      "basket": 5386,
      "tells": 5387,
      "opera": 5388,
      "##employ": 5389,
      "typical": 5390,
      "banks": 5391,
      "expression": 5392,
      "doctors": 5393,
      "mercury": 5394,
      "bull": 5395,
      "dream": 5396,
      "lord": 5397,
      "peter": 5398,
      "vary": 5399,
      "##ingu": 5400,
      "tokyo": 5401,
      "pride": 5402,
      "highway": 5403,
      "plane": 5404,
      "sensitive": 5405,
      "folks": 5406,
      "muslim": 5407,
      "minimum": 5408,
      "alf": 5409,
      "##abilities": 5410,
      "##elling": 5411,
      "nox": 5412,
      "regulation": 5413,
      "1993": 5414,
      "recommended": 5415,
      "ridic": 5416,
      "sample": 5417,
      "chemical": 5418,
      "understood": 5419,
      "33": 5420,
      "##gs": 5421,
      "##eling": 5422,
      "trend": 5423,
      "monit": 5424,
      "promot": 5425,
      "surprising": 5426,
      "global": 5427,
      "dating": 5428,
      "ferry": 5429,
      "kings": 5430,
      "vent": 5431,
      "##rors": 5432,
      "##isted": 5433,
      "transition": 5434,
      "victory": 5435,
      "wealthy": 5436,
      "guidelines": 5437,
      "sulf": 5438,
      "##ship": 5439,
      "##ike": 5440,
      "##cas": 5441,
      "##ona": 5442,
      "##racy": 5443,
      "##ivals": 5444,
      "brick": 5445,
      "allowances": 5446,
      "facing": 5447,
      "domin": 5448,
      "flood": 5449,
      "devoted": 5450,
      "giant": 5451,
      "ultimately": 5452,
      "kennedy": 5453,
      "ire": 5454,
      "rar": 5455,
      "##rations": 5456,
      "##front": 5457,
      "##my": 5458,
      "##orrow": 5459,
      "stations": 5460,
      "lift": 5461,
      "##osen": 5462,
      "##ached": 5463,
      "##aken": 5464,
      "smoke": 5465,
      "##ologists": 5466,
      "stream": 5467,
      "testim": 5468,
      "improving": 5469,
      "claimed": 5470,
      "divor": 5471,
      "institution": 5472,
      "newspapers": 5473,
      "caves": 5474,
      "taught": 5475,
      "thor": 5476,
      "enth": 5477,
      "unemploy": 5478,
      "temper": 5479,
      "summary": 5480,
      "styles": 5481,
      "voters": 5482,
      "latest": 5483,
      "increasingly": 5484,
      "candidates": 5485,
      "pyram": 5486,
      "ble": 5487,
      "push": 5488,
      "friday": 5489,
      "##agger": 5490,
      "191": 5491,
      "writer": 5492,
      "johnson": 5493,
      "brain": 5494,
      "suggests": 5495,
      "destination": 5496,
      "thomas": 5497,
      "bradley": 5498,
      "punishment": 5499,
      "cous": 5500,
      "cried": 5501,
      "fda": 5502,
      "math": 5503,
      "stamp": 5504,
      "##rose": 5505,
      "angry": 5506,
      "dozen": 5507,
      "knock": 5508,
      "scared": 5509,
      "discr": 5510,
      "aircraft": 5511,
      "##ruction": 5512,
      "peaceful": 5513,
      "tomorrow": 5514,
      "welcome": 5515,
      "repeated": 5516,
      "monastery": 5517,
      "henry": 5518,
      "fans": 5519,
      "mig": 5520,
      "##uces": 5521,
      "##fri": 5522,
      "##gers": 5523,
      "##illy": 5524,
      "##stairs": 5525,
      "knowing": 5526,
      "##ella": 5527,
      "##arts": 5528,
      "diss": 5529,
      "blow": 5530,
      "portra": 5531,
      "treated": 5532,
      "listed": 5533,
      "attraction": 5534,
      "participate": 5535,
      "officer": 5536,
      "normally": 5537,
      "colorado": 5538,
      "category": 5539,
      "bronze": 5540,
      "residential": 5541,
      "29": 5542,
      "arc": 5543,
      "##asty": 5544,
      "quit": 5545,
      "coach": 5546,
      "scar": 5547,
      "##ints": 5548,
      "positions": 5549,
      "candidate": 5550,
      "00": 5551,
      "cod": 5552,
      "jail": 5553,
      "kil": 5554,
      "veter": 5555,
      "##inent": 5556,
      "feb": 5557,
      "harder": 5558,
      "merely": 5559,
      "consideration": 5560,
      "settlement": 5561,
      "prepare": 5562,
      "##works": 5563,
      "ack": 5564,
      "##itative": 5565,
      "##outs": 5566,
      "valuable": 5567,
      "ski": 5568,
      "memory": 5569,
      "exhibits": 5570,
      "pleasure": 5571,
      "nursing": 5572,
      "thorough": 5573,
      "kir": 5574,
      "accomm": 5575,
      "attrib": 5576,
      "investors": 5577,
      "measured": 5578,
      "competitive": 5579,
      "teaching": 5580,
      "applications": 5581,
      "germany": 5582,
      "begun": 5583,
      "ireland": 5584,
      "accommod": 5585,
      "tig": 5586,
      "tons": 5587,
      "clar": 5588,
      "preamble": 5589,
      "marked": 5590,
      "desk": 5591,
      "attest": 5592,
      "flower": 5593,
      "slim": 5594,
      "breed": 5595,
      "uncle": 5596,
      "attacks": 5597,
      "ignored": 5598,
      "accompan": 5599,
      "muslims": 5600,
      "commitment": 5601,
      "daniel": 5602,
      "satisf": 5603,
      "carolina": 5604,
      "stupid": 5605,
      "exposure": 5606,
      "acknow": 5607,
      "ment": 5608,
      "input": 5609,
      "whis": 5610,
      "reporters": 5611,
      "improper": 5612,
      "volcan": 5613,
      "choices": 5614,
      "sweet": 5615,
      "odd": 5616,
      "kick": 5617,
      "##oty": 5618,
      "##ads": 5619,
      "context": 5620,
      "monet": 5621,
      "officers": 5622,
      "sacred": 5623,
      "hidden": 5624,
      "pond": 5625,
      "##ias": 5626,
      "##eland": 5627,
      "clo": 5628,
      "studied": 5629,
      "perspective": 5630,
      "barely": 5631,
      "rising": 5632,
      "##box": 5633,
      "maintenance": 5634,
      "sacrif": 5635,
      "powers": 5636,
      "boulev": 5637,
      "dates": 5638,
      "ec": 5639,
      "wore": 5640,
      "##inem": 5641,
      "stared": 5642,
      "estate": 5643,
      "heads": 5644,
      "tennis": 5645,
      "turkey": 5646,
      "contribution": 5647,
      "occurred": 5648,
      "decrease": 5649,
      "scenario": 5650,
      "malaysia": 5651,
      "hawai": 5652,
      "soviet": 5653,
      "tight": 5654,
      "output": 5655,
      "outdo": 5656,
      "colors": 5657,
      "depending": 5658,
      "signed": 5659,
      "classes": 5660,
      "reference": 5661,
      "avoided": 5662,
      "articles": 5663,
      "communications": 5664,
      "carrying": 5665,
      "chairman": 5666,
      "december": 5667,
      "bork": 5668,
      "##ania": 5669,
      "buff": 5670,
      "serves": 5671,
      "drawn": 5672,
      "sentence": 5673,
      "survive": 5674,
      "expanded": 5675,
      "aspects": 5676,
      "fount": 5677,
      "##bles": 5678,
      "ships": 5679,
      "prove": 5680,
      "lovely": 5681,
      "poet": 5682,
      "emission": 5683,
      "feels": 5684,
      "admitted": 5685,
      "palest": 5686,
      "bills": 5687,
      "films": 5688,
      "turk": 5689,
      "settled": 5690,
      "maryland": 5691,
      "innoc": 5692,
      "categories": 5693,
      "providers": 5694,
      "ottom": 5695,
      "dar": 5696,
      "lately": 5697,
      "om": 5698,
      "##zing": 5699,
      "albert": 5700,
      "conce": 5701,
      "##rian": 5702,
      "brings": 5703,
      "##encing": 5704,
      "##ogue": 5705,
      "desire": 5706,
      "elabor": 5707,
      "1992": 5708,
      "corrupt": 5709,
      "economics": 5710,
      "considering": 5711,
      "natalia": 5712,
      "participation": 5713,
      "characters": 5714,
      "##ography": 5715,
      "14th": 5716,
      "applicable": 5717,
      "artifacts": 5718,
      "gif": 5719,
      "hated": 5720,
      "ramp": 5721,
      "##zone": 5722,
      "##amber": 5723,
      "incred": 5724,
      "legend": 5725,
      "entry": 5726,
      "elsewhere": 5727,
      "combination": 5728,
      "75": 5729,
      "##wan": 5730,
      "chat": 5731,
      "##iform": 5732,
      "assass": 5733,
      "minister": 5734,
      "thoughts": 5735,
      "surely": 5736,
      "collected": 5737,
      "enjo": 5738,
      "falling": 5739,
      "reliable": 5740,
      "2010": 5741,
      "##mark": 5742,
      "##bi": 5743,
      "anton": 5744,
      "##raw": 5745,
      "so2": 5746,
      "interim": 5747,
      "evolution": 5748,
      "keeps": 5749,
      "johnny": 5750,
      "venet": 5751,
      "##ipping": 5752,
      "reagan": 5753,
      "bauer": 5754,
      "400": 5755,
      "dining": 5756,
      "les": 5757,
      "exceed": 5758,
      "mah": 5759,
      "intent": 5760,
      "subt": 5761,
      "player": 5762,
      "exciting": 5763,
      "masterpie": 5764,
      "frequent": 5765,
      "borrow": 5766,
      "railway": 5767,
      "stretch": 5768,
      "francis": 5769,
      "shadow": 5770,
      "gor": 5771,
      "##point": 5772,
      "##inations": 5773,
      "lee": 5774,
      "user": 5775,
      "preserved": 5776,
      "##standing": 5777,
      "equally": 5778,
      "constructed": 5779,
      "principle": 5780,
      "earthqu": 5781,
      "restrictions": 5782,
      "sulfur": 5783,
      "element": 5784,
      "ug": 5785,
      "##hs": 5786,
      "inner": 5787,
      "usual": 5788,
      "gran": 5789,
      "cazar": 5790,
      "ruins": 5791,
      "projected": 5792,
      "solid": 5793,
      "argue": 5794,
      "cooking": 5795,
      "convention": 5796,
      "relationships": 5797,
      "sadd": 5798,
      "substantial": 5799,
      "nile": 5800,
      "pure": 5801,
      "pitch": 5802,
      "##20": 5803,
      "##ird": 5804,
      "asia": 5805,
      "asian": 5806,
      "shaped": 5807,
      "##bey": 5808,
      "tested": 5809,
      "##ruary": 5810,
      "anticip": 5811,
      "13th": 5812,
      "accuracy": 5813,
      "florida": 5814,
      "february": 5815,
      "dol": 5816,
      "mental": 5817,
      "##pes": 5818,
      "##pay": 5819,
      "##ja": 5820,
      "theat": 5821,
      "outl": 5822,
      "ours": 5823,
      "operation": 5824,
      "experiences": 5825,
      "judgment": 5826,
      "##ographic": 5827,
      "latin": 5828,
      "begins": 5829,
      "situations": 5830,
      "islamic": 5831,
      "scottish": 5832,
      "courtyard": 5833,
      "tab": 5834,
      "##rants": 5835,
      "##eff": 5836,
      "##anes": 5837,
      "toba": 5838,
      "##eline": 5839,
      "shif": 5840,
      "prosec": 5841,
      "chateau": 5842,
      "sust": 5843,
      "finish": 5844,
      "blade": 5845,
      "causes": 5846,
      "earned": 5847,
      "corps": 5848,
      "switch": 5849,
      "division": 5850,
      "telephone": 5851,
      "rarely": 5852,
      "kath": 5853,
      "rely": 5854,
      "##nn": 5855,
      "##bby": 5856,
      "##zes": 5857,
      "stead": 5858,
      "chest": 5859,
      "outcome": 5860,
      "reserv": 5861,
      "faced": 5862,
      "prev": 5863,
      "indians": 5864,
      "recall": 5865,
      "drag": 5866,
      "ceiling": 5867,
      "consequences": 5868,
      "enforcement": 5869,
      "disease": 5870,
      "bol": 5871,
      "gp": 5872,
      "util": 5873,
      "vul": 5874,
      "##fast": 5875,
      "enorm": 5876,
      "tail": 5877,
      "smoking": 5878,
      "##ternal": 5879,
      "graph": 5880,
      "mainly": 5881,
      "sixty": 5882,
      "beside": 5883,
      "buddhist": 5884,
      "stakeholders": 5885,
      "35": 5886,
      "cer": 5887,
      "cycle": 5888,
      "##rich": 5889,
      "##ki": 5890,
      "toxic": 5891,
      "reward": 5892,
      "stair": 5893,
      "explo": 5894,
      "disney": 5895,
      "recon": 5896,
      "visits": 5897,
      "weekly": 5898,
      "excited": 5899,
      "creation": 5900,
      "hunting": 5901,
      "galleries": 5902,
      "seriously": 5903,
      "crowded": 5904,
      "documentation": 5905,
      "sculptures": 5906,
      "ticket": 5907,
      "framework": 5908,
      "disagree": 5909,
      "core": 5910,
      "tone": 5911,
      "##right": 5912,
      "thin": 5913,
      "stab": 5914,
      "##che": 5915,
      "worship": 5916,
      "guided": 5917,
      "serving": 5918,
      "remar": 5919,
      "##resp": 5920,
      "driven": 5921,
      "staying": 5922,
      "rocks": 5923,
      "teachers": 5924,
      "requests": 5925,
      "combined": 5926,
      "##burg": 5927,
      "capture": 5928,
      "conclusion": 5929,
      "furniture": 5930,
      "##pan": 5931,
      "##erning": 5932,
      "##esty": 5933,
      "carib": 5934,
      "monuments": 5935,
      "flag": 5936,
      "handed": 5937,
      "grace": 5938,
      "winds": 5939,
      "##board": 5940,
      "divided": 5941,
      "hijack": 5942,
      "gambling": 5943,
      "testimony": 5944,
      "tobacco": 5945,
      "dens": 5946,
      "sought": 5947,
      "##ano": 5948,
      "inhab": 5949,
      "rein": 5950,
      "alle": 5951,
      "shared": 5952,
      "fruit": 5953,
      "uniform": 5954,
      "worker": 5955,
      "opposed": 5956,
      "##ructure": 5957,
      "winning": 5958,
      "implementing": 5959,
      "superb": 5960,
      "clubs": 5961,
      "kyoto": 5962,
      "jac": 5963,
      "kr": 5964,
      "##town": 5965,
      "##arm": 5966,
      "##adium": 5967,
      "sum": 5968,
      "faces": 5969,
      "finest": 5970,
      "blame": 5971,
      "judges": 5972,
      "towers": 5973,
      "bedroom": 5974,
      "violent": 5975,
      "celebrated": 5976,
      "investigation": 5977,
      "struggle": 5978,
      "mccain": 5979,
      "website": 5980,
      "##known": 5981,
      "28": 5982,
      "ozone": 5983,
      "ske": 5984,
      "tan": 5985,
      "orn": 5986,
      "##uese": 5987,
      "hoping": 5988,
      "dutch": 5989,
      "portuguese": 5990,
      "explanation": 5991,
      "channel": 5992,
      "abandoned": 5993,
      "turkish": 5994,
      "fro": 5995,
      "##rane": 5996,
      "##semb": 5997,
      "deem": 5998,
      "branch": 5999,
      "sets": 6000,
      "charged": 6001,
      "charming": 6002,
      "corp": 6003,
      "privile": 6004,
      "involving": 6005,
      "listening": 6006,
      "approaches": 6007,
      "characteristics": 6008,
      "latter": 6009,
      "folk": 6010,
      "cuba": 6011,
      "writers": 6012,
      "cigar": 6013,
      "boss": 6014,
      "##aver": 6015,
      "##bar": 6016,
      "##itures": 6017,
      "##isms": 6018,
      "chick": 6019,
      "##oster": 6020,
      "nov": 6021,
      "unknown": 6022,
      "lock": 6023,
      "whenever": 6024,
      "finn": 6025,
      "countryside": 6026,
      "financing": 6027,
      "harv": 6028,
      "150": 6029,
      "educational": 6030,
      "properly": 6031,
      "degrees": 6032,
      "erect": 6033,
      "pc": 6034,
      "##rad": 6035,
      "##aven": 6036,
      "##ota": 6037,
      "disaster": 6038,
      "persons": 6039,
      "warri": 6040,
      "existence": 6041,
      "renov": 6042,
      "arrive": 6043,
      "strike": 6044,
      "installation": 6045,
      "disappoint": 6046,
      "conclusions": 6047,
      "patterns": 6048,
      "penalty": 6049,
      "ae": 6050,
      "faster": 6051,
      "##rast": 6052,
      "##eing": 6053,
      "##tained": 6054,
      "##met": 6055,
      "##12": 6056,
      "attitude": 6057,
      "20th": 6058,
      "successfully": 6059,
      "priority": 6060,
      "vehicle": 6061,
      "agricultural": 6062,
      "complicated": 6063,
      "derry": 6064,
      "gau": 6065,
      "tues": 6066,
      "trop": 6067,
      "stable": 6068,
      "ham": 6069,
      "shift": 6070,
      "##estone": 6071,
      "##anta": 6072,
      "lively": 6073,
      "##orted": 6074,
      "aggress": 6075,
      "scary": 6076,
      "transl": 6077,
      "statist": 6078,
      "##annon": 6079,
      "remarkable": 6080,
      "aci": 6081,
      "fert": 6082,
      "pink": 6083,
      "##hor": 6084,
      "weird": 6085,
      "##istan": 6086,
      "mak": 6087,
      "impe": 6088,
      "expense": 6089,
      "fault": 6090,
      "marks": 6091,
      "instances": 6092,
      "personnel": 6093,
      "affair": 6094,
      "copies": 6095,
      "encouraged": 6096,
      "philosoph": 6097,
      "pit": 6098,
      "##af": 6099,
      "##ya": 6100,
      "##stream": 6101,
      "plastic": 6102,
      "monarch": 6103,
      "charges": 6104,
      "infrast": 6105,
      "sanct": 6106,
      "remembered": 6107,
      "hung": 6108,
      "survived": 6109,
      "weakness": 6110,
      "inspired": 6111,
      "comparison": 6112,
      "announced": 6113,
      "www": 6114,
      "ottoman": 6115,
      "##ranean": 6116,
      "32": 6117,
      "gagas": 6118,
      "rice": 6119,
      "wages": 6120,
      "##uze": 6121,
      "##case": 6122,
      "##asion": 6123,
      "stadium": 6124,
      "##usion": 6125,
      "##ushing": 6126,
      "trick": 6127,
      "##ubb": 6128,
      "relative": 6129,
      "finds": 6130,
      "concerning": 6131,
      "musee": 6132,
      "admit": 6133,
      "elected": 6134,
      "suffered": 6135,
      "inventory": 6136,
      "immigration": 6137,
      "cet": 6138,
      "##oir": 6139,
      "meal": 6140,
      "spin": 6141,
      "asset": 6142,
      "writes": 6143,
      "visibility": 6144,
      "puts": 6145,
      "healthy": 6146,
      "prompt": 6147,
      "facilit": 6148,
      "settle": 6149,
      "fresco": 6150,
      "adopt": 6151,
      "african": 6152,
      "unusual": 6153,
      "nur": 6154,
      "##coming": 6155,
      "reven": 6156,
      "smile": 6157,
      "parli": 6158,
      "basil": 6159,
      "metal": 6160,
      "elections": 6161,
      "stepped": 6162,
      "##aimed": 6163,
      "treaty": 6164,
      "links": 6165,
      "linked": 6166,
      "tombs": 6167,
      "regularly": 6168,
      "bodies": 6169,
      "adequate": 6170,
      "na": 6171,
      "pir": 6172,
      "wage": 6173,
      "##imate": 6174,
      "##essed": 6175,
      "map": 6176,
      "##ipa": 6177,
      "consol": 6178,
      "parent": 6179,
      "resulted": 6180,
      "cheer": 6181,
      "annually": 6182,
      "auditing": 6183,
      "generations": 6184,
      "ordinary": 6185,
      "principal": 6186,
      "embra": 6187,
      "climate": 6188,
      "instruments": 6189,
      "basketball": 6190,
      "avenue": 6191,
      "fena": 6192,
      "hud": 6193,
      "pine": 6194,
      "##uge": 6195,
      "##owed": 6196,
      "reserve": 6197,
      "shoulder": 6198,
      "publication": 6199,
      "formed": 6200,
      "electron": 6201,
      "accordance": 6202,
      "eleph": 6203,
      "pollut": 6204,
      "scientific": 6205,
      "enthus": 6206,
      "gop": 6207,
      "kl": 6208,
      "pair": 6209,
      "##fo": 6210,
      "##itable": 6211,
      "##omed": 6212,
      "##otes": 6213,
      "proved": 6214,
      "prohib": 6215,
      "##ighter": 6216,
      "abortion": 6217,
      "##ansas": 6218,
      "scope": 6219,
      "traum": 6220,
      "strang": 6221,
      "retired": 6222,
      "##hips": 6223,
      "classic": 6224,
      "practical": 6225,
      "ruled": 6226,
      "awards": 6227,
      "suspect": 6228,
      "answered": 6229,
      "error": 6230,
      "breakfast": 6231,
      "split": 6232,
      "engagement": 6233,
      "strugg": 6234,
      "removed": 6235,
      "components": 6236,
      "boulevard": 6237,
      "aer": 6238,
      "cinem": 6239,
      "cnn": 6240,
      "dome": 6241,
      "##quar": 6242,
      "compare": 6243,
      "residence": 6244,
      "trained": 6245,
      "analyses": 6246,
      "preferred": 6247,
      "sandy": 6248,
      "israeli": 6249,
      "colonial": 6250,
      "altar": 6251,
      "cabin": 6252,
      "expenditures": 6253,
      "species": 6254,
      "ugly": 6255,
      "##imination": 6256,
      "alb": 6257,
      "shirt": 6258,
      "lev": 6259,
      "canc": 6260,
      "plot": 6261,
      "somehow": 6262,
      "visible": 6263,
      "economists": 6264,
      "nonp": 6265,
      "researchers": 6266,
      "description": 6267,
      "traveling": 6268,
      "images": 6269,
      "bringing": 6270,
      "democracy": 6271,
      "crowds": 6272,
      "danger": 6273,
      "sleeping": 6274,
      "volunteer": 6275,
      "alfred": 6276,
      "parliament": 6277,
      "cios": 6278,
      "lying": 6279,
      "pace": 6280,
      "noise": 6281,
      "unw": 6282,
      "##aks": 6283,
      "pocket": 6284,
      "charl": 6285,
      "responses": 6286,
      "romans": 6287,
      "36": 6288,
      "lor": 6289,
      "torn": 6290,
      "##rates": 6291,
      "##ato": 6292,
      "orange": 6293,
      "##cipl": 6294,
      "##ensions": 6295,
      "desper": 6296,
      "parad": 6297,
      "disclos": 6298,
      "phr": 6299,
      "profits": 6300,
      "statistics": 6301,
      "addresses": 6302,
      "examined": 6303,
      "casual": 6304,
      "yellow": 6305,
      "amendment": 6306,
      "ridiculous": 6307,
      "rival": 6308,
      "roles": 6309,
      "vs": 6310,
      "wet": 6311,
      "##iguration": 6312,
      "##thy": 6313,
      "height": 6314,
      "unt": 6315,
      "accused": 6316,
      "joint": 6317,
      "performances": 6318,
      "mediter": 6319,
      "receiving": 6320,
      "represents": 6321,
      "sunset": 6322,
      "pottery": 6323,
      "mosa": 6324,
      "exhibit": 6325,
      "ethnic": 6326,
      "bags": 6327,
      "boilerm": 6328,
      "tin": 6329,
      "##oma": 6330,
      "##chal": 6331,
      "##aders": 6332,
      "##ante": 6333,
      "##enda": 6334,
      "cock": 6335,
      "##ensus": 6336,
      "recru": 6337,
      "explains": 6338,
      "examine": 6339,
      "legislative": 6340,
      "dorcas": 6341,
      "farmers": 6342,
      "machines": 6343,
      "enhance": 6344,
      "kosov": 6345,
      "hired": 6346,
      "jose": 6347,
      "jord": 6348,
      "lind": 6349,
      "rene": 6350,
      "##cast": 6351,
      "anth": 6352,
      "withd": 6353,
      "abbey": 6354,
      "canal": 6355,
      "blank": 6356,
      "palazz": 6357,
      "authent": 6358,
      "greuze": 6359,
      "holiday": 6360,
      "michel": 6361,
      "declared": 6362,
      "introduced": 6363,
      "mediterranean": 6364,
      "fiction": 6365,
      "nerv": 6366,
      "##comm": 6367,
      "##oupe": 6368,
      "ongoing": 6369,
      "everyday": 6370,
      "1990s": 6371,
      "promote": 6372,
      "describe": 6373,
      "requested": 6374,
      "defeat": 6375,
      "recipients": 6376,
      "alexander": 6377,
      "kitchen": 6378,
      "unemployment": 6379,
      "tip": 6380,
      "##ipt": 6381,
      "stroll": 6382,
      "##urally": 6383,
      "leon": 6384,
      "lean": 6385,
      "mayor": 6386,
      "smo": 6387,
      "advanced": 6388,
      "excuse": 6389,
      "securities": 6390,
      "continuing": 6391,
      "traveled": 6392,
      "appearance": 6393,
      "apartments": 6394,
      "examination": 6395,
      "release": 6396,
      "professionals": 6397,
      "wednes": 6398,
      "archaeological": 6399,
      "monitoring": 6400,
      "dun": 6401,
      "wound": 6402,
      "forum": 6403,
      "fran": 6404,
      "capable": 6405,
      "farther": 6406,
      "souven": 6407,
      "trips": 6408,
      "controlled": 6409,
      "involves": 6410,
      "killing": 6411,
      "contribute": 6412,
      "contracts": 6413,
      "physicians": 6414,
      "consumers": 6415,
      "astron": 6416,
      "festivals": 6417,
      "widely": 6418,
      "cousin": 6419,
      "ain": 6420,
      "bost": 6421,
      "vital": 6422,
      "prud": 6423,
      "faa": 6424,
      "presc": 6425,
      "supplement": 6426,
      "headed": 6427,
      "employers": 6428,
      "cream": 6429,
      "promise": 6430,
      "objects": 6431,
      "eleven": 6432,
      "heavily": 6433,
      "administrator": 6434,
      "cuis": 6435,
      "vietnam": 6436,
      "gpra": 6437,
      "stark": 6438,
      "habit": 6439,
      "shore": 6440,
      "exemp": 6441,
      "##anda": 6442,
      "canada": 6443,
      "ads": 6444,
      "conscious": 6445,
      "evil": 6446,
      "cairo": 6447,
      "handsome": 6448,
      "opinions": 6449,
      "byzantine": 6450,
      "infrastructure": 6451,
      "souvenir": 6452,
      "boston": 6453,
      "cy": 6454,
      "dancing": 6455,
      "wise": 6456,
      "alleg": 6457,
      "##the": 6458,
      "##ouses": 6459,
      "buchan": 6460,
      "resulting": 6461,
      "receipt": 6462,
      "blacks": 6463,
      "drawing": 6464,
      "cruise": 6465,
      "prosper": 6466,
      "disappear": 6467,
      "situated": 6468,
      "karf": 6469,
      "kentucky": 6470,
      "compensation": 6471,
      "nepal": 6472,
      "attestation": 6473,
      "kore": 6474,
      "stairs": 6475,
      "##tering": 6476,
      "nowhere": 6477,
      "assumption": 6478,
      "visitor": 6479,
      "missing": 6480,
      "allowing": 6481,
      "12th": 6482,
      "recorded": 6483,
      "panel": 6484,
      "substance": 6485,
      "indicate": 6486,
      "hersheim": 6487,
      "occasionally": 6488,
      "elaborate": 6489,
      "tuesday": 6490,
      "hersheimmer": 6491,
      "bos": 6492,
      "gains": 6493,
      "rams": 6494,
      "sna": 6495,
      "##iant": 6496,
      "inland": 6497,
      "haz": 6498,
      "##adays": 6499,
      "##opes": 6500,
      "sheep": 6501,
      "quiz": 6502,
      "discipl": 6503,
      "nowadays": 6504,
      "locations": 6505,
      "pope": 6506,
      "protoc": 6507,
      "northwest": 6508,
      "operate": 6509,
      "managing": 6510,
      "periods": 6511,
      "strip": 6512,
      "africa": 6513,
      "litigation": 6514,
      "jewelry": 6515,
      "enormous": 6516,
      "hes": 6517,
      "sits": 6518,
      "neck": 6519,
      "##oken": 6520,
      "locals": 6521,
      "##ception": 6522,
      "waited": 6523,
      "epis": 6524,
      "acceptable": 6525,
      "demands": 6526,
      "achieving": 6527,
      "maintained": 6528,
      "##oxide": 6529,
      "minority": 6530,
      "jordan": 6531,
      "authentic": 6532,
      "bench": 6533,
      "##ingly": 6534,
      "##illes": 6535,
      "chamb": 6536,
      "repair": 6537,
      "lav": 6538,
      "triump": 6539,
      "189": 6540,
      "1980s": 6541,
      "malay": 6542,
      "colorful": 6543,
      "installed": 6544,
      "buddha": 6545,
      "dismiss": 6546,
      "vulner": 6547,
      "ak": 6548,
      "dil": 6549,
      "pad": 6550,
      "rac": 6551,
      "##lv": 6552,
      "##lor": 6553,
      "##agues": 6554,
      "downtown": 6555,
      "barri": 6556,
      "taxi": 6557,
      "directed": 6558,
      "permit": 6559,
      "unlikely": 6560,
      "vegetables": 6561,
      "enemies": 6562,
      "diversity": 6563,
      "ax": 6564,
      "pin": 6565,
      "rig": 6566,
      "rational": 6567,
      "##oque": 6568,
      "##acc": 6569,
      "heaven": 6570,
      "joy": 6571,
      "caf": 6572,
      "emer": 6573,
      "palais": 6574,
      "dealing": 6575,
      "falls": 6576,
      "fifth": 6577,
      "reforms": 6578,
      "magazines": 6579,
      "hanging": 6580,
      "criminals": 6581,
      "contemporary": 6582,
      "recycling": 6583,
      "buchanan": 6584,
      "dre": 6585,
      "ow": 6586,
      "sau": 6587,
      "ze": 6588,
      "##oly": 6589,
      "##inian": 6590,
      "isol": 6591,
      "asc": 6592,
      "assemb": 6593,
      "chamber": 6594,
      "manual": 6595,
      "diverse": 6596,
      "acting": 6597,
      "##angel": 6598,
      "informed": 6599,
      "curious": 6600,
      "nonf": 6601,
      "##rupted": 6602,
      "venice": 6603,
      "discovery": 6604,
      "premature": 6605,
      "enemy": 6606,
      "neighbors": 6607,
      "gig": 6608,
      "tape": 6609,
      "##ician": 6610,
      "frag": 6611,
      "chosen": 6612,
      "gosh": 6613,
      "nove": 6614,
      "##oured": 6615,
      "imposing": 6616,
      "##ipe": 6617,
      "funchal": 6618,
      "musical": 6619,
      "declined": 6620,
      "captured": 6621,
      "satisfact": 6622,
      "wheel": 6623,
      "statistical": 6624,
      "cant": 6625,
      "##kins": 6626,
      "##bra": 6627,
      "tool": 6628,
      "##itated": 6629,
      "weigh": 6630,
      "##agn": 6631,
      "##under": 6632,
      "studying": 6633,
      "##idding": 6634,
      "romantic": 6635,
      "riders": 6636,
      "integrated": 6637,
      "memorial": 6638,
      "implications": 6639,
      "smooth": 6640,
      "file": 6641,
      "##tan": 6642,
      "##gate": 6643,
      "thurs": 6644,
      "dear": 6645,
      "noble": 6646,
      "upstairs": 6647,
      "##ifies": 6648,
      "tech": 6649,
      "yours": 6650,
      "blind": 6651,
      "designs": 6652,
      "morris": 6653,
      "accessible": 6654,
      "architectural": 6655,
      "quietly": 6656,
      "analyst": 6657,
      "groc": 6658,
      "terrace": 6659,
      "november": 6660,
      "bour": 6661,
      "dict": 6662,
      "pont": 6663,
      "tu": 6664,
      "##rep": 6665,
      "##urd": 6666,
      "exotic": 6667,
      "##ques": 6668,
      "unified": 6669,
      "roc": 6670,
      "invasion": 6671,
      "requiring": 6672,
      "severe": 6673,
      "mailers": 6674,
      "raj": 6675,
      "##whel": 6676,
      "seconds": 6677,
      "figured": 6678,
      "identity": 6679,
      "agreements": 6680,
      "answers": 6681,
      "optim": 6682,
      "establishing": 6683,
      "mandatory": 6684,
      "praise": 6685,
      "immigrants": 6686,
      "hypoth": 6687,
      "pounds": 6688,
      "converted": 6689,
      "55": 6690,
      "600": 6691,
      "hou": 6692,
      "hug": 6693,
      "lined": 6694,
      "##bul": 6695,
      "##isters": 6696,
      "##uting": 6697,
      "sha": 6698,
      "##abled": 6699,
      "delic": 6700,
      "performing": 6701,
      "productive": 6702,
      "iran": 6703,
      "universal": 6704,
      "juan": 6705,
      "hospitals": 6706,
      "laughed": 6707,
      "concluded": 6708,
      "deficit": 6709,
      "aege": 6710,
      "luc": 6711,
      "tas": 6712,
      "##iors": 6713,
      "##don": 6714,
      "##cr": 6715,
      "orch": 6716,
      "donations": 6717,
      "modest": 6718,
      "mini": 6719,
      "deliber": 6720,
      "extended": 6721,
      "walks": 6722,
      "passing": 6723,
      "authors": 6724,
      "volunt": 6725,
      "##engers": 6726,
      "encoun": 6727,
      "prince": 6728,
      "similarly": 6729,
      "referred": 6730,
      "errors": 6731,
      "extreme": 6732,
      "closely": 6733,
      "ibm": 6734,
      "spiritual": 6735,
      "dynasty": 6736,
      "pilgrims": 6737,
      "wednesday": 6738,
      "aegean": 6739,
      "bible": 6740,
      "diction": 6741,
      "fing": 6742,
      "rode": 6743,
      "##iate": 6744,
      "##days": 6745,
      "##amental": 6746,
      "##thouse": 6747,
      "hast": 6748,
      "dioxide": 6749,
      "boards": 6750,
      "simpl": 6751,
      "corresp": 6752,
      "topics": 6753,
      "##like": 6754,
      "limestone": 6755,
      "representative": 6756,
      "authorities": 6757,
      "solic": 6758,
      "constantly": 6759,
      "bowl": 6760,
      "correspond": 6761,
      "45": 6762,
      "nuc": 6763,
      "ram": 6764,
      "sel": 6765,
      "##ij": 6766,
      "##har": 6767,
      "##attered": 6768,
      "##itage": 6769,
      "##keep": 6770,
      "locked": 6771,
      "partner": 6772,
      "guadel": 6773,
      "prize": 6774,
      "metric": 6775,
      "factory": 6776,
      "employed": 6777,
      "landsc": 6778,
      "projections": 6779,
      "popularity": 6780,
      "victim": 6781,
      "duke": 6782,
      "lewis": 6783,
      "nucle": 6784,
      "lu": 6785,
      "sights": 6786,
      "##bound": 6787,
      "threw": 6788,
      "##ros": 6789,
      "shout": 6790,
      "proof": 6791,
      "##osition": 6792,
      "grade": 6793,
      "captain": 6794,
      "valuation": 6795,
      "portray": 6796,
      "nato": 6797,
      "administer": 6798,
      "##attle": 6799,
      "recognition": 6800,
      "corporations": 6801,
      "evaluate": 6802,
      "apparel": 6803,
      "integrity": 6804,
      "inquir": 6805,
      "ramses": 6806,
      "lam": 6807,
      "##iated": 6808,
      "exists": 6809,
      "imposed": 6810,
      "struck": 6811,
      "soul": 6812,
      "baroque": 6813,
      "feelings": 6814,
      "lands": 6815,
      "terrif": 6816,
      "passengers": 6817,
      "pleased": 6818,
      "committees": 6819,
      "commerce": 6820,
      "denied": 6821,
      "femin": 6822,
      "pilot": 6823,
      "qualified": 6824,
      "subsequent": 6825,
      "astronom": 6826,
      "guadeloupe": 6827,
      "cyc": 6828,
      "jr": 6829,
      "rod": 6830,
      "vine": 6831,
      "##oms": 6832,
      "beer": 6833,
      "knife": 6834,
      "##iva": 6835,
      "##apes": 6836,
      "##icted": 6837,
      "regions": 6838,
      "personally": 6839,
      "southwest": 6840,
      "oppon": 6841,
      "addressing": 6842,
      "determining": 6843,
      "impression": 6844,
      "proposals": 6845,
      "puert": 6846,
      "pushed": 6847,
      "wolf": 6848,
      "##iot": 6849,
      "##bour": 6850,
      "##eds": 6851,
      "##omach": 6852,
      "##vered": 6853,
      "##illing": 6854,
      "spa": 6855,
      "uncon": 6856,
      "myster": 6857,
      "theme": 6858,
      "expans": 6859,
      "overwhel": 6860,
      "heritage": 6861,
      "cents": 6862,
      "assurance": 6863,
      "supplies": 6864,
      "courses": 6865,
      "taxpay": 6866,
      "creative": 6867,
      "indicated": 6868,
      "conservatives": 6869,
      "comprom": 6870,
      "platform": 6871,
      "tropical": 6872,
      "frescoes": 6873,
      "dir": 6874,
      "jur": 6875,
      "zero": 6876,
      "thro": 6877,
      "##cher": 6878,
      "wash": 6879,
      "external": 6880,
      "##uns": 6881,
      "##une": 6882,
      "humans": 6883,
      "lessons": 6884,
      "##bean": 6885,
      "refuge": 6886,
      "salary": 6887,
      "##arrass": 6888,
      "multi": 6889,
      "flying": 6890,
      "jackson": 6891,
      "burned": 6892,
      "forgotten": 6893,
      "ceram": 6894,
      "consolid": 6895,
      "chambers": 6896,
      "##rating": 6897,
      "##aust": 6898,
      "##ko": 6899,
      "##oration": 6900,
      "forec": 6901,
      "##mental": 6902,
      "crash": 6903,
      "employer": 6904,
      "scenarios": 6905,
      "component": 6906,
      "carrier": 6907,
      "acknowled": 6908,
      "innocent": 6909,
      "cos": 6910,
      "pla": 6911,
      "##ubs": 6912,
      "acts": 6913,
      "pools": 6914,
      "starts": 6915,
      "fundamental": 6916,
      "encl": 6917,
      "paperwork": 6918,
      "grande": 6919,
      "##awa": 6920,
      "embarrass": 6921,
      "luxury": 6922,
      "confirmed": 6923,
      "interpretation": 6924,
      "divorce": 6925,
      "earthquake": 6926,
      "dame": 6927,
      "##alf": 6928,
      "shell": 6929,
      "frust": 6930,
      "tran": 6931,
      "aggreg": 6932,
      "indig": 6933,
      "flav": 6934,
      "obtained": 6935,
      "handling": 6936,
      "swung": 6937,
      "exclud": 6938,
      "passage": 6939,
      "drivers": 6940,
      "breaking": 6941,
      "blocks": 6942,
      "returns": 6943,
      "dressed": 6944,
      "sophistic": 6945,
      "gifts": 6946,
      "houston": 6947,
      "aven": 6948,
      "gained": 6949,
      "mothers": 6950,
      "naz": 6951,
      "till": 6952,
      "##oons": 6953,
      "##wa": 6954,
      "thri": 6955,
      "shil": 6956,
      "shannon": 6957,
      "boom": 6958,
      "monop": 6959,
      "skill": 6960,
      "airport": 6961,
      "northeast": 6962,
      "destruction": 6963,
      "motion": 6964,
      "drove": 6965,
      "martinique": 6966,
      "oriented": 6967,
      "bread": 6968,
      "dying": 6969,
      "gap": 6970,
      "piz": 6971,
      "rust": 6972,
      "tables": 6973,
      "##lied": 6974,
      "##inate": 6975,
      "stry": 6976,
      "##irm": 6977,
      "unre": 6978,
      "newly": 6979,
      "crown": 6980,
      "filed": 6981,
      "entering": 6982,
      "wondered": 6983,
      "methodology": 6984,
      "coastal": 6985,
      "objective": 6986,
      "ignore": 6987,
      "fabric": 6988,
      "intellectual": 6989,
      "chicken": 6990,
      "erected": 6991,
      "bern": 6992,
      "pent": 6993,
      "rit": 6994,
      "##uits": 6995,
      "##sp": 6996,
      "##ester": 6997,
      "##oli": 6998,
      "weekends": 6999,
      "pacif": 7000,
      "hoped": 7001,
      "authorized": 7002,
      "crack": 7003,
      "difficulty": 7004,
      "diving": 7005,
      "voted": 7006,
      "purchased": 7007,
      "opposition": 7008,
      "mixed": 7009,
      "ninet": 7010,
      "caribbean": 7011,
      "impeach": 7012,
      "renew": 7013,
      "dirty": 7014,
      "strychn": 7015,
      "800": 7016,
      "auction": 7017,
      "nipa": 7018,
      "##esis": 7019,
      "##iration": 7020,
      "ate": 7021,
      "myth": 7022,
      "resem": 7023,
      "guides": 7024,
      "monte": 7025,
      "relating": 7026,
      "highlight": 7027,
      "provision": 7028,
      "supports": 7029,
      "demon": 7030,
      "milk": 7031,
      "distingu": 7032,
      "transm": 7033,
      "swing": 7034,
      "considerable": 7035,
      "injured": 7036,
      "adjustment": 7037,
      "surplus": 7038,
      "vehicles": 7039,
      "##friend": 7040,
      "theatre": 7041,
      "nurse": 7042,
      "kosovo": 7043,
      "shiloh": 7044,
      "strychnine": 7045,
      "mit": 7046,
      "##war": 7047,
      "hamm": 7048,
      "liqu": 7049,
      "smell": 7050,
      "constra": 7051,
      "equival": 7052,
      "housed": 7053,
      "burning": 7054,
      "granted": 7055,
      "sculpted": 7056,
      "recommendation": 7057,
      "concentration": 7058,
      "earnings": 7059,
      "seventy": 7060,
      "editorial": 7061,
      "fcc": 7062,
      "pag": 7063,
      "##inos": 7064,
      "##atoes": 7065,
      "##stone": 7066,
      "187": 7067,
      "influenced": 7068,
      "ladin": 7069,
      "georg": 7070,
      "crucial": 7071,
      "relaxed": 7072,
      "austral": 7073,
      "merchant": 7074,
      "license": 7075,
      "mystery": 7076,
      "manufacturers": 7077,
      "pyramid": 7078,
      "venetian": 7079,
      "album": 7080,
      "aic": 7081,
      "sons": 7082,
      "##night": 7083,
      "##gen": 7084,
      "toler": 7085,
      "reaction": 7086,
      "##utory": 7087,
      "##idays": 7088,
      "##uls": 7089,
      "##aine": 7090,
      "##usc": 7091,
      "##udes": 7092,
      "secure": 7093,
      "experiment": 7094,
      "beautifully": 7095,
      "murd": 7096,
      "christianity": 7097,
      "complaint": 7098,
      "etc": 7099,
      "bombing": 7100,
      "virtually": 7101,
      "outdoor": 7102,
      "93": 7103,
      "dull": 7104,
      "lod": 7105,
      "pp": 7106,
      "pund": 7107,
      "##pit": 7108,
      "##esque": 7109,
      "##ales": 7110,
      "##areness": 7111,
      "##ima": 7112,
      "trends": 7113,
      "##aki": 7114,
      "surg": 7115,
      "plano": 7116,
      "absence": 7117,
      "unfair": 7118,
      "damaged": 7119,
      "globe": 7120,
      "mexican": 7121,
      "cum": 7122,
      "cater": 7123,
      "fond": 7124,
      "ros": 7125,
      "wt": 7126,
      "anx": 7127,
      "##thod": 7128,
      "undert": 7129,
      "adding": 7130,
      "designated": 7131,
      "confused": 7132,
      "statutory": 7133,
      "maintaining": 7134,
      "portugal": 7135,
      "bic": 7136,
      "jazz": 7137,
      "ron": 7138,
      "##eas": 7139,
      "##fl": 7140,
      "##ka": 7141,
      "ineff": 7142,
      "stor": 7143,
      "##olis": 7144,
      "doz": 7145,
      "agenda": 7146,
      "diam": 7147,
      "actor": 7148,
      "remove": 7149,
      "##scrib": 7150,
      "clever": 7151,
      "beneath": 7152,
      "transactions": 7153,
      "covering": 7154,
      "marketing": 7155,
      "awareness": 7156,
      "##boys": 7157,
      "coastline": 7158,
      "fallen": 7159,
      "initially": 7160,
      "acquired": 7161,
      "institutions": 7162,
      "gathered": 7163,
      "sewing": 7164,
      "aicpa": 7165,
      "95": 7166,
      "bare": 7167,
      "fel": 7168,
      "nit": 7169,
      "##zo": 7170,
      "##organ": 7171,
      "##isely": 7172,
      "##aux": 7173,
      "guests": 7174,
      "remote": 7175,
      "presents": 7176,
      "reader": 7177,
      "medica": 7178,
      "campus": 7179,
      "southeast": 7180,
      "palm": 7181,
      "steven": 7182,
      "dealers": 7183,
      "enterpr": 7184,
      "settings": 7185,
      "hitler": 7186,
      "striking": 7187,
      "ninety": 7188,
      "shelter": 7189,
      "delightful": 7190,
      "veterans": 7191,
      "trauma": 7192,
      "protocols": 7193,
      "hars": 7194,
      "ly": 7195,
      "vin": 7196,
      "##fall": 7197,
      "##isk": 7198,
      "##essions": 7199,
      "fright": 7200,
      "sees": 7201,
      "nose": 7202,
      "190": 7203,
      "monitor": 7204,
      "produc": 7205,
      "edition": 7206,
      "trials": 7207,
      "certification": 7208,
      "excurs": 7209,
      "ceo": 7210,
      "craw": 7211,
      "argued": 7212,
      "##riptions": 7213,
      "swords": 7214,
      "lifet": 7215,
      "mobile": 7216,
      "roughly": 7217,
      "false": 7218,
      "rapidly": 7219,
      "boutiques": 7220,
      "basilica": 7221,
      "palazzo": 7222,
      "dat": 7223,
      "zoo": 7224,
      "##istent": 7225,
      "##usted": 7226,
      "##eller": 7227,
      "recre": 7228,
      "decent": 7229,
      "trails": 7230,
      "summar": 7231,
      "identifying": 7232,
      "poorly": 7233,
      "subjects": 7234,
      "alternatives": 7235,
      "##ettes": 7236,
      "premium": 7237,
      "advocates": 7238,
      "involvement": 7239,
      "guarantee": 7240,
      "explorer": 7241,
      "discrimination": 7242,
      "dies": 7243,
      "horn": 7244,
      "rot": 7245,
      "##rent": 7246,
      "##irable": 7247,
      "sail": 7248,
      "loy": 7249,
      "offset": 7250,
      "lasted": 7251,
      "childhood": 7252,
      "talks": 7253,
      "profile": 7254,
      "balanced": 7255,
      "woods": 7256,
      "supervis": 7257,
      "hawaii": 7258,
      "##thodox": 7259,
      "medicaid": 7260,
      "37": 7261,
      "dup": 7262,
      "lion": 7263,
      "mild": 7264,
      "pays": 7265,
      "##va": 7266,
      "inher": 7267,
      "##rete": 7268,
      "stomach": 7269,
      "##olitan": 7270,
      "##istry": 7271,
      "enact": 7272,
      "outstanding": 7273,
      "exposed": 7274,
      "incident": 7275,
      "##agraph": 7276,
      "disg": 7277,
      "indo": 7278,
      "##licit": 7279,
      "throne": 7280,
      "reluct": 7281,
      "##lands": 7282,
      "flour": 7283,
      "retreat": 7284,
      "publications": 7285,
      "patron": 7286,
      "monthly": 7287,
      "passion": 7288,
      "palaces": 7289,
      "armed": 7290,
      "inflation": 7291,
      "expecting": 7292,
      "connected": 7293,
      "arrested": 7294,
      "ensuring": 7295,
      "attacked": 7296,
      "fulf": 7297,
      "confirm": 7298,
      "deficits": 7299,
      "rebuilt": 7300,
      "cliffs": 7301,
      "controversial": 7302,
      "##rest": 7303,
      "##lights": 7304,
      "##mir": 7305,
      "##inity": 7306,
      "##any": 7307,
      "##ican": 7308,
      "beard": 7309,
      "proph": 7310,
      "conj": 7311,
      "cha": 7312,
      "spoken": 7313,
      "##ems": 7314,
      "##ache": 7315,
      "##aches": 7316,
      "##lock": 7317,
      "mons": 7318,
      "assigned": 7319,
      "handled": 7320,
      "planet": 7321,
      "viewed": 7322,
      "significance": 7323,
      "checked": 7324,
      "speaker": 7325,
      "shrines": 7326,
      "innovative": 7327,
      "maximum": 7328,
      "fingers": 7329,
      "finger": 7330,
      "ls": 7331,
      "prest": 7332,
      "unh": 7333,
      "agents": 7334,
      "##agers": 7335,
      "intention": 7336,
      "carbon": 7337,
      "reconst": 7338,
      "legit": 7339,
      "genu": 7340,
      "entit": 7341,
      "temporary": 7342,
      "statute": 7343,
      "solutions": 7344,
      "illin": 7345,
      "reaching": 7346,
      "focuses": 7347,
      "deaths": 7348,
      "traditionally": 7349,
      "##ourage": 7350,
      "treasures": 7351,
      "lifesty": 7352,
      "songs": 7353,
      "carriers": 7354,
      "constitutional": 7355,
      "intelligence": 7356,
      "portrait": 7357,
      "kirby": 7358,
      "42": 7359,
      "fox": 7360,
      "mun": 7361,
      "tied": 7362,
      "##ih": 7363,
      "##aa": 7364,
      "##aff": 7365,
      "##vings": 7366,
      "inev": 7367,
      "##ashing": 7368,
      "notre": 7369,
      "deserve": 7370,
      "##ocaust": 7371,
      "##ologist": 7372,
      "allowance": 7373,
      "stops": 7374,
      "promised": 7375,
      "holocaust": 7376,
      "assessing": 7377,
      "jersey": 7378,
      "languages": 7379,
      "superior": 7380,
      "establishment": 7381,
      "injury": 7382,
      "picturesque": 7383,
      "defeated": 7384,
      "illinois": 7385,
      "oak": 7386,
      "wow": 7387,
      "wol": 7388,
      "##field": 7389,
      "anc": 7390,
      "seas": 7391,
      "comedy": 7392,
      "##ighters": 7393,
      "##ardo": 7394,
      "useless": 7395,
      "warning": 7396,
      "editors": 7397,
      "delhi": 7398,
      "deter": 7399,
      "badly": 7400,
      "##lessly": 7401,
      "villa": 7402,
      "hopes": 7403,
      "travelers": 7404,
      "illness": 7405,
      "exhibition": 7406,
      "extraord": 7407,
      "measurement": 7408,
      "boris": 7409,
      "sticks": 7410,
      "wtp": 7411,
      "nich": 7412,
      "pupp": 7413,
      "##ym": 7414,
      "##unning": 7415,
      "outs": 7416,
      "pregn": 7417,
      "belt": 7418,
      "warn": 7419,
      "simon": 7420,
      "patri": 7421,
      "prototy": 7422,
      "solve": 7423,
      "arrest": 7424,
      "supposedly": 7425,
      "##bbed": 7426,
      "automated": 7427,
      "florence": 7428,
      "cryst": 7429,
      "cowboys": 7430,
      "ghost": 7431,
      "convinced": 7432,
      "columbus": 7433,
      "fountain": 7434,
      "cuisine": 7435,
      "thursday": 7436,
      "az": 7437,
      "foster": 7438,
      "gulf": 7439,
      "hiring": 7440,
      "tie": 7441,
      "inject": 7442,
      "reign": 7443,
      "react": 7444,
      "shade": 7445,
      "shirts": 7446,
      "##opher": 7447,
      "suits": 7448,
      "##oda": 7449,
      "##00s": 7450,
      "provin": 7451,
      "define": 7452,
      "letting": 7453,
      "economically": 7454,
      "behalf": 7455,
      "driver": 7456,
      "silk": 7457,
      "assistant": 7458,
      "neglect": 7459,
      "broadcast": 7460,
      "hiking": 7461,
      "photo": 7462,
      "injuries": 7463,
      "touched": 7464,
      "ultimate": 7465,
      "rejected": 7466,
      "dozens": 7467,
      "39": 7468,
      "hatch": 7469,
      "theories": 7470,
      "##erable": 7471,
      "hav": 7472,
      "##roph": 7473,
      "abroad": 7474,
      "spo": 7475,
      "paragraph": 7476,
      "depth": 7477,
      "metrop": 7478,
      "terminal": 7479,
      "##liers": 7480,
      "networks": 7481,
      "rocky": 7482,
      "##onym": 7483,
      "historically": 7484,
      "customs": 7485,
      "interviews": 7486,
      "collabor": 7487,
      "sympath": 7488,
      "atlanta": 7489,
      "surface": 7490,
      "##quarters": 7491,
      "cot": 7492,
      "##trol": 7493,
      "##makers": 7494,
      "stal": 7495,
      "preced": 7496,
      "score": 7497,
      "##erman": 7498,
      "meanwhile": 7499,
      "moderate": 7500,
      "retrof": 7501,
      "discusses": 7502,
      "wondering": 7503,
      "strongly": 7504,
      "substit": 7505,
      "attempts": 7506,
      "garb": 7507,
      "journalists": 7508,
      "homeland": 7509,
      "prospect": 7510,
      "resistance": 7511,
      "antonio": 7512,
      "tasks": 7513,
      "99": 7514,
      "##gage": 7515,
      "##wr": 7516,
      "##alle": 7517,
      "##ulating": 7518,
      "suic": 7519,
      "cans": 7520,
      "usa": 7521,
      "prepar": 7522,
      "##load": 7523,
      "margin": 7524,
      "membership": 7525,
      "alike": 7526,
      "impressed": 7527,
      "reflects": 7528,
      "procedure": 7529,
      "verd": 7530,
      "rolling": 7531,
      "fantastic": 7532,
      "uncertainty": 7533,
      "sauce": 7534,
      "nuclear": 7535,
      "vend": 7536,
      "yield": 7537,
      "##oning": 7538,
      "##orious": 7539,
      "toph": 7540,
      "##urred": 7541,
      "deals": 7542,
      "polish": 7543,
      "fled": 7544,
      "talent": 7545,
      "nights": 7546,
      "files": 7547,
      "christians": 7548,
      "priorities": 7549,
      "permitted": 7550,
      "treasure": 7551,
      "concerts": 7552,
      "nonprofit": 7553,
      "joseph": 7554,
      "franco": 7555,
      "satisfaction": 7556,
      "viney": 7557,
      "topham": 7558,
      "dot": 7559,
      "fancy": 7560,
      "lag": 7561,
      "##orous": 7562,
      "##isons": 7563,
      "##olate": 7564,
      "unne": 7565,
      "loves": 7566,
      "##erves": 7567,
      "marvel": 7568,
      "legs": 7569,
      "subur": 7570,
      "drunk": 7571,
      "edward": 7572,
      "mainland": 7573,
      "horror": 7574,
      "soldier": 7575,
      "greece": 7576,
      "crose": 7577,
      "responded": 7578,
      "boxes": 7579,
      "discounts": 7580,
      "advertise": 7581,
      "occasional": 7582,
      "challenging": 7583,
      "derived": 7584,
      "##rogen": 7585,
      "harsh": 7586,
      "ari": 7587,
      "dal": 7588,
      "elev": 7589,
      "nh": 7590,
      "tort": 7591,
      "##rical": 7592,
      "##mand": 7593,
      "##ault": 7594,
      "##xual": 7595,
      "##eled": 7596,
      "##owing": 7597,
      "##amm": 7598,
      "sequ": 7599,
      "abc": 7600,
      "assign": 7601,
      "schem": 7602,
      "acres": 7603,
      "retain": 7604,
      "transaction": 7605,
      "apolog": 7606,
      "ruling": 7607,
      "1989": 7608,
      "##sylv": 7609,
      "displayed": 7610,
      "quarterback": 7611,
      "bathroom": 7612,
      "graduate": 7613,
      "macau": 7614,
      "academic": 7615,
      "carpet": 7616,
      "pennsylv": 7617,
      "pierre": 7618,
      "mathem": 7619,
      "sacrifice": 7620,
      "granite": 7621,
      "prosecut": 7622,
      "aerob": 7623,
      "nervous": 7624,
      "lifetime": 7625,
      "datab": 7626,
      "loyal": 7627,
      "##hem": 7628,
      "##ati": 7629,
      "##orca": 7630,
      "stim": 7631,
      "anger": 7632,
      "lips": 7633,
      "compound": 7634,
      "gras": 7635,
      "marry": 7636,
      "##athers": 7637,
      "##ocr": 7638,
      "serb": 7639,
      "heading": 7640,
      "greet": 7641,
      "discussions": 7642,
      "esp": 7643,
      "hillary": 7644,
      "colleagues": 7645,
      "dominated": 7646,
      "turks": 7647,
      "campaigns": 7648,
      "deeply": 7649,
      "engineer": 7650,
      "celebrate": 7651,
      "camera": 7652,
      "contrary": 7653,
      "profitable": 7654,
      "emphasis": 7655,
      "eliminate": 7656,
      "convenient": 7657,
      "steady": 7658,
      "inhabit": 7659,
      "cete": 7660,
      "enthusi": 7661,
      "phrase": 7662,
      "cage": 7663,
      "cott": 7664,
      "dirt": 7665,
      "rivers": 7666,
      "wines": 7667,
      "zone": 7668,
      "##rison": 7669,
      "##ll": 7670,
      "##fish": 7671,
      "##atures": 7672,
      "yep": 7673,
      "worn": 7674,
      "comply": 7675,
      "accum": 7676,
      "monks": 7677,
      "personality": 7678,
      "headquarters": 7679,
      "admission": 7680,
      "cultures": 7681,
      "fashioned": 7682,
      "fashionable": 7683,
      "submit": 7684,
      "immediate": 7685,
      "utility": 7686,
      "targets": 7687,
      "occupied": 7688,
      "tapes": 7689,
      "bonds": 7690,
      "masterpiece": 7691,
      "ornate": 7692,
      "crop": 7693,
      "ceter": 7694,
      "pushing": 7695,
      "##ker": 7696,
      "##bc": 7697,
      "##10": 7698,
      "##inction": 7699,
      "bears": 7700,
      "##char": 7701,
      "alab": 7702,
      "nema": 7703,
      "libert": 7704,
      "tact": 7705,
      "commod": 7706,
      "invited": 7707,
      "flaw": 7708,
      "phen": 7709,
      "concrete": 7710,
      "refers": 7711,
      "186": 7712,
      "rulers": 7713,
      "demanded": 7714,
      "drinks": 7715,
      "exception": 7716,
      "wedding": 7717,
      "mirac": 7718,
      "adventure": 7719,
      "bargain": 7720,
      "enjoys": 7721,
      "bauerstein": 7722,
      "pennsylvania": 7723,
      "fet": 7724,
      "fate": 7725,
      "fbi": 7726,
      "##vre": 7727,
      "notable": 7728,
      "prol": 7729,
      "conrad": 7730,
      "##quis": 7731,
      "quint": 7732,
      "reprod": 7733,
      "cares": 7734,
      "owns": 7735,
      "1991": 7736,
      "restoration": 7737,
      "farming": 7738,
      "musc": 7739,
      "exploring": 7740,
      "princess": 7741,
      "suffer": 7742,
      "demonstration": 7743,
      "fortune": 7744,
      "guaranteed": 7745,
      "advisory": 7746,
      "monetary": 7747,
      "weaknesses": 7748,
      "prosperity": 7749,
      "puerto": 7750,
      "unnecess": 7751,
      "duck": 7752,
      "gest": 7753,
      "riv": 7754,
      "##rome": 7755,
      "##iner": 7756,
      "##alo": 7757,
      "##rets": 7758,
      "stained": 7759,
      "##uscan": 7760,
      "##ello": 7761,
      "brut": 7762,
      "brothers": 7763,
      "boost": 7764,
      "poly": 7765,
      "mood": 7766,
      "thrown": 7767,
      "directions": 7768,
      "naturally": 7769,
      "wave": 7770,
      "polls": 7771,
      "sweep": 7772,
      "rapier": 7773,
      "jeans": 7774,
      "tapest": 7775,
      "ratio": 7776,
      "strictly": 7777,
      "brilliant": 7778,
      "springs": 7779,
      "density": 7780,
      "pump": 7781,
      "ted": 7782,
      "##fare": 7783,
      "reorgan": 7784,
      "##sters": 7785,
      "stan": 7786,
      "socc": 7787,
      "spare": 7788,
      "explicit": 7789,
      "carvings": 7790,
      "colony": 7791,
      "traged": 7792,
      "evol": 7793,
      "obsc": 7794,
      "produces": 7795,
      "racial": 7796,
      "refres": 7797,
      "enjoyable": 7798,
      "worthy": 7799,
      "competing": 7800,
      "regarded": 7801,
      "circle": 7802,
      "commonly": 7803,
      "babies": 7804,
      "expertise": 7805,
      "adjusted": 7806,
      "staircase": 7807,
      "philosophy": 7808,
      "facilitate": 7809,
      "revenues": 7810,
      "disclosure": 7811,
      "soccer": 7812,
      "ging": 7813,
      "hm": 7814,
      "mwe": 7815,
      "nas": 7816,
      "pitt": 7817,
      "ry": 7818,
      "rib": 7819,
      "##ui": 7820,
      "##lord": 7821,
      "##oric": 7822,
      "##elle": 7823,
      "##stit": 7824,
      "stones": 7825,
      "##olta": 7826,
      "##illa": 7827,
      "soil": 7828,
      "pron": 7829,
      "attended": 7830,
      "moor": 7831,
      "moors": 7832,
      "whereas": 7833,
      "ohio": 7834,
      "slave": 7835,
      "caps": 7836,
      "phara": 7837,
      "mines": 7838,
      "simulation": 7839,
      "generated": 7840,
      "credibility": 7841,
      "holidays": 7842,
      "stronger": 7843,
      "quarters": 7844,
      "gateway": 7845,
      "jeff": 7846,
      "retailers": 7847,
      "dictionary": 7848,
      "hastings": 7849,
      "nineteen": 7850,
      "34": 7851,
      "44": 7852,
      "48": 7853,
      "bart": 7854,
      "pap": 7855,
      "##lah": 7856,
      "##mother": 7857,
      "##born": 7858,
      "##isan": 7859,
      "##cho": 7860,
      "orthodox": 7861,
      "exha": 7862,
      "peas": 7863,
      "slaver": 7864,
      "##ugs": 7865,
      "publicly": 7866,
      "excav": 7867,
      "oklah": 7868,
      "leaf": 7869,
      "representing": 7870,
      "industries": 7871,
      "descend": 7872,
      "assessments": 7873,
      "observation": 7874,
      "merchants": 7875,
      "transferred": 7876,
      "francisco": 7877,
      "pizza": 7878,
      "tack": 7879,
      "##mony": 7880,
      "##esth": 7881,
      "##ouri": 7882,
      "##idable": 7883,
      "##imental": 7884,
      "shiva": 7885,
      "notion": 7886,
      "proc": 7887,
      "adapt": 7888,
      "perth": 7889,
      "overcome": 7890,
      "warrant": 7891,
      "obst": 7892,
      "elastic": 7893,
      "stephen": 7894,
      "couples": 7895,
      "modeling": 7896,
      "referral": 7897,
      "suffering": 7898,
      "indicates": 7899,
      "wildlife": 7900,
      "attempted": 7901,
      "scrut": 7902,
      "camer": 7903,
      "dependent": 7904,
      "aimed": 7905,
      "succeeded": 7906,
      "osaka": 7907,
      "scheduled": 7908,
      "triumph": 7909,
      "throat": 7910,
      "pacific": 7911,
      "impeachment": 7912,
      "slavery": 7913,
      "crew": 7914,
      "nar": 7915,
      "oly": 7916,
      "wan": 7917,
      "wool": 7918,
      "##ran": 7919,
      "##jo": 7920,
      "##ora": 7921,
      "tok": 7922,
      "##ching": 7923,
      "abund": 7924,
      "ark": 7925,
      "themes": 7926,
      "commem": 7927,
      "coron": 7928,
      "hardware": 7929,
      "engaged": 7930,
      "distract": 7931,
      "accountable": 7932,
      "availability": 7933,
      "satell": 7934,
      "120": 7935,
      "suggestions": 7936,
      "appropriations": 7937,
      "madonna": 7938,
      "romanesque": 7939,
      "contractor": 7940,
      "jungle": 7941,
      "arrival": 7942,
      "legislature": 7943,
      "reflected": 7944,
      "installations": 7945,
      "1970s": 7946,
      "connections": 7947,
      "1960s": 7948,
      "homeless": 7949,
      "neighborhoods": 7950,
      "dramatically": 7951,
      "eggs": 7952,
      "surprisingly": 7953,
      "exempt": 7954,
      "expansion": 7955,
      "surgery": 7956,
      "cotton": 7957,
      "65": 7958,
      "cited": 7959,
      "cfo": 7960,
      "mud": 7961,
      "nick": 7962,
      "pav": 7963,
      "rab": 7964,
      "tut": 7965,
      "##laimed": 7966,
      "##hand": 7967,
      "inches": 7968,
      "whip": 7969,
      "unexp": 7970,
      "trump": 7971,
      "dipl": 7972,
      "revised": 7973,
      "tripp": 7974,
      "transpar": 7975,
      "refuse": 7976,
      "sixth": 7977,
      "shortly": 7978,
      "balear": 7979,
      "device": 7980,
      "renowned": 7981,
      "bike": 7982,
      "integration": 7983,
      "literally": 7984,
      "prisoner": 7985,
      "utter": 7986,
      "applies": 7987,
      "fatal": 7988,
      "peaks": 7989,
      "academy": 7990,
      "athlet": 7991,
      "ceremony": 7992,
      "eager": 7993,
      "exclusive": 7994,
      "mansion": 7995,
      "analysts": 7996,
      "olymp": 7997,
      "01": 7998,
      "bib": 7999,
      "hc": 8000,
      "kel": 8001,
      "sorts": 8002,
      "vig": 8003,
      "##ga": 8004,
      "##aire": 8005,
      "##down": 8006,
      "##bits": 8007,
      "##anas": 8008,
      "istan": 8009,
      "gov": 8010,
      "##rapped": 8011,
      "##ounced": 8012,
      "scout": 8013,
      "##irect": 8014,
      "joke": 8015,
      "spear": 8016,
      "visa": 8017,
      "ruined": 8018,
      "tries": 8019,
      "2005": 8020,
      "wake": 8021,
      "listened": 8022,
      "recording": 8023,
      "1980": 8024,
      "references": 8025,
      "appeals": 8026,
      "paths": 8027,
      "demonstrate": 8028,
      "counseling": 8029,
      "announce": 8030,
      "emotional": 8031,
      "fantas": 8032,
      "boilermakers": 8033,
      "hcfa": 8034,
      "istanbul": 8035,
      "ko": 8036,
      "lau": 8037,
      "##liss": 8038,
      "chin": 8039,
      "exit": 8040,
      "##udi": 8041,
      "outra": 8042,
      "moreover": 8043,
      "twin": 8044,
      "##iana": 8045,
      "invaded": 8046,
      "suppliers": 8047,
      "flash": 8048,
      "generate": 8049,
      "prominent": 8050,
      "antiques": 8051,
      "civilization": 8052,
      "cataly": 8053,
      "failing": 8054,
      "drawings": 8055,
      "evaluations": 8056,
      "threatened": 8057,
      "assuming": 8058,
      "repeat": 8059,
      "suspic": 8060,
      "concentrations": 8061,
      "revealed": 8062,
      "alleged": 8063,
      "jacob": 8064,
      "warriors": 8065,
      "inhabitants": 8066,
      "gingrich": 8067,
      "tends": 8068,
      "wick": 8069,
      "xiv": 8070,
      "yach": 8071,
      "##vas": 8072,
      "therap": 8073,
      "##ongh": 8074,
      "hamp": 8075,
      "procl": 8076,
      "apple": 8077,
      "script": 8078,
      "afgh": 8079,
      "wanting": 8080,
      "shoulders": 8081,
      "attached": 8082,
      "instinct": 8083,
      "2020": 8084,
      "calend": 8085,
      "traditions": 8086,
      "reasonably": 8087,
      "execution": 8088,
      "hillside": 8089,
      "acceptance": 8090,
      "godd": 8091,
      "battles": 8092,
      "mandates": 8093,
      "essentially": 8094,
      "distributed": 8095,
      "demonstrated": 8096,
      "meaningful": 8097,
      "engagements": 8098,
      "puzz": 8099,
      "inspection": 8100,
      "dishes": 8101,
      "chatter": 8102,
      "withdraw": 8103,
      "grocery": 8104,
      "sophisticated": 8105,
      "##mandu": 8106,
      "aerobics": 8107,
      "49": 8108,
      "98": 8109,
      "dwell": 8110,
      "lists": 8111,
      "pension": 8112,
      "##enberg": 8113,
      "##ader": 8114,
      "butter": 8115,
      "##ieur": 8116,
      "sailing": 8117,
      "##endous": 8118,
      "##oks": 8119,
      "timely": 8120,
      "payroll": 8121,
      "barnes": 8122,
      "email": 8123,
      "porto": 8124,
      "attracted": 8125,
      "princes": 8126,
      "beds": 8127,
      "arranged": 8128,
      "banned": 8129,
      "districts": 8130,
      "purchases": 8131,
      "expanding": 8132,
      "prayer": 8133,
      "bustling": 8134,
      "skept": 8135,
      "cancer": 8136,
      "paradise": 8137,
      "lifestyle": 8138,
      "extraordinary": 8139,
      "oklahoma": 8140,
      "aqu": 8141,
      "cem": 8142,
      "cree": 8143,
      "hates": 8144,
      "kash": 8145,
      "ms": 8146,
      "rides": 8147,
      "vba": 8148,
      "##rous": 8149,
      "##oe": 8150,
      "##gal": 8151,
      "##ider": 8152,
      "stall": 8153,
      "neut": 8154,
      "choc": 8155,
      "##oped": 8156,
      "abb": 8157,
      "univer": 8158,
      "cloud": 8159,
      "aged": 8160,
      "evident": 8161,
      "##ressed": 8162,
      "populations": 8163,
      "passes": 8164,
      "steve": 8165,
      "steam": 8166,
      "measuring": 8167,
      "argues": 8168,
      "fleet": 8169,
      "hearings": 8170,
      "circus": 8171,
      "straw": 8172,
      "mandate": 8173,
      "bottle": 8174,
      "losses": 8175,
      "suitable": 8176,
      "territories": 8177,
      "beliefs": 8178,
      "ceremon": 8179,
      "volcanic": 8180,
      "kathmandu": 8181,
      "voluntary": 8182,
      "ceramics": 8183,
      "crystal": 8184,
      "retrofits": 8185,
      "diplom": 8186,
      "kashmir": 8187,
      "universe": 8188,
      "pist": 8189,
      "slo": 8190,
      "tong": 8191,
      "##orse": 8192,
      "##ederal": 8193,
      "##oul": 8194,
      "inch": 8195,
      "##asso": 8196,
      "##urning": 8197,
      "##child": 8198,
      "shorter": 8199,
      "seats": 8200,
      "spots": 8201,
      "clou": 8202,
      "workforce": 8203,
      "##achus": 8204,
      "persu": 8205,
      "worldwide": 8206,
      "beneficial": 8207,
      "communist": 8208,
      "summit": 8209,
      "arches": 8210,
      "balcon": 8211,
      "competitors": 8212,
      "contributed": 8213,
      "votes": 8214,
      "engineers": 8215,
      "physically": 8216,
      "literary": 8217,
      "borders": 8218,
      "introduction": 8219,
      "incentive": 8220,
      "porch": 8221,
      "victorian": 8222,
      "prudie": 8223,
      "hazard": 8224,
      "##angelo": 8225,
      "nitrogen": 8226,
      "prestig": 8227,
      "baza": 8228,
      "faint": 8229,
      "rush": 8230,
      "vic": 8231,
      "##uel": 8232,
      "##kin": 8233,
      "inexp": 8234,
      "##eld": 8235,
      "##imm": 8236,
      "exquis": 8237,
      "abra": 8238,
      "##osh": 8239,
      "lobby": 8240,
      "comptrol": 8241,
      "fake": 8242,
      "grin": 8243,
      "ourselves": 8244,
      "capita": 8245,
      "causing": 8246,
      "##ugawa": 8247,
      "easter": 8248,
      "skilled": 8249,
      "extend": 8250,
      "crete": 8251,
      "trem": 8252,
      "promen": 8253,
      "minded": 8254,
      "devast": 8255,
      "11th": 8256,
      "formerly": 8257,
      "casino": 8258,
      "crops": 8259,
      "affects": 8260,
      "achievement": 8261,
      "##related": 8262,
      "precisely": 8263,
      "tribes": 8264,
      "scientists": 8265,
      "agriculture": 8266,
      "launched": 8267,
      "intelligent": 8268,
      "suicide": 8269,
      "goddess": 8270,
      "comptroller": 8271,
      "dc": 8272,
      "honey": 8273,
      "mol": 8274,
      "pork": 8275,
      "pale": 8276,
      "punch": 8277,
      "sending": 8278,
      "ts": 8279,
      "##falls": 8280,
      "##vy": 8281,
      "##vic": 8282,
      "##bled": 8283,
      "forests": 8284,
      "##amic": 8285,
      "##ador": 8286,
      "shog": 8287,
      "worsh": 8288,
      "trash": 8289,
      "impose": 8290,
      "offs": 8291,
      "precious": 8292,
      "buses": 8293,
      "tale": 8294,
      "barry": 8295,
      "lesson": 8296,
      "milan": 8297,
      "technological": 8298,
      "classification": 8299,
      "receives": 8300,
      "volumes": 8301,
      "dealt": 8302,
      "educated": 8303,
      "argent": 8304,
      "snork": 8305,
      "overseas": 8306,
      "convince": 8307,
      "privilege": 8308,
      "aggressive": 8309,
      "tragedy": 8310,
      "unexpected": 8311,
      "38": 8312,
      "bree": 8313,
      "dy": 8314,
      "dud": 8315,
      "dumb": 8316,
      "kiss": 8317,
      "lin": 8318,
      "naked": 8319,
      "ties": 8320,
      "vivid": 8321,
      "##mate": 8322,
      "##vin": 8323,
      "##vag": 8324,
      "##alg": 8325,
      "##itudes": 8326,
      "stro": 8327,
      "##olished": 8328,
      "hect": 8329,
      "severn": 8330,
      "incidents": 8331,
      "contest": 8332,
      "grate": 8333,
      "underground": 8334,
      "##iano": 8335,
      "moham": 8336,
      "format": 8337,
      "hungry": 8338,
      "massachus": 8339,
      "breaks": 8340,
      "germans": 8341,
      "catal": 8342,
      "fails": 8343,
      "extravag": 8344,
      "mistakes": 8345,
      "hosts": 8346,
      "matching": 8347,
      "proceedings": 8348,
      "sponsored": 8349,
      "satisfied": 8350,
      "conventional": 8351,
      "commemor": 8352,
      "700": 8353,
      "bh": 8354,
      "dances": 8355,
      "kle": 8356,
      "mere": 8357,
      "rating": 8358,
      "wished": 8359,
      "##inter": 8360,
      "##omo": 8361,
      "##igan": 8362,
      "fred": 8363,
      "intake": 8364,
      "brid": 8365,
      "##active": 8366,
      "wrest": 8367,
      "warned": 8368,
      "producing": 8369,
      "follows": 8370,
      "188": 8371,
      "currency": 8372,
      "armor": 8373,
      "obser": 8374,
      "circular": 8375,
      "davis": 8376,
      "sensit": 8377,
      "duties": 8378,
      "flexible": 8379,
      "complain": 8380,
      "limitations": 8381,
      "pursu": 8382,
      "boiler": 8383,
      "amendments": 8384,
      "subsidy": 8385,
      "escaped": 8386,
      "clinical": 8387,
      "skiing": 8388,
      "pollutants": 8389,
      "michelangelo": 8390,
      "disappeared": 8391,
      "monsieur": 8392,
      "garbage": 8393,
      "pharaoh": 8394,
      "tokugawa": 8395,
      "massachuset": 8396,
      "bang": 8397,
      "hiding": 8398,
      "lis": 8399,
      "pak": 8400,
      "xv": 8401,
      "##ras": 8402,
      "##mond": 8403,
      "##oral": 8404,
      "##illo": 8405,
      "resolution": 8406,
      "actors": 8407,
      "bund": 8408,
      "subscrib": 8409,
      "caes": 8410,
      "imported": 8411,
      "sinai": 8412,
      "posted": 8413,
      "classified": 8414,
      "reviewing": 8415,
      "varied": 8416,
      "salv": 8417,
      "lowest": 8418,
      "identical": 8419,
      "compete": 8420,
      "seaf": 8421,
      "norman": 8422,
      "santo": 8423,
      "bayliss": 8424,
      "navy": 8425,
      "channels": 8426,
      "schedules": 8427,
      "remarked": 8428,
      "sanctuary": 8429,
      "assembly": 8430,
      "diamond": 8431,
      "mohammed": 8432,
      "nave": 8433,
      "ward": 8434,
      "wire": 8435,
      "waves": 8436,
      "##lined": 8437,
      "##idency": 8438,
      "##amin": 8439,
      "alley": 8440,
      "##cking": 8441,
      "##abeth": 8442,
      "meals": 8443,
      "##aping": 8444,
      "pear": 8445,
      "##izabeth": 8446,
      "##acks": 8447,
      "disability": 8448,
      "tracks": 8449,
      "joe": 8450,
      "costly": 8451,
      "elizabeth": 8452,
      "175": 8453,
      "texan": 8454,
      "antique": 8455,
      "arguments": 8456,
      "hurry": 8457,
      "acquire": 8458,
      "rider": 8459,
      "casa": 8460,
      "evaluated": 8461,
      "hindus": 8462,
      "incorrect": 8463,
      "climbing": 8464,
      "symptom": 8465,
      "solely": 8466,
      "institutional": 8467,
      "incredible": 8468,
      "evolutionary": 8469,
      "pirates": 8470,
      "aggregate": 8471,
      "67": 8472,
      "bast": 8473,
      "dick": 8474,
      "hip": 8475,
      "rugged": 8476,
      "si": 8477,
      "wag": 8478,
      "##fers": 8479,
      "##pir": 8480,
      "##pers": 8481,
      "##vable": 8482,
      "##umin": 8483,
      "##cia": 8484,
      "lovers": 8485,
      "que": 8486,
      "##osexual": 8487,
      "colored": 8488,
      "invo": 8489,
      "string": 8490,
      "highlights": 8491,
      "studio": 8492,
      "##ribly": 8493,
      "humid": 8494,
      "paused": 8495,
      "professors": 8496,
      "absurd": 8497,
      "lights": 8498,
      "checks": 8499,
      "slept": 8500,
      "crossed": 8501,
      "photos": 8502,
      "jean": 8503,
      "shooting": 8504,
      "luxur": 8505,
      "fortunate": 8506,
      "pedest": 8507,
      "anticipated": 8508,
      "monopoly": 8509,
      "genuine": 8510,
      "phenom": 8511,
      "massachusetts": 8512,
      "77": 8513,
      "cad": 8514,
      "dental": 8515,
      "ease": 8516,
      "fier": 8517,
      "lan": 8518,
      "pets": 8519,
      "rico": 8520,
      "tang": 8521,
      "##gments": 8522,
      "shame": 8523,
      "##uster": 8524,
      "envelop": 8525,
      "arist": 8526,
      "reporter": 8527,
      "backed": 8528,
      "##resses": 8529,
      "slopes": 8530,
      "ending": 8531,
      "priests": 8532,
      "affirm": 8533,
      "excite": 8534,
      "winding": 8535,
      "sounded": 8536,
      "yorker": 8537,
      "protecting": 8538,
      "variation": 8539,
      "failures": 8540,
      "evaluating": 8541,
      "featured": 8542,
      "encouraging": 8543,
      "cuban": 8544,
      "predicted": 8545,
      "pulling": 8546,
      "gathering": 8547,
      "appointed": 8548,
      "electronics": 8549,
      "vulnerable": 8550,
      "pentagon": 8551,
      "equivalent": 8552,
      "moorish": 8553,
      "pakistan": 8554,
      "47": 8555,
      "ger": 8556,
      "gle": 8557,
      "gender": 8558,
      "pose": 8559,
      "pants": 8560,
      "wins": 8561,
      "##iat": 8562,
      "##po": 8563,
      "##his": 8564,
      "##itarian": 8565,
      "bearing": 8566,
      "dean": 8567,
      "##ortions": 8568,
      "unions": 8569,
      "accent": 8570,
      "locally": 8571,
      "medium": 8572,
      "engines": 8573,
      "distinction": 8574,
      "museo": 8575,
      "senator": 8576,
      "singer": 8577,
      "singing": 8578,
      "promul": 8579,
      "questioned": 8580,
      "determination": 8581,
      "##lusion": 8582,
      "panor": 8583,
      "planted": 8584,
      "focusing": 8585,
      "versa": 8586,
      "mortgage": 8587,
      "analyzed": 8588,
      "industrialist": 8589,
      "criticism": 8590,
      "printed": 8591,
      "feedback": 8592,
      "worksharing": 8593,
      "depression": 8594,
      "barriers": 8595,
      "unnecessary": 8596,
      "43": 8597,
      "vet": 8598,
      "inapp": 8599,
      "betray": 8600,
      "invaders": 8601,
      "adds": 8602,
      "smallest": 8603,
      "planets": 8604,
      "modified": 8605,
      "insur": 8606,
      "postage": 8607,
      "curve": 8608,
      "waterfront": 8609,
      "missile": 8610,
      "landed": 8611,
      "sectors": 8612,
      "grey": 8613,
      "##pson": 8614,
      "difficulties": 8615,
      "ignor": 8616,
      "investigations": 8617,
      "advocacy": 8618,
      "pursue": 8619,
      "poetry": 8620,
      "corruption": 8621,
      "emerged": 8622,
      "zeal": 8623,
      "ancest": 8624,
      "59": 8625,
      "della": 8626,
      "han": 8627,
      "nu": 8628,
      "races": 8629,
      "sq": 8630,
      "sque": 8631,
      "yan": 8632,
      "##rick": 8633,
      "##ture": 8634,
      "##iable": 8635,
      "##pered": 8636,
      "##omy": 8637,
      "chances": 8638,
      "unim": 8639,
      "##enders": 8640,
      "##agu": 8641,
      "guest": 8642,
      "moves": 8643,
      "regret": 8644,
      "specul": 8645,
      "##ails": 8646,
      "artistic": 8647,
      "happily": 8648,
      "barb": 8649,
      "followers": 8650,
      "winner": 8651,
      "merit": 8652,
      "bald": 8653,
      "floors": 8654,
      "impacts": 8655,
      "basement": 8656,
      "painter": 8657,
      "consistently": 8658,
      "prisoners": 8659,
      "luxor": 8660,
      "instrument": 8661,
      "ownership": 8662,
      "coalition": 8663,
      "jumped": 8664,
      "cooper": 8665,
      "mansions": 8666,
      "overwhelming": 8667,
      "unhapp": 8668,
      "afghan": 8669,
      "calendar": 8670,
      "61": 8671,
      "fame": 8672,
      "iolta": 8673,
      "toss": 8674,
      "reass": 8675,
      "stiff": 8676,
      "##see": 8677,
      "##iga": 8678,
      "##uman": 8679,
      "outer": 8680,
      "clut": 8681,
      "trim": 8682,
      "quote": 8683,
      "interrupted": 8684,
      "coat": 8685,
      "goodness": 8686,
      "scots": 8687,
      "##ava": 8688,
      "supporters": 8689,
      "returning": 8690,
      "proportion": 8691,
      "grave": 8692,
      "cheese": 8693,
      "confusion": 8694,
      "mailer": 8695,
      "youngest": 8696,
      "steal": 8697,
      "panels": 8698,
      "creatures": 8699,
      "packed": 8700,
      "bankrupt": 8701,
      "attempting": 8702,
      "administrators": 8703,
      "aston": 8704,
      "relaxing": 8705,
      "depicting": 8706,
      "chemicals": 8707,
      "kilomet": 8708,
      "saddam": 8709,
      "disappointed": 8710,
      "mosaics": 8711,
      "chatterbox": 8712,
      "41": 8713,
      "cbo": 8714,
      "dent": 8715,
      "fighters": 8716,
      "gear": 8717,
      "ic": 8718,
      "##father": 8719,
      "##pread": 8720,
      "##erie": 8721,
      "ford": 8722,
      "outlo": 8723,
      "incomp": 8724,
      "brows": 8725,
      "##into": 8726,
      "recycle": 8727,
      "helms": 8728,
      "artific": 8729,
      "charm": 8730,
      "skull": 8731,
      "missouri": 8732,
      "180": 8733,
      "generous": 8734,
      "irre": 8735,
      "demanding": 8736,
      "adjustments": 8737,
      "decreased": 8738,
      "bullet": 8739,
      "suspected": 8740,
      "inspector": 8741,
      "atlantic": 8742,
      "episode": 8743,
      "havana": 8744,
      "abraham": 8745,
      "bold": 8746,
      "bapt": 8747,
      "##lu": 8748,
      "##fr": 8749,
      "##isure": 8750,
      "##elon": 8751,
      "##ila": 8752,
      "##otte": 8753,
      "stalls": 8754,
      "##ayed": 8755,
      "##changed": 8756,
      "##rie": 8757,
      "leisure": 8758,
      "##apse": 8759,
      "arth": 8760,
      "##ensed": 8761,
      "paralle": 8762,
      "visual": 8763,
      "popul": 8764,
      "approve": 8765,
      "economies": 8766,
      "formula": 8767,
      "advised": 8768,
      "dawn": 8769,
      "drives": 8770,
      "gardening": 8771,
      "filing": 8772,
      "horiz": 8773,
      "flee": 8774,
      "ranking": 8775,
      "stocks": 8776,
      "nonex": 8777,
      "casinos": 8778,
      "hyd": 8779,
      "sampling": 8780,
      "textile": 8781,
      "naples": 8782,
      "birthday": 8783,
      "reveal": 8784,
      "alexand": 8785,
      "lifted": 8786,
      "harvard": 8787,
      "compromise": 8788,
      "duplic": 8789,
      "vineyards": 8790,
      "46": 8791,
      "fern": 8792,
      "sik": 8793,
      "wis": 8794,
      "##rals": 8795,
      "theaters": 8796,
      "##ito": 8797,
      "##rey": 8798,
      "beck": 8799,
      "##olly": 8800,
      "alter": 8801,
      "convent": 8802,
      "##geous": 8803,
      "alliance": 8804,
      "aging": 8805,
      "quoted": 8806,
      "boots": 8807,
      "##ermen": 8808,
      "configuration": 8809,
      "collecting": 8810,
      "potentially": 8811,
      "##aware": 8812,
      "hopefully": 8813,
      "shrugged": 8814,
      "preparing": 8815,
      "cleaning": 8816,
      "scenery": 8817,
      "combat": 8818,
      "imagination": 8819,
      "shares": 8820,
      "jamaican": 8821,
      "crypt": 8822,
      "minimal": 8823,
      "awarded": 8824,
      "vault": 8825,
      "ratings": 8826,
      "cabinet": 8827,
      "inquiry": 8828,
      "chocolate": 8829,
      "dign": 8830,
      "rushed": 8831,
      "##eem": 8832,
      "##bell": 8833,
      "toy": 8834,
      "##olo": 8835,
      "##theless": 8836,
      "##keys": 8837,
      "cher": 8838,
      "##anted": 8839,
      "hispan": 8840,
      "outf": 8841,
      "##ishes": 8842,
      "tai": 8843,
      "feas": 8844,
      "nevertheless": 8845,
      "underlying": 8846,
      "legacy": 8847,
      "elite": 8848,
      "valle": 8849,
      "respected": 8850,
      "defending": 8851,
      "signature": 8852,
      "millenn": 8853,
      "equipped": 8854,
      "##shire": 8855,
      "fishermen": 8856,
      "bitter": 8857,
      "devices": 8858,
      "nationwide": 8859,
      "junior": 8860,
      "correctly": 8861,
      "bias": 8862,
      "agrees": 8863,
      "prospective": 8864,
      "automob": 8865,
      "picasso": 8866,
      "advocate": 8867,
      "monumental": 8868,
      "mirror": 8869,
      "volunteers": 8870,
      "publishing": 8871,
      "partnership": 8872,
      "arrangements": 8873,
      "updated": 8874,
      "kicked": 8875,
      "cosm": 8876,
      "storage": 8877,
      "excitement": 8878,
      "outlook": 8879,
      "bid": 8880,
      "brew": 8881,
      "benn": 8882,
      "hond": 8883,
      "kam": 8884,
      "session": 8885,
      "##yard": 8886,
      "##bl": 8887,
      "notably": 8888,
      "##cio": 8889,
      "workplace": 8890,
      "teeth": 8891,
      "export": 8892,
      "interven": 8893,
      "bugs": 8894,
      "marine": 8895,
      "marsh": 8896,
      "deserves": 8897,
      "##aco": 8898,
      "trains": 8899,
      "valued": 8900,
      "populated": 8901,
      "metap": 8902,
      "technique": 8903,
      "airlines": 8904,
      "##aughters": 8905,
      "condem": 8906,
      "##liest": 8907,
      "179": 8908,
      "##otto": 8909,
      "describing": 8910,
      "completion": 8911,
      "influences": 8912,
      "lacks": 8913,
      "cruel": 8914,
      "1960": 8915,
      "efficiently": 8916,
      "concepts": 8917,
      "monasteries": 8918,
      "explanations": 8919,
      "nye": 8920,
      "allocation": 8921,
      "pillars": 8922,
      "incorporated": 8923,
      "accompanied": 8924,
      "makers": 8925,
      "tranqu": 8926,
      "murdered": 8927,
      "clouds": 8928,
      "dump": 8929,
      "gord": 8930,
      "lets": 8931,
      "sigh": 8932,
      "##uity": 8933,
      "##tic": 8934,
      "##wart": 8935,
      "##ala": 8936,
      "##leas": 8937,
      "stages": 8938,
      "asks": 8939,
      "neo": 8940,
      "deer": 8941,
      "chop": 8942,
      "butt": 8943,
      "spite": 8944,
      "spokes": 8945,
      "##endered": 8946,
      "closing": 8947,
      "timing": 8948,
      "##anship": 8949,
      "diagn": 8950,
      "##itty": 8951,
      "publicity": 8952,
      "barbe": 8953,
      "##idespread": 8954,
      "politically": 8955,
      "discussing": 8956,
      "presentation": 8957,
      "silly": 8958,
      "moments": 8959,
      "participated": 8960,
      "turt": 8961,
      "approached": 8962,
      "lacking": 8963,
      "greeks": 8964,
      "declining": 8965,
      "250": 8966,
      "sadly": 8967,
      "observations": 8968,
      "accomplished": 8969,
      "conflicts": 8970,
      "obtaining": 8971,
      "honorable": 8972,
      "porcel": 8973,
      "gentleman": 8974,
      "synag": 8975,
      "gauve": 8976,
      "orchest": 8977,
      "shouted": 8978,
      "administered": 8979,
      "astronomer": 8980,
      "mysterious": 8981,
      "ritual": 8982,
      "entitled": 8983,
      "database": 8984,
      "satellite": 8985,
      "catalyst": 8986,
      "exquisite": 8987,
      "sensitivity": 8988,
      "97": 8989,
      "lane": 8990,
      "mum": 8991,
      "pas": 8992,
      "rick": 8993,
      "vess": 8994,
      "##och": 8995,
      "##itious": 8996,
      "##omfort": 8997,
      "##lete": 8998,
      "stays": 8999,
      "##adian": 9000,
      "comic": 9001,
      "##asted": 9002,
      "peer": 9003,
      "agent": 9004,
      "bucks": 9005,
      "##acent": 9006,
      "trav": 9007,
      "counted": 9008,
      "insight": 9009,
      "propag": 9010,
      "posts": 9011,
      "nightlife": 9012,
      "armies": 9013,
      "existed": 9014,
      "sells": 9015,
      "eighteen": 9016,
      "ladies": 9017,
      "conducting": 9018,
      "evaluators": 9019,
      "surviv": 9020,
      "collaps": 9021,
      "malls": 9022,
      "graduated": 9023,
      "provider": 9024,
      "resolved": 9025,
      "linda": 9026,
      "nonfederal": 9027,
      "procure": 9028,
      "900": 9029,
      "berg": 9030,
      "cale": 9031,
      "hid": 9032,
      "mumb": 9033,
      "nons": 9034,
      "voc": 9035,
      "widespread": 9036,
      "##rics": 9037,
      "##pass": 9038,
      "##cus": 9039,
      "##cue": 9040,
      "##care": 9041,
      "theor": 9042,
      "stunning": 9043,
      "anch": 9044,
      "cancel": 9045,
      "priced": 9046,
      "donation": 9047,
      "##izer": 9048,
      "sheer": 9049,
      "cared": 9050,
      "grim": 9051,
      "##osevic": 9052,
      "buck": 9053,
      "scouts": 9054,
      "retrofit": 9055,
      "insist": 9056,
      "barrel": 9057,
      "finances": 9058,
      "landing": 9059,
      "budgetary": 9060,
      "sunny": 9061,
      "hook": 9062,
      "brave": 9063,
      "associations": 9064,
      "richards": 9065,
      "holes": 9066,
      "circuit": 9067,
      "avoiding": 9068,
      "hurric": 9069,
      "foreigners": 9070,
      "junk": 9071,
      "emerging": 9072,
      "respectively": 9073,
      "threats": 9074,
      "utah": 9075,
      "appreciated": 9076,
      "suspicious": 9077,
      "picnic": 9078,
      "transformed": 9079,
      "validity": 9080,
      "rebuild": 9081,
      "resolve": 9082,
      "stabbed": 9083,
      "frozen": 9084,
      "souvenirs": 9085,
      "cafes": 9086,
      "dreams": 9087,
[...]
