[PAD]
[UNK]
[CLS]
[SEP]
[MASK]
!
"
#
$
%
&
'
(
)
*
+
,
-
.
/
0
1
2
3
4
5
6
7
8
9
:
;
<
=
>
?
@
[
\
]
_
`
a
b
c
d
e
f
g
h
i
j
k
l
m
n
o
p
q
r
s
t
u
v
w
x
y
z
{
~
¡
£
¤
¦
¨
ª
«
®
°
º
œ
α
β
γ
δ
ε
ζ
η
ι
κ
σ
τ
υ
ω
х
–
—
’
“
”
‡
…
‰
€
##o
##m
##e
##n
##t
##a
##r
##y
##l
##i
##s
##d
##h
##g
##u
##z
##v
##f
##p
##c
##b
##k
##x
##w
##8
##9
##4
##1
##3
##q
##0
##2
##5
##j
##7
##6
##œ
##°
th
the
##er
##in
##at
##es
##on
##en
##or
##ed
##ou
##nd
##an
##ing
to
##al
of
##ar
in
##it
##re
and
##as
##is
##ic
##om
##ion
##le
##ent
##el
it
##il
be
##ot
is
re
that
##st
##ow
##ve
##ut
you
on
##id
##ly
##et
st
##ct
wh
ha
for
##ro
##ur
##ay
##se
##ch
##ver
was
##ol
##ig
##ce
##ir
an
##ation
##im
##am
al
##th
are
##ad
##ld
as
he
##ith
##ter
sh
##ul
they
with
not
pro
##ess
ne
##est
we
con
##ers
##ment
fr
##ill
##ke
have
se
##ere
at
de
ch
##op
do
go
com
##ra
su
or
##ould
##igh
##ant
##od
li
##ge
ex
##ate
##ain
kn
there
##pp
but
##us
##ri
##ist
by
##and
ye
##ust
##ity
know
##ck
##ab
ab
##ort
from
##ore
##ies
##mp
so
##ell
uh
##ost
le
##ome
##ight
wor
##out
##gh
this
##ally
##ard
me
##ff
##os
can
all
##all
##ud
##ive
en
##un
##ect
man
##iv
##um
##art
ma
pr
sp
pl
his
no
##ough
has
had
one
##ap
##ie
##our
ar
##ci
##au
were
##qu
##ast
un
out
sa
don
##end
##em
about
lo
will
cl
##ok
like
pe
ad
if
their
tr
##ous
what
bec
up
##ice
would
tim
any
##ound
my
just
##ind
##ink
more
##ish
##ong
##one
us
##ions
some
ag
comp
##ated
##oun
##ah
##her
res
them
##if
##cc
##ure
##iz
##ther
##ople
per
year
people
##ance
work
##orm
##ack
##ine
##ause
te
ta
get
who
when
she
did
am
##ans
##ide
##age
imp
yeah
well
##ven
been
think
because
exp
##ount
##gr
fa
di
new
inc
##ely
time
qu
##ame
##ings
##ag
##ble
##ich
off
cont
##ence
rep
##ations
ever
##ays
int
##ach
than
its
##able
other
##form
car
gr
over
inter
##ue
##erv
ro
her
dis
##ite
fe
mu
how
##ub
##ry
##pt
##ery
tw
##itt
##ult
app
##ary
##ose
##ber
##hing
##00
br
la
##ors
bo
co
##ip
##ree
##wn
only
most
19
##own
##ign
good
part
act
bu
your
##so
could
##enc
##ade
##ild
him
every
which
##reat
##ace
cr
##uct
said
pre
cent
##ical
sc
##ak
##ia
##ass
##ments
ind
acc
comm
##lo
col
ve
po
##ens
see
##int
##ase
now
##ang
very
##lic
##og
many
##ep
af
need
gu
want
##ving
##vel
mar
right
des
##ire
serv
rec
##ory
two
really
into
##ates
should
und
##ond
fir
##ac
##ition
##ents
these
##ved
lot
##ile
here
may
bet
never
sm
##act
##als
hel
much
##ty
years
does
um
even
under
our
then
att
look
after
##king
also
##ian
##ord
progr
##omet
##lect
pol
fin
mo
thr
##ful
##iss
where
cons
mon
##ict
leg
back
##ater
somet
going
inv
dec
##ices
way
rel
##ick
got
##ities
sy
##cial
though
program
tra
str
##amp
old
##are
##eral
long
par
inform
sec
op
diff
ass
make
too
##vern
##ial
##ft
down
first
rem
##old
high
reg
jo
##its
pres
##les
##ert
made
##ces
spe
##und
eff
##ons
##ning
cost
##mm
##elf
##oth
##ious
##ys
##iew
govern
information
through
prov
##fore
bl
##thing
##ath
##av
##gan
##ail
##ood
great
##ouse
##way
state
sch
##land
ev
ke
take
pub
help
##ury
requ
law
##ational
##oll
those
##lud
still
##erm
##ress
##ks
##fe
supp
count
##other
used
##we
didn
ac
##ract
##ting
##urn
bel
fl
stud
before
bus
litt
little
##ib
##ular
##ual
##oc
##ject
oh
gen
something
report
say
##ied
##ility
##stem
##ise
add
things
##ating
system
##iver
call
##get
use
id
##ather
cour
sub
pers
find
mean
##ually
wr
##ily
##cess
own
war
government
fam
##ible
includ
legal
##ited
##uring
ll
house
sl
emp
##ards
ob
##atch
##orn
city
vis
##ange
differ
##ways
sur
##led
##ced
dep
being
day
such
##pe
art
bas
show
hand
cap
again
##ures
pay
prod
##oss
##olog
##mb
interest
##eric
el
disc
##ked
##ics
around
small
place
##ool
ca
##ph
##ug
fed
world
plan
ph
##ered
americ
kind
inst
stand
##ues
real
last
found
##ative
199
agenc
mod
##ix
##con
##lish
child
ret
tal
lar
##oney
##aint
##sc
val
end
always
##ene
loc
dr
public
ed
ga
set
red
##ms
##rib
##ants
##oup
organ
##kes
##rect
same
##ves
ear
import
min
est
money
resp
pop
##rol
while
town
ent
##cent
##ars
three
##ying
del
##day
ru
ins
stre
##te
##ident
start
##ives
century
federal
def
home
proble
person
happ
##ew
organiz
##ower
##ists
rev
care
both
rest
school
big
far
read
num
pri
##ets
nor
sin
thing
##ody
##red
##ss
appro
##ork
best
sim
build
##ines
char
let
sou
seem
thought
##ific
##osed
met
##ek
eas
dem
##ably
perform
life
cor
services
##fer
##iness
bar
play
come
##conom
anything
cle
might
##ently
##ern
med
each
put
fund
prop
fact
##ren
belie
av
point
effect
hum
few
during
hard
better
eng
##ution
aud
case
##ici
econom
less
##chn
hu
##ear
lead
##velop
post
##xt
sk
sure
tri
national
book
##ween
em
between
wom
##tern
incre
comple
different
another
important
service
rule
det
must
mil
chang
cur
##ains
iss
develop
since
techn
##ters
aut
##air
##urch
percent
compan
mark
form
result
dist
product
##hip
##ids
tour
##ically
country
##ided
sign
control
partic
away
##ins
##cept
air
adv
##ized
business
##be
bene
##res
watch
##loy
##ull
tax
consid
manage
hist
went
##pl
conc
##ined
##der
##ilt
##ds
ser
aff
feel
design
keep
visit
gra
##ten
##ata
muse
island
##ier
ext
##ash
doesn
head
##az
##ts
fun
sit
che
##uss
news
##gest
##ention
area
why
##ason
##ital
benef
##ever
run
commun
open
turn
process
##uc
temp
four
direct
children
##ism
quest
near
times
##ling
##self
##ward
200
water
room
##ired
##alth
##ural
guess
sen
ide
ty
states
##io
number
view
trans
once
wal
hot
jon
adm
mr
cover
##rew
sever
cert
finan
##ron
sw
##ize
prof
week
data
##ross
yes
##ollow
mill
prob
conf
da
management
pat
miss
left
nothing
invest
account
maj
employ
allow
without
##ately
##que
##ted
anal
follow
mail
##orts
##oy
##man
men
done
##ected
const
##co
##ale
bud
tell
test
##body
exc
mus
month
programs
president
poss
##gress
##ared
##til
museum
prot
bad
camp
##ality
##els
white
doing
ra
000
major
gl
##ger
##ee
clint
##ends
pret
##ec
intern
expl
land
five
elect
##ides
south
hour
enough
next
##ric
probably
##read
group
##ology
##ats
support
north
night
port
##ley
built
cre
kids
secur
clinton
##stand
took
gao
job
impro
ter
##ought
large
stu
ann
church
polit
ref
pass
pal
fri
give
youn
shop
called
nat
ris
several
20
mat
office
along
##ained
equ
##ton
priv
##ged
class
came
crit
review
american
grow
audit
today
require
able
contin
opp
beh
##ock
##wh
##ness
stat
collect
congress
certain
against
##ior
until
pract
##ner
family
inf
mor
##ead
market
var
##ank
change
enj
18
dri
##ral
top
power
term
seen
oper
##ute
sect
##ases
##augh
##ned
##side
gener
lsc
rece
##ision
street
everything
##ruct
pretty
##ees
name
happen
##ages
second
financial
main
agencies
known
##ote
summ
giv
polic
security
costs
wanted
##less
##ime
##ames
arch
auth
tre
##aper
cond
performance
##ety
##gy
level
sal
wa
center
agency
##lement
cal
ap
however
bill
huh
##ining
ok
stay
##vers
project
understand
##ither
course
often
mov
##per
##uck
exper
trad
dra
clear
curr
local
believe
meet
past
examp
##hn
avail
pa
##ey
##ru
activ
invol
##ering
##ivid
##iel
enjoy
##ccess
provide
general
##ump
##ised
bro
hal
repres
else
having
##ken
popular
problem
##most
##ether
six
stop
john
united
getting
story
won
##ember
order
analys
##li
##ased
capital
##ional
low
ste
deliver
##upp
free
women
gre
##ency
depart
##pped
##aring
##ission
doll
vol
##idd
cut
##used
saving
isn
health
building
##ified
##ark
success
problems
side
##ensive
least
try
har
##oot
##ability
##imes
10
ey
rul
budget
black
reason
everyone
ten
lim
study
says
san
##ending
actually
list
almost
days
quite
estim
sta
##gin
told
making
million
available
thir
exec
##eng
wasn
asked
road
cho
win
cult
fig
orig
young
vill
saw
mer
ago
##ured
based
food
##ients
gard
##ances
whole
##aster
##ulation
mag
beach
looked
history
live
lea
individ
whether
##ored
jap
occ
sing
experi
site
represent
comput
addition
japan
prom
among
##iting
indust
vi
jud
rather
##aut
hop
##cif
half
pie
fac
##br
lawy
origin
wind
sug
idea
##sel
company
##ps
##ont
15
tot
pos
maybe
social
deal
mount
hous
##ument
tomm
##ient
aw
non
##ife
tommy
fut
##uation
##ench
full
discuss
wall
##ries
ident
changes
pur
analysis
bre
author
##ources
tupp
makes
yet
##ibility
resear
research
##ried
##ived
tuppence
sat
##ina
##idence
court
##lished
working
including
organizations
##emp
##ians
##ences
##sh
##pect
##vent
okay
ple
##na
respons
##ories
sun
west
execut
question
true
benefits
ir
##omm
##hod
someone
##anc
##ively
desc
sound
##ended
##ret
present
york
ce
fil
enter
##rist
##arr
within
es
manag
arm
either
ho
hold
brit
##aim
tow
heard
nice
trying
short
needs
later
rom
blo
fish
bra
lear
usually
oth
issues
remember
technology
##bo
needed
##ination
private
future
others
bit
sol
stuff
17
early
il
estab
beaut
king
##ison
cra
imm
hor
##rict
interesting
##ane
##lev
bur
income
accord
using
example
signific
amount
travel
outside
step
wond
agree
buy
across
possible
admin
seems
access
##irl
become
##up
postal
method
results
##pr
##utes
##att
face
temple
##ration
env
standards
given
lab
tex
meas
poor
hill
systems
easy
##atic
##ateg
special
east
kill
##aking
looking
regul
##hold
##line
jew
colle
address
##aces
miles
rate
##par
final
eu
##ued
christ
sil
12
##icult
quality
##iod
##soci
ep
girl
##ister
sty
team
##ows
toget
reach
coup
##by
##enty
##elt
##cient
talking
profess
period
include
economic
enc
together
particular
specif
hund
modern
abs
hundred
ant
associ
sometimes
mom
pot
bal
consider
net
cann
suggest
civ
##over
love
knew
door
difficult
##ortun
worth
attract
##itions
fav
##0s
##iding
coun
prin
taken
educ
alth
coast
mind
im
staff
value
although
due
##cip
paper
##iled
move
drug
talk
park
started
##ivers
init
hours
significant
record
dest
##ott
improve
policy
16
daan
hus
ge
##work
foc
death
##fully
##iron
compet
matter
##ilar
##cially
dom
flo
##raph
##enn
##ape
particip
##ready
euro
already
held
computer
drew
environ
typ
couldn
##ming
##ense
simp
human
department
##ica
months
##where
tur
##gle
##ze
##ising
##uce
##unch
##iful
paint
model
line
squ
##ese
##vious
himself
fall
dollars
shows
behind
french
##iter
##band
##itting
##ished
##por
implement
woman
approach
music
lost
administ
arg
summer
assist
civil
##aps
claim
##mbers
##kely
##atory
repub
##tain
##erg
rock
##sw
necess
grand
fre
members
sent
movie
europe
return
##ator
##val
exist
accept
current
##ove
ground
##bs
organization
infl
community
fine
##ush
planning
risk
development
dou
environment
thous
thousand
determ
age
##rin
according
##hol
demand
republic
protect
tradition
eval
studies
foot
friend
cannot
impact
companies
sn
##rop
sell
rout
anyone
deb
walk
areas
increase
total
mem
scre
required
beautiful
personal
haven
rules
cases
ones
sort
##ilities
husband
exact
similar
concern
workers
close
##ume
##chie
cred
##acy
object
rich
##ogn
justice
became
fort
##ges
##itch
hun
##yn
##ature
##ening
##selves
##ius
fle
##imin
political
alco
bring
entire
light
eight
grant
##aur
fight
ele
teach
single
subject
requirements
press
considered
felt
river
doc
commission
texas
alcohol
div
fore
lou
##itted
##ama
wouldn
activities
sus
resources
##aw
begin
regard
answ
##irc
gave
british
##itive
dev
couple
##omes
##amed
cast
famous
achie
fell
recogn
employees
parents
ital
##ield
delivery
hear
expect
##ny
leave
works
##aves
collection
favor
univers
hol
college
##ium
defin
##fact
self
##ball
quick
fur
##ov
vict
##ony
interv
related
##rem
cop
pick
wife
##thern
assess
##ourn
longer
turned
##oring
comes
soon
contrib
obs
type
began
living
strong
experience
espe
saint
histor
nation
offic
taking
takes
price
treat
##iet
construct
wrong
eyes
especially
coming
198
mal
mur
##lin
reports
famil
adrin
mult
sea
##yc
##ators
involved
america
wonder
likely
sir
##atives
charact
industry
##uced
11
provided
##ential
refer
proper
tv
wood
instead
ii
##ler
##asing
section
circ
##urs
goes
##iddle
##oke
offer
restaur
##ograph
milit
bir
aid
figure
##pri
themselves
table
aren
common
effective
questions
14
##umb
houses
##use
dead
repl
soci
words
middle
##ify
minutes
describ
drink
maint
sense
gold
means
lang
##ened
ask
above
roy
opt
cust
appropri
complet
##fect
heart
issue
central
check
mad
##ann
board
morning
base
poll
standard
brought
attorn
vo
bed
jul
journ
worked
evidence
hall
##bor
god
labor
friends
##uses
village
30
france
reporting
detail
viol
key
vari
##aining
pen
surr
roman
visitors
##ping
##ots
hands
contract
norm
##bert
relig
100
sold
lawyers
individual
cath
conn
comments
recent
late
recomm
changed
##isions
proposed
unf
received
ancient
##istic
twenty
sett
funding
sex
english
style
##aign
further
##oura
poir
economy
##hib
campaign
##ique
##den
executive
front
avo
poirot
hur
jer
##epend
archit
washing
neg
chap
displ
exactly
democ
happened
mrs
hon
##son
foreign
##ledge
speak
event
huge
hope
arr
vir
expensive
architect
pain
##app
anim
fair
applic
shr
places
population
happy
du
##isc
ens
perh
tried
fif
chall
trust
independ
opportun
purp
inside
books
perhaps
struct
leaders
influ
mot
expected
plans
##let
##omp
weather
##ake
##urance
lake
surpr
ran
##ai
##ring
suff
investment
corpor
jun
mass
##gypt
moment
neigh
unc
##lus
##amb
##ization
washington
stra
##rible
gets
military
##gn
perfect
manu
appear
attack
egypt
##ols
attention
##ky
lived
langu
er
ti
item
education
pict
ren
initi
buildings
##airs
decision
reform
13
emerg
square
party
mother
relations
fire
##ores
created
strateg
epa
##ival
completely
##arch
##ental
son
##ires
prep
valley
mos
desp
bush
green
ways
chines
piece
decided
ban
##ction
trade
gone
##iqu
express
district
chinese
designed
boy
located
palace
drive
third
pan
##ceed
manufact
higher
request
trou
household
james
knowledge
break
##ik
following
span
peace
acqu
spend
julius
funds
hit
##osing
allowed
dam
lower
necessary
custom
whate
surround
whatever
gall
artic
hotel
recently
color
royal
kept
specific
bon
rid
##ped
##ging
super
##issions
plant
arri
batt
creat
stri
saying
itself
eat
germ
##ades
original
game
dog
select
clean
secret
action
paid
##estern
deep
##isl
situation
separ
culture
groups
prefer
practices
vot
##ims
natural
ill
##med
2000
seven
##eter
countries
ord
spending
##ouch
scen
##hood
##ites
cat
gun
lack
##ronic
apart
pack
appe
serious
auditors
lad
##olution
##erous
spent
taxes
shops
exam
sav
##icient
character
ju
mess
stone
fail
finally
princip
##orp
engine
range
##venue
##ded
##ource
stock
corn
##ios
included
##ief
rates
comb
seemed
crow
sand
##ification
complex
legisl
geor
##ef
##itten
cook
committ
broad
moved
isra
##rupt
israel
focus
training
##uction
supposed
retire
##of
##he
conv
word
reported
altern
soft
indian
ingle
ali
efforts
annual
streets
##zz
##aught
trees
ingleth
mich
quar
aver
km
western
bey
ang
older
views
prim
save
##eks
##uals
notice
card
lat
prior
society
##oes
##set
##ams
credit
remains
inglethorp
##ript
dav
chance
americans
hi
##aries
none
##ole
##row
##osp
wish
##ana
lives
internet
##for
offici
laws
russ
##port
##uries
throughout
traditional
growth
mary
mater
narr
tourist
conduct
sant
##eness
subst
various
doct
assistance
##eless
indic
##umpt
voice
gree
cold
##xic
except
students
communic
swe
increased
position
benefit
##bur
upon
covered
draw
cele
force
university
##ises
provides
document
##ror
died
japanese
adj
phys
body
##umn
garden
celebr
link
guy
##ipment
share
##izing
prices
correct
ah
established
emb
additional
##ara
##idents
impress
everybody
commer
##ological
bank
##hic
##cks
dor
toward
wants
medic
season
china
scul
critical
cause
##arily
vers
inn
##illed
slow
bi
sculpt
sle
##itely
respect
islands
beyond
##apers
clients
wild
station
former
gardens
reflect
instit
language
cas
father
pred
thinking
paris
democr
despite
cro
wide
weeks
emissions
affect
##oon
##ights
insurance
farm
tomb
##ength
establish
mach
role
relationship
size
nobody
##rod
##ude
##ift
##iction
evalu
ven
written
interested
developed
##go
##utions
continue
imag
##uth
sup
equipment
bay
den
shopping
##oming
international
dress
round
##oint
##roy
clim
##bb
tar
myself
discover
##vert
exhib
anyway
doub
##sy
##ware
##leg
proced
feat
led
dall
50
page
fix
extrem
bab
##een
attemp
increasing
generally
tend
practice
learn
##ne
deg
below
tourists
din
quickly
alone
clos
decl
dallas
vote
published
25
##inc
##xim
train
cand
##aced
phil
encoura
web
production
running
pleas
rap
entities
cross
fash
surv
fem
favorite
sad
##estic
goals
dark
crime
install
certainly
mand
events
emergency
heav
fres
cru
sites
dro
hy
wealth
construction
##onst
##room
comment
patients
##iff
##oph
region
##more
rights
basis
named
slate
hosp
rad
looks
wrote
products
movies
answer
##ob
brown
largest
horse
observ
steps
field
includes
officials
letter
complete
##ipp
feet
choice
definitely
##itor
growing
families
threat
##edi
consist
extra
spanish
purch
lots
accounting
glass
recommend
average
bought
weap
appropriate
mid
louis
effects
##ha
opin
sky
carry
blue
helped
excell
floor
gar
##tered
difference
senior
internal
ign
197
nature
##ode
flow
##scape
volume
fast
##egr
multip
retirement
whose
sched
ball
##uted
club
afford
operations
mist
##asons
serve
hotels
meeting
absol
items
##aded
earth
mart
phot
easily
##bers
##erc
terms
hers
tit
space
previous
measure
cit
gate
ur
agre
german
##uments
pieces
##iques
ara
ded
scr
medical
authority
battle
##iced
##iling
reb
quiet
schools
leading
terrible
trouble
path
sens
fashion
individuals
60
lawyer
types
##ett
##ips
##enced
regulatory
master
##ux
##ables
##ches
1996
sounds
cathed
bye
##ivity
levels
goods
blood
rain
##ox
##wide
occur
spot
##astic
actions
reading
destroy
display
luck
mort
appar
particularly
achieve
##ba
watching
investig
administration
##olf
sports
offers
effort
##ex
stood
cloth
integr
##icians
mis
##usal
mostly
guid
connect
committee
##ax
##idge
winter
beaches
mic
##ban
stories
nearly
managers
journal
ensure
dang
sci
entr
##omb
simply
dut
ess
##cious
disp
mission
##cked
##unt
closed
##aughter
david
40
##erve
perm
regular
tower
excellent
jes
tom
##oses
subm
reduce
thirty
mention
##onse
savings
fly
ful
somebody
accomp
host
spl
equal
##rit
##rel
added
trip
##ills
revenue
payments
administr
##come
##sequ
army
cities
obvious
dave
wait
##ira
simple
beat
safe
reli
2001
smaller
cam
ver
##iny
media
respond
passed
judge
walls
restaurants
liter
immedi
avoid
##ma
##ster
prison
india
response
frequ
official
##erry
column
##ests
successful
##ille
accur
##asc
confer
box
religious
yourself
budd
##oud
payment
killed
drugs
article
conserv
cars
rooms
policies
film
fisc
mountains
treas
believed
jewish
flex
196
estimates
magn
decor
neighbor
pil
##anced
##reci
knows
truth
potential
##ask
##vey
##ung
hong
##eed
##atively
star
playing
##yr
grad
##utely
participants
adop
centuries
consum
southern
kal
##back
beginning
director
ut
expert
paying
limited
fiscal
points
constant
ft
hom
inj
contr
kong
chair
parts
phone
hans
george
##usalem
lit
touch
warm
ready
responsible
jerusalem
lay
requires
critics
giving
magaz
pros
served
useful
larger
christian
property
sud
newsp
independent
glo
beg
spoke
providing
adjust
sac
nearby
methods
ast
bes
convers
ability
discount
castle
liber
entertain
interview
bri
##uary
##ops
basic
capt
oppos
gives
##ornia
je
reasons
forward
compl
empire
eastern
distrib
sword
calif
republicans
##lier
constit
##uit
##ously
expand
setting
##cy
county
animals
receive
structure
##iring
anymore
analy
estimate
associated
source
##teen
omb
wear
advert
agreed
##put
##change
remain
bott
pun
##ament
note
raised
politics
domestic
narrow
hate
ib
spain
greater
series
hang
##aged
decisions
swim
environmental
date
rural
##ave
##gg
variety
absolutely
mix
##aters
spir
contains
guide
watched
electric
sector
mountain
multiple
catch
las
##cil
autom
eye
route
meant
starting
regulations
##fort
spring
billion
##ones
coff
propos
stopped
towards
science
fest
##oh
opportunity
hanson
married
restrict
activity
cathedral
##cul
shar
spect
charge
european
alternative
##men
progress
candid
band
born
kid
ul
##ners
purpose
influence
entrance
500
appl
jobs
tick
therefore
demonst
factors
fishing
jama
##cl
store
assessment
greek
exerc
qual
opened
continued
sor
##cing
affected
##wood
create
hair
telev
directly
roll
##ada
##rap
prem
##aily
professional
strategic
##eys
imposs
england
followed
currently
tast
cash
apply
statements
talked
profit
occas
##iar
meaning
vac
paintings
micro
bord
categ
gas
##ground
behav
challeng
flor
played
thousands
21
caught
worse
northern
attorney
sudden
aug
fol
##to
##itz
rele
ended
association
quarter
jack
loss
##chan
1999
unless
sleep
eth
##ience
intervention
##key
1998
electronic
enjoyed
daily
##nes
##ergy
##ena
unit
cry
rent
##ino
##oted
clearly
gi
jan
##wise
thus
search
compared
failed
debt
straight
pet
##gas
sho
clock
##aud
##ula
choose
eventually
shall
commercial
citiz
hind
weak
wonderful
angel
send
##rated
contact
appreci
seeing
oldest
estimated
##wor
##ils
stores
resort
coll
statement
italian
murder
corner
shot
##ope
values
california
impossible
##tim
##ule
assum
##ially
reached
nine
amaz
towns
sales
##antage
##rif
crimin
saf
dub
mine
##zy
invent
minor
originally
craft
treatment
##uing
brother
prevent
ideas
separate
willing
claims
features
brief
##ander
entity
majority
hurt
target
pra
assets
##umption
wine
colon
existing
games
sight
wel
##rof
italy
hospital
destroyed
et
match
tele
funny
procedures
##iers
##vely
boat
firm
decre
cheap
##mon
worry
testing
representation
discussed
##force
bor
##dom
chief
plants
adult
emper
musl
listen
cultural
shown
capac
aware
attorneys
##making
rail
##bed
lew
introd
bono
opinion
theater
liked
##ffic
evening
risks
location
easier
violence
lose
condition
samp
television
##inct
frank
sitting
##itude
interior
##ibilities
please
prepared
doctor
fresh
daughter
grew
disapp
remained
insp
identify
od
##ham
##aped
offered
numbers
walking
council
##rial
##week
doubt
conference
coffee
breat
die
compar
text
bridge
march
standing
limit
gore
sund
unli
repe
desert
architecture
fu
los
race
engage
##ucing
doro
heavy
clothes
##ji
evaluation
bag
biggest
learned
anti
homes
oil
##onna
transport
bul
##inating
##eth
amb
function
jesus
immediately
neighborhood
cool
draft
implementation
nap
vegas
earlier
ben
pul
welf
##ream
alt
welfare
lunch
tro
vide
uses
parties
symb
##ibly
newsweek
waiting
##inated
calls
defense
immig
temples
holy
extremely
sources
thorn
minim
##roll
performed
##levant
protection
member
objectives
regarding
burn
forced
uns
manufacturing
rue
##outh
##istics
residents
robert
19th
hills
routes
##ycle
bron
feeling
conditions
industrial
determine
acquis
fully
tough
wer
##lam
writing
counsel
ahead
dinner
august
bomb
papers
##oles
guard
shouldn
described
behavior
cub
theory
starr
thanks
grass
dram
susan
july
predict
##ipped
##iveness
actual
prec
spee
controls
businesses
stayed
grantees
historical
martin
pow
##ney
noted
1997
generation
via
##ael
##can
forg
mexic
intended
commit
moving
write
accounts
camping
projects
dollar
susp
software
bow
##mer
##los
##iles
##riage
thinks
psy
##izes
minute
##ventions
16th
lie
energy
foundation
##iday
##antic
traffic
capacity
revolution
completed
baby
pic
union
conclus
dedic
psych
##reg
surpl
201
birth
cav
incent
##uctions
##action
##azz
picture
weren
cyn
ride
##light
##irt
units
caused
18th
identified
rand
##ris
##iest
##ado
advoc
statue
powerful
normal
thank
track
screening
concerned
award
shoot
concent
##pper
##akes
pattern
pictures
michael
eld
##ulf
libr
client
##ague
painted
gent
willi
arts
situ
employee
suggested
restaurant
pollution
fifty
cow
dan
ira
exchange
tall
executives
fasc
##raid
brand
overall
student
golden
trib
busy
slight
emperor
nin
##ae
stick
comfort
##liance
republican
radio
bell
dod
processes
profession
mall
##ray
##ette
guys
understanding
records
recognized
wed
monument
findings
1995
importance
virgin
abuse
survey
##mber
##zen
relax
positive
housing
purs
dad
golf
discussion
22
fat
mel
greatest
critic
examples
jury
earn
challen
##burgh
rise
yard
##inary
stew
novel
unp
effici
election
##ancy
lady
lux
wid
print
afraid
police
##ushed
gro
##da
nod
##ca
spread
anywhere
career
##aza
conflic
satis
##50
##lex
compliance
##ago
interventions
initial
snow
imagine
hell
##asts
afric
appeal
citizens
offices
strug
flat
material
cards
ken
##rid
##ials
##adem
concept
rose
filled
##ested
strange
highly
chapter
june
households
pu
##oking
##mos
islam
pool
obtain
leaving
weapons
arab
pull
depend
senate
jane
vand
##otic
suppose
##etic
waste
finance
produce
leader
##ields
194
explain
gather
##eria
defe
goal
plenty
acquisition
oct
interp
##berg
register
stands
rulemaking
advantage
matters
mosque
exercise
##mas
##abor
##ender
hundreds
mir
otherwise
fear
technical
markets
accountability
17th
network
unfortun
degree
ton
suit
peak
mont
keeping
window
bath
laugh
yell
##rant
##iving
competition
scenar
names
##west
relevant
handle
produced
version
mortality
sevent
lies
feed
efficient
reduction
responsibility
gallery
aust
##gu
neither
incor
##ologies
kinds
advice
status
schedule
entertainment
##ois
##sec
weight
##ieval
happens
medieval
involve
football
drinking
ultim
speech
tun
##erved
##soft
manager
machine
funded
corporate
substant
flexibility
microsoft
fan
worst
indeed
guar
decide
helping
skills
double
legislation
mcc
forces
##olic
courts
cafe
occup
pleasant
recommendations
veget
showed
trial
changing
congressional
merch
fighting
amp
##ald
sem
##enses
presented
##has
transfer
girls
lif
boil
command
depict
totally
accepted
determined
concerns
fortun
primary
spectac
library
gain
##eries
unique
speaking
differences
walked
painting
medicare
sam
##using
artists
terra
scient
coverage
reviews
gh
tools
highest
helps
##sid
players
##ifying
founded
chapel
surprised
magazine
buying
stret
freed
virt
gradu
jamaica
guarant
bother
##lig
##ortion
##unte
loved
supply
territ
angeles
##ctions
franc
aftern
finished
organizational
announ
volunte
surrounding
opposite
lines
rang
vice
centre
gotten
gothic
editor
figures
opportunities
breath
##reh
firms
strength
finding
##pective
leadership
challenges
der
iron
reve
##verse
aspect
log
vehic
skin
raise
familiar
circum
24
##pa
forth
##ession
hadn
##ension
elig
reduced
merc
holly
hors
##ein
##anch
online
frame
mac
remo
developing
portug
measures
selling
van
##oo
entirely
cart
gd
##ta
glad
requirement
honor
engineering
santa
song
vast
planned
younger
dublin
era
tap
tiny
##oned
faith
twice
realize
tests
apr
irish
block
massive
climb
##cra
enem
mob
retail
confir
details
swimming
##mar
##uous
##tery
shel
grown
windows
argument
task
inqu
stated
throw
audits
illust
conversation
dedicated
##nam
##endish
compon
resident
depends
inspect
##iro
##inal
tea
bob
numerous
##place
facilities
##ancing
arrived
spirit
gift
tree
##house
##othing
chem
##oked
##gry
carri
marriage
##idden
rough
##gd
forget
asking
heat
boys
counter
returned
cab
lic
length
##equ
##ugh
users
imper
scand
monaster
issued
options
row
##ding
##bon
##orters
##oln
##ulous
quant
##eyer
guidance
gdp
##oti
factor
cuts
irs
malays
female
hyp
dangerous
cavendish
horses
somewhere
relatively
models
refused
jews
contributions
maintain
democrats
##incoln
amazing
bou
cio
lincoln
noticed
dece
##unk
fourth
conducted
vandem
haw
##cket
outc
roof
consult
instru
topic
burden
shad
carter
leads
moral
driving
##uk
##erly
sept
vandemeyer
##iy
worried
enh
contain
##akers
restored
##insky
advis
apartment
##bal
chic
techniques
sunday
kar
mile
rome
##ero
##ched
movement
corporation
constitution
ol
##ais
compr
contemp
193
decline
academ
edin
steel
dish
por
sar
carved
seek
believes
title
april
bound
rub
wit
##ini
satur
magnific
edinburgh
cell
fit
##era
marble
2002
perman
192
owned
explained
silver
buddh
##ulated
fraud
pray
distance
telling
victor
shrine
herself
william
bat
gal
##tom
owners
instance
productivity
statues
honest
surrounded
slowly
afternoon
shut
lawn
addressed
screen
january
boring
consequ
speed
slaves
improved
russian
impressive
apparently
##iment
ship
seat
lakes
responsibilities
suprem
circumst
hen
##ev
##rate
##do
forms
##adel
proceed
saved
symp
explan
eleg
elements
consistent
sorry
vacation
gay
waters
##ii
becoming
queen
coal
schol
putting
pointed
suddenly
dry
lond
##hi
compreh
bright
boats
flight
negoti
nodded
native
nurs
hasn
tours
illeg
fairly
mouth
##arian
meat
content
fired
provid
conclud
stake
rena
damage
selection
message
dropped
##ught
##hab
whom
##ront
furn
hat
pia
##inger
recip
plain
resorts
holding
attractions
physical
london
aim
##well
overs
governments
agreement
negative
principles
innov
nav
va
##atically
##orary
stage
proud
agric
amend
##ardship
approxim
advent
runs
facility
teams
picked
neighb
fixed
hollywood
300
alex
mond
##ita
##ishing
##issance
madeira
visited
interests
discovered
attempt
agricult
ice
jump
mc
##aming
##pping
##agon
rob
letters
broke
##holders
application
freedom
ber
bure
kent
chann
tru
scene
weekend
border
gamb
##lers
##itors
hearing
manner
remark
renaissance
rat
##ford
##apt
reductions
defic
roads
entered
piazz
renn
##stein
##amble
neat
scott
owner
basically
improvement
communication
photograph
##encies
employment
hunt
flowers
##nic
maxim
defend
balance
electricity
loan
unfortunately
spectacular
##gment
##com
##ston
1990
memor
documents
challenge
dyn
fgd
##bit
thom
clothing
worksh
learning
##lies
orient
likes
mechan
##iza
dism
brad
direction
reasonable
managed
encourage
safety
bars
fal
gonna
iv
kitch
##ville
presence
operating
archae
copy
aliens
##ription
rennie
##rence
##ari
##ida
hero
strate
subsid
approved
typically
secretary
drop
pound
##east
##thia
unable
smiled
crowd
bureau
egg
fill
male
sister
centers
monica
extent
museums
terror
sections
friendly
newspaper
strategy
##nel
conqu
suc
fee
scale
communities
patient
churches
punish
shook
video
##iture
howard
smart
perfectly
succeed
bond
esc
##off
##pie
whe
ash
aband
cu
pm
carried
incentives
cynthia
bod
mas
195
emphas
computers
attractive
regardless
27
##time
##pm
alive
wearing
placed
##owned
pover
strict
join
belong
##ashed
explore
kingdom
orders
reag
carp
fees
attend
governor
oblig
reviewed
christmas
penal
soldiers
hindu
wil
##icip
resist
salt
magic
pressure
splend
dole
upset
protest
##what
uncert
customers
mentioned
adopted
fascinating
september
magnificent
onto
enforce
plus
strategies
purchase
ox
##aled
##alia
shape
adequ
covers
harbor
##zar
##itation
leather
elimin
edge
barg
religion
guns
poverty
ought
pyr
##elve
offering
scot
##others
publish
harm
implemented
eighty
creating
obviously
fool
tor
##wards
webs
disag
technologies
processing
advertising
truly
gri
sather
##cel
storm
##ulate
somewhat
intel
underst
##phere
##eration
##ico
meetings
detailed
initiative
proposal
random
fab
##ares
forest
##umes
wars
effectively
experienced
absor
debate
recognize
applied
##rog
provisions
reality
increases
specifically
fellow
##heim
criminal
gentle
sult
##sa
##icious
shock
divers
advance
focused
replace
sexual
appeared
materials
reput
##igned
delight
hardly
landscape
option
initiatives
symbol
ny
os
leaves
prime
trail
depos
millions
##while
sharp
slightly
gross
ky
loans
clin
parks
audience
collections
historic
reliability
sharing
notes
click
launch
emot
napole
witness
nom
##ober
##aked
teacher
egyptian
democratic
urban
festival
occasion
october
kentuck
ath
thick
cris
charles
calm
awful
80
ba
##za
##erate
accident
instruct
skies
criteria
loud
forgot
ot
oce
##water
##irts
sov
syn
defined
supported
happening
britain
distribution
eligible
elegant
31
##road
transform
trading
package
rapid
experts
supreme
piazza
##elled
active
decade
belief
calcul
departments
solution
russia
columns
taste
outcomes
code
eating
##head
##lets
conven
##ellig
becomes
expend
##anged
recover
consumption
missed
privacy
cutting
customer
bottom
bust
nic
penn
##gl
anybody
guil
confidence
villages
purposes
sufficient
decorated
illegal
sick
league
contained
partners
poison
decades
possibly
richard
independence
cere
dance
hide
sides
##alls
overse
artist
cave
1994
effectiveness
percentage
classical
beauty
animal
motiv
closer
90
rh
##iance
##ket
alloc
carefully
readers
functions
wooden
selected
ibiza
appreciate
lewinsky
cable
fant
gates
pages
tent
tel
upper
##ses
##oto
carol
valid
portion
approximately
cup
dig
##ties
hey
lucky
unlike
dust
tired
aside
atmos
plaza
##acing
bigger
##ifications
limits
rebu
elderly
2a
losing
##hen
##han
atl
##cco
realized
detect
formal
besides
surpluses
chicago
circumstances
atmosphere
bau
##hal
##zed
conver
##ria
crimes
reducing
professor
litig
pulled
guilty
cliff
teen
brill
everywhere
crus
statewide
assumed
monday
ped
wing
append
phase
continues
baseball
superv
connection
duty
accurate
cats
pill
##sey
##ateau
laid
smith
relief
vision
approval
stup
dogs
sculpture
essential
##rofit
iraq
interpret
ocean
fought
fields
reject
gods
arms
resol
intellig
remind
supporting
motor
##craft
26
70
hire
##gar
champ
##antly
overlo
twelve
background
spec
fewer
napoleon
pier
##ls
##orter
organized
journey
teleph
kenned
nix
rum
##iation
##zant
##aling
byzant
yester
representatives
hole
amounts
penins
displays
stewardship
scandal
permanent
scholars
dim
stars
dise
moon
lawrence
allows
stuck
describes
medicine
incorpor
yesterday
forb
myst
expos
##agas
remaining
politicians
replied
frequently
fo
grants
acid
empty
showing
opening
directors
expectations
primarily
previously
literature
vren
##bel
##aka
regional
treasury
intellect
vrenna
##la
##elines
##uts
chose
plat
plays
joined
horrible
grounds
replaced
efficiency
bunch
gang
mut
##ext
##ented
complic
coord
courty
ends
delay
concert
visiting
fortress
victims
convin
##umptions
weapon
schedul
accomplish
conservative
fuel
peninsula
escape
##now
##uable
larg
protected
explor
paul
15th
birds
fifteen
pilgr
troops
scotland
##rig
##edy
##ading
##erson
chronic
##aker
committed
assume
madrid
catholic
alien
philos
crafts
comprehensive
riding
##rovers
compens
columb
writ
distinct
turns
facade
buried
turning
scenes
institute
submitted
mexico
imperial
nixon
eag
sab
##greg
##ura
anse
nep
resource
coop
assumptions
calling
subsequ
revol
image
manufactur
dramatic
comfortable
##aly
##itan
##ulations
spr
##okes
gray
appoint
auditor
crazy
significantly
ordered
virginia
sultan
23
##enance
sole
##ells
##iously
##ugged
careful
confident
sugar
contrast
tickets
released
reputation
sale
##lines
##iber
##ola
unus
feature
##actions
facts
exclus
possibility
silence
improvements
appears
consumer
oversight
appendix
largely
bout
##yl
bear
whitting
doors
tourism
presidential
bird
jim
##ilit
mans
controvers
stress
jones
broken
represented
achieved
arrange
observed
mistake
adults
soph
##uff
##fa
##jack
##rees
ages
poland
surf
iii
crisis
nations
##dy
##here
##uration
helpful
affairs
ideal
conflict
territory
whittington
fer
ww
##life
##icing
##imp
sport
dial
delivered
##book
surprise
indiana
franklin
transportation
##entially
##urb
shoes
sew
implic
##acts
assert
jewel
definition
voting
cig
rare
##nis
spons
recyc
greatly
investments
raising
silent
necessarily
expressed
administrative
liberal
ring
forever
excess
truck
upd
depress
signs
extensive
steep
viet
holds
failure
##exp
saturday
kos
pig
##kn
##icial
youth
forty
chain
expenses
seeking
artif
cheaper
structures
##kyo
##going
tonight
splendid
uncertain
bin
tub
##how
##itals
##lying
proven
##aging
basket
tells
opera
##employ
typical
banks
expression
doctors
mercury
bull
dream
lord
peter
vary
##ingu
tokyo
pride
highway
plane
sensitive
folks
muslim
minimum
alf
##abilities
##elling
nox
regulation
1993
recommended
ridic
sample
chemical
understood
33
##gs
##eling
trend
monit
promot
surprising
global
dating
ferry
kings
vent
##rors
##isted
transition
victory
wealthy
guidelines
sulf
##ike
##ship
##cas
##ona
##racy
##ivals
brick
allowances
facing
domin
flood
devoted
giant
ultimately
kennedy
ire
rar
##my
##rations
##front
##orrow
stations
lift
##osen
##ached
##aken
smoke
##ologists
stream
testim
improving
claimed
divor
institution
newspapers
caves
taught
thor
enth
unemploy
temper
summary
styles
voters
latest
increasingly
candidates
pyram
ble
push
friday
##agger
191
writer
johnson
brain
suggests
destination
thomas
bradley
punishment
cous
cried
fda
math
stamp
##rose
angry
dozen
knock
scared
discr
aircraft
##ruction
peaceful
tomorrow
welcome
repeated
monastery
henry
fans
mig
##gers
##uces
##fri
##illy
##stairs
knowing
##ella
##arts
diss
blow
portra
treated
listed
attraction
participate
officer
normally
colorado
category
bronze
residential
29
arc
##asty
quit
coach
scar
##ints
positions
candidate
00
cod
jail
kil
veter
##inent
feb
harder
merely
consideration
settlement
prepare
##works
ack
##itative
##outs
valuable
ski
memory
exhibits
pleasure
nursing
thorough
kir
accomm
attrib
investors
measured
competitive
teaching
applications
germany
begun
ireland
accommod
tig
tons
clar
preamble
marked
desk
attest
flower
slim
breed
uncle
attacks
ignored
accompan
muslims
commitment
daniel
satisf
carolina
stupid
exposure
acknow
ment
input
whis
reporters
improper
volcan
choices
sweet
odd
kick
##oty
##ads
context
monet
officers
sacred
hidden
pond
##ias
##eland
clo
studied
perspective
barely
rising
##box
maintenance
sacrif
powers
boulev
dates
ec
wore
##inem
stared
estate
heads
tennis
turkey
contribution
occurred
decrease
scenario
malaysia
hawai
soviet
tight
output
outdo
colors
depending
signed
classes
reference
avoided
articles
communications
carrying
chairman
december
bork
##ania
buff
serves
drawn
sentence
survive
expanded
aspects
fount
##bles
ships
prove
lovely
poet
emission
feels
admitted
palest
bills
films
turk
settled
maryland
innoc
categories
providers
ottom
dar
lately
om
##zing
albert
conce
##rian
brings
##encing
##ogue
desire
elabor
1992
corrupt
economics
considering
natalia
participation
characters
##ography
14th
applicable
artifacts
gif
hated
ramp
##zone
##amber
incred
legend
entry
elsewhere
combination
75
##wan
chat
##iform
assass
minister
thoughts
surely
collected
enjo
falling
reliable
2010
##mark
##bi
anton
##raw
so2
interim
evolution
keeps
johnny
venet
##ipping
reagan
bauer
400
dining
les
exceed
mah
intent
subt
player
exciting
masterpie
frequent
borrow
railway
stretch
francis
shadow
gor
##point
##inations
lee
user
preserved
##standing
equally
constructed
principle
earthqu
restrictions
sulfur
element
ug
##hs
inner
usual
gran
cazar
ruins
projected
solid
argue
cooking
convention
relationships
sadd
substantial
nile
pure
pitch
##20
##ird
asia
asian
shaped
##bey
tested
##ruary
anticip
13th
accuracy
florida
february
dol
mental
##pes
##pay
##ja
theat
outl
ours
operation
experiences
judgment
##ographic
latin
begins
situations
islamic
scottish
courtyard
tab
##eff
##rants
##anes
toba
##eline
shif
prosec
chateau
sust
finish
blade
causes
earned
corps
switch
division
telephone
rarely
kath
rely
##nn
##zes
##bby
stead
chest
outcome
reserv
faced
prev
indians
recall
drag
ceiling
consequences
enforcement
disease
bol
gp
util
vul
##fast
enorm
tail
smoking
##ternal
graph
mainly
sixty
beside
buddhist
stakeholders
35
cer
cycle
##rich
##ki
toxic
reward
stair
explo
disney
recon
visits
weekly
excited
creation
hunting
galleries
seriously
crowded
documentation
sculptures
ticket
framework
disagree
core
tone
##right
thin
stab
##che
worship
guided
serving
remar
##resp
driven
staying
rocks
teachers
requests
combined
##burg
capture
conclusion
furniture
##pan
##erning
##esty
carib
monuments
flag
handed
grace
winds
##board
divided
hijack
gambling
testimony
tobacco
dens
sought
##ano
inhab
rein
alle
shared
fruit
uniform
worker
opposed
##ructure
winning
implementing
superb
clubs
kyoto
jac
kr
##town
##arm
##adium
sum
faces
finest
blame
judges
towers
bedroom
violent
celebrated
investigation
struggle
mccain
website
##known
28
ozone
ske
tan
orn
##uese
hoping
dutch
portuguese
explanation
channel
abandoned
turkish
fro
##rane
##semb
deem
branch
sets
charged
charming
corp
privile
involving
listening
approaches
characteristics
latter
folk
cuba
writers
cigar
boss
##aver
##bar
##itures
##isms
chick
##oster
nov
unknown
lock
whenever
finn
countryside
financing
harv
150
educational
properly
degrees
erect
pc
##aven
##rad
##ota
disaster
persons
warri
existence
renov
arrive
strike
installation
disappoint
conclusions
patterns
penalty
ae
faster
##met
##eing
##tained
##rast
##12
attitude
20th
successfully
priority
vehicle
agricultural
complicated
derry
gau
tues
trop
stable
ham
shift
##estone
##anta
lively
##orted
aggress
scary
transl
statist
##annon
remarkable
aci
fert
pink
##hor
weird
##istan
mak
impe
expense
fault
marks
instances
personnel
affair
copies
encouraged
philosoph
pit
##af
##ya
##stream
plastic
monarch
charges
infrast
sanct
remembered
hung
survived
weakness
inspired
comparison
announced
www
ottoman
##ranean
32
gagas
rice
wages
##uze
##case
##asion
stadium
##usion
##ushing
trick
##ubb
relative
finds
concerning
musee
admit
elected
suffered
inventory
immigration
cet
##oir
meal
spin
asset
writes
visibility
puts
healthy
prompt
facilit
settle
fresco
adopt
african
unusual
nur
##coming
reven
smile
parli
basil
metal
elections
stepped
##aimed
treaty
links
linked
tombs
regularly
bodies
adequate
na
pir
wage
##imate
##essed
map
##ipa
consol
parent
resulted
cheer
annually
auditing
generations
ordinary
principal
embra
climate
instruments
basketball
avenue
fena
hud
pine
##uge
##owed
reserve
shoulder
publication
formed
electron
accordance
eleph
pollut
scientific
enthus
gop
kl
pair
##fo
##itable
##omed
##otes
proved
prohib
##ighter
abortion
##ansas
scope
traum
strang
retired
##hips
classic
practical
ruled
awards
suspect
answered
error
breakfast
split
engagement
strugg
removed
components
boulevard
aer
cinem
cnn
dome
##quar
compare
residence
trained
analyses
preferred
sandy
israeli
colonial
altar
cabin
expenditures
species
ugly
##imination
alb
shirt
lev
canc
plot
somehow
visible
economists
nonp
researchers
description
traveling
images
bringing
democracy
crowds
danger
sleeping
volunteer
alfred
parliament
cios
lying
pace
noise
unw
##aks
pocket
charl
responses
romans
36
lor
torn
##rates
##ato
orange
##cipl
##ensions
desper
parad
disclos
phr
profits
statistics
addresses
examined
casual
yellow
amendment
ridiculous
rival
roles
vs
wet
##iguration
##thy
height
unt
accused
joint
performances
mediter
receiving
represents
sunset
pottery
mosa
exhibit
ethnic
bags
boilerm
tin
##oma
##chal
##aders
##ante
##enda
cock
##ensus
recru
explains
examine
legislative
dorcas
farmers
machines
enhance
kosov
hired
jose
jord
lind
rene
##cast
anth
withd
abbey
canal
blank
palazz
authent
greuze
holiday
michel
declared
introduced
mediterranean
fiction
nerv
##comm
##oupe
ongoing
everyday
1990s
promote
describe
requested
defeat
recipients
alexander
kitchen
unemployment
tip
##ipt
stroll
##urally
leon
lean
mayor
smo
advanced
excuse
securities
continuing
traveled
appearance
apartments
examination
release
professionals
wednes
archaeological
monitoring
dun
wound
forum
fran
capable
farther
souven
trips
controlled
involves
killing
contribute
contracts
physicians
consumers
astron
festivals
widely
cousin
ain
bost
vital
prud
faa
presc
supplement
headed
employers
cream
promise
objects
eleven
heavily
administrator
cuis
vietnam
gpra
stark
habit
shore
exemp
##anda
canada
ads
conscious
evil
cairo
handsome
opinions
byzantine
infrastructure
souvenir
boston
cy
dancing
wise
alleg
##the
##ouses
buchan
resulting
receipt
blacks
drawing
cruise
prosper
disappear
situated
karf
kentucky
compensation
nepal
attestation
kore
stairs
##tering
nowhere
assumption
visitor
missing
allowing
12th
recorded
panel
substance
indicate
hersheim
occasionally
elaborate
tuesday
hersheimmer
bos
gains
rams
sna
##iant
inland
haz
##adays
##opes
sheep
quiz
discipl
nowadays
locations
pope
protoc
northwest
operate
managing
periods
strip
africa
litigation
jewelry
enormous
hes
sits
neck
##oken
locals
##ception
waited
epis
acceptable
demands
achieving
maintained
##oxide
minority
jordan
authentic
bench
##ingly
##illes
chamb
repair
lav
triump
189
1980s
malay
colorful
installed
buddha
dismiss
vulner
ak
dil
pad
rac
##lv
##lor
##agues
downtown
barri
taxi
directed
permit
unlikely
vegetables
enemies
diversity
ax
pin
rig
rational
##oque
##acc
heaven
joy
caf
emer
palais
dealing
falls
fifth
reforms
magazines
hanging
criminals
contemporary
recycling
buchanan
dre
ow
sau
ze
##oly
##inian
isol
asc
assemb
chamber
manual
diverse
acting
##angel
informed
curious
nonf
##rupted
venice
discovery
premature
enemy
neighbors
gig
tape
##ician
frag
chosen
gosh
nove
##oured
imposing
##ipe
funchal
musical
declined
captured
satisfact
wheel
statistical
cant
##bra
##kins
tool
##itated
weigh
##agn
##under
studying
##idding
romantic
riders
integrated
memorial
implications
smooth
file
##tan
##gate
thurs
dear
noble
upstairs
##ifies
tech
yours
blind
designs
morris
accessible
architectural
quietly
analyst
groc
terrace
november
bour
dict
pont
tu
##rep
##urd
exotic
##ques
unified
roc
invasion
requiring
severe
mailers
raj
##whel
seconds
figured
identity
agreements
answers
optim
establishing
mandatory
praise
immigrants
hypoth
pounds
converted
55
600
hou
hug
lined
##bul
##isters
##uting
sha
##abled
delic
performing
productive
iran
universal
juan
hospitals
laughed
concluded
deficit
aege
luc
tas
##iors
##don
##cr
orch
donations
modest
mini
deliber
extended
walks
passing
authors
volunt
##engers
encoun
prince
similarly
referred
errors
extreme
closely
ibm
spiritual
dynasty
pilgrims
wednesday
aegean
bible
diction
fing
rode
##iate
##days
##amental
##thouse
hast
dioxide
boards
simpl
corresp
topics
##like
limestone
representative
authorities
solic
constantly
bowl
correspond
45
nuc
ram
sel
##ij
##har
##attered
##itage
##keep
locked
partner
guadel
prize
metric
factory
employed
landsc
projections
popularity
victim
duke
lewis
nucle
lu
sights
##bound
threw
##ros
shout
proof
##osition
grade
captain
valuation
portray
nato
administer
##attle
recognition
corporations
evaluate
apparel
integrity
inquir
ramses
lam
##iated
exists
imposed
struck
soul
baroque
feelings
lands
terrif
passengers
pleased
committees
commerce
denied
femin
pilot
qualified
subsequent
astronom
guadeloupe
cyc
jr
rod
vine
##oms
beer
knife
##iva
##apes
##icted
regions
personally
southwest
oppon
addressing
determining
impression
proposals
puert
pushed
wolf
##iot
##bour
##eds
##omach
##vered
##illing
spa
uncon
myster
theme
expans
overwhel
heritage
cents
assurance
supplies
courses
taxpay
creative
indicated
conservatives
comprom
platform
tropical
frescoes
dir
jur
zero
thro
##cher
wash
external
##une
##uns
humans
lessons
##bean
refuge
salary
##arrass
multi
flying
jackson
burned
forgotten
ceram
consolid
chambers
##aust
##rating
##ko
##oration
forec
##mental
crash
employer
scenarios
component
carrier
acknowled
innocent
cos
pla
##ubs
acts
pools
starts
fundamental
encl
paperwork
grande
##awa
embarrass
luxury
confirmed
interpretation
divorce
earthquake
dame
##alf
shell
frust
tran
aggreg
indig
flav
obtained
handling
swung
exclud
passage
drivers
breaking
blocks
returns
dressed
sophistic
gifts
houston
aven
gained
mothers
naz
till
##oons
##wa
thri
shil
shannon
boom
monop
skill
airport
northeast
destruction
motion
drove
martinique
oriented
bread
dying
gap
piz
rust
tables
##lied
##inate
stry
##irm
unre
newly
crown
filed
entering
wondered
methodology
coastal
objective
ignore
fabric
intellectual
chicken
erected
bern
pent
rit
##sp
##uits
##ester
##oli
weekends
pacif
hoped
authorized
crack
difficulty
diving
voted
purchased
opposition
mixed
ninet
caribbean
impeach
renew
dirty
strychn
800
auction
nipa
##esis
##iration
ate
myth
resem
guides
monte
relating
highlight
provision
supports
demon
milk
distingu
transm
swing
considerable
injured
adjustment
surplus
vehicles
##friend
theatre
nurse
kosovo
shiloh
strychnine
mit
##war
hamm
liqu
smell
constra
equival
housed
burning
granted
sculpted
recommendation
concentration
earnings
seventy
editorial
fcc
pag
##inos
##atoes
##stone
187
influenced
ladin
georg
crucial
relaxed
austral
merchant
license
mystery
manufacturers
pyramid
venetian
album
aic
sons
##night
##gen
toler
reaction
##utory
##idays
##uls
##aine
##usc
##udes
secure
experiment
beautifully
murd
christianity
complaint
etc
bombing
virtually
outdoor
93
dull
lod
pp
pund
##pit
##esque
##ales
##areness
##ima
trends
##aki
surg
plano
absence
unfair
damaged
globe
mexican
cum
cater
fond
ros
wt
anx
##thod
undert
adding
designated
confused
statutory
maintaining
portugal
bic
jazz
ron
##eas
##fl
##ka
ineff
stor
##olis
doz
agenda
diam
actor
remove
##scrib
clever
beneath
transactions
covering
marketing
awareness
##boys
coastline
fallen
initially
acquired
institutions
gathered
sewing
aicpa
95
bare
fel
nit
##zo
##organ
##isely
##aux
guests
remote
presents
reader
medica
campus
southeast
palm
steven
dealers
enterpr
settings
hitler
striking
ninety
shelter
delightful
veterans
trauma
protocols
hars
ly
vin
##fall
##isk
##essions
fright
sees
nose
190
monitor
produc
edition
trials
certification
excurs
ceo
craw
argued
##riptions
swords
lifet
mobile
roughly
false
rapidly
boutiques
basilica
palazzo
dat
zoo
##istent
##usted
##eller
recre
decent
trails
summar
identifying
poorly
subjects
alternatives
##ettes
premium
advocates
involvement
guarantee
explorer
discrimination
dies
horn
rot
##rent
##irable
sail
loy
offset
lasted
childhood
talks
profile
balanced
woods
supervis
hawaii
##thodox
medicaid
37
dup
lion
mild
pays
##va
inher
##rete
stomach
##olitan
##istry
enact
outstanding
exposed
incident
##agraph
disg
indo
##licit
throne
reluct
##lands
flour
retreat
publications
patron
monthly
passion
palaces
armed
inflation
expecting
connected
arrested
ensuring
attacked
fulf
confirm
deficits
rebuilt
cliffs
controversial
##mir
##rest
##lights
##inity
##any
##ican
beard
proph
conj
cha
spoken
##ems
##ache
##aches
##lock
mons
assigned
handled
planet
viewed
significance
checked
speaker
shrines
innovative
maximum
fingers
finger
ls
prest
unh
agents
##agers
intention
carbon
reconst
legit
genu
entit
temporary
statute
solutions
illin
reaching
focuses
deaths
traditionally
##ourage
treasures
lifesty
songs
carriers
constitutional
intelligence
portrait
kirby
42
fox
mun
tied
##aa
##aff
##ih
##vings
inev
##ashing
notre
deserve
##ocaust
##ologist
allowance
stops
promised
holocaust
assessing
jersey
languages
superior
establishment
injury
picturesque
defeated
illinois
oak
wow
wol
##field
anc
seas
comedy
##ighters
##ardo
useless
warning
editors
delhi
deter
badly
##lessly
villa
hopes
travelers
illness
exhibition
extraord
measurement
boris
sticks
wtp
nich
pupp
##ym
##unning
outs
pregn
belt
warn
simon
patri
prototy
solve
arrest
supposedly
##bbed
automated
florence
cryst
cowboys
ghost
convinced
columbus
fountain
cuisine
thursday
az
foster
gulf
hiring
tie
inject
reign
react
shade
shirts
##opher
suits
##oda
##00s
provin
define
letting
economically
behalf
driver
silk
assistant
neglect
broadcast
hiking
photo
injuries
touched
ultimate
rejected
dozens
39
hatch
theories
##erable
hav
##roph
abroad
spo
paragraph
depth
metrop
terminal
##liers
networks
rocky
##onym
historically
customs
interviews
collabor
sympath
atlanta
surface
##quarters
cot
##makers
##trol
stal
preced
score
##erman
meanwhile
moderate
retrof
discusses
wondering
strongly
substit
attempts
garb
journalists
homeland
prospect
resistance
antonio
tasks
99
##gage
##wr
##alle
##ulating
suic
cans
usa
prepar
##load
margin
membership
alike
impressed
reflects
procedure
verd
rolling
fantastic
uncertainty
sauce
nuclear
vend
yield
##oning
##orious
toph
##urred
deals
polish
fled
talent
nights
files
christians
priorities
permitted
treasure
concerts
nonprofit
joseph
franco
satisfaction
viney
topham
dot
fancy
lag
##orous
##isons
##olate
unne
loves
##erves
marvel
legs
subur
drunk
edward
mainland
horror
soldier
greece
crose
responded
boxes
discounts
advertise
occasional
challenging
derived
##rogen
harsh
ari
dal
elev
nh
tort
##mand
##ault
##rical
##xual
##eled
##owing
##amm
sequ
abc
assign
schem
acres
retain
transaction
apolog
ruling
1989
##sylv
displayed
quarterback
bathroom
graduate
macau
academic
carpet
pennsylv
pierre
mathem
sacrifice
granite
prosecut
aerob
nervous
lifetime
datab
loyal
##hem
##ati
##orca
stim
anger
lips
compound
gras
marry
##athers
##ocr
serb
heading
greet
discussions
esp
hillary
colleagues
dominated
turks
campaigns
deeply
engineer
celebrate
camera
contrary
profitable
emphasis
eliminate
convenient
steady
inhabit
cete
enthusi
phrase
cage
cott
dirt
rivers
wines
zone
##rison
##ll
##fish
##atures
yep
worn
comply
accum
monks
personality
headquarters
admission
cultures
fashioned
fashionable
submit
immediate
utility
targets
occupied
tapes
bonds
masterpiece
ornate
crop
ceter
pushing
##bc
##ker
##10
##inction
bears
##char
alab
nema
libert
tact
commod
invited
flaw
phen
concrete
refers
186
rulers
demanded
drinks
exception
wedding
mirac
adventure
bargain
enjoys
bauerstein
pennsylvania
fet
fate
fbi
##vre
notable
prol
conrad
##quis
quint
reprod
cares
owns
1991
restoration
farming
musc
exploring
princess
suffer
demonstration
fortune
guaranteed
advisory
monetary
weaknesses
prosperity
puerto
unnecess
duck
gest
riv
##rome
##iner
##alo
##rets
stained
##uscan
##ello
brut
brothers
boost
poly
mood
thrown
directions
naturally
wave
polls
sweep
rapier
jeans
tapest
ratio
strictly
brilliant
springs
density
pump
ted
##fare
reorgan
##sters
stan
socc
spare
explicit
carvings
colony
traged
evol
obsc
produces
racial
refres
enjoyable
worthy
competing
regarded
circle
commonly
babies
expertise
adjusted
staircase
philosophy
facilitate
revenues
disclosure
soccer
ging
hm
mwe
nas
pitt
ry
rib
##lord
##ui
##oric
##elle
##stit
stones
##olta
##illa
soil
pron
attended
moor
moors
whereas
ohio
slave
caps
phara
mines
simulation
generated
credibility
holidays
stronger
quarters
gateway
jeff
retailers
dictionary
hastings
nineteen
34
48
44
bart
pap
##mother
##lah
##born
##isan
##cho
orthodox
exha
peas
slaver
##ugs
publicly
excav
oklah
leaf
representing
industries
descend
assessments
observation
merchants
transferred
francisco
pizza
tack
##mony
##esth
##ouri
##idable
##imental
shiva
notion
proc
adapt
perth
overcome
warrant
obst
elastic
stephen
couples
modeling
referral
suffering
indicates
wildlife
attempted
scrut
camer
dependent
aimed
succeeded
osaka
scheduled
triumph
throat
pacific
impeachment
slavery
crew
nar
oly
wan
wool
##ran
##jo
##ora
tok
##ching
abund
ark
themes
commem
coron
hardware
engaged
distract
accountable
availability
satell
120
suggestions
appropriations
madonna
romanesque
contractor
jungle
arrival
legislature
reflected
installations
1970s
connections
1960s
homeless
neighborhoods
dramatically
eggs
surprisingly
exempt
expansion
surgery
cotton
65
cited
cfo
mud
nick
pav
rab
tut
##laimed
##hand
inches
whip
unexp
trump
dipl
revised
tripp
transpar
refuse
sixth
shortly
balear
device
renowned
bike
integration
literally
prisoner
utter
applies
fatal
peaks
academy
athlet
ceremony
eager
exclusive
mansion
analysts
olymp
01
bib
hc
kel
sorts
vig
##aire
##down
##ga
##bits
##anas
istan
gov
##rapped
##ounced
scout
##irect
joke
spear
visa
ruined
tries
2005
wake
listened
recording
1980
references
appeals
paths
demonstrate
counseling
announce
emotional
fantas
boilermakers
hcfa
istanbul
ko
lau
##liss
chin
exit
##udi
outra
moreover
twin
##iana
invaded
suppliers
flash
generate
prominent
antiques
civilization
cataly
failing
drawings
evaluations
threatened
assuming
repeat
suspic
concentrations
revealed
alleged
jacob
warriors
inhabitants
gingrich
tends
wick
xiv
yach
##vas
therap
##ongh
hamp
procl
apple
script
afgh
wanting
shoulders
attached
instinct
2020
calend
traditions
reasonably
execution
hillside
acceptance
godd
battles
mandates
essentially
distributed
demonstrated
meaningful
engagements
puzz
inspection
dishes
chatter
withdraw
grocery
sophisticated
##mandu
aerobics
49
98
dwell
lists
pension
##enberg
##ader
butter
##ieur
sailing
##endous
##oks
timely
payroll
barnes
email
porto
attracted
princes
beds
arranged
banned
districts
purchases
expanding
prayer
bustling
skept
cancer
paradise
lifestyle
extraordinary
oklahoma
aqu
cem
cree
hates
kash
ms
rides
vba
##oe
##rous
##gal
##ider
stall
neut
choc
##oped
abb
univer
cloud
aged
evident
##ressed
populations
passes
steve
steam
measuring
argues
fleet
hearings
circus
straw
mandate
bottle
losses
suitable
territories
beliefs
ceremon
volcanic
kathmandu
voluntary
ceramics
crystal
retrofits
diplom
kashmir
universe
pist
slo
tong
##orse
##ederal
##oul
inch
##asso
##urning
##child
shorter
seats
spots
clou
workforce
##achus
persu
worldwide
beneficial
communist
summit
arches
balcon
competitors
contributed
votes
engineers
physically
literary
borders
introduction
incentive
porch
victorian
prudie
hazard
##angelo
nitrogen
prestig
baza
faint
rush
vic
##uel
##kin
inexp
##eld
##imm
exquis
abra
##osh
lobby
comptrol
fake
grin
ourselves
capita
causing
##ugawa
easter
skilled
extend
crete
trem
promen
minded
devast
11th
formerly
casino
crops
affects
achievement
##related
precisely
tribes
scientists
agriculture
launched
intelligent
suicide
goddess
comptroller
dc
honey
mol
pork
pale
punch
sending
ts
##vy
##vic
##falls
##bled
forests
##amic
##ador
shog
worsh
trash
impose
offs
precious
buses
tale
barry
lesson
milan
technological
classification
receives
volumes
dealt
educated
argent
snork
overseas
convince
privilege
aggressive
tragedy
unexpected
38
bree
dy
dud
dumb
kiss
lin
naked
ties
vivid
##mate
##vin
##vag
##alg
##itudes
stro
##olished
hect
severn
incidents
contest
grate
underground
##iano
moham
format
hungry
massachus
breaks
germans
catal
fails
extravag
mistakes
hosts
matching
proceedings
sponsored
satisfied
conventional
commemor
700
bh
dances
kle
mere
rating
wished
##inter
##omo
##igan
fred
intake
brid
##active
wrest
warned
producing
follows
188
currency
armor
obser
circular
davis
sensit
duties
flexible
complain
limitations
pursu
boiler
amendments
subsidy
escaped
clinical
skiing
pollutants
michelangelo
disappeared
monsieur
garbage
pharaoh
tokugawa
massachuset
bang
hiding
lis
pak
xv
##mond
##ras
##oral
##illo
resolution
actors
bund
subscrib
caes
imported
sinai
posted
classified
reviewing
varied
salv
lowest
identical
compete
seaf
norman
santo
bayliss
navy
channels
schedules
remarked
sanctuary
assembly
diamond
mohammed
nave
ward
wire
waves
##lined
##idency
##amin
alley
##cking
##abeth
meals
##aping
pear
##izabeth
##acks
disability
tracks
joe
costly
elizabeth
175
texan
antique
arguments
hurry
acquire
rider
casa
evaluated
hindus
incorrect
climbing
symptom
solely
institutional
incredible
evolutionary
pirates
aggregate
67
bast
dick
hip
rugged
si
wag
##vable
##fers
##pir
##pers
##umin
##cia
lovers
que
##osexual
colored
invo
string
highlights
studio
##ribly
humid
paused
professors
absurd
lights
checks
slept
crossed
photos
jean
shooting
luxur
fortunate
pedest
anticipated
monopoly
genuine
phenom
massachusetts
77
cad
dental
ease
fier
lan
pets
rico
tang
##gments
shame
##uster
envelop
arist
reporter
backed
##resses
slopes
ending
priests
affirm
excite
winding
sounded
yorker
protecting
variation
failures
evaluating
featured
encouraging
cuban
predicted
pulling
gathering
appointed
electronics
vulnerable
pentagon
equivalent
moorish
pakistan
47
ger
gle
gender
pose
pants
wins
##iat
##his
##po
##itarian
bearing
dean
##ortions
unions
accent
locally
medium
engines
distinction
museo
senator
singer
singing
promul
questioned
determination
##lusion
panor
planted
focusing
versa
mortgage
analyzed
industrialist
criticism
printed
feedback
worksharing
depression
barriers
unnecessary
43
vet
inapp
betray
invaders
adds
smallest
planets
modified
insur
postage
curve
waterfront
missile
landed
sectors
grey
##pson
difficulties
ignor
investigations
advocacy
pursue
poetry
corruption
emerged
zeal
ancest
59
della
han
nu
races
sq
sque
yan
##ture
##rick
##iable
##pered
##omy
chances
unim
##enders
##agu
guest
moves
regret
specul
##ails
artistic
happily
barb
followers
winner
merit
bald
floors
impacts
basement
painter
consistently
prisoners
luxor
instrument
ownership
coalition
jumped
cooper
mansions
overwhelming
unhapp
afghan
calendar
61
fame
iolta
toss
reass
stiff
##see
##iga
##uman
outer
clut
trim
quote
interrupted
coat
goodness
scots
##ava
supporters
returning
proportion
grave
cheese
confusion
mailer
youngest
steal
panels
creatures
packed
bankrupt
attempting
administrators
aston
relaxing
depicting
chemicals
kilomet
saddam
disappointed
mosaics
chatterbox
41
cbo
dent
fighters
gear
ic
##father
##pread
##erie
ford
outlo
incomp
brows
##into
recycle
helms
artific
charm
skull
missouri
180
generous
irre
demanding
adjustments
decreased
bullet
suspected
inspector
atlantic
episode
havana
abraham
bold
bapt
##lu
##fr
##isure
##elon
##ila
##otte
stalls
##ayed
##changed
##rie
leisure
##apse
arth
##ensed
paralle
visual
popul
approve
economies
formula
advised
dawn
drives
gardening
filing
horiz
flee
ranking
stocks
nonex
casinos
hyd
sampling
textile
naples
birthday
reveal
alexand
lifted
harvard
compromise
duplic
vineyards
46
fern
sik
wis
##rals
theaters
##ito
##rey
beck
##olly
alter
convent
##geous
alliance
aging
quoted
boots
##ermen
configuration
collecting
potentially
##aware
hopefully
shrugged
preparing
cleaning
scenery
combat
imagination
shares
jamaican
crypt
minimal
awarded
vault
ratings
cabinet
inquiry
chocolate
dign
rushed
##eem
##bell
toy
##olo
##theless
##keys
cher
##anted
hispan
outf
##ishes
tai
feas
nevertheless
underlying
legacy
elite
valle
respected
defending
signature
millenn
equipped
##shire
fishermen
bitter
devices
nationwide
junior
correctly
bias
agrees
prospective
automob
picasso
advocate
monumental
mirror
volunteers
publishing
partnership
arrangements
updated
kicked
cosm
storage
excitement
outlook
bid
brew
benn
hond
kam
session
##yard
##bl
notably
##cio
workplace
teeth
export
interven
bugs
marine
marsh
deserves
##aco
trains
valued
populated
metap
technique
airlines
##aughters
condem
##liest
179
##otto
describing
completion
influences
lacks
cruel
1960
efficiently
concepts
monasteries
explanations
nye
allocation
pillars
incorporated
accompanied
makers
tranqu
murdered
clouds
dump
gord
lets
sigh
##tic
##uity
##wart
##ala
##leas
stages
asks
neo
deer
chop
butt
spite
spokes
##endered
closing
timing
##anship
diagn
##itty
publicity
barbe
##idespread
politically
discussing
presentation
silly
moments
participated
turt
approached
lacking
greeks
declining
250
sadly
observations
accomplished
conflicts
obtaining
honorable
porcel
gentleman
synag
gauve
orchest
shouted
administered
astronomer
mysterious
ritual
entitled
database
satellite
catalyst
exquisite
sensitivity
97
lane
mum
pas
rick
vess
##och
##itious
##omfort
##lete
stays
##adian
comic
##asted
peer
agent
bucks
##acent
trav
counted
insight
propag
posts
nightlife
armies
existed
sells
eighteen
ladies
conducting
evaluators
surviv
collaps
malls
graduated
provider
resolved
linda
nonfederal
procure
900
berg
cale
hid
mumb
nons
voc
widespread
##rics
##pass
##cus
##cue
##care
theor
stunning
anch
cancel
priced
donation
##izer
sheer
cared
grim
##osevic
buck
scouts
retrofit
insist
barrel
finances
landing
budgetary
sunny
hook
brave
associations
richards
holes
circuit
avoiding
hurric
foreigners
junk
emerging
respectively
threats
utah
appreciated
suspicious
picnic
transformed
validity
rebuild
resolve
stabbed
frozen
souvenirs
cafes
dreams
delicate
dagger
daughters
lung
sed
tuck
wand
##iti
stability
neu
button
##unction
adap
usps
perce
exped
overc
##ogether
consists
belg
surge
discl
economist
triang
milosevic
senor
missions
menu
anne
salad
foods
authorization
civilian
grandmother
1987
variable
michigan
hike
celebrities
closest
automatically
precise
conquer
emotion
kentuckian
cooperation
exclusively
controversy
cloak
borrowing
constraints
mathemat
arthur
96
cattle
gently
hub
jal
kur
pile
sba
##trap
ingr
inade
##enth
##kef
comed
org
##riate
donated
perp
reply
intim
brass
trace
regist
presidency
keys
addict
readily
factories
audited
operational
salaries
routine
screens
universities
settlers
communicate
deny
mandra
##rooms
rebell
permits
respondents
contrad
restricted
qualitative
tastes
collapse
altogether
melaka
yelled
substantially
merchand
fortunately
obligations
champions
scholarship
manufacturer
venture
novak
charlotte
rockef
unhappy
artificial
inadequ
census
gab
gsa
jet
rud
wo
##lical
##bu
##erated
##inely
##esford
##onic
##leans
alert
##adv
fried
orleans
##ums
##umber
incons
conting
root
bump
screw
indirect
strongh
parking
governmental
delicious
cleared
##iciary
lesser
certified
privat
reviewers
182
mainstream
calc
merger
associates
flew
##ographical
painters
plantation
creates
illum
wishes
achievements
interviewed
quantitative
olive
contempl
beresford
coordination
buffalo
elephant
producers
alabama
promenade
pursuant
rockefeller
stronghold
72
bot
cul
kim
lon
mt
##yth
##hin
##anches
##aye
##ami
align
frowned
abd
enl
spell
##inking
##gram
newer
containing
heroes
coco
partly
##eps
guards
parc
##olded
costumes
pubs
##atherine
bases
restra
corrid
investing
glimp
184
sixteen
identification
burial
specified
louvre
suffici
absolute
arabs
##etto
apparent
bottles
willingness
railroad
odds
hello
logical
calculated
dialogue
temperature
shifted
recruit
##committ
##bourg
taxpayers
legitimate
glimpse
aunt
cord
sisters
##mith
##top
##aic
##iety
##hou
##inople
##icop
##etical
stitch
exter
unrest
peop
offsh
carn
disadv
feud
coins
cobb
smok
wherever
relics
parade
presum
##unded
differently
planes
drank
ears
thoughtfully
tourn
particles
practically
departure
harass
hobby
178
##aneous
burst
murm
deadline
glasses
1974
virtual
adventur
masters
deposition
motivation
legendary
reconf
bicycle
affirmative
bac
kh
nut
sessions
tib
wrap
##me
##houses
##enon
##itis
##icking
beef
staring
##roe
convert
##ighth
liability
saudi
##eman
adam
contents
interf
relie
longest
##athan
flu
realistic
coral
formidable
viewing
swall
glance
generating
occurs
judicial
##aneously
suggestion
saints
1988
furthermore
separated
affordable
essay
accurately
homosexual
automatic
searching
assumes
criticized
depicted
rangers
logic
victoria
mechanisms
confidential
palestinian
sustain
flavor
eh
hint
jaw
rhod
rental
racing
sway
wives
##vest
##bow
infer
##rac
##arten
amid
wells
carries
appra
scores
smiling
preserve
geno
genius
capit
ell
larry
endorse
simult
anno
traders
##retion
considerations
massac
uncomfort
exhibitions
philipp
##ippers
flyer
flytrap
benj
videos
unpleas
registered
kitchell
shocked
overlooking
mutual
accommodate
incredibly
arkansas
tournament
71
dare
eg
fy
gut
hence
hitting
ku
ray
##away
##uate
##arn
##arial
##omin
reich
##state
dei
exagger
manip
unl
loop
loose
composed
amiga
seeks
helicop
consensus
opm
preserv
bland
supplied
subcommitt
restore
humor
hobb
colleges
civic
accordingly
149
voices
##iosity
tendency
drops
garage
deduct
constantinople
applying
throwing
counterp
negotiations
ramparts
renovated
elephants
prohibited
anxious
pregnant
cemet
58
aids
aesth
bah
dimin
gand
hits
poured
vie
vamp
ware
##oved
##bing
##bling
andrew
##owa
stir
haul
##sem
##tha
chart
##anting
maus
pepper
sheet
diet
replic
roots
scattered
##iley
afterwards
legally
##phia
advise
raid
annette
alongside
billions
stein
choir
dealer
balances
baltim
netscape
applicants
broader
biography
philadel
fema
invented
sightse
tracking
subsequently
volcano
palestine
reservations
toxicity
fertile
settlements
struggling
isolated
australia
complaints
##onymous
ariz
tapestries
scrutiny
neutral
inexpensive
seafood
symptoms
luxurious
benjamin
baltimore
biz
eighth
jam
mes
pom
sic
wre
##orus
chairs
##oded
enlight
max
carl
boasts
desired
relation
persian
capabilities
drama
earliest
farms
financially
##mann
lowered
promises
specialty
minds
approaching
italians
flowing
##aska
citizen
contacted
praised
inspiration
occupation
semi
negotiated
naval
absorber
pilgrim
columbia
revolving
scheme
grateful
bridges
aph
bent
bored
hats
nost
rav
wrapped
##onia
##icism
reck
habits
##urable
##iments
shots
sep
thereby
##ista
##osaur
cany
pricing
safer
ups
intrig
herod
disord
dislike
preach
assured
counting
performers
possess
raises
landmark
continuous
executed
braz
burd
125
favored
banking
troubles
separately
officially
adjacent
journalism
enhanced
willey
eliminated
convenience
portraits
cigarette
refugees
seaside
gordon
philadelphia
arizona
bite
dive
fi
gild
kansas
lap
som
sie
##limin
##din
##cos
##70
##enin
##ione
seated
deck
##usive
allies
manusc
##apore
##cials
lobb
intric
intense
carav
bug
centered
fires
evenings
invite
assault
presidents
acre
handful
discoura
grabbed
possibilities
camps
185
freeze
thirteen
specialists
girlfriend
absent
arguing
1986
offerings
societ
jerry
honored
narrative
swept
procedural
1970
mistaken
dispos
analyze
conditioning
obligation
recovery
discrimin
desperate
allegations
discipline
shogun
alexandria
ingred
cemetery
mausole
manuscript
73
bom
iowa
nest
ri
vib
wander
xii
##mat
##aving
##hill
##word
##enous
##oust
##veys
##ulent
##ulative
seasons
dock
##osity
cler
clue
comparing
flan
foundations
meters
confront
glory
202
operator
salmon
singapore
wonders
devil
obsession
custody
versus
horseback
##ippi
louisiana
balls
tomatoes
responding
entertaining
symbols
appealing
seventh
graduates
bothered
honestly
oriental
protestant
enjoying
graceful
leonardo
pavil
porcelain
62
ced
cite
cia
foss
fighter
hoc
ker
ritz
soup
tank
##oen
##no
##nie
##atra
toled
##iman
alan
chew
##ando
meets
##osis
plains
whatso
reserved
robb
twisted
branches
acted
prelimin
underne
##issippi
callie
handy
audio
designer
swamp
mississippi
salon
ruler
descriptions
christopher
screaming
array
egyptians
eaten
examining
cooked
survival
##etta
conferences
occasions
williams
novels
guarantees
buddhism
conquered
forbes
codes
whispered
masterpieces
lavish
acknowledged
enacted
reluctant
municip
utterly
tongue
lisbon
tibet
whatsoever
underneath
54
66
cass
cute
celt
jf
mike
pause
ric
roth
tid
tony
##mere
##rum
beth
##sect
##olas
##irer
##rak
##antages
##odes
##riel
soap
lect
##uda
clay
whoever
incurred
intact
intensive
##berts
lazy
actu
##asses
mock
sometime
relate
secular
regards
funeral
fourteen
walter
admired
probability
annoy
facult
##bridge
definitions
penang
contractors
celebrity
affecting
deserted
revolutionary
baths
stretches
photographs
mechanism
replacement
delayed
injection
tactics
valleys
gabriel
offshore
unpleasant
divid
jokes
kau
kenn
rank
tuscan
##post
##kers
thread
toys
##alay
##rea
##roc
##oline
shipping
lied
sober
plate
##astroph
unco
upcoming
timber
intens
roberts
relatives
costing
bless
supper
countless
curiosity
admire
termin
origins
stephan
associate
accepting
expectation
historians
##umbling
130
planting
catastroph
characteristic
hipp
democrat
restriction
ethics
picking
ranging
terrorists
sharply
##belie
dialect
migrant
intentions
dolph
encounter
opponents
preparation
reorganization
##stitution
biblical
bazaar
peoples
erupt
hed
porn
ruth
wagon
yards
##matic
##ho
##hist
##hma
##66
##esters
##eda
##omon
revel
lip
##rix
enqu
##cca
##ager
disabled
commander
guilt
moore
founding
swift
possession
landlord
terribly
refuses
trek
greens
noneth
penet
bones
messages
sweat
##burse
farmer
##chester
permission
##worth
samples
##oiselle
reveals
websites
deposit
transformation
allocated
promoting
breeding
cigarettes
korea
bosn
consolidated
georgia
yanke
feasible
procurement
registration
exterior
annoying
subcommittee
mausoleum
nonetheless
bits
gee
hier
nara
piano
rou
rif
wings
##manship
##lap
##sis
##hy
##bre
##ani
##reach
alph
aswan
convey
enfor
unaware
##emoiselle
load
usage
newest
intr
##uba
coinc
1950
lott
lotus
umb
attitudes
beloved
courthouse
famine
founder
gaul
defect
grows
statutes
villagers
halfway
solved
epic
geographic
alcoholism
recognizing
1982
mademoiselle
indicators
dresses
crucif
altitude
##guard
advisers
recipient
terrorist
foolish
athens
incorporate
thoroughly
accompanying
cinema
loren
mosaic
cockpit
hypothesis
##donald
excursions
inadequate
burdens
courage
dread
lump
osc
rope
ses
tips
vouch
##burn
##bted
##repr
beating
reed
alban
shakes
shinto
seized
segment
##ours
##ourse
arise
overt
margar
costa
##mmet
defer
hugh
processed
rises
specialized
participating
memories
expects
males
referring
structured
ranks
journalist
progressive
birthplace
faithful
innovation
navig
bargaining
witnesses
forbidden
distinctive
pyramids
attributed
fountains
warrior
tuition
thriving
undertaken
enterprise
disgust
substitute
promulg
inapprop
sightseeing
preliminary
enquirer
##reprene
cel
eil
icon
jard
kios
lc
lush
pall
sid
tam
tul
tier
witch
##min
##iah
##uously
##bet
##wi
##15
##enger
##inge
stere
chains
##rah
suited
plun
amended
index
parole
governors
addiction
deput
caut
endang
insult
simulations
##iov
miller
confusing
nightcl
practition
infant
budgets
burg
worthwhile
observe
historian
variables
erotic
arriving
convinc
featuring
dispute
mixture
targeted
seventeen
vegetable
eligibility
rubin
henri
innovations
neighboring
wilson
loudly
tiger
subtle
remarks
electronically
opponent
diesel
prototypes
balearics
therapy
argentina
versailles
propaganda
uncomfortable
eilat
dow
ein
fathers
pon
pud
ports
##yre
##gue
##fty
##ports
##30
tooth
##isers
##isans
whit
als
chips
spouse
spends
spraw
##aug
perj
prehist
mars
conspir
charity
demons
pointe
distant
affil
severely
passaic
dried
traded
delivering
villas
texans
128
divide
copper
1983
initiated
versions
reflection
consistency
beaten
liberals
rented
colonn
fuji
printing
quantity
motivated
blew
gigantic
enclosed
francois
brutal
transparent
pedestrian
millennium
synagogue
hobbies
canyon
java
oro
##rer
##sen
##dale
##fp
##38
toll
##itate
##isse
alumn
shake
##ulously
seed
plates
noon
##apolis
grat
mugh
scuba
accidents
##ograp
tract
parish
assure
instant
streams
mighty
emily
##aires
raw
##rup
tennes
choosing
judgments
jewels
sne
hunger
commissioned
##umbled
religions
superst
deeper
celebration
radical
scratch
dependence
removal
sarc
conclude
1950s
instructions
utilities
prescrib
snake
##brand
liquid
marginal
suspicion
caesar
overcrow
nostalg
alumni
57
bount
ff
hust
ile
mow
pbs
pestic
##view
##arre
##lem
stol
whites
##urity
alps
alright
heels
##ithe
orang
canvas
manif
donate
##ishop
amen
intend
cohen
buzz
##ometric
deciding
programming
param
remem
slaughter
talented
islanders
glorious
freezing
identifies
considerably
floating
recognizes
##anne
bonus
dinosaur
camel
psychology
concentrated
mallorca
interpre
photography
pillar
trucks
knocked
harvest
vsl
fulfill
reconstruct
cottage
merchandise
gilded
burgund
tennessee
cd
dell
fen
fwi
pt
sour
zelon
##oan
##mart
##rust
##sr
##gins
##fman
##esc
##enna
##oria
inbound
revers
##sein
##ambo
shor
shining
atop
deities
outbound
loaded
exports
brow
accel
accus
##anging
relied
capability
worlds
modification
entreprene
priest
pointing
senators
profound
drift
operators
paula
bloody
170
movements
europeans
checking
friendship
1000
midnight
qualify
jacket
bulk
citizenship
tunnel
##iyre
stamps
tremendous
survivors
mumbai
richardson
jalan
toledo
dw
dere
dense
pard
pensions
sip
sizes
zen
##ni
##gic
##vals
##aro
inaug
##itary
##urf
##urai
##opp
allen
spar
spark
##quet
adul
perf
perception
yearly
overhead
intoxic
underm
olds
counties
insisted
controlling
##inson
extension
glam
maine
sunlight
attracts
##workers
screamed
disputes
briefly
stewart
oliver
satheri
litigants
overlooked
sustained
deemed
dismissed
axe
indigent
pundit
pundits
descendants
perpet
botan
feudal
reconfiguration
78
bak
fles
lions
nbc
pok
ross
sized
verm
##mish
##uv
##zare
##wich
##oro
##anim
rear
shah
compat
##izations
himalay
preval
##acles
blades
bluff
##ailed
artisans
##ologically
minar
bookst
confed
brook
suggesting
destinations
hussein
environments
##ovitz
speaks
reno
mosc
commented
conversations
liberation
introduce
##uku
archaeologists
champion
craftsmen
stretching
saddle
prevention
cinemas
desperately
korean
landscapes
supervisor
suburbs
bennett
presumably
brazil
##ographer
danc
tire
vish
##ecess
##zan
##jud
reef
##etically
forment
##amel
shield
docket
ornam
##istine
abrupt
lever
##unci
##umble
plaster
nois
unbelie
lover
upgr
quaint
twist
appet
indul
inval
secrets
downs
keen
##ression
surveys
reduces
revision
resting
skys
curb
auto
formation
disturb
serge
##lington
viewers
greco
sanctions
awake
cef
travels
regulated
fights
maintains
unfunded
independently
lacked
predecess
establishments
##govern
doubts
citadel
603
submission
gradually
bands
giants
welcom
comparable
tribe
unfortunate
nyt
synth
reliefs
assassin
elementary
embrace
##acca
isolation
nazi
ronald
vendors
apologize
gesture
cameras
kelly
hampshire
dudovitz
lantern
squee
simultaneously
bizarre
aphis
lobbying
welcomed
bass
dated
eve
fid
mister
##lon
##iji
##cs
##40
reverse
##ido
hack
heir
shed
##estim
##illion
chim
##ckets
canadian
manh
composition
##izz
shep
incumb
quot
overtime
needle
maria
desirable
##erald
informal
governing
##ailing
acrose
slipped
payche
feder
phoen
kinderg
##ews
norther
charging
portions
marketplace
irrit
favour
claiming
assessed
knowledgeable
complexity
bandits
sundays
bowed
ranges
removing
##marks
illustrates
thompson
bureaucr
cups
supervision
excessive
veteran
inhabited
cheerful
cycl
inevitable
obscure
aristocr
inappropriate
cure
fare
jus
jog
kes
ligh
slic
tires
troy
wip
##nu
##rale
##uana
##win
##48
##imb
neph
fraction
deleg
exh
##umed
maps
spray
unlo
resid
colt
marina
##iani
##icks
flows
slope
depreci
discretion
retained
ruin
autumn
signal
advances
##beat
2003
mature
practiced
practicing
generators
judged
freely
credible
##ynes
pressed
answering
shrubs
packages
corners
imagin
gasoline
cartoon
##iya
1930s
cells
wheels
bargains
bait
recovered
dusty
intellectuals
provence
attributes
terrific
mitig
cumulative
prosecutor
##luent
horizon
nonexchange
wisdom
adapted
capitol
celtic
shakespe
moscow
gon
gays
jar
lyr
mint
vatic
##ikes
##card
##wal
##ilia
##otine
alic
##oping
lik
##usible
##arded
meg
cane
enable
##unic
##aste
unst
unav
unchanged
justified
##grad
partition
##assion
##ertime
##wear
belly
lasting
imports
aviv
considers
waterfalls
mills
testament
politician
arched
apaches
walled
sentences
fortified
sainte
nationally
appropriation
attacking
troubled
venue
crossing
##iffer
ignoring
pilots
rolled
##itzer
prevented
elders
unpop
arabia
terrain
bathing
robust
conquest
##piece
belonged
carpets
oxides
pige
krug
anthrop
distinguish
sequence
balconies
extravagant
afghanistan
kilometers
automobile
gandhi
municipal
actuarial
faculty
kaufman
stolen
52
90s
echo
hilt
japp
lamp
lyn
pity
rag
rfp
wig
##mn
##mel
##ti
##de
##ders
##ua
##uccess
##bach
##oulos
##inging
##itar
anderson
reun
##section
##chi
exile
loving
adorn
##aho
resent
inclined
disk
##log
colour
##veland
attending
blanc
famed
slip
phases
demographic
cheek
watergate
explaining
risen
stealing
deliveries
176
cracked
##attan
cops
sooner
1984
145
panthe
russians
##portant
fixing
philip
threatening
purchasing
analyt
amazed
colonies
##guards
1920s
mcdonald
subsidies
##books
tigers
outlaw
graphic
monarchy
##keeping
portrayed
inevit
metropolitan
creek
hectares
unimportant
contradict
harassment
vishnu
shakespeare
awhile
cors
gins
kan
kidding
oas
rous
ripped
tud
tension
##ean
##lass
##boy
##rev
##ctional
##uri
altered
##udge
##astically
outreach
boot
scra
##akura
opens
regime
fluct
subway
empower
##phy
drum
demolished
formally
invested
##elson
behave
mounted
##enne
footst
grantee
arena
ranch
mosqu
embass
candle
mistress
titian
urged
cathedrale
permitting
precision
2015
feeding
illustrate
dynamic
arrangement
ferries
tubacca
gorgeous
##points
pollutant
deliberately
juris
forecast
embarrassed
indigenous
ceteau
coroner
proclaimed
strawber
snorkeling
astonishing
intricate
convincing
flesh
vatican
analytical
85
gaining
gym
jenn
jaff
lubb
sod
vel
##ez
##held
##went
reci
rewards
stur
stack
atom
suck
knight
abst
##ardy
##quest
peel
quay
interfer
roose
prejud
remn
gene
wrist
slam
shower
earning
reads
metro
barik
poste
booksh
terre
apology
##boats
epid
attracting
160
castro
treating
chapters
influential
cleaned
examines
biological
evaluator
##ophag
##ilingual
litter
distribute
borne
qualities
rolls
crying
contacts
telecomm
unsure
unsuccess
guarded
tribal
spreading
amph
shadows
permanently
aimd
heroic
clinic
update
tube
acknowledge
receipts
snapped
taxpayer
prophet
commodity
miracle
exhausted
abundant
taiwan
stephanop
crucifix
promulgated
prehistoric
##zarek
formentera
unpopular
krugman
lubbock
recipe
51
88
csr
hh
hoss
kells
nag
pour
pip
tens
ville
woke
##mo
##rative
##fia
##col
##cely
##will
thumb
inex
##ente
##ili
rect
rever
forfe
shin
shorts
atm
##mphis
leap
memphis
ench
##una
peers
justify
ami
poets
##velt
marij
attain
schwart
##uala
careers
playground
cleveland
tempor
tempted
admissions
judiciary
awes
wallace
breast
hilltop
potatoes
flemish
trusted
manufacture
quarrel
cardinal
commentary
investigate
layers
punished
sorb
ambitious
randy
taller
terraces
escal
absorbed
expenditure
graphics
windsurf
revenge
plotz
consciousness
akbar
miniature
excluded
verdict
catalog
parallel
cobbled
homosexuality
apprais
pilgrimage
manuscripts
burgundy
sergeant
federally
pantheon
roosevelt
marijuana
schwartz
beng
boud
cp
dorm
fas
gn
loun
mouse
morn
misc
mask
rape
vert
##taking
##gon
##uated
##vis
##bat
##wick
thunder
ther
##oubted
##isp
##entine
sto
##rove
albe
seeds
goya
##iston
spy
spices
plum
outlets
clan
clich
pecul
advers
##heric
impair
diver
coin
undoubted
traces
##onsin
blend
##athed
##ermere
insights
barra
barren
skirts
auton
grab
transc
transpl
swed
collective
varies
limiting
windermere
immense
buyer
competent
squares
necessity
credits
pressures
halls
plantations
characterized
combine
broadway
reportedly
doubled
darkness
mandated
dropping
scrub
integral
jesse
asthma
applaud
ethn
petition
minorities
minimize
tallest
tribute
stretched
breathtaking
mercen
maximize
abandon
digital
crusade
rumors
outdoors
kram
charlie
boilermaker
hesitated
episodes
hammer
excursion
recreation
confirmation
intimid
sicily
societies
pavilion
sarcophag
shoreline
jaffa
epidem
albeit
peculiar
56
69
74
bind
bone
duc
dazz
gum
ipm
kin
kuala
ling
masc
oreg
tad
##eu
##tra
##aus
##aise
##dg
##gra
##pat
##power
##isive
##olome
##iratory
alp
asp
knees
abilities
nobles
##ourt
unhe
adoles
theirs
##ifiable
imprison
##ounted
quart
##agg
repay
grid
interrupt
dispar
##aky
##iac
marking
consort
synd
trap
parale
joining
acro
flame
gaze
barr
##iciencies
admir
missiles
glow
continental
secondary
clearing
volat
harmon
promoted
originated
questioning
shortage
husbands
referrals
woodward
laboratory
hurts
ern
##archy
panic
manufactured
preference
draws
linking
reflecting
casc
establishes
garment
frequency
constitute
analyzing
predictable
skinned
lengthy
##agonal
defenders
emphasized
adequately
reminded
repeatedly
maker
rigid
lyon
frightened
conjunction
chaos
nasa
nickn
olympic
wicked
ceremonial
hazardous
vessels
greenspan
margaret
kindergarten
lighthouse
alicante
awesome
oregon
02
ais
bun
bambo
catherine
czarek
font
gol
hort
lal
lun
mul
mound
rage
rude
##agr
##lav
##bes
##onies
topped
insc
##urbed
##chitis
heb
##geois
knights
allied
nobel
unin
##ishment
contra
committing
underwater
##erton
##ainted
minnes
respiratory
readiness
watches
gracious
benefited
financed
profiles
confess
accounted
majestic
glanced
explored
exploded
stupa
generaliz
stopping
harris
eyed
magical
promising
destro
grandfather
seller
objections
architects
selecting
documented
denver
investigators
misunder
decorative
liberty
spirits
meantime
##worthy
bronchitis
psychological
challenged
galile
neighbour
terrorism
emotions
crusaders
pigs
dominant
ponds
prompted
prescription
supplementary
emerge
bourgeois
washed
sweeping
evolved
athletes
yacht
pistol
spokesman
inconsistent
sepul
alsace
footsteps
windsurfing
bengal
undoubtedly
bamboo
hood
lut
mi
muss
nuts
pis
rip
rows
##nels
##rons
##dle
##gent
##75
##inth
##asters
rehab
##str
consec
chau
oral
canals
##umer
pled
unm
compassion
##ounce
perenn
impl
quotes
repairs
overr
overd
dischar
dissem
mund
pooh
descent
backs
tragic
blond
blaz
##ocation
warner
delays
defended
revived
revival
factual
companion
advantages
serbs
tempt
patrick
accountants
raids
salam
wax
harb
amongst
windy
towering
antiqu
printer
protective
contribut
replacing
conviction
females
threaten
spotted
luckily
misd
complained
firmly
comparisons
vegetarian
macroe
consulting
reagent
warsaw
crusader
reminder
coordinated
blanket
georgian
vinci
summarized
neglected
refresh
cosmop
kamakura
collapsed
perceived
ingredients
inevitably
stephanopoulos
minnesota
macroeconom
92
gil
kins
loses
nass
nagas
pomp
raining
sull
##ea
##len
##fire
##alous
##arine
itiner
strol
##roid
wears
congr
goat
##mpt
maid
spun
offensive
disli
disgu
feared
buys
smar
downstairs
blown
kevin
governmentwide
basin
cake
caution
edo
correl
medi
hardest
airpl
functional
musicians
campbell
annie
privately
continually
generals
summers
drain
listing
##pectives
brains
snakes
treatments
banana
bananas
##ospheric
indicator
respective
degas
hosted
verify
layer
etr
matched
functioning
ninth
groves
austria
tunnels
substantive
##marked
consequence
rhyth
appointment
assertion
switched
fertility
##after
fragile
prolif
fantasy
laund
##children
prestigious
championship
deputy
temporarily
kramenin
fog
fitting
kend
lighter
mower
mamm
nan
pending
tents
tiles
wisc
##nas
##yle
##34
bever
beij
reop
reception
##lyn
haun
##chio
shaded
shapes
notices
nev
nebr
##ersed
seattle
chase
sued
##ripp
enabled
nob
unn
trin
upr
resign
carriage
overth
interaction
discip
disabilities
##ensively
marx
thrill
##onscious
governance
kef
suburb
perspectives
baseline
handles
retal
tales
ende
rua
happiness
technically
communism
confined
portal
passenger
equity
opposing
infin
calle
halt
harbour
winters
awa
romance
solar
solomon
cannon
sentencing
routinely
contributing
variations
unfor
speakers
israelis
wildly
rapha
sciences
veron
##backs
spiral
appreciation
decreasing
symbolic
depicts
sheltered
malaysian
consultant
comprises
rubber
subsidized
penalties
storms
clinics
temperatures
cloister
embraced
enthusias
strangers
disclosures
hugo
liquor
wolves
province
marvelous
elasticity
announcement
devastating
leisurely
fernando
wandering
rebellion
siege
dereg
ginsburg
cosmopolitan
wisconsin
beijing
bend
dur
gour
gary
gib
hog
hik
hmos
kab
mant
owe
somed
wp
##aved
##lore
##gi
##uum
##itations
##reed
##storm
forcing
##rood
noting
conced
##udic
amate
amusing
##aga
grill
overnight
interactive
boating
partially
precip
scare
needy
mare
polite
##oths
blessed
requester
belts
genre
##ugg
insuff
barn
medici
##iciaries
developments
grapes
##iera
beneficiaries
turner
patrol
181
##amese
thirds
merr
irrig
presentations
holdings
##boat
labeled
stylish
ballet
impacted
hunter
journals
duomo
softly
predomin
encourages
surviving
1975
conservation
discounted
shallow
holyrood
prints
samurai
strengthened
boundaries
lawns
concludes
##compl
bureaucra
nominal
exploration
revolt
trendy
mentally
hijacked
tanks
promptly
anthony
spacious
pagoda
inherent
suburban
prosecutors
outrage
observers
envelope
bankruptcy
duplicate
outfit
metaphor
calculation
murmured
intriguing
bombs
perjury
bounty
paycheck
northerner
endeav
someday
bened
dues
imb
lanes
nerve
ost
pac
pits
rents
ramb
vague
vicious
yok
##iets
##sed
##pur
##inas
##inians
##eli
ree
stem
stole
##vere
angle
anonymous
heights
worries
manages
placing
saves
clust
##oka
##ounding
tak
grades
rooney
boast
crashed
martha
##acle
thres
backing
##amped
download
genetic
differing
realign
##ainties
##scale
endless
charter
propose
sket
eman
headline
creole
summertime
viable
151
killer
##holder
129
worthless
163
domes
assisted
dougl
deadly
painful
surroundings
strikes
stripped
declare
observatory
1979
martyr
titles
injust
proposition
janet
troop
coward
strengthen
consultants
saturdays
remarkably
fabulous
gentlemen
trailer
tenth
nepdg
varying
arcade
satisfy
encountered
inquiries
feminists
enterprises
pitts
tranquil
sufficiently
preservation
vibrant
practitioners
disturbing
sturdy
nagasaki
nebraska
89
cv
cau
dug
fost
hardship
nam
nasty
nelson
vest
##nut
##giving
##cer
##xon
##ws
##inous
##icut
##leine
##lehem
stern
##olia
ank
weed
goss
knee
##elli
##osa
prado
spaces
unsc
unanim
outd
donald
trig
teleg
tavern
amar
incomes
carr
caring
mule
actress
crushed
remin
madeleine
studios
busiest
pharm
endors
edif
gaz
daim
protests
pretend
secured
shoppers
arche
sixties
reasoning
cultiv
##ommon
favors
domed
credited
fortifications
castles
madame
##anni
violate
purple
##lette
indianapolis
documentary
401
automation
kidna
demonstrates
searched
crafted
drafted
laughing
scientist
francisc
hypoc
workshops
mechanical
pm2
belongs
eliminating
harmony
deposits
interpretations
tablo
shifting
dragged
pirate
ascend
seldom
landscaped
frustrated
frustrating
lodge
ineffect
felipe
enthusiastic
libertarian
explicitly
exhaust
evidently
grinned
breeze
hurricane
mandrake
woven
vampire
bethlehem
hughes
manhattan
boudoir
smarter
70s
bore
cm
eb
fitz
jod
ov
posed
tide
tended
wat
zo
##oard
##lings
##fu
theod
##erget
##inn
inacc
revered
staged
hagg
##urate
##mented
frames
chanc
aboard
soaring
trent
anytime
amy
diary
repet
intimate
grind
twins
poem
marco
servants
poles
bloss
##racted
##ocative
slower
obey
##phe
metres
barbar
proportions
particulate
##ecd
matt
equation
tops
projection
posit
breasts
sunsh
enclos
doorway
debts
sorting
hunters
lightning
contributes
arrow
uncommon
##ikoff
ladder
convicted
indication
adjo
shareholders
rebels
##etti
dispatch
hostile
triple
warmth
laying
conversion
advertisers
murderer
breathing
burns
pursuing
wider
rubens
brightly
negotiate
emphasize
oxley
accidentally
soviets
conceived
rewarding
spinning
adoption
struggled
joyce
dictator
plausible
supervisors
puppet
paragraphs
nhh
barbecue
turtles
orchestra
xiii
lorenzo
sorbent
generalizability
enthusiasm
68
80s
bunk
bidding
couch
das
egl
fow
faded
hale
lt
qa
sends
vain
voy
##diction
##uci
##was
##jon
##onso
##ington
##icy
##ilings
##eters
stance
stagn
alc
shy
shiny
shields
##ulates
weaving
conform
##istically
##ustomed
abu
sovere
spont
hass
##aph
unb
unrelated
willie
##oku
tag
offense
britt
bruce
cole
cove
cran
needing
marri
wayne
opium
##olds
blm
warfare
mode
mining
sins
curse
controller
protested
certainty
morgan
stepping
greed
successes
additionally
noncompl
173
horrif
flea
devot
##lusive
err
tiber
boyfriend
santor
commercials
hyper
balloon
beatty
magnitude
21st
ambass
austin
boilers
roofs
##uki
scholar
adventures
masks
calculate
motivational
rhet
jimmy
depressed
accommodations
earthquakes
hijacking
racist
cantina
unconstitution
##eastern
wolfe
sympathy
excavated
invoice
phenomenon
hispanic
privatization
rhode
clerk
ptole
##unciation
keswick
nephew
appraisal
nevada
douglas
gossip
telegraph
eglise
aj
bays
camb
eiff
hollow
kaz
piet
pione
ral
rita
tore
##oid
##hwa
##fat
##cod
##wak
##esy
##eses
##eding
##educt
##alds
##oman
beaux
stored
##olith
sher
shaking
notorious
nebb
weights
butler
leh
maison
pristine
arn
uneas
donors
loire
likewise
compost
compact
compelling
persec
perched
carving
overlap
coc
goodwill
partial
partisan
##akia
indones
##licity
firing
helm
finely
thrust
backyard
blues
##phorus
gaunt
esteem
entries
homework
organize
curt
issu
cheers
info
operates
healthcare
156
##sha
immun
encomp
specify
potter
policymakers
168
computerized
humanity
similarities
fellows
cope
obsessed
contracting
damn
cleaner
separation
scenic
packet
sandstone
positioned
##rels
1967
decoration
jacks
giul
compares
earnest
workshared
wheat
ashamed
hinduism
uncertainties
delighted
poisoning
teenagers
accomplishments
sporting
tightly
folklore
untouch
dilution
canton
jurors
unreal
indoor
prestige
queens
fierce
irrelevant
caleornia
canceled
##build
aesthetic
tuscany
stereoty
pardon
lyrics
atomic
amphithe
atmospheric
raphael
eiffel
79
aol
bilingual
ecc
fist
flic
giov
hil
kurd
nancy
pf
rings
ropes
rugs
tay
voth
##mill
##master
##nity
##pro
##path
##kward
##inals
##onian
fores
##sept
##chet
##amo
albr
##andy
meh
energet
mann
plag
sake
pean
adverse
##ounded
perug
fax
inclusion
scan
scroll
poke
poems
pockets
guer
marath
lookout
finishing
relies
flights
obel
forming
concur
headlines
##tsa
communists
2004
roommate
menorca
##ecy
morally
actively
problematic
budgeting
merits
experiencing
awkward
hooked
kingston
traveler
##pring
competitor
sentenced
scream
objection
divisions
##ova
appropriately
frontier
moses
mosques
##iki
secretly
anglo
##forward
slowed
cruises
##obi
rebel
connecticut
essence
transported
cooler
speeches
bowling
elder
revealing
consulted
grip
penny
partnerships
bullf
monitored
inputs
whisper
reinfor
renovation
transept
avenues
nhtsa
bartolome
wanna
fantasies
skeptical
pharaohs
subscribe
invoices
ignorance
incompet
honda
nightclubs
shepher
proliferation
hikers
amateur
sunshine
sovereign
63
84
cows
git
hilar
jain
jag
mck
mie
melt
rale
tread
yam
##zer
##wed
##erates
##inqu
##aned
tol
beasts
rejo
##utt
wasted
ante
alar
alumin
##adic
##adda
shack
chand
orr
mead
maze
lob
compos
##izable
quo
disrupt
1900
coloss
##eph
downward
schumer
flats
idiot
persians
visions
capitals
talents
mineral
bothers
grav
nearest
guessed
hotline
confron
exclaimed
anna
annex
matth
classroom
cease
remembering
specialist
educate
flock
simplicity
quicker
wooded
standardized
unconscious
creature
secretaries
combining
sandwich
embod
affection
##iffs
titan
investigated
consumed
contrasts
premier
safire
industrialized
cynical
pursued
arabic
octagonal
vanished
shelters
licenses
ivory
launching
witnessed
philosopher
kirk
gifted
steadily
hijackers
alleys
disappointing
recruiting
reconstruction
aqueduct
observer
ancestors
##frame
nonsense
disadvantage
genoa
deductible
yankees
umbrel
brooklyn
pigeons
crucifixion
noncompliance
raleigh
aluminum
ay
baker
bishop
hhs
iup
ja
kat
lith
ming
patch
ssa
uk
wy
zion
##made
##mates
##namese
##hu
toile
##reated
wholes
hay
hail
haunt
anecd
ally
alarm
shores
##ulse
fren
sev
seam
upscale
resur
##agne
interactions
goodby
marit
recession
inviting
regent
presort
specially
blink
blamed
##athe
requesters
additions
instantly
realism
ministry
propert
nationalism
signals
taxed
serene
grain
camped
whitewater
183
apost
courtroom
ceilings
craig
166
geographical
##balls
##umbers
requesting
breakdown
acquiring
respects
consisting
garlic
constantine
complaining
##ohama
roller
ethical
straightforward
dubbed
emperors
diego
burnt
powder
pico
psychiat
gentile
tune
inspections
contempt
gamblers
obliged
poisoned
##laid
gorbach
purely
shifts
stabil
translated
simpler
bernini
transmission
provincial
preceding
grasp
liberties
obstacles
bundle
wardro
helicopter
disorder
discouraged
hockey
dolphins
##bursement
bosnia
alphab
lumpur
##minster
reconstructed
dancers
yokohama
threshold
taylor
goodbye
gorbachev
cens
dus
dart
fence
ironic
moss
sib
##mont
##eeling
##hara
##bag
##based
##western
##ingo
##isco
##leep
reese
##idity
anat
algar
shit
chal
##race
##ardt
mahal
adams
pertain
teens
ammon
imply
overly
brink
crick
scrap
marcus
unders
##acon
##luded
counts
acute
slab
retrie
edg
delos
approving
humble
skip
triv
airy
extending
seniors
investor
maturity
classics
growers
operated
apoc
greedy
101
regulate
periodic
domination
protects
alcoholic
##apping
##ikh
convict
hikes
lawsuit
celebrates
embroid
seasonal
venues
fashions
commentators
microw
##banes
missionaries
capturing
spectrum
welcoming
powell
bells
1948
seventies
illustrated
sarbanes
prayers
recipes
kingdoms
carpent
resisted
nicer
reminds
distinctly
vietnamese
promotion
assassinated
reconcil
uniforms
bosphorus
optimistic
avenger
producer
torture
elasticities
distracted
wrestling
ignorant
dignity
sighed
catastrophic
manifest
noisy
unbelievable
incumbent
mornings
congrat
uprising
pittsburgh
franciscan
marriages
cocaine
albright
iupui
properties
gentilel
cuc
dak
damp
fict
fiance
fhwa
gy
gul
kra
nope
pel
penc
rack
rivals
riot
sop
sided
yor
##mers
##nin
##rd
##rays
##iences
##drop
##uch
##uke
##oni
##onos
##orout
##orical
##itas
##itter
stee
##roit
##chy
##add
asleep
heck
healing
sham
chill
succ
##unks
mae
sai
##ifa
tears
facial
diana
dijon
offended
crowned
prefers
##icals
sco
##ogy
monkeys
##fts
rembrand
eviction
keynes
supplier
subs
wright
slap
deploy
planners
realm
defensive
corinth
##erness
autorout
testified
equality
waved
experimental
judging
hoff
horus
##parents
silently
126
domain
modeled
civilized
rocket
grandparents
sentiment
sellers
victories
murals
drinkers
surrendered
motives
voter
legislators
##heart
lawsuits
garland
fastest
ballot
deduction
sensible
jesuit
magnet
constitu
renting
bronx
commitments
dedication
scandals
shady
1934
dishon
circumstance
hatred
jumping
attendance
detection
diseases
sabah
sponsor
bolted
tailored
disneyland
privileges
rajput
recreational
collaboration
assignment
refreshing
offspring
mumm
carnival
confidentiality
exaggerated
jfk
affiliated
wiped
dazzling
ernest
reminis
algarve
edgerton
steele
rembrandt
350
64
brib
duct
denn
gur
lend
mate
mast
nude
oval
rats
wach
##ns
##nik
##tes
##hed
##zhou
##washed
##atial
##esa
##ono
##ori
inability
ingl
##asth
##icans
beans
##otted
hak
##aying
##iguous
##irical
##ados
chron
chlor
dos
goats
thereafter
allerg
spice
spelling
trinity
taj
implies
intermed
herbs
##ption
bohem
##angzhou
guangzhou
smells
pollock
flue
warren
discourage
phill
importation
revisions
baron
detroit
##pless
transfers
patience
mailing
##oyant
prett
landf
morality
vik
bloom
##boards
crap
commissioner
divine
devi
favorites
hearted
surrender
jerk
shrimp
##lett
angels
swear
farmworkers
imagined
installing
hersh
decorations
##class
exercising
preventing
decreases
immigrant
powered
criticizing
puff
1940
montmart
managerial
fanci
semin
skinny
chemist
robes
workshop
randomly
unusually
sponsors
bedrooms
wounded
assembled
thrive
unreason
inefficient
niche
ryan
pearl
corridor
massacre
vouchers
overcrowded
prevalent
##governmental
phoenix
mosquit
strawberries
unsuccessful
autonomy
laundry
bureaucracy
injustice
gentilello
awe
dess
iz
lus
mats
nc
nuns
raz
##eur
##acious
##ram
##iantly
##sad
##uen
##pill
##pack
##inan
##anth
inh
##real
##asu
##omphe
##otal
rebs
stap
haifa
##teries
##illas
##riad
##ellers
##ivable
mafia
spur
plateau
arlington
unity
unex
agra
pert
workout
workload
tear
amato
impract
dip
contam
rogers
fever
twent
lac
guill
servant
betty
thrilled
consent
monster
monkey
tracked
remsad
systematic
courbet
emplo
phones
retaining
organisms
defining
norad
charism
souls
triomphe
importantly
designing
graft
2007
patio
205
matisse
infect
morals
sidewal
awak
##she
ceased
stuffed
172
agreeing
focal
grandchildren
debates
screened
110
148
animated
fairness
trustees
galleria
juice
physician
arafat
verification
judgement
literacy
utens
jealous
catching
laser
behaviors
disappro
broncos
advocated
surveyed
pursuit
vegetation
ample
ghetto
inquest
illustrations
enhancing
1929
consequently
symph
furnished
dismant
ashoka
disagreed
calculations
detective
motorc
ganga
dissent
blowing
dragon
renovations
monarchs
unwilling
leaned
solicited
plaque
renewed
caterpill
anxiety
frightening
greeted
accumulated
quinta
##uela
klein
panorama
diagnosis
kurds
relieved
enlighten
reckless
tibetan
intensity
conspiracy
ffc
remembers
poker
vermont
abruptly
outdated
microwave
dakota
caterpillar
aux
aquar
cush
hut
hank
hann
ig
lent
lure
lomb
mull
nab
oun
rosen
sore
soda
tame
ub
##table
##ao
##gie
##uaries
##kirts
thur
##orously
##stick
stables
##iger
allev
franch
chant
chris
##raine
knit
aba
##ellation
leaked
mang
spike
##ieu
logg
pepp
tapped
inclusive
carlos
bred
lak
laur
co2
legends
differs
##othy
flip
flank
addicted
idi
persist
artwork
federation
modifications
earl
minoan
engaging
skim
incremental
curiously
sitcom
landmarks
oppose
collectively
salute
broker
wont
122
reaches
modernization
staffing
165
snap
memoir
##awak
caste
selfish
murray
laborers
ensured
spanning
damned
ridge
separating
exceptions
sweaters
corrected
crocod
venus
afforded
displaying
dangers
##ritical
reliance
1966
jackets
shovel
targeting
prag
introducing
freshwater
benid
hillsides
inquired
sarawak
elegance
memorable
oxy
publishers
nicely
iraqi
footh
floods
unemployed
cousins
thoroughfare
bosses
pitre
stadiums
groceries
iranian
##keeper
mysteries
licensees
##ulsion
deterrent
spoiled
##writer
dotted
muscles
riviera
hmo
pronounced
puzzled
diplomatic
subscribers
veto
betrayed
zealand
counterparts
uncovered
jardin
adultery
botanical
leverage
lanterns
imaginative
abstract
interference
telecommunic
destroying
adjoining
brittany
unconstitutional
maritime
apocaly
corinthian
utensils
60s
gwe
garr
hath
holl
lust
lingu
nash
sank
tiled
wary
zar
##mad
##math
##naires
##lash
##law
##si
##fol
##jman
##erity
inel
inlaid
##itous
##ication
##etics
##olved
##amoto
shattered
fron
##kew
##oshi
spurs
unab
upward
peril
sheets
coh
cram
indiffer
accustomed
lottery
##orde
throws
stras
jocks
##ermark
##ressive
##ocracy
subd
discern
modem
valen
##enees
locate
eds
##rection
deficiencies
farrak
seemingly
touring
particle
businessmen
##leyman
stuart
refurb
mainframe
policeman
archives
apol
vienna
158
questionnaires
accessed
antich
potato
balancing
participant
linear
squir
civilians
determines
snack
walker
lightly
fells
1985
140
wordsworth
appropriated
madras
violations
connell
appearing
tiers
russert
narrator
communicated
cros
titled
rainy
investigating
layout
exercises
vacuum
petit
italiane
colonel
cubans
mobil
filling
pyrenees
torch
incorporating
writings
eagerly
saber
recycled
depressing
divorced
scarce
outputs
borrowed
gauge
hamlet
suspects
untr
withdrew
triumphal
fragments
lewisville
monopol
rituals
renewal
montego
albums
murders
summarizes
broadcasting
advertisement
enthusiasts
flaws
jefferson
athletic
worshippers
barbara
tossed
philippines
disposable
shogunate
rifle
oscar
einstein
tudjman
lounge
adolesc
irrigation
kurdish
lithu
vikings
unreasonable
mosquitoes
aquarium
bach
cries
cze
dah
daring
ferv
fret
jum
jets
lil
pk
pyl
sang
tatt
urea
vint
vagu
yields
##mund
##try
##lining
##iently
##cal
##car
##cad
##cane
##kind
thigh
##atown
##ener
##enuous
##orthy
tod
toes
inhouse
##lements
reim
whil
##chool
##ules
chow
chip
knives
##abol
abolished
leaks
meiji
##arte
prone
plumb
plague
##cier
outn
clown
amuse
exported
##elyn
##uctive
##akis
trapped
blast
flung
##getown
wrench
lasts
retention
startup
rests
rested
restruct
restoring
easiest
barcel
distress
##ceptive
admirable
testify
password
palms
steak
dolls
successor
sane
estimation
##ancies
filmm
kills
balk
competence
debated
forehead
coptic
1981
murphy
##ycl
campaigning
hurting
influx
panama
preferences
georgetown
embar
rapids
skyline
miserable
1964
adopting
astro
railways
danvers
melod
1945
austere
spectacle
breathed
fitness
osi
heyday
solemn
sugarcane
stressed
1919
ecological
assassination
chestnut
rewarded
exploitation
pcs
fertil
cyp
bourbon
rajasth
lucrative
distinguished
pagan
premiums
passionate
outskirts
serbian
reproduction
peasants
abundance
olympics
stroke
humidity
panoramic
surgeon
inferior
pompe
annoyed
kiosks
mughal
accusations
cyclades
borneo
gourmet
kabuki
realignment
obelisk
wardrobe
pertaining
ammonia
inglis
intermediate
farrakhan
czech
au
aided
bidd
bows
cripp
ee
eul
hubb
krist
lapt
nah
nba
oath
pant
pca
rated
tum
ves
vom
vau
##oft
##gence
##crap
##wara
##99
##erite
##esign
##arse
ink
##isi
##utant
onions
whist
notew
proxim
##esses
seg
chuck
chios
bypass
leith
arising
##qual
unac
myriad
##inder
resc
##ifer
##izers
##group
incon
carth
overh
overview
##uber
crane
accuse
marie
margu
consume
traced
remedy
highlands
blur
evans
##wealth
callers
slide
standpoint
realizing
##conn
organic
##arsely
approvals
builders
thoughtful
developers
##ilted
processions
ideals
jonathan
natives
broch
sidebar
10am
tenants
mercy
questionable
blocked
solving
##ricted
labour
antit
coasts
favorable
circulation
optional
hearts
violated
variability
cathol
lowering
royalty
complexes
santi
substances
indicating
urge
sensual
occurring
complied
vacations
shoe
inventories
cheapest
textiles
thanksgiving
forgiveness
##masters
montana
virtue
graduating
quantify
deceased
karn
olives
proceeded
furnish
wilkins
byzantines
dimensions
courtyards
asserted
ventura
mentor
hawaiian
outlays
exploit
translation
klay
struggles
phrases
vulnerabilities
dilig
racism
terrified
embarrassing
highlighted
australian
lsfo
elevated
narc
slogan
linux
disclose
conqueror
mathematical
bumper
flanked
enforced
gaulle
sprawling
dinosaurs
entrepreneur
inaugur
skyscrap
hebrew
galilee
disliked
etruscan
ineffective
spontaneous
giovanni
energetic
enlightenment
benidorm
telecommunications
outnumber
bidders
pcaob
noteworthy
skyscrapers
450
81
ale
billy
citing
dys
ely
erupted
fits
gaps
nfl
osha
pod
rer
rally
rains
zuck
##occ
##nell
##apped
##rise
##iary
##hour
##cz
##writ
##just
##jah
thie
bea
##utive
##ationally
shal
cherry
##opy
sums
##anto
enron
sphin
une
unse
sao
cluster
upwards
careless
hercul
##ogues
undergrad
aftermath
backward
decad
syria
downhill
evac
flute
flamb
##ibu
subia
wares
warming
slender
delta
insert
insane
happier
organizing
carey
schooling
audiences
##plan
runner
ideology
gloss
refusing
refrig
morrow
waist
understandable
experiments
trades
delivers
estimating
awfully
ceos
solo
methodological
methodologies
epit
accepts
devote
strongest
##ieties
standardization
shrink
laden
cardinals
celebrating
corrective
wilderness
dressing
rounded
measurements
sudan
brian
florentine
collar
matches
bullets
acquisitions
predictions
comprised
nurses
photographed
griff
instructed
calculating
cupboard
muttered
sophia
tubes
330
promotes
dominates
1917
darn
concealed
theatrical
bolt
exploited
supplemental
weighing
##repres
resemble
bearded
warnings
patriotic
pistols
icons
tucker
comedies
contingency
illuminated
lonely
parcels
eruption
deferred
disgusting
fenner
minaret
aristocratic
depreciation
embassy
consortium
temptation
stagnant
giuliani
hilarious
reconciliation
autoroute
lakeland
oxygen
strasbourg
apollo
catholics
klayman
##writers
sphinx
ao
aks
arose
bub
eternal
gases
hiv
jee
nond
ply
piss
ras
rend
##evelop
##aid
##rine
##say
##uil
##bly
insect
##ela
##eliness
isab
alas
##ulum
notor
prose
chasing
##rained
livest
##gev
##usa
##rians
abol
##unken
prow
uniqu
outline
outlet
outsid
outpost
uso
incidence
brisk
coves
cogn
goodman
vec
deserved
monst
invis
invade
makeup
proves
lawful
daylight
showrooms
metrics
barred
comeback
taxation
morrison
harry
singers
facades
155
irreg
styl
destruct
geography
commonwealth
virgins
strain
firef
banner
creativity
messed
combines
cooks
##sethe
drawer
respectable
louisville
senses
disposition
administrations
salesman
##rofo
drafting
novelist
efficiencies
conceptual
1944
1947
yelling
occupy
semester
illustration
chemistry
instrumental
lakeside
vacc
protestants
harmful
nomine
bagh
instruction
detecting
detectives
##gregation
omitted
##market
mahara
densely
reinforce
translate
naive
cyber
cafeter
owes
lucas
overwhelmed
grandeur
stanley
suspicions
ceremonies
balcony
devastated
fiercely
browser
baptist
intervene
anchor
interfere
fossil
richer
kenneth
exhilar
discretionary
jurisdiction
harbors
correlation
kendal
disciples
qaeda
hassle
orrery
toilet
dusk
reminiscent
dessert
proximity
antitrust
livestock
91
apt
ds
dic
dyl
dwar
eats
gin
kor
laughter
mason
nike
peng
rio
rained
tint
ud
yug
##tle
##uji
##vi
##200
##inished
##ali
beats
isa
isikoff
##utable
stately
forested
##very
##imited
alger
asyl
##essim
livel
exor
sof
##elles
##ellas
##oslav
spared
uninter
donating
##emen
looming
adri
tram
trunk
##oused
expat
newcom
quas
offenders
overhe
coo
coats
coeff
##owning
##ignant
backdrop
relo
remod
regimes
blair
##ollutant
capped
retains
enduring
mete
nationalist
curtain
turnout
certific
whitewashed
electrical
continuity
capitalism
succession
harem
tenure
##author
1500
filter
164
teaches
replen
madness
strand
damaging
germain
communicating
gardener
causeway
climbed
tender
candy
midday
1972
1977
multipollutant
arawak
mentioning
camii
truths
gloves
meaningless
##working
##worked
safely
weld
inspiring
ambient
videot
predicting
transferring
1952
splendor
overseer
converting
accomplishment
venetians
stranger
loral
barrier
bernard
tolerance
flourished
adaptation
exemption
chinatown
allegedly
butterf
lobbyists
salvador
theoretical
tucked
unrestricted
riots
cautious
interpreted
compatible
lamps
inexper
strolling
beverly
persecution
scrolls
hoffman
##inancial
antichrist
pylon
zucker
dwarf
6pm
76
aar
cough
dual
dair
eug
fold
hunch
kas
mitch
ooh
ridden
rendered
yog
##mes
##eenth
##ridge
##yrin
##dad
##hir
##gone
##zart
##vos
##cases
##bank
##xy
##with
##jab
##juku
##asm
##isa
beings
beams
forem
##ige
shiver
shipped
##esting
seal
goa
abortions
leop
leban
mecca
##artisan
maur
spiel
spouses
noises
arbit
##cian
saus
clark
upright
anyways
compelled
complying
##vency
incur
carre
intercept
interval
intergovernmental
disreg
dissa
laz
boiled
##ipur
mozart
opulent
preschool
evelyn
flaming
slice
slump
obl
basics
handic
disco
discont
discrep
performs
fundament
designers
graves
gravely
extends
cheating
communal
watering
mailed
electoral
portable
gaoas
passive
palma
continuously
harmed
millionaire
thirst
chooses
mergers
individually
##brow
159
brah
immort
burton
labyrin
regulators
silic
competencies
pickup
constructive
unfinished
ranked
emergence
sonora
bonap
alternate
biased
declar
garments
pathetic
submitting
responds
1968
touching
warmer
compliment
worrying
bulbs
bombed
bombay
predicts
caval
brandy
defeating
semit
cartoons
retailing
advisors
boundary
vacationers
bailey
speculation
eagle
asserts
accommodation
clarify
satisfying
exceeded
anticipate
reservation
prevents
hudson
prudence
hypothetical
lambs
feminist
boomers
prophecy
pregnancy
metropolis
advertisements
prolong
transparency
diamonds
vaulted
metaph
enlar
fossils
ornamental
downsizing
barracks
perennial
salamander
edifice
cambod
lobster
matthew
cucumbers
fictional
grafton
vaguely
unaccept
furnishings
flamboyant
refriger
cafeteria
foremost
dissaving
labyrinth
53
50s
86
bury
folded
gem
iber
iey
kud
lum
lamb
mowing
oy
sff
sink
wto
y2
yel
yadda
##oise
##ele
##yer
##lion
##iards
##schild
##dog
##ggy
##foot
##28
##erick
##atis
##iliar
##ileries
beau
stating
##roach
shelf
sherman
notification
proving
##este
seleyman
chan
doomed
knox
socially
##outed
##unned
manners
##ivities
maz
spans
sphere
##astrous
uno
unused
donkey
clun
trout
teod
amused
impati
newt
quad
cargo
gram
interconn
disastrous
fears
##rys
brush
lax
lace
booming
moist
backwards
backlash
invari
invading
relates
symmet
oprah
costume
systematically
persistent
handica
kindly
drunken
edges
redeem
popes
avid
economical
postm
completing
curved
signatures
airports
turnover
admiration
patent
menace
raft
clintons
supportive
porte
refund
matrix
criter
statuary
generosity
understands
pasta
paved
successors
socialist
purse
pleasing
presenting
buyers
poorer
silhou
geometric
turin
squat
footage
richest
devised
custod
30pm
surprises
decisionmaking
peacefully
cookies
alternatively
stationed
declines
deductions
604
columnist
consuming
advertised
spectators
categor
gasped
guardian
irak
daddy
##mosis
volunteering
irony
retailer
roofed
sarah
proceeding
negotiating
3000
archaeology
heroin
absorbers
overlook
telephones
clarified
outlined
relying
paradox
leaning
gigot
fragment
weighs
tuileries
voluntarily
sailors
outsour
lagoon
vigorously
skepticism
hispanics
hurricanes
rebuilding
addictive
contingent
adventurers
swallow
philippe
unlimited
raiders
blessing
pesticides
himalayas
predecessors
fidel
##estimated
bureaucratic
transplant
tadminster
##patient
paralegal
lalley
insufficient
hypocris
prettiest
peppers
inelig
whilst
pompeii
marguerite
dylan
yugoslav
isaac
spielberg
ieyasu
y2k
auctions
dh
ech
gamble
juries
khan
nl
nail
nathan
rim
ratt
roses
vp
