[PAD]
[UNK]
[CLS]
[SEP]
[MASK]
!
"
#
$
%
&
'
(
)
*
+
,
-
.
/
0
1
2
3
4
5
6
7
8
9
:
;
<
=
>
?
@
[
\
]
_
`
a
b
c
d
e
f
g
h
i
j
k
l
m
n
o
p
q
r
s
t
u
v
w
x
y
z
{
~
¡
£
¤
¦
¨
«
®
°
º
œ
α
β
γ
δ
ε
ζ
η
ι
σ
υ
ω
х
—
’
“
”
‡
…
‰
€
##c
##r
##s
##u
##b
##p
##a
##t
##v
##e
##h
##o
##i
##m
##n
##g
##l
##y
##4
##2
##1
##k
##d
##z
##w
##q
##f
##x
##0
##6
##9
##8
##7
##j
##3
##°
##5
##œ
th
the
##er
##in
##at
##es
##on
##en
##or
##ed
##ou
##nd
##an
##ing
to
##al
of
##re
in
##it
##ar
and
##as
##is
##ic
##om
##ion
##le
##ent
##ll
be
it
re
##ot
##ly
##ve
is
##st
that
##ow
##ut
on
you
##id
st
##et
##ct
ha
wh
for
##se
##ur
pr
##ld
##ay
##ver
##ch
was
##ce
##ig
an
##ir
he
we
##im
##ation
##am
##th
are
##ad
##ol
as
##ith
not
sh
##ter
##op
##il
they
with
ne
##ess
de
##est
##od
se
##ke
con
##ill
##ers
##ment
fr
do
have
##ere
##ul
at
ch
com
go
##ould
or
su
##ate
##igh
##ant
##ain
##ge
li
pro
ex
kn
##and
but
there
##ac
##us
##pp
al
ye
##ies
tr
##ist
##ab
##ust
by
know
ab
so
##ore
##ity
##os
##ort
from
##mp
##ost
all
##ive
##out
uh
wor
this
##ight
le
me
##ally
##gh
##if
##ome
##ard
no
##iv
can
##all
##ap
##ud
##ie
en
##un
##ect
man
sp
##our
his
##au
##art
pl
has
had
ar
##ough
##um
ma
##el
one
were
don
un
##ast
out
##qu
about
like
##end
##oc
any
will
sa
##ok
##em
bec
pe
their
cl
##tr
##ff
##act
ad
##ous
if
##one
tim
up
##ice
te
what
would
more
my
just
##ind
##ound
##ong
##ink
##ib
##ish
comp
gr
##ial
##ah
##ions
ag
us
##ack
##ated
##oun
##her
##ause
res
them
##iz
##ure
##ther
ac
year
some
br
##ople
##gr
did
people
##ip
per
work
##ance
she
because
##age
##ine
##ak
get
##orm
##ag
cr
who
##ide
been
imp
when
ever
lo
well
yeah
##ans
am
ev
time
think
new
exp
##ays
inc
off
qu
##ame
##ence
##ings
##ich
than
rep
##ite
##ations
fe
##ach
other
##able
##are
##ace
over
her
##form
##ue
##ery
inter
##ire
##ose
int
ser
co
dis
dr
mu
only
its
how
##ub
##itt
most
tw
##ult
every
##hing
sc
##00
##ors
##ree
##ary
bu
bo
##own
app
##wn
ro
could
##ep
po
good
your
act
##ign
19
part
him
ta
##ade
##enc
##ber
la
##ild
never
very
##reat
##ro
##ia
##ec
said
##lic
##uct
pre
which
##ass
##av
cent
comm
ve
ind
see
##ens
want
##ase
##ical
##ments
##ied
str
now
acc
rec
need
many
##int
##fer
##ount
##ved
right
gu
##pt
##ang
af
##ark
##vel
really
des
##ory
does
should
##ates
und
into
these
##ition
two
##so
fir
##ond
##lo
car
##ile
##ian
##ents
lot
ass
years
sm
much
here
bet
even
##ty
##ving
also
##og
may
um
col
thr
our
under
##ail
##uc
serv
then
look
after
##ord
##oss
progr
mo
##anc
##lect
##iss
dec
##ick
mon
##ater
fin
where
##tain
way
fo
##cess
cons
##ict
going
leg
prob
back
inv
##te
long
##ious
##omet
##ities
though
got
old
sy
##ices
##amp
program
##les
##thing
too
rel
##alk
##eral
bl
make
high
op
fu
##vern
sec
somet
##sel
contr
down
inform
rem
reg
jo
first
##ft
made
##ning
dif
##its
##ys
eff
##ual
cost
##mm
##ock
##fore
pres
##iver
##ible
prov
govern
pol
##ons
##ry
hel
through
##iew
##fe
##oth
didn
information
##ful
##way
##ath
great
##land
##we
still
##ublic
##gan
take
state
help
##ouse
sch
##ury
coun
##ily
law
##ting
##erm
before
those
##lud
requ
fl
##ways
##ational
##other
##urn
used
supp
stud
##ular
bus
wr
hu
##ject
##ise
##ittle
little
gen
##ific
oh
##lem
report
say
##get
##stem
id
##ather
add
bel
cour
##ually
##ating
system
##ange
##ative
use
war
find
##als
government
sub
##atch
always
##ility
mean
own
ke
##ited
day
pers
things
##ts
sl
call
house
##orn
vis
ll
##ks
city
sur
rev
something
includ
disc
hand
##ards
legal
##uring
fam
such
being
##ave
ob
emp
pay
dep
att
again
show
##sp
differ
##ures
bas
##air
world
cap
##mb
##olog
interest
##ered
small
plan
last
prod
kind
el
##ra
##eric
mar
place
around
##ient
##ix
inst
##oney
par
##ics
fed
ph
stand
found
##ues
mod
##ress
real
lar
##ew
americ
public
home
val
child
agenc
##oup
pop
##ug
red
set
199
##con
##ying
care
happ
loc
##led
##lish
same
##sc
ed
end
import
##ool
##self
money
##ars
countr
art
##ene
##ants
##ives
min
organ
##day
##ves
resp
anything
three
##ists
problem
ear
ho
while
##ident
##ody
def
##cent
est
av
ca
stre
town
eas
ru
mak
far
##ower
federal
organiz
person
read
century
start
school
tak
big
best
nor
sin
thing
cont
talk
rest
let
##ood
##red
met
prop
mark
##ek
cle
life
better
build
##ri
del
both
##ork
##osed
num
##ably
dem
##ines
each
##ern
##iness
##az
spec
##ets
##ted
come
sou
char
sim
play
comple
perform
##yp
hard
seem
fact
effect
put
econ
##ear
case
cor
##ren
med
econom
hum
less
form
services
few
fund
during
sk
aud
ret
##ution
point
##chn
##io
##velop
lead
incre
##ces
thought
eng
book
might
##llow
em
important
belie
##xt
##ven
det
wom
##atter
post
sure
mil
ask
since
cur
##ween
between
different
must
##iet
doesn
chang
compan
away
national
service
##be
tour
result
##istr
##ten
develop
main
iss
bar
nothing
aut
another
##ids
##urch
techn
##ee
watch
##hip
conc
soc
adv
percent
business
##cept
##lly
##ided
##ently
sign
##ior
tax
product
bene
##ized
partic
consid
##side
##ope
air
##ier
ent
visit
##ism
aff
hist
keep
went
run
##ash
##irect
country
##ever
##err
##loy
area
##res
why
##ata
manage
feel
cer
##der
design
##ilt
turn
open
##gest
water
times
benef
fun
##ason
##ute
ide
process
##ention
##ize
head
##alth
muse
##ward
##ically
temp
sit
children
##uss
island
commun
direct
guess
200
##ital
##body
near
##ins
four
week
room
##tern
states
without
mr
quest
rule
sen
hot
##oy
##ank
prof
##rew
cover
##ao
data
trans
left
##ural
large
##ling
jon
allow
mus
sw
##ired
once
exper
##ale
bud
view
sever
##ters
month
##str
conf
control
adm
mill
miss
##ains
##ected
financ
##ately
done
number
##pl
mail
##aw
##til
bad
test
invest
follow
tell
account
anal
men
##ined
employ
##que
##gress
##orts
management
maj
ref
suc
enough
next
gl
##ger
white
##co
camp
typ
appro
president
land
prot
da
hour
##ality
yes
doing
##ats
took
##read
##ared
programs
five
clint
night
000
##man
pret
job
kids
##less
museum
##ley
underst
##ology
##ble
##ends
##ides
probably
built
fri
intern
north
clinton
pass
ann
elect
##ron
pain
top
port
20
walk
##ians
secur
##cc
poss
expl
major
everything
support
##ience
priv
church
##cr
shop
cre
##ought
equ
give
group
south
##ric
##wh
wanted
came
youn
polit
gao
##ton
##ees
news
nat
today
terr
along
change
office
review
tra
grow
enj
pal
##iven
audit
until
ris
##ead
contin
stay
##ness
market
against
##ner
congress
class
several
##ned
crit
opp
##augh
able
##ases
stat
oper
power
collect
require
pract
##ages
american
seen
##ced
happen
rece
known
gener
mor
term
##uck
certain
beh
##ction
pretty
costs
everyone
bill
##ell
##ially
##ision
18
fac
##ral
lsc
inf
##aper
called
var
second
mov
street
name
ra
##up
##br
##els
polic
family
##ames
clear
##ime
##ds
##ote
security
agencies
ap
pat
cal
tre
##lement
summ
##erg
project
financial
ext
auth
##ived
however
huh
##ither
cond
won
##ified
understand
free
curr
arch
local
performance
else
impro
sal
##ensive
popular
often
level
invol
enjoy
trad
meet
center
ok
##ph
##ey
course
live
general
##hn
##ump
agency
##uff
ste
##ased
having
avail
story
##ivid
10
gre
past
##li
hal
##old
##ering
##ivers
health
examp
getting
cut
stop
##rop
ins
##ised
offic
##used
john
order
arr
arm
##idd
believe
problems
doll
united
success
provide
matter
##ained
isn
##ission
##eng
budget
wa
women
##uction
##ency
ten
##arr
wasn
low
six
win
##most
##ether
quite
rul
least
vol
##ember
complete
##aring
reason
repres
##ument
spe
capital
analys
actually
##upp
depart
building
fig
making
saving
activ
study
days
##erc
##ability
food
san
sta
exc
exec
park
available
try
ey
##ients
##gin
deliver
list
side
##ateg
thir
##erv
##ending
##ional
road
million
lim
says
##aph
cult
orig
black
ago
sing
##ulation
cho
##aster
vill
told
whole
young
love
##over
estim
site
tot
company
jap
based
saw
##ances
almost
japan
##ored
idea
##iving
##ured
##iting
gard
history
comput
among
##ife
addition
individ
rather
mag
yet
##imes
beach
##ipp
indust
##aut
non
lawy
bre
##uation
tomm
fut
##lf
full
tommy
half
origin
ir
sup
makes
social
individual
##inc
asked
jud
pos
looked
##ources
working
deal
pur
##sh
changes
pa
wind
whether
discuss
prom
maybe
15
sug
##ories
mount
##enty
distr
attr
easy
author
hous
ident
represent
##ik
pie
##ench
occ
##aces
resear
research
##idence
interv
execut
okay
acr
analysis
organizations
oth
west
##hod
aw
wall
##ences
others
##omm
benefits
imm
sun
##ield
trying
nice
##rist
##lev
private
later
##ina
##ont
including
manag
fish
ple
che
##lished
##na
future
sol
fil
true
##ended
needs
hor
##line
needed
tupp
##ibility
either
knew
enter
har
respons
sound
court
tuppence
york
hold
kill
lear
##ret
train
usually
##acy
brit
question
stuff
within
tow
early
issues
ce
face
technology
beaut
outside
cann
buy
##ert
rom
##fu
##att
##bo
hill
short
##ged
lab
sat
agree
heard
##iety
##ison
poor
present
gir
given
eg
method
##atic
abs
temple
amount
remember
example
due
env
travel
results
signific
income
##ination
##aim
using
##aking
special
17
king
##ane
someone
interesting
estab
fail
##pr
miles
prev
bur
postal
##utes
across
step
##ued
admin
become
##aps
fav
colle
christ
looking
bit
talking
wond
ep
regul
include
##ove
standards
diff
seems
music
tex
access
##hold
anyone
team
systems
quality
hund
12
##ense
hundred
east
doc
meas
modern
possible
ren
##work
address
##oci
worth
##icult
hours
dest
mind
rate
sil
sty
##where
##ister
ant
##ape
jew
##oke
profess
##ief
economic
alread
accord
staff
already
attract
mom
##iod
couldn
simp
particular
associ
effective
corp
##0s
drug
final
consider
enc
period
toget
coast
##ru
door
paper
##by
##par
reach
##ortun
together
squ
net
move
suggest
difficult
im
pot
cannot
alth
##elt
policy
envir
compet
close
record
##iding
months
although
##ising
count
foc
##ials
taken
coup
dist
held
environ
##itions
lost
model
civ
##ried
fine
##ows
daan
significant
eur
##ott
##fully
esp
ge
value
educ
computer
##ming
##unch
started
girl
god
hus
pen
tur
exact
movie
init
16
dollars
drew
particip
##ny
himself
improve
vi
##ms
department
line
##app
fall
bal
studies
defin
##uce
death
##ished
##mbers
dou
constr
##rin
descr
entire
risk
current
human
summer
##atory
##itting
sometimes
members
##band
contain
##ocr
implement
##me
sell
impact
woman
necess
##aint
ground
shows
##sw
sho
planning
return
sn
grand
accept
organization
##ov
##graph
rock
##gle
thous
development
thousand
europe
dom
foot
friend
environment
age
concern
infl
french
exist
##ilar
demand
##ature
strateg
republic
pub
increase
determ
administr
##oring
civil
fight
##ator
##imin
##ush
##ogn
cases
scre
specific
approach
behind
beautif
pick
##ica
companies
##itch
ones
arg
lit
rules
ach
community
##hol
##ius
workers
deb
single
personal
sort
total
rout
mem
pu
flo
const
##itive
tradition
##ese
assist
protect
haven
eval
fore
press
##ilities
favor
felt
object
claim
considered
rich
sent
bring
longer
##iously
dev
cred
husband
##aves
teach
wrong
recogn
river
resources
hun
justice
achie
areas
subject
##ening
hear
soon
commission
wouldn
fre
##ped
ital
regard
fur
##ball
leave
grant
required
##son
##aur
##itted
lou
##ake
alco
du
anc
##irc
employees
political
begin
desp
famous
aren
alcohol
univers
answ
##ama
living
light
british
activities
quick
##fect
##selves
requirements
according
##omes
expect
cast
##ium
wife
parents
similar
##ify
eight
##ony
gave
##ume
##ept
collection
became
##ropri
college
100
adrin
ele
works
vict
##vers
turned
price
involved
proper
##amed
espec
comes
##ators
##orp
poll
assess
key
experience
strong
offer
especially
treat
##aft
common
tv
coming
mur
happy
delivery
##yc
related
reports
takes
##ourn
instead
taking
texas
##lin
##ival
bir
##fact
##thern
198
exactly
##omp
##urs
self
completely
##ges
##asing
##ctor
expensive
america
sea
industry
histor
##ffic
hands
figure
eyes
mal
##ked
sense
couple
##of
charact
beautiful
##ened
circ
began
refer
midd
##ots
dead
ill
contrib
nation
sir
##ypt
fle
##tion
section
friends
repl
base
##hib
perfect
##temp
houses
visitors
heart
minutes
type
table
gold
##ential
means
##umb
likely
##aged
famil
milit
restaur
middle
cop
bro
worked
morning
ii
##uses
evidence
obs
detail
wonder
jul
cust
##ze
goes
labor
##ping
##uced
avo
questions
late
##atives
comments
further
##use
##ann
huge
attorn
wood
##rect
france
drink
hur
mult
14
bed
relig
economy
opt
##gn
issue
mad
board
##reme
twenty
##bor
population
funding
lawyers
##ique
sex
central
shr
words
themselves
lake
reporting
speak
hall
##bs
emerg
vo
##yal
chec
event
##yn
sold
recent
hope
style
div
viol
foreign
sett
proposed
er
appropri
11
front
happened
village
cath
contract
standard
executive
hon
provided
brought
changed
journ
surr
30
##bert
aid
field
norm
##ring
above
democr
ancient
lang
lived
##istic
conn
perh
##isions
wide
##aign
neg
fair
perhaps
english
purp
roman
##epend
vir
washing
expected
allowed
campaign
trust
received
describ
anim
jer
recomm
conv
mrs
poir
fif
plans
neigh
##ler
ens
places
valley
poirot
din
peace
##ledge
kept
surpr
blo
displ
struct
independ
##erous
unf
scr
attack
##airs
leaders
archit
fa
fire
##den
influ
chap
tried
chall
decided
corpor
weather
##ols
##isc
architect
jun
##aced
books
moment
batt
mot
##ai
##ky
##ceed
##ization
buildings
epa
gone
pict
inside
##ips
attention
green
washington
##enue
decision
opportun
##let
##itely
military
bank
##urance
fort
heav
dog
higher
eat
break
##amb
deep
boy
investment
trade
prefer
entr
gets
paid
egypt
##he
nobody
none
son
applic
game
mass
reform
julius
##ires
request
third
mother
whate
spend
party
clean
whatever
lack
creat
##ores
span
dam
gall
mos
rid
express
saint
##ss
necessary
##ental
##inese
germ
drive
color
unc
prep
funds
chinese
square
district
custom
trou
##akes
designed
hotel
paint
piece
langu
james
vot
recently
##issions
taxes
hit
##med
education
##lus
knowledge
appear
##ades
original
household
lower
13
item
##osing
acqu
relations
rates
##ouch
##lled
itself
super
effic
artic
situation
##eter
created
ord
manu
bush
##sy
##val
##arch
action
following
culture
##ike
##iqu
crow
##aught
pan
countries
##ograph
word
auditors
surround
cat
save
secret
corn
ju
##estern
insp
select
mer
spent
ban
bon
spending
manufact
pack
##ronic
##rupt
gun
mess
chance
##iction
remain
retire
2000
finally
##ams
royal
committ
groups
ways
##hood
##iled
plant
palace
soft
saying
range
lad
scen
##ios
##ites
##osp
cook
##itten
wish
##isl
seemed
society
shops
aver
##ims
practices
efforts
everybody
natural
isra
focus
israel
mich
engine
character
##olution
complex
apart
broad
sav
moved
laws
di
died
##apers
##ource
annual
bey
princ
training
stock
comb
cold
credit
prior
seven
slow
growth
document
##igr
throughout
sand
intr
appe
ran
separ
lives
extr
internet
##port
##uries
located
medic
princip
50
emb
mater
##ipment
older
tourist
definitely
notice
indian
western
prim
legisl
streets
trees
japanese
sant
##idents
increased
geor
##aries
##thorp
##ops
altern
##more
##ded
stone
remains
benefit
##hic
university
wee
tourists
##bur
ingle
supposed
exam
maintain
position
included
sle
share
phys
respect
inglethorp
km
##uth
prices
##for
draw
americans
running
views
##ci
##xic
farm
card
alone
reported
cele
cause
narr
force
except
communic
ah
fill
gree
wants
traditional
favorite
terrible
conduct
celebr
##ulpt
##ift
equipment
critical
size
##ises
sculpt
exhib
clients
students
assistance
despite
station
subst
##ological
destro
russ
##arily
##ification
swe
tar
doub
beyond
father
wild
##olute
##ude
former
weeks
dark
den
upon
##izing
impress
written
paris
emissions
voice
ign
ti
inn
toward
quar
##uary
##ma
##cell
##umn
body
##oon
##go
role
garden
additional
fix
china
fell
developed
gardens
link
round
##ength
established
dor
hop
rain
##zz
movies
bab
covered
shopping
continue
practice
learn
dav
mary
mach
adj
discover
page
thinking
indic
surv
islands
##set
absolute
clim
provides
generally
quickly
##oming
season
insurance
guy
interested
anyway
initi
check
##oint
feet
increasing
cand
easily
certainly
vers
##und
region
encour
sad
proced
##ights
instit
fash
##ware
install
language
dang
##ole
pred
imag
##een
extreme
led
##utions
fres
safe
below
tomb
##ctions
##vert
feat
affect
reflect
##oph
crime
cas
vote
##ode
relationship
##edi
establish
myself
international
dress
effects
##to
##oses
average
web
products
battle
blue
largest
basis
afford
evalu
destroy
dall
rights
looks
25
##ging
goals
earth
bay
bought
sky
skill
ball
rad
##orr
brown
slate
choice
dallas
hol
mis
##egr
events
drop
patients
##estic
published
gar
purch
##pect
##xim
deg
cross
lots
various
hosp
tend
wealth
phil
restr
accounting
growing
spanish
hate
sites
space
german
##ables
##iff
entities
volume
pleas
answer
retirement
mid
mand
threat
closed
carry
demon
production
steps
construction
emergency
officials
fast
##leg
comment
letter
nature
floor
##bers
horse
##bed
##itor
weap
club
##ck
##ana
hotels
phot
leading
glass
internal
##aughter
terms
ded
##ex
##iest
operations
schools
correct
immedi
attemp
trip
##aving
flow
fashion
mostly
meeting
committee
fem
wait
appropriate
recommend
luck
##erve
quiet
actions
difference
##asons
agre
helped
trouble
##iques
path
ur
ven
##ches
ali
includes
achieve
louis
excell
##enced
##like
cathed
##ining
whose
opin
wrote
watching
cit
mist
##ux
##ask
integr
avoid
##ino
##scape
tower
##ne
stories
##ustr
individuals
horr
families
rap
goods
lawyer
##dh
susp
mic
##uments
consist
mart
##ob
##uted
stood
##olf
regulatory
serve
serious
authority
##aded
spot
sched
mission
sounds
ensure
##ax
##unt
offers
particularly
cities
tit
prec
subm
managers
measure
blood
display
master
##astic
##idge
197
gate
##ivity
##room
medical
40
sens
tom
##ara
effort
nearly
simply
dave
stra
successful
simple
knows
anymore
guid
obv
absolutely
dut
##entions
track
accur
connect
jes
named
##yr
##ively
sports
cloth
levels
winter
##ipped
fly
confer
truth
regular
reading
##usal
reduce
thirty
liter
host
##ban
items
senior
administration
ess
##come
##wide
drugs
imposs
revenue
passed
pieces
frequ
multip
##ented
bye
ready
killed
je
lat
ver
##iced
savings
fisc
prison
reli
investig
equal
occur
accomp
media
types
excellent
60
spl
payments
policies
official
army
jewish
restaurants
1996
constant
##erry
##onse
perm
cam
##iling
entertain
journal
mort
##erved
yourself
centuries
decl
smaller
beaches
industr
christian
touch
##pped
##atively
respond
judge
chair
disp
seek
experi
##ster
##ibly
bes
payment
methods
commerc
religious
mention
##lling
beat
newsp
india
potential
fiscal
walls
property
##eed
##nes
##sequ
##ung
somebody
paying
rooms
sword
beginning
impossible
grad
column
neighbor
##oud
added
larger
response
##ille
cars
2001
politics
film
article
##ls
decor
conserv
treas
george
david
ft
##omb
##anced
kal
director
buddh
critics
independent
##iny
parts
block
lay
##reci
##ulf
mountains
forward
ange
useful
married
phone
electric
estimates
county
vac
box
limited
challeng
catch
gives
inj
##iring
compl
environmental
giving
##asc
adop
beg
wear
196
enjoyed
failed
participants
purpose
animals
convers
southern
regulations
jerusal
jerusalem
##lier
served
science
playing
magaz
hong
sac
##back
nearby
receive
calif
structure
ben
glo
hang
spain
greater
warm
capt
analy
mountain
responsible
mix
ut
##put
star
spir
##uctions
providing
variety
magn
note
obtain
constit
hans
pil
##ira
##ada
points
autom
watched
castle
born
bott
pun
hair
advert
##teen
distrib
republicans
meant
##ornia
propos
believed
profit
store
##ously
interview
fest
kong
las
rele
sector
sud
coff
consum
requires
oppos
clearly
fishing
kid
coll
basic
behav
ib
##aud
reasons
eastern
tast
##icians
guide
influence
band
##vey
worse
spoke
cathedral
##ety
spring
##ground
setting
charge
swim
stayed
eye
european
flex
paintings
source
qual
prem
directly
straight
500
omb
##fort
##aters
function
continued
assessment
##ael
ability
expand
decre
remained
jobs
italian
sleep
adjust
candid
caught
rural
##eys
liber
opportunity
destroyed
agreed
##iers
suff
decisions
discount
followed
associated
domestic
eventually
send
tick
##wood
prin
weak
worry
telev
series
remark
empire
thousands
alternative
greek
hanson
spect
tele
progress
ideas
estimate
jack
appl
ended
raised
##mon
factors
daily
billion
currently
route
extra
narrow
extremely
##ander
crimin
easier
strategic
21
##uit
##ners
apply
seeing
played
electronic
rare
##oes
liked
professional
association
shot
unit
flor
writ
contains
jama
##wise
minor
stopped
micr
gi
##ament
therefore
sales
shall
england
##ergy
condition
hurt
loss
##gas
##oted
affected
create
debt
cash
date
##iar
##change
unless
murder
corner
commercial
##cil
##itz
##key
##ula
##action
statements
opened
categ
hind
willing
adult
starting
towards
attorney
efficient
quarter
##orrow
thus
reb
exerc
##icted
meaning
ken
clock
immediately
eth
doctor
arab
clos
gas
pet
##aped
amaz
contact
talked
fresh
citiz
cheap
##ares
brother
##ocked
northern
choose
target
sudden
1998
majority
estimated
intervention
bord
oil
##ones
mel
lose
values
identify
attorneys
entrance
games
##ipt
capac
musl
testing
activity
originally
conference
##ena
##ests
chief
colon
demonstr
california
die
grew
firm
assets
occas
claims
ul
##chan
anywhere
fully
jan
boat
appreci
emper
aug
hyp
sus
doubt
fol
##lls
march
biggest
entity
treatment
bono
procedures
rue
theater
stores
##antage
saf
residents
craft
waiting
multiple
sor
frank
brief
write
introd
lunch
vide
wine
franc
resort
oldest
statement
funny
generation
cultural
gain
match
sight
##cl
forg
trail
lew
plants
##izes
disapp
listen
##levant
wonderful
features
television
##tim
##emp
##eth
##ibilities
bridge
offered
parties
explain
##umption
italy
search
cool
transport
please
evaluation
##force
hospital
pow
##uing
##ague
assum
immigr
hills
daughter
##reg
shown
sund
compared
towns
existing
ahead
homes
los
od
##ule
dram
##week
feeling
jesus
gore
unlike
vegas
1999
camping
positive
grantees
##ps
repe
shouldn
standing
projects
implementation
coffee
merc
nine
##bb
##ney
##kn
##ado
location
violence
dinner
prepared
clothes
mine
samp
##can
##itude
intended
completed
objectives
heavy
##ream
##istics
##oken
evening
traffic
##raid
dollar
err
july
baby
cub
dub
sitting
tall
tough
sev
guard
highly
earlier
refused
industrial
neighborhood
##ham
##onna
##oles
interior
moving
walking
anti
separate
breat
stick
starr
lie
businesses
newsweek
doro
sources
##kes
201
discussed
reached
birth
dedic
##men
calls
numbers
representation
learned
tal
theory
surpl
concerned
michael
burn
##ta
##ij
mexic
energy
loved
thinks
commit
writing
limit
award
cav
patter
##mer
##inct
plenty
draft
afraid
temples
snow
architecture
nap
rand
wer
##oft
forced
worst
risks
totally
member
software
capacity
psy
race
rail
##inated
welf
amb
thank
counsel
council
understanding
##ycle
opinion
welfare
papers
##inating
noted
prosp
holy
caused
election
determine
fifty
rac
thorn
robert
defense
routes
acquis
rent
slight
revolution
engage
recognized
##ucing
police
busy
##riage
vari
picture
susan
psych
bow
retr
##irt
spee
instr
1997
performed
historical
behavior
##los
stew
actual
symb
##centr
##aza
controls
powerful
bother
##ifying
19th
minim
minute
##azz
conditions
protection
weren
##ller
advoc
republican
boring
##outh
bron
ride
##iday
waste
##ested
statue
16th
eld
uses
brand
appar
18th
radio
august
##iles
concept
trib
relax
handle
##fficient
martin
##lam
##50
##ulated
##iveness
screening
pictures
bag
ton
##light
concentr
union
survey
foundation
executives
normal
jury
##af
##oh
leaving
##oking
accounts
satis
regarding
manufacturing
cow
gent
nin
wed
##ae
##eless
discussion
prevent
dangerous
emperor
##mber
##etic
libr
##ender
importance
hundreds
football
gather
##unk
cru
rulem
interventions
entirely
virgin
micros
via
##erate
neither
grass
painted
##liance
et
##mas
##dom
client
incent
overall
conclus
pattern
bi
bare
dan
golf
print
novel
##iel
log
profession
lux
##gu
##ston
comfort
194
findings
records
golden
unfortun
fasc
##pper
unp
unique
restaurant
june
weapons
##enge
##ieval
1995
involve
lady
cards
fat
exchange
##using
strange
strug
stands
matters
purs
material
citizens
rulemaking
dod
push
vand
##ca
##wor
##ald
##lex
##antic
alt
units
##ago
otherwise
afric
career
suggested
pollution
il
thanks
guys
housing
competition
gallery
filled
dad
rise
##zen
arts
willi
##ancy
greatest
produce
defic
senate
transfer
employee
glad
aware
mosque
relevant
compliance
fear
veget
processes
situ
identified
network
double
shoot
determined
22
rose
conflic
manager
households
bath
mall
oct
finance
happens
described
nod
names
task
lif
text
recip
cert
leadership
chapter
##oo
##otic
##abor
highest
earn
mac
##mark
##adem
##asts
monument
reduction
markets
medieval
technical
announ
ira
jane
peak
pool
decide
register
flat
examples
concerns
##burgh
skills
acquisition
bomb
yard
##rel
wel
spread
interp
rob
##enses
leader
reviews
##mos
weight
enem
calc
##idden
17th
girls
accepted
abuse
uns
##aging
offices
student
changing
advice
figures
scenar
appeal
imagine
##nie
##ket
##eria
monaster
helps
players
keeping
fighting
drinking
amp
##da
##oned
sem
suit
scient
boil
command
guar
depend
founded
skin
critic
microsoft
trial
gotten
helping
planned
advantage
territ
initial
merch
substant
cyn
lines
goal
##agon
irish
details
ultim
##rid
online
##tered
defe
chem
indeed
mob
produced
surprised
machine
entertainment
spectac
laugh
mir
islam
throw
circum
medicare
version
conversation
sam
##sid
##olic
shel
##unte
firms
factor
status
volunte
previous
corporate
mortality
speech
mcc
##eries
##orses
bob
cafe
stret
funded
exercise
dedicated
bul
mc
##ais
##do
##anch
pra
##ulate
##oked
##akers
showed
kinds
holly
walked
pleasant
gradu
vast
##erly
##ctors
forces
quant
buying
aftern
differences
coverage
accountability
congressional
window
degree
guarant
vice
tea
artists
raise
virt
faith
climb
##nam
##west
compar
##roll
supply
finding
honor
legislation
schedule
tap
stup
heat
tri
hadn
grown
##gry
##berg
##ancing
relatively
selling
malays
fortun
spirit
library
horses
reve
users
invent
suppose
courts
younger
requirement
cuts
speaking
responsibility
honest
angeles
row
##ba
##ortion
##emey
developing
measures
recommendations
opposite
bou
lic
length
##ries
forget
hell
shar
feed
##ictions
models
facilities
inspect
engineering
swimming
gh
frame
twice
##ension
recon
concer
##place
steel
argument
primary
rome
tun
aspect
lies
plain
bright
editor
flexibility
##emeyer
##lig
##inary
##othing
vehic
elig
organizational
advis
arrived
presented
construct
slowly
magazine
jamaica
cart
mat
##ein
tools
inqu
strength
desert
tests
portug
illustr
perfectly
santa
breath
vandemeyer
hasn
familiar
amazing
bound
cab
##cer
##bal
finished
advent
painting
der
ine
driving
visited
irs
windows
democrats
neighb
chapel
challenges
dish
era
tiny
##oti
##ayed
dece
##endish
resident
roof
occup
freed
massive
song
##gs
##orters
shut
##ession
centre
issued
fourth
speed
jews
mere
##oln
tro
confir
24
##ha
##ii
forth
##ulous
sufficient
scand
mont
consult
owned
marriage
instance
numerous
techniques
corporation
conducted
linc
##ji
##era
##ini
##onom
contemp
worried
saved
imper
carter
topic
movement
regardless
options
guidance
cavendish
lincoln
gd
pic
##bon
##inal
192
governments
##ologies
opportunities
russian
constitution
cell
iron
##inger
##reh
##itness
perman
surrounding
circumst
gal
##gd
##atically
fraud
193
slaves
audits
tours
##insky
returned
observ
sunday
illeg
alex
hen
nurs
van
##ties
##iency
##eness
fired
decline
##ardship
weekend
telling
improved
crowd
dublin
unfortunately
bond
tree
##time
##ero
##ari
chic
broke
fellow
contro
owners
reduced
responsibilities
silver
picked
fixed
electricity
sorry
afternoon
lakes
ou
##has
spr
compon
strict
gothic
counter
succeed
satur
surrounded
safety
gdp
bure
ice
lond
haw
sept
academ
queen
##owned
carri
smiled
apr
agreement
negative
cup
mile
##bit
##tom
##hab
##ford
stage
shad
carved
realize
retail
eleg
damage
magnific
hollywood
cio
##uous
##orary
unable
becoming
somewhere
herself
shook
screen
selection
jump
native
ol
rough
rang
##arian
stated
likes
compr
dry
marble
asking
conclud
holding
attractions
distance
contributions
vacation
london
ber
##per
##itors
##enth
##sec
ship
##apt
provid
reductions
putting
2002
negoti
orders
title
kar
noticed
conqu
aband
meat
upset
boys
boats
leads
productivity
statues
patient
teams
message
bell
forms
calm
memor
apartment
impressive
female
suddenly
bureau
gay
rub
consequ
chann
tru
edin
runs
##holders
victor
gift
##ett
agric
dism
symp
typically
terror
burden
rena
william
edinburgh
fan
hat
rat
waters
##ding
coal
challenge
video
spectacular
agricult
gonna
nav
pound
proceed
enh
worksh
##issance
approved
##ront
newspaper
nodded
bars
kent
mouth
##pm
##stein
whom
proud
##ulations
##izz
cry
believes
##iking
addressed
principles
physical
##nic
hearing
conver
lawn
presence
depends
defend
communities
moral
stake
computers
friendly
shrine
fairly
innov
punish
aim
furn
##hi
##ched
##adel
disag
produc
explained
facility
managed
documents
renaissance
kitch
##equ
##aming
maxim
amend
scale
##encies
join
madeira
belong
churches
roads
loud
communication
dropped
photograph
consistent
january
april
aust
sar
seat
195
carp
attend
basically
protest
aliens
mond
##off
##wards
fee
schol
letters
delight
magic
##house
##gment
clothing
fees
howard
pover
centers
smart
reasonable
penal
strategy
pressure
teacher
purchase
flowers
besides
apparently
300
bod
hers
hide
mas
##enn
##ita
mechan
click
compreh
##iza
brad
explan
entered
religion
discovered
por
sick
alive
resorts
##well
flight
1990
edge
pointed
absor
christmas
elements
customers
encourage
##iment
##tery
##aints
loan
##others
elimin
content
restored
trading
learning
forgot
freedom
ath
##gen
##icip
whe
ash
leather
hero
monica
subsid
##ashed
reviewed
operating
awful
specifically
creating
horrible
criminal
poverty
fal
pia
sister
wil
##ville
##east
##ois
shape
##iverse
interests
hardly
balance
recognize
soldiers
democratic
advertising
esc
##uk
##iy
thick
pray
neat
dole
##elve
clin
##aret
overs
skies
attractive
random
piazz
27
pm
##eration
##alia
onto
##ida
manner
plus
brill
increases
approxim
harbor
sexual
application
accurate
ox
rh
##lies
wearing
##antly
##ishing
##agan
scott
decade
owner
emot
millions
missed
archae
salt
effectively
implemented
hunt
secretary
obvious
obviously
slightly
magnificent
fgd
hom
pages
##water
##ette
leaves
enforce
scene
audience
covers
employment
kingdom
taste
september
truly
80
cere
gamb
##ils
anybody
oblig
depos
publish
proposal
hindu
border
code
##nel
##zar
##amble
accident
direction
harm
rennie
baseball
materials
initiative
splend
experienced
festival
illegal
90
oce
##lers
storm
sections
gross
remo
cutting
detailed
bust
cats
##ober
resist
decades
governor
wars
explore
collections
extent
solution
##heim
package
october
iv
os
upper
##pie
##aled
##itation
stars
delic
orient
offering
carried
provisions
museums
##phere
option
bau
##ef
retain
##stand
forest
adequ
overse
hole
processing
meetings
strategies
replace
fascinating
cable
fit
pill
wal
##ris
hey
##aka
##aked
barb
advance
percentage
happening
dogs
cave
dance
divers
dyn
nom
##iture
outc
##tress
reput
smith
empty
##raft
reality
image
improvement
selected
adopted
eating
male
sult
va
witness
forever
##ght
placed
becomes
artist
##what
attempt
reliability
distribution
applied
sharp
dig
ky
sather
##com
##lets
##okes
intel
carol
barg
yester
silent
debate
guns
closer
kentuck
31
fab
##rence
##tions
##iance
##dy
reject
forb
sharing
sov
somewhat
##iption
craz
crimes
launch
rapid
columns
bottom
stewardship
eligible
elegant
yesterday
hated
sides
##pa
##ertain
prime
aside
notes
emphas
expert
##while
turning
litig
uncertain
ibiza
kenned
napole
ought
tel
##awn
##here
fool
valid
1994
landscape
##ellig
extensive
##ipping
britain
focused
copy
incentives
eag
pyr
##thia
diss
everywhere
##ifications
perspect
detect
exclus
independence
urban
circumstances
losing
##han
##acing
##igned
recover
ignored
predict
ocean
70
ec
gates
##head
webs
cris
syn
controver
realized
readers
supported
supreme
purposes
lucky
connection
symbol
iraq
ot
tired
wing
##sey
##ateau
##ivals
##alls
##umes
expend
scot
guil
revol
##ixon
defined
functions
transform
supporting
privacy
villages
professor
pulled
replied
wooden
journey
animal
primarily
mentioned
surpluses
ug
##iation
##oto
##imp
chose
loans
append
stress
##anged
technologies
experts
confidence
continues
richard
convin
customer
released
rebu
interpret
##nis
##uts
##ura
atmos
broken
coop
twelve
poison
active
background
superv
egyptian
russia
initiatives
mercury
cynthia
chicago
atmosphere
##lying
anse
##irts
plaza
##acts
teen
feature
partners
remind
confident
representatives
sculpture
duty
conservative
appreciate
lewinsky
dramatic
astr
cig
##edy
bear
league
##elines
complic
overlo
intellig
regional
greatly
carefully
largely
possibly
departments
parks
paul
penins
voting
fought
ny
##erson
criteria
arms
historic
adults
elderly
guilty
##aling
##ads
gray
deser
facts
turns
achieved
eighty
motor
literature
decorated
mexico
piazza
dim
hire
nixon
stuck
mah
unus
crus
scared
valu
bigger
formal
belief
politicians
failure
contained
dial
##life
##ico
plays
##agas
appoint
committed
consumption
relief
joined
reducing
affairs
directors
classical
steep
beauty
madrid
fields
peaceful
medicine
scandal
monday
approximately
fant
gang
##ship
##fo
##omas
##uration
myst
implic
coord
moon
calling
showing
charles
jones
cheaper
grounds
appeared
alien
frequently
troops
outcomes
kick
##sa
##hen
##zant
byzant
resol
dise
vision
phase
careful
amounts
fifteen
imperial
napoleon
peninsula
escape
ped
pier
sab
vren
##ses
##ading
cliff
compens
plane
##scr
severe
approval
raising
previously
birds
describes
remaining
submitted
monastery
permanent
comprehensive
vrenna
2a
jim
pc
##aff
##itative
whitting
poland
courty
effectiveness
visiting
portion
##book
gods
expectations
##kyo
efficiency
ordered
treasury
teleph
transportation
assumed
stupid
intellect
nations
tokyo
fortress
conven
atl
chain
champ
##astr
##actions
crack
organized
harder
understood
buried
silence
significantly
iii
motiv
essential
virginia
viet
##ox
sew
doctors
bull
desk
smoke
depress
protected
explor
territory
scholars
sultan
appendix
whittington
23
dust
peter
##lines
##orough
doors
alloc
mans
resource
##aker
expos
smell
statewide
investments
auditor
treated
15th
sugar
shoes
victory
surprise
##exp
tomorrow
barely
bout
dream
sale
vent
##how
##orter
chronic
nox
ages
expenses
fuel
signs
allows
delivered
limits
bird
replaced
manufactur
schedul
sacr
global
occasion
franklin
powers
chemical
reputation
kennedy
fans
mut
pock
##cas
##craft
##ona
##ilit
columb
tourism
##orpor
displays
ridic
tickets
writer
tonight
oversight
bunch
kos
riding
tor
angry
lift
##osen
grants
acid
brain
recyc
blow
surf
corrupt
opera
##umptions
mistake
pilgr
crafts
crazy
lord
tons
##rees
##itan
##illy
excess
sport
laid
highway
lawrence
basket
presidential
destination
attraction
victims
catholic
wealthy
decrease
jail
rum
veter
thomas
pride
nep
upd
accomm
fewer
opening
elsewhere
holds
pull
voters
newspapers
comfortable
accommod
es
youth
sole
upst
##aken
##ached
ideal
jewel
definition
structures
banks
exhibits
##going
weapon
latest
henry
crisis
hidden
pig
##fa
knowing
improp
assumptions
helpful
subsequ
discr
1993
tells
improvements
institute
philos
guidelines
accomplish
giant
muslims
prospect
ultimately
26
bin
soph
tight
thorough
##urb
friday
##iber
incorpor
monit
##ologists
##bell
mainten
portra
operation
promot
necessarily
devoted
sacred
muslim
conflict
pitch
ring
tob
##itals
forty
albert
enth
##arts
quit
discip
depict
##ugged
weekly
facade
surprising
scenes
rarely
repeated
retrof
saturday
om
taught
ww
##ingu
input
outdo
user
cruc
artif
enjo
summary
administrative
chairman
sample
minimum
merely
33
nic
##front
##icing
##usion
trend
##isted
##acted
regulation
stream
allowances
testim
typical
##ushed
divor
expressed
expression
prepare
catal
appears
increasingly
institution
begun
candidates
folks
satisf
daniel
boulev
providers
scotland
00
dating
kr
wore
##bel
##greg
stared
##cel
##ola
exceed
##iform
plat
191
contrast
studied
emission
facing
flood
sweet
sensitive
consumer
splendid
carolina
fount
fda
kil
kings
math
sulf
tub
##itable
alf
assume
smoking
ends
natalia
arrange
volcan
excited
attacks
accompan
liberal
##works
scenario
malaysia
nursing
rank
##cing
##hs
dozen
ours
elabor
ski
possibility
officers
lovely
films
consideration
participate
normally
germany
candidate
welcome
bradley
valuable
ble
cod
##pay
##yl
##wan
##entially
spons
represented
styles
suggests
characters
uncle
communications
frequent
seeking
buddhist
category
residential
exposure
cu
brick
reporters
investors
palest
collected
solid
avoided
settlement
indiana
survive
reliable
commitment
cous
ire
mental
migr
stations
depending
healthy
johnny
recommended
colorado
articles
innoc
carrying
ugly
29
caves
kir
lock
lately
##icial
stamp
output
##agger
cried
scar
##encing
guided
##text
thoughts
transition
officer
memory
teaching
earthqu
december
abandoned
maintenance
cin
element
ramp
vary
prove
##asty
incred
consc
flower
attest
johnson
distinct
participation
crowded
odd
constructed
soviet
bork
ferry
wid
##zy
##semb
chick
##abilities
brings
seriously
buff
poet
legend
temper
bills
properly
sculptures
latin
##employ
bronze
faster
pond
stead
whis
ships
lee
outl
drawn
finish
considering
classes
##ikes
combination
categories
intellectual
35
pure
##bi
reagan
##aining
##acco
arc
graph
feels
heads
choices
breed
existence
claimed
contribution
settled
requests
hoping
experiences
punishment
pyram
courtyard
ireland
ba
##bles
deem
chateau
##outs
outcome
clo
gran
##road
joint
keeps
rising
opposed
exciting
listed
positions
turkey
convention
suspic
precise
bauer
perspective
ottom
32
75
pac
##ias
##nn
##esty
conce
unemploy
aci
interim
strip
cazar
player
aircraft
improving
applications
##ographic
cooking
##burg
encouraged
venet
expanded
##know
disagree
improper
artifacts
bol
gp
##zone
##inations
disney
assass
monet
minister
economics
economists
mainly
creation
equally
##box
domin
violent
dining
13th
occurred
situations
kath
les
##uze
##aic
##arm
##ota
##illed
##ifts
uniform
usual
scary
colors
estate
marked
admitted
tested
projected
tennis
judgment
measured
competitive
falling
documentation
survived
folk
cuba
stretch
tobacco
sulfur
jac
##anes
##ird
shore
worship
##apes
enorm
spell
smo
preserved
medit
##ternal
successfully
winning
attrib
penn
maryland
pleasure
masterpie
accuracy
suffered
aspects
bodies
hy
tan
##gate
##fast
##ja
ther
asia
so2
aggress
coach
preamble
indians
##ensus
warri
slim
##bey
staying
statistics
arrive
reference
clubs
capture
florida
railway
patterns
substantial
hawai
enforcement
borrow
##inent
inner
##etr
whenever
handed
causes
profits
anticip
rocks
sentence
hunting
handsome
weakness
immigration
announced
penalty
telephone
testimony
luc
tig
vul
##eing
toxic
inhab
##verse
anton
acknow
branch
expense
driven
puts
affair
20th
privile
cream
sixty
awards
##board
destr
approaches
bedroom
widely
galleries
celebrated
investigation
begins
disappoint
stakeholders
complicated
kl
nur
tone
tues
wise
##rit
thin
##ania
shift
##essed
##ighter
grace
carib
serves
visits
parli
earned
killing
##apped
observed
14th
combined
priority
principle
restrictions
beside
ticket
2010
consequences
##standing
bat
cet
tab
##bby
##itures
sust
prohib
trained
febr
##ucture
##ogue
finest
1992
judges
turk
division
entry
channel
agricultural
kyoto
disease
february
coc
derry
hud
nile
pace
##my
shock
sum
proved
##tro
evolution
explo
disaster
##ecess
nowhere
desire
consol
blame
blade
sets
surely
##resp
musee
greuze
renov
argue
settle
farmers
danger
dutch
##known
struggle
mccain
parliament
cycle
dates
sought
##imate
fruit
orange
##ushing
trau
##orted
unknown
serving
blank
marks
signed
receiving
teachers
writers
african
inventory
gor
gau
lying
latter
##point
asian
chest
prosec
##istical
clar
strike
monuments
writes
ruins
metal
formed
listening
ceiling
romans
##annon
sadd
islamic
alexander
basketball
ae
gagas
ozone
##rad
##gar
theat
##ato
reward
weird
##oster
nov
worker
cro
impe
##ache
tail
smile
monarch
species
switch
faced
infr
150
cheer
pollut
conclusion
framework
concerning
shadow
unusual
jose
pit
pir
##rant
##aa
##town
##oir
##met
##enues
rein
shaped
somehow
scope
finn
supplement
finds
##uese
charged
##attered
auditing
generations
copies
divided
applicable
embr
installation
relationships
sleeping
remarkable
portuguese
kitchen
boulevard
infrastr
hij
rival
##hal
##imination
##estr
alle
yellow
canada
spin
unl
##ansas
##yside
visibility
##raw
instru
countryside
avenue
harv
climate
degrees
strugg
scientific
scottish
website
expenditures
hijack
instruments
fer
pink
roles
tin
##gl
##omed
##iguration
##amber
##abbed
unre
compare
relative
##seless
attitude
instances
prompt
##anean
educational
eleph
links
photo
francis
28
bor
boss
fiction
pine
ske
##uge
##pan
##pro
##aver
stair
##estone
trick
manual
plastic
##agues
everyday
palais
faces
##aimed
hung
answered
treaty
fault
superb
crowds
inspired
examined
exhibit
##under
release
engagement
dismiss
furniture
ridiculous
kosov
ottoman
400
cnn
dar
ment
##rich
stable
context
trop
##ipe
disclos
pope
charl
resulted
admit
financing
portr
202
189
ruled
winds
towers
implementing
heavily
panel
regularly
www
smooth
turkish
fena
ga
wage
wages
##ya
##12
##adium
##ulating
orn
alb
invas
joy
milk
authent
stepped
sanct
researchers
physicians
machines
opinions
integrated
analyz
enemy
vehicle
dancing
erect
tape
##comm
##la
isol
prud
##istan
noise
reserve
##ensions
shoulder
##ordan
personnel
souven
charges
##hips
bringing
preferred
characteristics
removed
enthus
elaborate
cinem
ak
aer
hired
rice
torn
##iors
##fit
##lla
##owed
##urally
shared
dear
##agn
evil
roll
mayor
basil
charming
classic
accordance
acceptable
contracts
split
enemies
volunteer
gambling
souvenir
dun
gop
rig
sau
tip
wet
ham
##aders
lev
plot
##aks
assumption
resulting
annually
facilit
lively
dull
installed
tombs
constantly
declared
criminals
ethnic
introduced
vegetables
adequate
litigation
monitoring
mediterr
ast
bio
core
cair
dil
##case
##coming
##gers
abbey
lean
nove
##quar
ads
residence
persons
locals
involving
involves
images
ordinary
israeli
legislative
casual
suspect
conclusions
comparison
hersheim
kentucky
recycling
hersheimmer
36
cock
dre
map
##iant
##llo
haz
priest
assemb
##anta
trips
asset
performances
retired
##isms
designs
mailers
continuing
represents
excuse
epis
description
reforms
appearance
maintained
dorcas
recipients
defeat
implications
vietnam
alfred
tuesday
mediterranean
ax
dome
pair
sna
useless
##cast
##cend
##tan
##oma
##otyp
stadium
forum
height
shirt
frustr
chosen
##ante
abortion
##ifice
##ipa
repair
lav
recall
##oupe
##riend
advanced
protoc
responses
examine
fresco
festivals
wednes
professionals
explanation
pocket
cuis
authentic
cios
lind
sits
util
vital
wound
yield
##isters
##otes
stark
anth
exemp
##abled
meal
canal
donations
##acks
##ensity
farther
factory
productive
directed
transl
employers
promote
sunset
addresses
breakfast
magazines
colonial
unlikely
error
bags
neighbors
memorial
philosoph
infrastructure
gains
kore
ze
##oly
rely
habit
##chal
##the
proof
alleg
##ifies
unn
##enda
drunk
acting
flag
taxi
taxpay
passing
##whel
practical
pottery
1980s
colorful
apartments
principal
drawing
satisfact
cabin
components
enhance
compensation
gpra
enormous
cairo
55
jordan
##right
##iate
##ingly
##rem
##ician
##amm
withd
unw
unified
recru
remote
visible
phr
headed
explains
administrator
eleven
analyst
consumers
disappear
deficit
boilerm
inquir
cigaret
cousin
diverse
ow
ter
tent
##ully
##gia
inland
##itage
ongoing
stairs
##opes
##ifted
proven
1990s
humans
allowing
elected
securities
operate
projections
##idding
waited
identity
poorly
permit
hanging
praise
pounds
amendment
hes
vs
vine
##gy
##lor
##adays
##anda
##acious
##pping
cents
nowadays
deserve
blind
publication
oppon
statistical
iran
authorities
pleased
12th
##lining
corporations
requested
substance
discovery
ibm
prince
lewis
attestation
600
bost
gig
pour
##iated
##king
threw
thurs
##erity
##ills
studying
##iox
visitor
elections
terrace
figured
remembered
routine
similarly
democracy
proposals
hypoth
immigrants
spiritual
contemporary
archaeological
diversity
nepal
bos
bible
dir
diox
nuc
naz
##thy
crash
informed
captain
managing
egg
corps
recorded
achieving
contribute
michel
holiday
mandatory
buddha
errors
controlled
boston
nucle
dict
##tle
##yard
##days
tech
overwhel
heritage
drag
strang
prescr
requiring
mini
barri
palazz
seconds
analyses
dealing
agreements
paperwork
recognition
victim
riders
sandy
linked
declined
christianity
minority
upstairs
jewelry
vulner
destruction
wednesday
dol
jur
pin
rational
rams
zero
##bul
##itated
##oms
beer
ang
shout
neck
knife
##uns
##ouses
groc
grave
sheep
yours
acts
##iana
downtown
discour
metric
nato
##engers
accessible
periods
returns
describe
hoped
hospitals
surplus
altar
concluded
wheel
controvers
byzantine
november
ain
auction
pizz
ram
tu
##oons
##onald
##alf
weigh
gosh
external
unh
imposing
repr
##ubb
accused
regions
caf
##awa
##lessly
northwest
##arrass
objects
fifth
##rupted
premature
africa
karf
converted
forgotten
outdoor
innocent
dioxide
45
fing
hou
lined
pp
sights
wolf
##bre
##kins
##inian
##ester
##eds
stroll
frag
chamb
orch
##osition
leon
##oca
drivers
buchan
partner
handling
capable
valuation
##ception
musical
missing
volunt
solic
determining
answers
ignore
integrity
cruise
astronom
pilgrims
nurse
aege
dirty
dying
roc
vic
##ien
##rep
##uting
##cher
ate
knock
truck
drove
stry
relating
flav
courses
delay
landsc
passengers
electron
methodology
coastal
indicate
establishing
quietly
earthquake
chicken
consolid
invasion
aegean
bench
cum
diction
hars
lam
mothers
pad
till
##oque
wash
exotic
theme
pools
adding
modest
##chnine
funchal
refuge
raj
limestone
breaking
##attle
traveling
puert
unfair
examination
venice
flying
captured
bowl
gathered
strychnine
cant
cyc
dame
file
locked
tool
##rete
##isk
##urd
prize
##thouse
shannon
##keep
grade
impr
##ubs
struck
provision
lasted
starts
performing
walks
blacks
nonf
closely
demands
universal
faa
unemployment
bour
cos
fert
tas
##night
##ora
toler
##ici
uncon
##aved
monop
personally
corresp
weekends
morris
patr
armed
exclud
promise
filed
administer
fallen
objective
obser
embarrass
purchased
jackson
triump
license
false
impeach
controversial
correspond
800
rot
rust
tables
zoo
##uits
##ih
##inos
##oral
reaction
##stream
##thod
##iva
newly
intention
boom
##ava
indig
parent
locations
soul
lessons
##bean
monthly
lands
topics
salary
popularity
representative
romantic
encoun
falls
duke
creative
burned
laughed
comprom
buchanan
bread
rib
rode
##his
##war
##field
gro
reserv
undert
##ucks
marketing
extended
arrest
addressing
malay
qualified
merchant
mobile
vehicles
conscious
ramses
houston
dip
dup
##bour
##tes
##iot
##lied
thro
##ano
doz
exists
##udes
loves
fox
secure
reader
curious
feelings
authors
arrested
absence
renew
considerable
initially
optim
architectural
exhibition
denied
globe
premium
martinique
concentration
lifet
virtually
editorial
dynasty
interpretation
crucial
platform
kosovo
hiring
jr
nerv
nipa
pul
sons
##fl
##esis
##ales
anx
##illing
cha
##istry
##une
##ques
##arel
indo
guadel
baroque
equival
palm
difficulty
subjects
referred
voted
impression
recommendation
pilot
gentlem
confirmed
veterans
subsequent
protocols
chambers
##thodox
gap
gaz
gained
hates
pupp
pont
##lv
##oration
forec
##amental
##aine
hast
imposed
recre
assurance
supplies
surg
passage
southwest
authorized
expecting
hitler
juan
committees
femin
pushed
situated
component
delightful
rebuilt
supervis
occasionally
discrimination
caribbean
harsh
guadeloupe
93
cater
dat
gifts
mun
rit
##bound
##yon
##xual
##erce
stor
hamm
##vered
##illes
##usted
incident
actor
guides
##ologist
edition
clever
beneath
ceram
employer
employed
passion
traveled
burning
murd
settings
diam
dressed
opposition
involvement
mirr
guarantee
mystery
tropical
album
erected
rod
##rig
##uine
##atoes
##omach
##iration
##essions
sees
noble
##active
myth
shell
##aki
expans
##aches
pregn
##ocks
publications
simpl
temporary
covering
refuse
solve
silk
grande
inflation
beautifully
multi
motion
institutions
evaluate
horror
blocks
injured
##iptions
sevent
instrument
relaxed
rejected
manufacturers
trauma
ls
lod
ves
vend
zone
##ko
##fall
##irable
##oli
chamber
##oker
agenda
crown
190
guests
##lands
depth
profile
transm
refers
northeast
187
significance
encl
focuses
balanced
influenced
maintaining
sculpted
immediate
injury
adopt
mexican
picturesque
bathroom
scenarios
portugal
fabric
divorce
fountain
sauce
bern
mit
##pit
##inate
##areness
##utory
##ima
##uls
liqu
tran
trials
##aux
resem
score
boards
apparel
cares
monte
monitor
flour
handled
planet
childhood
fundamental
swung
badly
southeast
ceo
##boys
colleagues
heaven
hopes
ninet
etc
deficits
carrier
austral
boutiques
sophistic
venetian
elev
fcc
jazz
wt
wol
##lord
##enger
inher
##ican
##owing
##irm
fro
trends
##eline
assert
reluct
presents
##erman
fled
margin
para
concrete
statutory
patron
##liers
excurs
nonpro
awareness
enterpr
distingu
pund
woods
jersey
ladin
submit
conservatives
talent
advocates
lifesty
songs
carriers
datab
fond
na
##cks
##zes
##idays
##urred
notre
##oda
suits
##arded
spo
loyal
quiz
driver
commerce
legs
caps
edward
delhi
medica
designated
villa
entering
##onym
speaker
connected
trails
instruct
ninety
certification
##scrib
sewing
explorer
thursday
ritual
bike
hatch
##rah
##ault
##mand
##ki
##stone
##opher
comedy
##ighters
pla
crose
decent
legit
homeland
campus
statute
behalf
dealers
travelers
granted
historically
checked
neglect
damaged
banned
reflects
establishment
holoca
garb
swords
obtained
automated
luxury
earnings
shelter
maximum
rapidly
intelligence
cliffs
acknowled
frescoes
cuisine
holocaust
95
lu
tort
tied
##hem
theories
##organ
##alle
inject
##olis
exit
spoken
myster
##agers
exposed
carbon
flaw
supports
talks
letting
entit
stops
wondered
acquired
procedure
mixed
profitable
interviews
wedding
tapes
adventure
inev
convinced
portrait
enjoys
pyramid
antonio
dozens
lifetime
medicaid
37
dirt
mild
nit
pap
ros
tact
##pe
sail
aggreg
##ipts
crop
prepar
mons
monks
parad
phar
farming
economically
allowance
confused
promised
membership
shrines
##sylv
treasure
utter
bombing
constitutional
bureaucr
convenient
surface
pennsylv
theatre
nuclear
wtp
39
aic
horn
oak
tok
##arse
##ashing
##iro
conrad
##acc
trash
nose
cancer
##quis
##ems
thrown
##athers
warn
warning
##ugs
airport
transactions
swing
ruling
superior
adjustment
florence
seventy
sticks
confirm
succeeded
innovative
oriented
fingers
bic
foster
harr
nh
nich
##ria
##lined
##wa
##inity
##any
##stit
anger
##olitan
nema
##istent
##eled
outr
peas
craw
roy
##avag
assigned
throne
highlight
marry
proph
retreat
admission
rulers
identifying
coastline
competing
distin
rocky
customs
alternatives
##inois
touched
cowboys
bonds
strictly
cryst
eager
42
dot
dies
diving
fulf
finger
gulf
mwe
##bar
##ym
##orious
##rets
bears
stun
##olate
##olta
shil
conj
orthodox
alike
acres
##licit
striking
subur
revenues
marvel
editors
simon
porto
files
argued
assistant
campaigns
ensuring
deeply
priorities
celebrate
indicated
fashioned
injuries
discounts
produces
resistance
pierre
solely
weaknesses
joseph
ornate
nervous
paragraph
pennsylvania
aicpa
shiloh
dal
fel
rivers
##bc
##down
##erable
##inter
##esque
##ider
hav
prol
##che
##imental
shade
sequ
agents
##load
remove
mines
topham
housed
solutions
demanded
strongly
illness
illinois
breaks
installations
measurement
camer
extraord
transferred
guaranteed
ghost
carpet
brilliant
sacrifice
cete
basilica
pizza
tasks
99
cage
fancy
hub
nas
pays
##makers
##iner
##orous
prest
seas
##osh
##eling
adapt
comply
usa
boost
##rogen
email
generate
patri
reaching
traditionally
assessing
contractor
broadcast
impressed
dramatically
racial
advisory
bustling
osaka
columbus
steady
hawaii
inhabit
satisfaction
palazzo
ell
hi
lion
punch
pushing
##ull
##born
##ho
##mony
##fare
##oning
##asy
stro
stomach
##char
deals
fright
proc
cans
spark
perth
quint
##osexual
