{
  "version": "1.0",
  "truncation": null,
  "padding": null,
  "added_tokens": [
    {
      "id": 0,
      "content": "[PAD]",
      "single_word": false,
      "lstrip": false,
      "rstrip": false,
      "normalized": false,
      "special": true
    },
    {
      "id": 1,
      "content": "[UNK]",
      "single_word": false,
      "lstrip": false,
      "rstrip": false,
      "normalized": false,
      "special": true
    },
    {
      "id": 2,
      "content": "[CLS]",
      "single_word": false,
      "lstrip": false,
      "rstrip": false,
      "normalized": false,
      "special": true
    },
    {
      "id": 3,
      "content": "[SEP]",
      "single_word": false,
      "lstrip": false,
      "rstrip": false,
      "normalized": false,
      "special": true
    },
    {
      "id": 4,
      "content": "[MASK]",
      "single_word": false,
      "lstrip": false,
      "rstrip": false,
      "normalized": false,
      "special": true
    }
  ],
  "normalizer": {
    "type": "BertNormalizer",
    "clean_text": true,
    "handle_chinese_chars": true,
    "strip_accents": null,
    "lowercase": true
  },
  "pre_tokenizer": {
    "type": "BertPreTokenizer"
  },
  "post_processor": {
    "type": "TemplateProcessing",
    "single": [
      {
        "SpecialToken": {
          "id": "[CLS]",
          "type_id": 0
        }
      },
      {
        "Sequence": {
          "id": "A",
          "type_id": 0
        }
      },
      {
        "SpecialToken": {
          "id": "[SEP]",
          "type_id": 0
        }
      }
    ],
    "pair": [
      {
        "SpecialToken": {
          "id": "[CLS]",
          "type_id": 0
        }
      },
      {
        "Sequence": {
          "id": "A",
          "type_id": 0
        }
      },
      {
        "SpecialToken": {
          "id": "[SEP]",
          "type_id": 0
        }
      },
      {
        "Sequence": {
          "id": "B",
          "type_id": 1
        }
      },
      {
        "SpecialToken": {
          "id": "[SEP]",
          "type_id": 1
        }
      }
    ],
    "special_tokens": {
      "[CLS]": {
        "id": "[CLS]",
        "ids": [
          2
        ],
        "tokens": [
          "[CLS]"
        ]
      },
      "[SEP]": {
        "id": "[SEP]",
        "ids": [
          3
        ],
        "tokens": [
          "[SEP]"
        ]
      }
    }
  },
  "decoder": {
    "type": "WordPiece",
    "prefix": "##",
    "cleanup": true
  },
  "model": {
    "type": "WordPiece",
    "unk_token": "[UNK]",
    "continuing_subword_prefix": "##",
    "max_input_chars_per_word": 100,
    "vocab": {
      "[PAD]": 0,
      "[UNK]": 1,
      "[CLS]": 2,
      "[SEP]": 3,
      "[MASK]": 4,
      "!": 5,
      "\"": 6,
      "#": 7,
      "$": 8,
      "%": 9,
      "&": 10,
      "'": 11,
      "(": 12,
      ")": 13,
      "*": 14,
      "+": 15,
      ",": 16,
      "-": 17,
      ".": 18,
      "/": 19,
      "0": 20,
      "1": 21,
      "2": 22,
      "3": 23,
      "4": 24,
      "5": 25,
      "6": 26,
      "7": 27,
      "8": 28,
      "9": 29,
      ":": 30,
      ";": 31,
      "<": 32,
      "=": 33,
      ">": 34,
      "?": 35,
      "@": 36,
      "[": 37,
      "]": 38,
      "_": 39,
      "`": 40,
      "a": 41,
      "b": 42,
      "c": 43,
      "d": 44,
      "e": 45,
      "f": 46,
      "g": 47,
      "h": 48,
      "i": 49,
      "j": 50,
      "k": 51,
      "l": 52,
      "m": 53,
      "n": 54,
      "o": 55,
      "p": 56,
      "q": 57,
      "r": 58,
      "s": 59,
      "t": 60,
      "u": 61,
      "v": 62,
      "w": 63,
      "x": 64,
      "y": 65,
      "z": 66,
      "{": 67,
      "|": 68,
      "}": 69,
      "~": 70,
      "¦": 71,
      "§": 72,
      "®": 73,
      "¶": 74,
      "·": 75,
      "¸": 76,
      "º": 77,
      "½": 78,
      "æ": 79,
      "ø": 80,
      "†": 81,
      "‡": 82,
      "™": 83,
      "##a": 84,
      "##1": 85,
      "##m": 86,
      "##b": 87,
      "##l": 88,
      "##n": 89,
      "##c": 90,
      "##e": 91,
      "##t": 92,
      "##d": 93,
      "##v": 94,
      "##o": 95,
      "##i": 96,
      "##f": 97,
      "##r": 98,
      "##s": 99,
      "##u": 100,
      "##y": 101,
      "##8": 102,
      "##5": 103,
      "##2": 104,
      "##g": 105,
      "##3": 106,
      "##9": 107,
      "##k": 108,
      "##p": 109,
      "##z": 110,
      "##h": 111,
      "##0": 112,
      "##w": 113,
      "##7": 114,
      "##4": 115,
      "##6": 116,
      "##x": 117,
      "##ø": 118,
      "##q": 119,
      "##j": 120,
      "##½": 121,
      "##æ": 122,
      "##®": 123,
      "##™": 124,
      "##¸": 125,
      "th": 126,
      "the": 127,
      "##on": 128,
      "##er": 129,
      "##ti": 130,
      "##en": 131,
      "##es": 132,
      "##ed": 133,
      "##at": 134,
      "##in": 135,
      "of": 136,
      "##or": 137,
      "in": 138,
      "##al": 139,
      "##is": 140,
      "##tion": 141,
      "##nd": 142,
      "to": 143,
      "##ou": 144,
      "##it": 145,
      "##ar": 146,
      "##an": 147,
      "##ic": 148,
      "##ent": 149,
      "##ec": 150,
      "##as": 151,
      "##ing": 152,
      "##re": 153,
      "##ro": 154,
      "and": 155,
      "re": 156,
      "that": 157,
      "con": 158,
      "##ot": 159,
      "st": 160,
      "##ly": 161,
      "##le": 162,
      "##ation": 163,
      "##ce": 164,
      "##st": 165,
      "##se": 166,
      "##om": 167,
      "be": 168,
      "##ur": 169,
      "cou": 170,
      "pro": 171,
      "is": 172,
      "##ment": 173,
      "##id": 174,
      "su": 175,
      "for": 176,
      "wh": 177,
      "##ate": 178,
      "##ve": 179,
      "##ts": 180,
      "##il": 181,
      "##ri": 182,
      "an": 183,
      "as": 184,
      "on": 185,
      "##th": 186,
      "##ac": 187,
      "##pp": 188,
      "##ir": 189,
      "cour": 190,
      "##ion": 191,
      "##ol": 192,
      "##ess": 193,
      "or": 194,
      "##ter": 195,
      "not": 196,
      "at": 197,
      "##ver": 198,
      "19": 199,
      "##ut": 200,
      "de": 201,
      "court": 202,
      "com": 203,
      "##ith": 204,
      "by": 205,
      "ac": 206,
      "##ig": 207,
      "##mp": 208,
      "dis": 209,
      "it": 210,
      "ex": 211,
      "##ad": 212,
      "se": 213,
      "##ul": 214,
      "app": 215,
      "un": 216,
      "##ers": 217,
      "##ab": 218,
      "##ld": 219,
      "with": 220,
      "al": 221,
      "stat": 222,
      "##tin": 223,
      "##la": 224,
      "##ow": 225,
      "##us": 226,
      "##im": 227,
      "##ch": 228,
      "##ity": 229,
      "##tr": 230,
      "##end": 231,
      "was": 232,
      "##ay": 233,
      "this": 234,
      "##qu": 235,
      "##ting": 236,
      "##ud": 237,
      "##ted": 238,
      "##ff": 239,
      "pr": 240,
      "res": 241,
      "##ain": 242,
      "##ere": 243,
      "##ge": 244,
      "state": 245,
      "##el": 246,
      "##ther": 247,
      "##ich": 248,
      "comm": 249,
      "cons": 250,
      "##os": 251,
      "##and": 252,
      "ad": 253,
      "##eral": 254,
      "##am": 255,
      "no": 256,
      "sh": 257,
      "##ant": 258,
      "which": 259,
      "##igh": 260,
      "en": 261,
      "he": 262,
      "##ould": 263,
      "par": 264,
      "ch": 265,
      "cas": 266,
      "ha": 267,
      "##for": 268,
      "##ect": 269,
      "##tive": 270,
      "##ew": 271,
      "see": 272,
      "##li": 273,
      "are": 274,
      "##rom": 275,
      "##ence": 276,
      "we": 277,
      "##min": 278,
      "from": 279,
      "und": 280,
      "##ard": 281,
      "##tu": 282,
      "##vid": 283,
      "##aw": 284,
      "##uc": 285,
      "le": 286,
      "##ary": 287,
      "##ited": 288,
      "states": 289,
      "##able": 290,
      "am": 291,
      "under": 292,
      "##tic": 293,
      "co": 294,
      "ag": 295,
      "##pon": 296,
      "have": 297,
      "its": 298,
      "inter": 299,
      "ar": 300,
      "comp": 301,
      "##not": 302,
      "##ress": 303,
      "##te": 304,
      "any": 305,
      "##use": 306,
      "##lic": 307,
      "do": 308,
      "##fic": 309,
      "##un": 310,
      "##ial": 311,
      "##ty": 312,
      "##ations": 313,
      "law": 314,
      "##ated": 315,
      "would": 316,
      "##ra": 317,
      "##ust": 318,
      "dec": 319,
      "fo": 320,
      "##iss": 321,
      "##ision": 322,
      "##cl": 323,
      "##tions": 324,
      "##lo": 325,
      "ind": 326,
      "pe": 327,
      "has": 328,
      "##um": 329,
      "me": 330,
      "##ven": 331,
      "rec": 332,
      "##ak": 333,
      "##tric": 334,
      "##over": 335,
      "##per": 336,
      "such": 337,
      "his": 338,
      "united": 339,
      "sub": 340,
      "##ose": 341,
      "act": 342,
      "##gh": 343,
      "jud": 344,
      "requ": 345,
      "##all": 346,
      "imp": 347,
      "foot": 348,
      "##est": 349,
      "fed": 350,
      "footnot": 351,
      "there": 352,
      "##iti": 353,
      "##ance": 354,
      "##iz": 355,
      "but": 356,
      "##ue": 357,
      "qu": 358,
      "##ight": 359,
      "cla": 360,
      "tr": 361,
      "case": 362,
      "per": 363,
      "federal": 364,
      "##ib": 365,
      "footnote": 366,
      "sec": 367,
      "cong": 368,
      "##ous": 369,
      "##ure": 370,
      "may": 371,
      "##tition": 372,
      "##od": 373,
      "##act": 374,
      "##ill": 375,
      "all": 376,
      "##ally": 377,
      "##ip": 378,
      "emp": 379,
      "##ort": 380,
      "def": 381,
      "##oc": 382,
      "##ough": 383,
      "were": 384,
      "##titu": 385,
      "##ef": 386,
      "ass": 387,
      "##ory": 388,
      "other": 389,
      "ne": 390,
      "##ree": 391,
      "had": 392,
      "statut": 393,
      "distric": 394,
      "petition": 395,
      "vi": 396,
      "##ause": 397,
      "appe": 398,
      "##ell": 399,
      "reg": 400,
      "if": 401,
      "##titution": 402,
      "sp": 403,
      "##ail": 404,
      "rep": 405,
      "ab": 406,
      "exp": 407,
      "##ish": 408,
      "congress": 409,
      "##ord": 410,
      "197": 411,
      "##ition": 412,
      "##tain": 413,
      "jur": 414,
      "district": 415,
      "pres": 416,
      "##ens": 417,
      "##ission": 418,
      "##gu": 419,
      "gr": 420,
      "##ments": 421,
      "10": 422,
      "##ore": 423,
      "inc": 424,
      "##ans": 425,
      "their": 426,
      "##overn": 427,
      "##tice": 428,
      "govern": 429,
      "id": 430,
      "been": 431,
      "int": 432,
      "##iv": 433,
      "respon": 434,
      "##ice": 435,
      "bec": 436,
      "##duc": 437,
      "##vi": 438,
      "##als": 439,
      "ob": 440,
      "##ome": 441,
      "pur": 442,
      "op": 443,
      "pre": 444,
      "only": 445,
      "##erv": 446,
      "amend": 447,
      "##ach": 448,
      "##loy": 449,
      "ord": 450,
      "fin": 451,
      "jus": 452,
      "gen": 453,
      "##ub": 454,
      "##em": 455,
      "supp": 456,
      "sup": 457,
      "##ound": 458,
      "##ason": 459,
      "so": 460,
      "##age": 461,
      "##ist": 462,
      "constitution": 463,
      "leg": 464,
      "one": 465,
      "##ges": 466,
      "pri": 467,
      "can": 468,
      "employ": 469,
      "##ia": 470,
      "##enc": 471,
      "acc": 472,
      "claim": 473,
      "##ign": 474,
      "cont": 475,
      "2d": 476,
      "198": 477,
      "commission": 478,
      "##ies": 479,
      "##op": 480,
      "##ke": 481,
      "they": 482,
      "##so": 483,
      "rem": 484,
      "inv": 485,
      "disc": 486,
      "##ire": 487,
      "##clud": 488,
      "##fore": 489,
      "tri": 490,
      "li": 491,
      "##old": 492,
      "proc": 493,
      "general": 494,
      "government": 495,
      "##ents": 496,
      "these": 497,
      "reason": 498,
      "pol": 499,
      "whe": 500,
      "##ax": 501,
      "##out": 502,
      "##ive": 503,
      "new": 504,
      "than": 505,
      "##ise": 506,
      "##ection": 507,
      "because": 508,
      "also": 509,
      "whether": 510,
      "provid": 511,
      "more": 512,
      "##ied": 513,
      "20": 514,
      "##uth": 515,
      "pers": 516,
      "11": 517,
      "decision": 518,
      "18": 519,
      "##ber": 520,
      "coun": 521,
      "eff": 522,
      "##anc": 523,
      "respond": 524,
      "pub": 525,
      "##ass": 526,
      "##fer": 527,
      "ques": 528,
      "##ings": 529,
      "when": 530,
      "##oin": 531,
      "##rimin": 532,
      "does": 533,
      "cor": 534,
      "iss": 535,
      "##sel": 536,
      "##inion": 537,
      "conc": 538,
      "##its": 539,
      "##ade": 540,
      "bas": 541,
      "opinion": 542,
      "who": 543,
      "##uthor": 544,
      "##lain": 545,
      "again": 546,
      "mo": 547,
      "tax": 548,
      "aff": 549,
      "pow": 550,
      "196": 551,
      "##ility": 552,
      "statute": 553,
      "author": 554,
      "cer": 555,
      "##ates": 556,
      "will": 557,
      "##ari": 558,
      "ca": 559,
      "fir": 560,
      "##ine": 561,
      "cases": 562,
      "prov": 563,
      "13": 564,
      "car": 565,
      "di": 566,
      "##ific": 567,
      "##str": 568,
      "12": 569,
      "##ged": 570,
      "evid": 571,
      "##ork": 572,
      "amendment": 573,
      "##our": 574,
      "regul": 575,
      "order": 576,
      "##ider": 577,
      "person": 578,
      "##iction": 579,
      "argu": 580,
      "el": 581,
      "public": 582,
      "##oth": 583,
      "att": 584,
      "pl": 585,
      "those": 586,
      "##ors": 587,
      "##ey": 588,
      "must": 589,
      "rel": 590,
      "deter": 591,
      "justice": 592,
      "how": 593,
      "dep": 594,
      "petitioner": 595,
      "##ong": 596,
      "##ected": 597,
      "offic": 598,
      "upon": 599,
      "tim": 600,
      "appeals": 601,
      "sch": 602,
      "us": 603,
      "##ule": 604,
      "first": 605,
      "against": 606,
      "##ack": 607,
      "consider": 608,
      "##ath": 609,
      "over": 610,
      "bo": 611,
      "contr": 612,
      "##ame": 613,
      "cir": 614,
      "mar": 615,
      "judg": 616,
      "fact": 617,
      "purp": 618,
      "require": 619,
      "##oll": 620,
      "ter": 621,
      "man": 622,
      "sa": 623,
      "15": 624,
      "serv": 625,
      "prot": 626,
      "##if": 627,
      "determin": 628,
      "right": 629,
      "##ative": 630,
      "evidence": 631,
      "##ll": 632,
      "rule": 633,
      "##rib": 634,
      "proper": 635,
      "question": 636,
      "##ities": 637,
      "lim": 638,
      "requir": 639,
      "viol": 640,
      "supra": 641,
      "here": 642,
      "provision": 643,
      "des": 644,
      "##ceed": 645,
      "##ational": 646,
      "##form": 647,
      "could": 648,
      "##ake": 649,
      "did": 650,
      "##mit": 651,
      "##ties": 652,
      "##wn": 653,
      "should": 654,
      "spec": 655,
      "circ": 656,
      "##cep": 657,
      "##og": 658,
      "##fter": 659,
      "##enti": 660,
      "##me": 661,
      "##oun": 662,
      "14": 663,
      "##ond": 664,
      "courts": 665,
      "our": 666,
      "##ever": 667,
      "##ear": 668,
      "appro": 669,
      "pos": 670,
      "judgment": 671,
      "##ating": 672,
      "legis": 673,
      "42": 674,
      "add": 675,
      "action": 676,
      "ins": 677,
      "##vers": 678,
      "some": 679,
      "before": 680,
      "char": 681,
      "cl": 682,
      "defend": 683,
      "stand": 684,
      "fa": 685,
      "trial": 686,
      "##we": 687,
      "##ms": 688,
      "time": 689,
      "##lish": 690,
      "power": 691,
      "part": 692,
      "##ast": 693,
      "##ized": 694,
      "##ved": 695,
      "held": 696,
      "mat": 697,
      "constitutional": 698,
      "even": 699,
      "##red": 700,
      "40": 701,
      "indi": 702,
      "##ights": 703,
      "##isd": 704,
      "16": 705,
      "br": 706,
      "diff": 707,
      "made": 708,
      "##res": 709,
      "##one": 710,
      "##clus": 711,
      "rights": 712,
      "proceed": 713,
      "applic": 714,
      "30": 715,
      "##ective": 716,
      "tw": 717,
      "##cc": 718,
      "##ense": 719,
      "39": 720,
      "##orn": 721,
      "te": 722,
      "33": 723,
      "however": 724,
      "est": 725,
      "out": 726,
      "17": 727,
      "nor": 728,
      "199": 729,
      "bet": 730,
      "where": 731,
      "##ants": 732,
      "##ide": 733,
      "jurisd": 734,
      "41": 735,
      "partic": 736,
      "##et": 737,
      "find": 738,
      "##ile": 739,
      "after": 740,
      "##tit": 741,
      "##ru": 742,
      "50": 743,
      "##ite": 744,
      "without": 745,
      "##ecess": 746,
      "##reat": 747,
      "shall": 748,
      "corp": 749,
      "##ible": 750,
      "jurisdiction": 751,
      "##ag": 752,
      "##view": 753,
      "##tiv": 754,
      "trans": 755,
      "hold": 756,
      "equ": 757,
      "fac": 758,
      "fil": 759,
      "##ult": 760,
      "conf": 761,
      "interest": 762,
      "37": 763,
      "within": 764,
      "cle": 765,
      "them": 766,
      "den": 767,
      "present": 768,
      "##mm": 769,
      "43": 770,
      "##ful": 771,
      "38": 772,
      "own": 773,
      "dir": 774,
      "34": 775,
      "min": 776,
      "##ual": 777,
      "##ap": 778,
      "##tical": 779,
      "same": 780,
      "##und": 781,
      "##led": 782,
      "##man": 783,
      "reli": 784,
      "28": 785,
      "##ject": 786,
      "35": 787,
      "bri": 788,
      "board": 789,
      "36": 790,
      "31": 791,
      "respondent": 792,
      "46": 793,
      "issue": 794,
      "25": 795,
      "##ici": 796,
      "##ween": 797,
      "two": 798,
      "45": 799,
      "ref": 800,
      "between": 801,
      "use": 802,
      "him": 803,
      "44": 804,
      "bar": 805,
      "review": 806,
      "##ret": 807,
      "22": 808,
      "diss": 809,
      "##road": 810,
      "##tim": 811,
      "##erc": 812,
      "##ular": 813,
      "jury": 814,
      "32": 815,
      "##con": 816,
      "gu": 817,
      "year": 818,
      "47": 819,
      "##ern": 820,
      "agree": 821,
      "##ently": 822,
      "##mb": 823,
      "commit": 824,
      "195": 825,
      "##osed": 826,
      "clear": 827,
      "21": 828,
      "view": 829,
      "##inc": 830,
      "49": 831,
      "section": 832,
      "val": 833,
      "##ool": 834,
      "sc": 835,
      "##urr": 836,
      "##ablish": 837,
      "##ee": 838,
      "##ank": 839,
      "brief": 840,
      "establish": 841,
      "what": 842,
      "necess": 843,
      "##ees": 844,
      "process": 845,
      "##ution": 846,
      "194": 847,
      "48": 848,
      "includ": 849,
      "into": 850,
      "29": 851,
      "##ost": 852,
      "##istr": 853,
      "##ency": 854,
      "##ances": 855,
      "found": 856,
      "##ph": 857,
      "##orney": 858,
      "attorney": 859,
      "disp": 860,
      "ben": 861,
      "##ability": 862,
      "##irm": 863,
      "ro": 864,
      "26": 865,
      "school": 866,
      "subst": 867,
      "both": 868,
      "standard": 869,
      "##ought": 870,
      "23": 871,
      "24": 872,
      "si": 873,
      "clause": 874,
      "prac": 875,
      "##urn": 876,
      "differ": 877,
      "invol": 878,
      "##are": 879,
      "##gin": 880,
      "sy": 881,
      "##ical": 882,
      "##son": 883,
      "go": 884,
      "mon": 885,
      "##clusion": 886,
      "##art": 887,
      "##tif": 888,
      "ii": 889,
      "defendant": 890,
      "##ious": 891,
      "work": 892,
      "produc": 893,
      "form": 894,
      "ext": 895,
      "##enn": 896,
      "set": 897,
      "##ority": 898,
      "##ving": 899,
      "##ither": 900,
      "##ok": 901,
      "cal": 902,
      "##struc": 903,
      "thus": 904,
      "proced": 905,
      "##pect": 906,
      "##fe": 907,
      "record": 908,
      "plain": 909,
      "##ince": 910,
      "four": 911,
      "effect": 912,
      "authority": 913,
      "pay": 914,
      "contro": 915,
      "##ures": 916,
      "mr": 917,
      "express": 918,
      "inj": 919,
      "sent": 920,
      "crimin": 921,
      "particular": 922,
      "##ie": 923,
      "oper": 924,
      "##ase": 925,
      "##gr": 926,
      "cannot": 927,
      "admin": 928,
      "av": 929,
      "purpose": 930,
      "##ended": 931,
      "union": 932,
      "conclud": 933,
      "conv": 934,
      "pros": 935,
      "##gation": 936,
      "inde": 937,
      "##ute": 938,
      "##ness": 939,
      "loc": 940,
      "criminal": 941,
      "rul": 942,
      "cause": 943,
      "27": 944,
      "prob": 945,
      "substan": 946,
      "filed": 947,
      "property": 948,
      "off": 949,
      "##unc": 950,
      "hear": 951,
      "poss": 952,
      "make": 953,
      "might": 954,
      "since": 955,
      "ante": 956,
      "matter": 957,
      "str": 958,
      "claims": 959,
      "polic": 960,
      "ma": 961,
      "##miss": 962,
      "petitioners": 963,
      "individ": 964,
      "##atory": 965,
      "prec": 966,
      "##ural": 967,
      "##lev": 968,
      "national": 969,
      "##ger": 970,
      "##les": 971,
      "##hib": 972,
      "fail": 973,
      "conduc": 974,
      "prop": 975,
      "##icial": 976,
      "concern": 977,
      "##urd": 978,
      "well": 979,
      "##00": 980,
      "##stem": 981,
      "##less": 982,
      "judge": 983,
      "imm": 984,
      "system": 985,
      "ph": 986,
      "required": 987,
      "##now": 988,
      "##reme": 989,
      "laws": 990,
      "repres": 991,
      "discrimin": 992,
      "##hip": 993,
      "fur": 994,
      "##lative": 995,
      "appell": 996,
      "##rit": 997,
      "##oses": 998,
      "##ather": 999,
      "war": 1000,
      "party": 1001,
      "non": 1002,
      "service": 1003,
      "priv": 1004,
      "indic": 1005,
      "##ollow": 1006,
      "alle": 1007,
      "princ": 1008,
      "subject": 1009,
      "princip": 1010,
      "lab": 1011,
      "affirm": 1012,
      "ra": 1013,
      "tes": 1014,
      "follow": 1015,
      "##self": 1016,
      "need": 1017,
      "circum": 1018,
      "show": 1019,
      "fund": 1020,
      "judicial": 1021,
      "##oint": 1022,
      "hist": 1023,
      "##enting": 1024,
      "##ild": 1025,
      "##ison": 1026,
      "certain": 1027,
      "ed": 1028,
      "adv": 1029,
      "er": 1030,
      "further": 1031,
      "civ": 1032,
      "basis": 1033,
      "##ount": 1034,
      "maj": 1035,
      "##gan": 1036,
      "administr": 1037,
      "##ages": 1038,
      "direct": 1039,
      "##ech": 1040,
      "enfor": 1041,
      "then": 1042,
      "issu": 1043,
      "thr": 1044,
      "har": 1045,
      "ret": 1046,
      "bank": 1047,
      "pp": 1048,
      "##mitted": 1049,
      "benef": 1050,
      "##ects": 1051,
      "supreme": 1052,
      "each": 1053,
      "##ention": 1054,
      "##stances": 1055,
      "##ry": 1056,
      "dem": 1057,
      "provisions": 1058,
      "inform": 1059,
      "##ogn": 1060,
      "##erce": 1061,
      "##lied": 1062,
      "accord": 1063,
      "recogn": 1064,
      "class": 1065,
      "legisl": 1066,
      "ev": 1067,
      "through": 1068,
      "##ices": 1069,
      "therefore": 1070,
      "cond": 1071,
      "suff": 1072,
      "parties": 1073,
      "statutory": 1074,
      "##ys": 1075,
      "##temp": 1076,
      "##ably": 1077,
      "while": 1078,
      "51": 1079,
      "##uring": 1080,
      "nat": 1081,
      "respondents": 1082,
      "sug": 1083,
      "represent": 1084,
      "interp": 1085,
      "##ange": 1086,
      "##ays": 1087,
      "##ks": 1088,
      "##aking": 1089,
      "##ss": 1090,
      "cri": 1091,
      "post": 1092,
      "##ater": 1093,
      "sign": 1094,
      "##iness": 1095,
      "tit": 1096,
      "##av": 1097,
      "sal": 1098,
      "##ton": 1099,
      "limit": 1100,
      "second": 1101,
      "##tee": 1102,
      "read": 1103,
      "beli": 1104,
      "appeal": 1105,
      "sen": 1106,
      "labor": 1107,
      "commerce": 1108,
      "ste": 1109,
      "rece": 1110,
      "prohib": 1111,
      "argued": 1112,
      "##uit": 1113,
      "common": 1114,
      "mean": 1115,
      "52": 1116,
      "bus": 1117,
      "ver": 1118,
      "##allen": 1119,
      "civil": 1120,
      "spe": 1121,
      "bl": 1122,
      "##eric": 1123,
      "plan": 1124,
      "commun": 1125,
      "dou": 1126,
      "##ind": 1127,
      "memb": 1128,
      "##tis": 1129,
      "members": 1130,
      "lan": 1131,
      "compan": 1132,
      "excep": 1133,
      "rev": 1134,
      "proceedings": 1135,
      "##iven": 1136,
      "substanti": 1137,
      "policy": 1138,
      "certi": 1139,
      "remed": 1140,
      "legislative": 1141,
      "challen": 1142,
      "defin": 1143,
      "long": 1144,
      "rather": 1145,
      "##pri": 1146,
      "based": 1147,
      "specific": 1148,
      "doc": 1149,
      "mer": 1150,
      "reasonable": 1151,
      "said": 1152,
      "counsel": 1153,
      "##though": 1154,
      "##crib": 1155,
      "respect": 1156,
      "col": 1157,
      "conduct": 1158,
      "exerc": 1159,
      "activ": 1160,
      "cost": 1161,
      "although": 1162,
      "pa": 1163,
      "like": 1164,
      "opp": 1165,
      "about": 1166,
      "##ward": 1167,
      "53": 1168,
      "cre": 1169,
      "##anted": 1170,
      "broad": 1171,
      "employees": 1172,
      "sim": 1173,
      "##ately": 1174,
      "poli": 1175,
      "circumstances": 1176,
      "allow": 1177,
      "york": 1178,
      "fr": 1179,
      "application": 1180,
      "##ests": 1181,
      "necessary": 1182,
      "##par": 1183,
      "eng": 1184,
      "protection": 1185,
      "result": 1186,
      "relig": 1187,
      "ground": 1188,
      "##ential": 1189,
      "support": 1190,
      "three": 1191,
      "less": 1192,
      "dissenting": 1193,
      "prosec": 1194,
      "conclusion": 1195,
      "langu": 1196,
      "prior": 1197,
      "holding": 1198,
      "language": 1199,
      "54": 1200,
      "title": 1201,
      "tex": 1202,
      "##ortion": 1203,
      "contract": 1204,
      "given": 1205,
      "##acy": 1206,
      "americ": 1207,
      "##bid": 1208,
      "years": 1209,
      "enforce": 1210,
      "occ": 1211,
      "due": 1212,
      "most": 1213,
      "cf": 1214,
      "private": 1215,
      "business": 1216,
      "193": 1217,
      "##enth": 1218,
      "now": 1219,
      "individual": 1220,
      "course": 1221,
      "land": 1222,
      "provided": 1223,
      "##ided": 1224,
      "abs": 1225,
      "pass": 1226,
      "##sequ": 1227,
      "pla": 1228,
      "##hing": 1229,
      "ful": 1230,
      "inf": 1231,
      "cap": 1232,
      "enter": 1233,
      "committee": 1234,
      "know": 1235,
      "local": 1236,
      "apply": 1237,
      "majority": 1238,
      "regulation": 1239,
      "##arily": 1240,
      "coll": 1241,
      "##tained": 1242,
      "ever": 1243,
      "political": 1244,
      "##tiff": 1245,
      "import": 1246,
      "##ization": 1247,
      "##air": 1248,
      "##used": 1249,
      "circuit": 1250,
      "itself": 1251,
      "argument": 1252,
      "60": 1253,
      "requirement": 1254,
      "decl": 1255,
      "et": 1256,
      "cent": 1257,
      "plaintiff": 1258,
      "conn": 1259,
      "##gram": 1260,
      "##land": 1261,
      "##lement": 1262,
      "##ony": 1263,
      "carri": 1264,
      "##struction": 1265,
      "##itions": 1266,
      "used": 1267,
      "provides": 1268,
      "city": 1269,
      "##lig": 1270,
      "##ouse": 1271,
      "simp": 1272,
      "appropri": 1273,
      "program": 1274,
      "revers": 1275,
      "relief": 1276,
      "purposes": 1277,
      "##levant": 1278,
      "concurr": 1279,
      "dam": 1280,
      "##ibility": 1281,
      "##arge": 1282,
      "##itiz": 1283,
      "corpor": 1284,
      "##state": 1285,
      "cod": 1286,
      "her": 1287,
      "pat": 1288,
      "##ilar": 1289,
      "##ession": 1290,
      "##mption": 1291,
      "citiz": 1292,
      "contin": 1293,
      "##ference": 1294,
      "history": 1295,
      "ser": 1296,
      "rail": 1297,
      "ann": 1298,
      "rules": 1299,
      "provide": 1300,
      "##tual": 1301,
      "##ict": 1302,
      "secur": 1303,
      "##ten": 1304,
      "join": 1305,
      "deli": 1306,
      "##tern": 1307,
      "##ality": 1308,
      "terms": 1309,
      "appear": 1310,
      "##other": 1311,
      "adop": 1312,
      "agency": 1313,
      "complain": 1314,
      "denied": 1315,
      "regard": 1316,
      "##eign": 1317,
      "##oting": 1318,
      "child": 1319,
      "##ner": 1320,
      "##ize": 1321,
      "burd": 1322,
      "fl": 1323,
      "200": 1324,
      "vot": 1325,
      "##ised": 1326,
      "violation": 1327,
      "pun": 1328,
      "##ident": 1329,
      "emph": 1330,
      "similar": 1331,
      "##sp": 1332,
      "free": 1333,
      "fair": 1334,
      "inst": 1335,
      "suit": 1336,
      "asser": 1337,
      "enti": 1338,
      "##oci": 1339,
      "sugges": 1340,
      "during": 1341,
      "mere": 1342,
      "##bt": 1343,
      "jo": 1344,
      "either": 1345,
      "compe": 1346,
      "neg": 1347,
      "##unction": 1348,
      "emphas": 1349,
      "##ves": 1350,
      "##nia": 1351,
      "cali": 1352,
      "califor": 1353,
      "different": 1354,
      "california": 1355,
      "official": 1356,
      "pen": 1357,
      "interests": 1358,
      "##ket": 1359,
      "hearing": 1360,
      "belie": 1361,
      "##ator": 1362,
      "##aining": 1363,
      "55": 1364,
      "avail": 1365,
      "addition": 1366,
      "gas": 1367,
      "secret": 1368,
      "##ying": 1369,
      "##ified": 1370,
      "persons": 1371,
      "##omp": 1372,
      "granted": 1373,
      "restric": 1374,
      "stated": 1375,
      "decisions": 1376,
      "##ink": 1377,
      "obj": 1378,
      "intended": 1379,
      "##amp": 1380,
      "interstate": 1381,
      "##orts": 1382,
      "legal": 1383,
      "concurring": 1384,
      "##vious": 1385,
      "agreement": 1386,
      "high": 1387,
      "56": 1388,
      "##istent": 1389,
      "##ft": 1390,
      "statement": 1391,
      "##ury": 1392,
      "associ": 1393,
      "##hn": 1394,
      "num": 1395,
      "##osition": 1396,
      "##row": 1397,
      "ill": 1398,
      "##til": 1399,
      "red": 1400,
      "##eas": 1401,
      "57": 1402,
      "err": 1403,
      "reach": 1404,
      "practice": 1405,
      "far": 1406,
      "anal": 1407,
      "regulations": 1408,
      "##ital": 1409,
      "##vered": 1410,
      "liti": 1411,
      "being": 1412,
      "##iod": 1413,
      "period": 1414,
      "sel": 1415,
      "cand": 1416,
      "##ences": 1417,
      "##reed": 1418,
      "suffici": 1419,
      "ori": 1420,
      "##ending": 1421,
      "meaning": 1422,
      "price": 1423,
      "another": 1424,
      "61": 1425,
      "ear": 1426,
      "dist": 1427,
      "##ging": 1428,
      "main": 1429,
      "control": 1430,
      "end": 1431,
      "word": 1432,
      "signific": 1433,
      "information": 1434,
      "interpret": 1435,
      "relevant": 1436,
      "black": 1437,
      "american": 1438,
      "candid": 1439,
      "entit": 1440,
      "remand": 1441,
      "tak": 1442,
      "applied": 1443,
      "##day": 1444,
      "##ral": 1445,
      "county": 1446,
      "organ": 1447,
      "subs": 1448,
      "##ons": 1449,
      "##ived": 1450,
      "term": 1451,
      "##arch": 1452,
      "rej": 1453,
      "way": 1454,
      "treat": 1455,
      "assist": 1456,
      "prev": 1457,
      "company": 1458,
      "##ines": 1459,
      "secretary": 1460,
      "##uted": 1461,
      "##cons": 1462,
      "lo": 1463,
      "discrimination": 1464,
      "death": 1465,
      "facts": 1466,
      "exercise": 1467,
      "code": 1468,
      "sever": 1469,
      "equal": 1470,
      "appropriate": 1471,
      "##ood": 1472,
      "dr": 1473,
      "##jud": 1474,
      "##ecting": 1475,
      "accep": 1476,
      "origin": 1477,
      "substantial": 1478,
      "sol": 1479,
      "sit": 1480,
      "special": 1481,
      "exam": 1482,
      "house": 1483,
      "##io": 1484,
      "58": 1485,
      "limited": 1486,
      "every": 1487,
      "dismiss": 1488,
      "great": 1489,
      "never": 1490,
      "##rup": 1491,
      "##stand": 1492,
      "warr": 1493,
      "##mber": 1494,
      "##ional": 1495,
      "today": 1496,
      "penal": 1497,
      "65": 1498,
      "discre": 1499,
      "cur": 1500,
      "educ": 1501,
      "search": 1502,
      "employer": 1503,
      "simply": 1504,
      "obs": 1505,
      "bill": 1506,
      "##oup": 1507,
      "report": 1508,
      "##orari": 1509,
      "##uty": 1510,
      "good": 1511,
      "involved": 1512,
      "certiorari": 1513,
      "justif": 1514,
      "hand": 1515,
      "requirements": 1516,
      "means": 1517,
      "police": 1518,
      "ibid": 1519,
      "##ender": 1520,
      "considered": 1521,
      "point": 1522,
      "##ock": 1523,
      "proble": 1524,
      "##of": 1525,
      "wit": 1526,
      "##pr": 1527,
      "requires": 1528,
      "according": 1529,
      "depart": 1530,
      "##yp": 1531,
      "##wise": 1532,
      "indeed": 1533,
      "design": 1534,
      "immun": 1535,
      "##ections": 1536,
      "cust": 1537,
      "uni": 1538,
      "administrative": 1539,
      "concluded": 1540,
      "writ": 1541,
      "##ian": 1542,
      "permit": 1543,
      "##sh": 1544,
      "alleged": 1545,
      "66": 1546,
      "63": 1547,
      "prim": 1548,
      "trib": 1549,
      "vari": 1550,
      "iii": 1551,
      "62": 1552,
      "70": 1553,
      "place": 1554,
      "established": 1555,
      "74": 1556,
      "punish": 1557,
      "available": 1558,
      "purs": 1559,
      "least": 1560,
      "determination": 1561,
      "##xt": 1562,
      "motion": 1563,
      "exec": 1564,
      "##uch": 1565,
      "##endent": 1566,
      "##try": 1567,
      "though": 1568,
      "valid": 1569,
      "64": 1570,
      "exe": 1571,
      "relations": 1572,
      "vir": 1573,
      "sentence": 1574,
      "group": 1575,
      "000": 1576,
      "damages": 1577,
      "##uss": 1578,
      "fe": 1579,
      "med": 1580,
      "prom": 1581,
      "many": 1582,
      "oblig": 1583,
      "##erial": 1584,
      "59": 1585,
      "##equ": 1586,
      "otherwise": 1587,
      "benefits": 1588,
      "my": 1589,
      "religious": 1590,
      "separ": 1591,
      "procedure": 1592,
      "##king": 1593,
      "burden": 1594,
      "call": 1595,
      "discretion": 1596,
      "take": 1597,
      "bel": 1598,
      "comple": 1599,
      "including": 1600,
      "election": 1601,
      "##tun": 1602,
      "entire": 1603,
      "soc": 1604,
      "mil": 1605,
      "speech": 1606,
      "##ley": 1607,
      "statutes": 1608,
      "wil": 1609,
      "cho": 1610,
      "examp": 1611,
      "##hold": 1612,
      "testim": 1613,
      "##ination": 1614,
      "##orted": 1615,
      "##oss": 1616,
      "area": 1617,
      "finding": 1618,
      "witness": 1619,
      "compens": 1620,
      "bro": 1621,
      "entitled": 1622,
      "contrib": 1623,
      "exis": 1624,
      "reversed": 1625,
      "effective": 1626,
      "71": 1627,
      "##quir": 1628,
      "services": 1629,
      "prison": 1630,
      "amount": 1631,
      "##leg": 1632,
      "consideration": 1633,
      "rate": 1634,
      "stud": 1635,
      "##ope": 1636,
      "liability": 1637,
      "##acter": 1638,
      "sm": 1639,
      "##reg": 1640,
      "assum": 1641,
      "mod": 1642,
      "affirmed": 1643,
      "intern": 1644,
      "##ix": 1645,
      "attemp": 1646,
      "sou": 1647,
      "proceeding": 1648,
      "determine": 1649,
      "trad": 1650,
      "##ends": 1651,
      "lic": 1652,
      "qual": 1653,
      "det": 1654,
      "construction": 1655,
      "##law": 1656,
      "##bit": 1657,
      "##vel": 1658,
      "discuss": 1659,
      "identi": 1660,
      "##ily": 1661,
      "75": 1662,
      "reasons": 1663,
      "material": 1664,
      "##lop": 1665,
      "questions": 1666,
      "indep": 1667,
      "standards": 1668,
      "interpretation": 1669,
      "added": 1670,
      "character": 1671,
      "complaint": 1672,
      "ordin": 1673,
      "imposed": 1674,
      "employment": 1675,
      "##teenth": 1676,
      "enforcement": 1677,
      "testimony": 1678,
      "##iting": 1679,
      "resol": 1680,
      "##ued": 1681,
      "income": 1682,
      "73": 1683,
      "tre": 1684,
      "think": 1685,
      "conviction": 1686,
      "citizens": 1687,
      "artic": 1688,
      "perform": 1689,
      "##tives": 1690,
      "72": 1691,
      "mis": 1692,
      "say": 1693,
      "nothing": 1694,
      "super": 1695,
      "mc": 1696,
      "congressional": 1697,
      "respons": 1698,
      "just": 1699,
      "intent": 1700,
      "68": 1701,
      "##velop": 1702,
      "recognized": 1703,
      "full": 1704,
      "unless": 1705,
      "##app": 1706,
      "employee": 1707,
      "67": 1708,
      "##elle": 1709,
      "white": 1710,
      "neither": 1711,
      "position": 1712,
      "ir": 1713,
      "office": 1714,
      "penn": 1715,
      "test": 1716,
      "defense": 1717,
      "##uck": 1718,
      "trust": 1719,
      "very": 1720,
      "railroad": 1721,
      "you": 1722,
      "emphasis": 1723,
      "deal": 1724,
      "corr": 1725,
      "up": 1726,
      "declar": 1727,
      "sought": 1728,
      "##read": 1729,
      "clearly": 1730,
      "department": 1731,
      "##mission": 1732,
      "taken": 1733,
      "issues": 1734,
      "until": 1735,
      "arbit": 1736,
      "##ture": 1737,
      "##alth": 1738,
      "significant": 1739,
      "##ortun": 1740,
      "##ising": 1741,
      "give": 1742,
      "##sw": 1743,
      "presented": 1744,
      "light": 1745,
      "opportun": 1746,
      "##cribed": 1747,
      "notice": 1748,
      "##tle": 1749,
      "develop": 1750,
      "##oid": 1751,
      "hab": 1752,
      "situ": 1753,
      "activities": 1754,
      "example": 1755,
      "1983": 1756,
      "incre": 1757,
      "##ross": 1758,
      "##omic": 1759,
      "##ave": 1760,
      "noted": 1761,
      "80": 1762,
      "192": 1763,
      "##itor": 1764,
      "merely": 1765,
      "moreover": 1766,
      "remedy": 1767,
      "##fication": 1768,
      "market": 1769,
      "dissent": 1770,
      "##ature": 1771,
      "thir": 1772,
      "contrary": 1773,
      "actions": 1774,
      "lib": 1775,
      "crime": 1776,
      "69": 1777,
      "defendants": 1778,
      "uncons": 1779,
      "brought": 1780,
      "lit": 1781,
      "value": 1782,
      "number": 1783,
      "##tisf": 1784,
      "important": 1785,
      "peop": 1786,
      "##to": 1787,
      "econ": 1788,
      "##val": 1789,
      "##imin": 1790,
      "purch": 1791,
      "81": 1792,
      "prof": 1793,
      "barg": 1794,
      "appelle": 1795,
      "sur": 1796,
      "##ick": 1797,
      "arbitr": 1798,
      "76": 1799,
      "remain": 1800,
      "generally": 1801,
      "contrac": 1802,
      "among": 1803,
      "doctr": 1804,
      "ge": 1805,
      "##vile": 1806,
      "##ces": 1807,
      "line": 1808,
      "77": 1809,
      "believe": 1810,
      "transp": 1811,
      "people": 1812,
      "privile": 1813,
      "guil": 1814,
      "life": 1815,
      "rac": 1816,
      "doubt": 1817,
      "rates": 1818,
      "fav": 1819,
      "nature": 1820,
      "unconstitution": 1821,
      "##tinc": 1822,
      "explain": 1823,
      "inves": 1824,
      "conditions": 1825,
      "much": 1826,
      "resul": 1827,
      "turn": 1828,
      "convic": 1829,
      "##akes": 1830,
      "constit": 1831,
      "answ": 1832,
      "litigation": 1833,
      "##umption": 1834,
      "decided": 1835,
      "##licit": 1836,
      "wr": 1837,
      "officers": 1838,
      "sentenc": 1839,
      "chan": 1840,
      "constr": 1841,
      "duty": 1842,
      "money": 1843,
      "central": 1844,
      "legislation": 1845,
      "day": 1846,
      "arr": 1847,
      "adver": 1848,
      "##enses": 1849,
      "acts": 1850,
      "costs": 1851,
      "low": 1852,
      "particip": 1853,
      "failure": 1854,
      "##ulation": 1855,
      "typ": 1856,
      "1976": 1857,
      "##ortation": 1858,
      "extent": 1859,
      "##eme": 1860,
      "reserv": 1861,
      "ur": 1862,
      "applicable": 1863,
      "analys": 1864,
      "sufficient": 1865,
      "pursu": 1866,
      "##sy": 1867,
      "distinc": 1868,
      "initi": 1869,
      "cred": 1870,
      "six": 1871,
      "du": 1872,
      "enac": 1873,
      "she": 1874,
      "##clusive": 1875,
      "fif": 1876,
      "##ined": 1877,
      "demon": 1878,
      "later": 1879,
      "conte": 1880,
      "##ferred": 1881,
      "fourteenth": 1882,
      "large": 1883,
      "##ins": 1884,
      "sess": 1885,
      "##omm": 1886,
      "diffic": 1887,
      "discl": 1888,
      "analysis": 1889,
      "address": 1890,
      "##raph": 1891,
      "79": 1892,
      "favor": 1893,
      "##loc": 1894,
      "amended": 1895,
      "safe": 1896,
      "return": 1897,
      "adequ": 1898,
      "satisf": 1899,
      "final": 1900,
      "immunity": 1901,
      "insur": 1902,
      "78": 1903,
      "officer": 1904,
      "habeas": 1905,
      "##gn": 1906,
      "foreign": 1907,
      "indian": 1908,
      "investi": 1909,
      "mand": 1910,
      "schools": 1911,
      "authorized": 1912,
      "delivered": 1913,
      "warrant": 1914,
      "##ield": 1915,
      "fourth": 1916,
      "##ilities": 1917,
      "contemp": 1918,
      "bey": 1919,
      "having": 1920,
      "natural": 1921,
      "##by": 1922,
      "##thers": 1923,
      "tra": 1924,
      "texas": 1925,
      "exc": 1926,
      "##ren": 1927,
      "real": 1928,
      "beyond": 1929,
      "bre": 1930,
      "##edi": 1931,
      "unre": 1932,
      "ess": 1933,
      "indust": 1934,
      "sti": 1935,
      "solic": 1936,
      "rejected": 1937,
      "sing": 1938,
      "vol": 1939,
      "##ead": 1940,
      "consequ": 1941,
      "following": 1942,
      "##au": 1943,
      "corporation": 1944,
      "doctrine": 1945,
      "##mental": 1946,
      "nar": 1947,
      "john": 1948,
      "sole": 1949,
      "findings": 1950,
      "summ": 1951,
      "several": 1952,
      "##tal": 1953,
      "force": 1954,
      "##ested": 1955,
      "exper": 1956,
      "scope": 1957,
      "third": 1958,
      "opportunity": 1959,
      "making": 1960,
      "obtain": 1961,
      "proposed": 1962,
      "below": 1963,
      "appar": 1964,
      "grant": 1965,
      "3d": 1966,
      "plac": 1967,
      "##ension": 1968,
      "senate": 1969,
      "##iving": 1970,
      "independent": 1971,
      "##ody": 1972,
      "pursuant": 1973,
      "benefit": 1974,
      "##lies": 1975,
      "##tices": 1976,
      "demonstr": 1977,
      "true": 1978,
      "education": 1979,
      "##ipp": 1980,
      "83": 1981,
      "offer": 1982,
      "appellants": 1983,
      "award": 1984,
      "remo": 1985,
      "##lan": 1986,
      "##standing": 1987,
      "##tually": 1988,
      "82": 1989,
      "principle": 1990,
      "ple": 1991,
      "##ring": 1992,
      "##lying": 1993,
      "##ises": 1994,
      "90": 1995,
      "makes": 1996,
      "protected": 1997,
      "##unt": 1998,
      "miss": 1999,
      "##ale": 2000,
      "limitations": 2001,
      "possible": 2002,
      "mill": 2003,
      "answer": 2004,
      "communic": 2005,
      "funds": 2006,
      "compensation": 2007,
      "1972": 2008,
      "water": 2009,
      "racial": 2010,
      "offense": 2011,
      "##thod": 2012,
      "##ble": 2013,
      "termin": 2014,
      "distrib": 2015,
      "100": 2016,
      "##van": 2017,
      "##ters": 2018,
      "##pay": 2019,
      "open": 2020,
      "appellant": 2021,
      "inval": 2022,
      "conven": 2023,
      "art": 2024,
      "exist": 2025,
      "security": 2026,
      "ali": 2027,
      "conflic": 2028,
      "depri": 2029,
      "access": 2030,
      "invalid": 2031,
      "association": 2032,
      "contain": 2033,
      "92": 2034,
      "challenge": 2035,
      "##uce": 2036,
      "bu": 2037,
      "##own": 2038,
      "84": 2039,
      "wa": 2040,
      "context": 2041,
      "ris": 2042,
      "beh": 2043,
      "original": 2044,
      "consistent": 2045,
      "##co": 2046,
      "words": 2047,
      "lou": 2048,
      "##mate": 2049,
      "##ced": 2050,
      "##ators": 2051,
      "exclud": 2052,
      "anti": 2053,
      "error": 2054,
      "economic": 2055,
      "air": 2056,
      "injury": 2057,
      "prosecution": 2058,
      "##ased": 2059,
      "none": 2060,
      "charge": 2061,
      "prevent": 2062,
      "personal": 2063,
      "##ron": 2064,
      "resid": 2065,
      "dan": 2066,
      "steven": 2067,
      "related": 2068,
      "restr": 2069,
      "sale": 2070,
      "##ives": 2071,
      "determined": 2072,
      "officials": 2073,
      "##missible": 2074,
      "lack": 2075,
      "others": 2076,
      "##umb": 2077,
      "method": 2078,
      "##ience": 2079,
      "inquir": 2080,
      "oh": 2081,
      "properly": 2082,
      "subsequ": 2083,
      "unconstitutional": 2084,
      "il": 2085,
      "whom": 2086,
      "85": 2087,
      "manner": 2088,
      "191": 2089,
      "##utes": 2090,
      "##ling": 2091,
      "##viously": 2092,
      "stri": 2093,
      "observ": 2094,
      "change": 2095,
      "capital": 2096,
      "bargaining": 2097,
      "##ght": 2098,
      "procedures": 2099,
      "avoid": 2100,
      "enc": 2101,
      "##ina": 2102,
      "draw": 2103,
      "note": 2104,
      "decide": 2105,
      "##her": 2106,
      "##ino": 2107,
      "ou": 2108,
      "exception": 2109,
      "meas": 2110,
      "activity": 2111,
      "scheme": 2112,
      "joined": 2113,
      "##anch": 2114,
      "whose": 2115,
      "principles": 2116,
      "single": 2117,
      "children": 2118,
      "pot": 2119,
      "##ked": 2120,
      "##imum": 2121,
      "##eless": 2122,
      "##aries": 2123,
      "##ification": 2124,
      "correct": 2125,
      "##ured": 2126,
      "treatment": 2127,
      "adopted": 2128,
      "##yer": 2129,
      "fifth": 2130,
      "actual": 2131,
      "separate": 2132,
      "stock": 2133,
      "1970": 2134,
      "bal": 2135,
      "##rupt": 2136,
      "1973": 2137,
      "louis": 2138,
      "press": 2139,
      "except": 2140,
      "ohio": 2141,
      "enacted": 2142,
      "charged": 2143,
      "tradition": 2144,
      "willi": 2145,
      "chi": 2146,
      "repe": 2147,
      "penalty": 2148,
      "##ister": 2149,
      "##tified": 2150,
      "directly": 2151,
      "fut": 2152,
      "back": 2153,
      "##ning": 2154,
      "##izing": 2155,
      "preced": 2156,
      "##fully": 2157,
      "statements": 2158,
      "##rug": 2159,
      "date": 2160,
      "expressly": 2161,
      "inquiry": 2162,
      "stevens": 2163,
      "ordered": 2164,
      "fam": 2165,
      "prem": 2166,
      "conclude": 2167,
      "additional": 2168,
      "recover": 2169,
      "##pa": 2170,
      "sales": 2171,
      "article": 2172,
      "guar": 2173,
      "##itive": 2174,
      "##bur": 2175,
      "##ained": 2176,
      "serious": 2177,
      "##uses": 2178,
      "william": 2179,
      "harm": 2180,
      "##itary": 2181,
      "problem": 2182,
      "91": 2183,
      "la": 2184,
      "plaintiffs": 2185,
      "governmental": 2186,
      "too": 2187,
      "grand": 2188,
      "protect": 2189,
      "determining": 2190,
      "identif": 2191,
      "##way": 2192,
      "1982": 2193,
      "1974": 2194,
      "susp": 2195,
      "##osure": 2196,
      "days": 2197,
      "include": 2198,
      "guarant": 2199,
      "requiring": 2200,
      "freed": 2201,
      "1977": 2202,
      "paid": 2203,
      "approach": 2204,
      "condition": 2205,
      "president": 2206,
      "accept": 2207,
      "##ready": 2208,
      "accordingly": 2209,
      "phys": 2210,
      "sell": 2211,
      "enj": 2212,
      "illeg": 2213,
      "##ida": 2214,
      "function": 2215,
      "##osing": 2216,
      "remanded": 2217,
      "reven": 2218,
      "event": 2219,
      "proof": 2220,
      "account": 2221,
      "violated": 2222,
      "yet": 2223,
      "virgin": 2224,
      "short": 2225,
      "issued": 2226,
      "various": 2227,
      "occur": 2228,
      "pred": 2229,
      "##utions": 2230,
      "##ler": 2231,
      "absence": 2232,
      "##iver": 2233,
      "altern": 2234,
      "already": 2235,
      "legislature": 2236,
      "acqu": 2237,
      "factors": 2238,
      "##ask": 2239,
      "1981": 2240,
      "powers": 2241,
      "kind": 2242,
      "instead": 2243,
      "chief": 2244,
      "flor": 2245,
      "compell": 2246,
      "limits": 2247,
      "##ah": 2248,
      "financ": 2249,
      "dev": 2250,
      "impro": 2251,
      "punishment": 2252,
      "month": 2253,
      "assess": 2254,
      "vote": 2255,
      "1978": 2256,
      "transportation": 2257,
      "poin": 2258,
      "privilege": 2259,
      "1971": 2260,
      "voting": 2261,
      "resp": 2262,
      "87": 2263,
      "uph": 2264,
      "custom": 2265,
      "##ior": 2266,
      "taxes": 2267,
      "mich": 2268,
      "narrow": 2269,
      "##theless": 2270,
      "##mpt": 2271,
      "sour": 2272,
      "##ateg": 2273,
      "definition": 2274,
      "86": 2275,
      "injunction": 2276,
      "ul": 2277,
      "disch": 2278,
      "grounds": 2279,
      "es": 2280,
      "primary": 2281,
      "unlaw": 2282,
      "health": 2283,
      "##ensive": 2284,
      "##judic": 2285,
      "future": 2286,
      "cert": 2287,
      "refl": 2288,
      "##ev": 2289,
      "mor": 2290,
      "broadc": 2291,
      "hard": 2292,
      "amendments": 2293,
      "competition": 2294,
      "legiti": 2295,
      "trade": 2296,
      "##tingu": 2297,
      "##une": 2298,
      "virginia": 2299,
      "##tinguish": 2300,
      "member": 2301,
      "existing": 2302,
      "threat": 2303,
      "1975": 2304,
      "ve": 2305,
      "specifically": 2306,
      "geor": 2307,
      "sett": 2308,
      "##inois": 2309,
      "cover": 2310,
      "##alf": 2311,
      "illinois": 2312,
      "finally": 2313,
      "liber": 2314,
      "execu": 2315,
      "florida": 2316,
      "designed": 2317,
      "complete": 2318,
      "##pir": 2319,
      "merits": 2320,
      "license": 2321,
      "carrier": 2322,
      "sentencing": 2323,
      "insurance": 2324,
      "country": 2325,
      "sust": 2326,
      "unf": 2327,
      "render": 2328,
      "##up": 2329,
      "districts": 2330,
      "bound": 2331,
      "div": 2332,
      "north": 2333,
      "little": 2334,
      "drug": 2335,
      "loss": 2336,
      "##ep": 2337,
      "concerning": 2338,
      "##aged": 2339,
      "received": 2340,
      "exclusive": 2341,
      "ultim": 2342,
      "88": 2343,
      "collective": 2344,
      "marsh": 2345,
      "##ris": 2346,
      "impose": 2347,
      "taxpay": 2348,
      "##asion": 2349,
      "##omes": 2350,
      "##lu": 2351,
      "##itation": 2352,
      "##atives": 2353,
      "race": 2354,
      "relationship": 2355,
      "lead": 2356,
      "##thing": 2357,
      "asse": 2358,
      "continu": 2359,
      "permitted": 2360,
      "operation": 2361,
      "failed": 2362,
      "##itable": 2363,
      "##action": 2364,
      "patent": 2365,
      "bear": 2366,
      "1964": 2367,
      "bur": 2368,
      "orders": 2369,
      "demand": 2370,
      "##ental": 2371,
      "explicit": 2372,
      "aut": 2373,
      "wor": 2374,
      "freedom": 2375,
      "sure": 2376,
      "##ove": 2377,
      "94": 2378,
      "immedi": 2379,
      "guilty": 2380,
      "curr": 2381,
      "assistant": 2382,
      "whol": 2383,
      "wom": 2384,
      "constitutionally": 2385,
      "candidate": 2386,
      "##cer": 2387,
      "forth": 2388,
      "93": 2389,
      "quoting": 2390,
      "likely": 2391,
      "vac": 2392,
      "contracts": 2393,
      "##lier": 2394,
      "##rip": 2395,
      "hearings": 2396,
      "lands": 2397,
      "95": 2398,
      "rest": 2399,
      "standing": 2400,
      "murd": 2401,
      "instruc": 2402,
      "consent": 2403,
      "bankrupt": 2404,
      "candidates": 2405,
      "showing": 2406,
      "agg": 2407,
      "##oma": 2408,
      "payment": 2409,
      "once": 2410,
      "down": 2411,
      "##cy": 2412,
      "1980": 2413,
      "mass": 2414,
      "nation": 2415,
      "aid": 2416,
      "entered": 2417,
      "individu": 2418,
      "june": 2419,
      "##trust": 2420,
      "89": 2421,
      "##olog": 2422,
      "judges": 2423,
      "conspir": 2424,
      "##eng": 2425,
      "color": 2426,
      "##ude": 2427,
      "##ama": 2428,
      "sense": 2429,
      "enact": 2430,
      "commissioner": 2431,
      "reading": 2432,
      "status": 2433,
      "ju": 2434,
      "seems": 2435,
      "matters": 2436,
      "military": 2437,
      "risk": 2438,
      "adequate": 2439,
      "called": 2440,
      "community": 2441,
      "incons": 2442,
      "pop": 2443,
      "adjudic": 2444,
      "let": 2445,
      "pending": 2446,
      "necessarily": 2447,
      "practices": 2448,
      "je": 2449,
      "refus": 2450,
      "##ercial": 2451,
      "##overeign": 2452,
      "why": 2453,
      "oil": 2454,
      "choice": 2455,
      "sovereign": 2456,
      "##selves": 2457,
      "##erman": 2458,
      "precise": 2459,
      "1979": 2460,
      "omitted": 2461,
      "##lose": 2462,
      "##ark": 2463,
      "##ism": 2464,
      "appears": 2465,
      "deem": 2466,
      "still": 2467,
      "comb": 2468,
      "##encies": 2469,
      "put": 2470,
      "##uf": 2471,
      "##lvan": 2472,
      "wrong": 2473,
      "##lvania": 2474,
      "deb": 2475,
      "##izes": 2476,
      "##lay": 2477,
      "request": 2478,
      "##iae": 2479,
      "basic": 2480,
      "curiae": 2481,
      "unlawful": 2482,
      "lower": 2483,
      "self": 2484,
      "##bert": 2485,
      "included": 2486,
      "190": 2487,
      "categ": 2488,
      "arg": 2489,
      "took": 2490,
      "often": 2491,
      "##crip": 2492,
      "administration": 2493,
      "religion": 2494,
      "committed": 2495,
      "fix": 2496,
      "iv": 2497,
      "level": 2498,
      "##atter": 2499,
      "created": 2500,
      "assign": 2501,
      "five": 2502,
      "above": 2503,
      "share": 2504,
      "pennsy": 2505,
      "justify": 2506,
      "pennsylvania": 2507,
      "cross": 2508,
      "commercial": 2509,
      "defined": 2510,
      "mot": 2511,
      "1968": 2512,
      "total": 2513,
      "intr": 2514,
      "situation": 2515,
      "home": 2516,
      "afford": 2517,
      "dispute": 2518,
      "1984": 2519,
      "controvers": 2520,
      "challenged": 2521,
      "succ": 2522,
      "applies": 2523,
      "social": 2524,
      "precl": 2525,
      "convicted": 2526,
      "face": 2527,
      "reference": 2528,
      "##ili": 2529,
      "##tics": 2530,
      "camp": 2531,
      "adj": 2532,
      "manuf": 2533,
      "restrain": 2534,
      "wat": 2535,
      "funda": 2536,
      "appellees": 2537,
      "emb": 2538,
      "organization": 2539,
      "washing": 2540,
      "reasonably": 2541,
      "briefs": 2542,
      "footnotes": 2543,
      "deg": 2544,
      "97": 2545,
      "##unic": 2546,
      "executive": 2547,
      "legitimate": 2548,
      "thought": 2549,
      "providing": 2550,
      "distinguish": 2551,
      "washington": 2552,
      "appellate": 2553,
      "seeking": 2554,
      "individuals": 2555,
      "whole": 2556,
      "##orting": 2557,
      "##gl": 2558,
      "procedural": 2559,
      "cr": 2560,
      "hos": 2561,
      "maintain": 2562,
      "serve": 2563,
      "##cent": 2564,
      "##atever": 2565,
      "volunt": 2566,
      "interpre": 2567,
      "##raud": 2568,
      "credit": 2569,
      "##ames": 2570,
      "medical": 2571,
      "themselves": 2572,
      "##gether": 2573,
      "run": 2574,
      "murder": 2575,
      "consum": 2576,
      "##ically": 2577,
      "indict": 2578,
      "bankruptcy": 2579,
      "whatever": 2580,
      "best": 2581,
      "fel": 2582,
      "prices": 2583,
      "obtained": 2584,
      "contention": 2585,
      "##ug": 2586,
      "marshall": 2587,
      "##ously": 2588,
      "quot": 2589,
      "denial": 2590,
      "1st": 2591,
      "1969": 2592,
      "96": 2593,
      "rational": 2594,
      "##thern": 2595,
      "##know": 2596,
      "earlier": 2597,
      "faith": 2598,
      "described": 2599,
      "fre": 2600,
      "##iana": 2601,
      "invest": 2602,
      "decree": 2603,
      "plural": 2604,
      "##erve": 2605,
      "obligation": 2606,
      "involving": 2607,
      "charges": 2608,
      "vii": 2609,
      "taking": 2610,
      "don": 2611,
      "louisiana": 2612,
      "name": 2613,
      "financial": 2614,
      "approved": 2615,
      "##versity": 2616,
      "asserted": 2617,
      "owners": 2618,
      "guid": 2619,
      "101": 2620,
      "hel": 2621,
      "##ways": 2622,
      "189": 2623,
      "examination": 2624,
      "subj": 2625,
      "greater": 2626,
      "revenue": 2627,
      "jan": 2628,
      "##rial": 2629,
      "allowed": 2630,
      "##mes": 2631,
      "become": 2632,
      "left": 2633,
      "raised": 2634,
      "alternative": 2635,
      "actually": 2636,
      "1967": 2637,
      "brenn": 2638,
      "workers": 2639,
      "187": 2640,
      "impact": 2641,
      "##ace": 2642,
      "fall": 2643,
      "accomp": 2644,
      "past": 2645,
      "##utor": 2646,
      "carry": 2647,
      "difficult": 2648,
      "carriers": 2649,
      "##rison": 2650,
      "potential": 2651,
      "##ob": 2652,
      "transfer": 2653,
      "assistance": 2654,
      "subsequent": 2655,
      "inconsistent": 2656,
      "success": 2657,
      "##ulated": 2658,
      "expend": 2659,
      "brennan": 2660,
      "substantially": 2661,
      "solely": 2662,
      "limitation": 2663,
      "compar": 2664,
      "corpus": 2665,
      "controll": 2666,
      "south": 2667,
      "relied": 2668,
      "presumption": 2669,
      "refer": 2670,
      "connection": 2671,
      "production": 2672,
      "bring": 2673,
      "1985": 2674,
      "sex": 2675,
      "outs": 2676,
      "##ledge": 2677,
      "mul": 2678,
      "receive": 2679,
      "excess": 2680,
      "##tification": 2681,
      "entirely": 2682,
      "danger": 2683,
      "##men": 2684,
      "degree": 2685,
      "directed": 2686,
      "leave": 2687,
      "regulatory": 2688,
      "existence": 2689,
      "attempt": 2690,
      "arrest": 2691,
      "solicitor": 2692,
      "##mits": 2693,
      "disclosure": 2694,
      "validity": 2695,
      "arm": 2696,
      "approval": 2697,
      "phr": 2698,
      "times": 2699,
      "text": 2700,
      "##ric": 2701,
      "##go": 2702,
      "superv": 2703,
      "antitrust": 2704,
      "probable": 2705,
      "##eld": 2706,
      "plurality": 2707,
      "agreed": 2708,
      "##ember": 2709,
      "substantive": 2710,
      "done": 2711,
      "fees": 2712,
      "##mer": 2713,
      "eas": 2714,
      "representative": 2715,
      "reduc": 2716,
      "concerned": 2717,
      "##ash": 2718,
      "##gest": 2719,
      "expendit": 2720,
      "engaged": 2721,
      "##ps": 2722,
      "exclusion": 2723,
      "explained": 2724,
      "##gia": 2725,
      "##like": 2726,
      "##aff": 2727,
      "merger": 2728,
      "exemption": 2729,
      "minority": 2730,
      "rele": 2731,
      "##ify": 2732,
      "conflict": 2733,
      "manage": 2734,
      "similarly": 2735,
      "thom": 2736,
      "mag": 2737,
      "struc": 2738,
      "der": 2739,
      "186": 2740,
      "##ists": 2741,
      "suggests": 2742,
      "joint": 2743,
      "powell": 2744,
      "ach": 2745,
      "follows": 2746,
      "99": 2747,
      "georgia": 2748,
      "internal": 2749,
      "outside": 2750,
      "remedies": 2751,
      "conced": 2752,
      "witnesses": 2753,
      "##ered": 2754,
      "##aps": 2755,
      "sanc": 2756,
      "unreason": 2757,
      "distinction": 2758,
      "##ifications": 2759,
      "seek": 2760,
      "##holders": 2761,
      "liberty": 2762,
      "international": 2763,
      "small": 2764,
      "close": 2765,
      "suits": 2766,
      "##ering": 2767,
      "1994": 2768,
      "senator": 2769,
      "1966": 2770,
      "##iety": 2771,
      "##ned": 2772,
      "shar": 2773,
      "carol": 2774,
      "considerations": 2775,
      "percent": 2776,
      "##ards": 2777,
      "violate": 2778,
      "tech": 2779,
      "prejud": 2780,
      "agreements": 2781,
      "##ength": 2782,
      "discriminatory": 2783,
      "1986": 2784,
      "possibility": 2785,
      "thomas": 2786,
      "elec": 2787,
      "##liance": 2788,
      "prohibition": 2789,
      "essential": 2790,
      "responsibility": 2791,
      "defer": 2792,
      "##ene": 2793,
      "##verse": 2794,
      "##ases": 2795,
      "refused": 2796,
      "connor": 2797,
      "gri": 2798,
      "ct": 2799,
      "chap": 2800,
      "histor": 2801,
      "98": 2802,
      "##tically": 2803,
      "facilities": 2804,
      "unfair": 2805,
      "debt": 2806,
      "ce": 2807,
      "1965": 2808,
      "achie": 2809,
      "construed": 2810,
      "companies": 2811,
      "##eness": 2812,
      "unlike": 2813,
      "problems": 2814,
      "alone": 2815,
      "met": 2816,
      "techn": 2817,
      "exch": 2818,
      "pet": 2819,
      "strong": 2820,
      "care": 2821,
      "ship": 2822,
      "latter": 2823,
      "dismissed": 2824,
      "##ually": 2825,
      "particularly": 2826,
      "##erson": 2827,
      "brown": 2828,
      "oc": 2829,
      "discussion": 2830,
      "theory": 2831,
      "rob": 2832,
      "intention": 2833,
      "quite": 2834,
      "##roduc": 2835,
      "##cil": 2836,
      "nav": 2837,
      "##nel": 2838,
      "citizen": 2839,
      "indictment": 2840,
      "views": 2841,
      "##tial": 2842,
      "max": 2843,
      "##oura": 2844,
      "securities": 2845,
      "industry": 2846,
      "ens": 2847,
      "territ": 2848,
      "tribe": 2849,
      "desp": 2850,
      "elections": 2851,
      "##right": 2852,
      "records": 2853,
      "##ona": 2854,
      "cop": 2855,
      "1988": 2856,
      "violations": 2857,
      "##ha": 2858,
      "passed": 2859,
      "society": 2860,
      "accused": 2861,
      "lines": 2862,
      "served": 2863,
      "contained": 2864,
      "##ened": 2865,
      "alab": 2866,
      "ded": 2867,
      "carolina": 2868,
      "alabama": 2869,
      "bond": 2870,
      "influ": 2871,
      "verd": 2872,
      "vic": 2873,
      "103": 2874,
      "previously": 2875,
      "sw": 2876,
      "attack": 2877,
      "mcc": 2878,
      "##olid": 2879,
      "restrictions": 2880,
      "organiz": 2881,
      "element": 2882,
      "interven": 2883,
      "detail": 2884,
      "former": 2885,
      "establishment": 2886,
      "summary": 2887,
      "type": 2888,
      "filing": 2889,
      "despite": 2890,
      "possession": 2891,
      "forbid": 2892,
      "west": 2893,
      "##iding": 2894,
      "discover": 2895,
      "apparently": 2896,
      "##here": 2897,
      "ap": 2898,
      "old": 2899,
      "fundamental": 2900,
      "102": 2901,
      "uniform": 2902,
      "fee": 2903,
      "population": 2904,
      "ari": 2905,
      "##ounts": 2906,
      "prove": 2907,
      "create": 2908,
      "##edy": 2909,
      "docu": 2910,
      "comment": 2911,
      "fraud": 2912,
      "illegal": 2913,
      "manufact": 2914,
      "##fici": 2915,
      "investigation": 2916,
      "constitute": 2917,
      "ability": 2918,
      "110": 2919,
      "teach": 2920,
      "##ker": 2921,
      "##ored": 2922,
      "norm": 2923,
      "ariz": 2924,
      "job": 2925,
      "effects": 2926,
      "file": 2927,
      "together": 2928,
      "enough": 2929,
      "fully": 2930,
      "188": 2931,
      "ruling": 2932,
      "extr": 2933,
      "acknow": 2934,
      "taxpayer": 2935,
      "written": 2936,
      "elect": 2937,
      "policies": 2938,
      "seg": 2939,
      "##lin": 2940,
      "exceed": 2941,
      "factual": 2942,
      "mary": 2943,
      "management": 2944,
      "belief": 2945,
      "confession": 2946,
      "age": 2947,
      "elimin": 2948,
      "##ansas": 2949,
      "323": 2950,
      "march": 2951,
      "development": 2952,
      "incor": 2953,
      "men": 2954,
      "last": 2955,
      "employed": 2956,
      "expressed": 2957,
      "implic": 2958,
      "book": 2959,
      "placed": 2960,
      "himself": 2961,
      "programs": 2962,
      "importance": 2963,
      "safety": 2964,
      "certainly": 2965,
      "traditional": 2966,
      "overr": 2967,
      "125": 2968,
      "1995": 2969,
      "concep": 2970,
      "principal": 2971,
      "rela": 2972,
      "covered": 2973,
      "apr": 2974,
      "supported": 2975,
      "initial": 2976,
      "meet": 2977,
      "argues": 2978,
      "temp": 2979,
      "fire": 2980,
      "rich": 2981,
      "##der": 2982,
      "inher": 2983,
      "cfr": 2984,
      "##sey": 2985,
      "1987": 2986,
      "come": 2987,
      "deemed": 2988,
      "contributions": 2989,
      "producers": 2990,
      "##ues": 2991,
      "owner": 2992,
      "representatives": 2993,
      "suggest": 2994,
      "sixth": 2995,
      "investig": 2996,
      "presum": 2997,
      "imprison": 2998,
      "unn": 2999,
      "communications": 3000,
      "##ane": 3001,
      "##quist": 3002,
      "products": 3003,
      "command": 3004,
      "difference": 3005,
      "assume": 3006,
      "aside": 3007,
      "wel": 3008,
      "able": 3009,
      "conspiracy": 3010,
      "smith": 3011,
      "absol": 3012,
      "concerns": 3013,
      "controversy": 3014,
      "##uary": 3015,
      "##omin": 3016,
      "practical": 3017,
      "suggested": 3018,
      "net": 3019,
      "field": 3020,
      "fal": 3021,
      "motor": 3022,
      "portion": 3023,
      "asked": 3024,
      "always": 3025,
      "factor": 3026,
      "persu": 3027,
      "elig": 3028,
      "##haps": 3029,
      "oral": 3030,
      "certific": 3031,
      "unreasonable": 3032,
      "fcc": 3033,
      "dra": 3034,
      "recomm": 3035,
      "##rutin": 3036,
      "hour": 3037,
      "broadcas": 3038,
      "##hood": 3039,
      "scrutin": 3040,
      "kenn": 3041,
      "phrase": 3042,
      "##ata": 3043,
      "known": 3044,
      "perhaps": 3045,
      "forum": 3046,
      "phil": 3047,
      "columb": 3048,
      "lik": 3049,
      "105": 3050,
      "justified": 3051,
      "1963": 3052,
      "regulate": 3053,
      "admission": 3054,
      "resour": 3055,
      "january": 3056,
      "announ": 3057,
      "thereby": 3058,
      "134": 3059,
      "observed": 3060,
      "inte": 3061,
      "##rop": 3062,
      "representation": 3063,
      "few": 3064,
      "jr": 3065,
      "##ote": 3066,
      "##ott": 3067,
      "##ograph": 3068,
      "affected": 3069,
      "wal": 3070,
      "voters": 3071,
      "foc": 3072,
      "##titive": 3073,
      "sil": 3074,
      "continued": 3075,
      "env": 3076,
      "104": 3077,
      "occasion": 3078,
      "exchange": 3079,
      "employers": 3080,
      "##aign": 3081,
      "underlying": 3082,
      "aw": 3083,
      "##igu": 3084,
      "##mon": 3085,
      "applying": 3086,
      "discharge": 3087,
      "role": 3088,
      "involve": 3089,
      "seiz": 3090,
      "##ole": 3091,
      "frank": 3092,
      "upheld": 3093,
      "##mun": 3094,
      "##reh": 3095,
      "prohibited": 3096,
      "dougl": 3097,
      "verdict": 3098,
      "pac": 3099,
      "etal": 3100,
      "cited": 3101,
      "understanding": 3102,
      "##ially": 3103,
      "##most": 3104,
      "ign": 3105,
      "##ape": 3106,
      "munic": 3107,
      "integr": 3108,
      "arbitration": 3109,
      "disag": 3110,
      "compliance": 3111,
      "##bigu": 3112,
      "litig": 3113,
      "ordinance": 3114,
      "months": 3115,
      "agencies": 3116,
      "municip": 3117,
      "##ecided": 3118,
      "douglas": 3119,
      "judgments": 3120,
      "##ordin": 3121,
      "instruction": 3122,
      "council": 3123,
      "consequences": 3124,
      "subsection": 3125,
      "campaign": 3126,
      "hosp": 3127,
      "ves": 3128,
      "payments": 3129,
      "product": 3130,
      "response": 3131,
      "nl": 3132,
      "begin": 3133,
      "prosecutor": 3134,
      "gre": 3135,
      "expression": 3136,
      "absolute": 3137,
      "argue": 3138,
      "gra": 3139,
      "students": 3140,
      "301": 3141,
      "shown": 3142,
      "source": 3143,
      "absent": 3144,
      "organizations": 3145,
      "acting": 3146,
      "112": 3147,
      "physical": 3148,
      "##duce": 3149,
      "##ones": 3150,
      "resolution": 3151,
      "changes": 3152,
      "wholly": 3153,
      "permits": 3154,
      "entry": 3155,
      "major": 3156,
      "1996": 3157,
      "thereof": 3158,
      "appellee": 3159,
      "objection": 3160,
      "accepted": 3161,
      "##ne": 3162,
      "401": 3163,
      "retro": 3164,
      "##decided": 3165,
      "##certain": 3166,
      "specified": 3167,
      "pan": 3168,
      "indians": 3169,
      "plans": 3170,
      "liqu": 3171,
      "##unctions": 3172,
      "convention": 3173,
      "##usion": 3174,
      "441": 3175,
      "dri": 3176,
      "inn": 3177,
      "veh": 3178,
      "nevertheless": 3179,
      "registr": 3180,
      "near": 3181,
      "results": 3182,
      "##01": 3183,
      "negro": 3184,
      "admitted": 3185,
      "areas": 3186,
      "speak": 3187,
      "women": 3188,
      "false": 3189,
      "claimed": 3190,
      "knowledge": 3191,
      "106": 3192,
      "##alu": 3193,
      "qualified": 3194,
      "jj": 3195,
      "publish": 3196,
      "##after": 3197,
      "look": 3198,
      "2000": 3199,
      "unnecess": 3200,
      "columbia": 3201,
      "blackmun": 3202,
      "reservation": 3203,
      "##oti": 3204,
      "1961": 3205,
      "##lements": 3206,
      "adjust": 3207,
      "advoc": 3208,
      "duties": 3209,
      "seem": 3210,
      "doing": 3211,
      "affirmative": 3212,
      "pic": 3213,
      "attach": 3214,
      "reached": 3215,
      "##ota": 3216,
      "irre": 3217,
      "coal": 3218,
      "##ished": 3219,
      "evalu": 3220,
      "107": 3221,
      "instance": 3222,
      "maryland": 3223,
      "equally": 3224,
      "occurred": 3225,
      "enactment": 3226,
      "constitutionality": 3227,
      "adverse": 3228,
      "##tili": 3229,
      "privacy": 3230,
      "##hnquist": 3231,
      "##oke": 3232,
      "strict": 3233,
      "##ient": 3234,
      "424": 3235,
      "gave": 3236,
      "vehic": 3237,
      "rehnquist": 3238,
      "##ading": 3239,
      "family": 3240,
      "enjoin": 3241,
      "alien": 3242,
      "##urch": 3243,
      "refusal": 3244,
      "drawn": 3245,
      "##icient": 3246,
      "##agraph": 3247,
      "presence": 3248,
      "impair": 3249,
      "obligations": 3250,
      "##oy": 3251,
      "ban": 3252,
      "##ster": 3253,
      "##uff": 3254,
      "deny": 3255,
      "ok": 3256,
      "rad": 3257,
      "behalf": 3258,
      "fish": 3259,
      "operations": 3260,
      "sold": 3261,
      "negoti": 3262,
      "fri": 3263,
      "sus": 3264,
      "deduc": 3265,
      "scrutiny": 3266,
      "##ingly": 3267,
      "objective": 3268,
      "consist": 3269,
      "uns": 3270,
      "sustained": 3271,
      "prevail": 3272,
      "scal": 3273,
      "justification": 3274,
      "april": 3275,
      "indicated": 3276,
      "almost": 3277,
      "opinions": 3278,
      "waters": 3279,
      "goods": 3280,
      "mind": 3281,
      "possess": 3282,
      "ordinary": 3283,
      "minor": 3284,
      "fram": 3285,
      "##fare": 3286,
      "392": 3287,
      "branch": 3288,
      "imper": 3289,
      "##por": 3290,
      "1989": 3291,
      "1962": 3292,
      "390": 3293,
      "jer": 3294,
      "pip": 3295,
      "robert": 3296,
      "equitable": 3297,
      "jack": 3298,
      "maximum": 3299,
      "effort": 3300,
      "reliance": 3301,
      "da": 3302,
      "stay": 3303,
      "133": 3304,
      "materials": 3305,
      "##entially": 3306,
      "##lated": 3307,
      "reports": 3308,
      "purchase": 3309,
      "difficul": 3310,
      "resources": 3311,
      "##organ": 3312,
      "##cra": 3313,
      "minimum": 3314,
      "introduc": 3315,
      "402": 3316,
      "##cribe": 3317,
      "groups": 3318,
      "##tify": 3319,
      "affect": 3320,
      "perman": 3321,
      "neglig": 3322,
      "reasoning": 3323,
      "stew": 3324,
      "acknowled": 3325,
      "sherman": 3326,
      "strike": 3327,
      "confron": 3328,
      "divid": 3329,
      "estate": 3330,
      "##isc": 3331,
      "##ories": 3332,
      "mee": 3333,
      "1947": 3334,
      "feb": 3335,
      "points": 3336,
      "regarding": 3337,
      "##ration": 3338,
      "owned": 3339,
      "church": 3340,
      "caused": 3341,
      "build": 3342,
      "reve": 3343,
      "increase": 3344,
      "arguments": 3345,
      "offered": 3346,
      "225": 3347,
      "proposition": 3348,
      "weight": 3349,
      "governing": 3350,
      "##oper": 3351,
      "##eck": 3352,
      "111": 3353,
      "testified": 3354,
      "help": 3355,
      "##alty": 3356,
      "parents": 3357,
      "permissible": 3358,
      "##igan": 3359,
      "agents": 3360,
      "384": 3361,
      "subsid": 3362,
      "custody": 3363,
      "kennedy": 3364,
      "esp": 3365,
      "##yn": 3366,
      "arising": 3367,
      "##eful": 3368,
      "##ateral": 3369,
      "johnson": 3370,
      "williams": 3371,
      "delay": 3372,
      "welfare": 3373,
      "followed": 3374,
      "occup": 3375,
      "structure": 3376,
      "suppress": 3377,
      "##line": 3378,
      "consolid": 3379,
      "contempt": 3380,
      "arizona": 3381,
      "bene": 3382,
      "tempor": 3383,
      "eigh": 3384,
      "##lace": 3385,
      "reorgan": 3386,
      "reh": 3387,
      "measure": 3388,
      "desir": 3389,
      "jurisdictional": 3390,
      "assn": 3391,
      "1990": 3392,
      "##isted": 3393,
      "##int": 3394,
      "wis": 3395,
      "372": 3396,
      "##riter": 3397,
      "amic": 3398,
      "okla": 3399,
      "efforts": 3400,
      "authorities": 3401,
      "current": 3402,
      "##ublic": 3403,
      "##ibly": 3404,
      "relating": 3405,
      "plainly": 3406,
      "investment": 3407,
      "113": 3408,
      "december": 3409,
      "367": 3410,
      "chapter": 3411,
      "##ortionment": 3412,
      "letter": 3413,
      "amicus": 3414,
      "disposition": 3415,
      "hum": 3416,
      "experience": 3417,
      "distribution": 3418,
      "##ier": 3419,
      "109": 3420,
      "electric": 3421,
      "##set": 3422,
      "james": 3423,
      "apparent": 3424,
      "content": 3425,
      "raise": 3426,
      "advertis": 3427,
      "hous": 3428,
      "##vey": 3429,
      "encoura": 3430,
      "##opard": 3431,
      "##berg": 3432,
      "##ries": 3433,
      "advant": 3434,
      "ten": 3435,
      "envir": 3436,
      "##ump": 3437,
      "exemp": 3438,
      "jeopard": 3439,
      "##ouri": 3440,
      "##avi": 3441,
      "251": 3442,
      "division": 3443,
      "##rie": 3444,
      "giving": 3445,
      "##enced": 3446,
      "compelling": 3447,
      "463": 3448,
      "relative": 3449,
      "stewart": 3450,
      "aver": 3451,
      "agent": 3452,
      "##com": 3453,
      "careful": 3454,
      "missouri": 3455,
      "environ": 3456,
      "corporations": 3457,
      "1960": 3458,
      "ut": 3459,
      "alter": 3460,
      "##xim": 3461,
      "setting": 3462,
      "democ": 3463,
      "suggestion": 3464,
      "offenses": 3465,
      "kn": 3466,
      "##den": 3467,
      "taxation": 3468,
      "##see": 3469,
      "traff": 3470,
      "##regation": 3471,
      "criter": 3472,
      "##aska": 3473,
      "scalia": 3474,
      "haven": 3475,
      "assumption": 3476,
      "necessity": 3477,
      "body": 3478,
      "##rav": 3479,
      "surely": 3480,
      "explicitly": 3481,
      "##iam": 3482,
      "convictions": 3483,
      "136": 3484,
      "utili": 3485,
      "##ico": 3486,
      "seq": 3487,
      "elements": 3488,
      "wee": 3489,
      "inapp": 3490,
      "parts": 3491,
      "##osen": 3492,
      "capac": 3493,
      "propos": 3494,
      "aband": 3495,
      "347": 3496,
      "##ado": 3497,
      "##elines": 3498,
      "multi": 3499,
      "inclusion": 3500,
      "##itch": 3501,
      "errone": 3502,
      "assets": 3503,
      "profession": 3504,
      "imprisonment": 3505,
      "continue": 3506,
      "##eep": 3507,
      "recent": 3508,
      "##ille": 3509,
      "##rec": 3510,
      "incrimin": 3511,
      "count": 3512,
      "mal": 3513,
      "traffic": 3514,
      "shipp": 3515,
      "operating": 3516,
      "##aded": 3517,
      "submitted": 3518,
      "vessel": 3519,
      "octo": 3520,
      "october": 3521,
      "michigan": 3522,
      "500": 3523,
      "prejudice": 3524,
      "##titutions": 3525,
      "neut": 3526,
      "391": 3527,
      "##ham": 3528,
      "sl": 3529,
      "##titute": 3530,
      "purchas": 3531,
      "infring": 3532,
      "longer": 3533,
      "arres": 3534,
      "advance": 3535,
      "repeated": 3536,
      "unw": 3537,
      "understand": 3538,
      "##ago": 3539,
      "furn": 3540,
      "##estern": 3541,
      "abandon": 3542,
      "##istic": 3543,
      "amici": 3544,
      "says": 3545,
      "377": 3546,
      "institution": 3547,
      "504": 3548,
      "refund": 3549,
      "const": 3550,
      "unnecessary": 3551,
      "better": 3552,
      "prisoner": 3553,
      "330": 3554,
      "implement": 3555,
      "recovery": 3556,
      "contribution": 3557,
      "prohibit": 3558,
      "instructions": 3559,
      "pacific": 3560,
      "anything": 3561,
      "sufficiently": 3562,
      "lar": 3563,
      "using": 3564,
      "prel": 3565,
      "nove": 3566,
      "chic": 3567,
      "urging": 3568,
      "higher": 3569,
      "withd": 3570,
      "november": 3571,
      "123": 3572,
      "youn": 3573,
      "referred": 3574,
      "400": 3575,
      "performance": 3576,
      "counter": 3577,
      "mention": 3578,
      "aggrav": 3579,
      "release": 3580,
      "##far": 3581,
      "##arks": 3582,
      "403": 3583,
      "comply": 3584,
      "crimes": 3585,
      "expect": 3586,
      "fear": 3587,
      "##ex": 3588,
      "precisely": 3589,
      "1958": 3590,
      "accordance": 3591,
      "river": 3592,
      "436": 3593,
      "201": 3594,
      "indicates": 3595,
      "attrib": 3596,
      "431": 3597,
      "gar": 3598,
      "##idential": 3599,
      "incorpor": 3600,
      "reversal": 3601,
      "copy": 3602,
      "abortion": 3603,
      "501": 3604,
      "compelled": 3605,
      "##ery": 3606,
      "mail": 3607,
      "411": 3608,
      "af": 3609,
      "sound": 3610,
      "corporate": 3611,
      "116": 3612,
      "disagree": 3613,
      "arrange": 3614,
      "vis": 3615,
      "ball": 3616,
      "prelimin": 3617,
      "abuse": 3618,
      "became": 3619,
      "voluntary": 3620,
      "quality": 3621,
      "treated": 3622,
      "southern": 3623,
      "203": 3624,
      "banks": 3625,
      "##issipp": 3626,
      "mississipp": 3627,
      "incident": 3628,
      "mississippi": 3629,
      "dismissal": 3630,
      "examin": 3631,
      "cooper": 3632,
      "315": 3633,
      "retail": 3634,
      "produce": 3635,
      "preserv": 3636,
      "requested": 3637,
      "129": 3638,
      "ultimate": 3639,
      "obvious": 3640,
      "114": 3641,
      "373": 3642,
      "liable": 3643,
      "regardless": 3644,
      "retroac": 3645,
      "compel": 3646,
      "115": 3647,
      "hospital": 3648,
      "municipal": 3649,
      "##actions": 3650,
      "144": 3651,
      "object": 3652,
      "##avis": 3653,
      "membership": 3654,
      "alleg": 3655,
      "immediately": 3656,
      "seeks": 3657,
      "deliber": 3658,
      "unions": 3659,
      "mental": 3660,
      "violates": 3661,
      "##ana": 3662,
      "exha": 3663,
      "tort": 3664,
      "paragraph": 3665,
      "##inth": 3666,
      "##more": 3667,
      "transaction": 3668,
      "##br": 3669,
      "alloc": 3670,
      "chicago": 3671,
      "monop": 3672,
      "educational": 3673,
      "reorganization": 3674,
      "lawful": 3675,
      "recognize": 3676,
      "415": 3677,
      "##raw": 3678,
      "prepar": 3679,
      "##stood": 3680,
      "394": 3681,
      "interpreted": 3682,
      "keep": 3683,
      "conducted": 3684,
      "##pective": 3685,
      "formul": 3686,
      "ultimately": 3687,
      "balance": 3688,
      "##que": 3689,
      "##ague": 3690,
      "page": 3691,
      "innoc": 3692,
      "satisfied": 3693,
      "##erg": 3694,
      "attorneys": 3695,
      "##ium": 3696,
      "judici": 3697,
      "guilt": 3698,
      "burdens": 3699,
      "miti": 3700,
      "informed": 3701,
      "expenditures": 3702,
      "conce": 3703,
      "##airs": 3704,
      "408": 3705,
      "1991": 3706,
      "flow": 3707,
      "july": 3708,
      "1959": 3709,
      "apart": 3710,
      "131": 3711,
      "##atures": 3712,
      "contends": 3713,
      "reverse": 3714,
      "108": 3715,
      "##ival": 3716,
      "needs": 3717,
      "obsc": 3718,
      "jersey": 3719,
      "##bers": 3720,
      "##erous": 3721,
      "##asive": 3722,
      "indicate": 3723,
      "resulting": 3724,
      "classification": 3725,
      "1940": 3726,
      "curiam": 3727,
      "preliminary": 3728,
      "coerc": 3729,
      "##anced": 3730,
      "road": 3731,
      "functions": 3732,
      "sum": 3733,
      "413": 3734,
      "breach": 3735,
      "judiciary": 3736,
      "rely": 3737,
      "395": 3738,
      "##apers": 3739,
      "primarily": 3740,
      "jones": 3741,
      "185": 3742,
      "1992": 3743,
      "identified": 3744,
      "##ides": 3745,
      "equity": 3746,
      "settled": 3747,
      "compet": 3748,
      "influence": 3749,
      "420": 3750,
      "wide": 3751,
      "denying": 3752,
      "gives": 3753,
      "##roll": 3754,
      "397": 3755,
      "##pons": 3756,
      "##ang": 3757,
      "early": 3758,
      "##tts": 3759,
      "132": 3760,
      "##achuse": 3761,
      "##achusetts": 3762,
      "##yers": 3763,
      "minn": 3764,
      "seizure": 3765,
      "davis": 3766,
      "situations": 3767,
      "demonstrate": 3768,
      "discussed": 3769,
      "422": 3770,
      "##idav": 3771,
      "understood": 3772,
      "improper": 3773,
      "massachusetts": 3774,
      "advertising": 3775,
      "421": 3776,
      "engage": 3777,
      "acquir": 3778,
      "affidav": 3779,
      "jackson": 3780,
      "fixed": 3781,
      "eighth": 3782,
      "pertin": 3783,
      "##keting": 3784,
      "aliens": 3785,
      "appoin": 3786,
      "332": 3787,
      "declared": 3788,
      "satisfy": 3789,
      "coverage": 3790,
      "##lor": 3791,
      "barred": 3792,
      "forfe": 3793,
      "1948": 3794,
      "fec": 3795,
      "333": 3796,
      "mid": 3797,
      "##anting": 3798,
      "expenses": 3799,
      "remains": 3800,
      "505": 3801,
      "ninth": 3802,
      "participation": 3803,
      "##ford": 3804,
      "##illing": 3805,
      "383": 3806,
      "hence": 3807,
      "fairly": 3808,
      "##cription": 3809,
      "##iary": 3810,
      "prescribed": 3811,
      "339": 3812,
      "significance": 3813,
      "312": 3814,
      "fla": 3815,
      "386": 3816,
      "405": 3817,
      "authorize": 3818,
      "resolve": 3819,
      "##ault": 3820,
      "waiver": 3821,
      "citing": 3822,
      "interro": 3823,
      "unable": 3824,
      "promul": 3825,
      "removal": 3826,
      "130": 3827,
      "490": 3828,
      "##uls": 3829,
      "##ming": 3830,
      "tenn": 3831,
      "safegu": 3832,
      "jeopardy": 3833,
      "304": 3834,
      "##homa": 3835,
      "antic": 3836,
      "next": 3837,
      "forec": 3838,
      "data": 3839,
      "contrast": 3840,
      "human": 3841,
      "produced": 3842,
      "##ruary": 3843,
      "adjudication": 3844,
      "february": 3845,
      "gain": 3846,
      "compare": 3847,
      "else": 3848,
      "infra": 3849,
      "mem": 3850,
      "enterpr": 3851,
      "capacity": 3852,
      "miller": 3853,
      "register": 3854,
      "punitive": 3855,
      "withdraw": 3856,
      "equip": 3857,
      "dealing": 3858,
      "double": 3859,
      "##kins": 3860,
      "immediate": 3861,
      "told": 3862,
      "iden": 3863,
      "##ca": 3864,
      "380": 3865,
      "disputes": 3866,
      "##rb": 3867,
      "consc": 3868,
      "1946": 3869,
      "peti": 3870,
      "412": 3871,
      "adopt": 3872,
      "jurors": 3873,
      "addressed": 3874,
      "includes": 3875,
      "calc": 3876,
      "oklahoma": 3877,
      "1954": 3878,
      "##come": 3879,
      "183": 3880,
      "437": 3881,
      "excluded": 3882,
      "espec": 3883,
      "##ville": 3884,
      "treaty": 3885,
      "exceptions": 3886,
      "railroads": 3887,
      "##opp": 3888,
      "##sement": 3889,
      "fails": 3890,
      "extend": 3891,
      "concluding": 3892,
      "##oly": 3893,
      "responsible": 3894,
      "supplement": 3895,
      "list": 3896,
      "university": 3897,
      "rendered": 3898,
      "contend": 3899,
      "get": 3900,
      "prohibits": 3901,
      "##ruption": 3902,
      "aug": 3903,
      "obviously": 3904,
      "undert": 3905,
      "404": 3906,
      "389": 3907,
      "plea": 3908,
      "416": 3909,
      "treas": 3910,
      "thereafter": 3911,
      "##ores": 3912,
      "350": 3913,
      "tried": 3914,
      "341": 3915,
      "##ancy": 3916,
      "gross": 3917,
      "administer": 3918,
      "finds": 3919,
      "formal": 3920,
      "334": 3921,
      "428": 3922,
      "117": 3923,
      "##lex": 3924,
      "log": 3925,
      "toward": 3926,
      "433": 3927,
      "assumed": 3928,
      "##unctive": 3929,
      "implied": 3930,
      "navig": 3931,
      "applicant": 3932,
      "petitions": 3933,
      "exempt": 3934,
      "regular": 3935,
      "486": 3936,
      "licens": 3937,
      "secure": 3938,
      "registration": 3939,
      "million": 3940,
      "identical": 3941,
      "139": 3942,
      "##be": 3943,
      "nlrb": 3944,
      "restriction": 3945,
      "mess": 3946,
      "project": 3947,
      "length": 3948,
      "410": 3949,
      "##lear": 3950,
      "increased": 3951,
      "buck": 3952,
      "##sych": 3953,
      "task": 3954,
      "120": 3955,
      "hours": 3956,
      "sections": 3957,
      "##bor": 3958,
      "amounts": 3959,
      "range": 3960,
      "##sofar": 3961,
      "467": 3962,
      "arbitrary": 3963,
      "ownership": 3964,
      "137": 3965,
      "director": 3966,
      "438": 3967,
      "##otion": 3968,
      "##tees": 3969,
      "allegations": 3970,
      "153": 3971,
      "1952": 3972,
      "especially": 3973,
      "places": 3974,
      "118": 3975,
      "deliver": 3976,
      "equipment": 3977,
      "insofar": 3978,
      "##burg": 3979,
      "compreh": 3980,
      "##cing": 3981,
      "hardly": 3982,
      "##tility": 3983,
      "notes": 3984,
      "affairs": 3985,
      "cens": 3986,
      "effectively": 3987,
      "##aled": 3988,
      "elev": 3989,
      "451": 3990,
      "griev": 3991,
      "deputy": 3992,
      "##isory": 3993,
      "respective": 3994,
      "mandatory": 3995,
      "fit": 3996,
      "shows": 3997,
      "systems": 3998,
      "ing": 3999,
      "ark": 4000,
      "pertinent": 4001,
      "parole": 4002,
      "##arm": 4003,
      "permanent": 4004,
      "disreg": 4005,
      "vacated": 4006,
      "deciding": 4007,
      "controlling": 4008,
      "coast": 4009,
      "republic": 4010,
      "achieve": 4011,
      "unp": 4012,
      "recognition": 4013,
      "contains": 4014,
      "settlement": 4015,
      "receip": 4016,
      "insuff": 4017,
      "meant": 4018,
      "richard": 4019,
      "##anda": 4020,
      "426": 4021,
      "hol": 4022,
      "previous": 4023,
      "340": 4024,
      "operate": 4025,
      "flo": 4026,
      "relation": 4027,
      "476": 4028,
      "sep": 4029,
      "##10": 4030,
      "temporary": 4031,
      "station": 4032,
      "##ston": 4033,
      "permitting": 4034,
      "365": 4035,
      "371": 4036,
      "debtor": 4037,
      "319": 4038,
      "443": 4039,
      "declaratory": 4040,
      "competitive": 4041,
      "depos": 4042,
      "1950": 4043,
      "conference": 4044,
      "122": 4045,
      "458": 4046,
      "domes": 4047,
      "guarantee": 4048,
      "explan": 4049,
      "358": 4050,
      "things": 4051,
      "throughout": 4052,
      "va": 4053,
      "boy": 4054,
      "178": 4055,
      "##ustr": 4056,
      "continuing": 4057,
      "ensure": 4058,
      "imposition": 4059,
      "suspect": 4060,
      "##riting": 4061,
      "allowing": 4062,
      "tribal": 4063,
      "approxim": 4064,
      "injunctive": 4065,
      "##well": 4066,
      "ambigu": 4067,
      "1993": 4068,
      "##with": 4069,
      "160": 4070,
      "esc": 4071,
      "collateral": 4072,
      "429": 4073,
      "##orth": 4074,
      "mont": 4075,
      "456": 4076,
      "497": 4077,
      "heard": 4078,
      "went": 4079,
      "##off": 4080,
      "significantly": 4081,
      "bure": 4082,
      "guidelines": 4083,
      "weigh": 4084,
      "nonetheless": 4085,
      "historical": 4086,
      "preclud": 4087,
      "1957": 4088,
      "##uries": 4089,
      "##ommod": 4090,
      "represented": 4091,
      "surr": 4092,
      "418": 4093,
      "restraint": 4094,
      "domestic": 4095,
      "accommod": 4096,
      "141": 4097,
      "430": 4098,
      "recip": 4099,
      "subd": 4100,
      "331": 4101,
      "extended": 4102,
      "instances": 4103,
      "140": 4104,
      "##erated": 4105,
      "remarks": 4106,
      "##uting": 4107,
      "##ars": 4108,
      "assertion": 4109,
      "meeting": 4110,
      "institutions": 4111,
      "felony": 4112,
      "307": 4113,
      "erroneous": 4114,
      "psych": 4115,
      "transactions": 4116,
      "unc": 4117,
      "lawyer": 4118,
      "assert": 4119,
      "399": 4120,
      "category": 4121,
      "frequ": 4122,
      "##making": 4123,
      "##ont": 4124,
      "179": 4125,
      "acted": 4126,
      "##essee": 4127,
      "retain": 4128,
      "invok": 4129,
      "world": 4130,
      "##ites": 4131,
      "challenges": 4132,
      "accur": 4133,
      "450": 4134,
      "remedial": 4135,
      "sk": 4136,
      "unan": 4137,
      "1949": 4138,
      "406": 4139,
      "disability": 4140,
      "316": 4141,
      "criteria": 4142,
      "appoint": 4143,
      "bul": 4144,
      "369": 4145,
      "peace": 4146,
      "adoption": 4147,
      "##ortions": 4148,
      "##eline": 4149,
      "355": 4150,
      "radio": 4151,
      "##ams": 4152,
      "417": 4153,
      "green": 4154,
      "reti": 4155,
      "lease": 4156,
      "granting": 4157,
      "##emn": 4158,
      "unit": 4159,
      "parent": 4160,
      "precedent": 4161,
      "465": 4162,
      "##lock": 4163,
      "##arr": 4164,
      "357": 4165,
      "step": 4166,
      "393": 4167,
      "attention": 4168,
      "##tine": 4169,
      "viewed": 4170,
      "462": 4171,
      "##gating": 4172,
      "accomplish": 4173,
      "353": 4174,
      "145": 4175,
      "involves": 4176,
      "minim": 4177,
      "preven": 4178,
      "385": 4179,
      "considering": 4180,
      "enjoy": 4181,
      "vers": 4182,
      "move": 4183,
      "##iation": 4184,
      "acquis": 4185,
      "territory": 4186,
      "inherent": 4187,
      "documents": 4188,
      "announced": 4189,
      "instr": 4190,
      "assuming": 4191,
      "202": 4192,
      "affili": 4193,
      "exclude": 4194,
      "your": 4195,
      "345": 4196,
      "manufactur": 4197,
      "icc": 4198,
      "reviewing": 4199,
      "study": 4200,
      "noting": 4201,
      "believed": 4202,
      "sources": 4203,
      "362": 4204,
      "combination": 4205,
      "exists": 4206,
      "184": 4207,
      "138": 4208,
      "san": 4209,
      "newsp": 4210,
      "instru": 4211,
      "sanction": 4212,
      "neutral": 4213,
      "deleg": 4214,
      "502": 4215,
      "communist": 4216,
      "communication": 4217,
      "121": 4218,
      "376": 4219,
      "consistently": 4220,
      "##tenance": 4221,
      "mist": 4222,
      "128": 4223,
      "infer": 4224,
      "submit": 4225,
      "appointed": 4226,
      "cli": 4227,
      "435": 4228,
      "western": 4229,
      "335": 4230,
      "autom": 4231,
      "exhib": 4232,
      "indir": 4233,
      "479": 4234,
      "america": 4235,
      "##consin": 4236,
      "deference": 4237,
      "425": 4238,
      "wisconsin": 4239,
      "sched": 4240,
      "468": 4241,
      "epa": 4242,
      "##amed": 4243,
      "##ald": 4244,
      "sort": 4245,
      "337": 4246,
      "buckley": 4247,
      "inade": 4248,
      "483": 4249,
      "inadequ": 4250,
      "##urb": 4251,
      "assessment": 4252,
      "##tible": 4253,
      "exercised": 4254,
      "kent": 4255,
      "mach": 4256,
      "depend": 4257,
      "dischar": 4258,
      "457": 4259,
      "##ea": 4260,
      "critical": 4261,
      "336": 4262,
      "447": 4263,
      "emer": 4264,
      "##ratic": 4265,
      "truth": 4266,
      "victim": 4267,
      "vehicle": 4268,
      "156": 4269,
      "491": 4270,
      "harlan": 4271,
      "methods": 4272,
      "360": 4273,
      "travel": 4274,
      "##work": 4275,
      "imposs": 4276,
      "concept": 4277,
      "item": 4278,
      "uses": 4279,
      "disregard": 4280,
      "working": 4281,
      "willing": 4282,
      "470": 4283,
      "##ectives": 4284,
      "performed": 4285,
      "gold": 4286,
      "indirect": 4287,
      "342": 4288,
      "violence": 4289,
      "1997": 4290,
      "customers": 4291,
      "passage": 4292,
      "want": 4293,
      "##lac": 4294,
      "##ectic": 4295,
      "119": 4296,
      "student": 4297,
      "moved": 4298,
      "461": 4299,
      "imposes": 4300,
      "300": 4301,
      "mir": 4302,
      "379": 4303,
      "455": 4304,
      "pi": 4305,
      "356": 4306,
      "plant": 4307,
      "471": 4308,
      "depar": 4309,
      "##vation": 4310,
      "##rees": 4311,
      "mandate": 4312,
      "half": 4313,
      "478": 4314,
      "##iable": 4315,
      "reported": 4316,
      "388": 4317,
      "414": 4318,
      "attend": 4319,
      "substance": 4320,
      "pack": 4321,
      "reject": 4322,
      "whenever": 4323,
      "superior": 4324,
      "broadcasting": 4325,
      "citizenship": 4326,
      "commonwe": 4327,
      "##inson": 4328,
      "discip": 4329,
      "1953": 4330,
      "proportion": 4331,
      "bureau": 4332,
      "489": 4333,
      "residents": 4334,
      "recommend": 4335,
      "444": 4336,
      "penalties": 4337,
      "relying": 4338,
      "commonwealth": 4339,
      "419": 4340,
      "dil": 4341,
      "telev": 4342,
      "442": 4343,
      "##inding": 4344,
      "370": 4345,
      "487": 4346,
      "qualifications": 4347,
      "##asing": 4348,
      "forfeit": 4349,
      "analog": 4350,
      "rou": 4351,
      "124": 4352,
      "unanim": 4353,
      "colorado": 4354,
      "excessive": 4355,
      "hir": 4356,
      "224": 4357,
      "selection": 4358,
      "located": 4359,
      "industrial": 4360,
      "certificate": 4361,
      "led": 4362,
      "pret": 4363,
      "180": 4364,
      "##pe": 4365,
      "tele": 4366,
      "extension": 4367,
      "eligible": 4368,
      "irrelevant": 4369,
      "motiv": 4370,
      "applications": 4371,
      "fairness": 4372,
      "wall": 4373,
      "automa": 4374,
      "im": 4375,
      "##ney": 4376,
      "150": 4377,
      "hon": 4378,
      "364": 4379,
      "fp": 4380,
      "352": 4381,
      "##ology": 4382,
      "##ecticut": 4383,
      "committees": 4384,
      "connecticut": 4385,
      "damage": 4386,
      "427": 4387,
      "uphold": 4388,
      "##ats": 4389,
      "rein": 4390,
      "panel": 4391,
      "stating": 4392,
      "focus": 4393,
      "241": 4394,
      "juven": 4395,
      "carried": 4396,
      "along": 4397,
      "constituted": 4398,
      "321": 4399,
      "multip": 4400,
      "135": 4401,
      "409": 4402,
      "retroactive": 4403,
      "wish": 4404,
      "forms": 4405,
      "##ological": 4406,
      "apportionment": 4407,
      "insufficient": 4408,
      "play": 4409,
      "island": 4410,
      "worth": 4411,
      "young": 4412,
      "discovery": 4413,
      "maintenance": 4414,
      "distinct": 4415,
      "fig": 4416,
      "establishing": 4417,
      "benefici": 4418,
      "stree": 4419,
      "##gated": 4420,
      "##aster": 4421,
      "354": 4422,
      "holds": 4423,
      "imposing": 4424,
      "494": 4425,
      "conclusions": 4426,
      "475": 4427,
      "immig": 4428,
      "differences": 4429,
      "broadcast": 4430,
      "average": 4431,
      "##aker": 4432,
      "205": 4433,
      "167": 4434,
      "parte": 4435,
      "346": 4436,
      "port": 4437,
      "manif": 4438,
      "440": 4439,
      "182": 4440,
      "ruled": 4441,
      "equival": 4442,
      "convinc": 4443,
      "407": 4444,
      "##bo": 4445,
      "338": 4446,
      "434": 4447,
      "interference": 4448,
      "limiting": 4449,
      "##isa": 4450,
      "base": 4451,
      "predic": 4452,
      "proved": 4453,
      "343": 4454,
      "indication": 4455,
      "derived": 4456,
      "democratic": 4457,
      "english": 4458,
      "unus": 4459,
      "1951": 4460,
      "##ift": 4461,
      "firm": 4462,
      "344": 4463,
      "simple": 4464,
      "##po": 4465,
      "automob": 4466,
      "virtually": 4467,
      "authorizes": 4468,
      "away": 4469,
      "##isite": 4470,
      "mex": 4471,
      "##entiary": 4472,
      "choose": 4473,
      "normal": 4474,
      "explanation": 4475,
      "negligence": 4476,
      "446": 4477,
      "controlled": 4478,
      "gl": 4479,
      "##aken": 4480,
      "complex": 4481,
      "removed": 4482,
      "detention": 4483,
      "##isp": 4484,
      "##going": 4485,
      "enh": 4486,
      "developed": 4487,
      "pointed": 4488,
      "##ivision": 4489,
      "378": 4490,
      "subsequently": 4491,
      "303": 4492,
      "rationale": 4493,
      "introduced": 4494,
      "ballot": 4495,
      "guard": 4496,
      "448": 4497,
      "relies": 4498,
      "151": 4499,
      "503": 4500,
      "subdivision": 4501,
      "##rid": 4502,
      "implicit": 4503,
      "remaining": 4504,
      "determinations": 4505,
      "320": 4506,
      "termination": 4507,
      "advantage": 4508,
      "completely": 4509,
      "##ashion": 4510,
      "##nings": 4511,
      "2003": 4512,
      "aim": 4513,
      "351": 4514,
      "363": 4515,
      "485": 4516,
      "dispar": 4517,
      "##igent": 4518,
      "449": 4519,
      "168": 4520,
      "##ett": 4521,
      "chosen": 4522,
      "numerous": 4523,
      "##abl": 4524,
      "374": 4525,
      "fashion": 4526,
      "mech": 4527,
      "diversity": 4528,
      "##pects": 4529,
      "news": 4530,
      "147": 4531,
      "488": 4532,
      "deprived": 4533,
      "going": 4534,
      "constitutes": 4535,
      "##gers": 4536,
      "uncertain": 4537,
      "clauses": 4538,
      "erisa": 4539,
      "466": 4540,
      "confirm": 4541,
      "1934": 4542,
      "debate": 4543,
      "quoted": 4544,
      "228": 4545,
      "elector": 4546,
      "1956": 4547,
      "attempted": 4548,
      "wages": 4549,
      "152": 4550,
      "460": 4551,
      "preserve": 4552,
      "secured": 4553,
      "stop": 4554,
      "desire": 4555,
      "361": 4556,
      "append": 4557,
      "conceded": 4558,
      "squ": 4559,
      "events": 4560,
      "158": 4561,
      "disab": 4562,
      "aware": 4563,
      "compuls": 4564,
      "329": 4565,
      "474": 4566,
      "1955": 4567,
      "execution": 4568,
      "ren": 4569,
      "roy": 4570,
      "essentially": 4571,
      "concur": 4572,
      "residence": 4573,
      "estim": 4574,
      "rests": 4575,
      "reb": 4576,
      "intim": 4577,
      "328": 4578,
      "version": 4579,
      "loan": 4580,
      "extra": 4581,
      "magistr": 4582,
      "472": 4583,
      "prefer": 4584,
      "##ancing": 4585,
      "needed": 4586,
      "##tember": 4587,
      "kansas": 4588,
      "mechan": 4589,
      "poll": 4590,
      "september": 4591,
      "##iority": 4592,
      "goal": 4593,
      "fpc": 4594,
      "ven": 4595,
      "cable": 4596,
      "independ": 4597,
      "television": 4598,
      "sta": 4599,
      "recons": 4600,
      "481": 4601,
      "nonp": 4602,
      "affirmance": 4603,
      "cat": 4604,
      "elected": 4605,
      "464": 4606,
      "452": 4607,
      "comprehensive": 4608,
      "describ": 4609,
      "##lip": 4610,
      "310": 4611,
      "town": 4612,
      "participate": 4613,
      "eleventh": 4614,
      "impossible": 4615,
      "protecting": 4616,
      "privileges": 4617,
      "pati": 4618,
      "##orial": 4619,
      "143": 4620,
      "emphasized": 4621,
      "assemb": 4622,
      "368": 4623,
      "something": 4624,
      "pu": 4625,
      "prisoners": 4626,
      "mort": 4627,
      "circumst": 4628,
      "incumb": 4629,
      "recently": 4630,
      "operated": 4631,
      "##owa": 4632,
      "subcom": 4633,
      "afforded": 4634,
      "##kets": 4635,
      "507": 4636,
      "375": 4637,
      "##itime": 4638,
      "##arian": 4639,
      "inference": 4640,
      "housing": 4641,
      "pattern": 4642,
      "bcra": 4643,
      "469": 4644,
      "issuance": 4645,
      "ca2": 4646,
      "##aging": 4647,
      "declined": 4648,
      "reflect": 4649,
      "maritime": 4650,
      "writing": 4651,
      "subcommit": 4652,
      "iowa": 4653,
      "approximately": 4654,
      "142": 4655,
      "receiving": 4656,
      "medic": 4657,
      "177": 4658,
      "ent": 4659,
      "premises": 4660,
      "tell": 4661,
      "century": 4662,
      "dispos": 4663,
      "professional": 4664,
      "authorizing": 4665,
      "building": 4666,
      "souter": 4667,
      "207": 4668,
      "authorization": 4669,
      "495": 4670,
      "shares": 4671,
      "359": 4672,
      "349": 4673,
      "163": 4674,
      "room": 4675,
      "changed": 4676,
      "nond": 4677,
      "473": 4678,
      "colle": 4679,
      "teleph": 4680,
      "##earing": 4681,
      "promote": 4682,
      "454": 4683,
      "liquid": 4684,
      "acquired": 4685,
      "dangerous": 4686,
      "resulted": 4687,
      "149": 4688,
      "books": 4689,
      "burn": 4690,
      "302": 4691,
      "ga": 4692,
      "157": 4693,
      "wholes": 4694,
      "mitigating": 4695,
      "stage": 4696,
      "##ding": 4697,
      "348": 4698,
      "445": 4699,
      "erred": 4700,
      "##ewise": 4701,
      "##na": 4702,
      "confront": 4703,
      "causes": 4704,
      "439": 4705,
      "likewise": 4706,
      "fine": 4707,
      "resolved": 4708,
      "lawyers": 4709,
      "secular": 4710,
      "482": 4711,
      "regarded": 4712,
      "declaration": 4713,
      "supply": 4714,
      "sentenced": 4715,
      "subcommittee": 4716,
      "urged": 4717,
      "pregn": 4718,
      "127": 4719,
      "woman": 4720,
      "maintained": 4721,
      "examine": 4722,
      "##isting": 4723,
      "prohibiting": 4724,
      "##eed": 4725,
      "lea": 4726,
      "##bted": 4727,
      "appendix": 4728,
      "##aves": 4729,
      "##laim": 4730,
      "minnes": 4731,
      "competit": 4732,
      "aggravating": 4733,
      "defe": 4734,
      "minnesota": 4735,
      "##ground": 4736,
      "126": 4737,
      "engine": 4738,
      "381": 4739,
      "##wide": 4740,
      "supports": 4741,
      "##ableness": 4742,
      "physici": 4743,
      "percentage": 4744,
      "burger": 4745,
      "##enders": 4746,
      "accompan": 4747,
      "head": 4748,
      "ow": 4749,
      "injuries": 4750,
      "bad": 4751,
      "becomes": 4752,
      "309": 4753,
      "##ert": 4754,
      "reconsider": 4755,
      "juris": 4756,
      "dept": 4757,
      "146": 4758,
      "began": 4759,
      "soft": 4760,
      "204": 4761,
      "insp": 4762,
      "250": 4763,
      "211": 4764,
      "eliminate": 4765,
      "deportation": 4766,
      "432": 4767,
      "lay": 4768,
      "extensive": 4769,
      "acquisition": 4770,
      "dict": 4771,
      "convey": 4772,
      "clark": 4773,
      "lev": 4774,
      "313": 4775,
      "refuse": 4776,
      "suspension": 4777,
      "252": 4778,
      "foster": 4779,
      "northern": 4780,
      "162": 4781,
      "forces": 4782,
      "edward": 4783,
      "severe": 4784,
      "ways": 4785,
      "haw": 4786,
      "##ucky": 4787,
      "sentences": 4788,
      "waste": 4789,
      "grants": 4790,
      "453": 4791,
      "brother": 4792,
      "august": 4793,
      "1942": 4794,
      "pure": 4795,
      "181": 4796,
      "profits": 4797,
      "consequence": 4798,
      "##ergy": 4799,
      "##fere": 4800,
      "expected": 4801,
      "##ma": 4802,
      "423": 4803,
      "##eration": 4804,
      "387": 4805,
      "366": 4806,
      "improve": 4807,
      "##imbur": 4808,
      "steel": 4809,
      "arise": 4810,
      "types": 4811,
      "personnel": 4812,
      "obtaining": 4813,
      "presents": 4814,
      "grow": 4815,
      "testify": 4816,
      "came": 4817,
      "##where": 4818,
      "##ics": 4819,
      "##let": 4820,
      "brad": 4821,
      "named": 4822,
      "arkansas": 4823,
      "utility": 4824,
      "conform": 4825,
      "injured": 4826,
      "459": 4827,
      "##time": 4828,
      "prompt": 4829,
      "ca5": 4830,
      "side": 4831,
      "detailed": 4832,
      "##times": 4833,
      "238": 4834,
      "subjected": 4835,
      "cru": 4836,
      "prospective": 4837,
      "miranda": 4838,
      "##ening": 4839,
      "##eli": 4840,
      "food": 4841,
      "thing": 4842,
      "regulated": 4843,
      "agric": 4844,
      "498": 4845,
      "tend": 4846,
      "administrator": 4847,
      "##regon": 4848,
      "155": 4849,
      "encomp": 4850,
      "measures": 4851,
      "oregon": 4852,
      "encompass": 4853,
      "322": 4854,
      "railway": 4855,
      "overrul": 4856,
      "reimbur": 4857,
      "happ": 4858,
      "precedents": 4859,
      "consolidated": 4860,
      "som": 4861,
      "preclude": 4862,
      "instant": 4863,
      "##mir": 4864,
      "##ques": 4865,
      "ca9": 4866,
      "148": 4867,
      "##ze": 4868,
      "kentucky": 4869,
      "infringe": 4870,
      "treasury": 4871,
      "active": 4872,
      "154": 4873,
      "allen": 4874,
      "325": 4875,
      "seniority": 4876,
      "adequately": 4877,
      "210": 4878,
      "176": 4879,
      "bell": 4880,
      "immigration": 4881,
      "enterprise": 4882,
      "sometimes": 4883,
      "unusual": 4884,
      "difficulty": 4885,
      "##ety": 4886,
      "##tise": 4887,
      "associated": 4888,
      "175": 4889,
      "484": 4890,
      "##utors": 4891,
      "##inafter": 4892,
      "##ners": 4893,
      "affecting": 4894,
      "1945": 4895,
      "1943": 4896,
      "merit": 4897,
      "324": 4898,
      "sev": 4899,
      "hereinafter": 4900,
      "searches": 4901,
      "ordinarily": 4902,
      "proposal": 4903,
      "477": 4904,
      "##qual": 4905,
      "evidentiary": 4906,
      "##ena": 4907,
      "209": 4908,
      "382": 4909,
      "##withstanding": 4910,
      "valu": 4911,
      "alleging": 4912,
      "designated": 4913,
      "##roy": 4914,
      "327": 4915,
      "318": 4916,
      "david": 4917,
      "165": 4918,
      "ee": 4919,
      "wood": 4920,
      "confine": 4921,
      "dele": 4922,
      "492": 4923,
      "expand": 4924,
      "tel": 4925,
      "environmental": 4926,
      "398": 4927,
      "298": 4928,
      "##hat": 4929,
      "supporting": 4930,
      "formula": 4931,
      "expense": 4932,
      "308": 4933,
      "behavi": 4934,
      "equivalent": 4935,
      "rise": 4936,
      "delaw": 4937,
      "preference": 4938,
      "advocacy": 4939,
      "undermin": 4940,
      "480": 4941,
      "largely": 4942,
      "correctly": 4943,
      "294": 4944,
      "distinguished": 4945,
      "creates": 4946,
      "1998": 4947,
      "respects": 4948,
      "furthermore": 4949,
      "miscon": 4950,
      "##bery": 4951,
      "509": 4952,
      "sanctions": 4953,
      "1938": 4954,
      "164": 4955,
      "probation": 4956,
      "deprive": 4957,
      "corruption": 4958,
      "drugs": 4959,
      "##rac": 4960,
      "takes": 4961,
      "1941": 4962,
      "admir": 4963,
      "##illed": 4964,
      "freight": 4965,
      "306": 4966,
      "##oted": 4967,
      "objectives": 4968,
      "496": 4969,
      "##gress": 4970,
      "tribes": 4971,
      "##els": 4972,
      "demonstrates": 4973,
      "banc": 4974,
      "aspects": 4975,
      "strength": 4976,
      "reserved": 4977,
      "sect": 4978,
      "furnish": 4979,
      "thomp": 4980,
      "reasonableness": 4981,
      "326": 4982,
      "interrogation": 4983,
      "sens": 4984,
      "reasoned": 4985,
      "thompson": 4986,
      "intell": 4987,
      "returned": 4988,
      "defici": 4989,
      "feca": 4990,
      "win": 4991,
      "values": 4992,
      "cul": 4993,
      "##ife": 4994,
      "dest": 4995,
      "159": 4996,
      "allows": 4997,
      "notwithstanding": 4998,
      "sexual": 4999,
      "tot": 5000,
      "396": 5001,
      "telephone": 5002,
      "161": 5003,
      "availability": 5004,
      "papers": 5005,
      "unique": 5006,
      "premise": 5007,
      "##ugh": 5008,
      "wea": 5009,
      "marks": 5010,
      "brand": 5011,
      "bord": 5012,
      "##uly": 5013,
      "secondary": 5014,
      "deprivation": 5015,
      "circumstance": 5016,
      "trials": 5017,
      "slip": 5018,
      "##eg": 5019,
      "170": 5020,
      "sue": 5021,
      "eeoc": 5022,
      "behavior": 5023,
      "automobile": 5024,
      "allegedly": 5025,
      "indiana": 5026,
      "convers": 5027,
      "carrying": 5028,
      "173": 5029,
      "cash": 5030,
      "interior": 5031,
      "##ounting": 5032,
      "seized": 5033,
      "works": 5034,
      "supplied": 5035,
      "263": 5036,
      "inadequate": 5037,
      "533": 5038,
      "acknowledged": 5039,
      "##bs": 5040,
      "267": 5041,
      "serves": 5042,
      "ago": 5043,
      "506": 5044,
      "knew": 5045,
      "lost": 5046,
      "assure": 5047,
      "dur": 5048,
      "##ii": 5049,
      "273": 5050,
      "206": 5051,
      "tennessee": 5052,
      "bi": 5053,
      "acquit": 5054,
      "2002": 5055,
      "dom": 5056,
      "message": 5057,
      "statis": 5058,
      "protections": 5059,
      "em": 5060,
      "242": 5061,
      "somew": 5062,
      "adher": 5063,
      "objections": 5064,
      "sued": 5065,
      "caus": 5066,
      "aspect": 5067,
      "lien": 5068,
      "##ifying": 5069,
      "mad": 5070,
      "monopoly": 5071,
      "reduced": 5072,
      "forced": 5073,
      "franch": 5074,
      "affidavit": 5075,
      "perf": 5076,
      "opposed": 5077,
      "breyer": 5078,
      "entertain": 5079,
      "repeatedly": 5080,
      "reaching": 5081,
      "originally": 5082,
      "reduce": 5083,
      "attempts": 5084,
      "encourage": 5085,
      "##iff": 5086,
      "falls": 5087,
      "armed": 5088,
      "wilson": 5089,
      "lee": 5090,
      "254": 5091,
      "impermissible": 5092,
      "317": 5093,
      "identification": 5094,
      "##gate": 5095,
      "stip": 5096,
      "paper": 5097,
      "jeff": 5098,
      "jail": 5099,
      "arrested": 5100,
      "1944": 5101,
      "2001": 5102,
      "##get": 5103,
      "goes": 5104,
      "1939": 5105,
      "exclusively": 5106,
      "sand": 5107,
      "trustee": 5108,
      "document": 5109,
      "disapp": 5110,
      "competing": 5111,
      "highly": 5112,
      "amp": 5113,
      "facility": 5114,
      "268": 5115,
      "charles": 5116,
      "taxable": 5117,
      "forfeiture": 5118,
      "confer": 5119,
      "499": 5120,
      "208": 5121,
      "harris": 5122,
      "ask": 5123,
      "refers": 5124,
      "271": 5125,
      "device": 5126,
      "demands": 5127,
      "inev": 5128,
      "vo": 5129,
      "utah": 5130,
      "expir": 5131,
      "305": 5132,
      "week": 5133,
      "reporting": 5134,
      "governments": 5135,
      "wage": 5136,
      "define": 5137,
      "##ste": 5138,
      "##oring": 5139,
      "##ulate": 5140,
      "consumer": 5141,
      "##don": 5142,
      "commod": 5143,
      "depends": 5144,
      "314": 5145,
      "annual": 5146,
      "##astate": 5147,
      "hamp": 5148,
      "dimin": 5149,
      "incur": 5150,
      "seven": 5151,
      "rehearing": 5152,
      "pension": 5153,
      "311": 5154,
      "taxpayers": 5155,
      "##az": 5156,
      "producer": 5157,
      "consumers": 5158,
      "withhold": 5159,
      "expenditure": 5160,
      "alaska": 5161,
      "mark": 5162,
      "comparable": 5163,
      "classes": 5164,
      "contractor": 5165,
      "draf": 5166,
      "02": 5167,
      "finance": 5168,
      "moral": 5169,
      "energy": 5170,
      "##sa": 5171,
      "intrastate": 5172,
      "cut": 5173,
      "lie": 5174,
      "493": 5175,
      "747": 5176,
      "training": 5177,
      "##ibilities": 5178,
      "sustain": 5179,
      "live": 5180,
      "253": 5181,
      "embod": 5182,
      "##ienti": 5183,
      "280": 5184,
      "assigned": 5185,
      "entity": 5186,
      "juvenile": 5187,
      "ham": 5188,
      "265": 5189,
      "rejecting": 5190,
      "##omy": 5191,
      "farm": 5192,
      "background": 5193,
      "admiralty": 5194,
      "283": 5195,
      "variety": 5196,
      "trustees": 5197,
      "##kes": 5198,
      "226": 5199,
      "segregation": 5200,
      "magistrate": 5201,
      "regulating": 5202,
      "232": 5203,
      "515": 5204,
      "memor": 5205,
      "interim": 5206,
      "narrowly": 5207,
      "nonc": 5208,
      "appearance": 5209,
      "boundaries": 5210,
      "sher": 5211,
      "discretionary": 5212,
      "##elihood": 5213,
      "guaranteed": 5214,
      "broader": 5215,
      "doll": 5216,
      "##ining": 5217,
      "258": 5218,
      "refusing": 5219,
      "restrictive": 5220,
      "extreme": 5221,
      "harmless": 5222,
      "bearing": 5223,
      "juries": 5224,
      "##iliar": 5225,
      "appeared": 5226,
      "reviewed": 5227,
      "quotation": 5228,
      "##lam": 5229,
      "enforced": 5230,
      "emption": 5231,
      "pec": 5232,
      "swe": 5233,
      "sav": 5234,
      "forward": 5235,
      "##fur": 5236,
      "motions": 5237,
      "cler": 5238,
      "haz": 5239,
      "divided": 5240,
      "check": 5241,
      "297": 5242,
      "categories": 5243,
      "reflects": 5244,
      "##utory": 5245,
      "existed": 5246,
      "identify": 5247,
      "forecl": 5248,
      "counties": 5249,
      "likelihood": 5250,
      "reform": 5251,
      "229": 5252,
      "negroes": 5253,
      "##rew": 5254,
      "exact": 5255,
      "publication": 5256,
      "1999": 5257,
      "##emp": 5258,
      "staff": 5259,
      "relatively": 5260,
      "profit": 5261,
      "recon": 5262,
      "remained": 5263,
      "299": 5264,
      "rig": 5265,
      "center": 5266,
      "demonstrated": 5267,
      "zone": 5268,
      "asserts": 5269,
      "adjustment": 5270,
      "bor": 5271,
      "nearly": 5272,
      "remove": 5273,
      "juror": 5274,
      "integrity": 5275,
      "171": 5276,
      "cra": 5277,
      "proceeds": 5278,
      "510": 5279,
      "##ocation": 5280,
      "eight": 5281,
      "retained": 5282,
      "##istric": 5283,
      "construc": 5284,
      "tests": 5285,
      "exhaus": 5286,
      "comes": 5287,
      "281": 5288,
      "expert": 5289,
      "subpo": 5290,
      "incrimination": 5291,
      "##indic": 5292,
      "bargain": 5293,
      "technical": 5294,
      "hud": 5295,
      "contractual": 5296,
      "preferred": 5297,
      "218": 5298,
      "governed": 5299,
      "intend": 5300,
      "261": 5301,
      "certification": 5302,
      "multiple": 5303,
      "602": 5304,
      "mut": 5305,
      "717": 5306,
      "frankfur": 5307,
      "##adv": 5308,
      "hy": 5309,
      "suffered": 5310,
      "prevailing": 5311,
      "##nell": 5312,
      "##the": 5313,
      "arri": 5314,
      "prepared": 5315,
      "spons": 5316,
      "consequently": 5317,
      "pipeline": 5318,
      "frankfurter": 5319,
      "223": 5320,
      "channel": 5321,
      "carefully": 5322,
      "231": 5323,
      "option": 5324,
      "somewhat": 5325,
      "articles": 5326,
      "foundation": 5327,
      "direction": 5328,
      "readily": 5329,
      "284": 5330,
      "tal": 5331,
      "preventing": 5332,
      "interfere": 5333,
      "presumably": 5334,
      "290": 5335,
      "legally": 5336,
      "critic": 5337,
      "accorded": 5338,
      "##enty": 5339,
      "##udence": 5340,
      "normally": 5341,
      "frequently": 5342,
      "214": 5343,
      "surv": 5344,
      "##ilit": 5345,
      "eastern": 5346,
      "train": 5347,
      "alia": 5348,
      "po": 5349,
      "##uing": 5350,
      "##iscrimin": 5351,
      "star": 5352,
      "struck": 5353,
      "anticip": 5354,
      "gun": 5355,
      "unj": 5356,
      "508": 5357,
      "easily": 5358,
      "244": 5359,
      "pain": 5360,
      "##ada": 5361,
      "substitute": 5362,
      "vindic": 5363,
      "delaware": 5364,
      "##room": 5365,
      "##da": 5366,
      "series": 5367,
      "##tituted": 5368,
      "timely": 5369,
      "166": 5370,
      "safeguards": 5371,
      "manifest": 5372,
      "nine": 5373,
      "closely": 5374,
      "##entions": 5375,
      "concludes": 5376,
      "compon": 5377,
      "incomp": 5378,
      "287": 5379,
      "moore": 5380,
      "king": 5381,
      "chair": 5382,
      "##mates": 5383,
      "montana": 5384,
      "analy": 5385,
      "wife": 5386,
      "conclusive": 5387,
      "##esting": 5388,
      "221": 5389,
      "514": 5390,
      "guarantees": 5391,
      "##ropri": 5392,
      "##idents": 5393,
      "174": 5394,
      "172": 5395,
      "dependent": 5396,
      "unav": 5397,
      "accident": 5398,
      "selected": 5399,
      "tribun": 5400,
      "hyp": 5401,
      "modified": 5402,
      "confined": 5403,
      "##augh": 5404,
      "inqu": 5405,
      "sho": 5406,
      "511": 5407,
      "279": 5408,
      "##vert": 5409,
      "##ented": 5410,
      "eligibility": 5411,
      "##osite": 5412,
      "240": 5413,
      "outcome": 5414,
      "293": 5415,
      "creditors": 5416,
      "convenience": 5417,
      "beginning": 5418,
      "hall": 5419,
      "169": 5420,
      "bod": 5421,
      "234": 5422,
      "army": 5423,
      "contended": 5424,
      "mine": 5425,
      "departure": 5426,
      "##holder": 5427,
      "236": 5428,
      "paul": 5429,
      "seriously": 5430,
      "transcrip": 5431,
      "enforcing": 5432,
      "274": 5433,
      "virtu": 5434,
      "counts": 5435,
      "disturb": 5436,
      "282": 5437,
      "england": 5438,
      "intrusion": 5439,
      "bow": 5440,
      "reaff": 5441,
      "539": 5442,
      "restricted": 5443,
      "rh": 5444,
      "nom": 5445,
      "249": 5446,
      "framers": 5447,
      "claimant": 5448,
      "emerg": 5449,
      "collection": 5450,
      "jurispr": 5451,
      "conferred": 5452,
      "feel": 5453,
      "hen": 5454,
      "oath": 5455,
      "claiming": 5456,
      "delivery": 5457,
      "moot": 5458,
      "##ariff": 5459,
      "##hol": 5460,
      "establishes": 5461,
      "stra": 5462,
      "pree": 5463,
      "pretrial": 5464,
      "1935": 5465,
      "anyone": 5466,
      "joins": 5467,
      "voter": 5468,
      "appealed": 5469,
      "living": 5470,
      "overt": 5471,
      "copyright": 5472,
      "advanced": 5473,
      "prosecutions": 5474,
      "##tific": 5475,
      "deduction": 5476,
      "##acts": 5477,
      "##ken": 5478,
      "dead": 5479,
      "217": 5480,
      "##rote": 5481,
      "perce": 5482,
      "212": 5483,
      "navigable": 5484,
      "extraordin": 5485,
      "bd": 5486,
      "leaves": 5487,
      "272": 5488,
      "advisory": 5489,
      "##ael": 5490,
      "enacting": 5491,
      "##wh": 5492,
      "commitment": 5493,
      "creation": 5494,
      "seen": 5495,
      "##arely": 5496,
      "promulgated": 5497,
      "deseg": 5498,
      "passing": 5499,
      "enl": 5500,
      "violating": 5501,
      "segreg": 5502,
      "binding": 5503,
      "219": 5504,
      "expans": 5505,
      "##utable": 5506,
      "familiar": 5507,
      "mentioned": 5508,
      "description": 5509,
      "##licable": 5510,
      "227": 5511,
      "initially": 5512,
      "mineral": 5513,
      "failing": 5514,
      "client": 5515,
      "east": 5516,
      "fu": 5517,
      "recognizes": 5518,
      "retire": 5519,
      "aud": 5520,
      "characterized": 5521,
      "organized": 5522,
      "selling": 5523,
      "empow": 5524,
      "funding": 5525,
      "picketing": 5526,
      "appointment": 5527,
      "clay": 5528,
      "lear": 5529,
      "glo": 5530,
      "tariff": 5531,
      "##vention": 5532,
      "overb": 5533,
      "235": 5534,
      "gins": 5535,
      "237": 5536,
      "associations": 5537,
      "fid": 5538,
      "defining": 5539,
      "governor": 5540,
      "519": 5541,
      "seventh": 5542,
      "##utation": 5543,
      "##veness": 5544,
      "roads": 5545,
      "##field": 5546,
      "therein": 5547,
      "awarded": 5548,
      "245": 5549,
      "wrote": 5550,
      "registered": 5551,
      "usually": 5552,
      "reserve": 5553,
      "ascertain": 5554,
      "invoked": 5555,
      "chris": 5556,
      "harv": 5557,
      "elsewhere": 5558,
      "521": 5559,
      "assur": 5560,
      "advised": 5561,
      "213": 5562,
      "banking": 5563,
      "jurisprudence": 5564,
      "restraints": 5565,
      "del": 5566,
      "trea": 5567,
      "abrid": 5568,
      "243": 5569,
      "creating": 5570,
      "considerable": 5571,
      "hill": 5572,
      "difficulties": 5573,
      "resident": 5574,
      "confidential": 5575,
      "goals": 5576,
      "##itations": 5577,
      "259": 5578,
      "recognizing": 5579,
      "rock": 5580,
      "electoral": 5581,
      "262": 5582,
      "discriminate": 5583,
      "destroy": 5584,
      "##gage": 5585,
      "266": 5586,
      "##tiveness": 5587,
      "600": 5588,
      "##anti": 5589,
      "sovereignty": 5590,
      "288": 5591,
      "install": 5592,
      "hands": 5593,
      "##aper": 5594,
      "plead": 5595,
      "steps": 5596,
      "receipt": 5597,
      "257": 5598,
      "2004": 5599,
      "floor": 5600,
      "unrelated": 5601,
      "infringement": 5602,
      "geograph": 5603,
      "contempor": 5604,
      "franchise": 5605,
      "##kin": 5606,
      "vested": 5607,
      "impar": 5608,
      "discharged": 5609,
      "220": 5610,
      "reflected": 5611,
      "hypoth": 5612,
      "215": 5613,
      "traditionally": 5614,
      "partners": 5615,
      "292": 5616,
      "ger": 5617,
      "presidential": 5618,
      "subjects": 5619,
      "216": 5620,
      "justices": 5621,
      "probably": 5622,
      "items": 5623,
      "reaffirm": 5624,
      "##berts": 5625,
      "255": 5626,
      "mother": 5627,
      "aro": 5628,
      "master": 5629,
      "positions": 5630,
      "useful": 5631,
      "rebut": 5632,
      "michael": 5633,
      "##stein": 5634,
      "charter": 5635,
      "wrongful": 5636,
      "surround": 5637,
      "tail": 5638,
      "disqual": 5639,
      "##icious": 5640,
      "virtue": 5641,
      "inmates": 5642,
      "nov": 5643,
      "mexico": 5644,
      "assembly": 5645,
      "##employ": 5646,
      "ideas": 5647,
      "contemplated": 5648,
      "size": 5649,
      "advers": 5650,
      "phase": 5651,
      "ca7": 5652,
      "complaints": 5653,
      "##andum": 5654,
      "grievance": 5655,
      "wy": 5656,
      "573": 5657,
      "errors": 5658,
      "enum": 5659,
      "usual": 5660,
      "lesser": 5661,
      "characteris": 5662,
      "##ominant": 5663,
      "##mar": 5664,
      "challenging": 5665,
      "ought": 5666,
      "##laced": 5667,
      "innocent": 5668,
      "rejection": 5669,
      "manag": 5670,
      "jose": 5671,
      "cast": 5672,
      "restrict": 5673,
      "losses": 5674,
      "inspection": 5675,
      "label": 5676,
      "supplemental": 5677,
      "newspaper": 5678,
      "##zed": 5679,
      "threatened": 5680,
      "mob": 5681,
      "535": 5682,
      "illustr": 5683,
      "saying": 5684,
      "robbery": 5685,
      "evident": 5686,
      "signed": 5687,
      "547": 5688,
      "##iat": 5689,
      "nebr": 5690,
      "mitch": 5691,
      "246": 5692,
      "evil": 5693,
      "##orm": 5694,
      "web": 5695,
      "preceding": 5696,
      "savings": 5697,
      "compact": 5698,
      "517": 5699,
      "instructed": 5700,
      "##orship": 5701,
      "exercising": 5702,
      "competent": 5703,
      "revision": 5704,
      "isol": 5705,
      "milk": 5706,
      "##inted": 5707,
      "voluntarily": 5708,
      "##idence": 5709,
      "inflic": 5710,
      "transferred": 5711,
      "fore": 5712,
      "notion": 5713,
      "unanimous": 5714,
      "##acted": 5715,
      "solicitation": 5716,
      "cham": 5717,
      "decline": 5718,
      "291": 5719,
      "risks": 5720,
      "##itz": 5721,
      "bid": 5722,
      "wash": 5723,
      "default": 5724,
      "nebraska": 5725,
      "fell": 5726,
      "involunt": 5727,
      "reduction": 5728,
      "na": 5729,
      "purchased": 5730,
      "##mond": 5731,
      "applicants": 5732,
      "containing": 5733,
      "leaving": 5734,
      "univers": 5735,
      "submission": 5736,
      "requests": 5737,
      "institute": 5738,
      "redress": 5739,
      "bir": 5740,
      "faced": 5741,
      "##win": 5742,
      "##ultural": 5743,
      "##uits": 5744,
      "hart": 5745,
      "532": 5746,
      "concedes": 5747,
      "network": 5748,
      "memorandum": 5749,
      "late": 5750,
      "##ann": 5751,
      "admit": 5752,
      "##titude": 5753,
      "clari": 5754,
      "528": 5755,
      "222": 5756,
      "separately": 5757,
      "revenues": 5758,
      "qualify": 5759,
      "stake": 5760,
      "##olution": 5761,
      "552": 5762,
      "277": 5763,
      "liquor": 5764,
      "ward": 5765,
      "##tims": 5766,
      "arrangement": 5767,
      "miles": 5768,
      "draft": 5769,
      "##respon": 5770,
      "renew": 5771,
      "ginsburg": 5772,
      "nos": 5773,
      "##pass": 5774,
      "practic": 5775,
      "operators": 5776,
      "teachers": 5777,
      "certified": 5778,
      "experi": 5779,
      "effectu": 5780,
      "601": 5781,
      "taxing": 5782,
      "applicability": 5783,
      "##ades": 5784,
      "club": 5785,
      "286": 5786,
      "twenty": 5787,
      "opposition": 5788,
      "289": 5789,
      "questioning": 5790,
      "##earch": 5791,
      "526": 5792,
      "retirement": 5793,
      "513": 5794,
      "theat": 5795,
      "stations": 5796,
      "detain": 5797,
      "research": 5798,
      "230": 5799,
      "defines": 5800,
      "prescribe": 5801,
      "530": 5802,
      "extraordinary": 5803,
      "undue": 5804,
      "inapplicable": 5805,
      "dak": 5806,
      "forbidden": 5807,
      "cities": 5808,
      "accru": 5809,
      "condemn": 5810,
      "opportunities": 5811,
      "##enger": 5812,
      "rico": 5813,
      "##contr": 5814,
      "legislatures": 5815,
      "ca1": 5816,
      "street": 5817,
      "mrs": 5818,
      "270": 5819,
      "incorporated": 5820,
      "weeks": 5821,
      "purely": 5822,
      "father": 5823,
      "favorable": 5824,
      "od": 5825,
      "victims": 5826,
      "offers": 5827,
      "##erted": 5828,
      "rested": 5829,
      "display": 5830,
      "invoke": 5831,
      "promotion": 5832,
      "chairman": 5833,
      "allocation": 5834,
      "persuasive": 5835,
      "census": 5836,
      "marri": 5837,
      "##ette": 5838,
      "arrangements": 5839,
      "bears": 5840,
      "offender": 5841,
      "knowingly": 5842,
      "fixing": 5843,
      "vague": 5844,
      "adult": 5845,
      "248": 5846,
      "vital": 5847,
      "namely": 5848,
      "285": 5849,
      "supervision": 5850,
      "emergency": 5851,
      "disclose": 5852,
      "assignment": 5853,
      "inad": 5854,
      "##usive": 5855,
      "classifications": 5856,
      "523": 5857,
      "##wood": 5858,
      "key": 5859,
      "names": 5860,
      "295": 5861,
      "guidance": 5862,
      "dakota": 5863,
      "541": 5864,
      "joseph": 5865,
      "##under": 5866,
      "cum": 5867,
      "##lem": 5868,
      "##aylor": 5869,
      "citation": 5870,
      "clayton": 5871,
      "##rist": 5872,
      "meaningful": 5873,
      "resort": 5874,
      "accounting": 5875,
      "##duct": 5876,
      "##weigh": 5877,
      "waived": 5878,
      "conflicting": 5879,
      "utilities": 5880,
      "##ounted": 5881,
      "##phy": 5882,
      "lawsuit": 5883,
      "relev": 5884,
      "##ception": 5885,
      "520": 5886,
      "occurr": 5887,
      "modern": 5888,
      "##enity": 5889,
      "296": 5890,
      "522": 5891,
      "1937": 5892,
      "dealt": 5893,
      "veter": 5894,
      "seat": 5895,
      "nations": 5896,
      "##orne": 5897,
      "##ship": 5898,
      "##itan": 5899,
      "flex": 5900,
      "physician": 5901,
      "##eff": 5902,
      "contractors": 5903,
      "slight": 5904,
      "contentions": 5905,
      "protects": 5906,
      "customs": 5907,
      "silence": 5908,
      "modification": 5909,
      "liter": 5910,
      "correspon": 5911,
      "##ommunic": 5912,
      "264": 5913,
      "behind": 5914,
      "represents": 5915,
      "misconduct": 5916,
      "233": 5917,
      "responsibilities": 5918,
      "door": 5919,
      "sul": 5920,
      "literal": 5921,
      "##gment": 5922,
      "whereas": 5923,
      "narco": 5924,
      "cruel": 5925,
      "telec": 5926,
      "##shire": 5927,
      "assessed": 5928,
      "aggreg": 5929,
      "##uli": 5930,
      "##ulative": 5931,
      "martin": 5932,
      "properties": 5933,
      "eth": 5934,
      "taylor": 5935,
      "alco": 5936,
      "location": 5937,
      "gener": 5938,
      "276": 5939,
      "hus": 5940,
      "proj": 5941,
      "asserting": 5942,
      "beliefs": 5943,
      "serving": 5944,
      "260": 5945,
      "confrontation": 5946,
      "portions": 5947,
      "256": 5948,
      "534": 5949,
      "franc": 5950,
      "griff": 5951,
      "confinement": 5952,
      "chose": 5953,
      "interview": 5954,
      "reapp": 5955,
      "##uction": 5956,
      "extends": 5957,
      "territorial": 5958,
      "bonds": 5959,
      "college": 5960,
      "##macy": 5961,
      "##rep": 5962,
      "published": 5963,
      "ford": 5964,
      "prima": 5965,
      "broadly": 5966,
      "passenger": 5967,
      "unlikely": 5968,
      "suppression": 5969,
      "lew": 5970,
      "terminal": 5971,
      "saw": 5972,
      "licensing": 5973,
      "##band": 5974,
      "custod": 5975,
      "intentional": 5976,
      "gro": 5977,
      "cruc": 5978,
      "##roit": 5979,
      "upholding": 5980,
      "park": 5981,
      "##eping": 5982,
      "##ush": 5983,
      "##orter": 5984,
      "##lips": 5985,
      "##atz": 5986,
      "deterr": 5987,
      "describing": 5988,
      "void": 5989,
      "##vol": 5990,
      "##iel": 5991,
      "275": 5992,
      "706": 5993,
      "enable": 5994,
      "markets": 5995,
      "dealers": 5996,
      "obscene": 5997,
      "cam": 5998,
      "redistric": 5999,
      "hope": 6000,
      "determines": 6001,
      "innocence": 6002,
      "truc": 6003,
      "roberts": 6004,
      "coh": 6005,
      "presumed": 6006,
      "incurred": 6007,
      "novel": 6008,
      "schedul": 6009,
      "increases": 6010,
      "misd": 6011,
      "ambiguous": 6012,
      "george": 6013,
      "intervention": 6014,
      "truck": 6015,
      "arose": 6016,
      "239": 6017,
      "card": 6018,
      "provis": 6019,
      "hiring": 6020,
      "hampshire": 6021,
      "forbids": 6022,
      "##advant": 6023,
      "entr": 6024,
      "1933": 6025,
      "empted": 6026,
      "idea": 6027,
      "##house": 6028,
      "ange": 6029,
      "512": 6030,
      "inmate": 6031,
      "highest": 6032,
      "subpoena": 6033,
      "arguing": 6034,
      "advice": 6035,
      "entities": 6036,
      "separation": 6037,
      "hal": 6038,
      "martial": 6039,
      "capable": 6040,
      "collect": 6041,
      "supervis": 6042,
      "disadvant": 6043,
      "278": 6044,
      "mining": 6045,
      "542": 6046,
      "pray": 6047,
      "media": 6048,
      "soon": 6049,
      "##ull": 6050,
      "md": 6051,
      "##ume": 6052,
      "examined": 6053,
      "instrument": 6054,
      "characteristics": 6055,
      "knowing": 6056,
      "precluded": 6057,
      "544": 6058,
      "##ifies": 6059,
      "inappropri": 6060,
      "pric": 6061,
      "liberties": 6062,
      "##ictions": 6063,
      "detroit": 6064,
      "successful": 6065,
      "##ta": 6066,
      "##onic": 6067,
      "nev": 6068,
      "fru": 6069,
      "##ivers": 6070,
      "madison": 6071,
      "##iser": 6072,
      "acceptance": 6073,
      "subsidiary": 6074,
      "unequ": 6075,
      "partial": 6076,
      "contra": 6077,
      "commenced": 6078,
      "terminate": 6079,
      "merch": 6080,
      "exhaust": 6081,
      "##entive": 6082,
      "closed": 6083,
      "implication": 6084,
      "##itt": 6085,
      "wright": 6086,
      "##ov": 6087,
      "545": 6088,
      "struct": 6089,
      "exhaustion": 6090,
      "robinson": 6091,
      "endor": 6092,
      "531": 6093,
      "litigants": 6094,
      "decis": 6095,
      "disputed": 6096,
      "247": 6097,
      "bills": 6098,
      "##aho": 6099,
      "527": 6100,
      "reads": 6101,
      "##ream": 6102,
      "interpreting": 6103,
      "beneficiaries": 6104,
      "defeat": 6105,
      "seller": 6106,
      "unam": 6107,
      "shap": 6108,
      "cement": 6109,
      "lot": 6110,
      "516": 6111,
      "sets": 6112,
      "speaking": 6113,
      "543": 6114,
      "alcohol": 6115,
      "gil": 6116,
      "raising": 6117,
      "transcript": 6118,
      "equality": 6119,
      "model": 6120,
      "##ds": 6121,
      "arises": 6122,
      "contrad": 6123,
      "identity": 6124,
      "vacate": 6125,
      "attempting": 6126,
      "enjoined": 6127,
      "interested": 6128,
      "herein": 6129,
      "competitors": 6130,
      "phot": 6131,
      "environment": 6132,
      "perfect": 6133,
      "##tile": 6134,
      "processes": 6135,
      "##abil": 6136,
      "revised": 6137,
      "released": 6138,
      "unavail": 6139,
      "try": 6140,
      "escape": 6141,
      "##de": 6142,
      "surve": 6143,
      "lacked": 6144,
      "foregoing": 6145,
      "ke": 6146,
      "los": 6147,
      "adams": 6148,
      "cogn": 6149,
      "devices": 6150,
      "relevance": 6151,
      "##oming": 6152,
      "requisite": 6153,
      "promise": 6154,
      "anderson": 6155,
      "##elly": 6156,
      "heavi": 6157,
      "hund": 6158,
      "regional": 6159,
      "##gg": 6160,
      "nonm": 6161,
      "fraudul": 6162,
      "implementation": 6163,
      "crucial": 6164,
      "boyc": 6165,
      "protest": 6166,
      "operator": 6167,
      "jefferson": 6168,
      "##port": 6169,
      "pal": 6170,
      "spending": 6171,
      "husband": 6172,
      "insist": 6173,
      "facilit": 6174,
      "awards": 6175,
      "exclusionary": 6176,
      "enab": 6177,
      "facie": 6178,
      "##abor": 6179,
      "##lif": 6180,
      "modify": 6181,
      "##itude": 6182,
      "hundred": 6183,
      "commissioners": 6184,
      "metrop": 6185,
      "jobs": 6186,
      "coordin": 6187,
      "perpe": 6188,
      "possibly": 6189,
      "518": 6190,
      "blo": 6191,
      "operates": 6192,
      "republican": 6193,
      "arguably": 6194,
      "524": 6195,
      "metropol": 6196,
      "offices": 6197,
      "vary": 6198,
      "##readth": 6199,
      "motivated": 6200,
      "lake": 6201,
      "wire": 6202,
      "believes": 6203,
      "relie": 6204,
      "famil": 6205,
      "overruled": 6206,
      "mandated": 6207,
      "651": 6208,
      "2005": 6209,
      "belong": 6210,
      "omission": 6211,
      "ineff": 6212,
      "certificates": 6213,
      "confessions": 6214,
      "##shore": 6215,
      "surpr": 6216,
      "proviso": 6217,
      "##att": 6218,
      "telecommunic": 6219,
      "wol": 6220,
      "fulf": 6221,
      "chance": 6222,
      "##ression": 6223,
      "expectation": 6224,
      "unambigu": 6225,
      "##eth": 6226,
      "pregnancy": 6227,
      "christi": 6228,
      "##uliar": 6229,
      "francis": 6230,
      "core": 6231,
      "shareholders": 6232,
      "metropolitan": 6233,
      "crim": 6234,
      "pressure": 6235,
      "##icion": 6236,
      "ones": 6237,
      "outweigh": 6238,
      "licenses": 6239,
      "suspicion": 6240,
      "peculiar": 6241,
      "##eny": 6242,
      "questioned": 6243,
      "##illa": 6244,
      "terminated": 6245,
      "measured": 6246,
      "manufacturers": 6247,
      "##ese": 6248,
      "collected": 6249,
      "recommended": 6250,
      "inappropriate": 6251,
      "telecommunications": 6252,
      "venue": 6253,
      "leading": 6254,
      "269": 6255,
      "efficient": 6256,
      "touch": 6257,
      "turned": 6258,
      "holmes": 6259,
      "##volous": 6260,
      "producing": 6261,
      "industries": 6262,
      "##oph": 6263,
      "clar": 6264,
      "reveal": 6265,
      "session": 6266,
      "##uct": 6267,
      "claimants": 6268,
      "reimbursement": 6269,
      "transit": 6270,
      "construing": 6271,
      "striking": 6272,
      "546": 6273,
      "accounts": 6274,
      "purchasers": 6275,
      "prere": 6276,
      "mom": 6277,
      "disappro": 6278,
      "##itably": 6279,
      "discussing": 6280,
      "thres": 6281,
      "doub": 6282,
      "attributable": 6283,
      "examiner": 6284,
      "sun": 6285,
      "compulsory": 6286,
      "completed": 6287,
      "##anor": 6288,
      "plus": 6289,
      "mitchell": 6290,
      "link": 6291,
      "pere": 6292,
      "##lines": 6293,
      "##alle": 6294,
      "##inger": 6295,
      "maintaining": 6296,
      "purchaser": 6297,
      "vice": 6298,
      "categor": 6299,
      "patents": 6300,
      "repeal": 6301,
      "tool": 6302,
      "525": 6303,
      "combined": 6304,
      "felt": 6305,
      "attached": 6306,
      "vast": 6307,
      "entering": 6308,
      "earnings": 6309,
      "703": 6310,
      "invalidated": 6311,
      "manufacturer": 6312,
      "undou": 6313,
      "roe": 6314,
      "cease": 6315,
      "##ba": 6316,
      "turns": 6317,
      "reconsideration": 6318,
      "##lementing": 6319,
      "straight": 6320,
      "listed": 6321,
      "##rick": 6322,
      "debates": 6323,
      "construe": 6324,
      "harass": 6325,
      "563": 6326,
      "deliberate": 6327,
      "undoubted": 6328,
      "math": 6329,
      "selective": 6330,
      "desegregation": 6331,
      "##ients": 6332,
      "##ano": 6333,
      "stress": 6334,
      "threshold": 6335,
      "describe": 6336,
      "examples": 6337,
      "embodied": 6338,
      "progress": 6339,
      "destr": 6340,
      "clean": 6341,
      "phillips": 6342,
      "gather": 6343,
      "hun": 6344,
      "ends": 6345,
      "excluding": 6346,
      "targe": 6347,
      "##aneous": 6348,
      "##dc": 6349,
      "postal": 6350,
      "1936": 6351,
      "enhance": 6352,
      "abstr": 6353,
      "misdeme": 6354,
      "plaus": 6355,
      "sheriff": 6356,
      "ash": 6357,
      "##ime": 6358,
      "replace": 6359,
      "incentive": 6360,
      "reveals": 6361,
      "##ander": 6362,
      "disabled": 6363,
      "##tivity": 6364,
      "mcf": 6365,
      "automatically": 6366,
      "gam": 6367,
      "immunities": 6368,
      "incumbent": 6369,
      "involuntary": 6370,
      "writs": 6371,
      "laid": 6372,
      "indirectly": 6373,
      "fiduc": 6374,
      "barri": 6375,
      "indigent": 6376,
      "write": 6377,
      "ey": 6378,
      "reality": 6379,
      "pursue": 6380,
      "hawa": 6381,
      "protective": 6382,
      "votes": 6383,
      "processing": 6384,
      "warrants": 6385,
      "psychiat": 6386,
      "families": 6387,
      "##stone": 6388,
      "allege": 6389,
      "legislators": 6390,
      "##aid": 6391,
      "permission": 6392,
      "presump": 6393,
      "vessels": 6394,
      "chem": 6395,
      "presently": 6396,
      "levels": 6397,
      "tradem": 6398,
      "districting": 6399,
      "##key": 6400,
      "indicating": 6401,
      "answered": 6402,
      "suffer": 6403,
      "stopp": 6404,
      "##ework": 6405,
      "spent": 6406,
      "periods": 6407,
      "##mont": 6408,
      "block": 6409,
      "ho": 6410,
      "conting": 6411,
      "idaho": 6412,
      "respecting": 6413,
      "observation": 6414,
      "ber": 6415,
      "##head": 6416,
      "##eller": 6417,
      "##zing": 6418,
      "thor": 6419,
      "conserv": 6420,
      "constitu": 6421,
      "536": 6422,
      "rhod": 6423,
      "##anta": 6424,
      "enforceable": 6425,
      "safeguard": 6426,
      "##question": 6427,
      "vehicles": 6428,
      "prerequ": 6429,
      "529": 6430,
      "calls": 6431,
      "bail": 6432,
      "approve": 6433,
      "alternatives": 6434,
      "participating": 6435,
      "angeles": 6436,
      "assault": 6437,
      "pricing": 6438,
      "##rete": 6439,
      "sac": 6440,
      "drawing": 6441,
      "discipline": 6442,
      "cig": 6443,
      "executed": 6444,
      "548": 6445,
      "reserves": 6446,
      "larger": 6447,
      "##livan": 6448,
      "marketing": 6449,
      "discovered": 6450,
      "balancing": 6451,
      "##point": 6452,
      "ca3": 6453,
      "allowance": 6454,
      "shortly": 6455,
      "sullivan": 6456,
      "##ompe": 6457,
      "racially": 6458,
      "thereto": 6459,
      "kep": 6460,
      "unquestion": 6461,
      "neigh": 6462,
      "##emy": 6463,
      "##roc": 6464,
      "communities": 6465,
      "doct": 6466,
      "acquire": 6467,
      "aimed": 6468,
      "tob": 6469,
      "priority": 6470,
      "##olds": 6471,
      "fle": 6472,
      "unconstitutionally": 6473,
      "mac": 6474,
      "preclear": 6475,
      "555": 6476,
      "564": 6477,
      "surrounding": 6478,
      "##ians": 6479,
      "units": 6480,
      "##ucker": 6481,
      "jour": 6482,
      "answers": 6483,
      "disparate": 6484,
      "discoura": 6485,
      "##bling": 6486,
      "coercion": 6487,
      "##oks": 6488,
      "##repres": 6489,
      "devi": 6490,
      "##lantic": 6491,
      "shif": 6492,
      "genu": 6493,
      "nondiscrimin": 6494,
      "sea": 6495,
      "respectfully": 6496,
      "currently": 6497,
      "abandoned": 6498,
      "uncon": 6499,
      "plants": 6500,
      "conscious": 6501,
      "story": 6502,
      "holdings": 6503,
      "tenth": 6504,
      "yield": 6505,
      "ft": 6506,
      "rank": 6507,
      "##table": 6508,
      "around": 6509,
      "549": 6510,
      "desirable": 6511,
      "wid": 6512,
      "features": 6513,
      "treaties": 6514,
      "narcotics": 6515,
      "stan": 6516,
      "moment": 6517,
      "restraining": 6518,
      "ignore": 6519,
      "totally": 6520,
      "unduly": 6521,
      "adopting": 6522,
      "evaluation": 6523,
      "clerk": 6524,
      "##vin": 6525,
      "differently": 6526,
      "exemptions": 6527,
      "machin": 6528,
      "proving": 6529,
      "prohibitions": 6530,
      "cogniz": 6531,
      "heavily": 6532,
      "possessed": 6533,
      "kill": 6534,
      "occurs": 6535,
      "##ny": 6536,
      "comprom": 6537,
      "implementing": 6538,
      "valley": 6539,
      "##riety": 6540,
      "assurance": 6541,
      "routine": 6542,
      "interfer": 6543,
      "admissible": 6544,
      "engineers": 6545,
      "ca8": 6546,
      "obscenity": 6547,
      "programming": 6548,
      "strongly": 6549,
      "2254": 6550,
      "hew": 6551,
      "subcontr": 6552,
      "##ynolds": 6553,
      "confirmed": 6554,
      "ray": 6555,
      "toler": 6556,
      "##ompetitive": 6557,
      "stor": 6558,
      "##ulf": 6559,
      "firearm": 6560,
      "partnership": 6561,
      "worked": 6562,
      "551": 6563,
      "lyn": 6564,
      "rap": 6565,
      "quanti": 6566,
      "contempl": 6567,
      "ment": 6568,
      "586": 6569,
      "rand": 6570,
      "##each": 6571,
      "##acco": 6572,
      "purported": 6573,
      "frivolous": 6574,
      "honor": 6575,
      "paying": 6576,
      "jurisdictions": 6577,
      "guide": 6578,
      "potentially": 6579,
      "##minent": 6580,
      "domain": 6581,
      "concrete": 6582,
      "fer": 6583,
      "conflicts": 6584,
      "segregated": 6585,
      "prevented": 6586,
      "redistricting": 6587,
      "boston": 6588,
      "negative": 6589,
      "suggesting": 6590,
      "citations": 6591,
      "lies": 6592,
      "automatic": 6593,
      "rape": 6594,
      "##ki": 6595,
      "##iles": 6596,
      "mortgage": 6597,
      "fraudulent": 6598,
      "##cel": 6599,
      "qualification": 6600,
      "wholesale": 6601,
      "1920": 6602,
      "premium": 6603,
      "licensee": 6604,
      "exped": 6605,
      "engaging": 6606,
      "performing": 6607,
      "deposit": 6608,
      "raises": 6609,
      "mills": 6610,
      "anc": 6611,
      "lawfully": 6612,
      "monopol": 6613,
      "ta": 6614,
      "wanted": 6615,
      "finality": 6616,
      "imag": 6617,
      "van": 6618,
      "tender": 6619,
      "reed": 6620,
      "frustr": 6621,
      "pool": 6622,
      "diction": 6623,
      "bars": 6624,
      "stockholders": 6625,
      "uncertainty": 6626,
      "independently": 6627,
      "reop": 6628,
      "suc": 6629,
      "consult": 6630,
      "overall": 6631,
      "insure": 6632,
      "maine": 6633,
      "575": 6634,
      "studies": 6635,
      "##upp": 6636,
      "incon": 6637,
      "560": 6638,
      "mutual": 6639,
      "##ffer": 6640,
      "allegation": 6641,
      "accommodation": 6642,
      "pages": 6643,
      "silent": 6644,
      "interloc": 6645,
      "quar": 6646,
      "cigar": 6647,
      "yes": 6648,
      "liquidation": 6649,
      "atlantic": 6650,
      "negotiations": 6651,
      "stands": 6652,
      "contribute": 6653,
      "agricultural": 6654,
      "licensed": 6655,
      "katz": 6656,
      "##iro": 6657,
      "2006": 6658,
      "ignores": 6659,
      "unwilling": 6660,
      "receipts": 6661,
      "unb": 6662,
      "allot": 6663,
      "extending": 6664,
      "economy": 6665,
      "creditor": 6666,
      "genuine": 6667,
      "testing": 6668,
      "mur": 6669,
      "stone": 6670,
      "break": 6671,
      "comparison": 6672,
      "##west": 6673,
      "predecess": 6674,
      "ny": 6675,
      "ca6": 6676,
      "film": 6677,
      "eliminated": 6678,
      "reynolds": 6679,
      "##adel": 6680,
      "embrac": 6681,
      "rog": 6682,
      "unemploy": 6683,
      "homes": 6684,
      "##rof": 6685,
      "officeholders": 6686,
      "intellig": 6687,
      "deep": 6688,
      "##osis": 6689,
      "margin": 6690,
      "framework": 6691,
      "store": 6692,
      "occasions": 6693,
      "00": 6694,
      "568": 6695,
      "nomin": 6696,
      "impairment": 6697,
      "tobacco": 6698,
      "toll": 6699,
      "americans": 6700,
      "557": 6701,
      "analogous": 6702,
      "houses": 6703,
      "617": 6704,
      "confusion": 6705,
      "across": 6706,
      "seam": 6707,
      "554": 6708,
      "referring": 6709,
      "##ectiveness": 6710,
      "basin": 6711,
      "recipient": 6712,
      "twice": 6713,
      "calculated": 6714,
      "save": 6715,
      "##reciation": 6716,
      "movement": 6717,
      "schedule": 6718,
      "figure": 6719,
      "outset": 6720,
      "essence": 6721,
      "701": 6722,
      "griffin": 6723,
      "propriety": 6724,
      "##cher": 6725,
      "directors": 6726,
      "bringing": 6727,
      "cars": 6728,
      "hend": 6729,
      "538": 6730,
      "utter": 6731,
      "impeach": 6732,
      "loy": 6733,
      "ware": 6734,
      "instituted": 6735,
      "hypothe": 6736,
      "confronted": 6737,
      "administered": 6738,
      "rulings": 6739,
      "608": 6740,
      "1866": 6741,
      "rout": 6742,
      "537": 6743,
      "##cess": 6744,
      "acad": 6745,
      "invasion": 6746,
      "uniformity": 6747,
      "kept": 6748,
      "606": 6749,
      "acceptable": 6750,
      "recommendation": 6751,
      "classified": 6752,
      "institutional": 6753,
      "584": 6754,
      "daily": 6755,
      "clin": 6756,
      "succeed": 6757,
      "bay": 6758,
      "appra": 6759,
      "disclosed": 6760,
      "patient": 6761,
      "libel": 6762,
      "03": 6763,
      "fores": 6764,
      "steph": 6765,
      "540": 6766,
      "factf": 6767,
      "achieved": 6768,
      "distinctions": 6769,
      "poor": 6770,
      "receives": 6771,
      "cro": 6772,
      "transmission": 6773,
      "sectarian": 6774,
      "closing": 6775,
      "pipe": 6776,
      "acquittal": 6777,
      "site": 6778,
      "reply": 6779,
      "##ivoc": 6780,
      "##lamation": 6781,
      "table": 6782,
      "##pped": 6783,
      "suspended": 6784,
      "mus": 6785,
      "codified": 6786,
      "tucker": 6787,
      "abstract": 6788,
      "relate": 6789,
      "##rating": 6790,
      "indemn": 6791,
      "proceeded": 6792,
      "advantages": 6793,
      "accurate": 6794,
      "levy": 6795,
      "##acp": 6796,
      "comments": 6797,
      "federally": 6798,
      "610": 6799,
      "handic": 6800,
      "fishing": 6801,
      "situated": 6802,
      "kinds": 6803,
      "routes": 6804,
      "figures": 6805,
      "emotion": 6806,
      "##vive": 6807,
      "magn": 6808,
      "globe": 6809,
      "##rect": 6810,
      "##encing": 6811,
      "683": 6812,
      "warrantless": 6813,
      "avoiding": 6814,
      "clarif": 6815,
      "remote": 6816,
      "charging": 6817,
      "intervene": 6818,
      "chev": 6819,
      "punished": 6820,
      "persuaded": 6821,
      "team": 6822,
      "typical": 6823,
      "inevitably": 6824,
      "tribunal": 6825,
      "undoubtedly": 6826,
      "##olic": 6827,
      "naacp": 6828,
      "incorrect": 6829,
      "convincing": 6830,
      "##tifying": 6831,
      "##urs": 6832,
      "trig": 6833,
      "##tz": 6834,
      "##umin": 6835,
      "cox": 6836,
      "elabor": 6837,
      "665": 6838,
      "lacks": 6839,
      "##ults": 6840,
      "numbers": 6841,
      "mari": 6842,
      "condem": 6843,
      "night": 6844,
      "anim": 6845,
      "dual": 6846,
      "##ero": 6847,
      "##iling": 6848,
      "contest": 6849,
      "05": 6850,
      "725": 6851,
      "involvement": 6852,
      "shaw": 6853,
      "attain": 6854,
      "track": 6855,
      "component": 6856,
      "##fers": 6857,
      "##acture": 6858,
      "##ched": 6859,
      "surveill": 6860,
      "bed": 6861,
      "quo": 6862,
      "effici": 6863,
      "increasing": 6864,
      "branches": 6865,
      "fiduciary": 6866,
      "fisc": 6867,
      "633": 6868,
      "volume": 6869,
      "affidavits": 6870,
      "mf": 6871,
      "582": 6872,
      "##dle": 6873,
      "hire": 6874,
      "##adelph": 6875,
      "##ko": 6876,
      "supervisory": 6877,
      "philadelph": 6878,
      "compensatory": 6879,
      "indef": 6880,
      "924": 6881,
      "mix": 6882,
      "ran": 6883,
      "tor": 6884,
      "whit": 6885,
      "top": 6886,
      "probability": 6887,
      "initiated": 6888,
      "exceeded": 6889,
      "##troll": 6890,
      "continental": 6891,
      "manufacture": 6892,
      "cab": 6893,
      "philadelphia": 6894,
      "##atement": 6895,
      "609": 6896,
      "select": 6897,
      "pleas": 6898,
      "god": 6899,
      "paralle": 6900,
      "references": 6901,
      "dictionary": 6902,
      "##edent": 6903,
      "shield": 6904,
      "desired": 6905,
      "shop": 6906,
      "##ourse": 6907,
      "flag": 6908,
      "hot": 6909,
      "chec": 6910,
      "barn": 6911,
      "manufacturing": 6912,
      "adversely": 6913,
      "ample": 6914,
      "editor": 6915,
      "ix": 6916,
      "jap": 6917,
      "pt": 6918,
      "apportion": 6919,
      "motive": 6920,
      "stamp": 6921,
      "##rey": 6922,
      "patients": 6923,
      "##eded": 6924,
      "ca4": 6925,
      "1932": 6926,
      "##craft": 6927,
      "enumerated": 6928,
      "ba": 6929,
      "showed": 6930,
      "rip": 6931,
      "570": 6932,
      "misle": 6933,
      "dispositive": 6934,
      "800": 6935,
      "induce": 6936,
      "##terson": 6937,
      "representing": 6938,
      "##avy": 6939,
      "589": 6940,
      "scott": 6941,
      "japan": 6942,
      "burgl": 6943,
      "indisp": 6944,
      "projects": 6945,
      "pit": 6946,
      "concent": 6947,
      "conducting": 6948,
      "624": 6949,
      "kir": 6950,
      "picture": 6951,
      "divor": 6952,
      "coup": 6953,
      "##amount": 6954,
      "facto": 6955,
      "eventually": 6956,
      "abandonment": 6957,
      "605": 6958,
      "disciplin": 6959,
      "impartial": 6960,
      "businesses": 6961,
      "hawaii": 6962,
      "shel": 6963,
      "wheat": 6964,
      "judicially": 6965,
      "explaining": 6966,
      "hor": 6967,
      "wind": 6968,
      "founded": 6969,
      "revealed": 6970,
      "apartment": 6971,
      "##iated": 6972,
      "longshore": 6973,
      "pleading": 6974,
      "birth": 6975,
      "feas": 6976,
      "supposed": 6977,
      "##tisan": 6978,
      "rosen": 6979,
      "urge": 6980,
      "recipients": 6981,
      "##sell": 6982,
      "565": 6983,
      "ala": 6984,
      "veterans": 6985,
      "undisp": 6986,
      "##actory": 6987,
      "616": 6988,
      "ferc": 6989,
      "##rel": 6990,
      "vig": 6991,
      "offensive": 6992,
      "621": 6993,
      "shippers": 6994,
      "regime": 6995,
      "ambiguity": 6996,
      "pick": 6997,
      "controls": 6998,
      "##onet": 6999,
      "##lands": 7000,
      "distributed": 7001,
      "retard": 7002,
      "squarely": 7003,
      "electr": 7004,
      "heavy": 7005,
      "grad": 7006,
      "553": 7007,
      "historic": 7008,
      "561": 7009,
      "teaching": 7010,
      "fort": 7011,
      "trou": 7012,
      "assumes": 7013,
      "evaluate": 7014,
      "tailored": 7015,
      "adversary": 7016,
      "effectiveness": 7017,
      "mistaken": 7018,
      "channels": 7019,
      "misc": 7020,
      "##face": 7021,
      "##ede": 7022,
      "618": 7023,
      "chevron": 7024,
      "##inite": 7025,
      "##tress": 7026,
      "focused": 7027,
      "reaches": 7028,
      "accepting": 7029,
      "cohen": 7030,
      "wild": 7031,
      "##do": 7032,
      "unfor": 7033,
      "supers": 7034,
      "hop": 7035,
      "643": 7036,
      "edwards": 7037,
      "613": 7038,
      "treating": 7039,
      "broadcasters": 7040,
      "surveillance": 7041,
      "undisputed": 7042,
      "bon": 7043,
      "##fo": 7044,
      "577": 7045,
      "mentally": 7046,
      "hypothetical": 7047,
      "##ilton": 7048,
      "612": 7049,
      "mcdon": 7050,
      "relationships": 7051,
      "disagreement": 7052,
      "surrender": 7053,
      "endors": 7054,
      "##ews": 7055,
      "fundament": 7056,
      "coastal": 7057,
      "1927": 7058,
      "litigant": 7059,
      "reck": 7060,
      "##acting": 7061,
      "piec": 7062,
      "reaffirmed": 7063,
      "photograph": 7064,
      "##ez": 7065,
      "abst": 7066,
      "directing": 7067,
      "transport": 7068,
      "beneficiary": 7069,
      "implicitly": 7070,
      "pont": 7071,
      "exposure": 7072,
      "willful": 7073,
      "survive": 7074,
      "customer": 7075,
      "driver": 7076,
      "incidental": 7077,
      "hugh": 7078,
      "##no": 7079,
      "##owed": 7080,
      "spir": 7081,
      "lewis": 7082,
      "neighbor": 7083,
      "reapportionment": 7084,
      "##teen": 7085,
      "schem": 7086,
      "boards": 7087,
      "dollars": 7088,
      "resale": 7089,
      "556": 7090,
      "profess": 7091,
      "aggregate": 7092,
      "##och": 7093,
      "##gun": 7094,
      "immune": 7095,
      "libr": 7096,
      "571": 7097,
      "blacks": 7098,
      "correction": 7099,
      "bat": 7100,
      "contex": 7101,
      "fisher": 7102,
      "overcome": 7103,
      "sharp": 7104,
      "improperly": 7105,
      "##onial": 7106,
      "ide": 7107,
      "vermont": 7108,
      "purchases": 7109,
      "658": 7110,
      "furnished": 7111,
      "weapon": 7112,
      "evans": 7113,
      "656": 7114,
      "stem": 7115,
      "leases": 7116,
      "##ousand": 7117,
      "reliable": 7118,
      "running": 7119,
      "thousand": 7120,
      "##uccess": 7121,
      "highway": 7122,
      "financing": 7123,
      "got": 7124,
      "avo": 7125,
      "admissions": 7126,
      "incriminating": 7127,
      "misdemeanor": 7128,
      "refr": 7129,
      "seizures": 7130,
      "preserving": 7131,
      "##onetary": 7132,
      "unsuccess": 7133,
      "trademark": 7134,
      "nevada": 7135,
      "##uper": 7136,
      "alto": 7137,
      "742": 7138,
      "sd": 7139,
      "##astic": 7140,
      "denies": 7141,
      "favored": 7142,
      "delegated": 7143,
      "##ots": 7144,
      "heart": 7145,
      "585": 7146,
      "exactly": 7147,
      "hudson": 7148,
      "##soever": 7149,
      "opposite": 7150,
      "702": 7151,
      "petro": 7152,
      "shift": 7153,
      "632": 7154,
      "someone": 7155,
      "inherently": 7156,
      "##place": 7157,
      "spouse": 7158,
      "562": 7159,
      "avoided": 7160,
      "hereby": 7161,
      "nlra": 7162,
      "newspapers": 7163,
      "christ": 7164,
      "undertaken": 7165,
      "##ky": 7166,
      "league": 7167,
      "federalism": 7168,
      "whereby": 7169,
      "commodities": 7170,
      "fet": 7171,
      "lod": 7172,
      "##anger": 7173,
      "spend": 7174,
      "##missibly": 7175,
      "559": 7176,
      "strikes": 7177,
      "civilian": 7178,
      "entitlement": 7179,
      "##ivable": 7180,
      "entail": 7181,
      "german": 7182,
      "668": 7183,
      "strictly": 7184,
      "##iter": 7185,
      "enroll": 7186,
      "##mination": 7187,
      "affects": 7188,
      "democr": 7189,
      "prerequisite": 7190,
      "bud": 7191,
      "parker": 7192,
      "abol": 7193,
      "discern": 7194,
      "nondiscriminatory": 7195,
      "negl": 7196,
      "574": 7197,
      "581": 7198,
      "fiscal": 7199,
      "nonres": 7200,
      "833": 7201,
      "logic": 7202,
      "##abilitation": 7203,
      "lose": 7204,
      "sam": 7205,
      "##iaries": 7206,
      "##mpted": 7207,
      "contents": 7208,
      "commissions": 7209,
      "marked": 7210,
      "declare": 7211,
      "rehabilitation": 7212,
      "dilution": 7213,
      "defenses": 7214,
      "symb": 7215,
      "participants": 7216,
      "compared": 7217,
      "##say": 7218,
      "warranted": 7219,
      "##worth": 7220,
      "settle": 7221,
      "rede": 7222,
      "hay": 7223,
      "##tered": 7224,
      "altogether": 7225,
      "warning": 7226,
      "monetary": 7227,
      "indicted": 7228,
      "blood": 7229,
      "bag": 7230,
      "male": 7231,
      "commence": 7232,
      "##ills": 7233,
      "os": 7234,
      "unex": 7235,
      "576": 7236,
      "turner": 7237,
      "statistics": 7238,
      "whatsoever": 7239,
      "boundary": 7240,
      "##rieved": 7241,
      "parallel": 7242,
      "gulf": 7243,
      "tac": 7244,
      "moving": 7245,
      "convinced": 7246,
      "leon": 7247,
      "gerry": 7248,
      "presentation": 7249,
      "implicated": 7250,
      "preservation": 7251,
      "##ariness": 7252,
      "##arcer": 7253,
      "really": 7254,
      "##verted": 7255,
      "imply": 7256,
      "##ram": 7257,
      "##iders": 7258,
      "reluct": 7259,
      "##ficial": 7260,
      "567": 7261,
      "precludes": 7262,
      "rent": 7263,
      "disse": 7264,
      "terry": 7265,
      "absolutely": 7266,
      "murphy": 7267,
      "fem": 7268,
      "prevents": 7269,
      "622": 7270,
      "hereafter": 7271,
      "disprop": 7272,
      "unemployment": 7273,
      "inspect": 7274,
      "trading": 7275,
      "minimal": 7276,
      "emotional": 7277,
      "perv": 7278,
      "approving": 7279,
      "unequivoc": 7280,
      "inequ": 7281,
      "593": 7282,
      "affirming": 7283,
      "issuing": 7284,
      "solution": 7285,
      "warren": 7286,
      "disciplinary": 7287,
      "estopp": 7288,
      "waive": 7289,
      "01": 7290,
      "revocation": 7291,
      "estimated": 7292,
      "unjust": 7293,
      "undermine": 7294,
      "henry": 7295,
      "print": 7296,
      "decrees": 7297,
      "technology": 7298,
      "deliberately": 7299,
      "keeping": 7300,
      "mechanism": 7301,
      "bias": 7302,
      "merc": 7303,
      "interm": 7304,
      "suffice": 7305,
      "grievances": 7306,
      "##lays": 7307,
      "##ches": 7308,
      "transfers": 7309,
      "flat": 7310,
      "bounds": 7311,
      "publishing": 7312,
      "##tt": 7313,
      "604": 7314,
      "placing": 7315,
      "cance": 7316,
      "announce": 7317,
      "foreclose": 7318,
      "trigger": 7319,
      "violent": 7320,
      "longstanding": 7321,
      "superint": 7322,
      "addressing": 7323,
      "hazard": 7324,
      "repealed": 7325,
      "suspend": 7326,
      "summar": 7327,
      "adjustments": 7328,
      "undertake": 7329,
      "coercive": 7330,
      "disproportion": 7331,
      "asking": 7332,
      "##irms": 7333,
      "gray": 7334,
      "certainty": 7335,
      "##atic": 7336,
      "##owner": 7337,
      "contracting": 7338,
      "borrow": 7339,
      "newly": 7340,
      "2000e": 7341,
      "##low": 7342,
      "fines": 7343,
      "667": 7344,
      "pleaded": 7345,
      "confidence": 7346,
      "planning": 7347,
      "naturalization": 7348,
      "aircraft": 7349,
      "##eased": 7350,
      "interpretations": 7351,
      "dup": 7352,
      "sla": 7353,
      "##aly": 7354,
      "explor": 7355,
      "proposals": 7356,
      "condemned": 7357,
      "##iley": 7358,
      "aven": 7359,
      "nuc": 7360,
      "manual": 7361,
      "formulation": 7362,
      "##missibility": 7363,
      "chooses": 7364,
      "rus": 7365,
      "##tively": 7366,
      "compulsion": 7367,
      "##abilities": 7368,
      "securing": 7369,
      "marine": 7370,
      "1926": 7371,
      "opening": 7372,
      "dic": 7373,
      "differenti": 7374,
      "607": 7375,
      "files": 7376,
      "offering": 7377,
      "withdrawal": 7378,
      "##uge": 7379,
      "offenders": 7380,
      "579": 7381,
      "returns": 7382,
      "569": 7383,
      "friend": 7384,
      "##orters": 7385,
      "spok": 7386,
      "posed": 7387,
      "empowered": 7388,
      "fundamentally": 7389,
      "invent": 7390,
      "formed": 7391,
      "scienti": 7392,
      "629": 7393,
      "expiration": 7394,
      "successive": 7395,
      "promptly": 7396,
      "foreclosed": 7397,
      "##ease": 7398,
      "interlocutory": 7399,
      "bona": 7400,
      "##leum": 7401,
      "unm": 7402,
      "airlines": 7403,
      "illegiti": 7404,
      "##itative": 7405,
      "ads": 7406,
      "corps": 7407,
      "aggrieved": 7408,
      "gerrym": 7409,
      "thorn": 7410,
      "##actor": 7411,
      "bondholders": 7412,
      "##ded": 7413,
      "##sters": 7414,
      "attr": 7415,
      "##amus": 7416,
      "circuits": 7417,
      "reservations": 7418,
      "vict": 7419,
      "adhere": 7420,
      "prosecuted": 7421,
      "ross": 7422,
      "continues": 7423,
      "royal": 7424,
      "ky": 7425,
      "##oul": 7426,
      "##imination": 7427,
      "1931": 7428,
      "unwarr": 7429,
      "navigation": 7430,
      "petroleum": 7431,
      "enjoyed": 7432,
      "##elson": 7433,
      "boycott": 7434,
      "inability": 7435,
      "accomplished": 7436,
      "wholesal": 7437,
      "perceived": 7438,
      "effectuate": 7439,
      "##tio": 7440,
      "elimination": 7441,
      "anticipated": 7442,
      "withholding": 7443,
      "doubts": 7444,
      "cath": 7445,
      "##tail": 7446,
      "##oning": 7447,
      "federation": 7448,
      "definite": 7449,
      "mandamus": 7450,
      "ineffective": 7451,
      "inex": 7452,
      "parental": 7453,
      "672": 7454,
      "novo": 7455,
      "##uana": 7456,
      "pharm": 7457,
      "incarcer": 7458,
      "attendance": 7459,
      "590": 7460,
      "abro": 7461,
      "##oked": 7462,
      "prosecutors": 7463,
      "worker": 7464,
      "salary": 7465,
      "connected": 7466,
      "misrepres": 7467,
      "gib": 7468,
      "adea": 7469,
      "induc": 7470,
      "assured": 7471,
      "convict": 7472,
      "feet": 7473,
      "596": 7474,
      "dun": 7475,
      "disease": 7476,
      "636": 7477,
      "shipper": 7478,
      "accompanying": 7479,
      "##ounded": 7480,
      "personally": 7481,
      "valuation": 7482,
      "adding": 7483,
      "blue": 7484,
      "pict": 7485,
      "start": 7486,
      "anticompetitive": 7487,
      "overturn": 7488,
      "ore": 7489,
      "wade": 7490,
      "insured": 7491,
      "crow": 7492,
      "ec": 7493,
      "renders": 7494,
      "##xic": 7495,
      "leaders": 7496,
      "##engers": 7497,
      "##anged": 7498,
      "films": 7499,
      "senators": 7500,
      "550": 7501,
      "affiliated": 7502,
      "unwarranted": 7503,
      "dealer": 7504,
      "##olved": 7505,
      "commonly": 7506,
      "558": 7507,
      "choices": 7508,
      "easy": 7509,
      "677": 7510,
      "##held": 7511,
      "##tious": 7512,
      "christian": 7513,
      "##ulture": 7514,
      "relates": 7515,
      "afdc": 7516,
      "condemnation": 7517,
      "lt": 7518,
      "irs": 7519,
      "affirmatively": 7520,
      "malice": 7521,
      "comptroll": 7522,
      "conceal": 7523,
      "bodies": 7524,
      "comptroller": 7525,
      "##erald": 7526,
      "complic": 7527,
      "641": 7528,
      "journ": 7529,
      "withheld": 7530,
      "##urally": 7531,
      "##tum": 7532,
      "631": 7533,
      "punishable": 7534,
      "unquestionably": 7535,
      "height": 7536,
      "##erto": 7537,
      "##ulating": 7538,
      "agriculture": 7539,
      "##pper": 7540,
      "##ows": 7541,
      "composition": 7542,
      "earned": 7543,
      "##bl": 7544,
      "suppose": 7545,
      "glass": 7546,
      "dall": 7547,
      "capr": 7548,
      "630": 7549,
      "credibility": 7550,
      "details": 7551,
      "reinstate": 7552,
      "chemical": 7553,
      "misleading": 7554,
      "leads": 7555,
      "acknowledges": 7556,
      "deficiency": 7557,
      "##lim": 7558,
      "defect": 7559,
      "##apped": 7560,
      "teacher": 7561,
      "##angible": 7562,
      "editorial": 7563,
      "passengers": 7564,
      "hardship": 7565,
      "##aur": 7566,
      "614": 7567,
      "contexts": 7568,
      "740": 7569,
      "preserved": 7570,
      "delin": 7571,
      "pertain": 7572,
      "discon": 7573,
      "string": 7574,
      "572": 7575,
      "covering": 7576,
      "##icts": 7577,
      "observe": 7578,
      "##ican": 7579,
      "richardson": 7580,
      "715": 7581,
      "solicit": 7582,
      "jac": 7583,
      "implies": 7584,
      "puerto": 7585,
      "thorough": 7586,
      "hughes": 7587,
      "stores": 7588,
      "##idge": 7589,
      "disclaim": 7590,
      "minors": 7591,
      "runs": 7592,
      "independence": 7593,
      "##pl": 7594,
      "responded": 7595,
      "carries": 7596,
      "04": 7597,
      "norris": 7598,
      "611": 7599,
      "648": 7600,
      "explains": 7601,
      "investigations": 7602,
      "conscienti": 7603,
      "electronic": 7604,
      "reliability": 7605,
      "678": 7606,
      "##ara": 7607,
      "positive": 7608,
      "consumm": 7609,
      "repud": 7610,
      "obst": 7611,
      "subjective": 7612,
      "##antly": 7613,
      "artific": 7614,
      "practicable": 7615,
      "unknow": 7616,
      "depreciation": 7617,
      "731": 7618,
      "surface": 7619,
      "investigate": 7620,
      "##elig": 7621,
      "predicate": 7622,
      "delinqu": 7623,
      "doe": 7624,
      "facial": 7625,
      "participated": 7626,
      "disposal": 7627,
      "preclearance": 7628,
      "700": 7629
    }
  }
}