[PAD]
[UNK]
[CLS]
[SEP]
[MASK]
!
"
#
$
%
&
'
(
)
*
+
,
-
.
/
0
1
2
3
4
5
6
7
8
9
:
;
<
=
>
?
@
[
]
_
`
a
b
c
d
e
f
g
h
i
j
k
l
m
n
o
p
q
r
s
t
u
v
w
x
y
z
{
|
}
~
¦
§
®
¶
·
¸
º
½
æ
ø
†
‡
™
##a
##1
##m
##b
##l
##n
##c
##e
##t
##d
##v
##o
##i
##f
##r
##s
##u
##y
##8
##5
##2
##g
##3
##9
##k
##p
##z
##h
##0
##w
##7
##4
##6
##x
##ø
##q
##j
##½
##æ
##®
##™
##¸
th
the
##on
##er
##ti
##en
##es
##ed
##at
##in
of
##or
in
##al
##is
##tion
##nd
to
##ou
##it
##ar
##an
##ic
##ent
##ec
##as
##ing
##re
##ro
and
re
that
con
##ot
st
##ly
##le
##ation
##ce
##st
##se
##om
be
##ur
cou
pro
is
##ment
##id
su
for
wh
##ate
##ve
##ts
##il
##ri
an
as
on
##th
##ac
##pp
##ir
cour
##ion
##ol
##ess
or
##ter
not
at
##ver
19
##ut
de
court
com
##ith
by
ac
##ig
##mp
dis
it
ex
##ad
se
##ul
app
un
##ers
##ab
##ld
with
al
stat
##tin
##la
##ow
##us
##im
##ch
##ity
##tr
##end
was
##ay
this
##qu
##ting
##ud
##ted
##ff
pr
res
##ain
##ere
##ge
state
##el
##ther
##ich
comm
cons
##os
##and
ad
##eral
##am
no
sh
##ant
which
##igh
en
he
##ould
par
ch
cas
ha
##for
##ect
##tive
##ew
see
##li
are
##rom
##ence
we
##min
from
und
##ard
##tu
##vid
##aw
##uc
le
##ary
##ited
states
##able
am
under
##tic
co
ag
##pon
have
its
inter
ar
comp
##not
##ress
##te
any
##use
##lic
do
##fic
##un
##ial
##ty
##ations
law
##ated
would
##ra
##ust
dec
fo
##iss
##ision
##cl
##tions
##lo
ind
pe
has
##um
me
##ven
rec
##ak
##tric
##over
##per
such
his
united
sub
##ose
act
##gh
jud
requ
##all
imp
foot
##est
fed
footnot
there
##iti
##ance
##iz
but
##ue
qu
##ight
cla
tr
case
per
federal
##ib
footnote
sec
cong
##ous
##ure
may
##tition
##od
##act
##ill
all
##ally
##ip
emp
##ort
def
##oc
##ough
were
##titu
##ef
ass
##ory
other
ne
##ree
had
statut
distric
petition
vi
##ause
appe
##ell
reg
if
##titution
sp
##ail
rep
ab
exp
##ish
congress
##ord
197
##ition
##tain
jur
district
pres
##ens
##ission
##gu
gr
##ments
10
##ore
inc
##ans
their
##overn
##tice
govern
id
been
int
##iv
respon
##ice
bec
##duc
##vi
##als
ob
##ome
pur
op
pre
only
##erv
amend
##ach
##loy
ord
fin
jus
gen
##ub
##em
supp
sup
##ound
##ason
so
##age
##ist
constitution
leg
one
##ges
pri
can
employ
##ia
##enc
acc
claim
##ign
cont
2d
198
commission
##ies
##op
##ke
they
##so
rem
inv
disc
##ire
##clud
##fore
tri
li
##old
proc
general
government
##ents
these
reason
pol
whe
##ax
##out
##ive
new
than
##ise
##ection
because
also
whether
provid
more
##ied
20
##uth
pers
11
decision
18
##ber
coun
eff
##anc
respond
pub
##ass
##fer
ques
##ings
when
##oin
##rimin
does
cor
iss
##sel
##inion
conc
##its
##ade
bas
opinion
who
##uthor
##lain
again
mo
tax
aff
pow
196
##ility
statute
author
cer
##ates
will
##ari
ca
fir
##ine
cases
prov
13
car
di
##ific
##str
12
##ged
evid
##ork
amendment
##our
regul
order
##ider
person
##iction
argu
el
public
##oth
att
pl
those
##ors
##ey
must
rel
deter
justice
how
dep
petitioner
##ong
##ected
offic
upon
tim
appeals
sch
us
##ule
first
against
##ack
consider
##ath
over
bo
contr
##ame
cir
mar
judg
fact
purp
require
##oll
ter
man
sa
15
serv
prot
##if
determin
right
##ative
evidence
##ll
rule
##rib
proper
question
##ities
lim
requir
viol
supra
here
provision
des
##ceed
##ational
##form
could
##ake
did
##mit
##ties
##wn
should
spec
circ
##cep
##og
##fter
##enti
##me
##oun
14
##ond
courts
our
##ever
##ear
appro
pos
judgment
##ating
legis
42
add
action
ins
##vers
some
before
char
cl
defend
stand
fa
trial
##we
##ms
time
##lish
power
part
##ast
##ized
##ved
held
mat
constitutional
even
##red
40
indi
##ights
##isd
16
br
diff
made
##res
##one
##clus
rights
proceed
applic
30
##ective
tw
##cc
##ense
39
##orn
te
33
however
est
out
17
nor
199
bet
where
##ants
##ide
jurisd
41
partic
##et
find
##ile
after
##tit
##ru
50
##ite
without
##ecess
##reat
shall
corp
##ible
jurisdiction
##ag
##view
##tiv
trans
hold
equ
fac
fil
##ult
conf
interest
37
within
cle
them
den
present
##mm
43
##ful
38
own
dir
34
min
##ual
##ap
##tical
same
##und
##led
##man
reli
28
##ject
35
bri
board
36
31
respondent
46
issue
25
##ici
##ween
two
45
ref
between
use
him
44
bar
review
##ret
22
diss
##road
##tim
##erc
##ular
jury
32
##con
gu
year
47
##ern
agree
##ently
##mb
commit
195
##osed
clear
21
view
##inc
49
section
val
##ool
sc
##urr
##ablish
##ee
##ank
brief
establish
what
necess
##ees
process
##ution
194
48
includ
into
29
##ost
##istr
##ency
##ances
found
##ph
##orney
attorney
disp
ben
##ability
##irm
ro
26
school
subst
both
standard
##ought
23
24
si
clause
prac
##urn
differ
invol
##are
##gin
sy
##ical
##son
go
mon
##clusion
##art
##tif
ii
defendant
##ious
work
produc
form
ext
##enn
set
##ority
##ving
##ither
##ok
cal
##struc
thus
proced
##pect
##fe
record
plain
##ince
four
effect
authority
pay
contro
##ures
mr
express
inj
sent
crimin
particular
##ie
oper
##ase
##gr
cannot
admin
av
purpose
##ended
union
conclud
conv
pros
##gation
inde
##ute
##ness
loc
criminal
rul
cause
27
prob
substan
filed
property
off
##unc
hear
poss
make
might
since
ante
matter
str
claims
polic
ma
##miss
petitioners
individ
##atory
prec
##ural
##lev
national
##ger
##les
##hib
fail
conduc
prop
##icial
concern
##urd
well
##00
##stem
##less
judge
imm
system
ph
required
##now
##reme
laws
repres
discrimin
##hip
fur
##lative
appell
##rit
##oses
##ather
war
party
non
service
priv
indic
##ollow
alle
princ
subject
princip
lab
affirm
ra
tes
follow
##self
need
circum
show
fund
judicial
##oint
hist
##enting
##ild
##ison
certain
ed
adv
er
further
civ
basis
##ount
maj
##gan
administr
##ages
direct
##ech
enfor
then
issu
thr
har
ret
bank
pp
##mitted
benef
##ects
supreme
each
##ention
##stances
##ry
dem
provisions
inform
##ogn
##erce
##lied
accord
recogn
class
legisl
ev
through
##ices
therefore
cond
suff
parties
statutory
##ys
##temp
##ably
while
51
##uring
nat
respondents
sug
represent
interp
##ange
##ays
##ks
##aking
##ss
cri
post
##ater
sign
##iness
tit
##av
sal
##ton
limit
second
##tee
read
beli
appeal
sen
labor
commerce
ste
rece
prohib
argued
##uit
common
mean
52
bus
ver
##allen
civil
spe
bl
##eric
plan
commun
dou
##ind
memb
##tis
members
lan
compan
excep
rev
proceedings
##iven
substanti
policy
certi
remed
legislative
challen
defin
long
rather
##pri
based
specific
doc
mer
reasonable
said
counsel
##though
##crib
respect
col
conduct
exerc
activ
cost
although
pa
like
opp
about
##ward
53
cre
##anted
broad
employees
sim
##ately
poli
circumstances
allow
york
fr
application
##ests
necessary
##par
eng
protection
result
relig
ground
##ential
support
three
less
dissenting
prosec
conclusion
langu
prior
holding
language
54
title
tex
##ortion
contract
given
##acy
americ
##bid
years
enforce
occ
due
most
cf
private
business
193
##enth
now
individual
course
land
provided
##ided
abs
pass
##sequ
pla
##hing
ful
inf
cap
enter
committee
know
local
apply
majority
regulation
##arily
coll
##tained
ever
political
##tiff
import
##ization
##air
##used
circuit
itself
argument
60
requirement
decl
et
cent
plaintiff
conn
##gram
##land
##lement
##ony
carri
##struction
##itions
used
provides
city
##lig
##ouse
simp
appropri
program
revers
relief
purposes
##levant
concurr
dam
##ibility
##arge
##itiz
corpor
##state
cod
her
pat
##ilar
##ession
##mption
citiz
contin
##ference
history
ser
rail
ann
rules
provide
##tual
##ict
secur
##ten
join
deli
##tern
##ality
terms
appear
##other
adop
agency
complain
denied
regard
##eign
##oting
child
##ner
##ize
burd
fl
200
vot
##ised
violation
pun
##ident
emph
similar
##sp
free
fair
inst
suit
asser
enti
##oci
sugges
during
mere
##bt
jo
either
compe
neg
##unction
emphas
##ves
##nia
cali
califor
different
california
official
pen
interests
##ket
hearing
belie
##ator
##aining
55
avail
addition
gas
secret
##ying
##ified
persons
##omp
granted
restric
stated
decisions
##ink
obj
intended
##amp
interstate
##orts
legal
concurring
##vious
agreement
high
56
##istent
##ft
statement
##ury
associ
##hn
num
##osition
##row
ill
##til
red
##eas
57
err
reach
practice
far
anal
regulations
##ital
##vered
liti
being
##iod
period
sel
cand
##ences
##reed
suffici
ori
##ending
meaning
price
another
61
ear
dist
##ging
main
control
end
word
signific
information
interpret
relevant
black
american
candid
entit
remand
tak
applied
##day
##ral
county
organ
subs
##ons
##ived
term
##arch
rej
way
treat
assist
prev
company
##ines
secretary
##uted
##cons
lo
discrimination
death
facts
exercise
code
sever
equal
appropriate
##ood
dr
##jud
##ecting
accep
origin
substantial
sol
sit
special
exam
house
##io
58
limited
every
dismiss
great
never
##rup
##stand
warr
##mber
##ional
today
penal
65
discre
cur
educ
search
employer
simply
obs
bill
##oup
report
##orari
##uty
good
involved
certiorari
justif
hand
requirements
means
police
ibid
##ender
considered
point
##ock
proble
##of
wit
##pr
requires
according
depart
##yp
##wise
indeed
design
immun
##ections
cust
uni
administrative
concluded
writ
##ian
permit
##sh
alleged
66
63
prim
trib
vari
iii
62
70
place
established
74
punish
available
purs
least
determination
##xt
motion
exec
##uch
##endent
##try
though
valid
64
exe
relations
vir
sentence
group
000
damages
##uss
fe
med
prom
many
oblig
##erial
59
##equ
otherwise
benefits
my
religious
separ
procedure
##king
burden
call
discretion
take
bel
comple
including
election
##tun
entire
soc
mil
speech
##ley
statutes
wil
cho
examp
##hold
testim
##ination
##orted
##oss
area
finding
witness
compens
bro
entitled
contrib
exis
reversed
effective
71
##quir
services
prison
amount
##leg
consideration
rate
stud
##ope
liability
##acter
sm
##reg
assum
mod
affirmed
intern
##ix
attemp
sou
proceeding
determine
trad
##ends
lic
qual
det
construction
##law
##bit
##vel
discuss
identi
##ily
75
reasons
material
##lop
questions
indep
standards
interpretation
added
character
complaint
ordin
imposed
employment
##teenth
enforcement
testimony
##iting
resol
##ued
income
73
tre
think
conviction
citizens
artic
perform
##tives
72
mis
say
nothing
super
mc
congressional
respons
just
intent
68
##velop
recognized
full
unless
##app
employee
67
##elle
white
neither
position
ir
office
penn
test
defense
##uck
trust
very
railroad
you
emphasis
deal
corr
up
declar
sought
##read
clearly
department
##mission
taken
issues
until
arbit
##ture
##alth
significant
##ortun
##ising
give
##sw
presented
light
opportun
##cribed
notice
##tle
develop
##oid
hab
situ
activities
example
1983
incre
##ross
##omic
##ave
noted
80
192
##itor
merely
moreover
remedy
##fication
market
dissent
##ature
thir
contrary
actions
lib
crime
69
defendants
uncons
brought
lit
value
number
##tisf
important
peop
##to
econ
##val
##imin
purch
81
prof
barg
appelle
sur
##ick
arbitr
76
remain
generally
contrac
among
doctr
ge
##vile
##ces
line
77
believe
transp
people
privile
guil
life
rac
doubt
rates
fav
nature
unconstitution
##tinc
explain
inves
conditions
much
resul
turn
convic
##akes
constit
answ
litigation
##umption
decided
##licit
wr
officers
sentenc
chan
constr
duty
money
central
legislation
day
arr
adver
##enses
acts
costs
low
particip
failure
##ulation
typ
1976
##ortation
extent
##eme
reserv
ur
applicable
analys
sufficient
pursu
##sy
distinc
initi
cred
six
du
enac
she
##clusive
fif
##ined
demon
later
conte
##ferred
fourteenth
large
##ins
sess
##omm
diffic
discl
analysis
address
##raph
79
favor
##loc
amended
safe
return
adequ
satisf
final
immunity
insur
78
officer
habeas
##gn
foreign
indian
investi
mand
schools
authorized
delivered
warrant
##ield
fourth
##ilities
contemp
bey
having
natural
##by
##thers
tra
texas
exc
##ren
real
beyond
bre
##edi
unre
ess
indust
sti
solic
rejected
sing
vol
##ead
consequ
following
##au
corporation
doctrine
##mental
nar
john
sole
findings
summ
several
##tal
force
##ested
exper
scope
third
opportunity
making
obtain
proposed
below
appar
grant
3d
plac
##ension
senate
##iving
independent
##ody
pursuant
benefit
##lies
##tices
demonstr
true
education
##ipp
83
offer
appellants
award
remo
##lan
##standing
##tually
82
principle
ple
##ring
##lying
##ises
90
makes
protected
##unt
miss
##ale
limitations
possible
mill
answer
communic
funds
compensation
1972
water
racial
offense
##thod
##ble
termin
distrib
100
##van
##ters
##pay
open
appellant
inval
conven
art
exist
security
ali
conflic
depri
access
invalid
association
contain
92
challenge
##uce
bu
##own
84
wa
context
ris
beh
original
consistent
##co
words
lou
##mate
##ced
##ators
exclud
anti
error
economic
air
injury
prosecution
##ased
none
charge
prevent
personal
##ron
resid
dan
steven
related
restr
sale
##ives
determined
officials
##missible
lack
others
##umb
method
##ience
inquir
oh
properly
subsequ
unconstitutional
il
whom
85
manner
191
##utes
##ling
##viously
stri
observ
change
capital
bargaining
##ght
procedures
avoid
enc
##ina
draw
note
decide
##her
##ino
ou
exception
meas
activity
scheme
joined
##anch
whose
principles
single
children
pot
##ked
##imum
##eless
##aries
##ification
correct
##ured
treatment
adopted
##yer
fifth
actual
separate
stock
1970
bal
##rupt
1973
louis
press
except
ohio
enacted
charged
tradition
willi
chi
repe
penalty
##ister
##tified
directly
fut
back
##ning
##izing
preced
##fully
statements
##rug
date
expressly
inquiry
stevens
ordered
fam
prem
conclude
additional
recover
##pa
sales
article
guar
##itive
##bur
##ained
serious
##uses
william
harm
##itary
problem
91
la
plaintiffs
governmental
too
grand
protect
determining
identif
##way
1982
1974
susp
##osure
days
include
guarant
requiring
freed
1977
paid
approach
condition
president
accept
##ready
accordingly
phys
sell
enj
illeg
##ida
function
##osing
remanded
reven
event
proof
account
violated
yet
virgin
short
issued
various
occur
pred
##utions
##ler
absence
##iver
altern
already
legislature
acqu
factors
##ask
1981
powers
kind
instead
chief
flor
compell
limits
##ah
financ
dev
impro
punishment
month
assess
vote
1978
transportation
poin
privilege
1971
voting
resp
87
uph
custom
##ior
taxes
mich
narrow
##theless
##mpt
sour
##ateg
definition
86
injunction
ul
disch
grounds
es
primary
unlaw
health
##ensive
##judic
future
cert
refl
##ev
mor
broadc
hard
amendments
competition
legiti
trade
##tingu
##une
virginia
##tinguish
member
existing
threat
1975
ve
specifically
geor
sett
##inois
cover
##alf
illinois
finally
liber
execu
florida
designed
complete
##pir
merits
license
carrier
sentencing
insurance
country
sust
unf
render
##up
districts
bound
div
north
little
drug
loss
##ep
concerning
##aged
received
exclusive
ultim
88
collective
marsh
##ris
impose
taxpay
##asion
##omes
##lu
##itation
##atives
race
relationship
lead
##thing
asse
continu
permitted
operation
failed
##itable
##action
patent
bear
1964
bur
orders
demand
##ental
explicit
aut
wor
freedom
sure
##ove
94
immedi
guilty
curr
assistant
whol
wom
constitutionally
candidate
##cer
forth
93
quoting
likely
vac
contracts
##lier
##rip
hearings
lands
95
rest
standing
murd
instruc
consent
bankrupt
candidates
showing
agg
##oma
payment
once
down
##cy
1980
mass
nation
aid
entered
individu
june
##trust
89
##olog
judges
conspir
##eng
color
##ude
##ama
sense
enact
commissioner
reading
status
ju
seems
matters
military
risk
adequate
called
community
incons
pop
adjudic
let
pending
necessarily
practices
je
refus
##ercial
##overeign
why
oil
choice
sovereign
##selves
##erman
precise
1979
omitted
##lose
##ark
##ism
appears
deem
still
comb
##encies
put
##uf
##lvan
wrong
##lvania
deb
##izes
##lay
request
##iae
basic
curiae
unlawful
lower
self
##bert
included
190
categ
arg
took
often
##crip
administration
religion
committed
fix
iv
level
##atter
created
assign
five
above
share
pennsy
justify
pennsylvania
cross
commercial
defined
mot
1968
total
intr
situation
home
afford
dispute
1984
controvers
challenged
succ
applies
social
precl
convicted
face
reference
##ili
##tics
camp
adj
manuf
restrain
wat
funda
appellees
emb
organization
washing
reasonably
briefs
footnotes
deg
97
##unic
executive
legitimate
thought
providing
distinguish
washington
appellate
seeking
individuals
whole
##orting
##gl
procedural
cr
hos
maintain
serve
##cent
##atever
volunt
interpre
##raud
credit
##ames
medical
themselves
##gether
run
murder
consum
##ically
indict
bankruptcy
whatever
best
fel
prices
obtained
contention
##ug
marshall
##ously
quot
denial
1st
1969
96
rational
##thern
##know
earlier
faith
described
fre
##iana
invest
decree
plural
##erve
obligation
involving
charges
vii
taking
don
louisiana
name
financial
approved
##versity
asserted
owners
guid
101
hel
##ways
189
examination
subj
greater
revenue
jan
##rial
allowed
##mes
become
left
raised
alternative
actually
1967
brenn
workers
187
impact
##ace
fall
accomp
past
##utor
carry
difficult
carriers
##rison
potential
##ob
transfer
assistance
subsequent
inconsistent
success
##ulated
expend
brennan
substantially
solely
limitation
compar
corpus
controll
south
relied
presumption
refer
connection
production
bring
1985
sex
outs
##ledge
mul
receive
excess
##tification
entirely
danger
##men
degree
directed
leave
regulatory
existence
attempt
arrest
solicitor
##mits
disclosure
validity
arm
approval
phr
times
text
##ric
##go
superv
antitrust
probable
##eld
plurality
agreed
##ember
substantive
done
fees
##mer
eas
representative
reduc
concerned
##ash
##gest
expendit
engaged
##ps
exclusion
explained
##gia
##like
##aff
merger
exemption
minority
rele
##ify
conflict
manage
similarly
thom
mag
struc
der
186
##ists
suggests
joint
powell
ach
follows
99
georgia
internal
outside
remedies
conced
witnesses
##ered
##aps
sanc
unreason
distinction
##ifications
seek
##holders
liberty
international
small
close
suits
##ering
1994
senator
1966
##iety
##ned
shar
carol
considerations
percent
##ards
violate
tech
prejud
agreements
##ength
discriminatory
1986
possibility
thomas
elec
##liance
prohibition
essential
responsibility
defer
##ene
##verse
##ases
refused
connor
gri
ct
chap
histor
98
##tically
facilities
unfair
debt
ce
1965
achie
construed
companies
##eness
unlike
problems
alone
met
techn
exch
pet
strong
care
ship
latter
dismissed
##ually
particularly
##erson
brown
oc
discussion
theory
rob
intention
quite
##roduc
##cil
nav
##nel
citizen
indictment
views
##tial
max
##oura
securities
industry
ens
territ
tribe
desp
elections
##right
records
##ona
cop
1988
violations
##ha
passed
society
accused
lines
served
contained
##ened
alab
ded
carolina
alabama
bond
influ
verd
vic
103
previously
sw
attack
mcc
##olid
restrictions
organiz
element
interven
detail
former
establishment
summary
type
filing
despite
possession
forbid
west
##iding
discover
apparently
##here
ap
old
fundamental
102
uniform
fee
population
ari
##ounts
prove
create
##edy
docu
comment
fraud
illegal
manufact
##fici
investigation
constitute
ability
110
teach
##ker
##ored
norm
ariz
job
effects
file
together
enough
fully
188
ruling
extr
acknow
taxpayer
written
elect
policies
seg
##lin
exceed
factual
mary
management
belief
confession
age
elimin
##ansas
323
march
development
incor
men
last
employed
expressed
implic
book
placed
himself
programs
importance
safety
certainly
traditional
overr
125
1995
concep
principal
rela
covered
apr
supported
initial
meet
argues
temp
fire
rich
##der
inher
cfr
##sey
1987
come
deemed
contributions
producers
##ues
owner
representatives
suggest
sixth
investig
presum
imprison
unn
communications
##ane
##quist
products
command
difference
assume
aside
wel
able
conspiracy
smith
absol
concerns
controversy
##uary
##omin
practical
suggested
net
field
fal
motor
portion
asked
always
factor
persu
elig
##haps
oral
certific
unreasonable
fcc
dra
recomm
##rutin
hour
broadcas
##hood
scrutin
kenn
phrase
##ata
known
perhaps
forum
phil
columb
lik
105
justified
1963
regulate
admission
resour
january
announ
thereby
134
observed
inte
##rop
representation
few
jr
##ote
##ott
##ograph
affected
wal
voters
foc
##titive
sil
continued
env
104
occasion
exchange
employers
##aign
underlying
aw
##igu
##mon
applying
discharge
role
involve
seiz
##ole
frank
upheld
##mun
##reh
prohibited
dougl
verdict
pac
etal
cited
understanding
##ially
##most
ign
##ape
munic
integr
arbitration
disag
compliance
##bigu
litig
ordinance
months
agencies
municip
##ecided
douglas
judgments
##ordin
instruction
council
consequences
subsection
campaign
hosp
ves
payments
product
response
nl
begin
prosecutor
gre
expression
absolute
argue
gra
students
301
shown
source
absent
organizations
acting
112
physical
##duce
##ones
resolution
changes
wholly
permits
entry
major
1996
thereof
appellee
objection
accepted
##ne
401
retro
##decided
##certain
specified
pan
indians
plans
liqu
##unctions
convention
##usion
441
dri
inn
veh
nevertheless
registr
near
results
##01
negro
admitted
areas
speak
women
false
claimed
knowledge
106
##alu
qualified
jj
publish
##after
look
2000
unnecess
columbia
blackmun
reservation
##oti
1961
##lements
adjust
advoc
duties
seem
doing
affirmative
pic
attach
reached
##ota
irre
coal
##ished
evalu
107
instance
maryland
equally
occurred
enactment
constitutionality
adverse
##tili
privacy
##hnquist
##oke
strict
##ient
424
gave
vehic
rehnquist
##ading
family
enjoin
alien
##urch
refusal
drawn
##icient
##agraph
presence
impair
obligations
##oy
ban
##ster
##uff
deny
ok
rad
behalf
fish
operations
sold
negoti
fri
sus
deduc
scrutiny
##ingly
objective
consist
uns
sustained
prevail
scal
justification
april
indicated
almost
opinions
waters
goods
mind
possess
ordinary
minor
fram
##fare
392
branch
imper
##por
1989
1962
390
jer
pip
robert
equitable
jack
maximum
effort
reliance
da
stay
133
materials
##entially
##lated
reports
purchase
difficul
resources
##organ
##cra
minimum
introduc
402
##cribe
groups
##tify
affect
perman
neglig
reasoning
stew
acknowled
sherman
strike
confron
divid
estate
##isc
##ories
mee
1947
feb
points
regarding
##ration
owned
church
caused
build
reve
increase
arguments
offered
225
proposition
weight
governing
##oper
##eck
111
testified
help
##alty
parents
permissible
##igan
agents
384
subsid
custody
kennedy
esp
##yn
arising
##eful
##ateral
johnson
williams
delay
welfare
followed
occup
structure
suppress
##line
consolid
contempt
arizona
bene
tempor
eigh
##lace
reorgan
reh
measure
desir
jurisdictional
assn
1990
##isted
##int
wis
372
##riter
amic
okla
efforts
authorities
current
##ublic
##ibly
relating
plainly
investment
113
december
367
chapter
##ortionment
letter
amicus
disposition
hum
experience
distribution
##ier
109
electric
##set
james
apparent
content
raise
advertis
hous
##vey
encoura
##opard
##berg
##ries
advant
ten
envir
##ump
exemp
jeopard
##ouri
##avi
251
division
##rie
giving
##enced
compelling
463
relative
stewart
aver
agent
##com
careful
missouri
environ
corporations
1960
ut
alter
##xim
setting
democ
suggestion
offenses
kn
##den
taxation
##see
traff
##regation
criter
##aska
scalia
haven
assumption
necessity
body
##rav
surely
explicitly
##iam
convictions
136
utili
##ico
seq
elements
wee
inapp
parts
##osen
capac
propos
aband
347
##ado
##elines
multi
inclusion
##itch
errone
assets
profession
imprisonment
continue
##eep
recent
##ille
##rec
incrimin
count
mal
traffic
shipp
operating
##aded
submitted
vessel
octo
october
michigan
500
prejudice
##titutions
neut
391
##ham
sl
##titute
purchas
infring
longer
arres
advance
repeated
unw
understand
##ago
furn
##estern
abandon
##istic
amici
says
377
institution
504
refund
const
unnecessary
better
prisoner
330
implement
recovery
contribution
prohibit
instructions
pacific
anything
sufficiently
lar
using
prel
nove
chic
urging
higher
withd
november
123
youn
referred
400
performance
counter
mention
aggrav
release
##far
##arks
403
comply
crimes
expect
fear
##ex
precisely
1958
accordance
river
436
201
indicates
attrib
431
gar
##idential
incorpor
reversal
copy
abortion
501
compelled
##ery
mail
411
af
sound
corporate
116
disagree
arrange
vis
ball
prelimin
abuse
became
voluntary
quality
treated
southern
203
banks
##issipp
mississipp
incident
mississippi
dismissal
examin
cooper
315
retail
produce
preserv
requested
129
ultimate
obvious
114
373
liable
regardless
retroac
compel
115
hospital
municipal
##actions
144
object
##avis
membership
alleg
immediately
seeks
deliber
unions
mental
violates
##ana
exha
tort
paragraph
##inth
##more
transaction
##br
alloc
chicago
monop
educational
reorganization
lawful
recognize
415
##raw
prepar
##stood
394
interpreted
keep
conducted
##pective
formul
ultimately
balance
##que
##ague
page
innoc
satisfied
##erg
attorneys
##ium
judici
guilt
burdens
miti
informed
expenditures
conce
##airs
408
1991
flow
july
1959
apart
131
##atures
contends
reverse
108
##ival
needs
obsc
jersey
##bers
##erous
##asive
indicate
resulting
classification
1940
curiam
preliminary
coerc
##anced
road
functions
sum
413
breach
judiciary
rely
395
##apers
primarily
jones
185
1992
identified
##ides
equity
settled
compet
influence
420
wide
denying
gives
##roll
397
##pons
##ang
early
##tts
132
##achuse
##achusetts
##yers
minn
seizure
davis
situations
demonstrate
discussed
422
##idav
understood
improper
massachusetts
advertising
421
engage
acquir
affidav
jackson
fixed
eighth
pertin
##keting
aliens
appoin
332
declared
satisfy
coverage
##lor
barred
forfe
1948
fec
333
mid
##anting
expenses
remains
505
ninth
participation
##ford
##illing
383
hence
fairly
##cription
##iary
prescribed
339
significance
312
fla
386
405
authorize
resolve
##ault
waiver
citing
interro
unable
promul
removal
130
490
##uls
##ming
tenn
safegu
jeopardy
304
##homa
antic
next
forec
data
contrast
human
produced
##ruary
adjudication
february
gain
compare
else
infra
mem
enterpr
capacity
miller
register
punitive
withdraw
equip
dealing
double
##kins
immediate
told
iden
##ca
380
disputes
##rb
consc
1946
peti
412
adopt
jurors
addressed
includes
calc
oklahoma
1954
##come
183
437
excluded
espec
##ville
treaty
exceptions
railroads
##opp
##sement
fails
extend
concluding
##oly
responsible
supplement
list
university
rendered
contend
get
prohibits
##ruption
aug
obviously
undert
404
389
plea
416
treas
thereafter
##ores
350
tried
341
##ancy
gross
administer
finds
formal
334
428
117
##lex
log
toward
433
assumed
##unctive
implied
navig
applicant
petitions
exempt
regular
486
licens
secure
registration
million
identical
139
##be
nlrb
restriction
mess
project
length
410
##lear
increased
buck
##sych
task
120
hours
sections
##bor
amounts
range
##sofar
467
arbitrary
ownership
137
director
438
##otion
##tees
allegations
153
1952
especially
places
118
deliver
equipment
insofar
##burg
compreh
##cing
hardly
##tility
notes
affairs
cens
effectively
##aled
elev
451
griev
deputy
##isory
respective
mandatory
fit
shows
systems
ing
ark
pertinent
parole
##arm
permanent
disreg
vacated
deciding
controlling
coast
republic
achieve
unp
recognition
contains
settlement
receip
insuff
meant
richard
##anda
426
hol
previous
340
operate
flo
relation
476
sep
##10
temporary
station
##ston
permitting
365
371
debtor
319
443
declaratory
competitive
depos
1950
conference
122
458
domes
guarantee
explan
358
things
throughout
va
boy
178
##ustr
continuing
ensure
imposition
suspect
##riting
allowing
tribal
approxim
injunctive
##well
ambigu
1993
##with
160
esc
collateral
429
##orth
mont
456
497
heard
went
##off
significantly
bure
guidelines
weigh
nonetheless
historical
preclud
1957
##uries
##ommod
represented
surr
418
restraint
domestic
accommod
141
430
recip
subd
331
extended
instances
140
##erated
remarks
##uting
##ars
assertion
meeting
institutions
felony
307
erroneous
psych
transactions
unc
lawyer
assert
399
category
frequ
##making
##ont
179
acted
##essee
retain
invok
world
##ites
challenges
accur
450
remedial
sk
unan
1949
406
disability
316
criteria
appoint
bul
369
peace
adoption
##ortions
##eline
355
radio
##ams
417
green
reti
lease
granting
##emn
unit
parent
precedent
465
##lock
##arr
357
step
393
attention
##tine
viewed
462
##gating
accomplish
353
145
involves
minim
preven
385
considering
enjoy
vers
move
##iation
acquis
territory
inherent
documents
announced
instr
assuming
202
affili
exclude
your
345
manufactur
icc
reviewing
study
noting
believed
sources
362
combination
exists
184
138
san
newsp
instru
sanction
neutral
deleg
502
communist
communication
121
376
consistently
##tenance
mist
128
infer
submit
appointed
cli
435
western
335
autom
exhib
indir
479
america
##consin
deference
425
wisconsin
sched
468
epa
##amed
##ald
sort
337
buckley
inade
483
inadequ
##urb
assessment
##tible
exercised
kent
mach
depend
dischar
457
##ea
critical
336
447
emer
##ratic
truth
victim
vehicle
156
491
harlan
methods
360
travel
##work
imposs
concept
item
uses
disregard
working
willing
470
##ectives
performed
gold
indirect
342
violence
1997
customers
passage
want
##lac
##ectic
119
student
moved
461
imposes
300
mir
379
455
pi
356
plant
471
depar
##vation
##rees
mandate
half
478
##iable
reported
388
414
attend
substance
pack
reject
whenever
superior
broadcasting
citizenship
commonwe
##inson
discip
1953
proportion
bureau
489
residents
recommend
444
penalties
relying
commonwealth
419
dil
telev
442
##inding
370
487
qualifications
##asing
forfeit
analog
rou
124
unanim
colorado
excessive
hir
224
selection
located
industrial
certificate
led
pret
180
##pe
tele
extension
eligible
irrelevant
motiv
applications
fairness
wall
automa
im
##ney
150
hon
364
fp
352
##ology
##ecticut
committees
connecticut
damage
427
uphold
##ats
rein
panel
stating
focus
241
juven
carried
along
constituted
321
multip
135
409
retroactive
wish
forms
##ological
apportionment
insufficient
play
island
worth
young
discovery
maintenance
distinct
fig
establishing
benefici
stree
##gated
##aster
354
holds
imposing
494
conclusions
475
immig
differences
broadcast
average
##aker
205
167
parte
346
port
manif
440
182
ruled
equival
convinc
407
##bo
338
434
interference
limiting
##isa
base
predic
proved
343
indication
derived
democratic
english
unus
1951
##ift
firm
344
simple
##po
automob
virtually
authorizes
away
##isite
mex
##entiary
choose
normal
explanation
negligence
446
controlled
gl
##aken
complex
removed
detention
##isp
##going
enh
developed
pointed
##ivision
378
subsequently
303
rationale
introduced
ballot
guard
448
relies
151
503
subdivision
##rid
implicit
remaining
determinations
320
termination
advantage
completely
##ashion
##nings
2003
aim
351
363
485
dispar
##igent
449
168
##ett
chosen
numerous
##abl
374
fashion
mech
diversity
##pects
news
147
488
deprived
going
constitutes
##gers
uncertain
clauses
erisa
466
confirm
1934
debate
quoted
228
elector
1956
attempted
wages
152
460
preserve
secured
stop
desire
361
append
conceded
squ
events
158
disab
aware
compuls
329
474
1955
execution
ren
roy
essentially
concur
residence
estim
rests
reb
intim
328
version
loan
extra
magistr
472
prefer
##ancing
needed
##tember
kansas
mechan
poll
september
##iority
goal
fpc
ven
cable
independ
television
sta
recons
481
nonp
affirmance
cat
elected
464
452
comprehensive
describ
##lip
310
town
participate
eleventh
impossible
protecting
privileges
pati
##orial
143
emphasized
assemb
368
something
pu
prisoners
mort
circumst
incumb
recently
operated
##owa
subcom
afforded
##kets
507
375
##itime
##arian
inference
housing
pattern
bcra
469
issuance
ca2
##aging
declined
reflect
maritime
writing
subcommit
iowa
approximately
142
receiving
medic
177
ent
premises
tell
century
dispos
professional
authorizing
building
souter
207
authorization
495
shares
359
349
163
room
changed
nond
473
colle
teleph
##earing
promote
454
liquid
acquired
dangerous
resulted
149
books
burn
302
ga
157
wholes
mitigating
stage
##ding
348
445
erred
##ewise
##na
confront
causes
439
likewise
fine
resolved
lawyers
secular
482
regarded
declaration
supply
sentenced
subcommittee
urged
pregn
127
woman
maintained
examine
##isting
prohibiting
##eed
lea
##bted
appendix
##aves
##laim
minnes
competit
aggravating
defe
minnesota
##ground
126
engine
381
##wide
supports
##ableness
physici
percentage
burger
##enders
accompan
head
ow
injuries
bad
becomes
309
##ert
reconsider
juris
dept
146
began
soft
204
insp
250
211
eliminate
deportation
432
lay
extensive
acquisition
dict
convey
clark
lev
313
refuse
suspension
252
foster
northern
162
forces
edward
severe
ways
haw
##ucky
sentences
waste
grants
453
brother
august
1942
pure
181
profits
consequence
##ergy
##fere
expected
##ma
423
##eration
387
366
improve
##imbur
steel
arise
types
personnel
obtaining
presents
grow
testify
came
##where
##ics
##let
brad
named
arkansas
utility
conform
injured
459
##time
prompt
ca5
side
detailed
##times
238
subjected
cru
prospective
miranda
##ening
##eli
food
thing
regulated
agric
498
tend
administrator
##regon
155
encomp
measures
oregon
encompass
322
railway
overrul
reimbur
happ
precedents
consolidated
som
preclude
instant
##mir
##ques
ca9
148
##ze
kentucky
infringe
treasury
active
154
allen
325
seniority
adequately
210
176
bell
immigration
enterprise
sometimes
unusual
difficulty
##ety
##tise
associated
175
484
##utors
##inafter
##ners
affecting
1945
1943
merit
324
sev
hereinafter
searches
ordinarily
proposal
477
##qual
evidentiary
##ena
209
382
##withstanding
valu
alleging
designated
##roy
327
318
david
165
ee
wood
confine
dele
492
expand
tel
environmental
398
298
##hat
supporting
formula
expense
308
behavi
equivalent
rise
delaw
preference
advocacy
undermin
480
largely
correctly
294
distinguished
creates
1998
respects
furthermore
miscon
##bery
509
sanctions
1938
164
probation
deprive
corruption
drugs
##rac
takes
1941
admir
##illed
freight
306
##oted
objectives
496
##gress
tribes
##els
demonstrates
banc
aspects
strength
reserved
sect
furnish
thomp
reasonableness
326
interrogation
sens
reasoned
thompson
intell
returned
defici
feca
win
values
cul
##ife
dest
159
allows
notwithstanding
sexual
tot
396
telephone
161
availability
papers
unique
premise
##ugh
wea
marks
brand
bord
##uly
secondary
deprivation
circumstance
trials
slip
##eg
170
sue
eeoc
behavior
automobile
allegedly
indiana
convers
carrying
173
cash
interior
##ounting
seized
works
supplied
263
inadequate
533
acknowledged
##bs
267
serves
ago
506
knew
lost
assure
dur
##ii
273
206
tennessee
bi
acquit
2002
dom
message
statis
protections
em
242
somew
adher
objections
sued
caus
aspect
lien
##ifying
mad
monopoly
reduced
forced
franch
affidavit
perf
opposed
breyer
entertain
repeatedly
reaching
originally
reduce
attempts
encourage
##iff
falls
armed
wilson
lee
254
impermissible
317
identification
##gate
stip
paper
jeff
jail
arrested
1944
2001
##get
goes
1939
exclusively
sand
trustee
document
disapp
competing
highly
amp
facility
268
charles
taxable
forfeiture
confer
499
208
harris
ask
refers
271
device
demands
inev
vo
utah
expir
305
week
reporting
governments
wage
define
##ste
##oring
##ulate
consumer
##don
commod
depends
314
annual
##astate
hamp
dimin
incur
seven
rehearing
pension
311
taxpayers
##az
producer
consumers
withhold
expenditure
alaska
mark
comparable
classes
contractor
draf
02
finance
moral
energy
##sa
intrastate
cut
lie
493
747
training
##ibilities
sustain
live
253
embod
##ienti
280
assigned
entity
juvenile
ham
265
rejecting
##omy
farm
background
admiralty
283
variety
trustees
##kes
226
segregation
magistrate
regulating
232
515
memor
interim
narrowly
nonc
appearance
boundaries
sher
discretionary
##elihood
guaranteed
broader
doll
##ining
258
refusing
restrictive
extreme
harmless
bearing
juries
##iliar
appeared
reviewed
quotation
##lam
enforced
emption
pec
swe
sav
forward
##fur
motions
cler
haz
divided
check
297
categories
reflects
##utory
existed
identify
forecl
counties
likelihood
reform
229
negroes
##rew
exact
publication
1999
##emp
staff
relatively
profit
recon
remained
299
rig
center
demonstrated
zone
asserts
adjustment
bor
nearly
remove
juror
integrity
171
cra
proceeds
510
##ocation
eight
retained
##istric
construc
tests
exhaus
comes
281
expert
subpo
incrimination
##indic
bargain
technical
hud
contractual
preferred
218
governed
intend
261
certification
multiple
602
mut
717
frankfur
##adv
hy
suffered
prevailing
##nell
##the
arri
prepared
spons
consequently
pipeline
frankfurter
223
channel
carefully
231
option
somewhat
articles
foundation
direction
readily
284
tal
preventing
interfere
presumably
290
legally
critic
accorded
##enty
##udence
normally
frequently
214
surv
##ilit
eastern
train
alia
po
##uing
##iscrimin
star
struck
anticip
gun
unj
508
easily
244
pain
##ada
substitute
vindic
delaware
##room
##da
series
##tituted
timely
166
safeguards
manifest
nine
closely
##entions
concludes
compon
incomp
287
moore
king
chair
##mates
montana
analy
wife
conclusive
##esting
221
514
guarantees
##ropri
##idents
174
172
dependent
unav
accident
selected
tribun
hyp
modified
confined
##augh
inqu
sho
511
279
##vert
##ented
eligibility
##osite
240
outcome
293
creditors
convenience
beginning
hall
169
bod
234
army
contended
mine
departure
##holder
236
paul
seriously
transcrip
enforcing
274
virtu
counts
disturb
282
england
intrusion
bow
reaff
539
restricted
rh
nom
249
framers
claimant
emerg
collection
jurispr
conferred
feel
hen
oath
claiming
delivery
moot
##ariff
##hol
establishes
stra
pree
pretrial
1935
anyone
joins
voter
appealed
living
overt
copyright
advanced
prosecutions
##tific
deduction
##acts
##ken
dead
217
##rote
perce
212
navigable
extraordin
bd
leaves
272
advisory
##ael
enacting
##wh
commitment
creation
seen
##arely
promulgated
deseg
passing
enl
violating
segreg
binding
219
expans
##utable
familiar
mentioned
description
##licable
227
initially
mineral
failing
client
east
fu
recognizes
retire
aud
characterized
organized
selling
empow
funding
picketing
appointment
clay
lear
glo
tariff
##vention
overb
235
gins
237
associations
fid
defining
governor
519
seventh
##utation
##veness
roads
##field
therein
awarded
245
wrote
registered
usually
reserve
ascertain
invoked
chris
harv
elsewhere
521
assur
advised
213
banking
jurisprudence
restraints
del
trea
abrid
243
creating
considerable
hill
difficulties
resident
confidential
goals
##itations
259
recognizing
rock
electoral
262
discriminate
destroy
##gage
266
##tiveness
600
##anti
sovereignty
288
install
hands
##aper
plead
steps
receipt
257
2004
floor
unrelated
infringement
geograph
contempor
franchise
##kin
vested
impar
discharged
220
reflected
hypoth
215
traditionally
partners
292
ger
presidential
subjects
216
justices
probably
items
reaffirm
##berts
255
mother
aro
master
positions
useful
rebut
michael
##stein
charter
wrongful
surround
tail
disqual
##icious
virtue
inmates
nov
mexico
assembly
##employ
ideas
contemplated
size
advers
phase
ca7
complaints
##andum
grievance
wy
573
errors
enum
usual
lesser
characteris
##ominant
##mar
challenging
ought
##laced
innocent
rejection
manag
jose
cast
restrict
losses
inspection
label
supplemental
newspaper
##zed
threatened
mob
535
illustr
saying
robbery
evident
signed
547
##iat
nebr
mitch
246
evil
##orm
web
preceding
savings
compact
517
instructed
##orship
exercising
competent
revision
isol
milk
##inted
voluntarily
##idence
inflic
transferred
fore
notion
unanimous
##acted
solicitation
cham
decline
291
risks
##itz
bid
wash
default
nebraska
fell
involunt
reduction
na
purchased
##mond
applicants
containing
leaving
univers
submission
requests
institute
redress
bir
faced
##win
##ultural
##uits
hart
532
concedes
network
memorandum
late
##ann
admit
##titude
clari
528
222
separately
revenues
qualify
stake
##olution
552
277
liquor
ward
##tims
arrangement
miles
draft
##respon
renew
ginsburg
nos
##pass
practic
operators
teachers
certified
experi
effectu
601
taxing
applicability
##ades
club
286
twenty
opposition
289
questioning
##earch
526
retirement
513
theat
stations
detain
research
230
defines
prescribe
530
extraordinary
undue
inapplicable
dak
forbidden
cities
accru
condemn
opportunities
##enger
rico
##contr
legislatures
ca1
street
mrs
270
incorporated
weeks
purely
father
favorable
od
victims
offers
##erted
rested
display
invoke
promotion
chairman
allocation
persuasive
census
marri
##ette
arrangements
bears
offender
knowingly
fixing
vague
adult
248
vital
namely
285
supervision
emergency
disclose
assignment
inad
##usive
classifications
523
##wood
key
names
295
guidance
dakota
541
joseph
##under
cum
##lem
##aylor
citation
clayton
##rist
meaningful
resort
accounting
##duct
##weigh
waived
conflicting
utilities
##ounted
##phy
lawsuit
relev
##ception
520
occurr
modern
##enity
296
522
1937
dealt
veter
seat
nations
##orne
##ship
##itan
flex
physician
##eff
contractors
slight
contentions
protects
customs
silence
modification
liter
correspon
##ommunic
264
behind
represents
misconduct
233
responsibilities
door
sul
literal
##gment
whereas
narco
cruel
telec
##shire
assessed
aggreg
##uli
##ulative
martin
properties
eth
taylor
alco
location
gener
276
hus
proj
asserting
beliefs
serving
260
confrontation
portions
256
534
franc
griff
confinement
chose
interview
reapp
##uction
extends
territorial
bonds
college
##macy
##rep
published
ford
prima
broadly
passenger
unlikely
suppression
lew
terminal
saw
licensing
##band
custod
intentional
gro
cruc
##roit
upholding
park
##eping
##ush
##orter
##lips
##atz
deterr
describing
void
##vol
##iel
275
706
enable
markets
dealers
obscene
cam
redistric
hope
determines
innocence
truc
roberts
coh
presumed
incurred
novel
schedul
increases
misd
ambiguous
george
intervention
truck
arose
239
card
provis
hiring
hampshire
forbids
##advant
entr
1933
empted
idea
##house
ange
512
inmate
highest
subpoena
arguing
advice
entities
separation
hal
martial
capable
collect
supervis
disadvant
278
mining
542
pray
media
soon
##ull
md
##ume
examined
instrument
characteristics
knowing
precluded
544
##ifies
inappropri
pric
liberties
##ictions
detroit
successful
##ta
##onic
nev
fru
##ivers
madison
##iser
acceptance
subsidiary
unequ
partial
contra
commenced
terminate
merch
exhaust
##entive
closed
implication
##itt
wright
##ov
545
struct
exhaustion
robinson
endor
531
litigants
decis
disputed
247
bills
##aho
527
reads
##ream
interpreting
beneficiaries
defeat
seller
unam
shap
cement
lot
516
sets
speaking
543
alcohol
gil
raising
transcript
equality
model
##ds
arises
contrad
identity
vacate
attempting
enjoined
interested
herein
competitors
phot
environment
perfect
##tile
processes
##abil
revised
released
unavail
try
escape
##de
surve
lacked
foregoing
ke
los
adams
cogn
devices
relevance
##oming
requisite
promise
anderson
##elly
heavi
hund
regional
##gg
nonm
fraudul
implementation
crucial
boyc
protest
operator
jefferson
##port
pal
spending
husband
insist
facilit
awards
exclusionary
enab
facie
##abor
##lif
modify
##itude
hundred
commissioners
metrop
jobs
coordin
perpe
possibly
518
blo
operates
republican
arguably
524
metropol
offices
vary
##readth
motivated
lake
wire
believes
relie
famil
overruled
mandated
651
2005
belong
omission
ineff
certificates
confessions
##shore
surpr
proviso
##att
telecommunic
wol
fulf
chance
##ression
expectation
unambigu
##eth
pregnancy
christi
##uliar
francis
core
shareholders
metropolitan
crim
pressure
##icion
ones
outweigh
licenses
suspicion
peculiar
##eny
questioned
##illa
terminated
measured
manufacturers
##ese
collected
recommended
inappropriate
telecommunications
venue
leading
269
efficient
touch
turned
holmes
##volous
producing
industries
##oph
clar
reveal
session
##uct
claimants
reimbursement
transit
construing
striking
546
accounts
purchasers
prere
mom
disappro
##itably
discussing
thres
doub
attributable
examiner
sun
compulsory
completed
##anor
plus
mitchell
link
pere
##lines
##alle
##inger
maintaining
purchaser
vice
categor
patents
repeal
tool
525
combined
felt
attached
vast
entering
earnings
703
invalidated
manufacturer
undou
roe
cease
##ba
turns
reconsideration
##lementing
straight
listed
##rick
debates
construe
harass
563
deliberate
undoubted
math
selective
desegregation
##ients
##ano
stress
threshold
describe
examples
embodied
progress
destr
clean
phillips
gather
hun
ends
excluding
targe
##aneous
##dc
postal
1936
enhance
abstr
misdeme
plaus
sheriff
ash
##ime
replace
incentive
reveals
##ander
disabled
##tivity
mcf
automatically
gam
immunities
incumbent
involuntary
writs
laid
indirectly
fiduc
barri
indigent
write
ey
reality
pursue
hawa
protective
votes
processing
warrants
psychiat
families
##stone
allege
legislators
##aid
permission
presump
vessels
chem
presently
levels
tradem
districting
##key
indicating
answered
suffer
stopp
##ework
spent
periods
##mont
block
ho
conting
idaho
respecting
observation
ber
##head
##eller
##zing
thor
conserv
constitu
536
rhod
##anta
enforceable
safeguard
##question
vehicles
prerequ
529
calls
bail
approve
alternatives
participating
angeles
assault
pricing
##rete
sac
drawing
discipline
cig
executed
548
reserves
larger
##livan
marketing
discovered
balancing
##point
ca3
allowance
shortly
sullivan
##ompe
racially
thereto
kep
unquestion
neigh
##emy
##roc
communities
doct
acquire
aimed
tob
priority
##olds
fle
unconstitutionally
mac
preclear
555
564
surrounding
##ians
units
##ucker
jour
answers
disparate
discoura
##bling
coercion
##oks
##repres
devi
##lantic
shif
genu
nondiscrimin
sea
respectfully
currently
abandoned
uncon
plants
conscious
story
holdings
tenth
yield
ft
rank
##table
around
549
desirable
wid
features
treaties
narcotics
stan
moment
restraining
ignore
totally
unduly
adopting
evaluation
clerk
##vin
differently
exemptions
machin
proving
prohibitions
cogniz
heavily
possessed
kill
occurs
##ny
comprom
implementing
valley
##riety
assurance
routine
interfer
admissible
engineers
ca8
obscenity
programming
strongly
2254
hew
subcontr
##ynolds
confirmed
ray
toler
##ompetitive
stor
##ulf
firearm
partnership
worked
551
lyn
rap
quanti
contempl
ment
586
rand
##each
##acco
purported
frivolous
honor
paying
jurisdictions
guide
potentially
##minent
domain
concrete
fer
conflicts
segregated
prevented
redistricting
boston
negative
suggesting
citations
lies
automatic
rape
##ki
##iles
mortgage
fraudulent
##cel
qualification
wholesale
1920
premium
licensee
exped
engaging
performing
deposit
raises
mills
anc
lawfully
monopol
ta
wanted
finality
imag
van
tender
reed
frustr
pool
diction
bars
stockholders
uncertainty
independently
reop
suc
consult
overall
insure
maine
575
studies
##upp
incon
560
mutual
##ffer
allegation
accommodation
pages
silent
interloc
quar
cigar
yes
liquidation
atlantic
negotiations
stands
contribute
agricultural
licensed
katz
##iro
2006
ignores
unwilling
receipts
unb
allot
extending
economy
creditor
genuine
testing
mur
stone
break
comparison
##west
predecess
ny
ca6
film
eliminated
reynolds
##adel
embrac
rog
unemploy
homes
##rof
officeholders
intellig
deep
##osis
margin
framework
store
occasions
00
568
nomin
impairment
tobacco
toll
americans
557
analogous
houses
617
confusion
across
seam
554
referring
##ectiveness
basin
recipient
twice
calculated
save
##reciation
movement
schedule
figure
outset
essence
701
griffin
propriety
##cher
directors
bringing
cars
hend
538
utter
impeach
loy
ware
instituted
hypothe
confronted
administered
rulings
608
1866
rout
537
##cess
acad
invasion
uniformity
kept
606
acceptable
recommendation
classified
institutional
584
daily
clin
succeed
bay
appra
disclosed
patient
libel
03
fores
steph
540
factf
achieved
distinctions
poor
receives
cro
transmission
sectarian
closing
pipe
acquittal
site
reply
##ivoc
##lamation
table
##pped
suspended
mus
codified
tucker
abstract
relate
##rating
indemn
proceeded
advantages
accurate
levy
##acp
comments
federally
610
handic
fishing
situated
kinds
routes
figures
emotion
##vive
magn
globe
##rect
##encing
683
warrantless
avoiding
clarif
remote
charging
intervene
chev
punished
persuaded
team
typical
inevitably
tribunal
undoubtedly
##olic
naacp
incorrect
convincing
##tifying
##urs
trig
##tz
##umin
cox
elabor
665
lacks
##ults
numbers
mari
condem
night
anim
dual
##ero
##iling
contest
05
725
involvement
shaw
attain
track
component
##fers
##acture
##ched
surveill
bed
quo
effici
increasing
branches
fiduciary
fisc
633
volume
affidavits
mf
582
##dle
hire
##adelph
##ko
supervisory
philadelph
compensatory
indef
924
mix
ran
tor
whit
top
probability
initiated
exceeded
##troll
continental
manufacture
cab
philadelphia
##atement
609
select
pleas
god
paralle
references
dictionary
##edent
shield
desired
shop
##ourse
flag
hot
chec
barn
manufacturing
adversely
ample
editor
ix
jap
pt
apportion
motive
stamp
##rey
patients
##eded
ca4
1932
##craft
enumerated
ba
showed
rip
570
misle
dispositive
800
induce
##terson
representing
##avy
589
scott
japan
burgl
indisp
projects
pit
concent
conducting
624
kir
picture
divor
coup
##amount
facto
eventually
abandonment
605
disciplin
impartial
businesses
hawaii
shel
wheat
judicially
explaining
hor
wind
founded
revealed
apartment
##iated
longshore
pleading
birth
feas
supposed
##tisan
rosen
urge
recipients
##sell
565
ala
veterans
undisp
##actory
616
ferc
##rel
vig
offensive
621
shippers
regime
ambiguity
pick
controls
##onet
##lands
distributed
retard
squarely
electr
heavy
grad
553
historic
561
teaching
fort
trou
assumes
evaluate
tailored
adversary
effectiveness
mistaken
channels
misc
##face
##ede
618
chevron
##inite
##tress
focused
reaches
accepting
cohen
wild
##do
unfor
supers
hop
643
edwards
613
treating
broadcasters
surveillance
undisputed
bon
##fo
577
mentally
hypothetical
##ilton
612
mcdon
relationships
disagreement
surrender
endors
##ews
fundament
coastal
1927
litigant
reck
##acting
piec
reaffirmed
photograph
##ez
abst
directing
transport
beneficiary
implicitly
pont
exposure
willful
survive
customer
driver
incidental
hugh
##no
##owed
spir
lewis
neighbor
reapportionment
##teen
schem
boards
dollars
resale
556
profess
aggregate
##och
##gun
immune
libr
571
blacks
correction
bat
contex
fisher
overcome
sharp
improperly
##onial
ide
vermont
purchases
658
furnished
weapon
evans
656
stem
leases
##ousand
reliable
running
thousand
##uccess
highway
financing
got
avo
admissions
incriminating
misdemeanor
refr
seizures
preserving
##onetary
unsuccess
trademark
nevada
##uper
alto
742
sd
##astic
denies
favored
delegated
##ots
heart
585
exactly
hudson
##soever
opposite
702
petro
shift
632
someone
inherently
##place
spouse
562
avoided
hereby
nlra
newspapers
christ
undertaken
##ky
league
federalism
whereby
commodities
fet
lod
##anger
spend
##missibly
559
strikes
civilian
entitlement
##ivable
entail
german
668
strictly
##iter
enroll
##mination
affects
democr
prerequisite
bud
parker
abol
discern
nondiscriminatory
negl
574
581
fiscal
nonres
833
logic
##abilitation
lose
sam
##iaries
##mpted
contents
commissions
marked
declare
rehabilitation
dilution
defenses
symb
participants
compared
##say
warranted
##worth
settle
rede
hay
##tered
altogether
warning
monetary
indicted
blood
bag
male
commence
##ills
os
unex
576
turner
statistics
whatsoever
boundary
##rieved
parallel
gulf
tac
moving
convinced
leon
gerry
presentation
implicated
preservation
##ariness
##arcer
really
##verted
imply
##ram
##iders
reluct
##ficial
567
precludes
rent
disse
terry
absolutely
murphy
fem
prevents
622
hereafter
disprop
unemployment
inspect
trading
minimal
emotional
perv
approving
unequivoc
inequ
593
affirming
issuing
solution
warren
disciplinary
estopp
waive
01
revocation
estimated
unjust
undermine
henry
print
decrees
technology
deliberately
keeping
mechanism
bias
merc
interm
suffice
grievances
##lays
##ches
transfers
flat
bounds
publishing
##tt
604
placing
cance
announce
foreclose
trigger
violent
longstanding
superint
addressing
hazard
repealed
suspend
summar
adjustments
undertake
coercive
disproportion
asking
##irms
gray
certainty
##atic
##owner
contracting
borrow
newly
2000e
##low
fines
667
pleaded
confidence
planning
naturalization
aircraft
##eased
interpretations
dup
sla
##aly
explor
proposals
condemned
##iley
aven
nuc
manual
formulation
##missibility
chooses
rus
##tively
compulsion
##abilities
securing
marine
1926
opening
dic
differenti
607
files
offering
withdrawal
##uge
offenders
579
returns
569
friend
##orters
spok
posed
empowered
fundamentally
invent
formed
scienti
629
expiration
successive
promptly
foreclosed
##ease
interlocutory
bona
##leum
unm
airlines
illegiti
##itative
ads
corps
aggrieved
gerrym
thorn
##actor
bondholders
##ded
##sters
attr
##amus
circuits
reservations
vict
adhere
prosecuted
ross
continues
royal
ky
##oul
##imination
1931
unwarr
navigation
petroleum
enjoyed
##elson
boycott
inability
accomplished
wholesal
perceived
effectuate
##tio
elimination
anticipated
withholding
doubts
cath
##tail
##oning
federation
definite
mandamus
ineffective
inex
parental
672
novo
##uana
pharm
incarcer
attendance
590
abro
##oked
prosecutors
worker
salary
connected
misrepres
gib
adea
induc
assured
convict
feet
596
dun
disease
636
shipper
accompanying
##ounded
personally
valuation
adding
blue
pict
start
anticompetitive
overturn
ore
wade
insured
crow
ec
renders
##xic
leaders
##engers
##anged
films
senators
550
affiliated
unwarranted
dealer
##olved
commonly
558
choices
easy
677
##held
##tious
christian
##ulture
relates
afdc
condemnation
lt
irs
affirmatively
malice
comptroll
conceal
bodies
comptroller
##erald
complic
641
journ
withheld
##urally
##tum
631
punishable
unquestionably
height
##erto
##ulating
agriculture
##pper
##ows
composition
earned
##bl
suppose
glass
dall
capr
630
credibility
details
reinstate
chemical
misleading
leads
acknowledges
deficiency
##lim
defect
##apped
teacher
##angible
editorial
passengers
hardship
##aur
614
contexts
740
preserved
delin
pertain
discon
string
572
covering
##icts
observe
##ican
richardson
715
solicit
jac
implies
puerto
thorough
hughes
stores
##idge
disclaim
minors
runs
independence
##pl
responded
carries
04
norris
611
648
explains
investigations
conscienti
electronic
reliability
678
##ara
positive
consumm
repud
obst
subjective
##antly
artific
practicable
unknow
depreciation
731
surface
investigate
##elig
predicate
delinqu
doe
facial
participated
disposal
preclearance
700
