[PAD]
[UNK]
[CLS]
[SEP]
[MASK]
!
"
#
$
%
&
'
(
)
*
+
,
-
.
/
0
1
2
3
4
5
6
7
8
9
:
;
<
=
>
?
@
[
\
]
_
`
a
b
c
d
e
f
g
h
i
j
k
l
m
n
o
p
q
r
s
t
u
v
w
x
y
z
{
~
¡
£
¤
¦
¨
ª
«
®
°
º
œ
α
β
γ
δ
ε
ζ
η
ι
κ
σ
τ
υ
ω
х
–
—
“
”
‡
…
‰
##e
##n
##h
##i
##r
##s
##t
##o
##c
##a
##l
##y
##b
##d
##5
##1
##w
##6
##0
##m
##f
##g
##u
##k
##p
##z
##9
##8
##v
##x
##3
##4
##2
##j
##q
##7
##œ
##°
th
the
##er
##in
##at
##on
##es
##en
##or
##ed
##nd
##ou
##an
##ing
to
##al
of
##re
in
##it
##ar
and
##as
##is
##ic
##om
##ion
##le
##ent
##el
it
##ot
##il
is
be
re
that
##st
##ow
##ve
you
##ut
on
##id
##ly
st
##ct
##et
wh
ha
for
##ro
##ur
##ay
##ch
##ver
##se
##ce
##ol
was
##ig
an
##ation
##ir
##im
##am
al
##th
are
as
##ad
##ld
##ith
he
not
sh
##ter
with
they
##ul
ne
##ess
pro
##est
we
con
##ment
##ers
fr
at
have
se
##ill
##ke
##ere
de
do
ch
go
com
or
##ra
su
##op
##ould
##igh
##od
li
##ant
##ge
there
ex
##ate
##ain
kn
##pp
##ri
##us
by
but
##and
##ist
##ust
##ity
know
ab
ye
##ab
from
##ck
##ort
##ies
##mp
##ore
uh
le
##ell
so
##ight
##out
##ome
wor
##ard
me
all
this
##gh
##os
can
##ally
no
##ost
##ff
##all
##ud
##nt
##ect
##ive
##um
##iv
##art
pr
sp
ma
pl
his
has
man
one
##ough
##ap
##un
##ie
ar
##our
had
##ci
don
##qu
##ast
sa
were
out
##em
##end
about
any
lo
en
cl
##ok
like
##au
will
what
ad
tr
if
un
##ice
##ous
##ound
up
just
their
pe
##ind
##ated
##ink
tim
would
##one
my
##ish
comp
##ions
ag
us
##ong
##ah
some
##her
res
more
them
##cc
##ure
##iz
per
##if
bec
##ance
did
##orm
##ine
##ack
work
##ther
te
ta
who
when
am
year
she
get
##ide
##ans
##ven
##age
yeah
##ople
people
imp
think
##ame
well
been
##ount
##ag
fa
inc
##ble
new
exp
cont
##ich
qu
##gr
##ings
di
rep
##ence
off
time
##ely
##ations
int
ever
##able
##ays
##ach
its
##form
##ause
inter
##are
gr
##erv
ro
than
other
##ue
over
dis
her
##pt
because
fe
##ite
##ub
##ry
##hing
##itt
mu
how
app
tw
##ber
##ary
bo
19
##ose
br
##ult
co
only
la
##wn
##ip
##00
##ree
##ors
##ign
##ery
part
bu
act
##own
your
##enc
##ild
could
which
good
##ace
##ade
cent
##ia
said
him
##uct
##ass
##ical
every
cr
##reat
sc
##ak
##ments
ind
acc
pre
col
po
ve
never
comm
##ase
##og
##int
##so
most
see
now
##ens
##ang
##lo
##lic
##ving
##ep
need
##vel
des
##ark
gu
right
serv
##ire
af
rec
does
##ory
two
should
into
##ates
und
very
really
##ac
car
##ond
here
fir
want
##act
##ition
##ents
these
##ved
##ile
##ial
um
even
under
may
sm
##ty
many
look
##ord
##lect
##ian
then
att
progr
much
hel
lot
##omet
where
our
fin
after
##iss
bet
pol
thr
##ict
mo
##king
leg
##ful
years
cons
dec
way
rel
back
inv
somet
##ices
##ater
going
sy
got
##cial
##ities
##eral
##amp
mon
program
##ick
ass
rem
tra
op
old
also
str
though
inform
##thing
sec
##ert
##ft
pres
reg
##old
first
##its
##vern
long
##ces
##les
##elf
jo
##ual
##ons
diff
down
##oth
##ys
spe
make
##und
made
##iew
##mm
eff
prov
cost
information
##ning
high
##land
too
through
##ious
##ath
govern
##way
##av
##ouse
##gan
state
didn
##ail
##ational
bl
##ood
##ury
requ
sch
ke
##fore
take
still
supp
ev
##we
pub
great
##ress
##lud
those
law
ac
##other
##erm
##oll
##ib
count
bel
##fe
used
oh
help
##ract
litt
fl
##ility
##urn
little
say
report
something
bus
##oc
##ject
##ied
gen
stud
##stem
call
##iver
id
before
cour
system
##ise
##ating
##als
mean
##ible
add
sub
##cess
use
##ting
pers
things
##get
##ily
find
sl
##ather
legal
##uring
house
own
##ular
ob
wr
includ
emp
##ards
fam
war
##orn
government
city
dep
##ced
##led
ll
##ited
vis
##ange
sur
cap
##pe
such
##ually
##oss
bas
##ks
##atch
##ways
day
differ
show
par
##eric
interest
##olog
pay
disc
##mb
##ures
again
art
199
prod
being
hand
##ph
around
el
fed
mar
ph
americ
place
stand
inst
kind
##ics
##lish
found
##sc
small
##ool
real
ca
agenc
##ues
##ative
##ered
mod
end
##ug
plan
same
##rib
tal
loc
world
ret
val
##ix
set
child
ga
##ene
ed
last
##rect
##con
##aint
##oup
organ
always
dr
##rol
public
red
est
##ms
##ants
ent
ru
hu
ear
##cent
ins
town
def
##oney
##ves
century
min
resp
anything
stre
care
lar
federal
##let
while
##ives
##kes
##ked
##ident
##day
del
organiz
start
rev
home
person
import
both
##ars
nor
three
let
rest
##ower
far
num
##ody
money
proble
##ying
pri
##ew
appro
school
##ss
sim
read
##ork
mark
ref
##ines
thing
##osed
sou
char
build
happ
sin
perform
##ists
seem
big
##ific
met
cle
pop
##red
services
##ets
thought
cor
med
##ern
point
##ently
dem
av
fact
belie
eas
##ek
hum
##ution
##ably
aud
life
during
play
##iness
effect
come
put
eng
fund
national
post
less
book
##tern
##ear
case
##ren
##chn
prop
few
##ween
##conom
between
lead
rule
sk
service
sure
##velop
best
##ains
em
conf
might
each
econom
wom
tri
another
iss
incre
bar
##ided
percent
det
away
##ters
chang
aut
mil
hard
cur
techn
##air
##xt
sign
form
dist
air
must
##cept
develop
##ized
nothing
product
different
##urch
partic
doesn
since
control
##hip
##ins
country
##res
##ically
##ids
compan
manage
adv
hist
went
##ull
important
##ds
design
bene
conc
result
##ention
##pl
island
consid
##ilt
aff
##ined
tax
##loy
business
feel
muse
watch
head
sit
##be
##ital
keep
gra
ser
##uss
direct
quest
open
##ata
better
jon
##az
area
visit
process
near
##self
tour
200
##ason
temp
##ever
##ash
che
fun
##der
four
##uc
commun
room
benef
##io
news
##ural
##ism
number
once
turn
why
cert
sen
states
trans
water
cover
##ward
run
view
children
adm
ext
##ier
mr
yes
##ling
ty
##rew
allow
ide
guess
wal
da
hot
##ross
##ired
##ron
times
##alth
pat
##gest
finan
management
left
##ize
##co
anal
support
sw
##ten
##body
mail
data
maj
##ately
##man
invest
##ollow
poss
mill
without
account
##ected
##te
const
##que
##ale
##ient
miss
test
prob
men
done
prof
tell
follow
programs
##ts
employ
week
museum
president
sever
exc
camp
bud
doing
##ared
mus
port
##ality
expl
south
major
unt
ter
land
white
ra
##oun
##ley
clint
##gress
cre
mat
stu
gl
elect
intern
prot
##els
##ec
complet
called
gao
##ric
group
north
pret
##read
##ained
##ology
pal
##ee
built
##ger
clinton
##ides
ris
secur
bad
american
000
church
give
five
##ton
underst
##ged
pass
##ians
kids
night
##ats
##ought
##ior
probably
impro
require
shop
priv
##oy
able
##orts
equ
inf
contin
nat
class
beh
review
20
enough
certain
came
##ends
audit
ann
along
seen
today
crit
collect
youn
office
took
job
hour
##ute
stat
month
pract
polit
##less
large
18
sect
opp
everything
##ness
##ock
##ned
street
mor
dri
##ral
lsc
##side
##wh
next
against
##ead
family
name
##ner
market
##ruct
grow
##ank
term
until
##ision
congress
oper
top
several
main
stay
var
pretty
power
change
arch
##ases
rece
performance
fri
auth
##ote
financial
##augh
level
giv
summ
center
ap
agency
second
##ames
agencies
security
ok
##ees
costs
cal
##lement
huh
##ages
clear
cond
polic
##gy
##iet
##ime
course
bill
##ened
##ither
##aper
general
tre
gener
sal
##uck
##vers
capital
examp
known
project
##hn
trad
understand
##ump
##ering
meet
activ
avail
believe
##ised
##ember
dra
##ether
curr
analys
repres
##ave
offic
however
##ey
##li
enj
low
isn
invol
provide
won
exper
past
##iel
##ted
##br
##lex
##ining
##ivid
mov
hal
##per
##aring
john
deliver
united
local
depart
bro
says
##upp
stop
saving
##ional
##ency
##ission
six
pa
##most
##used
##ified
having
free
##ased
park
##idd
story
##ken
told
##pped
problem
least
##ccess
##ability
ey
asked
building
getting
rul
side
else
women
san
har
##ument
estim
road
gard
lim
sing
gre
cut
vol
saw
doll
thir
##ending
health
try
list
##oot
often
black
wasn
cho
##ured
order
available
wa
million
whether
##ients
almost
vill
reason
##eng
sta
occ
looked
based
cult
##gin
ste
budget
mer
problems
##ored
##enn
actually
##ances
study
represent
orig
young
whole
mount
days
fig
success
exec
making
beach
everyone
##up
tot
##ibility
enjoy
ident
ago
pie
mag
individ
prom
##imes
jud
site
wall
##aster
regul
aw
##sel
##lished
live
10
comput
fac
tomm
idea
analysis
hous
##cif
##ont
history
jap
tommy
##ench
ple
##emp
experi
deal
japan
wind
sug
win
food
quite
author
individual
sat
question
half
court
changes
15
social
##sh
origin
indust
desc
discuss
##idence
sound
tupp
##ina
wanted
non
okay
rather
interv
respons
tuppence
pur
yet
##ried
including
##ived
addition
pos
##uation
##iting
bur
accord
ir
present
among
ho
##ences
##ensive
full
resear
lawy
research
##aim
heard
bre
organizations
company
##pect
west
sun
##ources
york
true
##ife
enter
rom
fut
maybe
17
##anc
##enty
brit
benefits
##ries
estab
##bo
##omm
remember
##ively
within
ce
##ret
hold
working
##arr
bra
es
##rict
popular
##rist
stuff
##ories
tow
fil
technology
possible
execut
##lev
##ps
arm
hor
bit
makes
issues
private
either
king
##ended
manag
hop
tex
short
outside
example
cra
##hod
##ination
someone
##aut
income
sil
step
interesting
postal
early
il
travel
standards
blo
nice
cann
##ued
##ening
using
east
later
##na
meas
sol
##irl
##ane
signific
access
across
temple
fish
seems
future
amount
##hold
special
admin
##ration
##line
lear
imm
trying
hill
abs
agree
needed
##ison
easy
given
face
systems
wond
enc
buy
final
become
12
##utes
##ateg
##uce
env
needs
results
##pr
address
ep
girl
##par
##iod
usually
lab
##ister
civ
prev
eu
talking
##soci
##aces
method
coup
modern
vi
##atic
bal
reach
associ
##aking
poor
##fer
period
rate
##itions
christ
oth
sty
suggest
coun
##ulation
quality
coast
colle
particular
others
##ortun
miles
##ows
ant
net
##cient
##0s
door
profess
##by
prin
taken
daan
hus
pot
##over
economic
mom
looking
init
16
##att
fail
##ivers
dom
toget
##elt
##cip
specif
matter
##ott
simp
jew
consider
ge
together
im
##raph
move
educ
staff
team
paper
beaut
##ape
cannot
##iding
##ilar
value
##ru
ten
record
assist
anyone
approach
started
##where
significant
##work
foc
particip
##band
department
mind
alth
##itting
held
policy
death
include
improve
drew
flo
##fully
##ze
behind
knew
sometimes
computer
hund
##iron
worth
human
although
squ
hundred
euro
line
tur
##icult
environ
##ready
already
official
##ica
according
##ety
compet
##ove
##cially
claim
attract
##ming
drug
##gle
talk
civil
french
accept
fine
shows
##illed
typ
music
couldn
woman
grand
##ense
dest
exact
##aining
love
##unch
##hol
##ilities
##por
himself
haven
model
##atory
ground
difficult
##bs
necess
exist
##ese
##iter
##erg
arg
summer
##ush
implement
sent
risk
##ising
repub
eval
scre
regard
organization
europe
administ
##aps
husband
paint
##ator
impact
fall
defin
rock
##yn
alco
development
single
##ished
##mbers
demand
hours
##sw
fre
areas
rout
rules
texas
environment
dollars
total
increase
members
##rop
fav
required
became
cred
return
republic
determ
sort
community
div
##kely
alcohol
dou
infl
lou
##rin
justice
similar
lost
planning
entire
concern
foot
dev
tradition
##ges
movie
protect
current
##irc
age
fort
studies
##ov
personal
requirements
deb
mem
##itted
##ogn
##acy
grant
commission
walk
##selves
##itch
companies
months
eight
object
##ature
##ama
delivery
##chie
##aw
##oring
##amed
sus
couple
river
##ume
subject
close
bring
gave
activities
rich
thous
wouldn
considered
thousand
light
related
fell
press
collection
##ius
##aur
friend
leave
cases
sn
##fact
resources
british
cast
##ium
answ
begin
##aves
ele
sell
##imin
univers
ital
political
##ann
expect
doc
achie
vict
living
parents
self
ones
##iful
##thern
histor
recogn
ii
comes
cop
began
hol
obs
assess
##ield
eyes
famil
11
turned
type
##iously
##omes
teach
construct
fore
contrib
felt
hear
workers
198
mal
##fect
##itive
##ourn
aren
##rem
goes
circ
pick
sir
treat
##lin
##ential
works
section
provided
college
fight
##atives
reports
saint
##ony
refer
espe
wife
##oke
employees
describ
mult
nation
##ograph
taking
##yc
especially
longer
completely
involved
fur
##pri
roy
##ler
aid
price
famous
sea
##iddle
experience
wood
takes
questions
strong
houses
##uced
quick
14
mur
above
##urs
poll
america
opt
wonder
table
##umb
adrin
located
bir
vo
##ators
themselves
instead
appropri
issue
lang
coming
wrong
tv
##use
offer
roman
beautiful
due
dead
words
figure
##den
##ify
middle
ask
conn
surr
milit
charact
restaur
exactly
##ffic
hall
##ball
central
norm
##rible
##val
likely
##asing
heart
gold
repl
poir
standard
industry
mad
applic
##oura
poirot
inside
morning
##aign
check
unf
recomm
village
bed
##bor
drink
campaign
maint
soci
means
evidence
reporting
perfect
journ
god
sense
##ping
board
##son
cath
comments
attorn
jul
##gn
france
brought
chap
contract
jer
soon
cust
##ny
ancient
##uses
archit
##ots
hands
effective
pen
proposed
detail
base
speak
##tain
##ai
relig
avo
viol
hon
washing
##istic
books
received
##bert
minutes
key
labor
architect
##hib
##isions
english
30
##epend
proper
visitors
conv
displ
shr
common
recent
mrs
style
##ledge
favor
stra
neg
vir
twenty
lawyers
square
attention
changed
worked
sold
front
fair
mass
anim
##ring
##urance
unc
sett
tried
investment
arr
appear
independ
further
ran
executive
decided
bush
##gypt
kept
opportun
du
manu
huge
leaders
late
##ization
allowed
created
egypt
democ
13
mot
none
plans
expected
household
happened
langu
washington
pain
##amb
purp
##ky
sex
trust
initi
economy
foreign
mos
##ique
places
manufact
##app
##lus
chall
chines
perh
education
weather
struct
palace
moment
james
lived
ens
corpor
surround
mother
relations
reform
buildings
emerg
pan
##unt
item
influ
chinese
perhaps
##omp
##ik
lake
desp
drive
##ores
piece
##isc
funding
request
military
er
decision
surpr
designed
##ake
##ols
strateg
100
population
hope
son
peace
district
royal
jun
pict
party
fif
neigh
express
valley
hotel
epa
gets
##airs
third
whate
attack
whatever
span
boy
##iqu
##ental
separ
following
ban
ways
##arch
knowledge
germ
ti
##issions
funds
friends
necessary
acqu
hit
hur
lower
color
dam
##ped
##ims
##ival
gone
##isl
##ceed
recently
julius
##ction
action
prep
event
saying
fire
itself
2000
green
##estern
arri
clean
appe
included
specific
##ena
##ires
super
apart
spend
plant
break
##itely
stone
natural
bon
##osing
practices
ill
lad
##thor
##ades
artic
select
##ios
##ouch
scen
gun
reported
auditors
culture
##ging
altern
ord
##venue
##ronic
groups
##olution
remains
princip
trou
exam
trade
original
stri
stock
spending
dav
##hood
secret
custom
indic
##ource
##ification
engine
seven
cat
gall
creat
##eter
situation
gree
ingle
nobody
shops
card
##ites
sav
##itten
game
range
##ef
dog
medic
pack
ut
##ded
##ana
complex
##uary
chance
##ief
finally
legisl
geor
voice
inglethor
corn
##zz
##iled
indian
seemed
##umpt
##for
notice
##uction
eat
credit
rid
##he
##of
##med
except
higher
annual
ang
deep
inglethorp
dor
##ript
word
supposed
americans
assistance
western
streets
hi
ali
ju
russ
force
cook
affect
broad
sand
isra
countries
paid
character
israel
##xic
comb
vot
efforts
happy
effic
taxes
mary
##umn
retire
##eness
moved
km
lack
mich
adj
views
provides
sant
quar
committ
subst
established
soft
crow
cold
trees
##port
##aries
bey
##ams
##ung
covered
paris
focus
spent
##oes
communic
mess
##osp
expensive
reflect
aver
##hic
upon
##ological
prior
internet
gardens
definitely
bay
pred
throughout
garden
swe
link
ah
prim
older
additional
body
emb
##ole
cele
evalu
##ises
##izing
traditional
celebr
narr
guy
training
interested
university
rates
vers
##eks
conduct
language
lat
##rod
season
position
##uries
share
china
instit
emissions
myself
phys
establish
despite
wide
sup
growth
society
laws
critical
attemp
bank
lives
##apers
insurance
islands
various
toward
##ipment
draw
japanese
imag
##set
inn
##ara
commer
continue
document
cas
wild
##cks
##ights
##rupt
cro
father
mater
relationship
##oon
correct
increased
benefit
##bur
##arily
ven
tomb
doct
beyond
dall
##ror
##ob
clients
##iction
written
den
mach
former
certainly
ign
sle
##eless
alone
##ift
below
##row
##oint
station
role
batt
dress
clim
impress
decl
international
shopping
named
students
##aught
encoura
wish
##erous
published
slow
respect
absol
everybody
##roy
dallas
bi
cross
##ne
##utions
farm
##ude
save
happen
##vert
proced
died
scul
equipment
##ength
goals
developed
sites
prefer
practice
sculpt
fem
comment
anyway
cause
round
tar
entities
terrible
dro
pleas
observ
construction
hy
web
thinking
##aced
wants
install
senior
##go
##inc
##leg
led
feat
slate
emergency
##een
##uth
##oph
train
discover
democr
kill
size
##sy
prices
doub
##oming
mand
weeks
tourist
##tered
exhib
phil
tend
##estic
families
25
##ware
fres
events
deg
letter
generally
floor
louis
rap
vote
##onst
quiet
wrote
patients
dark
##iff
cru
appropriate
##bed
spanish
cand
fix
clos
opin
production
steps
rights
##scape
carry
consist
sched
##bers
##aded
scr
surv
serve
fash
mention
##xim
197
sky
answer
bab
mort
tit
brown
measure
recommend
##itor
##idents
din
path
reb
stood
wealth
club
difference
increasing
horse
page
medical
material
hosp
sens
##more
rad
sad
whose
1996
officials
ball
bought
gar
choice
field
##uted
closed
master
##ipp
##iling
##room
includes
pieces
multip
ur
looks
occur
gate
weap
accounting
authority
60
hers
basis
effects
sounds
ara
mart
##iced
meeting
##edi
region
david
##ux
##ode
running
glass
german
average
##ban
blue
movies
retirement
threat
complete
items
heav
space
phot
products
regulatory
##erc
earth
nature
terms
perm
excell
internal
##astic
mid
##rel
##usal
crime
connect
##egr
##wide
disp
##iques
##ha
growing
purch
##ax
##idge
##ivity
simply
fast
##cious
cloth
goods
flow
entr
leading
2001
operations
##ba
##ches
hotels
individuals
50
ded
ess
hate
luck
##utely
bye
agre
guid
display
jes
##olf
extra
levels
beaches
simple
quickly
##uments
schools
easily
administration
cathed
sports
obv
extrem
volume
particularly
types
ful
feet
walls
flex
##iny
box
learn
journal
##enced
payments
investig
fashion
revenue
##oses
actions
blood
destroy
achieve
sci
somebody
india
hong
##ira
offers
helped
managers
##erry
integr
reading
yourself
column
winter
cit
##ox
##sequ
spl
reduce
##aughter
spot
equal
trouble
mis
##ex
mic
mist
##ster
##cked
accomp
subm
respond
media
judge
savings
##ips
hunt
lawyer
tower
cam
kong
##rit
##come
stories
added
largest
ensure
40
##ially
##entions
effort
thirty
army
##asc
##asons
cars
avoid
absolutely
excellent
reli
dave
spoke
mountains
ver
##onse
payment
nearly
dut
host
pil
beat
##ables
fly
liter
##anced
##iety
cities
##to
lots
passed
hans
film
participants
ft
##ma
star
discount
response
believed
afford
bri
remain
estimates
basic
magn
mission
immedi
committee
##back
##ille
##vey
##ests
##ills
safe
adop
budd
lit
potential
adjust
##yr
196
regular
empire
watching
treas
phone
oppos
##usalem
hom
##ented
ability
grad
wait
administr
jerusalem
##atively
sud
favorite
lay
omb
##gg
associated
religious
contr
conserv
rain
neighbor
decor
paying
eastern
giving
confer
drugs
article
smaller
southern
##uit
warm
points
rooms
mountain
restaurants
##erve
##change
stopped
bott
fle
source
chair
setting
frequ
route
bord
restrict
playing
alternative
touch
served
consum
pros
sac
requires
distrib
serious
raised
policies
independent
hanson
##put
truth
mostly
progress
director
opened
newsp
magaz
interview
fisc
##ones
constit
responsible
expert
decre
trip
domestic
property
straight
entrance
##eed
##reci
note
constant
republicans
animals
##ously
remained
##ornia
nearby
beginning
george
commercial
bom
##oud
##rap
compl
imposs
sector
jewish
greek
multiple
##ops
contains
tourists
glo
##oh
##cy
##aters
tom
liber
centuries
series
analy
limited
ast
hang
kal
rural
critics
inj
accur
affected
calif
billion
estimate
successful
narrow
fiscal
date
gives
spring
expand
1999
continued
clearly
##aving
knows
sor
##lier
##ask
capt
married
talked
charge
watched
jan
demonst
swim
beg
convers
anymore
advert
providing
useful
northern
##teen
activity
christian
battle
sudden
##cil
##fort
receive
towards
##chan
prison
##aged
autom
intervention
jack
forward
parts
remark
directly
castle
science
fest
je
meant
statements
behav
eye
##ners
create
currently
occas
impossible
##cul
county
ready
european
agreed
##cl
##wood
##ament
unit
meaning
1998
starting
structure
killed
las
pun
tick
compared
appl
decisions
cathedral
band
loss
ul
##iar
##ule
assum
electric
regulations
environmental
candid
kid
mine
wear
exerc
guide
england
opportunity
strategic
born
gi
hind
##men
##icians
therefore
methods
assessment
purpose
21
roll
spir
wel
hair
apply
dail
sitting
worry
greater
larger
please
influence
##ergy
##itz
worse
played
propos
stayed
estimated
angel
ren
##ope
spect
firm
statement
aware
reached
association
professional
categ
ib
jama
nine
##ino
coff
sword
jobs
##oted
##iring
shown
contact
electronic
politics
failed
gas
reasons
spain
entity
variety
aug
dub
store
sho
##ula
chief
resort
fishing
attorney
doro
dang
fol
##eys
##bing
##ada
shall
values
factors
micro
vac
cash
##gas
stores
weak
suff
tele
volunt
corner
##umption
sleep
daily
eth
pet
##cing
##dom
##key
##aped
telev
risks
italy
samp
##uing
search
separate
quarter
##rof
shar
opinion
brief
500
cry
pra
prem
coll
towns
listen
##ils
rele
clock
interior
desert
oldest
debt
mix
sight
##ience
compar
flor
followed
paintings
challeng
california
rail
##tim
##antage
craft
qual
ended
##force
gore
send
capac
match
introd
evening
##ibly
limit
wonderful
catch
los
wine
##aud
thus
representation
originally
discussed
claims
existing
##ander
boat
choose
regarding
described
features
bag
et
##ta
lew
unless
assets
##week
minor
cultural
treatment
destroyed
##wise
colon
target
##wor
##rial
unli
##ground
appar
bes
bor
daughter
##inct
alt
cheap
procedures
tast
##making
appreci
bron
italian
theater
plants
saf
##ibilities
predict
nap
##eror
##itable
text
brother
seeing
standing
testing
musl
##rated
##vely
shot
sund
##rif
incent
bridge
identify
violence
architecture
jesus
cyn
##ji
##riage
disapp
crimin
manufacturing
##ham
##onna
newsweek
learned
thousands
attorneys
rue
##zy
location
performed
counsel
council
hell
majority
condition
behavior
##ipped
##ris
##lam
sev
19th
shouldn
insp
engage
implementation
susan
historical
breat
caught
games
##outh
##antic
mexic
repe
doctor
doubt
hospital
ben
##iles
willing
symb
funny
sales
##levant
anti
screening
##inating
##itude
amaz
identified
industrial
entertain
bono
ahead
clothes
immediately
neighborhood
lie
uses
minim
##ucing
201
##ycle
pul
wer
welf
##iers
##los
##inated
frank
union
offered
calls
defense
transport
holy
acquis
prepared
fully
welfare
via
thorn
##iveness
amb
thinks
robert
march
member
fresh
od
uns
numbers
ideas
18th
hills
evaluation
bow
##light
units
prec
writing
routes
television
fu
vide
starr
willi
##izes
grass
vegas
murder
citiz
##ael
##mon
##roll
conditions
draft
pollution
normal
race
tro
energy
##azz
capacity
##bb
##ae
noted
##arely
situ
temples
function
dollar
determine
protection
golden
conference
rand
##ream
earlier
##liance
coffee
weren
cub
grew
##ney
theory
thanks
commit
statue
martin
pic
papers
##inary
actual
suggested
16th
birth
restaurant
august
gent
##mos
concent
libr
anywhere
1995
pattern
hurt
##reg
##eth
dod
lies
client
adult
cool
spee
dram
advoc
walking
discussion
concerned
##ado
lose
##ague
##uctions
monument
minute
brand
objectives
michael
22
cow
psy
ride
##ca
##oles
student
findings
foundation
refused
conclus
accounts
##ushed
susp
cav
homes
mall
trib
##nes
forced
exchange
controls
feeling
recognized
heavy
oil
##rant
##can
##irt
1997
revolution
employee
projects
##ancy
pictures
jury
nod
##mer
##mber
forg
##istics
survey
arts
vari
psych
golf
bul
bell
lunch
yard
compliance
thank
relax
importance
processes
completed
generation
immig
grantees
software
radio
##iday
stew
##pper
rose
parties
guys
records
appeal
##adem
abuse
worst
camping
initial
gro
sources
comfort
emperor
households
imagine
dedic
award
fasc
stick
##asts
offices
guard
write
conflic
purs
executives
july
eld
fat
pu
tough
##ulf
neither
##action
walked
picture
lady
burn
lux
##ray
##ago
flat
surpl
accountability
painted
unfortun
chapter
mortality
flexibility
ira
ken
plenty
earn
totally
die
filled
##rid
afric
moving
examples
dinner
intended
pool
##aza
scenar
##burgh
dan
dad
nin
rise
##berg
track
depend
career
critic
interventions
republican
eventually
schedule
##otic
islam
shoot
unp
mont
technical
##ields
virgin
baby
bother
##50
##west
##ortion
spread
overall
suppose
challen
mel
wed
##ois
##eria
print
traffic
satis
profession
mosque
businesses
housing
presented
weapons
tiny
##has
##ested
concept
##elled
##ologies
stands
stated
depict
understanding
responsibility
network
version
pow
busy
17th
arab
##iest
greatest
markets
prevent
acquisition
##zen
keeping
enjoyed
accepted
effici
library
##da
defe
incor
interp
##akes
status
##fficient
machine
boring
tun
vand
##mark
##etic
residents
courts
produced
senate
waiting
occup
mir
##sec
feed
finance
terra
election
entirely
extremely
opposite
oct
forces
strange
happens
rulemaking
advantage
window
legislation
recommendations
der
pull
rent
##mas
forth
##abor
rob
police
showed
funded
powerful
burden
cards
laugh
names
##olic
##ightly
novel
##ender
centre
gothic
defic
explain
involve
june
exercise
angeles
##gu
##ieval
194
register
produce
medieval
matters
competition
surrounding
relevant
goal
guar
audits
congressional
pleasant
ultim
entertainment
speech
aust
franc
peak
command
##enses
chapel
medicare
substant
jane
##nam
waste
carri
helping
reduction
merch
virt
bath
##lig
##bon
##ald
liked
bob
organizational
advice
coverage
wid
##cket
##soft
biggest
opportunities
corporate
degree
microsoft
iron
##oking
compon
easier
apr
block
girls
drinking
painting
fifty
noticed
founded
positive
concerns
familiar
fighting
era
por
rang
van
##house
##dp
##gd
enh
##erved
fear
strug
editor
circum
gradu
guarant
amp
bou
lines
##equ
##sid
##oned
haw
sept
leaving
##ifying
strength
marriage
cafe
retail
engineering
dublin
fan
gain
##verse
sem
log
boil
indeed
vehic
firms
gotten
differences
kinds
skills
announ
freed
fortun
holly
santa
cab
mcc
rough
##ein
##cra
veget
elig
caused
territ
requirement
reviews
double
ton
##pa
asking
aspect
aftern
speaking
leader
snow
spectac
24
cart
gh
##reh
inqu
##ession
##raid
mac
resident
boys
decide
highly
inspect
restored
portug
irish
honor
gallery
hyp
january
sam
song
tall
##uous
##orters
shut
invent
supply
transfer
glad
surprised
primary
magazine
ol
vice
##ero
shad
weight
lif
faith
##ension
realize
stret
skin
trial
issued
changing
moral
manager
massive
breath
gift
gdp
scient
##inal
frame
buying
academ
jamaica
##ugh
tools
online
chic
##iving
finding
handle
confir
tests
irs
illust
cio
##iy
##eries
plain
otherwise
fourth
returned
perfectly
female
guidance
constitution
##era
forget
##ched
193
depends
artists
measures
counter
determined
challenges
william
gather
##iro
##ulated
outc
192
lawn
numerous
raise
topic
facilities
football
apartment
april
##oti
##othing
##oked
perman
relatively
believes
developing
##insky
regardless
attempt
citizens
hors
rub
##af
##ctions
heat
carter
consult
##eyer
arrived
border
sorry
swimming
vast
reve
##endish
roof
reduced
players
leads
##place
contributions
options
corporation
tap
##tom
##ding
##ett
whom
shel
dece
unique
pointed
factor
##idden
windows
silver
previous
suprem
apparently
sunday
dedicated
cup
dry
hat
sar
##uk
##emeyer
seek
carved
direction
profit
merc
figures
argument
screen
victor
nodded
row
##rate
somewhere
contain
finished
models
explan
selling
maintain
surrounded
efficient
title
herself
spirit
cavendish
vandemeyer
##anch
##tery
scand
##akers
afraid
flight
productivity
hundreds
democrats
bat
kar
users
2002
responsibilities
##pective
malays
##incol
unfortunately
circumst
tree
waters
##com
##ells
##unk
imper
##agon
twice
schol
slaves
instance
explained
younger
consistent
gamb
lic
mile
##ev
##oo
tea
owned
details
shrine
fairly
suddenly
##incoln
lincoln
mouth
pia
##adel
amend
contemp
overs
throw
monaster
highest
application
rome
##amble
chem
##apt
1990
edin
movement
elements
slowly
proceed
##using
unable
agric
coal
symp
advis
satur
##ancing
encourage
magnific
conversation
horses
edinburgh
fgd
##itness
hadn
worksh
decline
distance
telling
innov
impressive
afternoon
agricult
iv
forms
##thia
compreh
grown
madeira
basically
conclud
cuts
negoti
communication
dropped
##ught
dyn
jump
length
nav
rat
##atically
manner
compr
brad
interests
operating
improvement
copy
selection
incentives
##hi
pray
content
mob
facility
jews
eighty
leadership
mentioned
cynthia
piazz
##hab
##ini
##inger
recip
consequ
seat
##pping
lakes
planned
techniques
roads
russian
conducted
buddh
fal
furn
gal
lond
task
##bal
##ette
##ulous
quant
##ront
driving
archae
hen
native
pm
##nel
##lies
ship
chann
aband
hasn
loan
provid
runs
statues
physical
300
ber
bound
##ardship
entered
balance
eleg
honest
secretary
photograph
hollywood
hun
mond
##ais
##ford
##ita
queen
owners
emphas
letters
stake
amazing
freedom
esc
kitch
thom
##erly
##arian
worried
meat
enem
resorts
marble
museums
agreement
addressed
attractions
principles
##ription
aliens
vacation
london
egg
mc
##nic
##well
##stein
neat
tru
##ishing
speed
volunte
aim
bars
kent
conqu
carried
guns
video
september
gay
rena
##pie
##ari
alive
fraud
orient
clothing
reductions
approxim
reasonable
discovered
fixed
gonna
##rence
##alia
##itation
##aming
dole
mechan
scene
explore
steel
appeared
alex
bure
##do
##ston
whe
wearing
tours
patient
churches
calm
drop
male
ox
sister
tenn
reag
hearing
hero
presence
governments
##phere
landscape
harm
kingdom
strategies
hindu
ice
nurs
##off
shape
resist
boats
scott
subsid
oblig
advent
communities
damage
shook
spectacular
renn
monica
owner
putting
barg
improved
managed
##holders
tor
##ico
becoming
intel
dism
##encies
##issance
strate
helps
holding
picked
uncert
challenge
##iture
##ida
adequ
##gry
disag
##aked
hardly
employment
harbor
illeg
learning
teams
message
obvious
adopted
gentle
renaissance
strategy
fill
va
##ares
##umes
maxim
placed
##ishment
technologies
processing
extent
possibly
dish
wil
##gen
##itors
loved
divers
awful
negative
initiatives
obviously
##east
##ii
onto
stage
offering
scot
scale
sections
broke
britain
silent
memor
fellow
pressure
documents
initiative
splend
rennie
ot
ought
##oved
##eration
##orary
##enth
##ulate
smiled
charles
meetings
focused
loud
flowers
supreme
27
gross
##gment
forest
ash
proud
plus
##aret
##owned
fired
smart
join
defined
approved
option
neighb
random
ba
bod
##lers
##bit
##aled
strict
collections
computers
urban
reliability
electricity
symbol
magnificent
bureau
dow
ky
tel
##ville
##icip
alloc
enforce
click
remaining
provisions
publish
visited
##ashed
weekend
criteria
christmas
debate
##heim
russia
fascinating
##time
##road
fees
pover
wars
defend
increases
reviewed
historic
newspaper
applied
bust
ny
pound
sather
notes
sharing
##iza
centers
consumption
trail
elimin
approval
supported
experienced
unlike
bond
gri
saved
195
confidence
classical
advertising
occasion
piazza
truly
dust
##irts
##iment
leather
leaves
loans
howard
##igned
edge
effectiveness
religion
safety
napole
pyr
##here
##cel
atmos
anybody
##anged
governor
empty
terror
salt
magic
friendly
sharp
lewinsky
nom
##oto
##alls
fee
launch
1994
belief
parks
limits
horrible
attractive
columns
poverty
atmosphere
fool
##ober
plat
expend
diss
##others
instruct
reality
skies
advance
transform
covers
calcul
soldiers
crowd
litig
bottom
october
eligible
outcomes
26
witness
##hen
##cceed
##gl
forb
succeed
laid
effectively
trading
departments
typically
egyptian
purposes
##umptions
observed
proposal
pill
sult
sufficient
sov
prime
carp
syn
obt
obtain
recognize
lucky
chicago
fant
mas
##stand
webs
append
cris
happening
audience
portion
absor
replace
customer
rapid
connection
purchase
decorated
assumed
teleph
fab
sides
##water
##eling
suit
attend
belong
privacy
penal
superv
festival
forgot
circumstances
kentuck
ath
os
##zant
##erate
##ola
atl
likes
byzant
expos
assumptions
statewide
orders
distribution
kenned
permanent
gates
##wards
##kn
##pm
##zar
league
mah
plaza
overse
crus
##lets
organized
fewer
##what
villages
victims
motiv
essential
##craft
80
##iance
storm
##sey
contained
acid
protest
represented
implemented
independence
creating
bau
cats
dim
nic
oce
##lines
reject
##ellig
reput
phase
carefully
delight
emot
percentage
professor
specifically
detailed
animal
indiana
criminal
scholars
elegant
intellect
ped
upper
wing
##head
##za
##zed
shock
##elling
arms
cliff
partners
carol
##actions
formal
wooden
penins
rebu
pilgr
monday
fields
mut
##elve
conven
plays
active
everywhere
poison
richard
customers
democratic
incorpor
interpret
eating
penn
rum
##aly
somewhat
##cco
depos
readers
functions
sexual
literature
treasury
scandal
peninsula
2a
bunch
fit
aside
myst
##agas
recover
##acing
assume
ends
detect
beauty
catholic
package
materials
contrast
dig
gang
champ
##ateau
resol
bigger
allows
missed
##while
hole
silence
solution
experts
mexico
pulled
bout
gau
##ext
##ls
hey
clin
teen
bright
remind
lawrence
courty
valid
distinct
supporting
facade
15th
motor
closer
appreciate
hire
kos
pig
pier
sab
##iation
##rig
##ses
##ket
whitting
spok
dise
guil
smith
directors
opening
cutting
amounts
fortress
birds
arrange
manufactur
stewardship
scotland
napoleon
31
##yl
##ilit
becomes
intellig
showing
realized
confident
describes
selected
institute
philos
elderly
iraq
oversight
ferry
##orter
##uts
##ading
chronic
##antly
##ria
grants
overlo
regional
protected
representatives
grounds
expectations
replaced
frequently
surpluses
appendix
whittington
code
ww
##jack
chose
gods
sole
subsequ
slightly
##ugged
visiting
explor
stuck
auditor
significantly
definition
ordered
fuel
efficiency
nix
rh
riding
sale
##han
thick
bear
doors
joined
cave
continues
iii
madrid
peaceful
ignored
schedul
guidel
consumer
tickets
ocean
##now
##ike
##itals
sew
##aka
vision
delay
journey
displays
submitted
decrease
comprehensive
guilty
escape
fo
##ties
##itan
spr
appoint
larg
revol
tells
devoted
appears
scenes
accomplish
duty
ibiza
taste
conflict
approximately
23
70
cere
soph
##aling
compens
coord
##aker
columb
decades
relief
improving
opera
##employ
buried
crazy
crafts
kil
##la
##greg
##entially
##imp
conver
truck
artist
possibility
teacher
medicine
alien
sculpture
splendid
90
cell
cable
dance
ring
##ura
##uration
writ
reducing
##ifications
yester
delivered
paul
typical
recommended
transportation
largely
bin
fought
vren
##gs
##rees
proven
##erson
spons
mans
##ached
moon
decade
concert
allowances
exclus
turning
bird
replied
structures
expressed
climb
sample
illegal
nixon
yesterday
vrenna
jim
tub
excess
nox
arc
coop
crimes
committed
background
tourism
ideal
stup
failure
claimed
conservative
comfortable
imperial
saturday
kennedy
##cas
forever
clar
unemploy
implic
191
accident
attrib
spec
1993
temper
presidential
listed
##box
improvements
necessarily
applications
institution
troops
virginia
territory
bradley
uncertain
##oty
##illy
stars
alf
resource
brill
brick
politicians
measured
previously
fifteen
sultan
reputation
hide
kings
tig
##uces
whis
##rose
sport
expenses
feature
twelve
##acts
poland
assert
artif
retrof
marked
facts
signs
aircraft
millions
understood
positions
suggests
applicable
dogs
candidates
welcome
dangerous
eag
##dy
##icing
##lying
stamp
##asty
upset
reporters
gray
preamble
calling
slim
affairs
turns
johnson
##book
domin
achieved
surprise
weapon
newspapers
crisis
bull
losing
nations
sick
##sa
##icious
nep
##isted
enth
##agger
dial
scar
1992
plane
admitted
primarily
sensitive
bomb
bronze
2010
dramatic
chemical
ack
ble
lord
##edy
##icial
forty
##amber
shoes
ages
coach
convin
##kyo
expression
voting
restrictions
giant
muslim
residential
intellectual
33
caves
dating
peter
##life
tokyo
input
##otes
##ulations
##usi
surf
discr
waterf
officers
choices
punishment
released
commitment
boulev
hawai
guidelines
##ship
desire
transition
folks
minimum
acknow
ug
viet
##bar
##bel
##my
##enance
anse
shaped
##racy
##outs
pride
reference
normally
banks
pleasure
wealthy
increasingly
liberal
ottom
exposure
fer
ire
tired
##right
##rors
##stairs
stations
chat
chain
unkn
##aging
context
extensive
investments
officer
steep
regulation
styles
division
germany
##exp
franklin
thomas
push
##rations
##ingu
stared
##osen
trend
upd
recyc
blade
greatly
jones
merely
jewel
consideration
divor
avoided
settlement
colorado
occurred
dates
fro
gif
vary
##bi
##pes
##ona
##abilities
##ella
##ivals
poet
recall
monit
depress
ruins
stream
surely
##ruction
sugar
holds
image
memory
uncle
##going
administrative
cod
cous
dar
om
pages
sulf
tab
vent
youth
##raw
knock
clo
complic
tail
seeking
serves
monet
basket
portra
summary
teaching
repeated
satisf
malaysia
pyram
unknown
##20
highway
helpful
ski
classes
14th
surprising
carrying
hunting
odd
scenario
francis
abandoned
29
gor
nile
tons
##fa
##uable
##inent
stair
chest
knowing
unus
quit
raising
rising
brain
turk
baseball
daniel
aspects
tennis
ireland
barely
cried
mig
pond
thor
##eland
##essed
##arts
attest
##ologists
entry
signed
testim
projected
participate
flood
turkey
competitive
convention
principle
maryland
latest
category
gambling
telephone
dream
##gers
##zone
##rian
interim
buff
visibility
estate
minister
feels
natalia
facing
victory
attacks
exhibits
mistake
chairman
global
begun
shadow
carolina
fans
hated
kir
inner
anton
lift
so2
contro
colors
##ogue
smoke
careful
bills
breed
settled
relationships
venet
sadd
ultimately
december
monastery
henry
nursing
fda
vul
##iber
##aven
##fri
##fast
##ki
##ja
##adium
febr
accomm
recon
legend
flag
heads
treated
broken
sixty
sentence
sweet
survive
earthqu
candidate
##works
muslims
islamic
tonight
soviet
february
accommod
cer
cycle
pure
taught
##wan
shared
serving
assass
evolution
flower
writer
investors
staying
drawn
ceiling
participation
##ography
ordinary
cooking
doctors
masterpie
accompan
railway
reagan
00
kr
pad
veter
##case
##aver
##ya
##zing
thin
##inem
##ania
asian
dozen
output
user
##aken
subt
equally
volcan
constructed
accuracy
substantial
explanation
disagree
cu
cig
ec
lately
math
rare
ramp
tone
wore
##how
##point
##encing
##icked
persons
perspective
corps
emission
countryside
keeps
grace
switch
exciting
creation
elected
palest
contribution
mercury
providers
bauer
fount
jail
asia
conce
friday
abortion
lee
lev
nowhere
blow
thoughts
johnny
elsewhere
falling
teachers
##ographic
hijack
voters
begins
adults
artifacts
controvers
element
##bles
##pan
toxic
stable
alle
ships
chateau
exceed
lovely
incred
##ints
preserved
personnel
##ternal
anticip
argue
embra
celebrated
installation
sacred
sacrif
channel
courtyard
ottoman
dens
gp
theat
##ano
##itative
stadium
##semb
fruit
sust
studied
charming
corp
##bey
collected
##ructure
requests
fresco
##ipping
expanded
beside
stretch
kyoto
##standing
disease
75
bork
core
pair
yell
##nn
##anes
stead
prohib
prosec
reserv
##iform
earned
##resp
cheaper
admit
towers
characters
maintenance
prepare
articles
communications
innoc
categories
www
stupid
28
dining
derry
les
ozone
##bby
##12
prove
outl
faced
depending
visits
improper
20th
drag
involving
experiences
winds
remembered
approaches
ridic
documentation
borrow
situations
conclusion
pink
rarely
##itures
worship
whenever
elabor
cazar
economics
transl
divided
superb
clubs
accurate
altar
downt
sulfur
bol
erect
reward
##che
shif
##istan
fault
brings
finn
considering
tested
practical
judges
combination
sculptures
reliable
scottish
enforcement
ugly
turkish
fost
hidden
tent
##rates
monuments
asset
finds
parli
handed
auditing
prompt
accordance
##aimed
##annon
declared
degrees
florida
consequences
furniture
philosoph
dol
##hor
##rast
##arm
rein
ham
outdo
carib
blame
phr
valuable
responses
copies
ticket
thorough
400
ae
aer
rice
tan
vs
wages
##erning
toba
##asion
##eline
##anta
outcome
disney
consol
removed
subur
visible
instances
player
seriously
privile
infrast
facilit
traveled
solid
educational
implementing
principal
linked
latter
remarkable
disappoint
framework
kosov
enthusi
torn
##met
##zes
##isms
##imination
frag
plastic
##quar
enorm
usual
worker
gran
relative
disclos
instru
charged
analyses
blacks
judgment
priority
announced
stakeholders
boulevard
instruments
cet
##rich
inhab
##stream
##esty
##estone
##orted
lean
uniform
blank
parent
driven
ruled
films
rocks
breakfast
strike
characteristics
tombs
dutch
cuba
vehicle
agricultural
website
writers
parliament
32
gagas
kath
mental
sought
##rants
##rane
##inations
##ota
##stal
stab
shift
mak
buchan
accused
pocket
desk
guided
finest
##uese
harder
financing
elections
electron
palazz
authent
treaty
arrive
crowds
folk
conclusions
african
powers
portuguese
tobacco
hud
pitch
ske
##coming
aggress
residence
faces
smile
basil
mainly
promise
description
traveling
13th
indicate
galleries
encouraged
sleeping
comparison
colonial
mccain
amendment
avenue
boss
fena
hung
trop
##gar
##pay
##orrow
albert
explo
scope
finish
causes
publication
charges
affair
musee
enjo
healthy
150
attraction
destination
bringing
error
combined
latin
situated
components
archaeological
byzantine
testimony
##ranean
35
dome
##eing
##hal
##oma
##chal
shore
shirt
deem
sum
##istical
branch
##ipa
smo
traum
capable
weekly
sanct
nonp
suspect
contribute
pollut
bedroom
adopt
capture
besides
cabin
adequate
expenditures
penalty
buchanan
jac
lor
angry
##thy
withd
meal
map
lock
expense
disaster
strang
annually
harv
stepped
describe
examine
legislative
dorcas
##burg
regularly
tomorrow
patterns
enhance
struggle
36
bost
kl
rely
##hs
##oir
##omed
##owed
##imate
lively
##ante
leon
nov
##arel
indians
shoulder
1990s
concerning
operation
##board
addresses
examination
links
cruise
investigation
inventory
buddhist
authentic
boston
aci
pc
pir
tin
wage
##rad
anth
##ird
chamber
gop
orn
##ushing
##anda
recru
ours
monarch
presc
corrupt
cheer
excited
classic
listening
successfully
eleph
holiday
democracy
sandy
exhibit
frequent
bags
alfred
gpra
cios
cnn
fert
lam
lind
ment
pin
rams
tues
##fo
##ato
reven
##iguration
orange
quiz
##aks
attitude
writes
retired
sets
headed
northwest
promot
universal
violent
michel
crowded
climate
split
weakness
ethnic
infrastructure
smooth
dun
jord
kore
inland
canal
spin
plot
compare
##ensions
cairo
trips
##hips
explains
objects
answered
denied
festivals
minority
kitchen
vietnam
rational
ze
##ipt
##ads
heaven
exemp
nove
##angel
metal
puts
controlled
resulted
generations
sunset
12th
images
malay
mosa
israeli
survived
africa
scientific
unemployment
monitoring
cinem
gains
wet
##uze
forum
alb
##illes
noise
faa
warri
mediter
triump
advanced
continuing
achieving
settle
appearance
panel
examined
indicated
physicians
inspired
engagement
immigration
puert
carrier
dynasty
cousin
november
ain
bos
##uge
tool
ongoing
stark
##urally
##aders
abbey
prud
spa
##ques
unw
reserve
##ansas
impe
apparel
cock
smoking
stress
parad
locations
farther
performing
performances
formed
visitor
funchal
mailers
morris
receipt
apartments
quietly
terrace
karf
memorial
bodies
attestation
vulner
mediterranean
na
pine
rene
wound
##har
thurs
##oupe
##ici
stroll
assemb
##adays
height
hast
manual
##ouses
nowadays
mayor
supplement
marks
musical
securities
opposed
winning
researchers
administer
periods
existence
architectural
opinions
permit
prosper
wednes
boilerm
unusual
figh
nur
rode
zero
##lor
##the
##cipl
conscious
assumption
joy
blind
caf
##eared
allowing
promote
romans
requested
fifth
establishing
declined
hospitals
administrator
release
introduced
recipients
litigation
compensation
ak
fiction
pit
pont
roles
tu
##oque
##cast
##comm
##urd
alleg
neck
exists
##enda
uncon
imposing
scary
souven
curious
raj
managing
pottery
recorded
casual
venice
machines
installed
##oxide
astron
renov
concluded
wheel
diversity
600
bench
cant
nuc
rig
##inian
##ingly
##ifies
joint
missing
statistics
romantic
epis
optim
committees
danger
platform
species
basketball
frescoes
souvenir
nucle
jose
##iant
##oli
##thouse
##tering
fran
trick
emer
graph
##idding
##attle
demands
contracts
substance
drawing
ignore
discovery
hanging
captured
scenarios
professionals
laughed
hypoth
ramses
jordan
bour
dull
hug
hired
pent
pace
sits
vital
##ko
##kins
haz
asc
shil
proved
weird
exotic
scared
invasion
extended
walks
excuse
southwest
protoc
operate
topics
represents
awards
iran
entering
encoun
acceptable
diving
premature
component
strugg
volunteer
occasionally
complicated
tuesday
ax
cy
cyc
hes
jr
lined
rod
wise
##acc
##bell
##bour
##uff
stairs
habit
chamb
orch
##opes
canc
sheep
##agn
roc
lav
informed
plano
valuation
charl
resulting
portray
eleven
1980s
maintained
strip
juan
hersheim
heavily
buddha
magazines
suffered
bowl
relaxed
groc
burned
defeat
enormous
hersheimmer
bible
tip
tape
##iated
##gate
##omach
gosh
##usion
aggreg
highlight
##ception
feelings
greuze
##engers
accessible
coastline
falls
motion
colorful
riders
evaluate
vegetables
downtown
aege
kosovo
45
##ros
weigh
chick
tran
discipl
requiring
landsc
189
##like
identity
addressing
prince
similarly
femin
unlikely
criminals
alexander
kentucky
pilgrims
nepal
jewelry
shiloh
aegean
nerv
##iot
##keep
upstairs
somehow
yours
everyday
assurance
employers
passengers
statistical
receiving
nonf
dressed
farmers
jackson
satisfact
implications
consolid
dil
ow
pund
rac
vine
thri
shout
##osition
imposed
dioxide
repair
remove
trained
evil
corresp
baroque
involves
figured
housed
dealing
georg
commerce
editorial
contemporary
acknowled
cuis
yellow
elaborate
correspond
dir
elev
file
faster
gig
lying
rival
sna
##cr
##lv
##itage
isol
##uls
##oured
locked
theme
##agues
boom
boards
##aki
regions
supplies
prize
barri
productive
exclud
palais
limestone
pleased
grande
answers
handsome
errors
killing
analyst
widely
earthquake
erected
hou
lu
pushed
##bra
##esque
##rep
##uting
forec
dear
chosen
##aine
pla
diverse
##ubs
modest
simpl
metric
humans
economists
taxi
northeast
nato
salary
granted
##awa
victim
ladin
preferred
praise
roughly
neighbors
obtained
subsequent
gifts
ceram
diction
jur
sel
##ij
##oly
##bound
##wa
threw
##stone
shell
##illing
canada
##apes
outs
myster
useless
tech
pope
directed
swing
lands
cream
seconds
pacif
representative
burning
encl
referred
multi
reforms
greece
##rupted
integrity
pilot
adjustment
consumers
constantly
oriented
dismiss
55
aven
dame
mit
ine
##itated
##isters
beer
##amental
external
##istent
##abled
##une
ads
unre
myth
resem
heritage
##ensus
mini
personally
employed
drivers
hoping
conservatives
interpretation
mystery
divorce
venetian
theatre
cos
fing
gained
ram
till
wolf
##attered
##organ
##utory
nose
##iva
offset
##ipe
partner
acting
indig
guadel
lessons
supports
swung
constra
employer
severe
passing
187
authors
murd
creative
closely
seventy
ridiculous
wednesday
dirty
dre
dancing
luc
tas
##iors
##don
##esis
##oms
unified
expans
grade
distingu
waited
authorized
deficit
merchant
inquir
enemy
forgotten
palazzo
tropical
bread
jazz
nit
naz
ros
##iate
##erable
##ales
##ician
##vered
shannon
guides
secure
studying
captain
starts
admir
statutory
breaking
solic
destruction
determining
objective
properly
alternatives
impression
mexican
luxury
defeated
sewing
sophistic
recycling
astronom
chambers
guadeloupe
93
bic
fel
nich
pag
rit
sights
vin
thro
##cher
crown
desper
throne
soul
designs
designated
##bean
transactions
prototy
passage
equival
##whel
recognition
duke
sculpted
mandatory
portugal
fabric
converted
cigaret
nonprof
aic
dict
lion
mothers
nipa
tight
##lied
##lights
##gage
##eds
##asm
hamm
##irm
proph
liqu
##usc
##uns
sail
commod
##lands
medica
transm
summar
filed
argued
proposals
lewis
ninet
virtually
vehicles
innovative
spoken
explorer
puerto
houston
bern
cater
ron
##eas
##tan
##oons
##bul
##days
##pit
##xual
##inate
ate
noble
190
cents
carbon
refuge
factory
fundamental
grab
agreements
paperwork
acquired
etc
boris
immigrants
earnings
confirmed
hawaii
innocent
renew
medicaid
az
gap
wow
##aa
##aust
##uits
##vings
##inos
##isk
##isely
##isons
stomach
wash
##essions
##ache
relating
struck
warning
talks
palaces
projections
dealers
##arrass
popularity
connected
neglect
voted
drove
fulf
bombing
ibm
concentration
involvement
austral
pounds
manufacturers
portrait
aicpa
800
horn
rust
sons
##iently
##rument
##war
##any
##alf
##olis
##ardo
newly
crash
pools
trails
##under
instrument
retreat
edition
delic
covering
campus
##lessly
oppon
mainland
significance
wondered
coastal
considerable
returns
attacked
embarrass
measurement
recommendation
opposition
qualified
advocates
ninety
ultimate
spiritual
false
enemies
supervis
caribbean
phrase
##quarters
basilica
thursday
ritual
37
auction
bare
cot
cum
ly
lod
wt
##born
##ka
##oration
stor
##ima
sees
##ums
##okes
diam
boost
##licit
smell
##icted
provision
belt
courses
handling
define
simon
beneath
taxpay
apolog
authorities
focuses
maintaining
corporations
damaged
permitted
purchased
integrated
martinique
deficits
guarantee
95
dies
dup
finger
##night
##fl
sha
conj
seas
##udes
trends
##00s
actor
assigned
editors
deliber
skill
airport
patri
profits
palm
blocks
deaths
difficulty
beds
speaker
shrines
supposedly
hiking
confirm
shelter
comprom
rapidly
discrimination
pyramid
##friend
trauma
impeach
fcc
pays
##ias
##rent
##rating
##va
##areness
##amm
cans
outstanding
overwhel
recre
monitor
provin
delhi
profile
terrif
hitler
surplus
academic
resistance
boutiques
nuclear
##mir
##ester
##orious
##olitan
abroad
donations
enact
##aux
preced
polish
flour
subsc
clever
trials
deter
headquarters
certification
##boys
craw
hillary
balanced
influenced
striking
##riptions
substit
extreme
collabor
strictly
rejected
42
ls
ligh
lag
pupp
tie
tied
##ih
##zo
inev
##idays
stry
hav
##roph
alab
##thod
doz
knife
##agraph
acts
monop
remote
presents
genu
adding
surg
produc
entit
viewed
villa
awareness
enterpr
illin
methodology
assistant
rocky
subjects
assessing
1989
jersey
arrested
ensuring
procedure
flying
prospect
swords
carriers
athlet
rebuilt
intelligence
antonio
foster
strychn
illinois
39
hub
##trol
beard
reign
react
anc
suic
lips
agenda
prepar
guests
monte
schem
flav
weekends
greet
promised
hoped
solutions
absence
reaching
networks
strongly
mandates
garb
verd
injured
constitutional
maximum
protocols
strychnine
dat
hars
wol
##aff
##mother
##makers
toler
##isan
##ican
stim
##rogen
notre
##ulating
proof
fright
##ello
unne
incident
exposed
reprod
disg
pregn
##load
##lock
##acle
undert
legit
decent
slaver
retain
reader
metrop
excurs
nights
statute
identifying
discusses
crack
traditionally
settings
superior
boxes
responded
picturesque
lifet
ratio
fantastic
uncertainty
staircase
satisfaction
nonprofit
##thodox
slavery
fancy
gulf
oak
piz
##orca
inher
##ashing
reaction
stan
stones
shirts
##eller
loy
indo
poly
planet
milk
stops
ceo
travelers
poorly
seaf
languages
initially
banned
sweep
institutions
treasures
injuries
christianity
quarterback
mixed
derived
license
atlanta
delightful
masterpiece
aerob
48
99
fond
mild
##rest
##wr
##ui
##ala
##rete
shade
abc
yep
spare
##aches
moor
mons
discoura
letting
monthly
fallen
beautifully
attempts
extraord
complaint
sevent
kirby
density
outdoor
disclosure
nurse
dying
fate
pp
##field
##inity
##atures
##orous
toph
##idable
worn
intent
meanwhile
paragraph
badly
driver
terminal
##liers
steven
dominated
turks
1980
romanesque
reflected
displayed
journalists
fashionable
discounts
occasional
occupied
sympath
emphasis
cliffs
veterans
hastings
viney
fingers
cotton
wtp
topham
ari
rivers
ted
tut
tables
yield
##hem
##bc
##char
##rapped
libert
agents
##agers
reconst
cares
carvings
marvel
childhood
publications
allowance
patron
landmark
passion
armed
customs
util
broadcast
observation
##related
globe
rolling
cowboys
macau
lifesty
convinced
unnecess
34
crop
hatch
wines
yach
##ll
##10
reorgan
stal
anx
##oda
prest
##ems
compound
explicit
commem
mood
moderate
tale
revised
confused
economically
southeast
behalf
marketing
christians
assessments
circus
unfair
attempted
installations
rapier
crucial
paths
camera
adjusted
homeland
touched
sticks
retailers
victorian
bauerstein
prosecut
franco
chicken
dozens
cott
ceter
dot
fbi
gest
rico
ts
wave
##lah
##fare
##pir
##vas
##atoes
##oning
##enberg
notable
comedy
##usted
##unning
invo
##athers
fled
obsc
depth
margin
edward
transaction
186
oklah
fisherm
inflation
referral
woods
checked
soldier
illness
indicates
utter
