[PAD]
[UNK]
[CLS]
[SEP]
[MASK]
!
"
#
$
%
&
'
(
)
*
+
,
-
.
/
0
1
2
3
4
5
6
7
8
9
:
;
<
=
>
?
@
[
\
]
^
_
`
a
b
c
d
e
f
g
h
i
j
k
l
m
n
o
p
q
r
s
t
u
v
w
x
y
z
{
|
}
~
¡
¢
£
¥
§
¨
©
«
¬
®
¯
°
±
²
´
¶
·
¹
º
»
¼
½
¿
×
ß
æ
÷
ø
ı
ł
œ
ɑ
ɒ
ə
ɛ
ɡ
ɢ
ɪ
ɴ
ʀ
ʃ
ʌ
ʏ
ʒ
ʖ
ʙ
ʜ
ʟ
ʻ
ʼ
ʿ
ˈ
ˌ
ː
˙
˚
α
γ
δ
ε
η
ι
κ
λ
μ
ν
ο
π
ρ
ς
σ
τ
υ
φ
ψ
ω
а
б
в
г
д
е
з
и
к
л
м
н
о
п
р
с
т
у
ц
ч
ш
ы
ь
ю
ғ
א
ה
ו
ש
ا
ب
ة
ت
ح
خ
د
ر
ز
س
ص
ع
غ
ف
ق
ك
ل
م
ن
ه
و
ى
ي
چ
ی
ஜ
๏
ᴀ
ᴄ
ᴅ
ᴇ
ᴊ
ᴋ
ᴍ
ᴏ
ᴘ
ᴛ
ᴜ
ᴠ
ᴡ
ᴵ
‐
‑
–
—
―
‖
‘
’
“
”
„
†
•
…
′
″
›
‼
⁄
⁉
₀
₂
€
℅
ℐ
™
ℯ
ℴ
⅓
⇒
∎
−
∞
≤
⎌
⏺
━
┃
┈
┊
┳
═
╪
╭
╮
╯
╰
╱
╲
▀
▂
▄
█
▊
▋
▏
░
▒
▓
▔
▕
▬
▰
▱
▶
►
◄
○
●
◐
◕
☄
★
☆
☐
☑
☕
☝
☠
☭
☹
☺
☻
♀
♡
♥
♪
♫
♬
⚠
⚡
⚽
⚾
✅
✈
✋
✌
✔
✘
✨
✬
✰
✾
❄
❆
❌
❓
❔
❗
❣
❤
❥
➤
➥
⠀
⤵
⦁
⭕
。
チ
ツ
ニ
ハ
マ
ル
ロ
不
买
了
人
伎
会
你
关
卖
去
国
土
外
大
失
小
巨
年
式
得
怒
愤
成
所
收
是
月
有
来
株
歌
白
的
社
税
系
舞
要
豆
赢
都
钱
额
鬼
ﬁ
ﬂ
﴾
﴿
！
）
，
．
：
ｃ
ｉ
ｍ
ｏ
￼
𝐃
𝐅
𝐓
𝐔
𝐘
𝐚
𝐛
𝐜
𝐞
𝐡
𝐦
𝐨
𝐩
𝐬
𝐭
𝐮
𝐯
𝐰
𝐱
𝐲
𝐳
𝑩
𝑰
𝑺
𝑻
𝒀
𝒂
𝒃
𝒄
𝒅
𝒆
𝒇
𝒈
𝒉
𝒊
𝒋
𝒌
𝒍
𝒎
𝒏
𝒐
𝒑
𝒒
𝒓
𝒔
𝒕
𝒖
𝒗
𝒘
𝒙
𝒚
𝒛
𝒩
𝒶
𝒸
𝒻
𝒽
𝒾
𝓀
𝓁
𝓃
𝓅
𝓇
𝓈
𝓉
𝓊
𝓌
𝓎
𝓒
𝓲
𝓵
𝓿
𝗕
𝗙
𝗜
𝗢
𝗦
𝗧
𝗮
𝗯
𝗰
𝗱
𝗲
𝗳
𝗴
𝗵
𝗶
𝗹
𝗺
𝗻
𝗼
𝗽
𝗿
𝘀
𝘁
𝘂
𝘃
𝘄
𝘆
𝘦
𝘨
𝘩
𝘪
𝘮
𝘯
𝘰
𝘴
𝘵
𝙄
𝙏
𝙔
𝙖
𝙗
𝙘
𝙙
𝙚
𝙛
𝙜
𝙝
𝙞
𝙠
𝙡
𝙢
𝙣
𝙤
𝙥
𝙧
𝙨
𝙩
𝙪
𝙫
𝙬
𝙭
𝙮
𝟒
𝟓
𝟔
𝟬
𝟱
𝟳
🆘
🇦
🇨
🇳
🇵
🇷
🇸
🇺
🌍
🌏
🌞
🌟
🌮
🌸
🌺
🍁
🍺
🎁
🎄
🎯
🎰
🎶
🎼
🏆
🏉
🏐
🏝
🏻
🏼
🏽
🏾
🐒
🐟
🐡
🐴
🐻
🐽
👊
👌
👍
👎
👏
👠
👮
👶
👼
👿
💀
💋
💎
💕
💖
💙
💚
💛
💜
💟
💡
💤
💥
💨
💩
💪
💯
💰
💵
🔥
🔫
🕷
🖐
😀
😁
😂
😃
😄
😅
😆
😇
😈
😉
😊
😋
😍
😎
😏
😐
😑
😒
😔
😕
😖
😙
😛
😜
😝
😞
😟
😠
😡
😢
😣
😤
😥
😦
😨
😩
😪
😫
😬
😭
😮
😱
😲
😳
😴
😵
😶
🙀
🙁
🙂
🙃
🙄
🙈
🙉
🙊
🙏
🚽
🤑
🤒
🤓
🤔
🤕
🤗
🤘
🤡
🤢
🤣
🤤
🤥
🤧
🤪
🤯
🤴
🦁
🦊
##e
##s
##u
##i
##t
##c
##a
##l
##f
##o
##d
##n
##k
##m
##y
##g
##x
##r
##h
##p
##⚡
##☄
##💥
##v
##3
##b
##9
##w
##z
##j
##5
##7
##1
##0
##q
##4
##8
##𝘰
##𝘮
##𝘦
##𝘵
##𝘩
##𝘪
##𝘯
##𝘨
##2
##6
##𝟱
##𝟬
##𝒉
##𝒆
##𝒚
##🤤
##😫
##🤑
##🤥
##🤪
##🙈
##🙉
##🙊
##🐡
##ʻ
##▬
##👎
##λ
##ε
##ι
##ψ
##ς
##❤
##´
##а
##т
##ю
##ш
##к
##𝒐
##𝒍
##𝒄
##𝒕
##𝒊
##𝒏
##ɴ
##ᴅ
##𝗵
##𝗲
##𝗺
##𝒂
##𝒓
##𝒔
##𝙩
##м
##е
##р
##и
##𝙞
##𝙨
##𝙝
##ل
##ك
##ت
##ا
##ب
##♪
##😤
##ə
##ˈ
##𝙚
##𝙘
##𝙖
##𝙪
##چ
##ه
##ᴵ
##ʟ
##ʏ
##😁
##æ
##𝙛
##𝙣
##𝙧
##𝙡
##𝙮
##™
##🎶
##👼
##🏼
##🙏
##😡
##п
##о
##ч
##𝙥
##𝙤
##𝒌
##𝒅
##♀
##▀
##𝘆
##𝐰
##ˌ
##🇵
##🇷
##🇺
##🇸
##🇨
##🇦
##💵
##🎄
##💟
##💋
##🎰
##🌺
##ℴ
##𝓇
##ᴏ
##ʙ
##𝗿
##𝘂
##𝗽
##𝘁
##𝘀
##ʌ
##🙃
##ʼ
##➤
##𝗹
##²
##𝗮
##𝘃
##🔥
##💨
##😍
##😇
##¢
##ρ
##α
##τ
##ο
##ʿ
##𝒑
##ʃ
##ɪ
##º
##𝙬
##د
##و
##ي
##ß
##🌍
##ᴜ
##ʀ
##ω
##🍁
##𝒎
##😉
##℅
##😙
##𝒖
##˚
##ɒ
##υ
##😳
##ق
##خ
##🏾
##𝗻
##►
##𝒇
##𝗼
##𝒙
##😎
##˙
##😛
##𝙙
##😂
##𝗶
##ʜ
##ø
##¨
##𝒛
##𝓃
##𝓈
##𝓅
##𝒾
##𝒶
##𝓉
##😣
##┈
##╱
##━
##▔
##╲
##╮
##💜
##𝗰
##ة
##ᴋ
##▂
##😆
##░
##▒
##▓
##█
##ᴛ
##ᴀ
##ɡ
##ᴍ
##🏻
##👍
##ᴄ
##ᴇ
##🤴
##▄
##▕
##▏
##🏐
##🏉
##╭
##╯
##☻
##γ
##η
##😀
##®
##𝓌
##🤣
##𝙫
##н
##с
##▰
##₀
##☺
##𝒒
##𝗴
##𝗱
##🤡
##μ
##┃
##😊
##𝙗
##𝙢
##🌸
##𝐭
##𝐩
##𝐬
##➥
##▶
##🙄
##😜
##🤧
##ஜ
##𝙜
##⤵
##💕
##ح
##ر
##𝙭
##ﬁ
##⁄
##°
##ν
##ｏ
##ｍ
##💛
##💚
##💙
##💖
##ن
##ɑ
##ʒ
##ɛ
##⚾
##ى
##в
##ц
##🏽
##😑
##┳
##😔
##💩
##┊
##ł
##ь
##₂
##×
##م
##🌟
##🇳
##𝙠
##𝐨
##𝐦
##ᴘ
##👏
##😄
##л
##д
##✾
##❣
##😅
##π
##غ
##σ
##κ
##𝒽
##𝟔
##ᴡ
##ɢ
##😃
##ℯ
##𝓁
##✔
##⇒
##⚽
##𝒸
##𝓀
##𝓎
##💀
##☠
##🆘
##𝒘
##✨
##¹
##🤓
##ف
##œ
##😲
##س
##з
##ы
##✅
##𝒗
##❌
##⭕
##𝗳
##🤒
##𝐛
##𝐔
##𝐱
##𝟓
##𝐅
##𝐓
##𝐃
##𝐘
##◐
##★
##𝒃
##ᴠ
##🎼
##😈
##♫
##♬
##у
##💰
##💎
##ℐ
##🤔
##𝒈
##╰
##▊
##▋
##𝘄
##♥
##═
##✬
##𝐮
##𝐞
##ル
##ハ
##ニ
##チ
##ロ
##👿
##🙁
##⚠
##ز
##ی
##▱
##ː
##𝐚
##𝐜
##𝐡
##𝒋
##ғ
##◕
##𝓊
##🤕
##●
##ı
##😋
##🎯
##ו
##א
##ה
##☕
##𝓲
##𝓿
##𝓵
##😢
##г
##❥
th
the
##er
##in
##at
##on
##en
##ou
##es
##or
##an
an
##ing
to
##ed
##is
##al
##it
##re
of
in
and
##ar
##ic
##om
##as
##ll
is
wh
##ot
##ion
be
##le
##ly
that
you
##ve
##ent
re
##st
it
##se
##ut
##ac
on
##ow
for
##ld
##id
##ay
##ad
pr
##et
##ur
##ig
not
st
##ver
##im
##op
##ol
are
ha
##ir
as
##ct
##ith
ch
he
##am
##ill
##ch
tr
##ist
with
##ers
##th
##ce
we
do
sh
##ation
li
##ould
have
##ke
they
con
go
de
this
or
se
##ess
##um
##us
##est
##ate
com
##il
was
ne
can
su
ab
all
##ht
##ul
so
fr
##pp
##ter
##ere
##ust
at
but
##ge
##nd
##ment
who
##ant
##ity
ex
##out
##ain
##ally
al
##od
##ore
what
##and
pe
##em
##ome
if
by
their
pro
le
##ight
wor
##ort
##ab
your
##one
will
##ive
no
##iv
peop
people
##ies
from
##pe
##au
##un
about
##os
would
man
##ost
there
has
##ack
un
##ans
me
any
his
just
##ie
##if
##art
us
##ous
like
##end
am
one
##ose
##ath
##ump
ag
ar
out
##oc
ma
wom
cou
more
don
##ud
##tr
##ear
##ite
ta
en
##ard
them
##all
##ue
some
cl
trump
##king
how
up
ev
##act
##ci
kn
when
oth
get
my
##ame
bec
than
##pt
##oug
##ib
our
##ast
##ence
dis
##ong
##ice
cr
##ions
##hing
bl
##iz
pl
im
ever
lo
ad
##ap
##ink
know
##ind
##ag
##ime
##ause
right
res
should
were
##her
women
gr
did
##pl
##ian
##el
##ia
##ich
##ual
##ect
##ish
ac
her
does
##ical
she
pol
other
##ber
year
##ated
te
act
##aw
because
##ub
say
int
think
been
##are
##ure
##ff
##ine
##ree
##age
##ary
##ult
br
only
off
##ks
those
need
##ace
part
over
sp
##og
many
##ound
coun
sa
inc
po
##int
want
per
every
##ough
##ass
time
rep
why
##able
##lic
##ious
which
white
##ide
##urch
now
even
dr
had
see
being
##ob
##ism
comm
fe
pre
fa
these
good
church
then
bel
##ok
rel
##reat
again
him
co
##eric
supp
ob
##ip
und
new
canad
app
may
##ild
comp
way
##ens
cons
##our
##fer
qu
americ
##sel
chr
##ery
##wn
most
##ire
##ase
under
##ep
gu
##own
##ance
##ublic
##ations
christ
##ves
pres
##way
pers
##ving
mu
##olic
##ile
##ict
thing
law
af
##gr
spe
wr
belie
well
bet
make
could
cath
prob
##so
##qu
own
years
##oy
##itt
state
mar
##ial
##ory
catholic
dem
ind
##uc
vot
##00
##ope
very
##ign
much
countr
att
##ons
inter
also
##per
##lim
##vern
govern
into
where
##der
##lect
mus
work
##ents
##ors
##ach
##ians
##other
##ists
ser
tax
##fe
acc
em
same
men
here
fact
person
##ied
back
polit
real
call
##ade
##ty
muslim
id
##ry
##pect
never
fir
support
dec
##ates
ter
str
##ak
god
black
tw
fo
##ible
##ually
government
rec
##ang
##ident
sc
said
imp
world
too
let
ass
##ition
rem
##ful
pay
child
bu
##als
sin
##ative
ke
par
##ise
##ft
really
soci
##orm
read
sex
cont
comment
##ved
sy
##oss
##lem
its
relig
going
##ting
##ily
def
take
##ord
##ying
dif
point
rac
after
fu
##oth
sch
##ern
inv
contr
20
against
elect
##ale
cor
iss
##ick
##cept
happ
day
cour
##amp
problem
des
##ocr
##oney
first
long
##thing
won
art
life
##con
##less
country
##igh
med
thr
down
op
##uth
##ange
still
woman
##be
money
##ating
seem
##enc
liber
canada
##anc
care
##fore
##ail
som
nothing
reg
prot
##self
public
##iss
##ew
##alth
believe
such
mat
fl
inf
somet
war
leg
ve
car
big
##ning
bas
ro
differ
great
sim
bo
##ues
put
bus
##ave
mo
##olog
##uct
inst
hel
president
##ro
hum
doesn
another
##ution
ref
##ities
##ower
gen
isl
##ug
lead
min
post
##ool
better
##ought
##vers
fam
##ather
artic
reas
##ude
sm
##tain
##av
##ics
help
while
ment
ho
job
before
left
ins
##ational
two
disc
made
##ense
sl
el
##tt
cle
##ra
school
far
##stand
end
##uss
jes
imm
ed
sure
##ject
use
both
##rem
##ren
##kes
##oun
##ood
didn
come
ph
##ri
democr
look
##cess
##ress
tal
keep
##imes
kill
##ps
islam
##ives
prop
sub
jesus
char
##we
vi
old
##ically
##ility
something
prov
show
christian
things
##ah
##get
bill
ill
##urn
##az
commun
actually
find
news
##hip
word
mill
must
##arly
tell
##day
opp
since
someone
##vel
terr
resp
mean
got
incl
##ways
##ts
article
lot
ide
understand
last
start
##les
##ize
grou
health
anyone
##ority
##read
##its
high
home
yes
##ness
##iew
fem
hand
##iness
hist
add
obam
quest
##te
##gn
children
without
201
exp
agree
gl
guy
stop
##ently
##ask
htt
always
wat
mon
ant
reason
##aug
##ock
conf
##led
es
cho
free
##llow
ban
others
anything
through
pri
wrong
less
jo
##eral
maybe
##erv
play
##ittle
american
stand
bad
feel
republic
interest
##ific
little
human
##stem
##red
##igr
et
beh
happen
##inal
change
system
viol
sur
##aim
simp
allow
might
##ither
conc
har
##lly
##lf
doing
##ants
##ety
##xt
give
contin
##ings
political
##ward
isn
##ines
##ody
power
democrat
few
obama
##ably
fund
hard
business
##ute
##ider
run
party
##gress
##ever
19
##eg
stud
issue
##ited
rights
##ead
pop
giv
cur
const
alask
##use
che
trans
love
vote
##ments
muslims
##ene
##ices
##acy
etc
claim
##selves
america
family
mor
nor
done
cer
around
val
num
rest
kid
adm
non
##ized
coll
ll
enough
true
##up
##ouse
maj
social
col
##ops
cost
##ng
used
attack
hope
##bt
mem
dep
form
cult
best
##res
terror
seems
immigr
##reed
eff
pa
live
sec
away
matter
##osed
yet
adv
##gest
ca
history
certain
ra
hate
religious
jew
unt
everyone
else
conserv
question
place
den
thought
prof
##ier
ww
different
gay
##orn
##ender
called
civ
ign
consider
ple
course
anti
##ell
##ond
mind
jud
ent
least
##conom
mil
young
follow
plan
includ
cond
##cc
head
ask
ext
case
priest
media
##ivers
econom
today
##ular
ir
educ
##ately
cit
cent
##arn
found
##ven
##rect
past
mr
hill
needs
aff
kind
##wh
priv
##bers
pass
police
##aught
report
trying
fin
having
##uring
ap
protect
##aps
view
##ten
poor
gun
wa
liberal
serv
##ric
##ars
truth
org
##man
hom
pos
##ready
already
saying
##vious
##used
##ploy
term
exper
clint
##yp
##ck
##ween
between
sexual
fail
pope
class
nat
based
vict
religion
self
themselves
until
national
making
##ural
requ
either
cann
auth
eas
mis
##istr
story
civil
states
##ending
makes
wonder
house
accept
sign
ret
camp
citiz
##itution
opin
invest
cre
##oph
racist
arg
comments
www
set
comple
male
pret
deal
##aching
##ru
next
clinton
list
rather
sup
##ends
canadian
loo
getting
russ
div
mass
##plain
society
faith
##ont
##ys
fri
polic
lar
##ash
poss
try
protest
hillary
##ites
##ix
##irl
marr
sou
name
times
prom
countries
mur
says
suprem
miss
##ired
##ior
simply
##cial
group
bre
##ands
election
10
bish
lat
red
open
move
##cr
americans
mod
probably
win
alaska
fed
means
##ology
##haps
however
perhaps
regard
hu
oh
turn
##ced
city
eng
ago
##uck
sad
respect
west
##ald
please
sol
issues
boy
import
##ortion
million
##qual
##ination
##ised
stat
once
instead
cannot
control
##gy
sk
given
##idence
##ount
watch
victim
##eter
##ces
correct
employ
##irect
##idd
trude
curr
laws
milit
trudeau
##body
though
##ai
hon
female
##ner
kids
##cially
##ote
death
##sw
##atic
partic
incre
##ample
mark
##ets
illeg
##empt
ignor
##ures
##lish
fun
dou
sit
##ulation
##ering
girl
respons
000
face
lives
each
community
abs
##ina
##ision
##ortun
##ee
oil
become
sug
pat
##ention
direct
compan
expect
offic
during
serious
example
main
##ret
loc
##pr
##ember
leaders
working
cap
chang
##ling
##ument
sci
##li
##ides
fol
build
idea
catholics
guess
##ny
order
teaching
cover
wal
##iting
##io
words
##rupt
exc
legal
exact
glob
liberals
espe
especially
suggest
majority
ear
gener
http
small
##ger
likely
##ience
franc
christians
nation
##ged
sen
unf
remember
sense
prod
##estr
concern
##ether
result
av
hold
sound
##ences
wee
crit
citizens
bene
opinion
obvious
including
##ted
answ
##ency
folks
bi
##ided
##cond
talk
##br
top
##ified
everything
equal
thank
violence
hear
##ales
##inking
grow
sho
complete
personal
##ble
pract
##ages
often
##par
treat
crim
proper
bar
##reg
military
living
taxes
number
mental
francis
sw
##ister
court
side
important
benef
level
haw
##fu
##ivid
ok
sor
est
whole
sing
evidence
wants
tot
##por
beg
https
extrem
aren
mention
clear
##ament
cut
race
ord
individ
perf
##ife
##ne
full
##air
##ned
fear
threat
using
second
republican
line
whether
except
pretty
inform
racism
##app
jobs
mess
told
##imate
individual
##hn
##ove
##ple
bur
appro
days
defin
murder
bring
comes
##ization
##ators
certainly
hawai
able
conservative
facts
di
##line
##ional
seen
came
##arch
month
priests
freed
belief
##ler
repres
##atives
entire
fight
arm
donald
##ots
federal
taking
##gram
organ
##ases
pur
south
program
##ech
discuss
continue
land
invol
destr
crime
exist
exactly
learn
fair
speak
eur
went
met
politic
##ph
trad
##fully
##iddle
refer
univers
ident
abortion
##ital
alm
rid
john
freedom
doct
talking
choice
rich
office
china
effect
bud
cand
spec
lost
##ibility
suc
bit
education
##isl
middle
##ison
arr
common
canadians
dog
stre
quite
gender
bishops
pot
situ
abuse
spir
lack
##ify
behav
legisl
teach
##where
##ended
speech
drug
members
paid
##arr
##ault
##ken
##rael
doll
europe
wouldn
north
##rim
israel
##ator
equ
##ased
##alf
schools
chines
sorry
##aign
chinese
pray
almost
low
wasn
100
large
campaign
rul
gets
moral
appear
groups
200
answer
##aff
occ
republicans
fac
clearly
##velop
##eign
candid
##cent
democrats
population
illegal
conv
himself
##ake
coming
suff
culture
disag
current
##ony
rece
test
income
##ient
aw
##uction
ones
reality
##aud
sent
ris
among
##ik
##aking
politics
rev
##tern
card
stay
ste
private
cred
##iage
buy
three
problems
absol
fire
looking
thanks
goes
stup
develop
##land
sever
constitution
mer
thinking
progress
##xual
leave
attempt
fut
##ins
dam
##co
##ton
father
spirit
##anger
assault
justice
stupid
took
##aged
along
yourself
##lling
##ush
killed
##yn
meet
50
nice
##uff
##mm
vis
represent
##istic
##ined
##ury
sac
##hood
##ats
within
islamic
happened
intern
super
lim
parents
lit
##of
fall
wife
wish
admin
policy
week
##orts
##aring
rad
general
neg
sus
voted
intell
##ames
team
mother
jews
##str
allowed
shoot
elected
sn
peace
local
single
naz
cause
##itted
fal
##oint
future
absolute
##ark
##ades
author
##ane
air
marriage
##itions
bir
##ott
worth
due
profess
##orr
doubt
pu
whate
experience
mom
sour
judge
actions
position
##ging
whatever
service
qual
##ges
##ank
##xic
heart
15
famil
discrim
close
accord
##ared
##uly
enc
sal
tre
##ived
##lus
##osing
##osexual
dead
billion
immigration
ce
arab
age
strong
half
afric
difference
toward
inde
statement
market
ms
fur
##izing
indust
er
friends
short
foreign
##ther
outs
##ories
thous
united
millions
false
worse
supremac
##ered
disagree
interesting
femin
process
blame
fav
taken
corpor
mot
unless
neigh
neighb
infl
##itive
##bs
voters
inn
investig
possible
eth
imag
##ield
ye
que
present
colle
hat
##ured
##cut
##ream
behind
lab
##ergy
step
wing
##ensive
situation
dist
##for
press
corrupt
##uses
remain
##ript
administr
criminal
hit
lad
##aph
congress
longer
##ief
evil
record
percent
##ards
##ogn
force
surpr
##by
holy
##iding
##ples
cal
##ipp
pred
heard
knows
deb
check
walk
30
##ising
##ters
jewish
success
students
water
##tle
##tar
blacks
##iving
game
immigrants
##bo
dom
ru
rele
paying
prev
##ances
explain
appar
argument
known
ps
##ming
bible
##oke
wanted
ger
born
according
##ction
trust
repe
guys
##crib
assum
destroy
russia
hawaii
hous
orig
action
relations
provide
danger
usa
##ened
completely
typ
gre
victims
fig
desp
pun
##urity
dev
earth
##rop
complain
train
behavior
##cil
economy
##using
ey
address
expl
deser
further
information
event
hyp
ann
food
honest
##wise
reading
foc
values
road
##uge
##ring
none
insur
##aper
##oud
enter
log
##oo
light
demand
wait
##ledge
science
economic
western
recogn
##pel
det
##itting
pen
##onse
truly
deep
calling
simple
##ophob
hur
special
homeless
sacr
tradition
##ilar
subject
itself
rate
several
12
bab
college
necess
color
##action
project
soon
##atican
##pet
env
politicians
toget
vatican
asked
##ening
la
together
fake
response
account
alone
plac
knew
##ork
activ
perfect
##ability
needed
obviously
express
wealth
##ees
decision
refuge
willing
above
##icult
pal
return
##earch
sla
##oid
fine
started
##umb
mult
##ission
involved
11
lol
dollars
lies
tar
friend
accom
gave
18
body
choose
families
##over
costs
book
paul
happy
pie
sym
##ta
research
norm
oppos
##ential
##ological
leader
homosexual
phys
##come
upon
huge
vir
hour
##asc
hig
gas
insurance
birth
property
bank
girls
##iver
afford
distr
safe
tech
ways
absolutely
running
giving
easy
##que
lie
rules
indeed
companies
opportun
ah
hell
risk
higher
##ilt
rap
repl
created
conservatives
##ird
##itor
services
##old
unc
object
unfortun
forg
daught
ty
security
lea
major
oper
##ese
demon
##ium
pick
stuff
share
sounds
##irc
##itten
opt
##lled
gos
extreme
sold
actual
##idents
mist
rail
##ively
##ibly
##dd
mexic
supposed
terrorist
worked
democratic
reasons
couple
path
##ued
budget
hands
shame
bigot
thousands
otherwise
obs
global
works
2017
room
compet
##ped
later
##ially
medical
critic
seriously
innoc
outside
access
university
base
understanding
heav
2016
whites
supporters
apparently
lang
##arm
prefer
pain
circ
da
contrib
bal
climate
##order
voting
hypocr
ath
##ones
##iron
prin
area
begin
bey
##ral
killing
native
gop
company
grand
suspect
yeah
radical
rom
cat
hun
link
attention
fix
night
shows
administration
wall
takes
forget
doc
written
decades
diff
official
meaning
married
former
east
##pay
##fl
##iction
acr
condem
agend
four
##ych
##itch
##joy
early
creat
##uce
industry
##ason
##ature
tor
beliefs
responsible
kore
sat
sort
enjoy
san
funny
environ
harm
similar
beyond
candidate
gone
looks
workers
foot
chance
##amed
##aster
##ropri
psych
spend
purp
saw
ut
nations
langu
##ert
##els
##inals
boys
hus
total
numbers
becom
guns
var
sem
weap
aut
estab
across
taxpay
jour
board
decl
influ
medic
value
lower
realize
happens
views
difficult
##unk
del
street
horr
adult
subs
##ished
syr
imagine
considered
cases
council
leadership
environment
##ench
globe
increase
german
rape
fil
privile
quebe
bom
wow
months
tro
reject
##rew
owners
trade
require
##unch
finan
modern
tried
deter
mag
fool
##ows
neither
25
agenda
describ
##cl
##oral
##allen
sick
target
##vant
##etic
##ained
natural
son
gospel
march
##utions
union
relationship
intellig
flag
sell
enfor
nature
hund
##ulous
ground
hundred
##iation
nobody
lose
couldn
questions
##eng
histor
##na
ridic
telling
##utes
wel
favor
##iod
shot
authority
##inate
price
discussion
capital
##asing
whose
democracy
building
separ
##son
town
##sh
write
bull
establish
practice
haven
alth
cross
poll
attr
changed
prim
save
front
although
trave
period
challen
##form
die
resour
housing
encour
harper
tur
responsibility
totally
##go
crimes
christianity
##iven
regarding
vers
##like
product
break
sil
##ining
policies
##ley
finally
treatment
##0s
brain
rule
##ike
##ires
males
ten
##sequ
attacks
shouldn
worst
assoc
##antly
oreg
speaking
wrote
aver
##ball
spending
failed
remo
forward
jail
king
oregon
points
##ularly
quebec
ii
hy
port
##care
deg
recent
lay
anim
churches
conn
idi
##isions
husb
drop
ep
washing
##umm
avail
bc
lg
forced
terrorists
nons
role
create
clean
language
held
brought
benefit
40
##lement
drive
study
unfortunately
piece
ontar
pet
sometimes
##ises
defend
demonstr
particular
##kn
throw
source
innocent
signific
provin
##cy
##raph
##ey
##lical
carry
type
prison
votes
dangerous
serve
russian
ine
cele
message
##erate
ur
ge
surv
exam
anal
sect
consci
scient
spent
century
##fort
##edi
mentally
##azy
##inated
##set
secret
violent
fre
tem
ess
outr
advoc
terms
gov
thinks
##room
transg
respond
fill
jap
personally
##acter
quick
lawy
discrimination
minor
amaz
celebr
fasc
alleg
concept
lots
japan
exe
##aging
##ero
cultural
writ
knowledge
vo
racial
near
proof
##irm
##very
hol
lying
mostly
parish
ontario
cop
shar
##icted
reform
claims
terrorism
collect
pict
##uments
fundament
whom
princi
push
determ
journ
neighbor
prevent
late
##oses
##aries
parent
required
amount
institution
meant
##uel
funding
status
individuals
refugees
taught
member
third
regardless
occur
##aks
##itude
inj
toront
field
vide
##com
interp
emb
techn
##ox
solution
concerned
washington
movement
nonsense
##ression
minority
particip
places
luck
##und
debt
exce
##plic
depart
doctr
staff
character
lord
##arily
design
lif
daughter
bishop
##oad
stra
##akes
##isc
bush
ball
fel
stated
bat
benefits
mere
##olution
available
minister
impro
average
journal
blood
despite
appoint
##ails
lgbt
fault
insult
following
shut
saud
count
##ata
lady
progressive
##val
original
##dp
convers
towards
toronto
defense
##eal
laug
##bi
remind
kh
weak
reflect
smart
english
employees
hey
ridiculous
##path
##enty
connect
##ouch
##astr
##iated
pub
financial
##het
toler
appl
subst
usually
fit
##how
stories
##dom
equality
##ana
##gry
rates
beat
therefore
pi
affect
opportunity
##oken
##umn
16
##cing
rob
include
transgender
anch
hatred
straight
ver
supporting
turned
figure
##lying
note
##ival
ignorant
pm
crow
##ishing
incom
script
##uit
star
previous
charge
restr
alt
##osp
focus
wit
amend
##arc
narr
offer
saf
perm
##ij
extr
committed
boo
##more
acts
glad
##yle
lived
loss
nazi
zero
##orter
ignore
prem
interv
##enced
justin
pregn
became
anyway
myself
net
consequ
changes
##atory
appropri
approach
asking
anchor
arch
quot
hot
##ping
necessary
brit
##aa
thus
wear
sand
definition
debate
trou
wind
perform
wik
commit
playing
meas
##egr
impact
##archy
drugs
disg
phot
apolog
skill
built
intr
reven
programs
contro
##ification
ba
##ested
guil
##ma
disp
##bing
##lear
assume
husband
blind
column
isis
disapp
enforce
ped
vol
avoid
immedi
basis
putting
popular
misog
14
died
##uced
ideas
rent
##ners
skin
##ster
##aming
dut
fellow
palest
##epend
##let
earn
areas
##ession
manage
supreme
guilty
##key
17
mc
treated
interpret
ran
##ift
listen
13
corporate
##pan
purpose
hop
prior
##nn
latin
hosp
##lig
led
##ilities
bunch
divers
supremacists
independ
##vert
data
putin
appears
mal
##hold
parties
reasonable
safety
contract
anc
##aut
##pir
##others
african
articles
##ii
##know
##inary
resources
commission
standard
entit
veh
send
ens
##ension
dict
slavery
mand
jun
somehow
welf
letter
fully
recently
fundamental
educated
daily
phil
illness
players
healthcare
mentioned
cust
welfare
supported
promot
matters
easily
prove
host
waste
roman
##uing
altern
integr
addition
supremacist
virt
##greg
normal
witness
organization
init
##illy
asian
comb
energy
reported
divor
##ship
##ode
##ugg
ability
##ucture
##ls
mart
decisions
iran
uk
##outh
evange
brother
secular
teachers
aware
##nic
ul
driving
chief
ira
cops
conflic
happening
profit
unlike
constr
execut
indic
anchorage
korea
instit
identity
ak
enem
liter
gain
admit
raise
clergy
influence
patri
tra
##ulations
international
eug
alco
acknow
amendment
shall
prose
baby
beaut
command
alcoh
site
seeing
senate
proud
saudi
ideology
vac
##anda
hurt
bott
##iced
##uclear
propag
sides
perpet
##usion
##umpt
posts
moment
gays
statements
basic
##ding
citizen
receive
border
goog
hours
##tw
counter
nazis
caused
logic
##ocked
##aft
passed
results
nuclear
select
gives
##amm
door
weapons
60
writing
decided
##ophobia
space
specific
vehic
je
##iff
standing
fighting
tv
draw
prices
uns
sens
wild
##anted
interests
##cise
emot
##ancy
##itely
##arian
effort
privilege
##light
##port
##essed
minim
brown
key
communities
appre
err
subsid
iraq
welcome
eu
paper
teachings
video
green
particularly
syria
tend
significant
five
nut
##lusion
failure
opinions
traditional
belong
hundreds
##bc
gar
##ays
interested
french
investigation
hier
grad
twe
experi
btw
##erg
dism
ignorance
ach
negative
mad
growing
mouth
fan
reve
21
mayor
##anced
worry
decide
cities
religions
knowing
##ograph
travel
disgust
##ground
refuse
fat
##eth
governments
##ored
accompl
##raid
positive
apply
review
##ube
conte
humans
mos
deserve
##yc
reach
##iful
summ
##iny
career
ren
hero
meth
##ds
dad
afraid
excell
nearly
feed
cab
##esh
germany
surprised
jer
apost
##tm
##kk
racists
degree
##verse
gold
attend
valid
growth
angry
yout
wearing
alaskans
student
eyes
appreci
raised
park
credit
diversity
county
##iers
trib
##uous
##ann
development
meeting
##ban
keeping
spiritual
homes
learned
##icking
criminals
elim
##aced
opposed
condemn
##aling
##erson
greater
##cript
touch
seek
##ference
2015
harass
damage
##estic
protection
hasn
currently
related
scand
google
bern
##odox
plus
usual
##urs
document
bigotry
eugene
##oser
marg
center
rock
plenty
bias
196
squ
##hib
##acher
legit
okay
mine
vast
joke
picture
abort
##iring
cate
##omm
assist
excuse
minorities
context
athe
cash
ndp
notice
various
rational
achie
mich
fast
reb
funds
alcohol
six
htm
ethnic
##ha
custom
proven
physical
events
retire
shooting
geor
##iate
cardinal
gary
fired
possibly
wer
compar
calls
maintain
taxpayers
##uted
caught
bear
chose
##pective
##gh
anymore
##bit
seat
quote
doctrine
cars
theology
##ester
ali
intent
biggest
sales
wide
##icide
generation
tit
##istan
intellect
goal
highly
alber
##ips
##work
officers
topic
publish
##isters
spread
showing
##iple
candidates
punish
accur
recall
continues
africa
##ength
prayer
feminist
strate
moving
received
kkk
propaganda
broad
increasing
aud
dream
ang
accus
accused
positions
waiting
eat
##ulate
weren
24
##icit
governor
##thood
laugh
tour
model
eye
ken
excellent
compass
department
##alty
allowing
70
orth
consist
amazing
bother
traff
odd
businesses
90
om
mexico
sanct
deny
199
snow
##uries
##ape
provided
##ulated
bes
##rees
tex
du
standards
massive
evangelical
sentence
successful
missed
cris
##ki
corruption
pure
starting
directly
ncr
fort
##onic
visit
resist
european
ahead
nom
lets
budd
recognize
merely
pap
wed
becoming
sle
apart
##izations
convin
opposite
leaving
cow
mort
crazy
planet
double
definitely
orthodox
##bed
##ille
honor
##ceed
adop
watching
opposition
levels
stopped
irre
comfort
vanc
hopefully
##encies
slow
fly
##char
politically
##ounts
dav
##ifying
grab
sun
diss
editor
engine
##he
fbi
kept
consequences
palestin
believes
vancou
sadly
##entially
mail
choices
suffering
armed
wage
##orse
##isy
posted
improve
crisis
##iet
##to
anybody
circum
immediately
reaction
losing
parts
##ney
vancouver
##zz
entr
compared
surely
pf
critical
page
##enous
strugg
80
dark
rise
powerful
displ
expensive
replace
attract
outrage
season
potential
books
bottom
wars
generally
forgot
dir
unw
fox
terrible
reporting
beginning
statist
silly
mid
intelligence
idiot
attitude
youtube
ele
helping
continued
limit
##ictions
hardly
mistake
burn
exer
sympath
extremely
frank
included
##mas
legislature
catholicism
constitutional
domestic
##olf
shown
agreed
##ama
hispan
removed
anywhere
##well
changing
voice
crowd
der
rhet
tough
senator
dollar
indig
doctor
multiple
500
eventually
conscience
conversation
plain
##ague
##lo
##while
limited
trouble
literally
##ties
officer
purch
perspective
felt
esc
weeks
extra
rhetor
track
tells
enforcement
elections
disci
bs
##ried
##idency
ready
includes
##book
##iment
ded
pries
##udes
courts
appropriate
priesthood
##erve
studies
entirely
tom
farm
prime
equally
sources
district
wealthy
interview
bed
##ifically
coverage
served
##oles
training
revenue
forces
yours
pan
##ading
fraud
lob
advant
everybody
cares
hypocrisy
missing
streets
compassion
hang
nfl
search
lic
##verty
professional
cens
acad
poverty
occup
deli
suffer
vs
cast
dumb
names
quality
##cer
suppose
looked
typical
worship
teacher
sector
wonderful
math
stick
tired
saving
heaven
##oon
join
accepted
embarr
academ
protected
jump
anth
basically
aid
hall
legislation
indigenous
bought
swe
historical
moved
behavi
##bon
clue
british
##lier
cry
autom
pack
stock
internet
##ously
owned
efforts
argue
##uctive
committ
helped
officials
aust
rare
neighborhood
embarrass
drunk
negot
hitler
charged
conflict
asse
sports
##oked
##iant
presidential
##ov
##ole
##ado
expected
cler
surr
ourselves
holding
attacked
##aled
club
##ressed
html
selling
scr
constit
litur
defending
consum
sain
doctors
charges
traffic
kick
incident
gang
plat
intention
residents
japanese
ult
investment
arabia
repeated
examples
alternative
mach
neo
reports
football
herself
##ounded
russians
disgusting
serving
buying
youth
dress
mercy
blow
relative
desire
remove
island
newsp
heads
effective
scripture
lock
claiming
percentage
tim
skills
scandal
george
##aker
played
refused
cheap
incompet
mir
version
beautiful
##ocks
persons
supports
core
##ager
slaves
separate
hide
dogs
##iveness
##la
background
planned
murdered
becomes
teen
analys
confirm
##vey
highest
##wood
##enn
billions
reduce
symb
fish
considering
vet
myth
offensive
198
cake
presidency
older
denver
increased
conduct
trial
utter
adults
quickly
mix
hierarchy
alberta
ice
##acare
emp
showed
label
executive
mary
##inc
##atch
##wards
primary
hospital
mel
quit
##ucks
insist
throughout
corporations
fle
voter
sexually
dele
unb
sexist
dealing
politician
eg
lands
##iles
aggress
leading
ny
shop
##here
driver
entitled
22
##itarian
below
sharia
##ams
suicide
disres
loved
embr
requires
abus
drink
bomb
disrespect
##ights
carbon
foundation
soul
ni
discover
bag
##uf
specifically
tick
intended
##aid
##non
##erous
##imately
##osen
abortions
##jud
surprise
dismiss
jack
##arant
pros
deport
##vin
loving
agreement
duty
##ols
dont
obamacare
minds
management
##ients
likes
attorn
decent
mission
writer
narrative
hire
##iped
pull
animals
##iar
trumps
##ahah
coal
na
webs
##acept
acceptable
##ease
contracept
bringing
criticism
pipe
##eel
##oring
independent
##af
liar
acting
thoughts
complex
faithful
york
##izes
guarant
owner
engage
circumst
##50
##aded
blm
spot
##iled
publicly
morning
communion
##ushing
##agan
##ogue
followed
followers
burke
option
conditions
deaths
197
believed
concerns
##uary
clar
##ville
incor
plans
mater
identify
##inating
winning
earlier
orders
gradu
##ront
##athers
box
types
##ked
perman
infr
section
analysis
exists
prepar
irrele
theory
##gment
lawyers
##umption
aside
##enders
david
somewhere
mov
hmm
offered
desper
funded
depend
fought
mcc
##ables
charl
rome
communic
humanity
bapt
##icient
##asion
compr
easier
qualified
calif
estate
organizations
referring
##anch
causes
settle
empt
imposs
remains
encourage
games
rig
alive
bigger
constant
dig
##ented
##ores
pride
protestant
volun
##asty
##ago
uh
bath
labor
rout
##ron
##ums
unp
advantage
greed
trash
promote
pathetic
hair
females
bankrupt
online
adn
##airs
roy
##ici
content
##stream
dish
table
##ique
react
justify
relevant
rhetoric
##eless
californ
aspect
dear
applic
practices
broken
ignored
motiv
##ached
subm
balance
lawyer
##men
##adr
upset
besides
gent
image
spin
recomm
horrible
alleged
bernie
southern
##yr
##gu
round
sister
vul
canon
##ocking
oblig
electoral
arms
hack
##eration
##istry
##ustr
##andon
unre
creating
##orders
elsewhere
arrog
purs
method
final
guard
regular
protecting
divorce
lear
impossible
flu
centuries
taxpayer
clerical
##oler
chic
prohib
##den
##ray
style
legally
solid
prosecut
uses
contact
courage
capt
##dden
forever
##iance
twice
instr
fortun
##ih
sudden
immigrant
supremacy
committee
learning
heter
pfd
bib
##seless
advice
colorado
sitting
dece
blue
partis
inher
headline
##ophobic
challenge
inside
capable
dioc
garb
##reh
minutes
ordained
##ze
france
colon
army
intelligent
institutions
sund
direction
unions
everywhere
providing
healthy
firearm
industr
##mod
wanting
largest
hearing
soldiers
scientific
posting
california
lines
##inger
ended
added
divine
technology
cabin
lau
##oking
##atically
irrelevant
minimum
appreciate
orient
manner
disorder
bless
##ufact
eld
##ms
transl
material
perse
troll
manufact
systems
accurate
infrastr
bannon
differences
informed
acknowledge
##itable
chosen
resident
conclusion
cuts
era
fuel
tact
cold
phone
equival
nu
rat
ug
veter
seeking
feeling
infrastructure
somebody
screw
dump
indian
environmental
handle
##whel
mainstream
##uana
amb
conspir
date
vill
##back
marij
##iday
speaks
feelings
creation
bod
cam
hind
##off
walking
reference
euchar
propos
dial
pence
disaster
schol
natives
breath
code
via
leftist
alaskan
central
dim
spl
anger
crap
presence
stands
fant
##outs
active
prejud
wise
closed
strength
catch
retirement
wake
deliver
sacrament
jim
##astic
music
pretend
larger
excl
destruction
marijuana
abandon
##ounce
eastern
designed
##just
feet
began
##ipping
##ests
blaming
claimed
activity
##tery
dems
institutional
khadr
migr
##ael
appeal
condition
babies
sir
complic
##tered
filled
##cription
##itation
comey
##stood
chap
##town
##ipped
title
kl
intoler
readers
confused
judges
perfectly
lu
greatest
shel
ride
overwhel
root
implement
covered
pock
##aked
##iable
abused
##aining
resign
accommod
cel
asia
arguments
enemy
peoples
consent
advis
misogyn
rally
frequ
peter
ladies
size
assert
electric
favour
mut
##ller
comput
strange
warming
##icks
finding
mike
loy
incred
afgh
##ucing
oppose
joe
ordination
keeps
loud
##dr
##mp
province
##icial
manip
##ifice
syn
pointed
turning
##arter
##acity
##ders
##iling
##uded
aca
interpretation
##onna
promise
largely
##ched
suggesting
ya
##owers
supply
contrary
minded
photo
impl
semit
sanders
editorial
35
cnn
kim
yester
driven
scream
attacking
wages
##rain
##hh
employment
doz
measure
yesterday
named
voc
homosexuality
vehicle
revolution
affordable
circumstances
coach
store
adul
gather
notion
destroyed
laity
bound
pregnant
behaviour
website
##dy
morality
##eness
ott
##ss
garbage
leads
allows
divid
achieve
flat
established
##gregation
threats
susp
austral
defe
islamophobia
extremists
battle
philos
afghan
##20
thom
sole
generations
explo
cancer
hi
##inct
##ander
sins
slave
##bish
##enses
roll
arrested
walker
pc
tort
tiny
reply
communist
confed
banned
legitimate
ec
recon
june
statistics
empty
cabinet
entertain
fathers
23
tear
##usal
block
brothers
profession
feminists
establishment
published
mob
meanwhile
listening
origin
sacrifice
fascist
ale
weapon
accomplish
conven
grace
admitted
facebook
celib
##cks
##opath
lied
comparison
sar
twit
##standing
##ipedia
chicago
unem
feels
employee
universities
described
##itudes
pra
jan
societ
fans
describe
cell
##ino
flo
situations
wikipedia
##iders
##illing
cru
pointing
sett
##orrow
##fs
##wide
##isa
blog
expand
##apped
pedoph
athlet
perpetr
permanent
unemploy
nasty
unfair
salv
principles
##cution
india
categ
attorney
rural
saved
presum
introd
display
##ky
##mber
##yny
drag
smaller
potus
ensure
conference
commer
viet
cardinals
credibility
sunday
james
##aur
curious
promises
animal
tweet
michael
rub
##ste
flood
sexuality
peaceful
jp
liberty
register
charity
speed
heck
strategy
##qab
##essions
useful
phr
solve
existence
punishment
pipeline
##place
cultures
hawaiian
##lers
##omin
contrad
regime
hateful
teaches
misogyny
sleep
##yl
ash
denied
##orid
##itors
##idel
downtown
thousand
necessarily
philosoph
300
plant
charter
convicted
release
activities
niqab
dying
rc
noticed
gotten
mothers
##hab
socialist
dirty
##ater
##otic
##uls
procl
##ception
drivers
raped
jeff
comprom
bure
print
outcome
text
expense
irr
##icated
rejected
platform
bathroom
sisters
legislators
existing
texas
promised
superior
associated
integrity
martin
##ctr
##ceived
christmas
signed
##arth
sexism
universal
developed
delib
lyn
##ax
##idge
##urd
supporter
numerous
raising
newspaper
borders
broke
spoke
proposed
latest
protesters
harassment
exercise
dishon
din
##wor
disease
overt
ugly
closer
ignoring
damn
les
ange
factor
signs
function
approval
construction
forcing
production
progressives
conspiracy
gee
hr
accident
younger
kingdom
hoc
max
flaw
genoc
theolog
scen
honestly
bureau
narc
pushing
brand
feminism
expression
##rep
soft
spring
repr
recover
poorly
imper
essentially
intellectual
ber
gonna
##bling
##inform
##isf
##gin
impe
letting
substant
thread
##ulf
coast
instance
##ught
bills
colour
ethics
pig
##okes
##bert
firm
projects
partisan
##ivity
righte
ends
defined
judgement
survive
vision
##point
unable
sake
reporter
understood
motion
cree
##auc
citizenship
eight
fet
pac
##abled
##idden
biased
cd
nav
threatened
45
##icious
suit
##ounced
denial
assuming
gift
ri
##ae
##mon
##icing
marry
##ountain
lucky
eucharist
wis
##awa
quiet
busy
lobby
forb
sust
overwhelming
2nd
wyn
##uting
coff
##rd
grown
forms
dign
ought
##ifies
cool
pays
disappoint
biblical
river
illegally
observ
guilt
houses
penalty
experienced
faces
controlled
wood
##nc
puts
fewer
increases
domin
noted
effects
incorrect
bare
##itals
disgr
series
ownership
esp
openly
daughters
polls
silence
dan
##och
smoke
##ahu
released
righteous
msm
hired
inqu
suck
grade
sam
judgment
teams
pressure
determine
connection
protesting
ordinary
careful
master
##mb
twist
appointed
disappear
afghanistan
tun
##iety
scre
homosexuals
objective
##oom
trip
advert
beings
constantly
expert
##ashed
properly
28
planning
breaking
association
anthem
pill
blat
demands
elite
antif
affirm
stage
acqu
oppon
popes
##lin
parli
slight
2014
watched
##asy
fees
minute
worthy
roads
prepared
99
ven
shr
starts
accountable
fisc
onto
till
turns
exclus
lisa
##rel
##ains
loves
confront
harder
parliament
##eds
sees
posters
profits
produce
emotional
error
exception
prayers
ancest
twitter
##yan
palestinians
movie
dude
rein
throwing
agencies
decade
pension
precise
answers
wedding
##stein
jose
useless
marx
region
failing
lifet
hispanic
depl
sea
##iev
poster
gut
##nes
chair
repeat
iv
##arks
compare
dogma
hoping
##ka
##bar
brut
info
troops
merit
deeply
accusations
trail
spons
compreh
exposed
arabs
tolerance
sites
allies
##cient
badly
reduced
predict
stere
setting
advocate
rand
infer
##uma
##unt
restaur
cbc
cauc
offended
matth
banks
professor
details
liturgy
eh
##inity
preach
protests
involve
ble
boss
item
richard
additional
contraception
vietn
concl
regards
focused
pregnancy
enemies
crum
remark
deficit
##resp
bodies
stuck
##ancing
passing
cyc
##porary
severe
grew
##ec
provides
advance
narciss
matthew
forum
attempting
recommend
hockey
documents
products
nk
##hen
managed
##oster
ministry
classes
summer
repeatedly
bond
range
##aire
forth
lifest
naive
accounts
differently
stereot
27
bow
lane
##ius
exch
causing
picked
participate
comfortable
bub
deflect
seemed
neighbors
earned
##aces
congr
approved
represents
deserves
mac
##ias
thug
absurd
cutting
combat
wynne
email
virtually
mortg
thomas
kinds
sheep
compens
refugee
ss
records
wiki
##ule
cloth
drinking
satisf
truck
implic
overall
insane
##riend
neighbour
suddenly
cas
wives
tele
believing
decline
match
transport
possibility
deac
pastor
##nel
##ung
clown
offense
explan
applied
chem
volunte
mic
reagan
##ivil
urban
entry
nope
##othing
sky
heavy
dictators
cod
compl
crack
intim
span
bully
morally
leaves
promoting
bened
cart
##encing
succeed
mol
##ris
gree
cha
ship
determined
emph
testament
scary
##onym
coop
freedoms
sacred
limits
##owski
occurred
license
dishonest
sending
##ef
##aments
league
runs
director
addressed
ultimately
aim
hiring
mountain
demograph
mont
nationalist
genocide
##head
cleric
fairly
deplor
##orough
##owed
virgin
dropped
parenthood
eliminate
fash
counsel
nowhere
denying
buildings
trained
multi
##ihad
agency
sport
latter
magister
demanding
scientists
##under
computer
los
warm
uncivil
idiots
assad
helps
substance
00
prost
presented
heterosexual
ital
shared
allah
kelly
senior
attempts
provincial
os
obtain
structure
assess
illegals
atheist
bureaucr
sessions
presidents
define
regulations
discour
benedict
dare
jihad
wo
gross
israeli
faced
##going
acknowled
##iat
##ns
##bl
elder
exempt
receiving
relationships
vehicles
reprod
covering
complaining
mexicans
adopt
warning
capacity
familiar
initi
frankly
ottawa
##icip
##illion
lesson
radio
contribute
silent
vulner
fashion
tens
secretary
cub
hence
seven
continuing
salary
foolish
##coming
##ett
weight
parag
##ailed
slaught
retired
destroying
ukrain
worried
options
mexican
strict
miles
placed
incompetent
scholars
##ws
##orate
bell
##acle
partner
##gypt
recognized
mirr
##uits
##aning
enlight
sav
arrest
logical
consistent
egypt
##ternal
carrying
revel
emerg
advent
performance
hij
##ounding
194
swamp
species
steal
authorities
wisdom
antifa
##abb
parking
depends
extremist
principle
yep
##uther
draft
immoral
huh
employer
writers
26
granted
thrown
holly
injust
lifetime
rating
orange
##ques
races
charles
ruling
ske
wash
emails
annual
apologize
phrase
baker
##inent
##plom
archbish
recru
extent
2000
facing
opportunities
mistakes
discipl
hug
##aken
player
surprising
declared
syrian
applies
snowfl
purchase
aug
sharing
couples
insp
physically
bigoted
attrib
ben
stood
sinc
portland
bon
golf
stal
resol
irish
lgbtq
sincere
hiding
mun
##itz
uncon
spoken
talked
alien
bob
scot
talks
suggests
replaced
apostles
theological
##urally
bron
convention
distur
proclaim
une
saint
salvation
precisely
gard
pand
burning
diplom
dialogue
fiscal
luther
traged
solutions
referred
assistance
nun
##orig
evident
##icts
ending
stats
##ker
tow
falling
deals
meat
straw
founded
accepting
journalism
lesb
fif
lazy
##erved
##ality
##itage
brings
believers
worker
statues
threatening
ticket
band
##erry
##ulu
directed
senators
controvers
1st
element
##ston
evol
##cious
powers
##esis
asians
##akers
reminds
##mo
##gan
##che
delus
proceed
brag
popul
##what
strongly
celebrate
##esville
kevin
tool
wins
emphas
dest
##law
##post
##osure
reput
##issions
##ashing
representative
condemned
dignity
lifestyle
##uine
##field
aborig
clin
clothing
division
organized
academic
orientation
stri
meetings
distrib
pushed
mosque
hollywood
3rd
picking
murders
sb
heritage
##lessly
nationalists
camps
coward
##bart
champ
##thy
buff
disgrace
dnc
pil
habit
trick
sover
somewhat
evolution
essential
ancient
excess
revealed
hal
##face
##ham
##pper
boom
hole
pleas
steve
firearms
paragraph
##ania
stating
scale
stupidity
entering
##eer
##do
toxic
remarks
genuine
2013
loose
fell
refusing
identified
rough
retr
strike
charlott
roles
van
chick
seats
offering
fails
hearts
walked
expressed
##ya
##ho
##ica
thats
impose
smell
affairs
shooter
sovereign
ain
unity
unique
burden
medicine
fundamentalist
negoti
airl
bay
empath
corner
virtue
joy
irony
experts
victory
murk
assaulted
criticize
renew
australia
joseph
mandate
##lu
embrace
ju
consult
employers
supposedly
medicare
horse
##itical
flight
legacy
request
evangelicals
struggle
charlottesville
cite
lou
trig
figures
film
hyper
square
aggressive
vulnerable
oce
##ses
avo
temper
sympathy
##rant
##ba
##bel
##entr
deem
##agn
ram
##ids
bright
oppression
correctly
awful
competition
requirement
##anny
web
moderate
##time
##alling
##soever
scar
dividend
rot
##oul
proced
univer
hospitals
archbishop
sight
weather
grave
assumption
wondering
medicaid
rarely
scenar
jur
sarc
choosing
stem
whenever
cruel
winter
estim
150
korean
equivalent
ego
##eing
##alu
boat
bike
song
cant
frustr
partners
sacraments
constitu
prosper
75
bog
eating
file
ton
##onald
writes
robert
economics
primarily
conscious
pd
wave
xen
##side
weird
friday
##orted
willi
knee
relatively
##ries
perceived
territ
campus
friendly
desperate
explanation
##owing
ages
##agers
traitor
catech
buck
loser
##vi
##11
goods
irrational
murkowski
gh
qur
tree
##asm
attitudes
regularly
kidding
socialism
vietnam
sale
unne
grant
##igned
attended
sinful
mainland
pulled
##gs
liked
goodness
##ressive
transpar
apology
earning
industrial
prejudice
whatsoever
bigots
conclus
suggested
capitalism
400
ongoing
wein
shout
##ils
infall
patients
weekend
haters
satan
empire
camer
task
ther
##oning
##cip
handed
opening
correctness
##appropri
balanced
marginal
symbol
universe
##atures
##ada
contem
educate
divide
markets
doug
il
##eria
whining
stone
gotta
discriminate
forgotten
reward
shir
proves
blessed
simpl
civility
govt
##da
factors
iron
repeal
fixed
tragedy
##house
##real
cheaper
concerning
diverse
unfortunate
allegations
##acing
branch
stephen
hotel
nyt
societies
##iest
bears
##ulating
##aste
##asters
cro
crying
activists
affected
palestinian
cup
dub
overse
struct
plays
breit
veterans
sarah
exchange
##ycl
justified
kneel
imo
payer
inclus
existed
northern
heavily
machine
neut
load
underm
violation
gospels
encouraged
britain
diocese
ow
pak
##ume
donations
mas
portion
cance
smoking
proportion
memory
credits
bullying
experiences
fulf
##ipe
beating
disabled
cannab
accountability
targeted
separation
narrow
junior
sanctuary
philosophy
breitbart
29
finger
ramp
##eid
paran
masses
privileged
photos
strateg
ashamed
rain
##my
##esy
description
investors
khan
buddh
##gers
concentr
transfer
plane
acceptance
convinced
savings
mortgage
ideal
holds
parishes
ballot
thin
stol
##acted
brill
quarter
glass
arguing
representatives
sustain
tab
##omfort
commenting
bask
193
effectively
stret
intimid
gap
nra
rant
zeal
disrupt
consens
discern
fields
athletes
##ching
fee
feds
commercial
aparth
souls
opened
verb
previously
customers
assemb
##inge
stress
addiction
survey
colleg
encoun
##alled
spew
cert
johnson
insulting
engineering
brave
engaged
2008
episc
demonstrate
episcop
rush
yell
myst
honol
suffered
credible
wishes
typically
magisterium
dc
conver
everyday
##angers
letters
emergency
isol
manif
##berg
adding
secure
employed
favorite
degrees
fascism
quotes
emotion
alex
kor
##ien
##gar
##att
helpful
civilians
aka
pakistan
apartheid
theft
spr
poison
##roll
behalf
treason
honolulu
oct
##sters
magn
committing
selfish
pictures
laughing
adultery
##ota
##oln
fresh
england
1000
journalists
dimin
linc
##bled
caring
profound
importance
swed
divorced
wil
unac
bridge
cook
facilities
premium
deliber
##inction
inappropri
surg
provinces
confederate
lincoln
hating
##oca
insight
depression
patr
accomplished
award
##acies
goals
lee
columb
pretending
personality
stolen
##eed
thir
blah
brief
obey
remote
2012
biological
resource
65
##ios
tob
station
approve
mccain
48
dar
ryan
##down
doors
offers
wwii
breaks
europeans
losers
vit
yr
##umen
realized
famous
mentality
##hamm
stance
listed
forgiveness
mixed
stereotyp
hates
sull
unif
preced
parade
household
bubble
unnecess
gir
rab
##pass
reasoning
##ondon
excuses
unlikely
convince
cp
lun
##agon
quo
indo
transit
headed
ironic
pastoral
compromise
bread
ties
beach
subsidies
arrogant
chemical
cannabis
##ocaust
flying
london
##rich
conce
obstr
harb
pupp
ethical
measures
audience
congrat
elderly
amounts
plants
schem
##ifications
viewpoint
ceo
hunt
declar
solely
##ches
misle
holocaust
nix
##bur
nove
carried
roof
legislative
gal
##isive
pron
trend
segregation
##pped
paris
perpetu
november
##row
##kel
suggestion
attempted
turkey
commandments
abusive
barely
lunch
naft
heat
sher
elites
##riages
shootings
versus
unbel
thugs
jr
rcc
##oly
endors
##inging
conqu
dispar
blank
##izz
gras
payments
checks
produced
internal
returns
delay
fab
storm
##anged
respected
labour
steps
purposes
intolerance
montreal
##cos
##ware
carefully
network
shelter
nafta
##awn
scared
morals
consideration
ruled
instruct
colonial
trigger
ric
##ym
talent
195
capit
injustice
basket
ted
##oned
contempt
commentary
ministers
stealing
shameful
historically
seattle
cycle
ka
pitch
beer
##illed
warri
priority
civilization
switch
inflation
queen
permit
laun
proposal
fantasy
frequently
august
uniform
cu
hil
resur
opposing
commitment
adopted
loyal
clerics
aboriginal
um
dod
##antic
safer
workplace
serves
endless
glor
conviction
atheists
gentlem
hated
shocked
resc
firing
sociopath
islamist
treating
motor
checked
devil
hispanics
unemployment
33
ts
##lines
##rist
##vent
##ibilities
spouse
pool
sooner
grounds
reconcil
vig
refuses
discussed
represented
links
fools
challenged
aliens
tactics
##put
##educ
chin
humor
memor
calc
demonstrated
tweets
kiss
mp
adam
scene
##bell
##ews
florid
addressing
meaningful
analog
vacation
disciples
forest
evalu
authoritarian
operating
nuts
assets
spanish
##roc
##isons
inner
manager
valu
residential
brilliant
##kind
sue
resent
spo
incap
parks
injured
delusional
deliberately
dun
##itate
reverse
contributions
resistance
deme
hunting
satur
outright
voices
cul
msw
##kers
governing
decre
stopping
increasingly
coffee
conclusions
wolf
##ford
##urt
##ivan
lawsuit
airport
meaningless
koran
jones
tries
endorse
solar
ordered
immediate
biz
jury
yup
##nell
produc
explicit
##informed
ire
##ato
lift
adjust
impression
killer
pattern
returned
jerk
florida
bust
##life
##ini
##ona
incidents
laid
gains
pocket
nixon
##anes
##chan
trag
##ula
knights
emer
sadd
bombs
guarantee
gif
rif
tone
##ette
weed
libr
whoever
expenses
temporary
premise
rg
actively
invited
patriarch
impeach
scenario
dys
##emen
unh
scam
sched
millenn
advocates
restrict
hostile
blatant
##respons
##icable
dissent
##educated
32
##umber
##iel
requirements
advocating
collective
incredibly
tight
##oration
backed
issued
honour
##armed
inev
empathy
ie
nurs
rip
stab
##ocracy
affil
homophobic
extremism
congressional
restrictions
ancestors
revelation
hint
mong
##gl
##wal
##esome
lect
confidence
banning
##aires
kicked
aspects
fishing
va
##wr
##edience
justification
parad
compete
inquir
clothes
morm
nic
##omy
comparing
guide
finds
confusion
transform
unto
trees
praise
reputation
cem
si
##bles
wasted
enab
worldwide
boards
judging
finance
nato
answered
apparent
hmmm
migrants
mirror
ol
##ingu
pharm
journalist
palestine
odds
utterly
torture
flawed
opponents
##mans
hamm
butt
##road
highway
formed
advanced
stronger
deeper
sacrific
hyd
##eem
##oms
##oted
rely
stamp
clark
##orship
monop
founding
practical
awesome
salaries
complaint
hypocritical
documented
elev
discovered
ox
sorts
toss
explained
golden
random
juris
08
##etical
##imony
##ueller
dislike
poly
chris
indians
irrespons
mainly
##apping
shift
marriages
factual
2011
collusion
educational
physic
operate
obsc
escape
celibacy
cited
oath
sons
discl
creates
responding
sullivan
zone
##oting
mans
payment
membership
psychiat
connected
defeat
caucas
upper
##ador
liby
##regard
##arried
falls
multicult
january
fits
hilar
##isher
crash
scheer
waters
barbar
fallen
forgive
productive
combined
construct
obligation
mueller
##oha
##ora
##arre
ford
##iah
##ected
scott
leftists
stops
harsh
patient
##force
surviv
maxim
##right
patriot
settlement
motivated
broncos
##iors
nov
##osis
accuse
complaints
pieces
tribal
semitism
##ingly
shape
fred
##aun
##aret
arrived
removing
dictatorship
cia
eternal
tied
trillion
confession
joined
sufficient
uncomfort
condemning
responded
gdp
rude
zuma
##ek
convert
attending
##ologically
populations
involving
reached
deleted
category
atroc
impr
hello
quoted
belongs
confirmed
colleges
uncomfortable
31
cos
##can
##hal
depth
lowest
honesty
operation
magaz
hyster
participation
initial
ultimate
routine
misogynist
multicultural
hilarious
wheel
##uration
##ateful
lew
incon
questioning
visible
distinct
applaud
hanging
arrogance
compensation
episcopal
junk
##anity
uneducated
incent
hook
buyers
corporation
soldier
assertion
dozens
floor
deacons
inappropriate
hidden
length
anonym
##aine
statue
vacc
automatically
lynch
dinner
theologians
chaos
demographic
valuable
##py
chann
sept
##acked
ours
ade
backs
elit
discussing
penal
premier
dictator
guaranteed
screaming
cald
upd
contrast
psychological
variety
semitic
transportation
ocean
unnecessary
lake
witch
##uch
retain
##esty
spite
divided
riding
tolerate
rebu
papers
misleading
##cast
blamed
reserve
equip
persecut
pockets
dozen
restaurant
neutral
##esc
theirs
overs
##ounds
gods
barack
lacking
occasion
auto
declare
manufacturing
wine
communism
deadly
##board
encouraging
portray
unaccept
##oz
depending
uncle
hindu
rank
##cute
acted
libertar
expans
juda
clintons
reducing
soros
temple
anglic
consistently
village
electricity
inspired
assembly
surgery
pont
whereas
ideological
mrs
authent
amongst
analy
sweet
clueless
liturg
##iority
##itute
nose
reck
humility
generous
qualify
inequal
indicate
dedicated
pacific
cats
betr
centre
classic
protestants
diagn
ultr
##umptions
margaret
shad
fright
roots
stream
competent
circle
window
independence
promoted
therap
girlf
resurrect
##oll
##tenance
billionaire
detail
institute
saturday
caldwell
##cur
##hs
prep
##ensible
lesser
judicial
misunder
borrow
desc
civilized
developing
mistaken
fetus
affirmative
##load
##nis
##hr
##view
regress
commenters
defence
practicing
recognition
challenges
professionals
manifest
dram
flow
smith
stayed
representation
saints
complicated
oahu
pard
vile
##lets
resort
moore
highlight
location
despicable
significantly
entitlement
abandoned
jpii
incapable
mul
withdr
compe
imposed
phar
21st
chaput
juneau
brutal
july
##inations
##atics
personnel
proph
insults
dioces
catechism
equipment
36
pants
rall
##acon
stake
mechan
responses
guessing
hypocrite
mandatory
ethnicity
cere
dp
foss
locked
pages
##enger
wasting
coinc
kinda
criteria
bitter
hierarch
ukraine
ireland
rit
session
##apt
sunn
disregard
offices
discussions
testing
investigate
assumed
dirt
tomorrow
neighborhoods
initiative
unacceptable
dyn
fing
pin
hah
libs
unjust
truths
remaining
operations
deplorable
bid
tank
##mark
revers
unit
clim
##apers
hadn
strip
inflic
engaging
testimony
explains
##rooms
greedy
split
items
inclusive
mile
porn
butts
proved
##quate
sinners
regulation
2010
harv
facility
rooms
brains
princip
slowly
jurisd
bump
stores
arbit
interact
trusted
announced
linked
reproductive
faster
vice
thorough
fruit
score
confusing
##iki
predator
tragic
inquiry
600
##kins
##10
##stitution
##add
invasion
kills
experiment
nationalism
copy
videos
gall
##donald
anx
andrew
chances
taxed
thru
2018
exerc
screen
adher
relatives
wherever
childish
authors
maintenance
witnesses
greek
##mates
inse
cham
classified
expecting
begins
rising
hypocrites
hungry
semin
financially
discipline
territory
brib
greatly
violated
naturally
resulting
fears
hawaiians
dominated
reflection
contracts
papal
navy
07
od
pit
spectr
twenty
20th
valley
passion
neglect
treas
paint
sensitive
attractive
incompetence
hrc
overseas
bars
##pping
reporters
##appy
contribution
bombing
targets
struggling
judaism
cyn
ell
##ani
##ctional
##apse
correction
resulted
rapid
buddy
application
hart
vicious
##mond
crus
persu
shoes
speaker
wente
staying
historic
bothered
deduct
accommodate
incredible
bizarre
34
55
bail
electr
##raft
illustr
cheer
thoughtful
freel
entertainment
bang
lone
inability
relief
questionable
denomin
privacy
solved
cards
assaults
route
settled
observation
tu
yard
assumptions
flesh
follows
finish
dealt
injury
beauty
widely
spectrum
wid
##erves
killings
marching
municip
##ioc
##fr
##aca
lev
resolution
drain
contain
cared
islands
inferior
stretch
reconciliation
hydro
irresponsible
expansion
##med
##gary
toile
##ensions
divisive
winner
ineff
intrins
intentions
kenned
pdf
sweden
rallies
ray
##vision
##arity
ham
asks
heb
tea
preaching
invite
walls
permitted
daddy
embarrassing
indoctr
dna
rose
##me
tools
##iously
inspir
transition
passes
appearance
2009
africans
09
wol
##21
braz
accusation
deleg
deported
registered
involvement
virginia
##aint
##pled
repent
governance
passage
controls
priorities
feeding
assessment
ast
##lishing
altar
untr
##inks
imply
##oooo
enjoyed
husbands
survival
screwed
unconstitution
deemed
cc
chain
pulling
deserved
reveal
outrageous
fluor
##born
inaug
##omen
incarc
paral
thro
##ccb
models
exceptions
traditions
rapists
latino
royal
industries
klan
jord
wah
zion
##imil
##uding
##agger
serial
distance
nomine
strikes
##child
##umes
abol
##endous
conform
depr
index
tyr
competitive
preferred
removal
hopes
spreading
libya
inequality
ku
pp
##iner
##onies
##omed
##tering
##arts
refusal
##comes
condemnation
luke
nuns
counts
##ials
refers
monitor
appeared
merc
locker
translation
kennedy
38
breed
##sp
reign
##ective
socially
veg
exclusion
barri
revol
entered
permission
embarrassment
bankruptcy
grasp
fabric
enorm
accompan
rapist
marxist
fossil
sne
##urning
shock
users
cra
talib
subsequ
judged
pastors
innov
tourists
persecution
loyalty
exclusive
constituents
03
cig
soph
abiding
frame
amen
mindset
investigations
distinction
celebrating
intervention
grabbing
william
bol
asp
backwards
decency
hood
disagrees
sentiment
investigated
activist
ritual
##edy
##lete
##abilities
noise
grateful
assimil
sets
discrimin
masc
##craft
##edly
##azi
extended
approx
submit
imperial
ilk
congratulations
ration
sau
wre
##acking
infant
islamists
punished
betray
95
fisher
lud
lame
mud
vent
thou
chuck
dressed
monday
requiring
praying
reflects
originally
kath
sj
##iw
ree
##agues
payers
oppressed
homophobia
foreigners
melania
unborn
celibate
disappointed
ultra
pity
##enuous
##iger
##cho
##uled
unst
pled
propose
buried
jerusal
disturbing
jerusalem
##sa
##pd
ally
##ansas
owns
reads
admir
massac
fairness
references
slightly
grop
fires
assass
discriminated
unwilling
trolls
##fty
meg
usccb
missile
countless
latinos
selected
errors
clericalism
fortunately
laund
quran
authentic
unconstitutional
masters
##ev
##atism
##osition
aged
raises
misgu
boyc
facult
distingu
##ooks
brainw
holiday
tolerant
consequence
omar
pedophile
twisted
withdraw
arbitr
01
duck
olig
pump
##hand
##uts
moves
involves
professors
homelessness
petty
contradict
bucks
fest
##cking
##ober
preserve
headlines
devast
250
farmers
monopoly
taliban
rh
##erated
soil
exhib
dry
ideolog
distract
dependent
lesbian
misguided
sought
##idays
congregation
##aux
units
unarmed
phony
confident
collapse
expectations
risks
unwanted
lux
analogy
inconven
jordan
fy
sant
whine
stable
agent
moon
chooses
tests
consciousness
unbeliev
girlfriend
sunni
lately
rite
stead
degr
decides
freely
wildlife
##ography
baptism
prohibition
presumably
37
dj
gm
##cre
##matic
stocks
yourselves
ups
overp
defic
reduction
properties
threaten
potentially
palin
customer
consumer
intentionally
infallible
patriarchal
eric
hor
oly
##ua
##etics
unm
export
behave
ignores
barg
##neau
germans
lights
shares
sensible
slaughter
libertarian
bent
naked
##jo
agents
##aped
recession
phen
representing
vetting
volunteer
weinstein
olymp
##eded
abusing
drama
addicts
finished
##known
##atr
spain
spray
denigr
calm
horrific
rental
##iently
##iser
ster
perception
interference
electorate
boast
understands
antis
continually
misogynistic
introduced
prosperity
06
##hum
adapt
emissions
scouts
lessons
liberalism
unfounded
pollution
petition
dispute
sanctions
shopping
deficits
##ication
##ental
##ills
crown
morneau
possess
predators
optim
baseball
magic
pedestr
laughable
cents
##fall
##igible
leary
miller
sword
hurric
sympt
replacement
prosecuted
louis
ecc
shif
shocking
crude
offenders
suppl
warned
moron
formal
miser
literal
figured
troop
abusers
veteran
implies
pharise
800
gest
##mail
##jug
unknown
drives
obedience
killers
viewed
furthermore
conversion
scrut
empower
intolerant
october
bic
creed
hub
trem
##eda
grav
##aware
counting
smear
extend
failures
preference
aqu
daca
hits
pier
##fun
inac
##icr
suits
##ouses
cloud
cruc
discred
secre
entity
investments
crew
occas
merkel
expressing
selection
purely
fingers
fluoride
44
boring
ring
##bre
##alia
fringe
aloha
click
##izer
ads
teeth
overcome
listened
superiority
criticized
essence
advertising
beng
mall
pul
##list
overr
profile
secondary
##anka
describing
losses
duties
library
persecuted
koch
##de
##17
rever
##stone
dising
grass
2019
respectful
destructive
transgendered
controlling
indicates
anglo
communication
pursue
molest
roughly
premiums
magazine
42
bost
sum
##gen
##win
liars
spell
smarter
ideals
predomin
harmful
inex
symbols
fortunate
jefferson
obstruction
declaration
giant
kar
owe
##lord
prol
taxation
simil
insanity
surface
subsidized
burned
compassionate
narcissistic
sarcasm
municipal
dime
theories
sov
##ivism
gull
systemic
repeating
bullet
beaten
resurrection
boston
thie
whit
map
2020
edge
viable
graduate
casual
bul
gaz
whist
agrees
drove
spect
synd
folk
visited
normally
romans
automatic
coalition
tactic
ecumen
harbor
imprison
icon
kitch
piss
##ᴵᴵ
reaching
##cher
loan
happiness
boot
util
departments
conflicts
nomination
elements
##repres
phenomen
05
fiction
gate
pent
tempt
##ux
##ull
threw
##eding
##itated
##obia
invent
centers
swim
closet
closely
occurs
achieved
apartment
delivered
cpc
caucasian
disingenuous
85
ears
hob
jay
##pa
##omination
cherry
closing
uphold
overth
rolling
##ouncing
protections
breast
locals
utm
tears
faux
ros
rog
tong
ward
##bits
##inter
##oria
likewise
##elle
unfit
critics
contributed
desperately
conclude
hebrew
soviet
pour
sque
##ca
##icides
pel
##ifiable
attached
bashing
##aha
oppress
civilian
sentences
assaulting
leafs
mutual
sane
##rete
pew
##aping
murdering
witnessed
enlighten
##check
4th
eve
ly
##areness
##amb
shake
spokes
precious
retail
secondly
worthless
##aaaa
revenues
selective
hitting
iq
loses
mock
render
##dling
##nost
stir
stun
dement
proving
##acks
unus
grief
accusing
servants
amazon
reminded
discourse
stalin
airlines
##uk
##aus
##gle
##rome
##osh
idol
admire
milk
##phere
criticizing
grandchild
psychopath
dropping
improvement
escal
estimated
ironically
wolves
ludicr
cous
dies
tip
vague
##any
teens
apples
careers
prophet
handled
aircraft
announce
rejection
restricted
skilled
heroin
sponsored
scotus
scheme
similarly
02
pse
yemen
uninformed
clause
owning
mature
humble
sidewal
ordain
ruin
filed
crossing
legitim
consumers
newspapers
pleasure
mascul
##oh
##nat
##nie
##alid
##obe
coer
##ocratic
smile
homeland
joint
apr
developers
visa
contributing
teenage
ambass
liturgical
dick
foster
##pless
co2
schiz
retal
focusing
chapter
rcmp
substantial
snowflake
earnings
crooked
therapy
lw
lump
##idels
sued
appe
defensive
invented
boots
immun
exposure
questioned
ohio
respectfully
equity
hurts
challenging
inept
mortal
prosecutor
##works
##ecd
hen
##igan
stom
healing
reserves
journey
flags
prevented
tribes
disrespectful
sincerely
cemet
inaccur
04
rum
rod
##car
##gun
sew
infidels
genetic
genius
clever
awareness
weekly
collection
emphasis
rampant
hilary
dysfun
unstable
dil
dust
mant
##mer
overd
muse
##ificate
##prop
practiced
importantly
horror
technical
labeled
procedures
nine
stars
##udge
reliable
monuments
shortage
falsely
motley
calgary
attraction
censorship
recovery
forbid
ivanka
chicken
encounter
gifts
taste
##iates
##water
##anna
mankind
outcomes
publication
flip
moose
confess
topics
marches
drawing
allegedly
exclude
paranoid
43
cure
jon
luc
sore
##inem
input
##arians
##iments
shore
discon
boyf
patron
raping
creator
##engers
blowing
synod
snowflakes
negotiations
anglican
gig
tant
##ded
##ala
lib
loath
spaces
##ancies
instances
mining
editors
generate
trading
hypoth
associate
robber
ratings
bogus
hes
##iating
##boy
recip
stole
implying
humil
studied
maga
conception
appointment
surrounding
dismissed
39
dance
pod
rage
##aly
liqu
unch
enh
repub
evening
persist
concrete
seniors
speculation
describes
targeting
eliminated
##idelines
cuba
paralle
ludicrous
ax
bind
ew
##sey
leaning
##ocument
feb
quant
chronic
contest
slope
handling
violate
ordin
subjects
demonstrates
implemented
exclusively
champion
avoided
shirt
enormous
700
pon
rick
prud
prisons
##ctions
atm
rightly
spends
##ensity
assign
genesis
communists
hurting
painful
towns
##holders
qb
tack
##oris
toll
##istics
drun
undocument
defended
slog
moder
murderer
wingers
concepts
columnist
mosques
scholarship
hijab
undocumented
kr
##pers
belt
guid
admitting
absence
successfully
prince
weakness
methods
overwhelmingly
controversy
nytimes
atrocities
inauguration
cemetery
tires
##asive
rehab
tri
unaware
tape
disprop
annoy
subscrib
doctrines
drawn
flynn
tickets
convenient
hugh
structures
dynam
##news
reass
reader
absor
metaph
visiting
fascists
affects
unemployed
tune
mongering
survivors
unbelievable
bin
tale
exagger
##endum
##udos
socialists
holidays
consensus
endorsed
disproportion
tan
uo
brian
needing
obl
mentions
##ophren
convictions
motive
epa
skept
nominee
pensions
sed
tent
##cel
abra
##izers
offender
monica
biology
demanded
grandf
nightm
welcom
pius
excluded
rd
sr
sided
##lor
stations
hein
anytime
extensive
qualifications
salmon
disagreement
attendance
buddies
villages
sheriff
eccles
grandchildren
schizophren
pile
bye
##ousy
polar
install
##ounting
inclusion
apostolic
gathering
penalties
##itan
abuses
frag
consumption
subur
subjug
treaty
behaviors
thirty
elitist
62
bone
darn
gam
##uity
##acious
shots
clients
plate
spout
genital
slap
joining
harry
economically
accordingly
recognizing
scientist
tourism
lobb
movies
puppet
faculty
51
mit
##itating
agric
covers
accidents
realistic
wont
##rene
harvey
affair
103
doub
speeches
equate
##erto
influenced
clarify
remotely
explicitly
impeachment
anonymous
pardon
kitchen
agricult
52
foul
genders
ml
##ede
notes
##eping
taxing
arts
expose
murderers
israelis
enterpr
epis
felony
connections
bombard
prospect
##information
pandering
excessive
sustainable
emotionally
bengh
49
46
align
##emic
apple
barrel
birds
hung
creative
survived
scriptures
reviewed
rigid
acknowledged
inevitable
guidance
nail
##fect
##night
##idal
confer
##term
peer
enth
grat
shep
##iph
underlying
charities
memories
invested
dealers
columns
rebel
omg
vegas
47
bearing
segreg
##ulent
backing
assure
correl
charitable
violations
fundra
remained
medication
drivel
examine
writings
attracted
december
lunatic
toilet
luxury
uber
##mony
##isible
haz
outlets
tap
loaded
grants
##ogen
condesc
billionaires
semi
improved
tribe
michelle
gangs
springfield
opponent
regressive
fyi
unusual
castr
wet
##upp
##hl
thy
neur
tag
offend
##ernick
flash
missiles
colleagues
replied
prisoners
veto
##offs
mystery
warriors
principal
ambassador
benghazi
rr
knife
disd
groc
##anges
childhood
surve
returning
yellow
purchased
complicit
dividends
conveniently
recruit
camera
basketball
abraham
welcomed
##xon
##stal
##ilia
tail
seeks
##ologist
helm
handful
prominent
monthly
awa
steel
186
declining
silver
bait
martyr
##banks
mutil
memorial
pseud
bench
fert
horm
##dog
peers
##ocation
efficient
heading
producing
seconds
predicted
uncons
##ahahahah
motivation
vulgar
societal
restaurants
elementary
syndrome
cs
kudos
umm
##iary
##aeda
##bie
##stant
##adium
defer
##andering
##active
brush
drump
refres
monster
condo
investigating
bloody
proclaimed
controversial
kaep
spoiled
descend
dall
gear
tall
##isation
conse
offs
workforce
impressed
matt
apd
lawsuits
officially
puerto
parishion
sharp
occupied
fleeing
incorpor
##iciency
sacramental
rifle
insec
antisem
nc
pink
tons
##iations
##oved
anecd
##etr
donate
##cile
repair
backl
deciding
struck
bash
entrep
fairbanks
bullies
apologies
patriarchy
jackson
solidarity
italy
resolve
jt
##mart
##bow
dept
meal
blown
##ubstant
applying
interf
corr
mohamm
superst
##bole
ranks
perpetrators
fate
hou
mau
wp
##erving
##atible
trips
atl
imho
beloved
prescrib
regulated
eligible
movements
recorded
difficulty
fundamentalists
april
54
##oman
##otes
##etically
pell
unint
##isms
##ourse
supportive
responsibilities
bathrooms
quietly
fulfill
jurisdiction
dol
stadium
##ieve
reserv
brad
scout
lefties
subtle
checking
passengers
statute
injuries
participating
dispatch
embarrassed
1980
rigged
presume
strictly
avoiding
transparency
kneeling
stereotypes
channel
pharisees
##fare
##oop
##gt
##roney
chant
alter
loans
aclu
courses
desires
artific
colors
formation
misrepres
signing
argued
damaged
prevail
catastr
languages
outraged
texts
boundaries
riot
tonight
mulroney
catastroph
greg
jude
yah
##sy
##77
##ads
##usc
lefty
thereby
user
craft
suppress
adds
behold
investing
militant
messages
identifying
campaigns
administrators
evils
fourth
heroes
intellectually
bags
reactions
exploit
severely
rescue
cb
stew
alab
scum
remarried
cheat
condone
norms
prosecution
engineers
pursuit
fluorid
television
buddhist
reckless
tuition
ket
vets
##olate
heal
shield
unite
blo
artist
regional
smug
beha
damaging
outsider
explaining
seminary
enforced
batt
tribun
##ommun
duke
conducted
aimed
undermine
gentleman
vigil
anxiety
scrutiny
astr
jeal
ot
sab
vil
##atar
chat
##ulum
##arett
spur
appalling
marine
scare
roe
denounce
truthful
feminine
obsessed
observed
grandpar
reformation
maximum
discriminatory
cpp
hpd
##kin
##mont
##with
##icate
##illa
neck
addict
cheating
admission
extension
equals
initially
maintaining
idiotic
fuels
dominant
isolated
blanket
freeland
entreprene
##xit
##inally
counted
relate
recre
charging
referendum
preventing
disgu
##look
expertise
garden
contempl
multiculturalism
september
gullible
##natural
##eys
##fol
trucks
sodom
whats
##abe
womb
elway
inclined
pleased
passenger
excommun
swear
burka
neglig
ruined
suspects
privileges
cleaning
surrounded
deliberate
vene
yield
##itutes
prize
triv
knock
spare
newly
invaded
addicted
expend
lacks
2007
performed
interpreted
broadcast
communications
disdain
72
fias
##hem
##bal
ingr
theme
brid
glory
continuous
##qualified
corrected
snap
objection
meantime
harassed
blatantly
routinely
thieves
sink
##vens
##acco
##aders
##ctic
liability
managers
##herent
compon
findings
lovely
founder
walks
devout
revealing
eleph
cruz
lesbians
hyperbole
fiasco
cad
nig
nick
tie
##alm
outlaw
disad
shell
interse
infin
warrant
jesuit
harris
possession
welcoming
celebrated
fundamentally
saudis
integration
jerry
ratz
micr
clinic
massacre
dot
pizz
##west
sequ
##osity
agnost
plot
interfer
asser
boost
conservatism
detect
penny
quoting
philipp
akin
reveals
1960
surrender
neighbourhood
buffoon
apt
ducks
fue
rocks
##gate
inmates
##osphere
donors
resem
polite
contained
##othy
seemingly
carol
confl
conversations
literature
##ergies
pigs
unhappy
boycott
boyfriend
fence
las
##cs
##91
##ima
incons
perver
prel
electing
carl
eliz
reasonably
collar
founders
thankfully
popularity
minimal
extraord
package
##iciently
adulter
comprehension
deplorables
distribution
rebuild
cigarett
disadvant
cycl
horn
row
raw
##rence
##opes
doomed
##abeth
dise
disability
griev
indict
default
rebels
settlements
fifty
physicians
oversight
alabama
57
cave
cakes
gates
sask
##otal
##igm
##think
ships
##este
crush
assured
commented
respecting
##cover
imagination
mccon
captured
predictable
transparent
enthus
ratzinger
sic
tuls
##han
##ports
lean
enact
shoulder
grip
interior
readily
legs
##erald
easter
safely
reforms
jumping
dressing
pedophiles
sleeping
overturn
rico
kaepernick
aa
kap
qaeda
sik
##dle
##80
##icism
##ieval
bloom
indul
string
stranger
regret
collab
protestors
facil
obsession
participants
improving
appointments
##haust
visitors
districts
inherent
elders
defeated
remarkable
converted
tobacco
chamber
saund
nightmare
shepher
houston
lind
lists
oops
pow
pose
##uu
images
bund
pointless
happily
phones
192
entities
planes
servant
misd
located
honorable
cowardly
cosm
inaccurate
grandfather
diction
wt
##30
##eracy
##acles
##amy
finances
sanction
appropriation
brotherhood
madness
teenagers
flee
coaches
impeached
deacon
tower
evolved
prepare
mcconnell
bite
bip
jul
mount
sigh
wanna
##iy
##td
##lands
##theless
deploy
noble
##iece
craz
bro
medieval
##encer
cleans
##teen
anticip
confuse
1950
wondered
absent
credential
administrative
fixing
holes
skinned
promotes
limitations
baptist
suspic
geez
yelling
adequate
elizabeth
67
dw
mask
moses
vand
wire
##rent
##hi
##pm
##itic
exhaust
heresy
overly
believer
scores
carter
##idding
motives
complained
koreans
pipel
fatal
hacking
inherently
frequent
perpetrated
italian
enlightened
xenophobic
concentration
capita
saunders
eag
hats
hipp
ic
kir
lb
sticking
abund
alliance
button
alike
plural
partly
##ensed
backward
registr
greet
quotas
disappro
traitors
spirituality
dreams
settlers
drumpf
grandparents
##uum
##tn
whe
enrich
considers
realities
imposing
paras
monument
kidn
campuses
sugar
msn
suspected
celebration
alternate
unreason
firmly
schedule
thoroughly
pipelines
hors
lust
wounded
##vance
##inas
shed
outstanding
upgr
##away
relax
indones
19th
swing
mentioning
debates
revenge
accurately
##guard
santa
bombardier
echo
fond
gained
##zy
todd
inject
##leen
##state
prox
##ags
appease
nevertheless
providers
nationwide
globalist
characteristics
dictate
alternatives
executed
prosecute
occupation
aggression
advisor
categories
confronted
tues
wides
height
alc
cathed
meds
##aughter
completed
dogmatic
damned
gerry
explos
crossed
uran
commandment
unpre
blessing
##respond
bonds
evidently
sjw
bicyc
vital
zones
##een
##oia
##nant
##pread
##12
##ali
offsh
##ologists
terribly
violating
curric
fallacy
totalitarian
technically
tolerated
assisted
customs
fantastic
sovereignty
wreck
appeals
egreg
lap
##oot
##osi
correspond
pair
prompt
salt
files
deranged
timing
caucus
simplistic
verbal
backlash
tuesday
widespread
pts
thurs
inhab
segment
##arters
##itect
craw
##elve
brav
##icked
cheers
deput
brexit
landlord
superv
mandated
contraceptives
australian
deflection
pandora
pilot
juven
contemporary
mormon
coincidence
parishioners
interfere
911
cute
dual
ron
tac
tory
##fers
##igate
pear
client
##acters
suppression
taxi
regul
agreements
suggestions
diet
separated
essay
entrench
clubs
constitutes
embraced
disordered
implied
fifth
yrs
subsequent
dallas
##uation
##16
##amation
abroad
alarm
server
assigned
characters
studying
hearings
identical
moms
contribut
balt
tempor
architect
righteousness
acknowledging
shouting
cynical
intrinsically
hurricane
trivial
vouch
##step
novel
clos
blast
surpl
advise
condol
centered
remembered
treats
falsehood
labels
willingness
portfol
reminder
sympathetic
prostitutes
populist
procedure
decrease
venez
tulsi
bast
fer
ghet
lng
vic
##alt
##ura
grid
intense
incarn
coh
obst
christy
##achel
hominem
generated
laden
prede
contractors
indication
shallow
tendency
dismant
clarity
expanded
comprehend
wilson
columbus
rabid
phenomenon
erect
gi
##ington
##rey
##adays
exterm
lease
##osa
actors
##ogr
lawm
marsh
invalid
refute
protects
##phem
subjected
budgets
enjoying
fascinating
evangel
patriotic
emotions
duh
ambig
tortured
##worthy
software
enabling
psychiatric
predecess
5th
cogn
##wa
##itism
##iterate
whim
blocked
wonders
carri
bold
buses
biases
swall
metro
disagreed
##ika
marketing
hater
radicals
volumes
eliminating
comparable
perpetrator
marginalized
dictionary
jet
kent
kicking
kansas
lanes
uaa
##gia
##sexual
asyl
trinity
sevent
guise
fold
payroll
racially
opio
memo
citation
potato
##arriage
2005
tested
incomes
archd
beside
parallel
thursday
bones
nhl
oval
##oma
stim
deeds
lever
enable
blocking
prey
veil
curia
estimate
preval
declaring
commissioner
interviews
negotiate
confirmation
concluded
cooperation
bureaucracy
bureaucrats
diminish
launch
producers
distinguish
uranium
venezuel
archdioc
jokes
abh
muhamm
invisible
##beit
admits
homo
ordaining
arrange
cease
indef
wednes
convincing
##health
jumped
rooted
savior
airline
resentment
demean
exercising
tongue
gw
oak
pagan
##bly
chret
alert
maim
blocks
residence
citing
arrive
shortly
##aphr
distraction
unrel
woods
spewing
credentials
wednesday
53
mck
puss
vp
wore
##iably
sean
makers
moreover
##iber
blas
features
twelve
warr
warren
dennis
sciences
practically
processes
dominate
annually
competing
incomp
rockies
attorneys
disappeared
blew
consensual
patriotism
hysteria
kathleen
mantra
inconsist
chretien
sway
tire
##zie
trent
dei
leitch
amoris
womens
intend
polling
warfare
homophob
classroom
currency
walmart
murderous
merry
labell
despise
grandm
councils
epid
dutch
accommodation
vocal
clowns
rapidly
eager
tang
##alism
##rett
reci
hamas
##ami
##uster
albeit
poland
nowadays
feature
publicity
fled
costly
##phone
stepped
devos
necessity
laying
permits
1960s
fortune
accomplishments
paranoia
certificate
precedent
inconvenient
alceste
kur
##ement
anne
##omp
arctic
supper
opens
inspect
regarded
stays
favors
promotion
orthodoxy
panel
delivery
digging
exploitation
cdf
screening
cooper
nursing
affiliation
siem
reversed
whistle
condolences
97
dating
theor
##onomy
fore
stan
##ista
fraction
unse
knees
plastic
ww2
plea
receives
trains
trolling
encourages
parenting
impacts
additionally
marty
##iffs
subsidize
discovery
unpro
entertaining
satisfied
tremendous
bridges
asylum
az
coc
hog
mism
rants
##yard
##pent
##etit
aspir
adhere
perce
guidelines
prescription
##ileaks
certainty
policing
barry
fearful
rapes
husse
fooled
verses
filling
amazed
determination
pregnancies
integrate
sunny
scratch
abuser
graduates
riots
discernment
lewis
compelling
museum
ip
tam
##cle
##lock
##oa
##ulative
drown
relat
contains
corp
continent
restore
noneth
collins
riders
visas
replacing
filthy
ridicule
demonstrating
publishing
windows
albert
aids
adoption
gentlemen
pierre
blasphem
kool
tat
##aver
##min
##vable
sober
uss
##agg
sheer
commits
comply
marks
problematic
discount
depos
irs
accepts
argu
modest
existent
imaginary
innocence
custody
rocket
advisors
tyranny
nonetheless
fame
##aired
##fast
deaf
unr
##ifer
maf
spencer
defines
regions
didnt
mode
functions
scandals
audit
expanding
cameras
unreasonable
gta
jong
mi
mild
##oe
##ype
##lements
ont
comr
leo
coord
##itty
buzz
islamophobic
agreeing
visits
airpl
detrim
##unked
sells
margin
machines
proposals
inflicted
ptsd
77
torn
noting
alas
pews
##ema
usage
##ogether
guest
gupt
guards
selfie
annul
radicalized
declined
holiness
collected
occurring
mcdonald
experiencing
kenney
##rehensible
implications
neighbours
skew
diplomatic
xenophobia
patrick
vitri
nurses
dementia
hip
mate
##hill
##40
##ano
anarch
sham
exit
##odes
leap
ariz
donated
##apes
intoxic
impressive
endanger
behead
advised
waik
objectively
delight
washingtonpost
lifel
altogether
interpretations
disgusted
inherited
compliment
prostitution
atmosphere
episode
dere
fancy
gulf
len
lest
nah
tay
##lings
##ko
socc
amusing
outd
enacted
propon
collaps
divisions
expectation
bitch
foods
midst
bedroom
vocation
convenience
satisfy
pronoun
ewtn
60s
bans
mocking
nur
qatar
wipe
##lad
##66
##eday
notwith
chip
leaked
clock
drill
guided
##erness
endure
costing
subjective
wikileaks
reactionary
hmmmm
prohibited
displayed
champions
genuinely
ghost
incentive
update
denominations
condescending
mohammed
indonesia
notwithstanding
cess
nurt
ole
ridd
sits
sabb
tes
xx
yog
habits
aggr
cronies
repug
governed
veget
billy
huff
swift
definitive
speakers
damages
bird
enforcing
sects
hoped
trauma
charlie
inherit
ratio
gathered
introduce
ancestry
clinics
strategic
approximately
pulp
pelosi
castro
egregious
soccer
fare
mt
tends
wade
##gent
##orous
##rels
haha
asset
meets
disob
gray
sinner
sexes
infidel
instinct
kindness
excited
steven
snark
qualities
greens
punch
photograph
ensla
appreciated
touched
statistically
constitute
observations
narcissist
diocesan
arbitrary
oligarch
henry
obliv
waikiki
barn
cy
fn
gore
hike
picks
vag
##far
##pool
##anim
rear
seal
uneth
##apo
reluct
presby
someday
militia
shoe
2006
erad
ranking
maintained
tourist
cowards
egg
communicate
baptized
materials
owes
columbia
hysterical
frightening
ceremony
##iwan
miserable
diseases
juvenile
aven
dave
##fire
##person
##19
##itas
chast
helic
##amous
trap
worn
amy
relation
recyc
medium
helpless
privat
homicide
courtesy
hunters
satire
autism
advocacy
indicated
youtu
manipulated
reinfor
codes
paradise
ineffective
brainwashed
aquinas
enterprise
refreshing
98
##nr
##inth
##edient
congreg
taiwan
eman
flock
olds
##eney
101
funeral
commonly
yea
romney
traveling
urge
mouths
deportation
##ulsive
bowl
slaughtered
gardner
demeaning
mormons
untrue
rationale
metaphor
horses
entrenched
lawmakers
arizona
helicop
58
cable
ease
##coph
tooth
##igation
##iro
##eman
##agog
presents
mug
matern
##avor
handic
##ruary
faiths
redeem
exceptional
revision
##aneously
imagined
objects
profitable
counterp
summary
##criptions
academics
##iciary
resigned
suspended
demographics
adventist
sb21
warrior
predominantly
overthrow
february
hussein
70s
bak
ft
jac
mps
##oons
chump
weigh
shit
delusion
allie
managing
emper
sometime
rober
hoax
misinformation
larry
respects
generals
fights
distort
laetit
crowds
1970
manipulation
angeles
creepy
attributed
resolved
dramatically
artificial
bloated
elephant
portfolio
laetitia
gabb
lousy
##gments
theocracy
beast
##ola
asc
##andmail
imams
##elf
consol
locally
messed
burq
diab
fairy
trades
sections
interviewed
intentional
rubbish
1950s
dysfunctional
doubts
misrepresent
56
dup
nbc
##ye
##▀▀
thick
inade
beef
rebell
lip
negr
looph
##beat
carries
immature
homeown
wrongs
norway
caution
denies
condos
priestly
promising
grows
sucks
2004
moments
##box
prevents
prevention
120
allegiance
doctrinal
michigan
applicants
pedophilia
hammer
barriers
grocery
pseudo
awards
ige
jane
void
##sen
##oves
##reach
notley
seas
external
##ibe
plight
marital
##uces
worlds
sycoph
##ewan
flights
slam
proposing
surge
2001
pund
detailed
placing
capitalist
apologists
hostility
##ammed
symbolic
submission
forbidden
grossly
lecture
pledge
segregated
unethical
gc
hay
nyc
vary
##atri
##igated
scope
ende
provision
willingly
##umbling
researchers
birthday
freak
advocated
balls
dispos
combination
commander
##atchewan
tillerson
zionist
registration
closest
siemian
nurse
dal
kal
lumber
tony
##iac
##orth
##iture
##itably
unqualified
plag
indif
commenter
instant
oppressive
businessman
denomination
singing
limiting
devices
deserving
measured
occupy
courageous
obtained
woe
temperature
estimates
frustration
dioceses
brazil
##human
tantr
lobbying
saskatchewan
surplus
outdated
sabbath
fitting
vin
vind
##za
##ader
##urg
hears
##ationally
manning
parr
carn
talented
starters
curt
redempt
victimized
superf
marched
oriented
suspicious
lobbyists
implicit
bragging
taylor
ib
jason
nancy
rud
##ara
stability
unlaw
enroll
governmental
corps
##version
##aham
understandable
homework
profiling
bikes
forgiven
basement
painting
painted
reflected
verse
performing
alcoholic
proudly
1990
searching
williams
occasions
heinous
curriculum
archdiocese
aston
cf
##yer
##oubt
##irming
delic
##ieved
reserved
##limited
strangers
invitation
##ceptions
infring
slipp
phase
considerable
thankful
arabic
desert
circles
iii
demonstration
nearby
booze
rebut
capture
deceit
manufactur
proposition
brutality
exemption
recruiting
evolve
colonialism
innovation
suspicion
venezuela
nas
wy
##afe
##fight
##wing
anderson
notor
##istically
wears
shaming
##ainted
mana
meals
anyways
outdo
coup
bug
privately
retreat
solving
beneficial
esteem
definitions
nicely
bullied
tendencies
panic
anthony
flex
##backs
hindus
confederacy
cruelty
triggered
ideologies
carolina
grandmother
41
80s
fines
laud
nerve
toy
##isition
whome
relying
stones
##arded
advers
makeup
indirect
##atively
schism
liberties
flames
##roit
financing
misery
##retion
coverings
arena
devoted
harms
apologized
dispro
1970s
contradiction
cancel
millennials
occasionally
electronic
robbery
conferences
vigilant
unrelated
epidemic
mafia
lifelong
dair
dwell
jen
rats
sample
##dled
unlimited
##ocate
coven
americas
##ressing
concert
cheese
barr
##fund
sucking
equation
puzz
device
1967
censored
melt
clarification
graduated
hacked
appealing
counseling
##burg
consecr
64
jf
pic
##onious
##ena
beth
##imore
##chool
trav
shi
orland
appalled
lawful
farce
humane
winners
patience
defining
presenting
##tarily
psalm
psychology
rejecting
anthrop
loudly
##arthy
flaws
samar
##globe
barbaric
harvard
legitimacy
fragile
insecure
whomever
pace
ruth
vlad
##no
##mate
##ertain
##atical
abd
disastr
##iche
accounting
foll
desired
victoria
##liest
answering
messiah
harmed
counties
impacted
hopeless
virtues
engineer
instruction
computers
commerce
initiatives
negotiating
##iosity
mutilation
extraordinary
eagle
offshore
au
ditch
honey
kings
pitt
wm
##tes
##zing
theglobe
##ople
shower
abide
acce
feat
preached
exposing
confisc
mindless
misses
capability
legalized
burd
merits
friendship
innocents
perpetual
validity
census
partisans
printed
guts
comprehensive
stereotype
profoundly
compelled
##franch
orlando
theglobeandmail
cock
iow
lor
lav
mack
nd
tm
##13
##erm
##atz
##isers
##lee
##ilst
peak
graph
##okers
underground
realizing
paycheck
paraphr
simult
banking
morons
redistr
organize
arrests
stepping
supernatural
mommy
distant
petro
celebrity
wilderness
errone
drinks
blogs
functioning
cartoon
dougl
intimidation
encountered
tossed
inspiration
pearl
gabbard
bums
fidel
lem
pious
sends
##iast
##isle
allen
unhing
maker
disorders
partial
scape
impart
publications
caf
##print
threatens
approaching
oneself
buyer
peacefully
ethic
pathological
collecting
blindly
traits
captain
nukes
shelters
flooding
incarceration
msnbc
muhammad
dairy
acceler
han
sib
##ex
##cion
##mun
##asi
seld
succ
worries
blames
gramm
mush
flour
doesnt
charism
curb
transm
passages
waving
expects
risen
stevens
congressman
relevance
uncertain
traveled
substitute
fanatics
vetted
viewpoints
endorsement
indoctrination
atlantic
philippines
bravo
baltimore
unhinged
bot
furn
gib
garn
pork
##ully
whilst
cher
procre
unbi
enabled
partially
spouses
perv
undo
##aka
opus
insert
provisions
economies
signal
namely
marked
begging
diver
referenced
debunked
flagged
periods
execution
troubled
apologist
knowingly
bernard
##held
theologian
bleeding
compliance
shadow
dramatic
merciful
troopers
cog
dame
dangers
gors
nailed
##dan
##pro
rewr
##oline
deception
exem
willfully
clergies
adoles
sail
undoubt
commentators
edu
phd
phill
mighty
passive
directors
holders
2002
grey
##ooo
transgenders
constructive
insisted
eggs
recommended
instrument
scholar
manipulate
tweeted
populace
rotten
zealots
stamps
pedestrians
gaza
disastrous
laz
rice
ves
##ean
##hard
##rell
##arming
##ayed
trails
abst
wholly
leak
commons
##anging
infect
carr
bases
holl
handouts
culturally
civic
requested
identifies
2003
detroit
leaks
iranian
davis
##heart
rhetorical
websites
permanently
lutheran
boomers
elevated
steady
symptoms
stomach
fluoridation
battles
sodomy
misman
roberts
unbiased
exempl
59
bend
rust
slim
##ww
##uters
fores
prest
conceived
##ifact
arist
outl
dischar
##agogue
##obs
demise
interrupt
contention
slur
educating
francisco
testify
encycl
calend
traditionally
leaf
insulted
minimize
derog
manufactured
migration
implication
ukrainian
disgraceful
sprink
pronounce
incentives
venture
groping
discredit
ecumenical
disconn
drunken
correlation
dat
dak
hed
kush
pestic
##sm
##aic
##erb
##ateral
##iter
withhold
shun
goof
thereof
##artis
ambr
offence
relent
##sels
defund
##lessness
liberation
protoc
victimhood
##pring
begun
testoster
limb
assumes
devot
shareholders
observe
ballots
bottle
imperfect
frustrated
branches
alexand
adherents
repubs
manafort
scapego
seldom
dt
nause
rug
forem
nobel
myster
##ibution
resume
incumb
obf
wells
accum
contam
insin
monies
campbell
snake
physics
bombed
sickening
bullets
troubling
patriots
jean
vastly
duplic
angel
creep
disappointing
intimidate
isolation
polyg
prophets
hierarchs
ponder
pizza
testosterone
drew
gerald
pony
##rog
theater
##inos
##anas
##ingo
##iti
cheney
drone
##itters
defect
aftern
democracies
milo
##inson
addresses
logically
psychotic
chiefs
halls
timothy
teenager
1980s
mccarthy
jimmy
compromised
diplomacy
agnostic
deputy
cesspool
negro
gorsuch
obfusc
73
bake
bunk
berg
benn
hers
hann
lin
##press
##ita
prone
liking
##ogical
##oker
afterwards
invade
downs
exports
formula
doubled
locations
fighters
formerly
utility
shutting
gladly
unsafe
atheism
graduation
deceased
dragged
angels
micro
conventional
disturbed
supplies
kettle
superficial
awhile
kas
tin
tel
##inates
##instein
stub
chase
doj
##keep
discretion
investor
debacle
gosh
versa
examination
executives
insisting
rolls
dominance
seminaries
unconscious
component
cognitive
sap
til
wider
wisc
##bab
thes
whis
stor
##irs
trill
seed
unle
worldview
slander
joking
complement
legalization
merch
worthwhile
defenders
initiated
apostle
dreamers
pursuing
striking
launched
evaluation
sacrificed
wahhab
bargain
descendants
gerrym
prevalent
emperor
wiscons
fb
tide
xvi
##uer
##35
notre
stiff
comedy
ala
manual
unanim
donation
##agement
daycare
boeing
insign
handing
monet
nationality
ski
gasoline
scriptural
subsidy
laughed
darkness
backgrounds
fantas
lynn
espous
trailer
households
squee
arguably
yoga
undoubtedly
kushner
foremost
wisconsin
pound
pale
##uate
theat
##onom
forums
##olini
##irable
trough
shine
abilities
aging
mahal
imbal
coherent
spelling
marc
firms
impaired
lethal
installed
playoffs
skir
authorit
domination
obsess
creatures
designated
traum
grabbed
labeling
voluntarily
dumped
mountains
throats
cousin
sidewalk
rehabil
borough
jam
rated
sands
##east
##mar
toe
haul
##ocy
upcoming
grind
commod
descent
artists
regulate
oldest
lottery
violently
statistic
bury
birther
catal
tenure
volume
broader
submitted
prosecutors
prejudices
pills
bonus
unex
strategies
vitriol
afternoon
bald
kerry
##eb
##itivity
##entions
stink
shakes
orch
leban
##abil
amate
outlet
enlist
disen
polish
spic
drops
undert
edmont
##web
violates
dealings
breth
identification
debating
participated
columnists
worrying
accuracy
myths
cdn
slightest
recommendations
molested
culp
paradigm
assassination
retaliation
recipients
derogatory
edmonton
63
dates
eis
nt
pant
rivers
##90
theres
rect
reich
##sts
trends
shred
cliff
disse
disabilities
acres
offset
reprehensible
roose
slip
afflic
waited
equating
starving
hotels
commissioners
vacuum
appreciation
papacy
improvements
fraudulent
delete
landsc
gentle
obligations
devastating
sewer
dynamic
##ubstantiated
inhabit
perceive
follower
simultaneously
ambrose
disenfranch
brethren
dope
ging
lam
nap
vest
##aves
##liness
##fit
##yles
##eted
stif
doe
exod
unhealth
##pton
actor
##inters
lawn
governors
minors
terrified
isnt
advances
finest
campaigning
investigative
distracted
deluded
interpre
touching
statistical
consume
equivalency
cells
athletic
dragging
creek
territories
shirts
cupich
patrol
augustine
secrecy
enlightenment
hazard
judeo
labelled
roosevel
exodus
cm
caps
dancing
jets
nit
posed
##cow
##inence
priced
stoned
##opard
##the
shops
sob
##ppo
exh
##ighty
disli
belg
relates
factory
param
carib
illiterate
populated
poorer
johnny
salute
circuit
tenants
earners
nominated
censor
royalty
resignation
assertions
vocations
reconcile
attribute
trickle
buddhists
harvest
treasury
antisemitism
jealous
cleansing
unpreced
covenant
jfk
dent
hong
kong
sf
tas
##mal
##orative
sticks
heath
fruits
clo
wrest
indis
blackface
deniers
denouncing
critique
treaties
diem
suffers
firefight
##insky
competence
agendas
syrians
allegation
achievement
obstruct
conquer
horiz
olympics
imprisoned
hypothetical
schizophrenia
offspring
cigarettes
slippery
unprecedented
jill
sda
##lave
##die
reilly
##cha
trident
leah
justices
aga
blather
imam
intimate
peril
##ensical
remorse
articulate
##weight
humanitarian
denounced
skyr
globalization
filing
verify
displaced
miracle
unpop
nuke
eucharistic
aleppo
##itzer
dubious
rifles
djou
hubris
secrets
announcement
immune
skyrock
6th
ccc
naming
raz
##zed
token
abet
##athan
needy
underest
muller
scorn
parole
##ceptive
homer
divinity
distorted
forgetting
plainly
tracks
farms
advantages
applicable
tobin
vitae
capitol
glorious
obscene
ranked
mega
laundering
masculinity
triump
redemption
##artisan
gingrich
unhealthy
68
66
asexual
cass
etern
gym
mamm
ronald
tub
wann
##gling
##reated
beats
doss
##usa
mao
offending
##lected
thrive
humanae
hopeful
honored
almighty
stein
discriminating
devoid
detr
envy
preferences
athlete
tenets
associates
parental
exceed
appropriately
espn
advertise
pleasant
partnership
obscure
binding
recreational
tesla
bout
dental
pad
wishing
##iques
##oks
##nox
chest
##uson
exxon
##iak
overl
##000
interaction
##aches
keys
invading
rolled
insens
admon
colin
cape
millionaire
##lihood
legalize
sounding
programming
spirited
recognizes
significance
unsubstantiated
squat
mathem
embracing
unreal
translated
traitorous
perpetuate
disclosure
unmarried
prescribed
catastrophic
bicycle
repugnant
roosevelt
78
cbs
mocked
rag
wag
##tion
##eting
##opia
##istence
shill
shia
orwell
unaff
crick
obnox
persona
regimes
gene
cheek
respective
disagreeing
nonsensical
secretly
knowledgeable
netany
texting
spinning
excluding
exploited
succeeded
dubia
rituals
assimilate
pedestrian
kirk
presbyter
burqa
calendar
unpopular
7th
8th
bould
ct
dur
ix
lens
nod
ov
pes
rogue
rachel
slic
td
tout
wiped
winters
##tary
##22
thief
##esar
##imp
dose
shipping
conway
convey
deed
pee
##pelled
##ifully
evid
rightfully
spy
spots
relating
valued
cream
sworn
presentation
pete
##iii
traditionalists
reviews
deduction
packing
committees
crucial
bosses
macron
bragged
cancelled
produces
inevitably
symptom
annoying
fueled
rebellion
unlawful
sid
##lah
##atable
chasing
##illance
abc
worsh
blows
plug
shoulders
##iana
spit
pertain
undes
##ailing
refrain
globally
susan
activism
railroad
baloney
establishing
medications
affecting
assistant
praised
chairman
cooperate
##heads
hahahah
throat
barrier
craig
surveillance
71
9th
dl
ross
##fa
##mons
##pot
##vy
##wash
isil
ate
##andy
uncover
arp
grain
spill
sperm
saves
decry
strive
inviting
throws
##pson
glaring
richest
##insula
risky
circus
jailed
portug
##ummy
approaches
splc
venue
sarcastic
ncaa
pussy
inadequate
mahalo
bb
bun
kil
rav
wink
yards
##cul
##bies
thumb
beware
forty
forests
trapped
congest
likelihood
##actions
incur
commands
prec
impover
downright
handgun
cheated
raid
viewers
##pleas
convict
internationally
radar
outsiders
corrupted
punishing
explore
horrors
rejects
intervene
quota
winds
gaining
iraqi
elimination
documentation
resisting
apartments
incidentally
null
klux
crux
rubber
1948
renewable
structural
delayed
richer
saddam
physician
crucif
liquor
unintended
annulment
erroneous
74
dy
dread
density
##gie
##po
##imer
##keys
##umer
suitable
aligned
brits
indign
decor
carson
differing
minions
slurs
bothers
tales
depressed
passport
apoc
selfies
miscond
mississ
##prod
exciting
##bold
despair
shameless
enjoys
delta
collectively
embass
robbed
eugen
traditionalist
travelers
achieving
##zzzz
struggles
burns
cruise
volunteers
sighted
diagnosed
hobby
wtf
seventh
dakota
misconduct
bidding
ding
puff
sow
tier
##poken
##wich
##itary
inane
rex
rejo
notions
trim
liken
orph
abb
butter
incite
probation
interc
remarriage
kell
happier
humour
lastly
restroom
argent
benefited
organizing
purity
steep
##amese
ahhh
integrated
negatively
scenes
substantive
##etti
darwin
scheduled
olympic
agriculture
sikh
cafeter
netanyahu
crucifix
noun
nerv
ppl
##tin
##gated
##utical
##utable
##ete
sel
##ulus
couch
crop
blond
yearly
obso
wrapped
marie
defends
somalia
immense
##augh
misinformed
turnout
##aio
diam
richmond
visual
doubtful
contributes
favored
breakdown
hydr
ensuring
belonging
moscow
georgia
1990s
mails
advisory
infallibility
instructions
vaccine
channels
bulk
mlk
anecdotal
cocaine
douglas
obnoxious
84
bm
gord
vows
##ups
##gage
##px
##onia
trace
##ila
sudan
ark
disney
ploy
overnight
marvel
conting
slop
elab
powered
admired
conservation
nationally
arrival
##oids
demonize
faulty
mcm
malign
harassing
crystal
voluntary
lobbyist
parliamentary
sponsors
congrats
dishonesty
disruption
concealed
transformation
oxy
misunderstanding
intrinsic
sophistic
denigrate
prelates
incompatible
cyber
obsolete
350
dire
hud
kon
mitch
tainted
vib
zoning
##haw
##15
thump
##sell
##uter
trum
disbel
sphere
reps
##ucking
sermon
buys
carpet
slot
provider
reasoned
wrongdo
barred
sentenced
strongest
administrations
hunter
determining
jeopard
paperwork
dumping
hijacked
washed
diminished
chemicals
ceremon
sneak
masculine
slogan
subscribe
absorbed
hormones
storage
bart
fist
pip
vain
wicked
##fc
foref
##aying
##opol
comed
suited
prover
##iani
incest
pole
timely
repud
maturity
phobia
curs
termin
protested
##phia
inflamm
investigators
releases
1800
psycho
primitive
holier
networks
dictates
illnesses
1964
purchases
accomplishment
tweeting
overtime
attributes
lutherans
crook
insightful
pissed
sabot
spicer
93
rents
sums
##ikes
##23
##amo
suicides
##oding
##unction
##actors
##agra
offenses
##aceutical
##oba
coin
##pectives
meddling
genitals
insights
##cession
meme
##istries
reduces
imported
treatments
shooters
opted
entitlements
secularism
instituted
##versely
negotiated
baggage
preparing
rioting
dominion
smells
pharmaceutical
manifesto
hierarchical
swimming
tribunal
skewed
pulpit
enslaved
fdr
kah
wapo
##wart
##24
##oming
forec
##opher
##olent
seated
cling
sayin
facto
factually
monarch
##ervice
formally
paste
dealer
holder
sounded
oklah
legislatures
rises
prediction
peninsula
balances
breakfast
lifes
hostage
seekers
accusers
crowded
casting
landsl
dialog
shrinking
destabil
pilots
##urtz
inspiring
abolish
exhibit
lw1
entrepreneurs
tacit
ghetto
handicapped
boulder
dang
kle
mason
nin
wield
##gles
##erals
##oto
##iltr
alph
##unity
knight
lovers
overlo
spoon
newcom
preserv
realm
surf
efficiency
irt
financed
illegit
barrels
cleared
sufficiently
airports
marketplace
erase
caliph
colored
goss
horrendous
trafficking
sweat
boxes
bounds
categor
berke
venge
renewal
adjusted
widow
skeptical
relativism
oligarchs
avenue
counterparts
ci
ferg
hiv
ko
kan
xi
##jan
##itious
##acular
chairs
hem
tres
seeds
##ulates
alright
##ibles
disqual
grades
bride
perp
repar
prefers
perspectives
attach
factions
remed
flowing
mini
lasting
citations
requests
federation
millionaires
skip
feared
diatr
fighter
objections
accessible
starter
troubles
baiting
equivalence
mortgages
inspire
rewarded
climb
cousins
sidewalks
inconsistent
ussr
comrade
oklahoma
overlooked
90s
karm
lp
lament
mm
mcl
rus
yo
yan
##erc
##erted
##itar
bee
reap
##owitz
##adel
##imated
shaking
fracking
arise
cries
gro
groom
drones
interven
boond
smiling
slide
viagra
extinction
statutes
senseless
clearer
landing
traded
predatory
##shr
versions
sandwich
##holder
1994
hallow
trials
dismissal
blessings
mutually
vietnamese
##ozen
spouting
stubborn
nervous
aided
dated
lung
sized
##99
thee
##entric
heels
##chair
##istering
##umble
enshr
upside
##obic
strings
defender
infamous
infiltr
highways
hardship
cheet
religiously
functional
organic
sentiments
wished
ethn
rails
quebeco
faults
sanctim
automation
timber
wisely
naval
espouse
injustices
polynes
portrayed
##ᴵᴵᴵᴵ
enhance
proponents
gab
##olved
chart
##amin
suv
frozen
##abul
##ivable
taq
drum
suppressed
backb
stroke
basics
minnes
ministries
hollow
insuff
glut
judiciary
##ophy
masseng
crimea
alongside
trev
penns
projected
obser
utah
difficulties
subsistence
degen
epic
petr
reminding
robots
verd
priorit
documentary
1965
titled
sleazy
academy
academia
sweeping
engagement
##ylv
cdc
daniel
evolving
bucket
quarterback
electrical
occasional
overdue
tanks
##iyya
temporarily
leverage
helicopter
duped
procreation
thesis
insignific
dossier
arpaio
cafeteria
landslide
aisle
cue
dv
duff
gor
v2
##pin
##18
whack
reese
rewards
rethink
##url
heating
goose
##anded
##ievers
looting
adams
muck
##iality
sinking
corners
desk
flowers
smo
slack
wrongly
transcript
murray
##eteries
inflated
operates
preferential
battery
incomple
citizenry
fastest
applications
breathing
tearing
stalking
lifted
cemeteries
diagnosis
mechanism
treasure
ellis
gesture
dilig
astonishing
holland
encyclical
evidenced
pennsylv
900
dile
ferv
nam
tables
##yy
##woman
isa
reun
pricing
stark
##oper
chal
##andered
lep
manly
meyer
arsen
donnie
##iances
spark
goodby
coaching
cooking
embold
takeover
median
hoo
subord
caesar
camping
fireworks
##aneous
origins
penis
180
operated
demonstrations
##mao
senses
wildly
##ergart
moslem
##zzy
farmer
packed
circumstance
obliged
marrying
disappointment
discourage
mirrors
proceedings
awarded
podest
overturned
cathedral
snarky
forecast
berkeley
boondog
massengill
eb
josh
lars
pets
tast
##tinent
##overs
##bor
##eries
ample
outn
cough
graham
supplement
strang
flies
boats
talents
subway
glenn
misuse
constitutionally
interestingly
optional
cattle
magically
idiocy
amendments
enslave
fundamentalism
hosts
squad
cowboy
disservice
hetero
implementing
adviser
sponsor
advancement
evaluate
restricting
stunning
disproportionately
subjugation
dolan
riddance
vindict
tmt
intercourse
##adelphia
quebecois
76
dyl
eo
eco
km
lining
wound
##vest
##70
##25
reception
prag
chop
##iler
fron
##emean
underage
presumption
faction
schatz
thres
watson
afflu
fined
waves
homicides
legislator
earthqu
envision
influx
lowering
turb
appointing
weaker
renting
philadelphia
licensed
unfairly
inquisition
prostitute
destination
dodge
stabbed
sacrifices
misunderstand
astounding
betrayed
admiration
rrsp
misdemean
wheels
carrier
abhorr
anarchists
polygamy
eternity
preservation
trespass
halloween
pennsylvania
goodbye
cis
cord
cav
hid
pomp
ripped
##uend
##zetti
##chester
shy
abstr
allied
##ainable
alarming
proc
brooks
whitey
commie
##iley
wright
cheering
attacker
forming
immigrate
kinder
kindergart
metal
universally
prayed
pressing
lowered
##ummer
consciences
approached
malta
apostasy
oddly
franklin
surrog
digital
frequency
coffers
confrontation
stereotyping
survivor
aspx
ecumenism
pentagon
mockery
behaving
interfering
marshall
bakery
manufacturers
congestion
minnesota
bbc
dix
mj
##fish
##oqu
ing
##sea
hail
oranges
abys
##ivals
manit
lover
herring
precl
consists
##ache
scc
remem
keal
regrett
mood
wording
190
unfold
burst
landed
administer
nazism
ceiling
processing
destroys
influential
restriction
angle
derived
austr
consumed
spotlight
##iciencies
judgmental
owed
fulfilling
1930s
conquered
subsequently
loathing
disproportionate
agricultural
superstition
cyclists
sanctioned
opioid
incomplete
podesta
threshold
bp
baff
cory
gag
hb
nanny
pine
rump
rah
##wear
theguard
##anne
wholes
##etes
hav
##americ
shalt
frat
##usted
alot
##ivoc
unim
##ifical
outlook
bruce
drilling
##quer
recons
corinth
##icken
medioc
rook
smugg
illusion
classy
patern
patently
beneath
campaigned
spiritually
innuend
logging
mistreat
felon
honoring
confirms
translate
revolutionary
plantation
substantially
exemptions
drafted
oxym
steril
roger
bipartisan
regulatory
grammar
amateur
inflammatory
theguardian
mediocre
bored
eup
krist
nest
rs
wack
##fi
##dings
##orthy
##igating
ascrib
lips
seward
##oded
peep
willful
##acket
##ieving
amn
myri
plaus
scumb
##bey
veiled
generic
insider
systematically
majors
miscon
wallet
divert
purse
##iker
geograph
examined
sectors
sensitivity
subsidizing
weddings
beds
flew
prohibit
delivering
favourite
philosophical
recovered
shrink
unequ
vaccines
bargaining
lucr
blasphemy
deposit
mismanagement
pesticides
monetary
landscape
insensitive
taqiyya
94
96
bise
hv
jared
kos
rib
zim
##bear
##98
##word
##enh
##esity
##aser
beans
##etta
trid
weas
oral
##atell
socks
##gey
justifies
crony
cripp
reson
herd
commend
##ourge
jesse
jesuits
islamaph
banner
morgan
costume
format
hills
protective
oha
ladder
debts
repealed
expressions
unclear
objectives
nights
sanity
harmless
harmony
legitimately
dui
sweep
hacks
admittedly
speeding
warnings
delusions
magnitude
endorsing
calculated
emerging
constructed
frederic
updated
stripes
neglected
repentance
idolat
continuously
intersection
perverted
airplane
oblivious
pundits
iowa
ferguson
sanctimonious
trevor
reconsider
oxymor
hs
jj
tube
##iens
##piece
##74
sto
chains
knives
obesity
mayors
undergr
payout
cargo
booth
minus
illogical
##aze
##aska
joan
dividing
swast
messenger
candidacy
developments
hurry
afforded
ridiculously
160
mcgu
ranch
malicious
fatima
tracking
obligated
guardian
angela
reinforce
springs
treasonous
patterns
barbara
frightened
borrowed
deductions
incarcerated
oligarchy
hebrews
chanting
disadvantaged
parasites
trillions
lebanon
elaborate
karma
insignificant
myriad
bisexual
cot
fuss
jere
ls
lyr
nug
##rr
##power
##pret
##va
##36
##ᴏᴍ
##icidal
notable
##olo
##istol
neil
peg
pean
coul
trumpster
deck
remedy
pho
freeze
advancing
posing
directions
informative
100k
professions
ers
sickness
##comings
rentals
feeds
comparisons
omn
displays
panhand
swept
fleet
disrespecting
imperative
incorrectly
fashioned
vanity
gifted
pontifical
passionate
crusades
indictment
upgrade
supervis
swallow
homophobe
intoxicated
jacob
indirectly
outnumber
88
bos
bakers
gmo
nether
pause
ware
##tic
##lan
##mc
##hd
##zer
##58
thier
##otics
##entious
stunt
chel
noses
justifying
crooks
imbe
draining
##ours
guides
muss
warn
baseless
mold
posturing
obamas
monarchy
monkey
antagon
concur
authorized
qualifies
penn
lapt
perfection
balk
radicalization
creature
utilities
horribly
luckily
unsust
keystone
renzetti
dads
margins
panels
migrant
acquire
shrug
greece
habitat
proportional
rainbow
transferred
disparity
motorcy
authoritarianism
misunderstood
interactions
prudent
suburban
fundraising
detriment
rebutt
devotion
incumbent
theatre
verdict
manitoba
bacon
hires
lakes
lamb
pander
ry
rtd
tpp
vow
vend
##case
##front
##gies
toys
franch
expelled
willam
crappy
##apol
acid
perj
unders
newt
presently
preserving
##quately
terrific
monsters
curve
cultiv
modesty
developer
shortcomings
predictions
successor
competitors
footage
crosses
primaries
freaking
embed
dispens
blinded
sensational
rationalize
consuming
guarantees
mobile
heterosexuals
1930
converts
alexander
framework
gambling
##agogues
tantrum
unexpect
shakespe
69
ave
euth
hod
ua
##🆘🆘
##isp
##omer
reim
##eters
asap
triple
libt
##kee
manners
therein
heretical
thinkers
chrom
##ussions
edition
confron
restoration
economist
promul
militar
shovel
singh
individually
snip
ethically
releasing
historians
epit
sandy
commanded
jersey
licenses
assem
routes
prejudiced
abandoning
praising
berlin
casino
jihadists
revelations
surprisingly
chickens
oceans
hahaha
monitoring
breeding
supplied
casualties
shepherd
predecessors
indefensible
##productive
gossip
dm
##gi
##34
##enzie
toast
ink
##ompass
whale
##oli
doyle
alg
leon
actress
intact
offends
unden
probable
statewide
impress
flop
playground
democratically
##mann
redne
singular
##apper
revised
hatch
researched
forgiving
psychosis
embry
batter
narratives
contractor
bernier
1996
mortality
adopting
purchasing
insistence
jpg
twisting
macdonald
magisterial
towers
songs
busted
##aunch
##loads
deprived
betrayal
crucified
fertil
excommunicated
vicar
annex
championship
enrollment
terminology
kindergarten
corinthians
amnesty
chelsea
willamette
shakespeare
fi
faw
ling
lmao
nan
tut
##iqu
##cies
##har
##14
theocratic
belly
##leum
stall
chau
tricks
deer
fried
##athy
upheld
##cials
##pling
relied
composed
emulate
defr
corn
mole
antith
attackers
condoning
organs
misinter
personalities
entirety
generalization
encompass
eventual
replies
bombers
tennis
jails
starb
purposely
integral
reaches
heroic
dedication
desperation
breathe
sspx
satisfaction
italians
bandw
switched
cuz
affiliated
crusade
tackle
infinite
facilitate
contributor
falsehoods
petroleum
newcomers
lyrics
coulter
lod
nsa
vat
wig
yikes
##lades
##oil
##maker
##bus
##76
##enna
##enth
##acerb
stig
stip
##ilton
neander
aber
abomination
soap
exacerb
##ifting
disasters
brick
belitt
##quest
##itto
farther
wordpress
choir
transgress
depressing
foundations
failings
earliest
nationals
##phy
50s
sniff
pressed
explode
opposes
demonizing
surviving
akbar
implementation
cycles
proceeds
populism
disparaging
enabler
pornography
jurisdictions
abolished
festival
pouring
vouchers
warranted
partisanship
pesky
smooth
unsustainable
neanderth
aide
glee
nba
pion
pim
pounds
rabb
##gins
##isiveness
shamed
shorter
fran
##about
disav
plague
adject
reliance
compatible
electors
infected
smh
##riends
transpl
caut
terminal
equipped
housed
distrust
paths
princess
cleaned
felons
##astri
reportedly
draws
escaped
1984
##hhhh
tinyurl
accidentally
recommendation
prosperous
schemes
pharma
highlights
biden
seminarians
banglades
indoctrinated
horgan
shifting
slogans
reservation
disguised
recipe
kurds
emancip
sophisticated
caliphate
abhorrent
awe
bore
cows
ditto
eph
##lv
##gm
##bag
##inn
##ito
##itures
inhum
##arge
##etry
##esses
##ela
coat
wrap
parades
desirable
medal
genetics
insists
schooling
considerably
##brid
##bridge
shoots
burk
sentencing
penance
cater
16th
independents
reneg
1968
eaten
##ihil
advisers
exploiting
sustained
tunnel
unequal
distributed
frustrating
millennial
delegates
contradictory
optimistic
gravity
liquid
prospects
await
linda
notorious
paraphrase
belgium
embassy
dilemm
idolatry
61
aunt
kam
lt
rode
satell
tories
yawn
##bble
##itous
inch
##aya
##umbs
nev
##uling
pej
leaking
##endent
blunt
loot
emigr
decree
moot
mentor
##rah
##gets
harming
curiosity
kindly
pretends
possibilities
imports
organizers
identities
distress
exploration
annihil
grounded
tenant
extract
quotation
vehement
fanatic
aggressively
environmentalists
klastri
accommodations
displaying
contradicts
platforms
acquaint
alienated
vigor
culpr
hamilton
prolong
spokesperson
drunks
bundy
proxy
dereg
maternity
impoverished
affluent
cott
db
pbs
##rad
##rition
##iners
##inable
##ares
##acp
stagn
peas
bypass
bloc
reside
gren
bra
needless
replying
drip
churchill
newman
consp
guant
lawrence
moana
refund
provoc
provoke
murphy
capabilities
appearing
testified
professed
punitive
110
heavens
semites
subserv
premature
14th
wasteful
kenai
struggled
constantine
reacted
phrases
##ulsion
acquired
narcissism
sporting
reproduction
immorality
uncontr
emerge
prophetic
empowered
tiresome
maui
endangered
travesty
prestig
disconnect
chromos
bio
dudes
mph
paw
padd
rt
rites
von
##ois
##ga
##hole
##bn
##org
##oped
shen
libel
conoc
alb
##ortions
##ocated
coupled
donor
upro
heretics
preacher
relies
preschool
stripped
twin
folly
improp
parnell
flipping
insure
chech
todays
viewing
##rued
redef
euro
trusts
hunger
filip
vacations
belonged
titles
occupying
surround
dresses
naacp
bodily
vocabul
poisoned
sociopathic
admirable
discredited
spokesman
genitalia
entrepreneur
disobedience
imbalance
inhabitants
embedded
improper
vocabulary
92
dor
hord
huck
oz
ost
pag
ridden
roster
tds
##kish
##kward
##ioned
##advert
shorts
seized
suing
##people
ard
herm
intel
whitehouse
cove
backup
realization
scalia
invaders
flush
boor
##uctions
endured
economists
victor
respectable
correcting
builds
legalizing
arriving
1500
ceos
percentages
multitude
peterson
keyboard
condemns
mixing
instructed
borrowing
djt
expenditures
##aggering
seasons
triumph
unrealistic
innuendo
feral
gong
mour
##ipt
##reen
whore
seize
outreach
crad
brig
factories
recourse
keen
registry
instantly
farming
##aho
ills
lasted
antics
feder
##ucky
criminally
southeast
complains
lax
gasp
autonomy
layla
celebrities
characterized
journalistic
appointees
mandates
indicator
vacant
garage
platitudes
##afi
splitting
athletics
preachers
glasses
certified
mystical
thirst
kissing
adequately
odious
cheerle
temptation
rosary
recipient
##osaurs
albertans
foresee
dissem
tasks
crickets
bits
fom
gps
hans
kau
md
ostr
pav
pending
vested
##cor
##oft
##gb
##zi
##anth
anath
inlet
stinks
chill
tram
##ifax
##astically
##agr
reset
##elt
saxon
pervert
feast
compound
guiding
wrist
scal
ops
##roach
postings
hoot
confirming
1900
judgments
signalling
awkward
heartless
queens
recording
##orka
globalists
turf
reflecting
renov
achievements
dinosaurs
berk
preaches
intimacy
scotland
concentrate
lengthy
laundry
gravy
rogers
corrid
congregations
homeowners
nasa
hannity
fantasies
backbone
euphem
unequivoc
bangladesh
guantan
82
91
dough
fost
fict
jays
kat
mens
mcel
nude
rings
solic
wounds
beij
staunch
##olub
shat
shining
neoc
##peak
ammo
crops
sheesh
poles
repet
commute
mars
##pered
dese
fluff
mines
imminent
vii
expon
confined
continuation
raitt
condoms
listens
sorrow
burial
effectiveness
litigation
detained
handsome
silenced
principled
extraction
140
positively
audio
negotiation
mythical
egot
introduction
threads
bureaucratic
shadows
overpaid
scholarships
sycophants
datab
bennett
commodity
dion
ez
gul
gaw
kate
lon
pas
ranger
##cal
##llah
prair
##urb
##opic
##ithm
dean
##aints
manages
aces
reperc
christie
whereby
servers
realizes
##issible
bigly
minn
islamism
exposes
considerations
cites
mispl
critically
approving
armies
legislate
##rimony
wishful
innate
domain
subscription
productivity
reformed
departure
substances
malley
1995
5000
canonical
deceive
osama
louder
loads
nova
bribe
samaritan
plausible
lucrative
beijing
87
einstein
gorka
lur
lend
mute
pt
vap
##fw
##rc
tho
anoint
anarchy
inches
##omesh
forfe
notably
stern
staggering
neat
##ulators
friv
##osy
mane
hass
##athom
clut
pertinent
repression
appet
indiss
muscle
empir
invoke
downward
genes
famine
illum
illicit
powerless
nones
jewel
headqu
argues
divisiveness
funn
mainline
fearing
appearances
eyed
westerners
deepest
hugely
virus
operators
romantic
semite
autistic
influences
deterior
animosity
availability
determines
robin
miracles
missionaries
rounds
fluid
colonies
institutionalized
complicity
flooded
cowardice
juan
masks
masquer
perpetuating
anglicans
illustrate
delegation
accompanied
municipalities
whiteness
moderates
perverts
collabor
erected
ambiguous
pronouns
burdens
gerrymandering
espoused
wrongdoing
diatribe
phoen
federally
frivol
bah
cob
fide
jee
kese
tender
vern
##vation
##53
##alo
inaction
##lex
##veigh
##opian
##usable
##iliar
alley
sooooo
clad
##iberal
residency
overlook
betting
##ignment
backyard
realise
impunity
parable
thriving
warped
slapped
edward
morph
extending
educators
homog
listing
practition
motions
bankers
primacy
travelling
archaic
indicating
summit
plaint
##ecost
matches
undermining
declares
lifting
disguise
crawl
diabetes
endeav
exhort
wannabe
duffy
rebuttal
starbucks
stigma
guantanamo
indissolub
86
binary
fuck
jar
nim
nich
tension
##lon
whip
##otted
##entan
##imir
chad
shades
shipped
nefar
bystand
mah
enr
cros
heretic
##inty
guests
induced
recl
##ocrats
regurg
subd
mores
irreg
massively
purg
purple
negat
winger
##ipper
detached
projection
filth
diego
brainer
responds
lifers
##aaa
disputes
jerks
aborted
caste
graduating
reacting
manufacture
synonym
accidental
cuban
belliger
hijack
zealand
millennia
chambers
bribes
overrun
pentecost
rendered
coercion
crushed
shepherds
slick
eugenics
vindictive
dilemma
cradle
misplaced
kesey
dug
gals
nast
raging
wary
##iology
##bos
##ja
##atized
##stick
##sets
##acial
weep
shaped
suicidal
abn
unpleas
donna
clap
knocked
##ougher
overst
incess
apprent
spelled
demol
issuing
medically
playbook
terminate
biologically
shove
messy
burgl
referencing
steam
supervision
##ophobes
uncomm
demonstrators
celebrations
robust
apologizing
witnessing
divorces
sanctity
1998
papa
slee
entrance
censors
macho
contacts
manipulating
3000
coastal
sucked
compensated
sb91
scenarios
constituency
emerged
disclose
persuade
rhy
degrading
overpop
outlawed
ambiguity
xxiii
carnage
vladimir
bmw
arkansas
abstract
dawn
fade
gur
lac
meter
pond
sd
uc
zille
##tent
##fits
##92
##wall
##48
anat
forci
shiny
conj
conject
neph
usur
amid
clam
clash
loon
##ishment
##berry
intends
underwear
probability
contend
invention
legend
proportions
continual
importing
corrections
patch
excer
existential
speculate
generalizations
outsour
typo
complainant
annivers
penetr
projections
laic
##umbing
grandma
magical
temp
verified
incoming
starve
starvation
summar
cabal
attendant
1999
clerk
melting
dismissing
spineless
prohibits
heterodox
colonization
tuned
brightest
converting
conquest
restrictive
hammond
boasting
hurricanes
sorely
landlords
reluctant
dalton
rewrite
horizon
likeness
oxygen
illegitimate
undergrad
assemble
chauvin
##omeshi
unpleasant
ferry
kitty
lion
oc
##bod
##itis
thatcher
##igans
##olm
haole
chew
heap
hemp
livel
nel
peel
outwe
##try
enables
##cia
planted
##grim
demons
sermons
politifact
invasive
throne
##ologies
prophe
systematic
harr
openness
generational
singled
snopes
furious
ruining
trusting
punah
operative
pickup
execute
pushes
trait
methinks
screwing
screams
floating
remarkably
evolutionary
symbolism
ranting
verbally
lonely
##breaking
krug
schizophrenic
predecessor
revisionist
loopholes
pitts
phillips
protocol
limbaugh
alexandra
selves
proverb
reparations
boondoggle
nefarious
gba
kicks
lc
sill
tiger
zom
##net
##bia
##itur
##ili
atwood
unins
adverse
griff
inco
repressive
##ouri
wrath
recount
scourge
infants
vegan
##rolled
edit
illino
millen
confessed
antiqu
homily
misread
pretense
missouri
breach
walter
begs
arranged
earthly
projecting
tariffs
grandstanding
horrified
filter
ridiculed
characterize
dull
dependency
rigor
ambul
catching
accommodating
theologically
marxism
##blance
foolishness
aboriginals
temperatures
shady
adherence
rationally
brainwashing
miserably
molestation
tempted
rumors
tolls
tapes
anticipated
abundance
contributors
architecture
incarnation
consolid
plagiar
indifference
outdoor
siblings
adolescent
relentless
interpreting
ceremonies
kealoha
oxymoron
franchise
confronting
misinterpret
illinois
hond
pir
##will
##erts
tok
##urance
trophy
weld
abject
exor
##una
##osion
unn
##iano
perversion
##asses
timeline
##perform
remington
healthier
judas
unfet
wholeheart
##otto
despised
torah
urgent
embar
restraint
mcveigh
conducting
criticisms
chapl
##working
branded
suckers
ivory
aims
adventists
distribute
renewed
duncan
saddened
accompanying
withdrawal
shifts
negligence
grievances
kidnapping
##steps
vegetables
huffington
inheritance
eisenh
argentina
nevada
cottage
irregular
83
bum
cope
mast
py
por
rnc
wes
##ienced
##cath
##nut
##96
##46
whiny
##leep
asleep
##change
shurtz
dehuman
sung
donny
cried
loop
gracious
##ection
herald
newer
guam
slant
curtain
employing
##full
trads
streams
weekends
ergo
##ippi
typing
footing
##shine
hype
embod
blindness
mosul
feedback
automob
bombings
hiking
fetuses
complac
cracks
kellyanne
proclaiming
fifteen
destiny
pilgrim
paragraphs
climbing
inflict
assimilation
nigeria
gupta
guptas
insinu
orchestr
misdemeanor
bandwagon
outweigh
unfettered
eisenhower
aer
dd
dorm
gem
mend
tougher
ugh
woke
yak
##ihood
##kids
##hop
tox
tomm
habs
##thers
pebble
lex
leech
nostal
##occ
##uda
clip
beck
graves
sheet
perks
commissions
afri
indicted
wherein
musk
slice
elise
glen
moniker
playoff
hardest
denmark
retiring
policeman
funnel
guessed
metr
dogmas
risking
revis
calvin
debated
originated
11th
operational
preferably
torch
footprint
bomber
marchers
shotgun
martial
bottles
consistency
sunshine
##iciaries
fiscally
montana
woh
tensions
emphasize
##posterous
shouted
undermines
feeble
sociopaths
enablers
hinduism
##aniac
louisiana
stirring
dysfunction
patronizing
humiliated
exaggerated
giul
authoritative
theresa
netherlands
mussolini
unexpected
vehemently
desecr
repercussions
##entanyl
livelihood
punahou
bites
dots
gim
rival
rushing
##found
##kh
##rid
##bons
thumbs
inb
beard
##selling
asd
secession
##usive
atone
maniac
justifiable
trumpism
##ptic
disson
crank
needle
perceptions
drift
preposterous
christopher
worldly
smokers
php
terrifying
histories
cheque
collateral
enters
extends
brew
redund
##crim
locking
swiss
facial
futile
successors
repealing
detention
##flix
thirds
netflix
audi
auditor
1992
sympathizer
1973
appealed
introducing
marxists
volunteering
savage
clinical
scares
weinandy
satanic
masse
buddhism
lunatics
magazines
lewinsky
retained
immunity
suburbs
mitigate
micros
asserting
whims
arrangement
orphan
truman
wholesale
rookie
cautious
headquarters
anniversary
bx
erupt
gn
hc
krem
laughter
np
tips
vowed
ze
##iability
##bury
##omaniac
##leans
##igue
deity
fract
clay
trumpers
crashed
grapes
##ishes
cooked
obt
quasi
chron
interrog
realt
twu
imped
socio
containing
legion
genetically
slime
charade
##veland
territor
curse
secured
rapt
untouch
respectively
beneficiaries
begich
northwest
rulings
revoked
focuses
expresses
grandd
sorta
purported
modernist
geography
characteristic
robbing
peddling
mcd
jeh
nutrition
sixth
omission
mythology
preparation
float
printing
pacif
disappearing
obtaining
jihadist
acknowledges
arresting
scarce
simpler
zealot
precedence
##burse
dysph
caucasians
anonymity
revolt
kathy
groped
breasts
hesitate
helmet
fertility
lbj
recipr
lenin
recycling
impartial
furniture
goofy
disenfranchised
mississippi
enshrined
minnery
abnorm
uncommon
giuliani
dissonance
bats
bingo
ga
hw
niger
##rie
##97
##zant
##erd
##esa
##escent
stell
tripe
weig
dole
deceptive
frown
pecul
##trump
thinker
brun
spine
presumpt
keith
deficient
smoked
immers
banana
transc
differentiate
poorest
modified
winn
generating
organizer
internment
superint
queer
distortion
distaste
announ
balancing
psychologically
sectarian
characterization
selecting
gradually
parked
1993
grabs
escaping
empires
dismissive
motivations
deceived
indiana
salvador
presumed
scotia
retro
ramad
conceal
uniforms
anxious
deductible
deprive
surveys
beholden
sapiens
squeeze
alpha
weasel
pejorative
anathema
excerpt
nelson
wohlf
ay
fentanyl
gy
iota
kof
mn
mish
ns
nw
piv
rw
rou
ral
rans
ripping
tread
##rists
##aro
stain
shack
liable
##usions
soooo
alan
pepper
byzant
manchester
meh
ammun
knuck
adj
quarters
##grown
##pering
twent
sincer
commentator
sylv
fuzzy
invi
##bean
caric
##ahl
mills
muster
handy
esch
nonpro
cannon
##ophone
extremes
diacon
commonwe
##struction
qualification
cement
halfway
punched
announcing
detest
paula
objected
hym
petul
prisoner
diversion
combine
unsupp
greenhouse
punishable
sunk
disciple
dependence
encouragement
manipulative
ecological
overtly
dominic
granting
inclusiveness
intimidated
magnific
disparage
stabil
dictatorships
##103
persuasion
illustrates
toilets
ecclesiast
awaiting
incorporated
collapsed
aggrav
varying
pervasive
aristot
##anasia
unanimous
rehabilitation
##itarod
dylan
euthanasia
wholeheartedly
wohlforth
ammunition
bim
bam
dhs
hale
kame
surch
wings
##upt
##iam
##xist
##45
thwart
##inery
##orable
##icon
ism
reuters
sty
##thr
shanny
solem
unil
clan
trumped
howard
upbr
##apher
brow
broker
overweight
inciting
##assed
droves
relieved
##ferent
believable
iditarod
strain
##aky
payche
contents
careless
rohing
moh
##aven
discomfort
humankind
morris
civics
centrist
gunman
waking
poses
classrooms
soup
skim
funerals
damore
hearted
salem
erdog
lightly
grandkids
chancell
boarding
historian
favorable
freaks
techniques
beatitudes
pmo
independently
virtual
dreaming
sympathize
##after
unpred
unpaid
gentiles
nuanced
proclamation
sucker
compensate
adventure
halt
decreased
bumper
prolif
upholding
stunned
dynamics
catastrophe
negligent
disapproval
explosion
warrants
loophole
disposal
consecrated
ruthless
vibrant
sloter
fronts
mistreatment
maneu
negativity
solemn
81
dense
eweb
jab
kay
oun
rino
upp
vine
yuk
##uci
##cry
##gence
##vis
##idious
stoop
##olve
heh
neko
proactive
##pec
unab
anyhow
claw
crass
rightful
overre
spike
repairs
repulsive
drank
scan
assail
hooked
cleveland
endlessly
##welling
gloss
curry
plead
##lio
covert
arming
richards
candy
##mmmm
##ippers
succession
operatives
preferable
films
defendant
scientifically
occurrence
designation
reflective
130
vacuous
goldman
1991
scram
pulls
##anche
bankruptcies
misogynists
rallying
synagogue
editorials
textbook
proceeded
brags
rewarding
briefly
rabbi
beaches
tsun
stabbing
levy
##spot
unwillingness
clouds
diesel
synods
persistent
stewart
greetings
wheat
dismantling
stimulus
##▀▀▀▀
discharge
pronouncements
unafford
polynesian
arsenal
perjury
batteries
ezra
erdogan
unpredict
aiding
ei
hir
ltd
mim
ng
nag
rides
siding
tad
##lav
##page
##anmar
tops
##isite
##ari
bef
stoning
chong
hege
wasilla
altr
altered
unav
myanmar
##izable
plumbing
repost
obese
interm
impre
childcare
flower
articulated
concede
restrooms
boyle
organisation
suffice
shortfall
outspoken
##forward
docs
inequ
urged
copies
renters
hurtful
fanatical
retirees
darker
licence
shariah
complexity
acknowledgement
brutally
disciplined
destined
dares
unbelievers
tsa
humorous
dunno
monopol
distinctions
denominational
sophie
fishermen
overthr
ordinance
martyrs
vandalism
carriers
opioids
indefin
chastity
wahhabi
gordon
sabotage
vengeance
insufficient
satellite
phoenix
conjecture
obtuse
baked
bung
cz
gill
js
jaded
lent
ᴀɴ
##ti
##auth
##27
##26
##ɪɴ
##inine
##inges
##aren
##otent
stages
chatt
##istical
doom
goat
##abl
##ivist
manh
##ifics
agw
outcry
takers
##acts
knocking
##iane
accent
accuses
backst
callous
scold
schm
flows
refr
immort
provoking
##azz
handma
glac
admissions
signature
##ounters
militias
doubling
remembering
rulers
awak
steer
negate
encounters
criminality
punk
multip
propagand
alcoholism
attracts
scrap
missionary
unreli
translates
dumpster
excludes
suspension
retribution
wavemaker
weiner
oxford
levitic
shifted
enhanced
gratitude
brady
bipol
toddler
cohes
maimed
homophobes
hogwash
caribbean
sloppy
pompous
havoc
vigorously
frivolous
jehov
dysphoria
peculiar
bending
cuck
dnr
eats
hides
npr
sq
sack
tuck
uter
wiz
##iastic
##borough
##ji
##erity
##erates
##ati
##atist
bever
##lyn
##irth
chips
charts
heed
heel
lil
##ulse
fry
whoa
levant
unic
unpr
taps
trumpet
mys
##ameha
##ibble
##aga
##berty
obe
statehood
realistically
blackmail
parity
parcel
sexy
defective
schumer
firstly
thrilled
greatness
insured
slate
handlers
cults
statut
##eeee
companion
##liers
ordering
generosity
shoved
pains
torches
bullsh
polluted
associations
shutdown
tribute
1969
laughs
tourn
ambitions
samuel
advertiser
cartel
benign
alienate
consultation
spewed
psychiatrist
cosby
inexper
ummm
objectionable
sequitur
sikhs
powder
dwind
disapprove
injection
unproven
delicate
toyota
unleashed
shenan
conoco
boorish
##osystem
bxvi
surcharge
shannyn
leviticus
fury
fathom
gad
ky
motto
rere
wim
##cers
##hameha
##vised
##onn
##onder
##organ
##omes
reh
rebe
##eta
##urable
asinine
chess
heated
comic
compel
neb
allan
justine
bliss
grieving
poop
poke
perps
feather
mayhem
preserved
##icting
speer
interim
foist
defen
edited
##weh
moroc
socialized
denier
denali
centres
termination
reductions
directive
radically
puberty
laur
criticizes
separating
removes
commissioned
initiate
broadly
dissident
protestantism
contacted
nuance
klans
overwhelmed
lynching
lifestyles
exchanges
##iasm
greeks
strawman
boggling
yelled
##attan
perpetuated
##hrer
freeload
raymond
tyrann
aspire
karl
hypothesis
reassignment
absorb
##ogenic
csis
asserted
disadvantage
misdirect
##statement
ontological
alcoholics
uncertainty
mysterious
disliked
earthquake
laptop
emancipation
ramadan
kamehameha
upbringing
89
aus
ect
ech
git
gst
gand
ive
kaine
kgb
m103
tib
##hc
##bra
##asions
bean
##sef
starr
##opoul
healed
##chy
trashing
##thouse
shark
shaft
conversely
leash
wills
willy
unin
arises
##ocentric
##udging
##troom
##ibes
##play
politely
spade
coy
obedient
newborn
##lection
taxable
scra
assange
invites
courtroom
longest
proposes
subset
addictions
badge
##cca
extinct
affront
ordo
specifics
credence
processed
trustees
trustworthy
devote
##she
turkish
layers
epd
lords
smartest
fitness
##ammer
madison
apostate
assisting
fasting
nominate
dissidents
circumc
egal
pursued
strengthen
ecosystem
consulting
consulted
pharmac
exercises
accompany
imperialism
spectacle
overdose
mattis
reservations
addictive
cigarette
vandal
hippies
obstacles
reinforces
indifferent
meltdown
marvelous
emboldened
leonard
provocative
corridor
empirical
purgatory
kremlin
territorial
uppity
manhattan
shenanigans
750
dud
hust
kab
lined
sanger
tipping
ws
wuer
##xed
ans
whales
beacon
##acht
##thetic
atom
alice
arose
outed
maher
evac
bla
heres
intu
prescriptions
##uccess
elective
descript
humbly
mineral
extortion
easiest
signals
supers
engender
sadness
skull
responsibly
meters
conventions
##uffed
watergate
##ophobe
footn
travels
hybrid
connot
malays
unwarr
eleven
dumbest
1989
1979
comprised
trashed
consenting
lifetimes
deflecting
explanations
golfing
##hoe
ghomeshi
concentrated
teddy
pitching
rescind
crashes
coincident
principals
degrad
gateway
yahweh
crafted
stewards
jealousy
endeavor
woefully
jenkins
featured
gawd
unreliable
cage
dow
ecl
fta
kpm
niece
sie
sach
taun
wool
yay
##aith
##dc
##dale
##roy
##oup
##itans
##asse
##lley
##leg
reid
##olith
trapp
##tha
nepot
unquest
arc
aryan
donkey
clicks
adjud
intensive
newfound
accust
decay
impulse
sociology
fuk
meditation
downhill
liberated
flown
boz
eloqu
exped
monstr
cheques
restored
misc
promisc
avowed
swath
armen
johns
lacked
congressmen
surprises
wealthiest
affordability
utopia
influencing
horrid
capitalists
silencing
technological
piety
premises
##ships
unsuccess
excellence
georget
accuser
kenya
displace
hackers
unrepent
prohibiting
thompson
coffin
pillar
chemistry
washroom
bronco
tsk
pontificate
bicycl
karen
humiliation
axe
assignment
swearing
ingrained
bloomberg
wiret
voucher
homeowner
kasich
skirt
presbyterian
ethnically
observer
pragmatic
inhumane
kauai
database
incoherent
tommy
tsunami
bipolar
jehovah
unicorn
650
79
ai
boun
cush
dwelling
fier
gerson
jenn
nails
rounded
voy
wald
wagon
##sed
##tos
##fy
##now
##math
##hall
##55
##78
##44
##inav
andy
ons
seals
segments
##gee
outward
maps
herb
coined
muzz
teresa
imposition
paroch
miners
famously
##avy
meanings
monsef
moronic
rests
coloss
untold
condoned
gunned
posit
missal
##ountable
holdings
clearance
southey
wasnt
##onyms
receipt
50k
accordance
exploring
langley
delays
fooling
seller
polluting
collector
technique
robinson
commitments
178
mcg
prosely
dismal
madonna
maintains
resisted
wedge
##amaic
heavenly
contraceptive
translations
confederation
blogspot
forbes
acquies
reinst
absurdity
puppy
decreasing
novus
dictatorial
pontific
analyze
untruth
distinguished
##bitson
poured
escalate
incorporate
insecurity
grievance
enthusiast
collaboration
fatalities
kidnapped
detrimental
ibbitson
mushers
sailors
scapegoat
obfuscation
contingent
bosn
masquerading
unaffordable
statutory
defenseless
wuerl
degradation
kpmg
georgetown
dared
duly
hump
kung
nf
poc
rona
yaz
##ele
##giving
##hed
##bm
##war
##zhe
##inus
staring
hag
chunk
traction
sears
sealed
cans
atf
butch
butcher
##ante
altering
ambit
closure
clinging
##kings
uploads
cringe
blair
grands
underfund
beta
maria
demagogue
##feas
accred
defy
aftermath
monog
choke
misand
crews
marries
##inaire
fallout
125
optics
variations
##shell
peters
urg
##edients
exceeded
veracity
restruct
indicative
momentum
sensibilities
##uously
touches
scandinav
ethnicities
angst
attracting
embraces
rigorous
shelf
synagogues
settler
genocidal
pillars
venues
telephone
counselor
warmer
diplomats
reputable
uniquely
disruptive
diminishing
cookie
rabbit
galile
storms
dodging
lecturing
pitiful
cynicism
inconvenience
inexc
rumor
quantum
exaggeration
fundraiser
neighbourhoods
exhausted
temporal
ghettos
delicious
withholding
stifle
firefighters
detractors
kellie
malignant
exponentially
forcibly
krugman
ambulance
diaconate
unwarranted
parochial
bands
lash
mide
naw
tid
yer
##evelop
##tick
##mel
##bank
##28
##itus
whop
##star
fornic
goo
##ivities
unified
trumpcare
##asting
disarm
crock
bluster
adolf
resid
bred
overhead
precept
relieve
undergo
attain
idaho
##othe
##ickers
regain
##cessions
efficiently
terminated
missions
##condition
fullness
ridge
speculative
visitor
motherhood
judgements
disagreements
administrator
punching
insurers
specialist
palm
virgins
births
daesh
separates
epist
urine
urges
weaken
verifiable
archives
mandela
beautifully
grads
omitted
snowden
unworthy
midnight
occupations
conditioned
behaviours
ottoman
disgrunt
affirmed
gutter
slaughtering
bells
halal
booming
cookies
motorists
##ristian
transformed
maximize
analyst
highlighted
kuwa
fabricated
exhibited
ideologues
gestures
molesting
prevailing
gregory
vilified
spurious
ingredients
enthusiasm
obstacle
aspirations
culpable
hahahaha
uncovered
##american
fratern
motorcycle
fawning
ardent
stellar
ralph
egalitarian
unrepentant
disgruntled
bor
ee
oli
sang
sidelines
tiss
##olled
##mers
##volent
##otomy
stump
##olol
chaste
dearly
allev
exon
##abus
maid
donating
##ciation
herr
##oglio
poem
poetry
repay
repatri
drastically
feck
consort
menu
personhood
decimated
impair
deficiencies
##erned
descriptions
ideologically
glo
esk
1920
transaction
restitution
colluded
secur
denise
irres
switzer
burger
armchair
spirits
superiors
suscept
mistress
psychologists
urging
nearest
appointee
straightforward
avoids
iranians
renounce
audacity
amazingly
uttered
egos
prosecuting
mobility
commercials
cartels
cartoons
discouraged
recruited
halifax
juice
gravely
selfishness
loyalists
producer
sixt
astute
nominees
bolster
chuckle
##dez
imprisonment
coerced
extensively
ecclesial
1867
shields
components
rebuilding
incarnate
mildly
mcdonalds
surgeon
deceitful
redistribution
hanab
cogent
vessel
underestimate
worshipping
jeopardy
forefront
reimburse
deregulation
subservient
foment
rhyner
superintendent
tibet
yazid
ambitious
biss
hp
kod
tfs
wip
##ui
##mouth
##hy
##33
inadvert
##arry
##icum
##omor
##see
concessions
deuter
##antics
usc
output
grotes
spam
feas
fever
feud
##ensing
musc
terry
scoop
smokes
discarded
slammed
highs
joh
nonvi
colluding
finite
##riced
signaling
boyden
companions
frances
spiral
caliber
figur
12th
tyrant
majorities
operator
mistreated
animus
sharpton
disputed
borderline
madd
sixty
slept
jumps
melan
prospective
charlot
defeating
reconstruction
creeps
venom
bubbles
combatants
muni
ghg
poisoning
puppets
bribery
devastated
trooper
psychopaths
tribunals
appeasement
unrest
delighted
eradicate
disposable
flexibility
outlined
hedge
portugal
diligence
frederick
swastika
epitome
adjective
crosby
redundant
byzantine
sincerity
petulant
sachs
accustomed
oliver
switzerland
sixties
grotesque
bil
dpr
dsm
glim
jess
kis
mch
nl
rope
wired
##cerned
##nuts
##mind
##rock
##hot
##inently
##atists
##atio
##outhing
##llll
##lett
sep
seiz
##ulator
fro
##ustan
unat
outer
outfit
##awl
bru
broom
whichever
cole
courthouse
simon
insiders
showers
billing
conco
1917
construed
cheats
wwi
classmates
litter
pressured
shareholder
creativity
staffers
fitz
dictated
virtuous
counterproductive
mouthed
cowork
foxnews
derm
##laves
iceberg
applicant
methodology
dinos
reproduce
boomer
stressful
patrons
glorify
culm
dissenting
randomly
atrocity
descended
resorting
dynasty
discriminates
fisheries
pledged
behaved
conflate
powell
abundant
lapdog
##ographer
maternal
parrot
implicitly
wyoming
defects
indiscrim
abetted
crucifixion
undeniable
ostrac
pavone
mcelroy
abnormal
inviolate
rohingya
obeying
##opoulos
jennifer
proselyt
ds
dh
gon
jc
jaw
kin
oas
pam
pals
pave
pistol
sidel
tum
zoo
##pable
##bu
##75
##69
##inqu
##oux
anom
inning
inmate
whiners
prer
stack
hait
tru
framed
alzhe
##eard
enqu
disinformation
blink
plumm
resides
##elp
##ultz
overha
overreach
##ogy
pools
goodwill
belittle
wayne
##ensibly
christi
##graph
bets
scat
screed
scoring
readiness
desmond
##tts
##weg
glbt
lessen
surm
##xture
10th
estr
singer
learns
metrop
equitable
predisp
##books
babys
accountants
ahh
varied
separately
turmo
cleaner
demonstrably
amazes
celebrates
peder
avoidance
jeans
appreh
rocky
squir
unwel
sympathizers
austin
scandalous
upsetting
methodist
rcs
intellectuals
meritocracy
chapel
buffalo
tricky
stems
swedish
switching
lectures
elitism
liturgies
exercised
denominator
empowering
predominately
astronom
interfered
resemble
enthusiastic
lbgt
stanford
hearsay
bethel
indignation
diamond
joshua
austria
algor
redneck
foreseeable
fictional
masturb
reciproc
handmaid
reread
gandhi
nepotism
turmoil
cn
cum
daw
fountain
gau
gaps
kang
mistr
nada
nathan
pyr
tying
tended
vom
wander
##uish
##lifting
##ook
##kan
##mill
##houses
##54
##atis
##isance
##icating
revert
onus
stacked
sha
golly
orleans
fraser
peac
amp
amoral
##ocial
trumpy
blend
bluff
##iann
needlessly
##inted
perip
interchange
##achuse
stressed
sinned
readings
##leman
defamation
infested
rohr
monaster
confine
norweg
mattered
canned
redirect
victimization
seriousness
barring
southwest
##phones
pressures
repeats
figuring
annie
environments
psychologist
semantics
oregonians
portra
driveway
dangerously
transgenderism
consequently
archive
ensures
attendees
burnt
torturing
mobil
randy
renewables
strategist
tabl
sacrificing
obstructionist
inventory
conflating
masked
dismantle
arrangements
drowning
airplanes
nurture
instincts
vagina
wmd
loretta
isaiah
zimbab
berkowitz
practitioners
synonymous
belligerent
prophecy
ecclesiastical
prerog
cun
dash
dio
jest
oo
pg
pend
vas
waging
wager
zip
##tc
##vo
##bp
##lle
ish
reop
notch
##olence
haired
weaver
dock
comical
##unct
thanking
##ubs
##areth
brock
perverse
dracon
prefect
cozy
undercut
specious
attest
attire
musical
##feed
striving
recoll
sinning
invar
thrust
carpent
hoard
discord
slanted
slipped
propensity
providence
worded
##text
gloves
freeway
standpoint
surpass
##upulous
depre
profiled
pleth
passports
classical
nationalpost
massachuse
expectancy
unfund
barking
clearing
programmed
specify
equates
suffr
hitch
domest
explor
globalism
variation
priceless
examining
volley
permitting
blinders
1997
resistant
sympathies
hideous
##ennial
maryland
unbal
deporting
ambition
hindustan
readership
adulthood
pcs
professionally
sara
floors
colours
volunteered
oscar
egyptian
washrooms
unelected
rushed
fabulous
persuaded
innovative
arbitrarily
rhodes
distractions
overpriced
reverence
demented
martyrdom
fluoridated
excommunication
nickn
deployed
cooperative
ridership
fidelity
vessels
tridentinus
rejoice
disbelief
comedian
supervisor
promulgated
anatomy
orchestrated
knuckle
unpredictable
tyrannical
##feasance
inexcusable
zimbabwe
draconian
cj
dice
dich
dues
fod
fences
hst
linking
mitt
nik
tatt
##eau
##core
##wau
##60
##inum
##alien
##arial
##otting
##olitan
##istine
##thinking
fren
##mentioned
##ighted
unnatural
##trod
cliche
##ibut
imua
grin
grif
intake
##ulture
spying
spont
##ogging
drought
presupp
##0000
serge
godd
payback
daylight
regulating
flipp
veils
##ucted
eddie
inclination
handc
pops
transfers
milwau
experiments
protester
moderation
directing
locate
smallest
approves
politicized
1200
18th
objectivity
observing
circular
lgb
responders
staffed
improves
publ
selectively
##ethe
rename
kenn
tracked
censure
persecute
loudest
hrs
predicting
assessments
savvy
lunacy
grasping
tribalism
assassinated
steadily
override
hormone
contemplate
crazies
prompted
shiite
flourish
transmission
garner
adolesc
bunker
mclaren
scumbag
omnip
griffin
maneuver
chattel
feckless
deuteronomy
plethora
massachusetts
1b
cay
cower
dop
dummy
fog
fiber
lag
rosen
uae
xii
##uki
##cons
##aam
##kill
##mus
##4b
thunder
##orum
ank
##rets
choc
heather
shuff
##ilies
wasp
##peace
unap
amer
mak
##tress
crab
sheets
polled
pera
marines
##feld
emily
eminent
artistic
flav
boil
##rolling
smack
communal
hardworking
costco
effic
caus
causal
misf
miscre
solitary
watches
barrow
numbered
benefiting
identifiable
buds
snide
deadline
foreigner
colleague
##umbled
tariff
stuffed
pollsters
turks
##balls
401
defendants
essays
collectors
blooded
robbers
1400
fellows
conflicting
conflicted
reviewing
bothering
panthers
automated
1972
charlat
divinely
##ilingual
gatherings
hikes
mobs
jp2
judgemental
fetish
wiser
cycling
##headed
squarely
ramaph
marginalize
unnecessarily
elevate
mansl
lewd
ellen
royalties
bolt
jonathan
helmets
consecut
anticipate
ascend
disprove
lavish
abstinence
robertson
slimy
contaminated
bergoglio
##keepers
traumatic
afflicted
pipes
lpc
burkas
renegot
filipino
euphemism
unequivocally
jeez
overpopulation
proverbial
##occup
chancellor
multiply
fierce
dprk
diox
##alienable
milwaukee
unapolog
450
aides
ef
hut
iirc
lending
mons
ouch
pawn
roc
sizes
tarn
woo
##sing
##low
##dies
##nl
##killed
##yon
##ᴏɴ
##ᴏᴜ
thc
thorn
##era
##online
bemo
##amount
shills
neol
##ules
sock
##andi
unl
unknow
uncondition
mein
meek
themes
plum
incidence
##integr
precip
underp
menace
##angled
medi
downside
careg
flake
helen
##ussen
homegrown
transubstant
entail
youngest
reds
employs
generates
unforg
barons
swinging
200k
supermark
radiation
imaginable
successes
borne
deviant
researching
portions
lays
consciously
earnest
170
normalize
tours
grabber
worshiping
hallmark
nih
deportations
contentious
battlefield
ashes
cooling
affirmation
succeeding
##laws
consultants
scarborough
owing
disclosed
scottish
libertarians
gallon
elli
deductibles
inefficient
fisherman
pumping
spectacular
##checked
retailers
skepticism
mckin
wrestling
mcguinty
neanderthal
culprit
uproar
chechny
indissolubility
nichol
incessant
proliferation
hegemony
##ɪɴɢ
bullshit
susceptible
enquir
fodder
aes
bachel
cuff
gub
hend
hath
umb
##lies
##foot
##oos
##gart
##vs
##lean
forens
foreg
lio
nebr
suz
soh
##anto
alger
thereafter
##cience
##astics
disb
disin
brat
brus
brands
spar
spaw
feces
coke
##owns
betsy
scored
20s
2030
infow
booted
smacks
immac
newsworthy
businessmen
ignat
hillb
redress
speculators
lowly
futures
nazareth
enclaves
ceased
detain
specialized
wallace
similarities
##plicity
permissible
measuring
browns
comfortably
crybab
contradictions
branding
forbids
matching
1945
hugs
inappropriately
calculate
nicer
lengths
mistakenly
reeks
empowerment
##lords
weaknesses
antisemitic
suppressing
broadcasting
indulge
cosmic
extermination
kurgan
theoretical
definitively
consolation
protocols
culpability
##hawk
procure
abysmal
libtard
hordes
ostensibly
appetite
sylvia
impregn
indefinitely
mideast
invariably
unfunded
unbalanced
manslaughter
dioxide
g20
hiron
kow
pud
pics
porter
ruse
tith
tink
ubc
vaug
yiann
##uitt
##fo
##mes
##vity
##bri
##bull
##88
##┈┈
##inci
##itates
##llers
reaff
pruitt
std
staged
shores
amended
aramaic
maple
tails
cla
myopic
##ibus
##apore
bros
perry
commem
commies
prez
relocate
wrought
foil
recid
scor
assent
contrived
artifact
##bee
flint
##uese
mooch
instability
viability
monolith
pleasing
faithfully
wallets
excor
thanked
shoving
##pared
snakes
remainder
30s
prevailed
behavioral
lighter
accounted
palmer
gasline
catering
verge
vermin
malfeasance
goldberg
##annies
comparative
angl
licensing
fishy
1975
comprise
constantin
##yrs
screamed
suspend
compliant
recruits
hyperb
tasked
fulfilled
discerning
buttons
rebuke
analysts
brazen
zionism
zionists
reelected
denigrating
steroids
molesters
utilize
recruitment
infinitely
oakland
infidelity
shunned
telesc
paramount
pione
##anthrop
bystanders
mohamed
dwindling
unquestion
grandson
restructuring
ramaphosa
consecutive
chechnya
ayn
aux
bree
dunk
lumen
nyp
nike
penc
tina
ubi
yuge
##ea
##nt
##inke
stigm
styles
chim
chased
weeds
lik
##keeping
allahu
##aby
unchecked
usd
##ousal
amok
evasion
gran
graces
##places
acre
saj
repressed
composition
martha
emo
backf
decrim
decisive
bugs
somali
matrimony
flir
reflex
etfs
surrey
cured
##cker
completion
##crow
correctional
singapore
specified
facet
severity
visc
birch
deady
erosion
relegated
logs
demonized
princes
vari
autonom
2500
freight
copper
neighboring
technologies
participant
affection
bailey
unskilled
rockets
rationality
sunset
engineered
cheapest
disrespected
1971
baptists
digit
deceiving
abandonment
strangely
floods
contradicted
niqabs
##world
tunis
savages
bona
requesting
temperament
surgical
trendy
tightly
##walk
psychiatrists
distinctly
mechanical
abolition
##interested
tantamount
moderator
vilify
adulterer
aggrand
misrepresentation
vincent
flexible
traumatized
mathematics
portuguese
gorge
ascribe
ephes
peasants
pagans
prairie
eschew
ounce
mysog
kuwait
bailed
dum
fals
gin
kag
mb
nome
ooo
pout
sis
sally
surn
tides
##fd
##felt
##mi
##jones
##inis
##atus
##ouye
##orial
inso
inception
reef
doo
frig
alay
noah
##ifier
##athon
##umpy
arent
enric
upwards
evs
##actor
disq
plut
graff
##ffer
spree
sailed
dru
precon
newest
##enson
scree
assessed
##issive
matched
basing
smiles
insidious
slav
slash
##raved
confessions
wrongful
valdez
depraved
finn
homilies
natal
policemen
skipped
excused
bikers
informing
messing
metric
dogm
thanksgiving
dams
imagining
punks
deval
complainants
palace
11e
opportunistic
objecting
purport
establishments
copied
ballistic
khalid
fellowship
earns
constraints
##ported
nutshell
wedlock
slowing
bibles
nuisance
favours
bleed
foolishly
1940s
disturb
emphasized
consultant
glorified
dunle
adjustments
libraries
harshly
hahahahahah
delegate
monitored
devastation
pharisee
utilitas
enterprises
deferred
atlant
astray
crazed
toddlers
proxim
corresponding
promptly
abhor
unprof
nurturing
tantrums
outdoors
hopelessly
obsessive
ctv
blonde
tastes
preclude
sterilization
kosher
cotton
vernacular
tokuda
atonement
hwy
ransom
aristotle
inexperienced
circumcision
footnote
newfoundland
volleyball
nebraska
infowars
hirono
recidivism
aun
aint
cyr
dic
hort
kit
mes
naught
waged
wandering
##su
##uated
##bird
##ju
##erman
##atal
topp
inouye
andre
##stock
onerous
##chant
weary
livest
##estead
pears
outta
outperform
##ears
clums
trumpian
disall
blunder
loony
resorts
grizz
overbl
counselling
everytime
##assing
cohen
##eryl
lawless
afore
probe
invocation
20k
download
seeming
posture
leftwing
sled
slower
charming
handout
continuum
waff
homestead
misled
divides
engines
excusing
druggies
absolut
heartfelt
steph
perfected
virulent
opportunist
flagging
tennes
averages
quebecers
petitions
examiner
coptic
##undr
robot
starved
boogey
malice
maleness
contracted
validate
1962
comforting
pageant
sticker
hairs
dishes
tactical
sheltered
planting
dinners
recovering
warmong
cubs
enlightening
pakistani
##manship
applauded
analyt
manifestation
inflicting
##addafi
sjws
##handed
exporting
scrutin
rendering
groceries
csu
mauna
nigel
agnostics
adulterers
cyclist
leanings
cohorts
swallowed
unrave
redistrib
charismatic
defunding
tridentine
apocaly
mcmaster
disqualify
imbecile
##apolis
dorothy
exhortation
caricature
unsupported
kodiak
concoct
peripher
dichotomy
tattoo
misfortun
autonomous
insofar
2f
breat
dip
laps
ming
nour
oj
puck
tamp
##sight
##iq
##call
##aque
##rising
##94
##watch
##▔▔
##inational
##orized
toes
inference
whid
reed
fork
stored
##olph
##olani
##ira
seaf
##essional
necks
alliances
##htaking
sooo
##mental
##abee
##unks
unreg
outland
enrolled
##ardo
drastic
supplying
undem
newton
attends
twain
contested
regrets
simpson
boils
slott
slipping
schooled
expired
collision
paved
cafe
truthfully
classification
10k
##cedes
militants
##pract
##geries
franciscan
lineup
gendered
steals
forcefully
lighten
lighting
lightning
satir
deterrent
pollute
travelled
exceeds
bushes
ministerial
weakened
connecting
dictating
hosting
traject
atheistic
recalled
audits
sleaze
limitation
##loat
occupant
scrub
blowhard
1983
clarifying
southerners
dimension
bloggers
##worth
disappears
gutting
1940
benj
bonuses
tragedies
loosely
cancelling
##ipeg
darling
tossing
depths
portrayal
pontiff
girlfriends
mercury
##aaaaaaaa
escalating
confessional
quantity
corrob
fulfillment
expenditure
explosive
proponent
oblivion
mugabe
curtail
##cionable
laziness
panties
orwellian
handguns
klept
russell
surrogate
warehouse
egotistical
anointed
homogene
nastiness
nephew
silliness
winnipeg
alleviate
irrespective
unattr
brussels
immaculate
overblown
breathtaking
seafood
aar
dana
fid
fad
g7
goug
mired
nate
pens
##uv
##ration
##bows
##birth
##inous
##atisf
##isations
ingest
##otus
##eto
ston
haunt
haiti
trud
exile
##iva
##endously
agit
blur
bland
blues
loosing
##eling
##eline
intensity
perish
perple
reliability
afloat
marian
workable
##angering
remnant
longtime
publically
flaming
endangering
continuity
deple
lively
cair
placement
planners
condom
apathy
classify
misbe
retarded
murky
##crum
sket
honors
equalization
barb
swore
stupidly
negatives
despot
multinational
safeway
lieber
hunts
fixation
quicker
felonies
malpract
hosted
babylon
nutri
garment
renamed
parker
escort
censoring
halluc
aggressor
chicks
hindsight
settling
exceptionally
coding
proclaims
destitute
##holy
structured
thinly
assembled
delaying
rescued
calculation
sneaking
reelection
faculties
whistles
utilized
oppressors
##ambig
museums
parallels
episodes
gratification
geared
adulterous
unprepared
bastion
cohort
giants
pundit
mackenzie
succumb
kasper
vestments
cloak
pertaining
decrying
kilom
incurred
dyst
##boro
remembers
islamaphobia
jeremy
peanut
embryo
disavow
bravery
pawns
uninsured
presumptuous
distasteful
altru
immortal
wizard
tournament
bosnia
underfunded
bissonn
metropolitan
pyram
chocolate
decriminal
dale
eich
kup
lions
mouse
og
pn
rife
sans
sord
wret
yale
##ege
##tb
##corn
##fg
##fig
##dal
##gone
##hin
##horn
##pen
##82
anach
##itics
sting
stare
stree
chug
##amus
tran
withstand
shaw
liver
conned
devel
sev
nea
framing
worms
noon
##ospect
unambig
outing
mazie
disaff
loading
spad
spitting
poo
quinn
marit
dembos
##ucci
downfall
publicized
flavor
roaming
slug
immutable
editing
antip
surgeries
colony
apoll
##brance
bark
baron
burr
definite
purge
array
damning
fallacies
generalize
erased
specialists
laura
wealthier
##ascar
banker
risked
enjoyment
psyche
delivers
favoring
##shed
staffing
weakest
peddle
175
17th
summers
protectionism
rationalization
1986
communicating
submar
sundays
persever
##hhh
exploits
samo
advertisers
satisfying
resolutions
halibut
scaram
undermined
zealous
obeyed
congratulate
pronounced
reversal
viciously
container
sprayed
lumped
sewage
loathe
fundraisers
yahoo
ketch
mckenna
stanley
unsett
mixture
reluctance
auwe
succinct
interrupted
relentlessly
dlnr
thumping
tacitly
cowboys
paternal
jewelry
antiquated
chaplain
##catholic
malaysia
precepts
inadvertently
feasible
charlotte
dinosaur
prerogative
transubstantiation
umbrell
forensic
malpractice
sordid
anachron
demboski
bcl
dome
doth
daring
fgm
hm
mama
rash
racket
##cock
##hire
##bound
##erine
##atter
##itatis
inhib
##ications
##ionage
stoo
stench
chilling
##illusion
conundr
gofund
suite
alumn
manoa
##ifiably
enl
evap
cran
crushing
plun
adage
partition
partake
dred
preoccup
compuls
##oured
indent
backp
idle
decrees
stray
scams
scoff
sinister
defiance
racing
fug
flipped
flaun
edwards
provocation
freeing
continental
hardware
runaway
raving
pleases
mindful
seth
skate
legality
benefitted
involunt
ridings
awfully
internally
quell
prevails
185
hunted
fixated
acronym
autocratic
horrifying
epith
restraining
performers
rented
publishes
broadway
kenyan
circumvent
intentioned
1985
discoveries
1976
baptize
##guards
captive
cambod
strengths
conditioning
ecology
ripe
espionage
ivy
implicated
osc
rambling
ramifications
industrialized
sustainability
taboo
unacc
endorses
memorials
evaluated
resentful
adjustment
hammered
preponder
6000
fabrication
authenticity
pumped
confidential
optimism
prolific
hobson
psychopathic
gamble
superstitious
artificially
cathedra
bicycles
bastards
exterminated
kentucky
inspection
helicopters
redeeming
plagued
botched
phillip
discharged
caribou
bunny
dreadful
cheetolini
lepine
enslavement
geographic
pennies
prolonged
audiences
granddaughter
paychecks
causation
sajjan
proximity
livestock
pearson
aforementioned
apocalyptic
outlandish
involuntary
bilingual
cbo
dds
elic
fend
fib
garr
hench
kob
kyle
lan
lick
lamp
mum
nad
nets
pere
roth
rider
wong
xy
zupt
##lm
##ran
##rus
##38
##49
thor
whipping
begr
pren
stairs
heir
traps
liz
##ulter
byrd
leather
##abouts
unve
##uds
tapped
someplace
clapper
disillusion
plates
rightwing
grim
acoly
shee
tee
overfl
spousal
reliant
##owned
spear
bett
##pert
emm
##aki
godly
parables
##ocrat
flor
carc
roost
simplicity
helf
##roe
##roots
##azing
##azine
freezing
banter
humanist
##xton
transactions
plank
cannib
possessions
riches
steering
absolution
severance
generalized
heartbreaking
trek
ethan
penchant
opera
hungary
modernists
layer
cleanup
ontarians
##commun
substit
perme
interventions
appropriated
photographer
intrusion
constrained
literary
perpetually
##annon
eliminates
salesman
247
dissolve
##ieties
entrusted
negotiable
headscar
jacket
clarified
rounding
matthews
combatant
disciplines
alienating
4000
transferring
freshman
rabble
mislead
instructor
dodged
##kinson
boasted
escalated
unchristian
unconscionable
mohammad
asserts
carlson
potatoes
comrades
beheaded
cockt
lemon
instrumental
skyrocketing
wielding
remedial
transcripts
peanuts
sniper
tfsa
fitzg
coworkers
dermot
publisher
atlanta
whidbey
undemocratic
stooge
2b
dia
danc
fusion
ore
pess
rack
tir
zinke
##oes
##xing
##vd
##orated
inve
##eties
##igibility
hab
hamb
chen
trapping
##usk
cana
##mented
leases
leagues
unwise
##atha
claus
##ptp
crashing
##plate
bracket
needles
spared
saul
##obber
preca
mull
catherine
keala
##ailable
eligibility
##week
exported
anton
confuses
runner
popped
costumes
depicted
entails
planner
centric
servic
statesman
retard
##ysis
winston
engages
militarily
aviation
barron
swung
singling
##atorium
mercil
mercedes
checker
ruins
roadway
accountant
uncaring
grande
grandpa
cataly
nightcl
forgets
footsteps
declines
environmentally
modernism
turd
silicon
inebri
survives
reforming
staffer
designs
applause
robes
safest
intrig
13th
googled
mouthpiece
punishments
##toh
censured
machinery
1981
1988
gentile
scholarly
accomplishes
dragon
lynched
dignified
wooden
discouraging
fashionable
nunci
proceeding
emphasizes
habitual
retract
narrowly
preceded
tragically
honoured
##canada
highlighting
bitterness
interacting
##addle
containers
conformity
contradicting
degrade
grassroots
championed
recreation
gridlock
forecl
coordin
beheading
exceptionalism
graphic
accelerated
disconnected
accumulated
raza
abetting
intervened
prioritize
stoog
defraud
antithetical
uncontrolled
chromosomes
unnamed
gimme
magnificent
unsuccessful
mcgill
alzheimer
unwelcome
pendulum
enriching
graffiti
trajectory
benjamin
unattractive
streep
gofundme
merciless
aina
dumber
flim
gil
gaff
kits
kurd
mok
nay
rasm
yacht
##don
##dles
##ni
##yg
##gon
##xts
##rian
##pie
##jah
##64
##💀☠
##onal
##enity
##orf
angr
##itically
inuit
##omb
##llie
##lev
relic
##aculous
##etown
##urer
##irk
shib
frog
##gevity
alum
alarmed
noaa
##une
unifying
##anski
##iever
arn
##ocating
##trap
uprising
##apiro
##iches
sheema
poloz
brakes
poised
wanton
dried
preempt
suppliers
##ouring
marble
indiv
workplaces
##ako
childbirth
religiosity
invoking
opiate
eden
subver
##aza
lasts
expun
gloom
concerts
admires
depended
terrorize
passions
builders
biker
beneficiary
potent
wouldnt
awake
heartbeat
shortages
successive
preferring
paints
sellers
frontier
tenet
layoffs
exams
excel
balloon
##letter
ancestr
philanthrop
literacy
decidedly
madam
angus
searched
miraculous
ratt
angered
intolerable
irritating
creeping
acquitted
sponsorship
bubba
coddled
chaotic
assessing
stretched
briefing
##burgh
gloria
dissenters
disclaim
retaining
mechanics
mechanisms
bribed
bailout
illustration
ideologue
distracting
reverend
humiliating
taggart
extraordin
julian
parasite
evangelization
tatto
coordinated
rankings
lipstick
rudy
puzzled
burdened
whisper
merchant
espousing
parameters
trimester
abbott
degenerate
remembrance
##🆘🆘🆘🆘
antithesis
longevity
nostalgia
gitmo
tabloid
reaffirm
disqus
bissonnette
biting
dive
dps
fart
fptp
gnost
hik
jade
kad
kamp
kwh
lite
lago
mow
ngo
otoh
poth
piling
rangers
sinks
ump
yoke
##ez
##fax
##oard
##dney
##mong
##ras
##vic
##32
##bid
##atient
##isphere
notification
hez
##amers
shod
##aba
ungr
unholy
disl
plots
##agu
grope
brink
spills
feinstein
belts
obummer
underne
emir
impending
syll
##angement
smash
inserted
endowed
propped
provoked
ideally
watered
antar
populous
popcorn
chef
profite
waian
nationalities
oils
earl
franco
diapers
purvey
arrives
potter
##mmm
visions
sacerd
salad
explored
exploding
normative
pathway
painfully
##flash
unionized
bulls
preventable
pms
performer
measurable
purposefully
unsav
summarily
seasonal
castle
youths
1982
1977
bibi
screens
shrill
predictably
forthcoming
aiming
woes
orangemen
bobby
diploma
straws
buffer
deems
webster
xenophobes
rainy
stretching
intimidating
stereotypical
harboring
kaiser
motorist
chinat
emeritus
sacrificial
libyan
barbarians
recklessly
mileage
reigns
infantile
fishery
lw2
moderators
subjugated
enacting
bastard
demeaned
drowned
collapses
weighed
distorting
cherish
merchants
dentist
tubes
touted
hemisphere
moslems
caval
administered
ryerson
transgressions
reclaim
undergraduate
impediment
commonwealth
morocco
atomic
overhaul
gauge
confinement
suffrage
hyperbolic
variables
preponderance
stooges
tattoos
underneath
bids
gaud
hirs
hicken
jv
jake
nays
pup
renders
swell
sgt
tents
yada
##cation
##lie
##lasm
##dam
##rane
##racial
##zes
ante
##isi
##alus
inan
beaver
##adi
##uro
##oluted
shah
deference
##estal
soaring
unauth
##answ
amber
outp
clout
upward
disheart
spies
coz
compulsive
mufi
lawlessness
wringing
marathon
scots
scroll
defying
electron
medals
infur
charm
understandings
choo
allowance
transp
immigrated
waist
misch
possessed
sadistic
unfam
criter
camel
metis
metoo
traders
legislated
convoluted
15th
salaam
treacher
furth
debatable
babble
necessities
uncom
opting
enjoyable
breakers
hyst
geopol
voiced
vermont
mandating
spacey
garments
1966
broaden
##looper
occupants
sweethe
packs
hospitality
discovering
baghd
digest
tablet
gentr
villain
bodied
unfairness
compromising
overturning
softwood
coloured
virginity
essentials
boggles
catechesis
simplest
rampage
tabern
poisonous
conceive
perpetuates
pitcher
wheelchair
bidder
gallery
revolving
revolting
assimilated
jonah
unchanging
axis
prudential
hijabs
annoyed
hungarian
gratuit
prescribe
icbm
abundantly
exterminate
diminishes
swayed
tangible
parroting
manufacturer
esteemed
dwellers
complementarity
hahahahaha
##zzzzzzzz
hydrogen
kook
attachment
cheeto
envisioned
imbecil
belittling
grenade
prestige
##corp
apprentice
microsoft
twenties
assailant
awakening
masturbation
spontaneous
yiannopoulos
dunleavy
gouging
scaramucci
compulsory
fitzgerald
pessim
extraordinarily
waianae
bode
bds
cfl
dumm
fucking
gently
hnl
jug
kiz
lds
lingu
mouthing
nud
yu
##eh
##some
##cans
##oi
##km
##marks
##million
##rate
##rals
##witz
tha
##erable
##erte
##enb
anwr
##itant
##lla
bele
##story
onkey
##ayers
pristine
##etano
noticing
stale
##olin
chants
##illo
wast
nex
canyon
amuse
##actory
croc
crises
blight
blund
##eland
brandon
reproach
drained
##ipse
marco
strife
stripping
scur
invoked
flashing
moan
instill
##avin
sliding
farrell
propri
subpo
newsletter
##auga
cheered
socialize
##research
##ierre
affirming
passover
finland
protector
wonderfully
setup
static
excise
aval
landown
politico
facile
revise
superb
sourced
qualifying
insurg
babcock
##olds
shamelessly
differs
welcomes
respondents
voicing
sharks
##ospher
unsure
summed
kenny
texans
pfds
unwitting
midwest
tomb
stickers
dismisses
rigging
##guy
guardians
entertainers
rubio
##oridation
damnation
substantiated
fetal
screened
shrie
sheeple
telegraph
jihadi
##blue
vulnerability
1947
munoz
reputations
buffet
empathize
simplify
pharmacy
constructs
episcopalian
portraying
regression
pardoned
tanker
crusaders
breeds
muddy
groper
boasts
pulse
retaliate
lobbied
mlb
rigidity
neuros
unintention
misrepresented
caveat
icons
mckenzie
miami
anarchist
derelic
eradicated
reinforced
unanimously
skirts
undertaken
decorated
dixie
unimport
jerem
transplant
zombie
metrics
revisit
miscarriage
colossal
wiping
cunning
domestically
frenzy
unprofessional
grizzly
aaron
conundrum
sacerdotal
unfamiliar
aur
ailes
baking
fiat
gg
hush
iphone
katr
lith
lime
lure
nash
pree
pales
piles
ranging
tb
uaf
vance
##iour
##iago
##gal
##gender
##gars
##gering
##holes
##bour
##zn
##01
##oro
##anct
##itative
bees
##leton
reyn
stances
##illor
trop
dos
goats
abrog
soc
exting
unear
unansw
mecca
##oused
##umps
##allam
clallam
upst
##asted
plated
##agazine
resil
grove
drudge
goodale
consented
quibble
presiding
mund
strident
stranded
godless
asses
reminis
payouts
para
vein
joins
terrorized
civilly
##conomic
misused
signatures
retention
turner
excite
messes
candle
litmus
investigator
devils
specialty
researcher
competency
innocuous
magdal
conscientious
windfall
volat
skinny
googling
unsu
unspoken
fortitude
derive
tomato
iceland
irrelevance
splend
praises
presumes
philosophies
antiflu
transported
molester
strategically
segregationist
pitched
analogous
decreases
saddled
affiliations
monger
nickel
unclean
therapist
unjustly
tankers
mercen
megal
inexp
casualty
phenomena
rosa
lumping
installation
condescension
##etrically
unintell
contemplative
dwar
hippie
totalitarianism
labelling
annulments
privatized
reinforcing
confiscated
cmhc
pertains
decorum
immensely
forefathers
cursed
kanaka
subordinate
##bearing
rabbis
franken
shattered
neocons
mishand
dominican
yukon
johann
eichmann
spadaro
umbrella
alumni
##💀☠💀☠
kampf
hickenlooper
criterion
katrina
antifluoridation
dief
gci
ian
lbs
lashing
pedi
sᴛ
vel
vert
ᴛʜ
##eon
##free
##fold
##mir
##yll
##xx
##bels
##73
##ᴇᴇ
##isk
##itness
##icles
ist
whores
##etus
##ige
stap
stakes
chi
##thur
doh
shes
shade
converse
dea
debr
##ilani
abound
butler
##emo
noisy
usher
##ousing
ampl
clips
evade
disqualified
everett
##agne
resumes
grun
##berish
commence
commended
coex
undis
understatement
spews
impuls
assu
kea
parl
pointy
schultz
invasions
boes
refined
refuted
ministering
slapping
enduring
monk
banished
conceded
harp
popping
denn
profiting
youngsters
##cken
cretin
legalistic
prodig
##parable
singles
speculating
merge
progressivism
##insider
literate
fallible
snl
deadbeat
corrupts
dominating
eyew
188
romero
sanit
variable
magaph
determin
departed
1600
intrans
disposition
integrating
unsur
contexts
validation
1963
squandered
compares
##bitant
anguish
ncronline
plains
searches
sainthood
motivate
submitting
canonized
unreported
catches
musicians
entertained
compromises
navigate
advertised
##ettes
archbishops
conceivable
perpetuity
honourable
paradox
sioux
##loaded
illustrated
infantry
steadfast
optimal
hubby
tremendously
tongues
oppressing
vaguely
podium
subjugate
cadre
stringent
koolaid
ontologically
consecration
featuring
infection
negroes
napole
hazardous
razor
mammals
unimag
smuggling
scumbags
##ᴏᴍᴇ
panhandling
balkis
undersc
##agram
scalise
repetitive
nimby
afrikan
ᴀɴᴅ
intuitive
impairment
hanabusa
mediocr
constantinople
depleted
indivisible
ancestral
sweetheart
##ospheric
unimportant
40s
duration
fw
gist
kro
kaka
loun
nar
oust
pv
pq
ports
piano
rother
ringing
sop
tul
yad
##turn
##colm
##kai
##rion
##bb
##93
##zla
##orus
##rement
##otch
##stri
prow
chir
chile
##thir
##thins
congl
sos
frail
leis
##unciation
amused
arson
upstanding
looming
gripe
spen
spun
drilled
pretext
quaint
underway
underpin
persists
betty
##oyd
caller
imposes
sydney
countrymen
##issance
installing
smashed
discrep
slut
comeback
keeper
newsflash
handles
addled
expedient
glance
esh
playboy
concerted
giveaway
nora
advising
cael
privy
misqu
housew
directives
maine
locks
unfaith
swings
hawk
##phobia
arrow
dolls
##center
sentient
steak
salon
criminalize
calv
predic
##bollah
rupert
punct
exploded
penned
hourly
safeguard
fixes
similarity
filib
fills
amaze
reformers
consequential
intrusive
mcgee
hopkins
malcolm
philip
nutj
gradual
spreads
dreamed
##olei
deleting
1978
boxing
haircut
##ihi
dialect
sarasi
disgraced
conclave
ukrainians
adventism
disciplinary
gardiner
diplomat
scarf
sinfulness
1939
disrupting
magna
briefings
cpi
concealing
roofs
evaluating
mansion
penalized
withdrawn
prophesy
deprav
sneer
cigar
degraded
libertarianism
antisocial
utmost
metaphys
polarization
fertile
anecdote
scouting
gregor
resemblance
laser
prevalence
collapsing
photographs
photographed
recycled
cherished
abstain
skiing
marcus
catalonia
enlisted
rectify
grovel
observers
nugent
vendors
gleefully
acquaintances
stagnant
prestigious
mourn
brigade
forfeit
bahrain
hijackers
automobile
nonprofit
aggravated
unabated
pharmacist
eclipse
misandry
surmise
neoliberal
nicholas
bachelor
gorgeous
misfortune
indentured
unauthorized
dummies
aurora
inexpensive
unfaithful
aj
bj
bacter
dre
eject
hick
ker
nb
nord
oy
pau
rer
sacked
wic
xmas
##cair
##a1
##lat
##laught
##lasting
##dahl
##bin
##burn
##billion
theatr
##erting
##eses
toad
##itter
oft
##aroo
reit
##idy
chow
trot
tranny
withheld
gob
como
neon
abrupt
soda
fridays
expel
##onel
hasht
cougar
myers
cram
##izational
adoration
graft
brokers
offences
overh
spat
faust
##oko
undue
consumm
guate
lawfully
##otherap
recur
impropri
imperson
parach
defies
deform
deficiency
fuhrer
matri
killary
##ahaw
##hips
expedi
monte
continence
morale
depot
raft
raiders
hometown
misapp
misde
divest
ohana
##ucker
generously
biking
fearless
informs
burying
organisations
metab
merton
##cox
ceases
corporal
congresswoman
predicated
debbie
recognise
pathetically
handsh
totality
flagrant
townhall
silently
epstein
conceptual
designer
reminders
beater
pedestal
1700
indicators
accomplishing
mosqu
mosaic
omb
nominal
derail
plato
denverpost
digits
instructive
synthetic
vocational
cdl
denials
casinos
micc
distributing
pilate
contempor
330
incapac
wheeler
episcopalians
witches
authentically
stakeholders
fruitful
adhering
crusader
municipality
wahab
exhibits
unbelievably
creeds
legitimize
ineptitude
unchallen
reassuring
ecclesiology
judea
negligible
elephants
kapolei
bundle
intensely
stimulate
riddled
privatize
vigilante
contamination
merchand
dislikes
orphans
contingency
sneaky
1800s
##ᴵᴵᴵᴵᴵᴵᴵᴵ
huckabee
trampled
rangermc
gyps
hymns
bimbo
uterus
connotation
coincidentally
cushy
tissue
jessica
cayetano
miscreants
unapologetic
auxil
ubiqu
surname
cyril
tennessee
wretched
develops
prenatal
nightclub
hezbollah
ungrateful
emirates
hirsi
jeremiah
debris
intransig
5m
ape
aya
dining
diane
fading
giver
jz
kend
kumb
mk
nort
nascar
ober
pact
rv
sage
sars
wth
xl
yank
##uz
##iuses
##coun
##aving
##rif
##rose
##hol
##pol
##52
##200
thugg
##atians
##enos
##orating
##anic
##isse
##itigated
##omo
beam
##uten
onset
heights
##chwitz
conrad
goons
##eston
aboard
allocated
##andra
wors
nob
manic
uniting
arithm
##actively
##ibs
##ibi
crumbling
everlasting
adolph
##agara
##elager
spilled
inconse
reprim
prelim
preying
afro
interracial
emx
mencken
backfire
recite
impurity
asshole
remarry
parody
defenses
schw
2050
infest
geniuses
minsh
hoops
endow
subvert
##weiler
glam
config
confines
conciliar
restoring
raiding
pleading
condones
affinity
pretended
modify
stature
responsive
walt
senile
effected
israelites
equated
cardboard
absolve
##strom
snatch
momma
originate
colorful
gastr
uncles
creators
breaker
temples
fundamentals
journals
extrapol
diversify
standardized
normalized
doorstep
iraqis
nutty
madman
dissatisf
mailbox
reactionaries
derangement
interviewing
surrounds
islanders
analyses
spotted
mccoy
oriental
favoured
boundary
weaponry
jeffrey
substantiate
espouses
ancestor
bowing
casually
codified
chapt
inspires
bono
stripe
certific
manifested
indoor
uniformed
hilcorp
dodger
calculations
calculating
unhelp
elevating
psychiatry
atrocious
vaccinated
elitists
persuasive
hoods
infanticide
santiago
unmitigated
denigrated
gestapo
##represented
escalation
mantle
ewa
exaggerate
aligns
segregate
vulgarity
sharply
cbd
resembling
##uuuu
brook
plurality
pluralism
greeting
monumental
dismantled
whistlebl
unrestr
nurtured
enslaving
redeemed
sycophant
slamming
adversaries
accelerate
gibson
bernardino
sailor
exemplary
nauseating
duplicitous
indisput
klein
vengeful
turbines
unfolding
acquaintance
conspired
endeavors
guru
huffingtonpost
pyth
complacent
toxins
styled
auschwitz
siege
onslaught
receipts
galileo
fornication
haitians
efficacy
underpaid
procurement
kowt
clauses
artifacts
analytical
unregulated
chinatown
naysayers
unanswered
boeselager
eyewitness
calvary
expediency
micciche
auxiliary
inconsequ
minshall
ae
bh
bick
b16
cpr
fs
gat
gou
ja
jn
kail
lester
mates
ninth
rio
tx
tense
vivid
zika
##iantly
##fly
##nants
##mac
##gg
##rest
##rays
##bay
##je
##jet
##47
##erating
##inately
inward
##ico
##stru
##utic
##utter
##ida
notices
stumbling
heil
##amine
shud
shapiro
conve
goeb
seb
##umoto
sul
##ulently
sod
sovi
framers
##ppers
whoops
##ivists
##oslav
##ackets
unthink
hissy
arthur
donuts
##agate
grac
sayings
overcrow
pernic
commuters
compounds
##ensional
undercover
muff
induce
interstate
recess
scales
pariah
downpl
flailing
warns
boiling
refiner
genev
##avier
immod
gotcha
glove
humanism
humanities
effem
securing
mililani
victories
##ophones
##ophilia
105
marker
patiently
shook
politicize
commonplace
##ikan
snive
falun
positioned
arabian
indecent
erasing
calories
logo
detected
railway
utopian
intelligently
silk
batting
appoints
restrained
premiers
performances
disposed
skinhead
earner
combust
vacancy
##ammers
graders
apostolate
nominating
nominations
derision
##lov
bedrooms
austerity
shoppers
niagara
digress
submissive
nuances
ambush
rooting
sync
mindedness
implode
sustaining
acquisition
ivo
bondage
270
filmed
cameron
isolate
thirteen
cups
kissed
saddest
junkies
mulcair
brazile
enormously
massacres
withdrawing
##john
swords
smears
smearing
malls
overrated
bulb
inventing
##oshima
boyfriends
hazards
abrahamic
contemplating
resembles
indictments
suspicions
pluralistic
correspondence
hmmmmm
distortions
infringement
travis
gibberish
sprinkler
duplicity
heathen
wrestle
gymn
overlap
undesirable
mississauga
steeped
diametrically
chalk
misconception
jjp
peggy
pimps
redefine
katie
morphed
plaintiff
plaintiffs
claptrap
conjunction
pittsburgh
hondur
exorbitant
leeches
brunsw
richardson
klansmen
misdirection
whopping
seizure
pederasty
norwegian
monolithic
homogeneous
disaffected
antipathy
henchmen
sheehan
##ranean
disheartening
tabernacle
gratuitous
subpoena
reminiscent
mediocrity
##thinskin
depravity
misdeeds
unchallenged
inconsequential
550
borr
baham
casc
dg
gs
gum
hose
lenders
moss
mla
nil
opec
pabl
qc
rb
rut
tf
tore
tame
tiki
vd
wi
wc
##ely
##card
##fan
##fed
##di
##nam
##rs
##pse
##pid
##wit
##2g
##63
##68
##enne
##orph
##edes
##arus
##aried
##omon
##llation
whew
##otected
##utista
notify
stalled
##amini
shan
wass
canal
alinsky
prog
worm
##abble
willie
hash
justifications
amish
aggreg
##ocar
someones
upkeep
crut
cray
blov
##apolate
herbert
yearning
brah
bricks
overcoming
spice
apps
##ourage
undergoing
intercept
callista
strat
recuse
impotent
remod
keyn
contag
schill
opium
roam
boog
boob
instigated
postp
elaine
endemic
keepers
subtr
##ahan
fema
histrion
moratorium
untreated
thoughtless
waiver
prominence
opener
markham
unfriend
avatar
benevolent
barbie
fullest
ruler
receiver
awww
##ikas
stealth
501
falwell
ern
ethos
##cribed
anna
detox
expressly
lieu
uncalled
accessing
##shot
crossings
crosswalk
associating
hygi
secretive
injunction
restrain
extrapolate
bautista
duterte
listeners
ensured
indications
irrevers
seasoned
deriv
bsa
farmland
scribes
timid
decentral
##afat
communicated
gentium
recommends
creationism
complications
confederates
cellphone
observant
concludes
cracker
counselors
##blog
radioactive
saviour
hugging
excesses
dubai
idealism
tabatha
disrupted
vitamin
launching
persecuting
mechanic
reversing
untrust
ccp
sauce
sterile
sterling
utilizing
discontin
gigantic
hesitation
ordinar
tenth
doubly
deployment
blasted
eagerly
cooperating
jamie
undertake
disenfranchise
skyrocket
underestimated
asexuals
dlamini
raven
precision
fervent
pragm
##words
friedman
aberration
exacerbated
emigrate
improperly
hermene
burglary
realtors
weighing
unilateral
hiroshima
unavailable
echel
stewardship
promiscuity
bicyclists
companionship
algorithm
kangaroo
recollection
pencil
clumsy
fiduci
nuncio
shoddy
hysteric
reynolds
yadda
leisure
predicament
unhelpful
soviets
unthinkable
pernicious
geneva
hygiene
1m
2gt
850
bitten
e2
hott
jag
ki
kra
kier
lance
laced
ner
ness
pff
rote
sot
wals
xavier
zyg
##iological
##oven
##rt
##rat
##ridge
##hat
##holm
##pres
##95
##wire
##💨💨
##atur
##aters
##edith
##isal
##itim
youre
rez
prie
##ething
##igator
stinking
##oland
haun
hapless
chorus
hefty
##illery
canons
fraught
alge
whatabout
manhood
unad
mea
arising
arafat
outset
outbur
coupe
crunch
granny
tebow
##aways
spher
##lican
whitew
##obi
##oku
compact
strapped
strains
assurance
rempel
remnants
contra
##amph
downgr
downturn
opine
opiates
flame
carved
baseline
roar
boll
##aval
leftie
elvis
immat
expands
joel
##redeem
claimants
headship
foundational
finicum
natures
solves
doubles
coverup
walrus
practise
lineage
mete
progressed
limp
snitch
authored
predation
##boat
##boards
typed
nonexist
palatable
palpable
##umbles
ahem
forgo
ballet
radicalism
semblance
bulldo
scientology
bloodshed
smarts
pubic
intrud
dispense
diversified
junction
martel
executions
jeb
fanning
validated
omnis
buddha
bottomless
dumbed
##ovo
##ovich
alternatively
lockstep
clarence
bankrupting
solidly
instruments
screws
conspiracies
accommodated
measurement
ecst
woodwork
inquis
confrontational
settings
inferiority
concluding
compliments
bureaucrat
bronze
saintly
emphasizing
conclusive
tedious
reconciled
endorsements
lynchings
365
hebdo
indoctrinate
repentant
depriv
tyrants
possesses
piercy
revered
iconic
pissing
atmospheric
subscribers
sedition
suburb
awaits
vilifying
micrones
prelate
horns
indulging
cosmetic
cleansed
supervised
regulators
##minster
discounted
disobey
avenues
infringed
scapegoats
accumulate
bergdahl
##keeper
skyrocketed
mathematical
destabilizing
swastikas
neanderthals
fanaticism
hassle
usurp
millenials
porch
insinuating
rwanda
inequity
freeloaders
trappers
voyage
enthusiastically
muscles
figuratively
vomit
portrait
##bpns
sergeant
goddess
adolescents
unconditional
supermarket
nihil
gubm
emoji
backfired
ephesians
unaccountable
catalyst
arnold
disclaimer
ayaan
arithmetic
shudder
refineries
brunswick
untrustworthy
2gtbpns
boc
bile
cv
dither
dances
dung
font
gf
gaming
gomer
hq
hic
jbs
juries
kt
kc
kub
mba
nab
nie
olf
ocs
pest
pall
pits
rach
vw
yug
##cet
##aissance
##long
##lasses
##nies
##mud
##yst
##gic
##37
##wind
##innon
##itations
##icter
##llo
beau
##utation
fors
notified
##opy
##olical
##illac
trin
traced
shrew
devious
seam
seating
seoul
canard
abu
##ositions
##ostic
therefor
unkind
##ansen
##ifiers
cluster
cliches
upsets
##agen
##agua
grips
grumpy
intens
bristol
brackets
overboard
sakes
##inton
hadith
fec
cooler
appra
underst
underhanded
prese
cathy
##quisite
demagog
musher
backers
stricken
stricter
reciting
scoot
keller
contender
defensible
afterward
coral
coroll
warring
basil
minusc
slay
elag
teller
understandably
homelands
##teous
monkeys
concise
hars
hardcore
morbid
colbert
caves
entourage
extort
casey
hilliary
finishing
waip
civilizations
##crats
solomon
armor
organizational
tradem
bitco
##atorial
meredith
progression
visibly
generalizing
authorize
trey
distressed
ruiz
despises
##ooking
detective
sacrile
paltry
booker
lieuten
ahca
competitor
favoritism
establishes
lgtb
voila
collections
batch
archb
impacting
1300
maligned
martine
propagate
erratic
renaming
renaissance
apostates
developmental
500k
hangs
worships
constituted
1974
mccall
unpatri
canonization
caption
fortunes
ugliness
hinder
sarin
rubes
prints
fetched
forbidding
affirms
coddling
multipl
benny
gardens
cornerstone
joyful
triggers
dubya
concentrating
episcopate
diminution
declarations
uniformity
adjusting
unheard
nicar
##curities
##marked
insecurities
widows
##creen
adapted
gaze
quantities
ordinances
neurotic
cadillac
detection
aptly
absentee
enriched
deputies
unseen
deafening
buzzfeed
diabolical
notoriously
adversary
puzzling
pittance
wmds
undoing
exemplified
insinuate
infiltrated
isaac
reunion
surrogates
regretted
mcguire
ranchers
libtards
lodge
pioneer
##opedia
layla4
honda
embargo
automobiles
realtor
rapture
kofc
rouge
monopolies
unprotected
nfp
eskom
securities
gonz
vasect
nickname
kenneth
bemoan
elliott
seventy
inanimate
excitement
merchandise
chapters
goebbels
bahamas
fiduciary
immaturity
nonexistent
minuscule
unpatriotic
320
ace
bing
faint
gel
ick
lfs
mounting
nens
nuff
rf
tally
tilt
zucker
##uan
##iya
##cating
##aise
##gating
thail
##erk
##enable
##reet
rearing
iteration
forged
##ctive
chore
chard
heirs
##thought
weeping
shaping
lily
##uspect
abe
##uli
fries
butth
exert
##anders
##abalus
manure
amends
maver
envelop
closes
uphe
uplifting
displeas
disintegr
critters
blaine
adorable
##agm
resorted
acumen
yearn
counc
poetic
##into
precar
faked
goodies
quitting
demos
inducing
interl
##fell
embe
backtr
scant
impulsive
contests
##issy
elbow
talmud
props
##azis
runners
profited
minding
headlight
economical
educations
protectors
wax
orgs
cret
latte
latitude
turnover
sola
workings
##broken
hawks
ordeal
informal
burma
burgers
dipping
puritan
programme
arrivals
##atories
revoke
credited
puke
salient
eras
supremacism
queue
lightweight
deton
viral
ahm
actuality
hunch
wallow
25th
sickened
ridiculing
tenuous
oregonian
layman
temps
fascination
injure
battered
khad
weakening
reflections
pubescent
verification
dispers
blinds
dutifully
purposeful
##ligion
malhe
jungle
jeep
unsuspect
sensus
validly
1961
assistants
slowed
entries
panama
worshipers
stockholm
constitutions
incidental
jackie
recommending
captivity
dimensional
alec
##kyo
300k
narcotics
softball
pigment
tunn
acquiring
gutless
trailers
bleach
crumbs
cracked
emergence
skelet
champagne
vanished
constituent
unneeded
##daily
1933
surveyed
awarding
girly
adamant
neutrality
disregarded
climbed
inspirational
massacred
pumps
festering
lynd
coerce
discontent
unchanged
contestants
prudhoe
hughes
polarized
darned
mutilated
anecdotes
reservo
behaves
plotting
surrendered
grievous
cosmopol
evangelists
paganism
inspections
aspiring
scratching
intoxication
recycle
laudable
adversity
anthropology
discretionary
touting
windsor
koncerned
stubbornly
strangle
earthquakes
regrettable
commendable
lsuc
hodad
transgression
annihilation
cheerleaders
neocon
apprentices
shackles
overthrown
foisted
descriptive
monstrous
yazidis
francesco
maddow
glimpse
peacem
ankle
henderson
telescope
nypost
visceral
boogeyman
kupuna
ketchikan
disillusioned
helfrich
shibai
##enbaker
magdalene
impulses
unsurpr
ubiquitous
kumbaya
preliminary
certificates
indisputable
sebast
nenshi
thailand
displeasure
embezz
malheur
unsuspecting
bou
bav
bouch
bummer
cir
dens
fm
hhs
ike
kitz
kona
lid
lcc
l2g
mgt
nave
niche
qbs
ras
ranges
rivals
tiring
vos
witty
yuck
##cit
##foil
##mala
##pac
##bags
tokyo
iner
inhuman
##arin
##ariat
##icut
##otine
##acent
##igen
chores
trench
shines
shaky
liv
sues
fringes
##pell
##unking
uncr
##endiary
envel
energ
diseng
plaster
ada
righties
gru
grit
gram
##berries
intimately
overlords
incendiary
commuting
supplier
christine
indisc
attained
accol
accost
scul
afterlife
artillery
downtrod
##angeable
nothings
regs
flann
carlin
minisc
betterment
sme
slum
eli
elk
fargo
edm
islamophobe
banal
allowable
depicting
paxton
capp
untenable
profiles
requisite
massage
westboro
victimless
patric
changers
builder
excrement
soundly
bik
messaging
federalist
discusses
landf
streak
##tones
fatherhood
limbo
##ofblue
##aney
closeted
ernie
presentations
prevo
despots
roadways
waitress
penit
envir
pauline
##tax
##eseen
criticise
heavier
circa
filters
favorites
portrays
secretaries
coping
technic
apologise
unscr
wildrose
minimizing
heroine
prayerful
modeled
##ova
gangsters
emptying
villagers
favourable
speeds
maxine
piggy
45th
skyofblue
succeeds
familiarity
bellev
fella
smelling
##belt
infallibly
canceled
tabor
puppies
galatians
dodgers
glorifying
calculus
buster
elevation
elevator
anonymously
adept
resurrected
experimental
ellison
cheerful
##space
accompaniment
brainwash
arbitration
spraying
possessing
overdoses
patronage
loathsome
robberies
unchangeable
prudence
alignment
refresh
maureen
steward
battling
shellfish
carlos
novels
demeanor
gwb
theoretically
aziz
deposits
ascension
infringe
barrage
sibling
hedon
pesticide
wahhabism
undertaking
harvesting
cassandra
advertisement
piper
remedies
lungs
subordinates
baffling
annihilate
culprits
surroundings
fostering
funniest
deterioration
outsourcing
laicized
zombies
misinterpreted
pacifist
immersion
intermedi
glaciers
pontificating
urgency
kiszla
carpenter
forego
algeria
spawned
druze
headscarf
hambur
coordinator
gaudium
mischief
diefenbaker
guatemala
effeminate
pablum
deprivation
elagabalus
tunnels
downtrodden
miniscule
fc
fas
fda
gol
gassed
gaddafi
hk
hanc
jugg
kaw
licit
mop
mocks
pix
##ein
##iree
##crew
##yers
##gant
##gences
##green
##rick
##hist
##pit
##pens
##wi
##jd
##43
##41
##2c
##29
##erie
##atric
##orably
inalienable
##aru
beards
##leys
onward
stee
stove
hew
shave
liabilities
##usra
allerg
whoop
exotic
##ivility
justins
tak
trumpsters
evans
##acting
##ciously
##pture
craven
blade
imb
adl
adore
##herty
##plan
##uben
bry
brass
spurs
spawn
incensed
evenly
commuter
relocation
coached
compiled
qui
quid
quagm
mennon
menstru
##angu
payday
coron
liberate
##eworthy
vey
rooft
smashing
beforehand
discard
##standard
immater
edict
propping
##teenth
colonel
formid
cait
rae
profs
terminally
miscar
##yson
brett
redd
westminster
markers
##lington
##brand
barcel
##nec
dias
diaper
northeast
lows
fathered
stupidest
snaps
queers
criminalizing
calam
punches
babb
booked
circulated
eastman
varies
modernity
##shir
pollut
turtle
url
exec
amounted
thirdly
designate
connecticut
extrad
wearers
performs
disputing
contracting
unspeak
nutters
renounced
methane
condemnations
comparatively
recalling
honorary
burnaby
egomaniac
##iarity
contacting
colonized
strengthened
migrate
floats
presuming
##aterally
berry
greeley
uncivilized
osu
cubans
emergencies
alienation
towing
tricked
halle
negotiators
louise
ramming
gravel
massey
sullied
lunches
kisses
emerges
tighter
inquiries
nicene
mansions
updates
reckoning
gallons
inaugural
paraly
sophistry
ventures
clicked
inexplic
lucifer
ordinatio
assignments
seduced
pseudonym
bashed
beholder
sequim
1920s
deaconate
enrichment
upgrades
explosives
wrecked
trivialize
incomprehensible
tampering
privatization
wyatt
jenner
picnic
anthropogenic
fidelium
gibbons
coghill
mysteries
tinfoil
precinct
abbas
hydrocar
comedians
repudiate
hardships
gabby
trespassing
islamaphobic
nuggets
pegged
dmv
undeniably
rednecks
annexation
lingering
tdsb
thirsty
repetition
loonie
complacency
afrika
inbred
weigel
excerpts
adjacent
unilaterally
scrambling
cohesion
ecosystems
fukumoto
unicorns
squirrel
##4b0
stigmat
tunisia
horton
concocted
agitators
samoan
aluminum
geopolitical
##ierrez
avalanche
bacteria
##otherapy
incapacitated
honduras
ordinariate
algebra
yugoslav
preseason
envelope
bellevue
immaterial
4j
aversion
bows
bbl
crem
cyp
calf
dess
gail
gabe
gavin
ied
jd
jus
kw
licking
malf
muted
nudge
ousted
pk
rim
rend
riled
sier
tfw
voris
wto
##eus
##sky
##top
##cases
##mills
##von
##aton
##onians
ingen
anders
##arital
whiff
##idi
prere
prav
stint
stained
##imating
churn
chaff
##chal
trite
trending
shab
shapes
shannon
seaw
allege
##auer
##osanct
unres
donkeys
taj
##ardly
plunder
loos
looney
residing
##ichrist
sheik
brake
brats
brunt
incited
pervers
perennial
drif
pref
cooks
##ourt
quar
chrys
persian
wrench
decorate
tert
twaddle
payoff
socioe
courteous
longstanding
mediter
registering
carly
basin
minerals
##ava
##avid
slides
substandard
monty
monothe
freebies
americanism
cheater
colfax
pax
rake
ww1
educator
selfless
retwe
pretentious
##onto
marrus
redevelop
solo
##eterm
patting
legalism
##bron
##park
ordinations
purer
puritans
awash
##coll
litany
airbn
eroded
debil
psal
trustee
sacrosanct
126
tarmac
birthright
railing
circulation
medicinal
trojan
bullpen
tenured
pictured
##comm
heyer
robotic
booed
volcan
institutes
subsidiarity
dismayed
seeker
squads
garycrum
publishers
consisting
907
omit
##character
escapes
dumbing
clerks
platonic
ticked
rigs
laborers
prosecutions
prejudicial
philosopher
impecc
danish
danny
sponsoring
bowling
cracking
adventures
hijacking
populists
vanish
rotting
stonew
cupc
kneelers
neutered
idealistic
bravely
sprawl
swedes
spoil
culpa
busting
tighten
olive
distinctive
inequalities
banging
conforming
imperialist
distinguishing
##break
iconoc
##ullah
stomp
humiliate
ponzi
tackling
grandfathers
polarizing
fueling
inhabited
blasphemous
presbyters
counterpart
vince
laudato
barrack
confiscate
charisma
stevenson
nauseum
mysteriously
squeezed
authoritarians
stifling
obstructing
scorned
overlooking
proverbs
repudiated
kahn
grooming
encyclicals
hatchet
chromosome
lurking
sleeve
cranky
chronically
pivot
unavoid
engendered
monogamy
exonerated
ostracized
anomaly
redistribute
cambodia
garrison
crocod
landowners
tropical
mundane
handshake
bickering
priebus
coupeville
martinez
nicaragua
cosmopolitan
quagmire
formidable
barcelona
mediterranean
3d
auction
bere
ck
cbr
duce
eul
fable
gins
gees
gird
mam
munch
nure
rolo
wif
wend
wailing
##sc
##uance
##mob
##rob
##robe
##his
##vie
##vited
##jv
##65
thai
theses
##atim
##onaut
##enews
tod
inund
whipped
##entive
##aco
prizes
stu
hauled
asph
heco
heaped
tray
orn
wastes
canoe
allocate
fru
##gel
alway
peach
peeing
leans
worris
unoff
amal
amster
outline
maoli
##udence
enam
upt
evan
ado
adversely
grieve
##ishly
teat
counters
polem
whitewash
reliably
relinqu
coats
appal
compounded
underrepresented
preside
demo
serbia
emission
emasc
backside
realised
strips
strokes
recal
scound
impug
assisi
sinless
##ordinate
contrition
2080
##ighth
##beam
flats
bogey
genie
genuf
hoa
hover
hoff
slums
farr
##ussion
##ounces
##rium
viii
billed
watts
joly
behest
violators
allowances
##opsy
memes
terrorizing
cairo
profanity
pleaded
judy
entice
gunning
waits
##plaining
##gyn
patent
##prom
unfor
practising
leveled
begged
fairer
commonality
merri
##strong
qualms
salman
motel
innumer
checkers
115
accomod
pathology
competit
beyak
romance
turban
brainless
peta
shuts
straights
premed
mandarin
garland
maduro
fatigue
titanic
eyebr
sanctified
outrageously
toughest
corey
1987
disrespects
uhh
prohibitive
splits
strengthening
migrated
conditional
synonyms
imploding
janitor
floated
curiously
speedy
visionary
barefoot
gutierrez
remarked
ssm
clothe
clothed
cubic
1942
##posts
therm
handedly
dublin
owl
quarterbacks
certification
preceding
indoors
conquering
contemptible
impressionable
vaccination
updating
rebuilt
##borne
vetoed
hormonal
ummmm
bradley
outsider77
contemplation
outlawing
aptitude
diseased
1927
exhausting
greeted
upgraded
architects
corpus
vitriolic
complimentary
lenient
handicap
burqas
adversarial
confiscation
mackinnon
lazarus
pronouncement
unleash
firefighter
exceedingly
kelley
destabilize
cronyism
actresses
belittled
transplants
homogenous
enraged
summarize
exorc
immersed
haley
czech
##organized
heresies
adjudicated
swaths
armenian
scandinavian
nonviolent
scattered
reciprocal
interchangeable
monastery
caregivers
excoriate
naughty
apollinaire
##ulterated
electronics
blunders
preexist
assuage
napoleon
underscores
gastrulation
irreversible
bitcoin
lieutenant
precarious
bikini
sierra
pravda
worrisome
aip
aaa
bmo
cic
cind
faded
midd
meryl
nj
pid
pans
png
sown
saga
ti
tch
tug
tamm
vip
za
##eas
##tons
##lene
##father
##kies
##god
##girl
##riel
##hots
##pri
##31
##best
toting
whitt
receptive
##utz
forge
##idt
prp
stoking
stumble
##imo
##olon
ascer
chanted
##isty
##ths
ort
wasps
sof
soaked
hast
unproductive
##endom
agony
##ocations
tapping
crust
crave
grudge
acute
overview
incrim
incivility
coleman
supposition
complying
##groom
factored
decap
twins
foaming
payed
defl
afterall
elects
##conn
thrives
##belly
carey
##issa
legions
simone
huma
refs
refutes
refuting
smoker
mentors
clement
subt
subvers
chargers
showcase
illusions
##azeer
terrain
glib
antichrist
##redo
populate
transsexual
restart
depiction
caff
milbank
irredeem
api
##ckers
murd
skipping
growers
armaged
armstrong
purview
equiv
facade
testifying
##inski
damasc
snob
##orrh
saliv
inflame
despotic
pengu
tarred
##army
fourteen
variant
filtered
periodically
cleanse
geoff
collects
offerings
extrav
malar
malcon
ensue
hostages
secularists
counterpoint
minimized
grader
homeschool
bernad
bearer
consisted
circums
packages
jacked
tablets
fluent
villains
centralized
settles
perpetrate
salvage
rubbing
eighty
inferring
satisfactory
cashing
complied
crackdown
prostate
heterosexuality
drafting
toxicity
buckle
buckley
rainbows
quarterly
verbiage
magnet
instructors
demeans
##roads
memberships
incentiv
retains
diagnostic
frighten
sunnis
pinch
seminarian
cheerfully
loneliness
ineffect
transitioning
delegitim
boycotting
festing
rhym
##oshi
psychopathy
pono
skeptics
mitigating
pizzagate
indulgences
facilitated
julius
relaxed
tirelessly
tango
ghosts
beasts
misrepresenting
schismatic
disproven
puzzle
sprinkling
alexandre
complementary
blathering
squatters
ahhhh
ceremonial
categorically
yanks
sandwiches
chalice
abyss
kosovo
crippling
encompasses
conspic
paddock
prairies
vapid
announces
nonprofits
ngos
backstab
cohesive
vandalized
reinstated
consortium
mchale
astronomical
mistrust
flippant
lgbts
unforgivable
hillbilly
crybaby
friggin
perez
florence
invective
servicemen
mokant
furthering
imbeciles
amusement
unwittingly
sacerdotalis
megalomaniac
vertical
kakaako
prowess
spenard
gypsies
immodest
combustion
kieran
walsh
unadulterated
ahmad
unspeakable
airbnb
amsterdam
appalach
innumerable
competitiveness
##azeera
bots
bumbling
cud
dah
eons
fow
fitt
fagg
ged
gian
gases
hank
kine
kai
lops
mw
mint
osh
ply
rie
riff
raining
ropes
rags
rammed
roland
samm
sights
tanc
tipped
tidal
vod
viz
wad
wob
wits
##iks
##culture
##fb
##drop
##drew
##kar
##rise
##voked
##51
##67
thay
##inian
##oric
##iteracy
##ref
##requ
reapp
##owe
##idences
##igent
##verment
##imen
##impl
asbest
##illes
withdrew
goers
##esters
socr
frothing
##terior
exal
exeg
##odle
##oday
progen
leaps
unending
unites
unapp
unamerican
womans
uphill
evicted
crotch
plaza
imitation
imitate
loons
adfg
##eled
shea
pols
brace
brides
needn
##ogged
incub
poking
poker
repaired
feathers
preening
faa
relocated
undevelop
underwr
underbelly
demagogues
emulating
backroom
decon
foes
scammers
parading
sociological
corb
carp
hoop
hoover
insular
slid
slashing
fares
##itsky
watering
monks
studio
chefs
transient
numb
kidney
nonst
socialistic
depress
bestowed
immigrating
servitude
termed
religionists
nationalistic
retort
latent
ignoramus
pats
##prot
capac
caplan
unfavor
swap
totals
individualism
metals
bitumen
equities
testicles
reviled
visibility
superpower
##ointed
erred
walkers
domino
germ
roadbl
symbi
demonization
sorted
purports
financi
##cla
hyund
geo
freud
racialized
copying
appropriations
apologizes
promotions
combining
commanders
bordering
countered
fatally
##eshiro
appreciating
##ersonal
touchy
##worked
dreamer
nominally
flyer
replacements
beginnings
derives
escap
hanged
sweats
youthful
empowers
egw
yorker
infraction
dependents
charleston
baptised
prohibitions
ratios
##2017
twitler
##haber
angelo
inquiring
samples
sampling
masterpiece
infert
naivete
macro
maciel
estimation
collegiality
manifests
wwiii
harbour
##izzy
unhapp
millennium
325
tightening
oversimpl
analyzed
bitterly
arbiter
interactive
insect
transitional
##ooooo
festivals
tempting
oppresses
stomping
rodr
podcast
subscriber
##ahahahahahahahah
incorporation
detectors
assuredly
1922
mounted
craziness
wireless
eagles
parasitic
shedding
proxies
crawling
blasting
muhammed
unprovoked
kalihi
lauded
disproved
mushrooms
flourishing
obfuscate
gerrymandered
birtherism
nitp
kaneshiro
procreat
zimmer
lsd
outnumbered
adjectives
uncontroll
victorian
fostered
solicit
clutching
jargon
outsourced
pirates
sunglasses
outweighs
yakabus
maniacs
hymn
glacier
nebulous
##sheet
bozo
bounty
residences
reimbursement
feudal
indiscriminate
pampered
grifter
handcuff
unknowingly
enquirer
suzuki
screeching
satirical
misbeh
unsettling
backpack
inebriated
cavalier
upstairs
pediatric
lounge
impropriety
mosquito
python
kailua
gymnastics
unfriendly
harsher
mccallum
sebastian
kitzhaber
mgtow
smelly
hallelu
socioeconomic
psalms
crocodile
ascertain
tancredo
asbestos
exegesis
undeveloped
hyundai
yakabuski
3x
4x
ail
bender
binge
dann
gander
hene
jama
kather
nana
nannies
pist
pfe
pug
pne
sag
sizable
tp
ttc
vamp
wan
##eight
##uery
##ieth
##tics
##cd
##live
##fires
##olling
##yton
##xk
##xy
##ram
##ria
##pre
##💥🔥
##39
##bat
##wild
##zs
##zel
##jour
##onge
topless
inel
##lless
ismail
whiner
rept
##ldon
prope
##igators
havens
asunder
chanc
trost
##thia
shawn
##kees
alluded
##ulence
fridge
##usters
levers
leasing
##pelling
##osures
justly
agon
tags
enum
clamp
trumpery
disbar
lofty
##aghet
polo
tehr
pocho
relish
cov
mayoral
compounding
underwater
lawns
lawbre
specially
serb
emma
##tyeight
idols
kee
keillor
contrav
meddle
thrill
thrived
oprah
##bec
carb
boiler
smiled
slain
slush
edges
philly
propane
subaru
billary
illiberal
illiteracy
glue
glowing
choking
##ervative
humanistic
concord
haram
businessinsider
studded
curial
numbing
majesty
formulate
differential
planets
##ypse
completing
soulless
brewing
latv
watchdog
wales
avid
swind
singers
##neys
fuller
##apple
trader
drugged
revital
firemen
snack
airstri
encl
salaried
erode
labs
stephan
grease
hurl
norman
##quez
sanitation
separatist
jailing
temerity
alleging
preventive
embro
strait
scripted
appropriating
138
mali
dailycall
errant
subsidiary
fivethir
marginally
alias
goalie
broadc
240
flyers
dissu
dissing
displacing
occupiers
stockp
scrupulous
incompetents
##ahahaha
mccl
motivator
guarding
dumps
environmentalist
luis
rubble
philosophers
proclivities
overtaken
angelic
gutted
bonding
televised
coded
carte
warmed
osweiler
exempted
weighted
1946
resolving
towel
buffett
buffoons
brighter
scarves
##gsy
##cipher
fingerprint
stationed
scheming
pitchfor
vigorous
spoils
saddens
hints
lectured
applauding
##uchin
spiteful
unjustified
levied
exclusionary
innovations
calmly
thieving
rogoff
##udgeon
tacky
tripled
chatting
microphone
vandals
seventies
inconsistency
azte
shambles
aggrieved
vagr
eradication
carnival
curtailed
rudeness
abducted
lori
incumbents
grinding
lamont
triumphal
boutique
surfaced
regrettably
austrian
wacky
geographical
cultivate
sensationalism
fertilizer
bluntly
unequivocal
vapor
subdue
pentecostal
sleeves
livelihoods
microsc
fractured
##▀▀▀▀▀▀▀▀
refriger
eloquently
indiscriminately
cowering
pioneers
preconceived
dogmatically
perplexed
lieberals
tranqu
epithets
acolytes
cocktail
chenault
flimsy
underpinning
intransigence
unrestricted
tfws
wasserman
meteor
vasectomy
icky
upheaval
unsurprising
accolades
hancock
steele
asphalt
preexisting
damascus
henein
katherine
tehran
dailycaller
fivethirtyeight
bho
colog
eighth
fou
fidd
fiddle
fiance
gild
gyn
h1
icing
jett
jansen
ks
lub
lace
lug
mog
ranc
rene
ruff
riel
tc
ticking
vangu
warts
##uaries
##cence
##master
##gled
##rod
##ros
##vp
##vals
##wd
##wink
##zen
##jk
##02
##qs
##enlight
##inged
##alypse
inordinate
##icially
##iculous
##asaki
reaping
rethinking
itching
forrest
prive
##urious
stds
stym
chave
##cht
##chen
dove
livable
seizing
##uman
combo
abomin
exiting
proz
noel
unbe
unused
unru
meyers
##ieu
##ieg
agitated
envious
clicking
trumpkins
upright
disarr
cres
blip
pls
pluck
imf
resounding
brim
spaghet
sahar
compose
compulsion
christendom
##soon
governorship
serbs
serfs
impede
impetus
assorted
syph
corker
artwork
thrice
matsu
fluct
infirm
infrequ
refere
smarmy
hoor
slang
imman
phob
islamophobes
subversion
chartered
provable
provocate
##asket
freezer
wrongfully
standoff
etf
runway
chee
costa
cultic
milton
headache
##rection
pasted
apes
misappropri
retards
prominently
grouping
skins
trudeaus
patsy
critiques
barak
armored
programmers
situational
##rimp
steuben
fallacious
snapped
professes
stronghold
ethi
imagery
distances
predest
30k
apparitions
simpleton
lololol
ahmed
pathways
circling
grandi
psychic
varieties
delaware
maggie
separatists
attrition
traveler
laypeople
connor
execs
injuring
embark
tolerating
piet
straighten
hotbed
sandals
ensuing
executing
propagated
nutcase
goldwater
attendants
audited
angles
laughably
modeling
dissolved
doctorate
professionalism
blowback
unbear
jackass
overwhelm
resigning
assertive
##drick
ottav
cruising
unemployable
bleak
emphatically
jihadis
1941
simplified
galax
disparities
blankets
analogies
mongers
transforming
hyde
vaccinations
diagnoses
bumped
neglecting
wrecking
jordanian
moonbeam
pewresearch
stirred
krish
benchmark
parishioner
chatter
sinker
indulgence
anticipation
taco
ferr
invalidate
mateen
beheadings
disobedient
toothless
surgeons
ibm
samaria
transmitted
diverted
mismanaged
commodities
lebanese
sobri
wannab
wagons
wagging
presbyterians
precurs
thumpers
polynesians
gabriel
fervor
fervently
dylann
cisgender
ribs
cripple
crippled
laptops
lodging
filipinos
covet
resettle
chaplains
untouched
mcdavid
stabilize
eloquent
muzzle
fomenting
sidelined
estrogen
charlatans
dicaster
bettman
limelight
unintelligent
dennism
faustina
jjp58
contagious
rachael
corollary
waipahu
unscrupulous
miscarriages
yugoslavia
impeccable
unavoidable
fruition
amalg
armageddon
lopsided
capacities
cologne
vanguard
chavez
disarray
steubenville
2c
2m
420
aet
aired
bong
boko
dante
ful
gan
hd
hussen
kel
kooks
nh
oecd
pps
pots
pitting
pamph
rile
sipping
siph
tg
vick
vogue
wie
wards
yᴏᴜ
zil
ɪɴ
ɴᴇᴇ
ʙʏ
ʜᴏᴍᴇ
ғᴏ
ᴀᴛ
ᴜᴘ
##tp
##cated
##cogn
##lb
##dly
##not
##kic
##kot
##zos
##72
##qa
##ɴᴇ
##ʟʏ
##ᴛᴇ
thur
thiel
##eres
##erile
##ateness
##orient
##arium
##otion
##sty
noteworthy
stur
chained
chester
##istingu
conman
goverment
dej
deline
##umed
##umbo
cancers
frost
alf
##osive
mann
mania
unthinking
justifiably
##iels
##ifs
usern
##enda
outlier
outfits
energies
acorn
sheldon
tepid
bram
broth
oversh
overhe
sah
pov
poet
##assoc
timeless
whitewater
gooders
cohn
wayward
chryst
taxis
menstr
twil
foe
toole
assuring
pars
parse
cornell
##ocracies
liberally
flakes
simmons
boiled
##rov
postal
slips
slashed
##ussed
vikings
monitors
banish
wronged
##egreg
studs
chev
capped
raids
denby
mindlessly
pasture
passively
gunfire
wai
homem
mischaracter
housework
##rule
10m
solace
generator
seniority
thankless
barrett
swat
##istered
estates
individuality
destruct
bitches
streaming
legislating
convicts
testim
steered
severed
peacekeeping
authorization
airbus
puerile
accords
femininity
debunking
devised
logistics
recognised
babbling
multim
##overt
replaces
demonic
circulating
hypocritically
delinqu
##clair
welch
capitalized
kingston
template
interpersonal
archie
blinding
##iiii
instituting
bottled
madrid
2100
cabbie
aborting
sixteen
broaddrick
sanctify
mortar
sunlight
dedicate
scraping
kicker
machinations
sisterhood
obligatory
methodists
colonists
conspiring
manipulator
ashley
textbooks
dinardo
confrontations
bleating
attribution
stalk
excessively
retrospect
empathetic
joys
cancellation
verbatim
magnitsky
wiliki
sherman
1953
loyalties
tsx
forestry
stamped
jurispr
junkie
analyzing
##101
astounded
assimilating
reefer
exhibition
denigration
gestation
predominant
kitchens
lyft
technicality
confessing
patronize
metaphors
exaggerating
descendant
rioters
yields
intersex
facilitating
lindsey
1929
echoes
cathedrals
pairs
pearls
evangelize
boldly
maimane
##aphrod
inconsistencies
theorist
mismatch
arguable
coordination
chastise
chastised
helplessly
metaphorical
unlawfully
astonished
wyden
friendships
procreate
interrupting
encyclopedia
sprinklers
devotions
liners
linear
heathens
partnerships
admonition
apocalypse
##eteenth
hudson
bartender
cursory
lifespan
groomed
lepanto
strangled
chopping
kristof
misconceptions
resonates
panhandlers
militarism
encompassing
exacerbate
grenades
entrepreneurship
hermaphrod
trampling
renovations
bystander
enrol
penetrate
##bodies
embodiment
pilgrims
nostalgic
inbreed
interrogation
announcer
vineyard
propagandist
wimpy
laurent
##udgingly
bicyclist
wiretapping
fraternal
fraternity
charlatan
##ᴏᴜʀ
scrutinized
kleptocracy
trudope
unambiguous
emmett
tirade
precautions
antonio
angrily
unsavory
baghdad
dixiecrats
nashville
antifluoridationists
sᴛᴀ
ᴛʜᴇ
filibuster
hashtag
crutch
omniscient
maverick
edmund
allergic
girdwood
merriam
vodka
corbyn
zimmerman
jettison
unruly
creswell
spaghetti
grandiose
ɴᴇᴇᴅ
##ᴛᴇʀ
5k
5b
aog
bach
bounce
cah
ceta
dine
fift
glean
jingo
moth
ooz
ooh
pus
pounding
saps
tarr
uw
ucla
wally
xt
##catch
##aul
##lif
##lined
##oin
##nik
##kt
##game
##rds
##hart
##band
##blem
##worm
##atters
##itum
##itenews
##icy
##omi
beet
##enting
rearr
##stra
##idav
nothin
stam
stoke
choked
chlor
##that
decipher
seper
seething
##estine
##iliated
allergies
soar
##ppy
peyton
##abbling
willed
hasten
megyn
##ifac
donates
upfront
eva
blad
blith
plow
grub
herds
polices
intending
partying
##ogl
saus
poisons
cox
undec
undef
quack
##ileen
speck
marking
##ucive
embell
ids
nevermind
decreed
lett
remake
paramed
commentaries
schoo
desegreg
##being
liberating
caret
boon
boobs
mohawk
humid
genre
insol
insulated
inserting
discounts
slandering
edible
##pshire
##wee
expir
monastic
antid
banners
hardline
nonp
depict
secede
conservat
##ella
conducive
affidav
waa
classless
misn
souza
ohh
victimize
##eee
patkot
##retions
##promp
francophone
biography
barker
organisms
lowers
2000s
facets
##akea
revamp
revived
merger
superman
negates
snub
snuck
birming
accorded
salutes
blameless
colleen
distancing
##forth
cali
originating
placate
111
##quel
opportunists
princet
torment
harmon
psychos
autobi
taxpaying
quebeckers
modernize
##shev
tenor
layton
shuttle
tolerates
appliances
booking
arche
disposs
pedantic
1776
evangelist
vacancies
garcia
dismay
##ycat
renowned
protectionist
noticeable
rebate
alberts
905
fortnight
burner
occupies
packaging
gangster
##ahaha
clarke
trashy
unrecogn
purses
captures
ratified
musician
kimmel
substantiation
pigeon
dignitatis
inquire
suckered
pillow
inferred
telev
telepromp
uneasy
destinations
halted
graveyard
conclusively
oversee
overseeing
rantings
stresses
breadth
glorification
adamantly
evaluations
##writer
septic
detailing
bailing
hampshire
revolves
sneering
bolshev
sentimental
pledges
admiral
meggsy
launder
unmask
smeared
obstructionism
bulbs
appeasing
rodney
motleycrew
assigning
src
spouted
aligning
neurological
taller
corrosive
shielded
tribune
yielded
intersectional
sequence
chamberl
distinguishes
ipso
delightful
vegetable
reluctantly
emanating
cautionary
samaritans
wmc
garnered
scapegoating
nauseam
rugby
mccarthyism
imbalances
obsessing
hauling
orchard
amateurs
horizont
unaffiliated
glaringly
jeopardize
repudiation
lifesitenews
supplemental
mjm
dispensation
epitom
rabbits
boreal
horde
gulag
funnier
subdiv
lcbo
misinterpretation
dehumanizing
##through
beverly
rescinded
promiscuous
displacement
nonviolence
lapdogs
monasteries
ooops
omnipotent
vaughn
vaughan
aunts
altruistic
succinctly
kobach
rattling
gnostic
hikers
gentrification
nudity
shrieking
resilient
volatile
splendor
mercenaries
coexist
magaphants
balkissoon
krook
discrepancy
ejected
oberge
keynes
bolles
demagoguery
genuflect
##priests
irredeemable
murdoch
hallelujah
pneum
saharan
immanent
unbearable
zilch
twilight
schooly
patkotak
birmingham
teleprompter
2a
auss
bt
bert
bama
ceded
dast
efc
fists
gies
gsa
hue
hugg
ig
kadr
lout
ove
pows
piled
rums
rinos
tones
vj
vood
vaun
wb
wires
wien
wimp
yall
##uva
##tont
##court
##lib
##laim
##fest
##kr
##koch
##xually
##hoo
##pal
##vall
##js
##79
##62
thedonald
##once
##enf
##oust
##aline
inh
##omatic
reiterate
reorgan
##ady
##adic
##urate
nots
stfu
hare
haves
chan
chime
charters
##illard
shaken
shorth
conjug
concession
##uming
comers
suu
##ulin
aloud
pelican
nox
unatt
uninterested
##anson
clues
##ciating
knot
disple
disrep
disinterested
##ongru
cramp
crescent
blanche
plumber
adren
adulation
##ffff
spes
spider
spades
incongru
##assment
unde
newark
append
guff
guitar
##olicy
afn
afoot
wellness
wellbeing
indistingu
##lectic
serpent
eminently
factcheck
twists
impot
assholes
buchan
##ilyn
publicize
fla
flunk
carve
rox
boe
moaning
##ugh
minut
hoe
hoist
slinging
sloven
eds
phyll
startling
expropri
continents
cures
nonwh
collisions
colkoch
formulated
privates
servicing
signers
campers
10x
latina
curran
directs
orderly
generators
critiqu
opinionated
candles
prays
10000
convent
receivers
stefan
administering
erud
corrupting
hitter
deviation
birthrate
objectification
unionists
versed
portable
washingtont
40k
demonstrable
freeman
fascinated
holmes
copyr
designers
batman
hatreds
scriptura
extracted
archae
intract
volt
skinheads
1775
##ligious
malt
greener
greenpeace
squander
seaton
eyeballs
irref
unwashed
unwaver
escorted
hospitalized
drinkers
clara
boxer
bankrupted
reacts
roundup
##zek
dumpty
catcher
jimbo
sizeable
entertainer
230
232
weaponized
plantations
theologies
wynn
disappearance
acquainted
emailed
ssa
bureaucracies
adoptions
stalker
munich
retrof
triggering
webpage
jurors
stemming
xenophobe
transparently
thermal
shirley
beatings
ramps
wilfully
thirties
precedents
disparate
disparaged
1957
pitches
hilo
resurgence
weeding
scheduling
nicotine
stampede
watershed
impract
rebuked
reckon
prophes
coincide
gallup
widen
brazeau
depriving
amenities
boycot
clouded
crucify
mallott
pulitzer
inventions
oppressor
coerc
stomped
rumours
championing
correlated
1860
superstitions
dolt
expendable
interferes
carlisle
hornets
heightened
theorists
unsec
albertan
modestly
revisionism
paraphrasing
douglass
rusty
baldwin
affliction
cassidy
admonished
cbsnews
nineteenth
hemorrh
disqualifies
yankees
ascribed
supervisors
shrugged
cultivated
stalls
disavowed
entrepreneurial
mourning
cheerleading
clutch
lackey
legendary
chauvinist
desecration
pacifism
nigerian
frowned
twentieth
detestable
bungled
scolding
propagandists
scrapped
waldorf
positives
butchered
yazidi
##hydr
proselytizing
predisposed
surpassed
grifters
flavour
disband
facetious
mingle
dystopian
overflowing
permeates
dancers
##mongering
treachery
nexus
extingu
tomatoes
unimaginable
conglom
gobbled
vdare
krauth
trademark
penitent
afrikaans
##etermined
[...]
