{
  "version": "1.0",
  "truncation": null,
  "padding": null,
  "added_tokens": [
    {
      "id": 0,
      "content": "[PAD]",
      "single_word": false,
      "lstrip": false,
      "rstrip": false,
      "normalized": false,
      "special": true
    },
    {
      "id": 1,
      "content": "[UNK]",
      "single_word": false,
      "lstrip": false,
      "rstrip": false,
      "normalized": false,
      "special": true
    },
    {
      "id": 2,
      "content": "[CLS]",
      "single_word": false,
      "lstrip": false,
      "rstrip": false,
      "normalized": false,
      "special": true
    },
    {
      "id": 3,
      "content": "[SEP]",
      "single_word": false,
      "lstrip": false,
      "rstrip": false,
      "normalized": false,
      "special": true
    },
    {
      "id": 4,
      "content": "[MASK]",
      "single_word": false,
      "lstrip": false,
      "rstrip": false,
      "normalized": false,
      "special": true
    }
  ],
  "normalizer": {
    "type": "BertNormalizer",
    "clean_text": true,
    "handle_chinese_chars": true,
    "strip_accents": null,
    "lowercase": true
  },
  "pre_tokenizer": {
    "type": "BertPreTokenizer"
  },
  "post_processor": {
    "type": "TemplateProcessing",
    "single": [
      {
        "SpecialToken": {
          "id": "[CLS]",
          "type_id": 0
        }
      },
      {
        "Sequence": {
          "id": "A",
          "type_id": 0
        }
      },
      {
        "SpecialToken": {
          "id": "[SEP]",
          "type_id": 0
        }
      }
    ],
    "pair": [
      {
        "SpecialToken": {
          "id": "[CLS]",
          "type_id": 0
        }
      },
      {
        "Sequence": {
          "id": "A",
          "type_id": 0
        }
      },
      {
        "SpecialToken": {
          "id": "[SEP]",
          "type_id": 0
        }
      },
      {
        "Sequence": {
          "id": "B",
          "type_id": 1
        }
      },
      {
        "SpecialToken": {
          "id": "[SEP]",
          "type_id": 1
        }
      }
    ],
    "special_tokens": {
      "[CLS]": {
        "id": "[CLS]",
        "ids": [
          2
        ],
        "tokens": [
          "[CLS]"
        ]
      },
      "[SEP]": {
        "id": "[SEP]",
        "ids": [
          3
        ],
        "tokens": [
          "[SEP]"
        ]
      }
    }
  },
  "decoder": {
    "type": "WordPiece",
    "prefix": "##",
    "cleanup": true
  },
  "model": {
    "type": "WordPiece",
    "unk_token": "[UNK]",
    "continuing_subword_prefix": "##",
    "max_input_chars_per_word": 100,
    "vocab": {
      "[PAD]": 0,
      "[UNK]": 1,
      "[CLS]": 2,
      "[SEP]": 3,
      "[MASK]": 4,
      "!": 5,
      "\"": 6,
      "#": 7,
      "$": 8,
      "%": 9,
      "&": 10,
      "'": 11,
      "(": 12,
      ")": 13,
      "*": 14,
      "+": 15,
      ",": 16,
      "-": 17,
      ".": 18,
      "/": 19,
      "0": 20,
      "1": 21,
      "2": 22,
      "3": 23,
      "4": 24,
      "5": 25,
      "6": 26,
      "7": 27,
      "8": 28,
      "9": 29,
      ":": 30,
      ";": 31,
      "<": 32,
      "=": 33,
      ">": 34,
      "?": 35,
      "@": 36,
      "[": 37,
      "\\": 38,
      "]": 39,
      "_": 40,
      "`": 41,
      "a": 42,
      "b": 43,
      "c": 44,
      "d": 45,
      "e": 46,
      "f": 47,
      "g": 48,
      "h": 49,
      "i": 50,
      "j": 51,
      "k": 52,
      "l": 53,
      "m": 54,
      "n": 55,
      "o": 56,
      "p": 57,
      "q": 58,
      "r": 59,
      "s": 60,
      "t": 61,
      "u": 62,
      "v": 63,
      "w": 64,
      "x": 65,
      "y": 66,
      "z": 67,
      "{": 68,
      "~": 69,
      "¡": 70,
      "£": 71,
      "¤": 72,
      "¦": 73,
      "¨": 74,
      "«": 75,
      "®": 76,
      "°": 77,
      "º": 78,
      "œ": 79,
      "α": 80,
      "β": 81,
      "γ": 82,
      "δ": 83,
      "ε": 84,
      "ζ": 85,
      "η": 86,
      "ι": 87,
      "σ": 88,
      "υ": 89,
      "ω": 90,
      "х": 91,
      "—": 92,
      "’": 93,
      "“": 94,
      "”": 95,
      "‡": 96,
      "…": 97,
      "‰": 98,
      "€": 99,
      "##r": 100,
      "##u": 101,
      "##t": 102,
      "##e": 103,
      "##0": 104,
      "##5": 105,
      "##s": 106,
      "##o": 107,
      "##m": 108,
      "##a": 109,
      "##i": 110,
      "##l": 111,
      "##y": 112,
      "##b": 113,
      "##x": 114,
      "##7": 115,
      "##1": 116,
      "##n": 117,
      "##9": 118,
      "##g": 119,
      "##d": 120,
      "##w": 121,
      "##p": 122,
      "##q": 123,
      "##c": 124,
      "##h": 125,
      "##z": 126,
      "##k": 127,
      "##v": 128,
      "##3": 129,
      "##4": 130,
      "##f": 131,
      "##2": 132,
      "##j": 133,
      "##6": 134,
      "##8": 135,
      "##œ": 136,
      "##°": 137,
      "th": 138,
      "the": 139,
      "##er": 140,
      "##in": 141,
      "##at": 142,
      "##es": 143,
      "##on": 144,
      "##en": 145,
      "##or": 146,
      "##ed": 147,
      "##ou": 148,
      "##nd": 149,
      "##an": 150,
      "##ing": 151,
      "to": 152,
      "##al": 153,
      "of": 154,
      "##re": 155,
      "in": 156,
      "##it": 157,
      "##ar": 158,
      "and": 159,
      "##as": 160,
      "##is": 161,
      "##ic": 162,
      "##om": 163,
      "##ion": 164,
      "##le": 165,
      "##ent": 166,
      "##ll": 167,
      "be": 168,
      "it": 169,
      "re": 170,
      "##ot": 171,
      "##ly": 172,
      "##ve": 173,
      "is": 174,
      "##st": 175,
      "that": 176,
      "##ow": 177,
      "##ut": 178,
      "on": 179,
      "you": 180,
      "##id": 181,
      "st": 182,
      "##et": 183,
      "##ct": 184,
      "ha": 185,
      "wh": 186,
      "for": 187,
      "##se": 188,
      "##ur": 189,
      "pr": 190,
      "##ld": 191,
      "##ay": 192,
      "##ver": 193,
      "##ch": 194,
      "was": 195,
      "##ce": 196,
      "##ig": 197,
      "an": 198,
      "##ir": 199,
      "he": 200,
      "we": 201,
      "##im": 202,
      "##ation": 203,
      "##am": 204,
      "##th": 205,
      "are": 206,
      "##ad": 207,
      "##ol": 208,
      "as": 209,
      "##ith": 210,
      "not": 211,
      "sh": 212,
      "##ter": 213,
      "##op": 214,
      "##il": 215,
      "they": 216,
      "with": 217,
      "ne": 218,
      "##ess": 219,
      "de": 220,
      "##est": 221,
      "##od": 222,
      "se": 223,
      "##ke": 224,
      "con": 225,
      "##ill": 226,
      "##ers": 227,
      "##ment": 228,
      "fr": 229,
      "do": 230,
      "have": 231,
      "##ere": 232,
      "##ul": 233,
      "at": 234,
      "ch": 235,
      "com": 236,
      "go": 237,
      "##ould": 238,
      "or": 239,
      "su": 240,
      "##ate": 241,
      "##igh": 242,
      "##ant": 243,
      "##ain": 244,
      "##ge": 245,
      "li": 246,
      "pro": 247,
      "ex": 248,
      "kn": 249,
      "##and": 250,
      "but": 251,
      "there": 252,
      "##ac": 253,
      "##us": 254,
      "##pp": 255,
      "al": 256,
      "ye": 257,
      "##ies": 258,
      "tr": 259,
      "##ist": 260,
      "##ab": 261,
      "##ust": 262,
      "by": 263,
      "know": 264,
      "ab": 265,
      "so": 266,
      "##ore": 267,
      "##ity": 268,
      "##os": 269,
      "##ort": 270,
      "from": 271,
      "##mp": 272,
      "##ost": 273,
      "all": 274,
      "##ive": 275,
      "##out": 276,
      "uh": 277,
      "wor": 278,
      "this": 279,
      "##ight": 280,
      "le": 281,
      "me": 282,
      "##ally": 283,
      "##gh": 284,
      "##if": 285,
      "##ome": 286,
      "##ard": 287,
      "no": 288,
      "##iv": 289,
      "can": 290,
      "##all": 291,
      "##ap": 292,
      "##ud": 293,
      "##ie": 294,
      "en": 295,
      "##un": 296,
      "##ect": 297,
      "man": 298,
      "sp": 299,
      "##our": 300,
      "his": 301,
      "##au": 302,
      "##art": 303,
      "pl": 304,
      "has": 305,
      "had": 306,
      "ar": 307,
      "##ough": 308,
      "##um": 309,
      "ma": 310,
      "##el": 311,
      "one": 312,
      "were": 313,
      "don": 314,
      "un": 315,
      "##ast": 316,
      "out": 317,
      "##qu": 318,
      "about": 319,
      "like": 320,
      "##end": 321,
      "##oc": 322,
      "any": 323,
      "will": 324,
      "sa": 325,
      "##ok": 326,
      "##em": 327,
      "bec": 328,
      "pe": 329,
      "their": 330,
      "cl": 331,
      "##tr": 332,
      "##ff": 333,
      "##act": 334,
      "ad": 335,
      "##ous": 336,
      "if": 337,
      "##one": 338,
      "tim": 339,
      "up": 340,
      "##ice": 341,
      "te": 342,
      "what": 343,
      "would": 344,
      "more": 345,
      "my": 346,
      "just": 347,
      "##ind": 348,
      "##ound": 349,
      "##ong": 350,
      "##ink": 351,
      "##ib": 352,
      "##ish": 353,
      "comp": 354,
      "gr": 355,
      "##ial": 356,
      "##ah": 357,
      "##ions": 358,
      "ag": 359,
      "us": 360,
      "##ack": 361,
      "##ated": 362,
      "##oun": 363,
      "##her": 364,
      "##ause": 365,
      "res": 366,
      "them": 367,
      "##iz": 368,
      "##ure": 369,
      "##ther": 370,
      "ac": 371,
      "year": 372,
      "some": 373,
      "br": 374,
      "##ople": 375,
      "##gr": 376,
      "did": 377,
      "people": 378,
      "##ip": 379,
      "per": 380,
      "work": 381,
      "##ance": 382,
      "she": 383,
      "because": 384,
      "##age": 385,
      "##ine": 386,
      "##ak": 387,
      "get": 388,
      "##orm": 389,
      "##ag": 390,
      "cr": 391,
      "who": 392,
      "##ide": 393,
      "been": 394,
      "imp": 395,
      "when": 396,
      "ever": 397,
      "lo": 398,
      "well": 399,
      "yeah": 400,
      "##ans": 401,
      "am": 402,
      "ev": 403,
      "time": 404,
      "think": 405,
      "new": 406,
      "exp": 407,
      "##ays": 408,
      "inc": 409,
      "off": 410,
      "qu": 411,
      "##ame": 412,
      "##ence": 413,
      "##ings": 414,
      "##ich": 415,
      "than": 416,
      "rep": 417,
      "##ite": 418,
      "##ations": 419,
      "fe": 420,
      "##ach": 421,
      "other": 422,
      "##able": 423,
      "##are": 424,
      "##ace": 425,
      "over": 426,
      "her": 427,
      "##form": 428,
      "##ue": 429,
      "##ery": 430,
      "inter": 431,
      "##ire": 432,
      "##ose": 433,
      "int": 434,
      "ser": 435,
      "co": 436,
      "dis": 437,
      "dr": 438,
      "mu": 439,
      "only": 440,
      "its": 441,
      "how": 442,
      "##ub": 443,
      "##itt": 444,
      "most": 445,
      "tw": 446,
      "##ult": 447,
      "every": 448,
      "##hing": 449,
      "sc": 450,
      "##00": 451,
      "##ors": 452,
      "##ree": 453,
      "##ary": 454,
      "bu": 455,
      "bo": 456,
      "##own": 457,
      "app": 458,
      "##wn": 459,
      "ro": 460,
      "could": 461,
      "##ep": 462,
      "po": 463,
      "good": 464,
      "your": 465,
      "act": 466,
      "##ign": 467,
      "19": 468,
      "part": 469,
      "him": 470,
      "ta": 471,
      "##ade": 472,
      "##enc": 473,
      "##ber": 474,
      "la": 475,
      "##ild": 476,
      "never": 477,
      "very": 478,
      "##reat": 479,
      "##ro": 480,
      "##ia": 481,
      "##ec": 482,
      "said": 483,
      "##lic": 484,
      "##uct": 485,
      "pre": 486,
      "which": 487,
      "##ass": 488,
      "##av": 489,
      "cent": 490,
      "comm": 491,
      "ve": 492,
      "ind": 493,
      "see": 494,
      "##ens": 495,
      "want": 496,
      "##ase": 497,
      "##ical": 498,
      "##ments": 499,
      "##ied": 500,
      "str": 501,
      "now": 502,
      "acc": 503,
      "rec": 504,
      "need": 505,
      "many": 506,
      "##int": 507,
      "##fer": 508,
      "##ount": 509,
      "##ved": 510,
      "right": 511,
      "gu": 512,
      "##pt": 513,
      "##ang": 514,
      "af": 515,
      "##ark": 516,
      "##vel": 517,
      "really": 518,
      "des": 519,
      "##ory": 520,
      "does": 521,
      "should": 522,
      "##ates": 523,
      "und": 524,
      "into": 525,
      "these": 526,
      "##ition": 527,
      "two": 528,
      "##so": 529,
      "fir": 530,
      "##ond": 531,
      "##lo": 532,
      "car": 533,
      "##ile": 534,
      "##ian": 535,
      "##ents": 536,
      "lot": 537,
      "ass": 538,
      "years": 539,
      "sm": 540,
      "much": 541,
      "here": 542,
      "bet": 543,
      "even": 544,
      "##ty": 545,
      "##ving": 546,
      "also": 547,
      "##og": 548,
      "may": 549,
      "um": 550,
      "col": 551,
      "thr": 552,
      "our": 553,
      "under": 554,
      "##ail": 555,
      "##uc": 556,
      "serv": 557,
      "then": 558,
      "look": 559,
      "after": 560,
      "##ord": 561,
      "##oss": 562,
      "progr": 563,
      "mo": 564,
      "##anc": 565,
      "##lect": 566,
      "##iss": 567,
      "dec": 568,
      "##ick": 569,
      "mon": 570,
      "##ater": 571,
      "fin": 572,
      "where": 573,
      "##tain": 574,
      "way": 575,
      "fo": 576,
      "##cess": 577,
      "cons": 578,
      "##ict": 579,
      "going": 580,
      "leg": 581,
      "prob": 582,
      "back": 583,
      "inv": 584,
      "##te": 585,
      "long": 586,
      "##ious": 587,
      "##omet": 588,
      "##ities": 589,
      "though": 590,
      "got": 591,
      "old": 592,
      "sy": 593,
      "##ices": 594,
      "##amp": 595,
      "program": 596,
      "##les": 597,
      "##thing": 598,
      "too": 599,
      "rel": 600,
      "##alk": 601,
      "##eral": 602,
      "bl": 603,
      "make": 604,
      "high": 605,
      "op": 606,
      "fu": 607,
      "##vern": 608,
      "sec": 609,
      "somet": 610,
      "##sel": 611,
      "contr": 612,
      "down": 613,
      "inform": 614,
      "rem": 615,
      "reg": 616,
      "jo": 617,
      "first": 618,
      "##ft": 619,
      "made": 620,
      "##ning": 621,
      "dif": 622,
      "##its": 623,
      "##ys": 624,
      "eff": 625,
      "##ual": 626,
      "cost": 627,
      "##mm": 628,
      "##ock": 629,
      "##fore": 630,
      "pres": 631,
      "##iver": 632,
      "##ible": 633,
      "prov": 634,
      "govern": 635,
      "pol": 636,
      "##ons": 637,
      "##ry": 638,
      "hel": 639,
      "through": 640,
      "##iew": 641,
      "##fe": 642,
      "##oth": 643,
      "didn": 644,
      "information": 645,
      "##ful": 646,
      "##way": 647,
      "##ath": 648,
      "great": 649,
      "##land": 650,
      "##we": 651,
      "still": 652,
      "##ublic": 653,
      "##gan": 654,
      "take": 655,
      "state": 656,
      "help": 657,
      "##ouse": 658,
      "sch": 659,
      "##ury": 660,
      "coun": 661,
      "##ily": 662,
      "law": 663,
      "##ting": 664,
      "##erm": 665,
      "before": 666,
      "those": 667,
      "##lud": 668,
      "requ": 669,
      "fl": 670,
      "##ways": 671,
      "##ational": 672,
      "##other": 673,
      "##urn": 674,
      "used": 675,
      "supp": 676,
      "stud": 677,
      "##ular": 678,
      "bus": 679,
      "wr": 680,
      "hu": 681,
      "##ject": 682,
      "##ise": 683,
      "##ittle": 684,
      "little": 685,
      "gen": 686,
      "##ific": 687,
      "oh": 688,
      "##lem": 689,
      "report": 690,
      "say": 691,
      "##get": 692,
      "##stem": 693,
      "id": 694,
      "##ather": 695,
      "add": 696,
      "bel": 697,
      "cour": 698,
      "##ually": 699,
      "##ating": 700,
      "system": 701,
      "##ange": 702,
      "##ative": 703,
      "use": 704,
      "war": 705,
      "find": 706,
      "##als": 707,
      "government": 708,
      "sub": 709,
      "##atch": 710,
      "always": 711,
      "##ility": 712,
      "mean": 713,
      "own": 714,
      "ke": 715,
      "##ited": 716,
      "day": 717,
      "pers": 718,
      "things": 719,
      "##ts": 720,
      "sl": 721,
      "call": 722,
      "house": 723,
      "##orn": 724,
      "vis": 725,
      "ll": 726,
      "##ks": 727,
      "city": 728,
      "sur": 729,
      "rev": 730,
      "something": 731,
      "includ": 732,
      "disc": 733,
      "hand": 734,
      "##ards": 735,
      "legal": 736,
      "##uring": 737,
      "fam": 738,
      "such": 739,
      "being": 740,
      "##ave": 741,
      "ob": 742,
      "emp": 743,
      "pay": 744,
      "dep": 745,
      "att": 746,
      "again": 747,
      "show": 748,
      "##sp": 749,
      "differ": 750,
      "##ures": 751,
      "bas": 752,
      "##air": 753,
      "world": 754,
      "cap": 755,
      "##mb": 756,
      "##olog": 757,
      "interest": 758,
      "##ered": 759,
      "small": 760,
      "plan": 761,
      "last": 762,
      "prod": 763,
      "kind": 764,
      "el": 765,
      "##ra": 766,
      "##eric": 767,
      "mar": 768,
      "place": 769,
      "around": 770,
      "##ient": 771,
      "##ix": 772,
      "inst": 773,
      "##oney": 774,
      "par": 775,
      "##ics": 776,
      "fed": 777,
      "ph": 778,
      "stand": 779,
      "found": 780,
      "##ues": 781,
      "mod": 782,
      "##ress": 783,
      "real": 784,
      "lar": 785,
      "##ew": 786,
      "americ": 787,
      "public": 788,
      "home": 789,
      "val": 790,
      "child": 791,
      "agenc": 792,
      "##oup": 793,
      "pop": 794,
      "##ug": 795,
      "red": 796,
      "set": 797,
      "199": 798,
      "##con": 799,
      "##ying": 800,
      "care": 801,
      "happ": 802,
      "loc": 803,
      "##led": 804,
      "##lish": 805,
      "same": 806,
      "##sc": 807,
      "ed": 808,
      "end": 809,
      "import": 810,
      "##ool": 811,
      "##self": 812,
      "money": 813,
      "##ars": 814,
      "countr": 815,
      "art": 816,
      "##ene": 817,
      "##ants": 818,
      "##ives": 819,
      "min": 820,
      "organ": 821,
      "##day": 822,
      "##ves": 823,
      "resp": 824,
      "anything": 825,
      "three": 826,
      "##ists": 827,
      "problem": 828,
      "ear": 829,
      "ho": 830,
      "while": 831,
      "##ident": 832,
      "##ody": 833,
      "def": 834,
      "##cent": 835,
      "est": 836,
      "av": 837,
      "ca": 838,
      "stre": 839,
      "town": 840,
      "eas": 841,
      "ru": 842,
      "mak": 843,
      "far": 844,
      "##ower": 845,
      "federal": 846,
      "organiz": 847,
      "person": 848,
      "read": 849,
      "century": 850,
      "start": 851,
      "school": 852,
      "tak": 853,
      "big": 854,
      "best": 855,
      "nor": 856,
      "sin": 857,
      "thing": 858,
      "cont": 859,
      "talk": 860,
      "rest": 861,
      "let": 862,
      "##ood": 863,
      "##red": 864,
      "met": 865,
      "prop": 866,
      "mark": 867,
      "##ek": 868,
      "cle": 869,
      "life": 870,
      "better": 871,
      "build": 872,
      "##ri": 873,
      "del": 874,
      "both": 875,
      "##ork": 876,
      "##osed": 877,
      "num": 878,
      "##ably": 879,
      "dem": 880,
      "##ines": 881,
      "each": 882,
      "##ern": 883,
      "##iness": 884,
      "##az": 885,
      "spec": 886,
      "##ets": 887,
      "##ted": 888,
      "come": 889,
      "sou": 890,
      "char": 891,
      "sim": 892,
      "play": 893,
      "comple": 894,
      "perform": 895,
      "##yp": 896,
      "hard": 897,
      "seem": 898,
      "fact": 899,
      "effect": 900,
      "put": 901,
      "econ": 902,
      "##ear": 903,
      "case": 904,
      "cor": 905,
      "##ren": 906,
      "med": 907,
      "econom": 908,
      "hum": 909,
      "less": 910,
      "form": 911,
      "services": 912,
      "few": 913,
      "fund": 914,
      "during": 915,
      "sk": 916,
      "aud": 917,
      "ret": 918,
      "##ution": 919,
      "point": 920,
      "##chn": 921,
      "##io": 922,
      "##velop": 923,
      "lead": 924,
      "incre": 925,
      "##ces": 926,
      "thought": 927,
      "eng": 928,
      "book": 929,
      "might": 930,
      "##llow": 931,
      "em": 932,
      "important": 933,
      "belie": 934,
      "##xt": 935,
      "##ven": 936,
      "det": 937,
      "wom": 938,
      "##atter": 939,
      "post": 940,
      "sure": 941,
      "mil": 942,
      "ask": 943,
      "since": 944,
      "cur": 945,
      "##ween": 946,
      "between": 947,
      "different": 948,
      "must": 949,
      "##iet": 950,
      "doesn": 951,
      "chang": 952,
      "compan": 953,
      "away": 954,
      "national": 955,
      "service": 956,
      "##be": 957,
      "tour": 958,
      "result": 959,
      "##istr": 960,
      "##ten": 961,
      "develop": 962,
      "main": 963,
      "iss": 964,
      "bar": 965,
      "nothing": 966,
      "aut": 967,
      "another": 968,
      "##ids": 969,
      "##urch": 970,
      "techn": 971,
      "##ee": 972,
      "watch": 973,
      "##hip": 974,
      "conc": 975,
      "soc": 976,
      "adv": 977,
      "percent": 978,
      "business": 979,
      "##cept": 980,
      "##lly": 981,
      "##ided": 982,
      "##ently": 983,
      "sign": 984,
      "##ior": 985,
      "tax": 986,
      "product": 987,
      "bene": 988,
      "##ized": 989,
      "partic": 990,
      "consid": 991,
      "##side": 992,
      "##ope": 993,
      "air": 994,
      "##ier": 995,
      "ent": 996,
      "visit": 997,
      "##ism": 998,
      "aff": 999,
      "hist": 1000,
      "keep": 1001,
      "went": 1002,
      "run": 1003,
      "##ash": 1004,
      "##irect": 1005,
      "country": 1006,
      "##ever": 1007,
      "##err": 1008,
      "##loy": 1009,
      "area": 1010,
      "##res": 1011,
      "why": 1012,
      "##ata": 1013,
      "manage": 1014,
      "feel": 1015,
      "cer": 1016,
      "##der": 1017,
      "design": 1018,
      "##ilt": 1019,
      "turn": 1020,
      "open": 1021,
      "##gest": 1022,
      "water": 1023,
      "times": 1024,
      "benef": 1025,
      "fun": 1026,
      "##ason": 1027,
      "##ute": 1028,
      "ide": 1029,
      "process": 1030,
      "##ention": 1031,
      "##ize": 1032,
      "head": 1033,
      "##alth": 1034,
      "muse": 1035,
      "##ward": 1036,
      "##ically": 1037,
      "temp": 1038,
      "sit": 1039,
      "children": 1040,
      "##uss": 1041,
      "island": 1042,
      "commun": 1043,
      "direct": 1044,
      "guess": 1045,
      "200": 1046,
      "##ital": 1047,
      "##body": 1048,
      "near": 1049,
      "##ins": 1050,
      "four": 1051,
      "week": 1052,
      "room": 1053,
      "##tern": 1054,
      "states": 1055,
      "without": 1056,
      "mr": 1057,
      "quest": 1058,
      "rule": 1059,
      "sen": 1060,
      "hot": 1061,
      "##oy": 1062,
      "##ank": 1063,
      "prof": 1064,
      "##rew": 1065,
      "cover": 1066,
      "##ao": 1067,
      "data": 1068,
      "trans": 1069,
      "left": 1070,
      "##ural": 1071,
      "large": 1072,
      "##ling": 1073,
      "jon": 1074,
      "allow": 1075,
      "mus": 1076,
      "sw": 1077,
      "##ired": 1078,
      "once": 1079,
      "exper": 1080,
      "##ale": 1081,
      "bud": 1082,
      "view": 1083,
      "sever": 1084,
      "##ters": 1085,
      "month": 1086,
      "##str": 1087,
      "conf": 1088,
      "control": 1089,
      "adm": 1090,
      "mill": 1091,
      "miss": 1092,
      "##ains": 1093,
      "##ected": 1094,
      "financ": 1095,
      "##ately": 1096,
      "done": 1097,
      "number": 1098,
      "##pl": 1099,
      "mail": 1100,
      "##aw": 1101,
      "##til": 1102,
      "bad": 1103,
      "test": 1104,
      "invest": 1105,
      "follow": 1106,
      "tell": 1107,
      "account": 1108,
      "anal": 1109,
      "men": 1110,
      "##ined": 1111,
      "employ": 1112,
      "##que": 1113,
      "##gress": 1114,
      "##orts": 1115,
      "management": 1116,
      "maj": 1117,
      "ref": 1118,
      "suc": 1119,
      "enough": 1120,
      "next": 1121,
      "gl": 1122,
      "##ger": 1123,
      "white": 1124,
      "##co": 1125,
      "camp": 1126,
      "typ": 1127,
      "appro": 1128,
      "president": 1129,
      "land": 1130,
      "prot": 1131,
      "da": 1132,
      "hour": 1133,
      "##ality": 1134,
      "yes": 1135,
      "doing": 1136,
      "##ats": 1137,
      "took": 1138,
      "##read": 1139,
      "##ared": 1140,
      "programs": 1141,
      "five": 1142,
      "clint": 1143,
      "night": 1144,
      "000": 1145,
      "##man": 1146,
      "pret": 1147,
      "job": 1148,
      "kids": 1149,
      "##less": 1150,
      "museum": 1151,
      "##ley": 1152,
      "underst": 1153,
      "##ology": 1154,
      "##ble": 1155,
      "##ends": 1156,
      "##ides": 1157,
      "probably": 1158,
      "built": 1159,
      "fri": 1160,
      "intern": 1161,
      "north": 1162,
      "clinton": 1163,
      "pass": 1164,
      "ann": 1165,
      "elect": 1166,
      "##ron": 1167,
      "pain": 1168,
      "top": 1169,
      "port": 1170,
      "20": 1171,
      "walk": 1172,
      "##ians": 1173,
      "secur": 1174,
      "##cc": 1175,
      "poss": 1176,
      "expl": 1177,
      "major": 1178,
      "everything": 1179,
      "support": 1180,
      "##ience": 1181,
      "priv": 1182,
      "church": 1183,
      "##cr": 1184,
      "shop": 1185,
      "cre": 1186,
      "##ought": 1187,
      "equ": 1188,
      "give": 1189,
      "group": 1190,
      "south": 1191,
      "##ric": 1192,
      "##wh": 1193,
      "wanted": 1194,
      "came": 1195,
      "youn": 1196,
      "polit": 1197,
      "gao": 1198,
      "##ton": 1199,
      "##ees": 1200,
      "news": 1201,
      "nat": 1202,
      "today": 1203,
      "terr": 1204,
      "along": 1205,
      "change": 1206,
      "office": 1207,
      "review": 1208,
      "tra": 1209,
      "grow": 1210,
      "enj": 1211,
      "pal": 1212,
      "##iven": 1213,
      "audit": 1214,
      "until": 1215,
      "ris": 1216,
      "##ead": 1217,
      "contin": 1218,
      "stay": 1219,
      "##ness": 1220,
      "market": 1221,
      "against": 1222,
      "##ner": 1223,
      "congress": 1224,
      "class": 1225,
      "several": 1226,
      "##ned": 1227,
      "crit": 1228,
      "opp": 1229,
      "##augh": 1230,
      "able": 1231,
      "##ases": 1232,
      "stat": 1233,
      "oper": 1234,
      "power": 1235,
      "collect": 1236,
      "require": 1237,
      "pract": 1238,
      "##ages": 1239,
      "american": 1240,
      "seen": 1241,
      "##ced": 1242,
      "happen": 1243,
      "rece": 1244,
      "known": 1245,
      "gener": 1246,
      "mor": 1247,
      "term": 1248,
      "##uck": 1249,
      "certain": 1250,
      "beh": 1251,
      "##ction": 1252,
      "pretty": 1253,
      "costs": 1254,
      "everyone": 1255,
      "bill": 1256,
      "##ell": 1257,
      "##ially": 1258,
      "##ision": 1259,
      "18": 1260,
      "fac": 1261,
      "##ral": 1262,
      "lsc": 1263,
      "inf": 1264,
      "##aper": 1265,
      "called": 1266,
      "var": 1267,
      "second": 1268,
      "mov": 1269,
      "street": 1270,
      "name": 1271,
      "ra": 1272,
      "##up": 1273,
      "##br": 1274,
      "##els": 1275,
      "polic": 1276,
      "family": 1277,
      "##ames": 1278,
      "clear": 1279,
      "##ime": 1280,
      "##ds": 1281,
      "##ote": 1282,
      "security": 1283,
      "agencies": 1284,
      "ap": 1285,
      "pat": 1286,
      "cal": 1287,
      "tre": 1288,
      "##lement": 1289,
      "summ": 1290,
      "##erg": 1291,
      "project": 1292,
      "financial": 1293,
      "ext": 1294,
      "auth": 1295,
      "##ived": 1296,
      "however": 1297,
      "huh": 1298,
      "##ither": 1299,
      "cond": 1300,
      "won": 1301,
      "##ified": 1302,
      "understand": 1303,
      "free": 1304,
      "curr": 1305,
      "arch": 1306,
      "local": 1307,
      "performance": 1308,
      "else": 1309,
      "impro": 1310,
      "sal": 1311,
      "##ensive": 1312,
      "popular": 1313,
      "often": 1314,
      "level": 1315,
      "invol": 1316,
      "enjoy": 1317,
      "trad": 1318,
      "meet": 1319,
      "center": 1320,
      "ok": 1321,
      "##ph": 1322,
      "##ey": 1323,
      "course": 1324,
      "live": 1325,
      "general": 1326,
      "##hn": 1327,
      "##ump": 1328,
      "agency": 1329,
      "##uff": 1330,
      "ste": 1331,
      "##ased": 1332,
      "having": 1333,
      "avail": 1334,
      "story": 1335,
      "##ivid": 1336,
      "10": 1337,
      "gre": 1338,
      "past": 1339,
      "##li": 1340,
      "hal": 1341,
      "##old": 1342,
      "##ering": 1343,
      "##ivers": 1344,
      "health": 1345,
      "examp": 1346,
      "getting": 1347,
      "cut": 1348,
      "stop": 1349,
      "##rop": 1350,
      "ins": 1351,
      "##ised": 1352,
      "offic": 1353,
      "##used": 1354,
      "john": 1355,
      "order": 1356,
      "arr": 1357,
      "arm": 1358,
      "##idd": 1359,
      "believe": 1360,
      "problems": 1361,
      "doll": 1362,
      "united": 1363,
      "success": 1364,
      "provide": 1365,
      "matter": 1366,
      "##ained": 1367,
      "isn": 1368,
      "##ission": 1369,
      "##eng": 1370,
      "budget": 1371,
      "wa": 1372,
      "women": 1373,
      "##uction": 1374,
      "##ency": 1375,
      "ten": 1376,
      "##arr": 1377,
      "wasn": 1378,
      "low": 1379,
      "six": 1380,
      "win": 1381,
      "##most": 1382,
      "##ether": 1383,
      "quite": 1384,
      "rul": 1385,
      "least": 1386,
      "vol": 1387,
      "##ember": 1388,
      "complete": 1389,
      "##aring": 1390,
      "reason": 1391,
      "repres": 1392,
      "##ument": 1393,
      "spe": 1394,
      "capital": 1395,
      "analys": 1396,
      "actually": 1397,
      "##upp": 1398,
      "depart": 1399,
      "building": 1400,
      "fig": 1401,
      "making": 1402,
      "saving": 1403,
      "activ": 1404,
      "study": 1405,
      "days": 1406,
      "##erc": 1407,
      "##ability": 1408,
      "food": 1409,
      "san": 1410,
      "sta": 1411,
      "exc": 1412,
      "exec": 1413,
      "park": 1414,
      "available": 1415,
      "try": 1416,
      "ey": 1417,
      "##ients": 1418,
      "##gin": 1419,
      "deliver": 1420,
      "list": 1421,
      "side": 1422,
      "##ateg": 1423,
      "thir": 1424,
      "##erv": 1425,
      "##ending": 1426,
      "##ional": 1427,
      "road": 1428,
      "million": 1429,
      "lim": 1430,
      "says": 1431,
      "##aph": 1432,
      "cult": 1433,
      "orig": 1434,
      "black": 1435,
      "ago": 1436,
      "sing": 1437,
      "##ulation": 1438,
      "cho": 1439,
      "##aster": 1440,
      "vill": 1441,
      "told": 1442,
      "whole": 1443,
      "young": 1444,
      "love": 1445,
      "##over": 1446,
      "estim": 1447,
      "site": 1448,
      "tot": 1449,
      "company": 1450,
      "jap": 1451,
      "based": 1452,
      "saw": 1453,
      "##ances": 1454,
      "almost": 1455,
      "japan": 1456,
      "##ored": 1457,
      "idea": 1458,
      "##iving": 1459,
      "##ured": 1460,
      "##iting": 1461,
      "gard": 1462,
      "history": 1463,
      "comput": 1464,
      "among": 1465,
      "##ife": 1466,
      "addition": 1467,
      "individ": 1468,
      "rather": 1469,
      "mag": 1470,
      "yet": 1471,
      "##imes": 1472,
      "beach": 1473,
      "##ipp": 1474,
      "indust": 1475,
      "##aut": 1476,
      "non": 1477,
      "lawy": 1478,
      "bre": 1479,
      "##uation": 1480,
      "tomm": 1481,
      "fut": 1482,
      "##lf": 1483,
      "full": 1484,
      "tommy": 1485,
      "half": 1486,
      "origin": 1487,
      "ir": 1488,
      "sup": 1489,
      "makes": 1490,
      "social": 1491,
      "individual": 1492,
      "##inc": 1493,
      "asked": 1494,
      "jud": 1495,
      "pos": 1496,
      "looked": 1497,
      "##ources": 1498,
      "working": 1499,
      "deal": 1500,
      "pur": 1501,
      "##sh": 1502,
      "changes": 1503,
      "pa": 1504,
      "wind": 1505,
      "whether": 1506,
      "discuss": 1507,
      "prom": 1508,
      "maybe": 1509,
      "15": 1510,
      "sug": 1511,
      "##ories": 1512,
      "mount": 1513,
      "##enty": 1514,
      "distr": 1515,
      "attr": 1516,
      "easy": 1517,
      "author": 1518,
      "hous": 1519,
      "ident": 1520,
      "represent": 1521,
      "##ik": 1522,
      "pie": 1523,
      "##ench": 1524,
      "occ": 1525,
      "##aces": 1526,
      "resear": 1527,
      "research": 1528,
      "##idence": 1529,
      "interv": 1530,
      "execut": 1531,
      "okay": 1532,
      "acr": 1533,
      "analysis": 1534,
      "organizations": 1535,
      "oth": 1536,
      "west": 1537,
      "##hod": 1538,
      "aw": 1539,
      "wall": 1540,
      "##ences": 1541,
      "others": 1542,
      "##omm": 1543,
      "benefits": 1544,
      "imm": 1545,
      "sun": 1546,
      "##ield": 1547,
      "trying": 1548,
      "nice": 1549,
      "##rist": 1550,
      "##lev": 1551,
      "private": 1552,
      "later": 1553,
      "##ina": 1554,
      "##ont": 1555,
      "including": 1556,
      "manag": 1557,
      "fish": 1558,
      "ple": 1559,
      "che": 1560,
      "##lished": 1561,
      "##na": 1562,
      "future": 1563,
      "sol": 1564,
      "fil": 1565,
      "true": 1566,
      "##ended": 1567,
      "needs": 1568,
      "hor": 1569,
      "##line": 1570,
      "needed": 1571,
      "tupp": 1572,
      "##ibility": 1573,
      "either": 1574,
      "knew": 1575,
      "enter": 1576,
      "har": 1577,
      "respons": 1578,
      "sound": 1579,
      "court": 1580,
      "tuppence": 1581,
      "york": 1582,
      "hold": 1583,
      "kill": 1584,
      "lear": 1585,
      "##ret": 1586,
      "train": 1587,
      "usually": 1588,
      "##acy": 1589,
      "brit": 1590,
      "question": 1591,
      "stuff": 1592,
      "within": 1593,
      "tow": 1594,
      "early": 1595,
      "issues": 1596,
      "ce": 1597,
      "face": 1598,
      "technology": 1599,
      "beaut": 1600,
      "outside": 1601,
      "cann": 1602,
      "buy": 1603,
      "##ert": 1604,
      "rom": 1605,
      "##fu": 1606,
      "##att": 1607,
      "##bo": 1608,
      "hill": 1609,
      "short": 1610,
      "##ged": 1611,
      "lab": 1612,
      "sat": 1613,
      "agree": 1614,
      "heard": 1615,
      "##iety": 1616,
      "##ison": 1617,
      "poor": 1618,
      "present": 1619,
      "gir": 1620,
      "given": 1621,
      "eg": 1622,
      "method": 1623,
      "##atic": 1624,
      "abs": 1625,
      "temple": 1626,
      "amount": 1627,
      "remember": 1628,
      "example": 1629,
      "due": 1630,
      "env": 1631,
      "travel": 1632,
      "results": 1633,
      "signific": 1634,
      "income": 1635,
      "##ination": 1636,
      "##aim": 1637,
      "using": 1638,
      "##aking": 1639,
      "special": 1640,
      "17": 1641,
      "king": 1642,
      "##ane": 1643,
      "someone": 1644,
      "interesting": 1645,
      "estab": 1646,
      "fail": 1647,
      "##pr": 1648,
      "miles": 1649,
      "prev": 1650,
      "bur": 1651,
      "postal": 1652,
      "##utes": 1653,
      "across": 1654,
      "step": 1655,
      "##ued": 1656,
      "admin": 1657,
      "become": 1658,
      "##aps": 1659,
      "fav": 1660,
      "colle": 1661,
      "christ": 1662,
      "looking": 1663,
      "bit": 1664,
      "talking": 1665,
      "wond": 1666,
      "ep": 1667,
      "regul": 1668,
      "include": 1669,
      "##ove": 1670,
      "standards": 1671,
      "diff": 1672,
      "seems": 1673,
      "music": 1674,
      "tex": 1675,
      "access": 1676,
      "##hold": 1677,
      "anyone": 1678,
      "team": 1679,
      "systems": 1680,
      "quality": 1681,
      "hund": 1682,
      "12": 1683,
      "##ense": 1684,
      "hundred": 1685,
      "east": 1686,
      "doc": 1687,
      "meas": 1688,
      "modern": 1689,
      "possible": 1690,
      "ren": 1691,
      "##work": 1692,
      "address": 1693,
      "##oci": 1694,
      "worth": 1695,
      "##icult": 1696,
      "hours": 1697,
      "dest": 1698,
      "mind": 1699,
      "rate": 1700,
      "sil": 1701,
      "sty": 1702,
      "##where": 1703,
      "##ister": 1704,
      "ant": 1705,
      "##ape": 1706,
      "jew": 1707,
      "##oke": 1708,
      "profess": 1709,
      "##ief": 1710,
      "economic": 1711,
      "alread": 1712,
      "accord": 1713,
      "staff": 1714,
      "already": 1715,
      "attract": 1716,
      "mom": 1717,
      "##iod": 1718,
      "couldn": 1719,
      "simp": 1720,
      "particular": 1721,
      "associ": 1722,
      "effective": 1723,
      "corp": 1724,
      "##0s": 1725,
      "drug": 1726,
      "final": 1727,
      "consider": 1728,
      "enc": 1729,
      "period": 1730,
      "toget": 1731,
      "coast": 1732,
      "##ru": 1733,
      "door": 1734,
      "paper": 1735,
      "##by": 1736,
      "##par": 1737,
      "reach": 1738,
      "##ortun": 1739,
      "together": 1740,
      "squ": 1741,
      "net": 1742,
      "move": 1743,
      "suggest": 1744,
      "difficult": 1745,
      "im": 1746,
      "pot": 1747,
      "cannot": 1748,
      "alth": 1749,
      "##elt": 1750,
      "policy": 1751,
      "envir": 1752,
      "compet": 1753,
      "close": 1754,
      "record": 1755,
      "##iding": 1756,
      "months": 1757,
      "although": 1758,
      "##ising": 1759,
      "count": 1760,
      "foc": 1761,
      "##ials": 1762,
      "taken": 1763,
      "coup": 1764,
      "dist": 1765,
      "held": 1766,
      "environ": 1767,
      "##itions": 1768,
      "lost": 1769,
      "model": 1770,
      "civ": 1771,
      "##ried": 1772,
      "fine": 1773,
      "##ows": 1774,
      "daan": 1775,
      "significant": 1776,
      "eur": 1777,
      "##ott": 1778,
      "##fully": 1779,
      "esp": 1780,
      "ge": 1781,
      "value": 1782,
      "educ": 1783,
      "computer": 1784,
      "##ming": 1785,
      "##unch": 1786,
      "started": 1787,
      "girl": 1788,
      "god": 1789,
      "hus": 1790,
      "pen": 1791,
      "tur": 1792,
      "exact": 1793,
      "movie": 1794,
      "init": 1795,
      "16": 1796,
      "dollars": 1797,
      "drew": 1798,
      "particip": 1799,
      "##ny": 1800,
      "himself": 1801,
      "improve": 1802,
      "vi": 1803,
      "##ms": 1804,
      "department": 1805,
      "line": 1806,
      "##app": 1807,
      "fall": 1808,
      "bal": 1809,
      "studies": 1810,
      "defin": 1811,
      "##uce": 1812,
      "death": 1813,
      "##ished": 1814,
      "##mbers": 1815,
      "dou": 1816,
      "constr": 1817,
      "##rin": 1818,
      "descr": 1819,
      "entire": 1820,
      "risk": 1821,
      "current": 1822,
      "human": 1823,
      "summer": 1824,
      "##atory": 1825,
      "##itting": 1826,
      "sometimes": 1827,
      "members": 1828,
      "##band": 1829,
      "contain": 1830,
      "##ocr": 1831,
      "implement": 1832,
      "##me": 1833,
      "sell": 1834,
      "impact": 1835,
      "woman": 1836,
      "necess": 1837,
      "##aint": 1838,
      "ground": 1839,
      "shows": 1840,
      "##sw": 1841,
      "sho": 1842,
      "planning": 1843,
      "return": 1844,
      "sn": 1845,
      "grand": 1846,
      "accept": 1847,
      "organization": 1848,
      "##ov": 1849,
      "##graph": 1850,
      "rock": 1851,
      "##gle": 1852,
      "thous": 1853,
      "development": 1854,
      "thousand": 1855,
      "europe": 1856,
      "dom": 1857,
      "foot": 1858,
      "friend": 1859,
      "environment": 1860,
      "age": 1861,
      "concern": 1862,
      "infl": 1863,
      "french": 1864,
      "exist": 1865,
      "##ilar": 1866,
      "demand": 1867,
      "##ature": 1868,
      "strateg": 1869,
      "republic": 1870,
      "pub": 1871,
      "increase": 1872,
      "determ": 1873,
      "administr": 1874,
      "##oring": 1875,
      "civil": 1876,
      "fight": 1877,
      "##ator": 1878,
      "##imin": 1879,
      "##ush": 1880,
      "##ogn": 1881,
      "cases": 1882,
      "scre": 1883,
      "specific": 1884,
      "approach": 1885,
      "behind": 1886,
      "beautif": 1887,
      "pick": 1888,
      "##ica": 1889,
      "companies": 1890,
      "##itch": 1891,
      "ones": 1892,
      "arg": 1893,
      "lit": 1894,
      "rules": 1895,
      "ach": 1896,
      "community": 1897,
      "##ius": 1898,
      "##hol": 1899,
      "workers": 1900,
      "deb": 1901,
      "single": 1902,
      "personal": 1903,
      "sort": 1904,
      "total": 1905,
      "rout": 1906,
      "mem": 1907,
      "pu": 1908,
      "flo": 1909,
      "const": 1910,
      "##itive": 1911,
      "tradition": 1912,
      "##ese": 1913,
      "assist": 1914,
      "protect": 1915,
      "haven": 1916,
      "eval": 1917,
      "fore": 1918,
      "press": 1919,
      "##ilities": 1920,
      "favor": 1921,
      "felt": 1922,
      "object": 1923,
      "claim": 1924,
      "considered": 1925,
      "rich": 1926,
      "sent": 1927,
      "bring": 1928,
      "longer": 1929,
      "##iously": 1930,
      "dev": 1931,
      "cred": 1932,
      "husband": 1933,
      "##aves": 1934,
      "teach": 1935,
      "wrong": 1936,
      "recogn": 1937,
      "river": 1938,
      "resources": 1939,
      "hun": 1940,
      "justice": 1941,
      "achie": 1942,
      "areas": 1943,
      "subject": 1944,
      "##ening": 1945,
      "hear": 1946,
      "soon": 1947,
      "commission": 1948,
      "wouldn": 1949,
      "fre": 1950,
      "##ped": 1951,
      "ital": 1952,
      "regard": 1953,
      "fur": 1954,
      "##ball": 1955,
      "leave": 1956,
      "grant": 1957,
      "required": 1958,
      "##son": 1959,
      "##aur": 1960,
      "##itted": 1961,
      "lou": 1962,
      "##ake": 1963,
      "alco": 1964,
      "du": 1965,
      "anc": 1966,
      "##irc": 1967,
      "employees": 1968,
      "political": 1969,
      "begin": 1970,
      "desp": 1971,
      "famous": 1972,
      "aren": 1973,
      "alcohol": 1974,
      "univers": 1975,
      "answ": 1976,
      "##ama": 1977,
      "living": 1978,
      "light": 1979,
      "british": 1980,
      "activities": 1981,
      "quick": 1982,
      "##fect": 1983,
      "##selves": 1984,
      "requirements": 1985,
      "according": 1986,
      "##omes": 1987,
      "expect": 1988,
      "cast": 1989,
      "##ium": 1990,
      "wife": 1991,
      "parents": 1992,
      "similar": 1993,
      "##ify": 1994,
      "eight": 1995,
      "##ony": 1996,
      "gave": 1997,
      "##ume": 1998,
      "##ept": 1999,
      "collection": 2000,
      "became": 2001,
      "##ropri": 2002,
      "college": 2003,
      "100": 2004,
      "adrin": 2005,
      "ele": 2006,
      "works": 2007,
      "vict": 2008,
      "##vers": 2009,
      "turned": 2010,
      "price": 2011,
      "involved": 2012,
      "proper": 2013,
      "##amed": 2014,
      "espec": 2015,
      "comes": 2016,
      "##ators": 2017,
      "##orp": 2018,
      "poll": 2019,
      "assess": 2020,
      "key": 2021,
      "experience": 2022,
      "strong": 2023,
      "offer": 2024,
      "especially": 2025,
      "treat": 2026,
      "##aft": 2027,
      "common": 2028,
      "tv": 2029,
      "coming": 2030,
      "mur": 2031,
      "happy": 2032,
      "delivery": 2033,
      "##yc": 2034,
      "related": 2035,
      "reports": 2036,
      "takes": 2037,
      "##ourn": 2038,
      "instead": 2039,
      "taking": 2040,
      "texas": 2041,
      "##lin": 2042,
      "##ival": 2043,
      "bir": 2044,
      "##fact": 2045,
      "##thern": 2046,
      "198": 2047,
      "exactly": 2048,
      "##omp": 2049,
      "##urs": 2050,
      "self": 2051,
      "completely": 2052,
      "##ges": 2053,
      "##asing": 2054,
      "##ctor": 2055,
      "expensive": 2056,
      "america": 2057,
      "sea": 2058,
      "industry": 2059,
      "histor": 2060,
      "##ffic": 2061,
      "hands": 2062,
      "figure": 2063,
      "eyes": 2064,
      "mal": 2065,
      "##ked": 2066,
      "sense": 2067,
      "couple": 2068,
      "##of": 2069,
      "charact": 2070,
      "beautiful": 2071,
      "##ened": 2072,
      "circ": 2073,
      "began": 2074,
      "refer": 2075,
      "midd": 2076,
      "##ots": 2077,
      "dead": 2078,
      "ill": 2079,
      "contrib": 2080,
      "nation": 2081,
      "sir": 2082,
      "##ypt": 2083,
      "fle": 2084,
      "##tion": 2085,
      "section": 2086,
      "friends": 2087,
      "repl": 2088,
      "base": 2089,
      "##hib": 2090,
      "perfect": 2091,
      "##temp": 2092,
      "houses": 2093,
      "visitors": 2094,
      "heart": 2095,
      "minutes": 2096,
      "type": 2097,
      "table": 2098,
      "gold": 2099,
      "##ential": 2100,
      "means": 2101,
      "##umb": 2102,
      "likely": 2103,
      "##aged": 2104,
      "famil": 2105,
      "milit": 2106,
      "restaur": 2107,
      "middle": 2108,
      "cop": 2109,
      "bro": 2110,
      "worked": 2111,
      "morning": 2112,
      "ii": 2113,
      "##uses": 2114,
      "evidence": 2115,
      "obs": 2116,
      "detail": 2117,
      "wonder": 2118,
      "jul": 2119,
      "cust": 2120,
      "##ze": 2121,
      "goes": 2122,
      "labor": 2123,
      "##ping": 2124,
      "##uced": 2125,
      "avo": 2126,
      "questions": 2127,
      "late": 2128,
      "##atives": 2129,
      "comments": 2130,
      "further": 2131,
      "##use": 2132,
      "##ann": 2133,
      "huge": 2134,
      "attorn": 2135,
      "wood": 2136,
      "##rect": 2137,
      "france": 2138,
      "drink": 2139,
      "hur": 2140,
      "mult": 2141,
      "14": 2142,
      "bed": 2143,
      "relig": 2144,
      "economy": 2145,
      "opt": 2146,
      "##gn": 2147,
      "issue": 2148,
      "mad": 2149,
      "board": 2150,
      "##reme": 2151,
      "twenty": 2152,
      "##bor": 2153,
      "population": 2154,
      "funding": 2155,
      "lawyers": 2156,
      "##ique": 2157,
      "sex": 2158,
      "central": 2159,
      "shr": 2160,
      "words": 2161,
      "themselves": 2162,
      "lake": 2163,
      "reporting": 2164,
      "speak": 2165,
      "hall": 2166,
      "##bs": 2167,
      "emerg": 2168,
      "vo": 2169,
      "##yal": 2170,
      "chec": 2171,
      "event": 2172,
      "##yn": 2173,
      "sold": 2174,
      "recent": 2175,
      "hope": 2176,
      "style": 2177,
      "div": 2178,
      "viol": 2179,
      "foreign": 2180,
      "sett": 2181,
      "proposed": 2182,
      "er": 2183,
      "appropri": 2184,
      "11": 2185,
      "front": 2186,
      "happened": 2187,
      "village": 2188,
      "cath": 2189,
      "contract": 2190,
      "standard": 2191,
      "executive": 2192,
      "hon": 2193,
      "provided": 2194,
      "brought": 2195,
      "changed": 2196,
      "journ": 2197,
      "surr": 2198,
      "30": 2199,
      "##bert": 2200,
      "aid": 2201,
      "field": 2202,
      "norm": 2203,
      "##ring": 2204,
      "above": 2205,
      "democr": 2206,
      "ancient": 2207,
      "lang": 2208,
      "lived": 2209,
      "##istic": 2210,
      "conn": 2211,
      "perh": 2212,
      "##isions": 2213,
      "wide": 2214,
      "##aign": 2215,
      "neg": 2216,
      "fair": 2217,
      "perhaps": 2218,
      "english": 2219,
      "purp": 2220,
      "roman": 2221,
      "##epend": 2222,
      "vir": 2223,
      "washing": 2224,
      "expected": 2225,
      "allowed": 2226,
      "campaign": 2227,
      "trust": 2228,
      "received": 2229,
      "describ": 2230,
      "anim": 2231,
      "jer": 2232,
      "recomm": 2233,
      "conv": 2234,
      "mrs": 2235,
      "poir": 2236,
      "fif": 2237,
      "plans": 2238,
      "neigh": 2239,
      "##ler": 2240,
      "ens": 2241,
      "places": 2242,
      "valley": 2243,
      "poirot": 2244,
      "din": 2245,
      "peace": 2246,
      "##ledge": 2247,
      "kept": 2248,
      "surpr": 2249,
      "blo": 2250,
      "displ": 2251,
      "struct": 2252,
      "independ": 2253,
      "##erous": 2254,
      "unf": 2255,
      "scr": 2256,
      "attack": 2257,
      "##airs": 2258,
      "leaders": 2259,
      "archit": 2260,
      "fa": 2261,
      "fire": 2262,
      "##den": 2263,
      "influ": 2264,
      "chap": 2265,
      "tried": 2266,
      "chall": 2267,
      "decided": 2268,
      "corpor": 2269,
      "weather": 2270,
      "##ols": 2271,
      "##isc": 2272,
      "architect": 2273,
      "jun": 2274,
      "##aced": 2275,
      "books": 2276,
      "moment": 2277,
      "batt": 2278,
      "mot": 2279,
      "##ai": 2280,
      "##ky": 2281,
      "##ceed": 2282,
      "##ization": 2283,
      "buildings": 2284,
      "epa": 2285,
      "gone": 2286,
      "pict": 2287,
      "inside": 2288,
      "##ips": 2289,
      "attention": 2290,
      "green": 2291,
      "washington": 2292,
      "##enue": 2293,
      "decision": 2294,
      "opportun": 2295,
      "##let": 2296,
      "##itely": 2297,
      "military": 2298,
      "bank": 2299,
      "##urance": 2300,
      "fort": 2301,
      "heav": 2302,
      "dog": 2303,
      "higher": 2304,
      "eat": 2305,
      "break": 2306,
      "##amb": 2307,
      "deep": 2308,
      "boy": 2309,
      "investment": 2310,
      "trade": 2311,
      "prefer": 2312,
      "entr": 2313,
      "gets": 2314,
      "paid": 2315,
      "egypt": 2316,
      "##he": 2317,
      "nobody": 2318,
      "none": 2319,
      "son": 2320,
      "applic": 2321,
      "game": 2322,
      "mass": 2323,
      "reform": 2324,
      "julius": 2325,
      "##ires": 2326,
      "request": 2327,
      "third": 2328,
      "mother": 2329,
      "whate": 2330,
      "spend": 2331,
      "party": 2332,
      "clean": 2333,
      "whatever": 2334,
      "lack": 2335,
      "creat": 2336,
      "##ores": 2337,
      "span": 2338,
      "dam": 2339,
      "gall": 2340,
      "mos": 2341,
      "rid": 2342,
      "express": 2343,
      "saint": 2344,
      "##ss": 2345,
      "necessary": 2346,
      "##ental": 2347,
      "##inese": 2348,
      "germ": 2349,
      "drive": 2350,
      "color": 2351,
      "unc": 2352,
      "prep": 2353,
      "funds": 2354,
      "chinese": 2355,
      "square": 2356,
      "district": 2357,
      "custom": 2358,
      "trou": 2359,
      "##akes": 2360,
      "designed": 2361,
      "hotel": 2362,
      "paint": 2363,
      "piece": 2364,
      "langu": 2365,
      "james": 2366,
      "vot": 2367,
      "recently": 2368,
      "##issions": 2369,
      "taxes": 2370,
      "hit": 2371,
      "##med": 2372,
      "education": 2373,
      "##lus": 2374,
      "knowledge": 2375,
      "appear": 2376,
      "##ades": 2377,
      "original": 2378,
      "household": 2379,
      "lower": 2380,
      "13": 2381,
      "item": 2382,
      "##osing": 2383,
      "acqu": 2384,
      "relations": 2385,
      "rates": 2386,
      "##ouch": 2387,
      "##lled": 2388,
      "itself": 2389,
      "super": 2390,
      "effic": 2391,
      "artic": 2392,
      "situation": 2393,
      "##eter": 2394,
      "created": 2395,
      "ord": 2396,
      "manu": 2397,
      "bush": 2398,
      "##sy": 2399,
      "##val": 2400,
      "##arch": 2401,
      "action": 2402,
      "following": 2403,
      "culture": 2404,
      "##ike": 2405,
      "##iqu": 2406,
      "crow": 2407,
      "##aught": 2408,
      "pan": 2409,
      "countries": 2410,
      "##ograph": 2411,
      "word": 2412,
      "auditors": 2413,
      "surround": 2414,
      "cat": 2415,
      "save": 2416,
      "secret": 2417,
      "corn": 2418,
      "ju": 2419,
      "##estern": 2420,
      "insp": 2421,
      "select": 2422,
      "mer": 2423,
      "spent": 2424,
      "ban": 2425,
      "bon": 2426,
      "spending": 2427,
      "manufact": 2428,
      "pack": 2429,
      "##ronic": 2430,
      "##rupt": 2431,
      "gun": 2432,
      "mess": 2433,
      "chance": 2434,
      "##iction": 2435,
      "remain": 2436,
      "retire": 2437,
      "2000": 2438,
      "finally": 2439,
      "##ams": 2440,
      "royal": 2441,
      "committ": 2442,
      "groups": 2443,
      "ways": 2444,
      "##hood": 2445,
      "##iled": 2446,
      "plant": 2447,
      "palace": 2448,
      "soft": 2449,
      "saying": 2450,
      "range": 2451,
      "lad": 2452,
      "scen": 2453,
      "##ios": 2454,
      "##ites": 2455,
      "##osp": 2456,
      "cook": 2457,
      "##itten": 2458,
      "wish": 2459,
      "##isl": 2460,
      "seemed": 2461,
      "society": 2462,
      "shops": 2463,
      "aver": 2464,
      "##ims": 2465,
      "practices": 2466,
      "efforts": 2467,
      "everybody": 2468,
      "natural": 2469,
      "isra": 2470,
      "focus": 2471,
      "israel": 2472,
      "mich": 2473,
      "engine": 2474,
      "character": 2475,
      "##olution": 2476,
      "complex": 2477,
      "apart": 2478,
      "broad": 2479,
      "sav": 2480,
      "moved": 2481,
      "laws": 2482,
      "di": 2483,
      "died": 2484,
      "##apers": 2485,
      "##ource": 2486,
      "annual": 2487,
      "bey": 2488,
      "princ": 2489,
      "training": 2490,
      "stock": 2491,
      "comb": 2492,
      "cold": 2493,
      "credit": 2494,
      "prior": 2495,
      "seven": 2496,
      "slow": 2497,
      "growth": 2498,
      "document": 2499,
      "##igr": 2500,
      "throughout": 2501,
      "sand": 2502,
      "intr": 2503,
      "appe": 2504,
      "ran": 2505,
      "separ": 2506,
      "lives": 2507,
      "extr": 2508,
      "internet": 2509,
      "##port": 2510,
      "##uries": 2511,
      "located": 2512,
      "medic": 2513,
      "princip": 2514,
      "50": 2515,
      "emb": 2516,
      "mater": 2517,
      "##ipment": 2518,
      "older": 2519,
      "tourist": 2520,
      "definitely": 2521,
      "notice": 2522,
      "indian": 2523,
      "western": 2524,
      "prim": 2525,
      "legisl": 2526,
      "streets": 2527,
      "trees": 2528,
      "japanese": 2529,
      "sant": 2530,
      "##idents": 2531,
      "increased": 2532,
      "geor": 2533,
      "##aries": 2534,
      "##thorp": 2535,
      "##ops": 2536,
      "altern": 2537,
      "##more": 2538,
      "##ded": 2539,
      "stone": 2540,
      "remains": 2541,
      "benefit": 2542,
      "##hic": 2543,
      "university": 2544,
      "wee": 2545,
      "tourists": 2546,
      "##bur": 2547,
      "ingle": 2548,
      "supposed": 2549,
      "exam": 2550,
      "maintain": 2551,
      "position": 2552,
      "included": 2553,
      "sle": 2554,
      "share": 2555,
      "phys": 2556,
      "respect": 2557,
      "inglethorp": 2558,
      "km": 2559,
      "##uth": 2560,
      "prices": 2561,
      "##for": 2562,
      "draw": 2563,
      "americans": 2564,
      "running": 2565,
      "views": 2566,
      "##xic": 2567,
      "##ci": 2568,
      "farm": 2569,
      "card": 2570,
      "alone": 2571,
      "reported": 2572,
      "cele": 2573,
      "cause": 2574,
      "narr": 2575,
      "force": 2576,
      "except": 2577,
      "communic": 2578,
      "ah": 2579,
      "fill": 2580,
      "gree": 2581,
      "wants": 2582,
      "traditional": 2583,
      "favorite": 2584,
      "terrible": 2585,
      "conduct": 2586,
      "celebr": 2587,
      "##ulpt": 2588,
      "##ift": 2589,
      "equipment": 2590,
      "critical": 2591,
      "size": 2592,
      "##ises": 2593,
      "sculpt": 2594,
      "exhib": 2595,
      "clients": 2596,
      "students": 2597,
      "assistance": 2598,
      "despite": 2599,
      "station": 2600,
      "subst": 2601,
      "##ological": 2602,
      "destro": 2603,
      "russ": 2604,
      "##arily": 2605,
      "##ification": 2606,
      "swe": 2607,
      "tar": 2608,
      "doub": 2609,
      "beyond": 2610,
      "father": 2611,
      "wild": 2612,
      "##olute": 2613,
      "##ude": 2614,
      "former": 2615,
      "weeks": 2616,
      "dark": 2617,
      "den": 2618,
      "upon": 2619,
      "##izing": 2620,
      "impress": 2621,
      "written": 2622,
      "paris": 2623,
      "emissions": 2624,
      "voice": 2625,
      "ign": 2626,
      "ti": 2627,
      "inn": 2628,
      "toward": 2629,
      "quar": 2630,
      "##uary": 2631,
      "##ma": 2632,
      "##cell": 2633,
      "##umn": 2634,
      "body": 2635,
      "##oon": 2636,
      "##go": 2637,
      "role": 2638,
      "garden": 2639,
      "additional": 2640,
      "fix": 2641,
      "china": 2642,
      "fell": 2643,
      "developed": 2644,
      "gardens": 2645,
      "link": 2646,
      "round": 2647,
      "##ength": 2648,
      "established": 2649,
      "dor": 2650,
      "hop": 2651,
      "rain": 2652,
      "##zz": 2653,
      "movies": 2654,
      "bab": 2655,
      "covered": 2656,
      "shopping": 2657,
      "continue": 2658,
      "practice": 2659,
      "learn": 2660,
      "dav": 2661,
      "mary": 2662,
      "mach": 2663,
      "adj": 2664,
      "discover": 2665,
      "page": 2666,
      "thinking": 2667,
      "indic": 2668,
      "surv": 2669,
      "islands": 2670,
      "##set": 2671,
      "absolute": 2672,
      "clim": 2673,
      "provides": 2674,
      "generally": 2675,
      "quickly": 2676,
      "##oming": 2677,
      "season": 2678,
      "insurance": 2679,
      "guy": 2680,
      "interested": 2681,
      "anyway": 2682,
      "initi": 2683,
      "check": 2684,
      "##oint": 2685,
      "feet": 2686,
      "increasing": 2687,
      "cand": 2688,
      "easily": 2689,
      "certainly": 2690,
      "vers": 2691,
      "##und": 2692,
      "region": 2693,
      "encour": 2694,
      "sad": 2695,
      "proced": 2696,
      "##ights": 2697,
      "instit": 2698,
      "fash": 2699,
      "##ware": 2700,
      "install": 2701,
      "language": 2702,
      "dang": 2703,
      "##ole": 2704,
      "pred": 2705,
      "imag": 2706,
      "##een": 2707,
      "extreme": 2708,
      "led": 2709,
      "##utions": 2710,
      "fres": 2711,
      "safe": 2712,
      "below": 2713,
      "tomb": 2714,
      "##ctions": 2715,
      "##vert": 2716,
      "feat": 2717,
      "affect": 2718,
      "reflect": 2719,
      "##oph": 2720,
      "crime": 2721,
      "cas": 2722,
      "vote": 2723,
      "##ode": 2724,
      "relationship": 2725,
      "##edi": 2726,
      "establish": 2727,
      "myself": 2728,
      "international": 2729,
      "dress": 2730,
      "effects": 2731,
      "##to": 2732,
      "##oses": 2733,
      "average": 2734,
      "web": 2735,
      "products": 2736,
      "battle": 2737,
      "blue": 2738,
      "largest": 2739,
      "basis": 2740,
      "afford": 2741,
      "evalu": 2742,
      "destroy": 2743,
      "dall": 2744,
      "rights": 2745,
      "looks": 2746,
      "25": 2747,
      "##ging": 2748,
      "goals": 2749,
      "earth": 2750,
      "bay": 2751,
      "bought": 2752,
      "sky": 2753,
      "skill": 2754,
      "ball": 2755,
      "rad": 2756,
      "##orr": 2757,
      "brown": 2758,
      "slate": 2759,
      "choice": 2760,
      "dallas": 2761,
      "hol": 2762,
      "mis": 2763,
      "##egr": 2764,
      "events": 2765,
      "drop": 2766,
      "patients": 2767,
      "##estic": 2768,
      "published": 2769,
      "gar": 2770,
      "purch": 2771,
      "##xim": 2772,
      "##pect": 2773,
      "deg": 2774,
      "cross": 2775,
      "lots": 2776,
      "various": 2777,
      "hosp": 2778,
      "tend": 2779,
      "wealth": 2780,
      "phil": 2781,
      "restr": 2782,
      "accounting": 2783,
      "growing": 2784,
      "spanish": 2785,
      "hate": 2786,
      "sites": 2787,
      "space": 2788,
      "german": 2789,
      "##ables": 2790,
      "##iff": 2791,
      "entities": 2792,
      "volume": 2793,
      "pleas": 2794,
      "answer": 2795,
      "retirement": 2796,
      "mid": 2797,
      "mand": 2798,
      "threat": 2799,
      "closed": 2800,
      "carry": 2801,
      "demon": 2802,
      "production": 2803,
      "steps": 2804,
      "construction": 2805,
      "emergency": 2806,
      "officials": 2807,
      "fast": 2808,
      "##leg": 2809,
      "comment": 2810,
      "letter": 2811,
      "nature": 2812,
      "floor": 2813,
      "##bers": 2814,
      "horse": 2815,
      "##bed": 2816,
      "##itor": 2817,
      "weap": 2818,
      "club": 2819,
      "##ck": 2820,
      "##ana": 2821,
      "hotels": 2822,
      "phot": 2823,
      "leading": 2824,
      "glass": 2825,
      "internal": 2826,
      "##aughter": 2827,
      "terms": 2828,
      "ded": 2829,
      "##ex": 2830,
      "##iest": 2831,
      "operations": 2832,
      "schools": 2833,
      "correct": 2834,
      "immedi": 2835,
      "attemp": 2836,
      "trip": 2837,
      "##aving": 2838,
      "flow": 2839,
      "fashion": 2840,
      "mostly": 2841,
      "meeting": 2842,
      "committee": 2843,
      "fem": 2844,
      "wait": 2845,
      "appropriate": 2846,
      "recommend": 2847,
      "luck": 2848,
      "##erve": 2849,
      "quiet": 2850,
      "actions": 2851,
      "difference": 2852,
      "##asons": 2853,
      "agre": 2854,
      "helped": 2855,
      "trouble": 2856,
      "##iques": 2857,
      "path": 2858,
      "ur": 2859,
      "ven": 2860,
      "##ches": 2861,
      "ali": 2862,
      "includes": 2863,
      "achieve": 2864,
      "louis": 2865,
      "excell": 2866,
      "##enced": 2867,
      "##like": 2868,
      "cathed": 2869,
      "##ining": 2870,
      "whose": 2871,
      "opin": 2872,
      "wrote": 2873,
      "watching": 2874,
      "cit": 2875,
      "mist": 2876,
      "##ux": 2877,
      "##ask": 2878,
      "integr": 2879,
      "avoid": 2880,
      "##ino": 2881,
      "##scape": 2882,
      "tower": 2883,
      "##ne": 2884,
      "stories": 2885,
      "##ustr": 2886,
      "individuals": 2887,
      "horr": 2888,
      "families": 2889,
      "rap": 2890,
      "goods": 2891,
      "lawyer": 2892,
      "##dh": 2893,
      "susp": 2894,
      "mic": 2895,
      "##uments": 2896,
      "consist": 2897,
      "mart": 2898,
      "##ob": 2899,
      "##uted": 2900,
      "stood": 2901,
      "##olf": 2902,
      "regulatory": 2903,
      "serve": 2904,
      "serious": 2905,
      "authority": 2906,
      "##aded": 2907,
      "spot": 2908,
      "sched": 2909,
      "mission": 2910,
      "sounds": 2911,
      "ensure": 2912,
      "##ax": 2913,
      "##unt": 2914,
      "offers": 2915,
      "particularly": 2916,
      "cities": 2917,
      "tit": 2918,
      "prec": 2919,
      "subm": 2920,
      "managers": 2921,
      "measure": 2922,
      "blood": 2923,
      "display": 2924,
      "master": 2925,
      "##astic": 2926,
      "##idge": 2927,
      "197": 2928,
      "gate": 2929,
      "##ivity": 2930,
      "##room": 2931,
      "medical": 2932,
      "40": 2933,
      "sens": 2934,
      "tom": 2935,
      "##ara": 2936,
      "effort": 2937,
      "nearly": 2938,
      "simply": 2939,
      "dave": 2940,
      "stra": 2941,
      "successful": 2942,
      "simple": 2943,
      "knows": 2944,
      "anymore": 2945,
      "guid": 2946,
      "obv": 2947,
      "absolutely": 2948,
      "dut": 2949,
      "##entions": 2950,
      "track": 2951,
      "accur": 2952,
      "connect": 2953,
      "jes": 2954,
      "named": 2955,
      "##yr": 2956,
      "##ively": 2957,
      "sports": 2958,
      "cloth": 2959,
      "levels": 2960,
      "winter": 2961,
      "##ipped": 2962,
      "fly": 2963,
      "confer": 2964,
      "truth": 2965,
      "regular": 2966,
      "reading": 2967,
      "##usal": 2968,
      "reduce": 2969,
      "thirty": 2970,
      "liter": 2971,
      "host": 2972,
      "##ban": 2973,
      "items": 2974,
      "senior": 2975,
      "administration": 2976,
      "ess": 2977,
      "##wide": 2978,
      "##come": 2979,
      "drugs": 2980,
      "imposs": 2981,
      "revenue": 2982,
      "passed": 2983,
      "pieces": 2984,
      "frequ": 2985,
      "multip": 2986,
      "##ented": 2987,
      "bye": 2988,
      "ready": 2989,
      "killed": 2990,
      "je": 2991,
      "lat": 2992,
      "ver": 2993,
      "##iced": 2994,
      "savings": 2995,
      "fisc": 2996,
      "prison": 2997,
      "reli": 2998,
      "investig": 2999,
      "equal": 3000,
      "occur": 3001,
      "accomp": 3002,
      "media": 3003,
      "types": 3004,
      "excellent": 3005,
      "60": 3006,
      "spl": 3007,
      "payments": 3008,
      "policies": 3009,
      "official": 3010,
      "army": 3011,
      "jewish": 3012,
      "restaurants": 3013,
      "1996": 3014,
      "constant": 3015,
      "##erry": 3016,
      "##onse": 3017,
      "perm": 3018,
      "cam": 3019,
      "##iling": 3020,
      "entertain": 3021,
      "journal": 3022,
      "mort": 3023,
      "##erved": 3024,
      "yourself": 3025,
      "centuries": 3026,
      "decl": 3027,
      "smaller": 3028,
      "beaches": 3029,
      "industr": 3030,
      "christian": 3031,
      "touch": 3032,
      "##pped": 3033,
      "##atively": 3034,
      "respond": 3035,
      "judge": 3036,
      "chair": 3037,
      "disp": 3038,
      "seek": 3039,
      "experi": 3040,
      "##ster": 3041,
      "##ibly": 3042,
      "bes": 3043,
      "payment": 3044,
      "methods": 3045,
      "commerc": 3046,
      "religious": 3047,
      "mention": 3048,
      "##lling": 3049,
      "beat": 3050,
      "newsp": 3051,
      "india": 3052,
      "potential": 3053,
      "fiscal": 3054,
      "walls": 3055,
      "property": 3056,
      "##eed": 3057,
      "##nes": 3058,
      "##sequ": 3059,
      "##ung": 3060,
      "somebody": 3061,
      "paying": 3062,
      "rooms": 3063,
      "sword": 3064,
      "beginning": 3065,
      "impossible": 3066,
      "grad": 3067,
      "column": 3068,
      "neighbor": 3069,
      "##oud": 3070,
      "added": 3071,
      "larger": 3072,
      "response": 3073,
      "##ille": 3074,
      "cars": 3075,
      "2001": 3076,
      "politics": 3077,
      "film": 3078,
      "article": 3079,
      "##ls": 3080,
      "decor": 3081,
      "conserv": 3082,
      "treas": 3083,
      "george": 3084,
      "david": 3085,
      "ft": 3086,
      "##omb": 3087,
      "##anced": 3088,
      "kal": 3089,
      "director": 3090,
      "buddh": 3091,
      "critics": 3092,
      "independent": 3093,
      "##iny": 3094,
      "parts": 3095,
      "block": 3096,
      "lay": 3097,
      "##reci": 3098,
      "##ulf": 3099,
      "mountains": 3100,
      "forward": 3101,
      "ange": 3102,
      "useful": 3103,
      "married": 3104,
      "phone": 3105,
      "electric": 3106,
      "estimates": 3107,
      "county": 3108,
      "vac": 3109,
      "box": 3110,
      "limited": 3111,
      "challeng": 3112,
      "catch": 3113,
      "gives": 3114,
      "inj": 3115,
      "##iring": 3116,
      "compl": 3117,
      "environmental": 3118,
      "giving": 3119,
      "##asc": 3120,
      "adop": 3121,
      "beg": 3122,
      "wear": 3123,
      "196": 3124,
      "enjoyed": 3125,
      "failed": 3126,
      "participants": 3127,
      "purpose": 3128,
      "animals": 3129,
      "convers": 3130,
      "southern": 3131,
      "regulations": 3132,
      "jerusal": 3133,
      "jerusalem": 3134,
      "##lier": 3135,
      "served": 3136,
      "science": 3137,
      "playing": 3138,
      "magaz": 3139,
      "hong": 3140,
      "sac": 3141,
      "##back": 3142,
      "nearby": 3143,
      "receive": 3144,
      "calif": 3145,
      "structure": 3146,
      "ben": 3147,
      "glo": 3148,
      "hang": 3149,
      "spain": 3150,
      "greater": 3151,
      "warm": 3152,
      "capt": 3153,
      "analy": 3154,
      "mountain": 3155,
      "responsible": 3156,
      "mix": 3157,
      "ut": 3158,
      "##put": 3159,
      "star": 3160,
      "spir": 3161,
      "##uctions": 3162,
      "providing": 3163,
      "variety": 3164,
      "magn": 3165,
      "note": 3166,
      "obtain": 3167,
      "constit": 3168,
      "hans": 3169,
      "pil": 3170,
      "##ira": 3171,
      "##ada": 3172,
      "points": 3173,
      "autom": 3174,
      "watched": 3175,
      "castle": 3176,
      "born": 3177,
      "bott": 3178,
      "pun": 3179,
      "hair": 3180,
      "advert": 3181,
      "##teen": 3182,
      "distrib": 3183,
      "republicans": 3184,
      "meant": 3185,
      "##ornia": 3186,
      "propos": 3187,
      "believed": 3188,
      "profit": 3189,
      "store": 3190,
      "##ously": 3191,
      "interview": 3192,
      "fest": 3193,
      "kong": 3194,
      "las": 3195,
      "rele": 3196,
      "sector": 3197,
      "sud": 3198,
      "coff": 3199,
      "consum": 3200,
      "requires": 3201,
      "oppos": 3202,
      "clearly": 3203,
      "fishing": 3204,
      "kid": 3205,
      "coll": 3206,
      "basic": 3207,
      "behav": 3208,
      "ib": 3209,
      "##aud": 3210,
      "reasons": 3211,
      "eastern": 3212,
      "tast": 3213,
      "##icians": 3214,
      "guide": 3215,
      "influence": 3216,
      "band": 3217,
      "##vey": 3218,
      "worse": 3219,
      "spoke": 3220,
      "cathedral": 3221,
      "##ety": 3222,
      "spring": 3223,
      "##ground": 3224,
      "setting": 3225,
      "charge": 3226,
      "swim": 3227,
      "stayed": 3228,
      "eye": 3229,
      "european": 3230,
      "flex": 3231,
      "paintings": 3232,
      "source": 3233,
      "qual": 3234,
      "prem": 3235,
      "directly": 3236,
      "straight": 3237,
      "500": 3238,
      "omb": 3239,
      "##fort": 3240,
      "##aters": 3241,
      "function": 3242,
      "continued": 3243,
      "assessment": 3244,
      "##ael": 3245,
      "ability": 3246,
      "expand": 3247,
      "decre": 3248,
      "remained": 3249,
      "jobs": 3250,
      "italian": 3251,
      "sleep": 3252,
      "adjust": 3253,
      "candid": 3254,
      "caught": 3255,
      "rural": 3256,
      "##eys": 3257,
      "liber": 3258,
      "opportunity": 3259,
      "destroyed": 3260,
      "agreed": 3261,
      "##iers": 3262,
      "suff": 3263,
      "decisions": 3264,
      "discount": 3265,
      "followed": 3266,
      "associated": 3267,
      "domestic": 3268,
      "eventually": 3269,
      "send": 3270,
      "tick": 3271,
      "##wood": 3272,
      "prin": 3273,
      "weak": 3274,
      "worry": 3275,
      "telev": 3276,
      "series": 3277,
      "remark": 3278,
      "empire": 3279,
      "thousands": 3280,
      "alternative": 3281,
      "greek": 3282,
      "hanson": 3283,
      "spect": 3284,
      "tele": 3285,
      "progress": 3286,
      "ideas": 3287,
      "estimate": 3288,
      "jack": 3289,
      "appl": 3290,
      "ended": 3291,
      "raised": 3292,
      "##mon": 3293,
      "factors": 3294,
      "daily": 3295,
      "billion": 3296,
      "currently": 3297,
      "route": 3298,
      "extra": 3299,
      "narrow": 3300,
      "extremely": 3301,
      "##ander": 3302,
      "crimin": 3303,
      "easier": 3304,
      "strategic": 3305,
      "21": 3306,
      "##uit": 3307,
      "##ners": 3308,
      "apply": 3309,
      "seeing": 3310,
      "played": 3311,
      "electronic": 3312,
      "rare": 3313,
      "##oes": 3314,
      "liked": 3315,
      "professional": 3316,
      "association": 3317,
      "shot": 3318,
      "unit": 3319,
      "flor": 3320,
      "writ": 3321,
      "contains": 3322,
      "jama": 3323,
      "##wise": 3324,
      "minor": 3325,
      "stopped": 3326,
      "micr": 3327,
      "gi": 3328,
      "##ament": 3329,
      "therefore": 3330,
      "sales": 3331,
      "shall": 3332,
      "england": 3333,
      "##ergy": 3334,
      "condition": 3335,
      "hurt": 3336,
      "loss": 3337,
      "##gas": 3338,
      "##oted": 3339,
      "affected": 3340,
      "create": 3341,
      "debt": 3342,
      "cash": 3343,
      "date": 3344,
      "##iar": 3345,
      "##change": 3346,
      "unless": 3347,
      "murder": 3348,
      "corner": 3349,
      "commercial": 3350,
      "##cil": 3351,
      "##itz": 3352,
      "##key": 3353,
      "##ula": 3354,
      "##action": 3355,
      "statements": 3356,
      "opened": 3357,
      "categ": 3358,
      "hind": 3359,
      "willing": 3360,
      "adult": 3361,
      "starting": 3362,
      "towards": 3363,
      "attorney": 3364,
      "efficient": 3365,
      "quarter": 3366,
      "##orrow": 3367,
      "thus": 3368,
      "reb": 3369,
      "exerc": 3370,
      "##icted": 3371,
      "meaning": 3372,
      "ken": 3373,
      "clock": 3374,
      "immediately": 3375,
      "eth": 3376,
      "doctor": 3377,
      "arab": 3378,
      "clos": 3379,
      "gas": 3380,
      "pet": 3381,
      "##aped": 3382,
      "amaz": 3383,
      "contact": 3384,
      "talked": 3385,
      "fresh": 3386,
      "citiz": 3387,
      "cheap": 3388,
      "##ares": 3389,
      "brother": 3390,
      "##ocked": 3391,
      "northern": 3392,
      "choose": 3393,
      "target": 3394,
      "sudden": 3395,
      "1998": 3396,
      "majority": 3397,
      "estimated": 3398,
      "intervention": 3399,
      "bord": 3400,
      "oil": 3401,
      "##ones": 3402,
      "mel": 3403,
      "lose": 3404,
      "values": 3405,
      "identify": 3406,
      "attorneys": 3407,
      "entrance": 3408,
      "games": 3409,
      "##ipt": 3410,
      "capac": 3411,
      "musl": 3412,
      "testing": 3413,
      "activity": 3414,
      "originally": 3415,
      "conference": 3416,
      "##ena": 3417,
      "##ests": 3418,
      "chief": 3419,
      "colon": 3420,
      "demonstr": 3421,
      "california": 3422,
      "die": 3423,
      "grew": 3424,
      "firm": 3425,
      "assets": 3426,
      "occas": 3427,
      "claims": 3428,
      "ul": 3429,
      "##chan": 3430,
      "anywhere": 3431,
      "fully": 3432,
      "jan": 3433,
      "boat": 3434,
      "appreci": 3435,
      "emper": 3436,
      "aug": 3437,
      "hyp": 3438,
      "sus": 3439,
      "doubt": 3440,
      "fol": 3441,
      "##lls": 3442,
      "march": 3443,
      "biggest": 3444,
      "entity": 3445,
      "treatment": 3446,
      "bono": 3447,
      "procedures": 3448,
      "rue": 3449,
      "theater": 3450,
      "stores": 3451,
      "##antage": 3452,
      "saf": 3453,
      "residents": 3454,
      "craft": 3455,
      "waiting": 3456,
      "multiple": 3457,
      "sor": 3458,
      "frank": 3459,
      "brief": 3460,
      "write": 3461,
      "introd": 3462,
      "lunch": 3463,
      "vide": 3464,
      "wine": 3465,
      "franc": 3466,
      "resort": 3467,
      "oldest": 3468,
      "statement": 3469,
      "funny": 3470,
      "generation": 3471,
      "cultural": 3472,
      "gain": 3473,
      "match": 3474,
      "sight": 3475,
      "##cl": 3476,
      "forg": 3477,
      "trail": 3478,
      "lew": 3479,
      "plants": 3480,
      "##izes": 3481,
      "disapp": 3482,
      "listen": 3483,
      "##levant": 3484,
      "wonderful": 3485,
      "features": 3486,
      "television": 3487,
      "##tim": 3488,
      "##emp": 3489,
      "##eth": 3490,
      "##ibilities": 3491,
      "bridge": 3492,
      "offered": 3493,
      "parties": 3494,
      "explain": 3495,
      "##umption": 3496,
      "italy": 3497,
      "search": 3498,
      "cool": 3499,
      "transport": 3500,
      "please": 3501,
      "evaluation": 3502,
      "##force": 3503,
      "hospital": 3504,
      "pow": 3505,
      "##uing": 3506,
      "##ague": 3507,
      "assum": 3508,
      "immigr": 3509,
      "hills": 3510,
      "daughter": 3511,
      "##reg": 3512,
      "shown": 3513,
      "sund": 3514,
      "compared": 3515,
      "towns": 3516,
      "existing": 3517,
      "ahead": 3518,
      "homes": 3519,
      "los": 3520,
      "od": 3521,
      "##ule": 3522,
      "dram": 3523,
      "##week": 3524,
      "feeling": 3525,
      "jesus": 3526,
      "gore": 3527,
      "unlike": 3528,
      "vegas": 3529,
      "1999": 3530,
      "camping": 3531,
      "positive": 3532,
      "grantees": 3533,
      "##ps": 3534,
      "repe": 3535,
      "shouldn": 3536,
      "standing": 3537,
      "projects": 3538,
      "implementation": 3539,
      "coffee": 3540,
      "merc": 3541,
      "nine": 3542,
      "##bb": 3543,
      "##ney": 3544,
      "##kn": 3545,
      "##ado": 3546,
      "location": 3547,
      "violence": 3548,
      "dinner": 3549,
      "prepared": 3550,
      "clothes": 3551,
      "mine": 3552,
      "samp": 3553,
      "##can": 3554,
      "##itude": 3555,
      "intended": 3556,
      "completed": 3557,
      "objectives": 3558,
      "heavy": 3559,
      "##ream": 3560,
      "##istics": 3561,
      "##oken": 3562,
      "evening": 3563,
      "traffic": 3564,
      "##raid": 3565,
      "dollar": 3566,
      "err": 3567,
      "july": 3568,
      "baby": 3569,
      "cub": 3570,
      "dub": 3571,
      "sitting": 3572,
      "tall": 3573,
      "tough": 3574,
      "sev": 3575,
      "guard": 3576,
      "highly": 3577,
      "earlier": 3578,
      "refused": 3579,
      "industrial": 3580,
      "neighborhood": 3581,
      "##ham": 3582,
      "##onna": 3583,
      "##oles": 3584,
      "interior": 3585,
      "moving": 3586,
      "walking": 3587,
      "anti": 3588,
      "separate": 3589,
      "breat": 3590,
      "stick": 3591,
      "starr": 3592,
      "lie": 3593,
      "businesses": 3594,
      "newsweek": 3595,
      "doro": 3596,
      "sources": 3597,
      "##kes": 3598,
      "201": 3599,
      "discussed": 3600,
      "reached": 3601,
      "birth": 3602,
      "dedic": 3603,
      "##men": 3604,
      "calls": 3605,
      "numbers": 3606,
      "representation": 3607,
      "learned": 3608,
      "tal": 3609,
      "theory": 3610,
      "surpl": 3611,
      "concerned": 3612,
      "michael": 3613,
      "burn": 3614,
      "##ta": 3615,
      "##ij": 3616,
      "mexic": 3617,
      "energy": 3618,
      "loved": 3619,
      "thinks": 3620,
      "commit": 3621,
      "writing": 3622,
      "limit": 3623,
      "award": 3624,
      "cav": 3625,
      "patter": 3626,
      "##mer": 3627,
      "##inct": 3628,
      "plenty": 3629,
      "draft": 3630,
      "afraid": 3631,
      "temples": 3632,
      "snow": 3633,
      "architecture": 3634,
      "nap": 3635,
      "rand": 3636,
      "wer": 3637,
      "##oft": 3638,
      "forced": 3639,
      "worst": 3640,
      "risks": 3641,
      "totally": 3642,
      "member": 3643,
      "software": 3644,
      "capacity": 3645,
      "psy": 3646,
      "race": 3647,
      "rail": 3648,
      "##inated": 3649,
      "welf": 3650,
      "amb": 3651,
      "thank": 3652,
      "counsel": 3653,
      "council": 3654,
      "understanding": 3655,
      "##ycle": 3656,
      "opinion": 3657,
      "welfare": 3658,
      "papers": 3659,
      "##inating": 3660,
      "noted": 3661,
      "prosp": 3662,
      "holy": 3663,
      "caused": 3664,
      "election": 3665,
      "determine": 3666,
      "fifty": 3667,
      "rac": 3668,
      "thorn": 3669,
      "robert": 3670,
      "defense": 3671,
      "routes": 3672,
      "acquis": 3673,
      "rent": 3674,
      "slight": 3675,
      "revolution": 3676,
      "engage": 3677,
      "recognized": 3678,
      "##ucing": 3679,
      "police": 3680,
      "busy": 3681,
      "##riage": 3682,
      "vari": 3683,
      "picture": 3684,
      "susan": 3685,
      "psych": 3686,
      "bow": 3687,
      "retr": 3688,
      "##irt": 3689,
      "spee": 3690,
      "instr": 3691,
      "1997": 3692,
      "performed": 3693,
      "historical": 3694,
      "behavior": 3695,
      "##los": 3696,
      "stew": 3697,
      "actual": 3698,
      "symb": 3699,
      "##centr": 3700,
      "##aza": 3701,
      "controls": 3702,
      "powerful": 3703,
      "bother": 3704,
      "##ifying": 3705,
      "19th": 3706,
      "minim": 3707,
      "minute": 3708,
      "##azz": 3709,
      "conditions": 3710,
      "protection": 3711,
      "weren": 3712,
      "##ller": 3713,
      "advoc": 3714,
      "republican": 3715,
      "boring": 3716,
      "##outh": 3717,
      "bron": 3718,
      "ride": 3719,
      "##iday": 3720,
      "waste": 3721,
      "##ested": 3722,
      "statue": 3723,
      "16th": 3724,
      "eld": 3725,
      "uses": 3726,
      "brand": 3727,
      "appar": 3728,
      "18th": 3729,
      "radio": 3730,
      "august": 3731,
      "##iles": 3732,
      "concept": 3733,
      "trib": 3734,
      "relax": 3735,
      "handle": 3736,
      "##fficient": 3737,
      "martin": 3738,
      "##50": 3739,
      "##lam": 3740,
      "##ulated": 3741,
      "##iveness": 3742,
      "screening": 3743,
      "pictures": 3744,
      "bag": 3745,
      "ton": 3746,
      "##light": 3747,
      "concentr": 3748,
      "union": 3749,
      "survey": 3750,
      "foundation": 3751,
      "executives": 3752,
      "normal": 3753,
      "jury": 3754,
      "##oh": 3755,
      "##af": 3756,
      "leaving": 3757,
      "##oking": 3758,
      "accounts": 3759,
      "satis": 3760,
      "regarding": 3761,
      "manufacturing": 3762,
      "cow": 3763,
      "gent": 3764,
      "nin": 3765,
      "wed": 3766,
      "##ae": 3767,
      "##eless": 3768,
      "discussion": 3769,
      "prevent": 3770,
      "dangerous": 3771,
      "emperor": 3772,
      "##mber": 3773,
      "##etic": 3774,
      "libr": 3775,
      "##ender": 3776,
      "importance": 3777,
      "hundreds": 3778,
      "football": 3779,
      "gather": 3780,
      "##unk": 3781,
      "cru": 3782,
      "rulem": 3783,
      "interventions": 3784,
      "entirely": 3785,
      "virgin": 3786,
      "micros": 3787,
      "via": 3788,
      "##erate": 3789,
      "neither": 3790,
      "grass": 3791,
      "painted": 3792,
      "##liance": 3793,
      "et": 3794,
      "##mas": 3795,
      "##dom": 3796,
      "client": 3797,
      "incent": 3798,
      "overall": 3799,
      "conclus": 3800,
      "pattern": 3801,
      "bi": 3802,
      "bare": 3803,
      "dan": 3804,
      "golf": 3805,
      "print": 3806,
      "novel": 3807,
      "##iel": 3808,
      "log": 3809,
      "profession": 3810,
      "lux": 3811,
      "##gu": 3812,
      "##ston": 3813,
      "comfort": 3814,
      "194": 3815,
      "findings": 3816,
      "records": 3817,
      "golden": 3818,
      "unfortun": 3819,
      "fasc": 3820,
      "##pper": 3821,
      "unp": 3822,
      "unique": 3823,
      "restaurant": 3824,
      "june": 3825,
      "weapons": 3826,
      "##enge": 3827,
      "##ieval": 3828,
      "1995": 3829,
      "involve": 3830,
      "lady": 3831,
      "cards": 3832,
      "fat": 3833,
      "exchange": 3834,
      "##using": 3835,
      "strange": 3836,
      "strug": 3837,
      "stands": 3838,
      "matters": 3839,
      "purs": 3840,
      "material": 3841,
      "citizens": 3842,
      "rulemaking": 3843,
      "dod": 3844,
      "push": 3845,
      "vand": 3846,
      "##wor": 3847,
      "##ca": 3848,
      "##ald": 3849,
      "##lex": 3850,
      "##antic": 3851,
      "alt": 3852,
      "units": 3853,
      "##ago": 3854,
      "otherwise": 3855,
      "afric": 3856,
      "career": 3857,
      "suggested": 3858,
      "pollution": 3859,
      "il": 3860,
      "thanks": 3861,
      "guys": 3862,
      "housing": 3863,
      "competition": 3864,
      "gallery": 3865,
      "filled": 3866,
      "dad": 3867,
      "rise": 3868,
      "##zen": 3869,
      "arts": 3870,
      "willi": 3871,
      "##ancy": 3872,
      "greatest": 3873,
      "produce": 3874,
      "defic": 3875,
      "senate": 3876,
      "transfer": 3877,
      "employee": 3878,
      "glad": 3879,
      "aware": 3880,
      "mosque": 3881,
      "relevant": 3882,
      "compliance": 3883,
      "fear": 3884,
      "veget": 3885,
      "processes": 3886,
      "situ": 3887,
      "identified": 3888,
      "network": 3889,
      "double": 3890,
      "shoot": 3891,
      "determined": 3892,
      "22": 3893,
      "rose": 3894,
      "conflic": 3895,
      "manager": 3896,
      "households": 3897,
      "bath": 3898,
      "mall": 3899,
      "oct": 3900,
      "finance": 3901,
      "happens": 3902,
      "described": 3903,
      "nod": 3904,
      "names": 3905,
      "task": 3906,
      "lif": 3907,
      "text": 3908,
      "recip": 3909,
      "cert": 3910,
      "leadership": 3911,
      "chapter": 3912,
      "##oo": 3913,
      "##otic": 3914,
      "##abor": 3915,
      "highest": 3916,
      "earn": 3917,
      "mac": 3918,
      "##mark": 3919,
      "##adem": 3920,
      "##asts": 3921,
      "monument": 3922,
      "reduction": 3923,
      "markets": 3924,
      "medieval": 3925,
      "technical": 3926,
      "announ": 3927,
      "ira": 3928,
      "jane": 3929,
      "peak": 3930,
      "pool": 3931,
      "decide": 3932,
      "register": 3933,
      "flat": 3934,
      "examples": 3935,
      "concerns": 3936,
      "##burgh": 3937,
      "skills": 3938,
      "acquisition": 3939,
      "bomb": 3940,
      "yard": 3941,
      "##rel": 3942,
      "wel": 3943,
      "spread": 3944,
      "interp": 3945,
      "rob": 3946,
      "##enses": 3947,
      "leader": 3948,
      "reviews": 3949,
      "##mos": 3950,
      "weight": 3951,
      "enem": 3952,
      "calc": 3953,
      "##idden": 3954,
      "17th": 3955,
      "girls": 3956,
      "accepted": 3957,
      "abuse": 3958,
      "uns": 3959,
      "##aging": 3960,
      "offices": 3961,
      "student": 3962,
      "changing": 3963,
      "advice": 3964,
      "figures": 3965,
      "scenar": 3966,
      "appeal": 3967,
      "imagine": 3968,
      "##nie": 3969,
      "##ket": 3970,
      "##eria": 3971,
      "monaster": 3972,
      "helps": 3973,
      "players": 3974,
      "keeping": 3975,
      "fighting": 3976,
      "drinking": 3977,
      "amp": 3978,
      "##da": 3979,
      "##oned": 3980,
      "sem": 3981,
      "suit": 3982,
      "scient": 3983,
      "boil": 3984,
      "command": 3985,
      "guar": 3986,
      "depend": 3987,
      "founded": 3988,
      "skin": 3989,
      "critic": 3990,
      "microsoft": 3991,
      "trial": 3992,
      "gotten": 3993,
      "helping": 3994,
      "planned": 3995,
      "advantage": 3996,
      "territ": 3997,
      "initial": 3998,
      "merch": 3999,
      "substant": 4000,
      "cyn": 4001,
      "lines": 4002,
      "goal": 4003,
      "##agon": 4004,
      "irish": 4005,
      "details": 4006,
      "ultim": 4007,
      "##rid": 4008,
      "online": 4009,
      "##tered": 4010,
      "defe": 4011,
      "chem": 4012,
      "indeed": 4013,
      "mob": 4014,
      "produced": 4015,
      "surprised": 4016,
      "machine": 4017,
      "entertainment": 4018,
      "spectac": 4019,
      "laugh": 4020,
      "mir": 4021,
      "islam": 4022,
      "throw": 4023,
      "circum": 4024,
      "medicare": 4025,
      "version": 4026,
      "conversation": 4027,
      "sam": 4028,
      "##sid": 4029,
      "##olic": 4030,
      "shel": 4031,
      "##unte": 4032,
      "firms": 4033,
      "factor": 4034,
      "status": 4035,
      "volunte": 4036,
      "previous": 4037,
      "corporate": 4038,
      "mortality": 4039,
      "speech": 4040,
      "mcc": 4041,
      "##eries": 4042,
      "##orses": 4043,
      "bob": 4044,
      "cafe": 4045,
      "stret": 4046,
      "funded": 4047,
      "exercise": 4048,
      "dedicated": 4049,
      "bul": 4050,
      "mc": 4051,
      "##ais": 4052,
      "##do": 4053,
      "##anch": 4054,
      "pra": 4055,
      "##ulate": 4056,
      "##oked": 4057,
      "##akers": 4058,
      "showed": 4059,
      "kinds": 4060,
      "holly": 4061,
      "walked": 4062,
      "pleasant": 4063,
      "gradu": 4064,
      "vast": 4065,
      "##erly": 4066,
      "##ctors": 4067,
      "forces": 4068,
      "quant": 4069,
      "buying": 4070,
      "aftern": 4071,
      "differences": 4072,
      "coverage": 4073,
      "accountability": 4074,
      "congressional": 4075,
      "window": 4076,
      "degree": 4077,
      "guarant": 4078,
      "vice": 4079,
      "tea": 4080,
      "artists": 4081,
      "raise": 4082,
      "virt": 4083,
      "faith": 4084,
      "climb": 4085,
      "##nam": 4086,
      "##west": 4087,
      "compar": 4088,
      "##roll": 4089,
      "supply": 4090,
      "finding": 4091,
      "honor": 4092,
      "legislation": 4093,
      "schedule": 4094,
      "tap": 4095,
      "stup": 4096,
      "heat": 4097,
      "tri": 4098,
      "hadn": 4099,
      "grown": 4100,
      "##gry": 4101,
      "##berg": 4102,
      "##ancing": 4103,
      "relatively": 4104,
      "selling": 4105,
      "malays": 4106,
      "fortun": 4107,
      "spirit": 4108,
      "library": 4109,
      "horses": 4110,
      "reve": 4111,
      "users": 4112,
      "invent": 4113,
      "suppose": 4114,
      "courts": 4115,
      "younger": 4116,
      "requirement": 4117,
      "cuts": 4118,
      "speaking": 4119,
      "responsibility": 4120,
      "honest": 4121,
      "angeles": 4122,
      "row": 4123,
      "##ba": 4124,
      "##ortion": 4125,
      "##emey": 4126,
      "developing": 4127,
      "measures": 4128,
      "recommendations": 4129,
      "opposite": 4130,
      "bou": 4131,
      "lic": 4132,
      "length": 4133,
      "##ries": 4134,
      "forget": 4135,
      "hell": 4136,
      "shar": 4137,
      "feed": 4138,
      "##ictions": 4139,
      "models": 4140,
      "facilities": 4141,
      "inspect": 4142,
      "engineering": 4143,
      "swimming": 4144,
      "gh": 4145,
      "frame": 4146,
      "twice": 4147,
      "##ension": 4148,
      "recon": 4149,
      "concer": 4150,
      "##place": 4151,
      "steel": 4152,
      "argument": 4153,
      "primary": 4154,
      "rome": 4155,
      "tun": 4156,
      "aspect": 4157,
      "lies": 4158,
      "plain": 4159,
      "bright": 4160,
      "editor": 4161,
      "flexibility": 4162,
      "##emeyer": 4163,
      "##lig": 4164,
      "##inary": 4165,
      "##othing": 4166,
      "vehic": 4167,
      "elig": 4168,
      "organizational": 4169,
      "advis": 4170,
      "arrived": 4171,
      "presented": 4172,
      "construct": 4173,
      "slowly": 4174,
      "magazine": 4175,
      "jamaica": 4176,
      "cart": 4177,
      "mat": 4178,
      "##ein": 4179,
      "tools": 4180,
      "inqu": 4181,
      "strength": 4182,
      "desert": 4183,
      "tests": 4184,
      "portug": 4185,
      "illustr": 4186,
      "perfectly": 4187,
      "santa": 4188,
      "breath": 4189,
      "vandemeyer": 4190,
      "hasn": 4191,
      "familiar": 4192,
      "amazing": 4193,
      "bound": 4194,
      "cab": 4195,
      "##bal": 4196,
      "##cer": 4197,
      "finished": 4198,
      "advent": 4199,
      "painting": 4200,
      "der": 4201,
      "ine": 4202,
      "driving": 4203,
      "visited": 4204,
      "irs": 4205,
      "windows": 4206,
      "democrats": 4207,
      "neighb": 4208,
      "chapel": 4209,
      "challenges": 4210,
      "dish": 4211,
      "era": 4212,
      "tiny": 4213,
      "##oti": 4214,
      "##ayed": 4215,
      "dece": 4216,
      "##endish": 4217,
      "resident": 4218,
      "roof": 4219,
      "occup": 4220,
      "freed": 4221,
      "massive": 4222,
      "song": 4223,
      "##gs": 4224,
      "##orters": 4225,
      "shut": 4226,
      "##ession": 4227,
      "centre": 4228,
      "issued": 4229,
      "fourth": 4230,
      "speed": 4231,
      "jews": 4232,
      "mere": 4233,
      "##oln": 4234,
      "tro": 4235,
      "confir": 4236,
      "24": 4237,
      "##ii": 4238,
      "##ha": 4239,
      "forth": 4240,
      "##ulous": 4241,
      "sufficient": 4242,
      "scand": 4243,
      "mont": 4244,
      "consult": 4245,
      "owned": 4246,
      "marriage": 4247,
      "instance": 4248,
      "numerous": 4249,
      "techniques": 4250,
      "corporation": 4251,
      "conducted": 4252,
      "linc": 4253,
      "##ji": 4254,
      "##era": 4255,
      "##ini": 4256,
      "##onom": 4257,
      "contemp": 4258,
      "worried": 4259,
      "saved": 4260,
      "imper": 4261,
      "carter": 4262,
      "topic": 4263,
      "movement": 4264,
      "regardless": 4265,
      "options": 4266,
      "guidance": 4267,
      "cavendish": 4268,
      "lincoln": 4269,
      "gd": 4270,
      "pic": 4271,
      "##bon": 4272,
      "##inal": 4273,
      "192": 4274,
      "governments": 4275,
      "##ologies": 4276,
      "opportunities": 4277,
      "russian": 4278,
      "constitution": 4279,
      "cell": 4280,
      "iron": 4281,
      "##inger": 4282,
      "##reh": 4283,
      "##itness": 4284,
      "perman": 4285,
      "surrounding": 4286,
      "circumst": 4287,
      "gal": 4288,
      "##gd": 4289,
      "##atically": 4290,
      "fraud": 4291,
      "193": 4292,
      "slaves": 4293,
      "audits": 4294,
      "tours": 4295,
      "##insky": 4296,
      "returned": 4297,
      "observ": 4298,
      "sunday": 4299,
      "illeg": 4300,
      "alex": 4301,
      "hen": 4302,
      "nurs": 4303,
      "van": 4304,
      "##ties": 4305,
      "##iency": 4306,
      "##eness": 4307,
      "fired": 4308,
      "decline": 4309,
      "##ardship": 4310,
      "weekend": 4311,
      "telling": 4312,
      "improved": 4313,
      "crowd": 4314,
      "dublin": 4315,
      "unfortunately": 4316,
      "bond": 4317,
      "tree": 4318,
      "##time": 4319,
      "##ero": 4320,
      "##ari": 4321,
      "chic": 4322,
      "broke": 4323,
      "fellow": 4324,
      "contro": 4325,
      "owners": 4326,
      "reduced": 4327,
      "responsibilities": 4328,
      "silver": 4329,
      "picked": 4330,
      "fixed": 4331,
      "electricity": 4332,
      "sorry": 4333,
      "afternoon": 4334,
      "lakes": 4335,
      "ou": 4336,
      "##has": 4337,
      "spr": 4338,
      "compon": 4339,
      "strict": 4340,
      "gothic": 4341,
      "counter": 4342,
      "succeed": 4343,
      "satur": 4344,
      "surrounded": 4345,
      "safety": 4346,
      "gdp": 4347,
      "bure": 4348,
      "ice": 4349,
      "lond": 4350,
      "haw": 4351,
      "sept": 4352,
      "academ": 4353,
      "queen": 4354,
      "##owned": 4355,
      "carri": 4356,
      "smiled": 4357,
      "apr": 4358,
      "agreement": 4359,
      "negative": 4360,
      "cup": 4361,
      "mile": 4362,
      "##tom": 4363,
      "##bit": 4364,
      "##hab": 4365,
      "##ford": 4366,
      "stage": 4367,
      "shad": 4368,
      "carved": 4369,
      "realize": 4370,
      "retail": 4371,
      "eleg": 4372,
      "damage": 4373,
      "magnific": 4374,
      "hollywood": 4375,
      "cio": 4376,
      "##uous": 4377,
      "##orary": 4378,
      "unable": 4379,
      "becoming": 4380,
      "somewhere": 4381,
      "herself": 4382,
      "shook": 4383,
      "screen": 4384,
      "selection": 4385,
      "jump": 4386,
      "native": 4387,
      "ol": 4388,
      "rough": 4389,
      "rang": 4390,
      "##arian": 4391,
      "stated": 4392,
      "likes": 4393,
      "compr": 4394,
      "dry": 4395,
      "marble": 4396,
      "asking": 4397,
      "conclud": 4398,
      "holding": 4399,
      "attractions": 4400,
      "distance": 4401,
      "contributions": 4402,
      "vacation": 4403,
      "london": 4404,
      "ber": 4405,
      "##per": 4406,
      "##itors": 4407,
      "##enth": 4408,
      "##sec": 4409,
      "ship": 4410,
      "##apt": 4411,
      "provid": 4412,
      "reductions": 4413,
      "putting": 4414,
      "2002": 4415,
      "negoti": 4416,
      "orders": 4417,
      "title": 4418,
      "kar": 4419,
      "noticed": 4420,
      "conqu": 4421,
      "aband": 4422,
      "meat": 4423,
      "upset": 4424,
      "boys": 4425,
      "boats": 4426,
      "leads": 4427,
      "productivity": 4428,
      "statues": 4429,
      "patient": 4430,
      "teams": 4431,
      "message": 4432,
      "bell": 4433,
      "forms": 4434,
      "calm": 4435,
      "memor": 4436,
      "apartment": 4437,
      "impressive": 4438,
      "female": 4439,
      "suddenly": 4440,
      "bureau": 4441,
      "gay": 4442,
      "rub": 4443,
      "consequ": 4444,
      "chann": 4445,
      "tru": 4446,
      "edin": 4447,
      "runs": 4448,
      "##holders": 4449,
      "victor": 4450,
      "gift": 4451,
      "##ett": 4452,
      "agric": 4453,
      "dism": 4454,
      "symp": 4455,
      "typically": 4456,
      "terror": 4457,
      "burden": 4458,
      "rena": 4459,
      "william": 4460,
      "edinburgh": 4461,
      "fan": 4462,
      "hat": 4463,
      "rat": 4464,
      "waters": 4465,
      "##ding": 4466,
      "coal": 4467,
      "challenge": 4468,
      "video": 4469,
      "spectacular": 4470,
      "agricult": 4471,
      "gonna": 4472,
      "nav": 4473,
      "pound": 4474,
      "proceed": 4475,
      "enh": 4476,
      "worksh": 4477,
      "##issance": 4478,
      "approved": 4479,
      "##ront": 4480,
      "newspaper": 4481,
      "nodded": 4482,
      "bars": 4483,
      "kent": 4484,
      "mouth": 4485,
      "##pm": 4486,
      "##stein": 4487,
      "whom": 4488,
      "proud": 4489,
      "##ulations": 4490,
      "##izz": 4491,
      "cry": 4492,
      "believes": 4493,
      "##iking": 4494,
      "addressed": 4495,
      "principles": 4496,
      "physical": 4497,
      "##nic": 4498,
      "hearing": 4499,
      "conver": 4500,
      "lawn": 4501,
      "presence": 4502,
      "depends": 4503,
      "defend": 4504,
      "communities": 4505,
      "moral": 4506,
      "stake": 4507,
      "computers": 4508,
      "friendly": 4509,
      "shrine": 4510,
      "fairly": 4511,
      "innov": 4512,
      "punish": 4513,
      "aim": 4514,
      "furn": 4515,
      "##hi": 4516,
      "##ched": 4517,
      "##adel": 4518,
      "disag": 4519,
      "produc": 4520,
      "explained": 4521,
      "facility": 4522,
      "managed": 4523,
      "documents": 4524,
      "renaissance": 4525,
      "kitch": 4526,
      "##equ": 4527,
      "##aming": 4528,
      "maxim": 4529,
      "amend": 4530,
      "scale": 4531,
      "##encies": 4532,
      "join": 4533,
      "madeira": 4534,
      "belong": 4535,
      "churches": 4536,
      "roads": 4537,
      "loud": 4538,
      "communication": 4539,
      "dropped": 4540,
      "photograph": 4541,
      "consistent": 4542,
      "january": 4543,
      "april": 4544,
      "aust": 4545,
      "sar": 4546,
      "seat": 4547,
      "195": 4548,
      "carp": 4549,
      "attend": 4550,
      "basically": 4551,
      "protest": 4552,
      "aliens": 4553,
      "mond": 4554,
      "##off": 4555,
      "##wards": 4556,
      "fee": 4557,
      "schol": 4558,
      "letters": 4559,
      "delight": 4560,
      "magic": 4561,
      "##gment": 4562,
      "##house": 4563,
      "clothing": 4564,
      "fees": 4565,
      "howard": 4566,
      "pover": 4567,
      "centers": 4568,
      "smart": 4569,
      "reasonable": 4570,
      "penal": 4571,
      "strategy": 4572,
      "pressure": 4573,
      "teacher": 4574,
      "purchase": 4575,
      "flowers": 4576,
      "besides": 4577,
      "apparently": 4578,
      "300": 4579,
      "bod": 4580,
      "hers": 4581,
      "hide": 4582,
      "mas": 4583,
      "##enn": 4584,
      "##ita": 4585,
      "mechan": 4586,
      "click": 4587,
      "compreh": 4588,
      "##iza": 4589,
      "brad": 4590,
      "explan": 4591,
      "entered": 4592,
      "religion": 4593,
      "discovered": 4594,
      "por": 4595,
      "sick": 4596,
      "alive": 4597,
      "resorts": 4598,
      "##well": 4599,
      "flight": 4600,
      "1990": 4601,
      "edge": 4602,
      "pointed": 4603,
      "absor": 4604,
      "christmas": 4605,
      "elements": 4606,
      "customers": 4607,
      "encourage": 4608,
      "##iment": 4609,
      "##tery": 4610,
      "##aints": 4611,
      "loan": 4612,
      "##others": 4613,
      "elimin": 4614,
      "content": 4615,
      "restored": 4616,
      "trading": 4617,
      "learning": 4618,
      "forgot": 4619,
      "freedom": 4620,
      "ath": 4621,
      "##gen": 4622,
      "##icip": 4623,
      "whe": 4624,
      "ash": 4625,
      "leather": 4626,
      "hero": 4627,
      "monica": 4628,
      "subsid": 4629,
      "##ashed": 4630,
      "reviewed": 4631,
      "operating": 4632,
      "awful": 4633,
      "specifically": 4634,
      "creating": 4635,
      "horrible": 4636,
      "criminal": 4637,
      "poverty": 4638,
      "fal": 4639,
      "pia": 4640,
      "sister": 4641,
      "wil": 4642,
      "##east": 4643,
      "##ois": 4644,
      "##ville": 4645,
      "shape": 4646,
      "##iverse": 4647,
      "interests": 4648,
      "hardly": 4649,
      "balance": 4650,
      "recognize": 4651,
      "soldiers": 4652,
      "democratic": 4653,
      "advertising": 4654,
      "esc": 4655,
      "##uk": 4656,
      "##iy": 4657,
      "thick": 4658,
      "pray": 4659,
      "neat": 4660,
      "dole": 4661,
      "##elve": 4662,
      "clin": 4663,
      "##aret": 4664,
      "overs": 4665,
      "skies": 4666,
      "attractive": 4667,
      "random": 4668,
      "piazz": 4669,
      "27": 4670,
      "pm": 4671,
      "##eration": 4672,
      "##alia": 4673,
      "onto": 4674,
      "##ida": 4675,
      "manner": 4676,
      "plus": 4677,
      "brill": 4678,
      "increases": 4679,
      "approxim": 4680,
      "harbor": 4681,
      "sexual": 4682,
      "application": 4683,
      "accurate": 4684,
      "ox": 4685,
      "rh": 4686,
      "##lies": 4687,
      "wearing": 4688,
      "##antly": 4689,
      "##ishing": 4690,
      "##agan": 4691,
      "scott": 4692,
      "decade": 4693,
      "owner": 4694,
      "emot": 4695,
      "millions": 4696,
      "missed": 4697,
      "archae": 4698,
      "salt": 4699,
      "effectively": 4700,
      "implemented": 4701,
      "hunt": 4702,
      "secretary": 4703,
      "obvious": 4704,
      "obviously": 4705,
      "slightly": 4706,
      "magnificent": 4707,
      "fgd": 4708,
      "hom": 4709,
      "pages": 4710,
      "##water": 4711,
      "##ette": 4712,
      "leaves": 4713,
      "enforce": 4714,
      "scene": 4715,
      "audience": 4716,
      "covers": 4717,
      "employment": 4718,
      "kingdom": 4719,
      "taste": 4720,
      "september": 4721,
      "truly": 4722,
      "80": 4723,
      "cere": 4724,
      "gamb": 4725,
      "##ils": 4726,
      "anybody": 4727,
      "oblig": 4728,
      "depos": 4729,
      "publish": 4730,
      "proposal": 4731,
      "hindu": 4732,
      "border": 4733,
      "code": 4734,
      "##nel": 4735,
      "##zar": 4736,
      "##amble": 4737,
      "accident": 4738,
      "direction": 4739,
      "harm": 4740,
      "rennie": 4741,
      "baseball": 4742,
      "materials": 4743,
      "initiative": 4744,
      "splend": 4745,
      "experienced": 4746,
      "festival": 4747,
      "illegal": 4748,
      "90": 4749,
      "oce": 4750,
      "##lers": 4751,
      "storm": 4752,
      "sections": 4753,
      "gross": 4754,
      "remo": 4755,
      "cutting": 4756,
      "detailed": 4757,
      "bust": 4758,
      "cats": 4759,
      "##ober": 4760,
      "resist": 4761,
      "decades": 4762,
      "governor": 4763,
      "wars": 4764,
      "explore": 4765,
      "collections": 4766,
      "extent": 4767,
      "solution": 4768,
      "##heim": 4769,
      "package": 4770,
      "october": 4771,
      "iv": 4772,
      "os": 4773,
      "upper": 4774,
      "##pie": 4775,
      "##aled": 4776,
      "##itation": 4777,
      "stars": 4778,
      "delic": 4779,
      "orient": 4780,
      "offering": 4781,
      "carried": 4782,
      "provisions": 4783,
      "museums": 4784,
      "##phere": 4785,
      "option": 4786,
      "bau": 4787,
      "##ef": 4788,
      "retain": 4789,
      "##stand": 4790,
      "forest": 4791,
      "adequ": 4792,
      "overse": 4793,
      "hole": 4794,
      "processing": 4795,
      "meetings": 4796,
      "strategies": 4797,
      "replace": 4798,
      "fascinating": 4799,
      "cable": 4800,
      "fit": 4801,
      "pill": 4802,
      "wal": 4803,
      "##ris": 4804,
      "hey": 4805,
      "##aka": 4806,
      "##aked": 4807,
      "barb": 4808,
      "advance": 4809,
      "percentage": 4810,
      "happening": 4811,
      "dogs": 4812,
      "cave": 4813,
      "dance": 4814,
      "divers": 4815,
      "dyn": 4816,
      "nom": 4817,
      "##iture": 4818,
      "outc": 4819,
      "##tress": 4820,
      "reput": 4821,
      "smith": 4822,
      "empty": 4823,
      "##raft": 4824,
      "reality": 4825,
      "image": 4826,
      "improvement": 4827,
      "selected": 4828,
      "adopted": 4829,
      "eating": 4830,
      "male": 4831,
      "sult": 4832,
      "va": 4833,
      "witness": 4834,
      "forever": 4835,
      "##ght": 4836,
      "placed": 4837,
      "becomes": 4838,
      "artist": 4839,
      "##what": 4840,
      "attempt": 4841,
      "reliability": 4842,
      "distribution": 4843,
      "applied": 4844,
      "sharp": 4845,
      "dig": 4846,
      "ky": 4847,
      "sather": 4848,
      "##com": 4849,
      "##lets": 4850,
      "##okes": 4851,
      "intel": 4852,
      "carol": 4853,
      "barg": 4854,
      "yester": 4855,
      "silent": 4856,
      "debate": 4857,
      "guns": 4858,
      "closer": 4859,
      "kentuck": 4860,
      "31": 4861,
      "fab": 4862,
      "##rence": 4863,
      "##tions": 4864,
      "##iance": 4865,
      "##dy": 4866,
      "reject": 4867,
      "forb": 4868,
      "sharing": 4869,
      "sov": 4870,
      "somewhat": 4871,
      "##iption": 4872,
      "craz": 4873,
      "crimes": 4874,
      "launch": 4875,
      "rapid": 4876,
      "columns": 4877,
      "bottom": 4878,
      "stewardship": 4879,
      "eligible": 4880,
      "elegant": 4881,
      "yesterday": 4882,
      "hated": 4883,
      "sides": 4884,
      "##pa": 4885,
      "##ertain": 4886,
      "prime": 4887,
      "aside": 4888,
      "notes": 4889,
      "emphas": 4890,
      "expert": 4891,
      "##while": 4892,
      "turning": 4893,
      "litig": 4894,
      "uncertain": 4895,
      "ibiza": 4896,
      "kenned": 4897,
      "napole": 4898,
      "ought": 4899,
      "tel": 4900,
      "##awn": 4901,
      "##here": 4902,
      "fool": 4903,
      "valid": 4904,
      "1994": 4905,
      "landscape": 4906,
      "##ellig": 4907,
      "extensive": 4908,
      "##ipping": 4909,
      "britain": 4910,
      "focused": 4911,
      "copy": 4912,
      "incentives": 4913,
      "eag": 4914,
      "pyr": 4915,
      "##thia": 4916,
      "diss": 4917,
      "everywhere": 4918,
      "##ifications": 4919,
      "perspect": 4920,
      "detect": 4921,
      "exclus": 4922,
      "independence": 4923,
      "urban": 4924,
      "circumstances": 4925,
      "losing": 4926,
      "##han": 4927,
      "##acing": 4928,
      "##igned": 4929,
      "recover": 4930,
      "ignored": 4931,
      "predict": 4932,
      "ocean": 4933,
      "70": 4934,
      "ec": 4935,
      "gates": 4936,
      "##head": 4937,
      "webs": 4938,
      "cris": 4939,
      "syn": 4940,
      "controver": 4941,
      "realized": 4942,
      "readers": 4943,
      "supported": 4944,
      "supreme": 4945,
      "purposes": 4946,
      "lucky": 4947,
      "connection": 4948,
      "symbol": 4949,
      "iraq": 4950,
      "ot": 4951,
      "tired": 4952,
      "wing": 4953,
      "##sey": 4954,
      "##ateau": 4955,
      "##ivals": 4956,
      "##alls": 4957,
      "##umes": 4958,
      "expend": 4959,
      "scot": 4960,
      "guil": 4961,
      "revol": 4962,
      "##ixon": 4963,
      "defined": 4964,
      "functions": 4965,
      "transform": 4966,
      "supporting": 4967,
      "privacy": 4968,
      "villages": 4969,
      "professor": 4970,
      "pulled": 4971,
      "replied": 4972,
      "wooden": 4973,
      "journey": 4974,
      "animal": 4975,
      "primarily": 4976,
      "mentioned": 4977,
      "surpluses": 4978,
      "ug": 4979,
      "##iation": 4980,
      "##oto": 4981,
      "##imp": 4982,
      "chose": 4983,
      "loans": 4984,
      "append": 4985,
      "stress": 4986,
      "##anged": 4987,
      "technologies": 4988,
      "experts": 4989,
      "confidence": 4990,
      "continues": 4991,
      "richard": 4992,
      "convin": 4993,
      "customer": 4994,
      "released": 4995,
      "rebu": 4996,
      "interpret": 4997,
      "##nis": 4998,
      "##uts": 4999,
      "##ura": 5000,
      "atmos": 5001,
      "broken": 5002,
      "coop": 5003,
      "twelve": 5004,
      "poison": 5005,
      "active": 5006,
      "background": 5007,
      "superv": 5008,
      "egyptian": 5009,
      "russia": 5010,
      "initiatives": 5011,
      "mercury": 5012,
      "cynthia": 5013,
      "chicago": 5014,
      "atmosphere": 5015,
      "##lying": 5016,
      "anse": 5017,
      "##irts": 5018,
      "plaza": 5019,
      "##acts": 5020,
      "teen": 5021,
      "feature": 5022,
      "partners": 5023,
      "remind": 5024,
      "confident": 5025,
      "representatives": 5026,
      "sculpture": 5027,
      "duty": 5028,
      "conservative": 5029,
      "appreciate": 5030,
      "lewinsky": 5031,
      "dramatic": 5032,
      "astr": 5033,
      "cig": 5034,
      "##edy": 5035,
      "bear": 5036,
      "league": 5037,
      "##elines": 5038,
      "complic": 5039,
      "overlo": 5040,
      "intellig": 5041,
      "regional": 5042,
      "greatly": 5043,
      "carefully": 5044,
      "largely": 5045,
      "possibly": 5046,
      "departments": 5047,
      "parks": 5048,
      "paul": 5049,
      "penins": 5050,
      "voting": 5051,
      "fought": 5052,
      "ny": 5053,
      "##erson": 5054,
      "criteria": 5055,
      "arms": 5056,
      "historic": 5057,
      "adults": 5058,
      "elderly": 5059,
      "guilty": 5060,
      "##aling": 5061,
      "##ads": 5062,
      "gray": 5063,
      "deser": 5064,
      "facts": 5065,
      "turns": 5066,
      "achieved": 5067,
      "eighty": 5068,
      "motor": 5069,
      "literature": 5070,
      "decorated": 5071,
      "mexico": 5072,
      "piazza": 5073,
      "dim": 5074,
      "hire": 5075,
      "nixon": 5076,
      "stuck": 5077,
      "mah": 5078,
      "unus": 5079,
      "crus": 5080,
      "scared": 5081,
      "valu": 5082,
      "bigger": 5083,
      "formal": 5084,
      "belief": 5085,
      "politicians": 5086,
      "failure": 5087,
      "contained": 5088,
      "dial": 5089,
      "##life": 5090,
      "##ico": 5091,
      "plays": 5092,
      "##agas": 5093,
      "appoint": 5094,
      "committed": 5095,
      "consumption": 5096,
      "relief": 5097,
      "joined": 5098,
      "reducing": 5099,
      "affairs": 5100,
      "directors": 5101,
      "classical": 5102,
      "steep": 5103,
      "beauty": 5104,
      "madrid": 5105,
      "fields": 5106,
      "peaceful": 5107,
      "medicine": 5108,
      "scandal": 5109,
      "monday": 5110,
      "approximately": 5111,
      "fant": 5112,
      "gang": 5113,
      "##ship": 5114,
      "##fo": 5115,
      "##omas": 5116,
      "##uration": 5117,
      "myst": 5118,
      "implic": 5119,
      "coord": 5120,
      "moon": 5121,
      "calling": 5122,
      "showing": 5123,
      "charles": 5124,
      "jones": 5125,
      "cheaper": 5126,
      "grounds": 5127,
      "appeared": 5128,
      "alien": 5129,
      "frequently": 5130,
      "troops": 5131,
      "outcomes": 5132,
      "kick": 5133,
      "##sa": 5134,
      "##hen": 5135,
      "##zant": 5136,
      "byzant": 5137,
      "resol": 5138,
      "dise": 5139,
      "vision": 5140,
      "phase": 5141,
      "careful": 5142,
      "amounts": 5143,
      "fifteen": 5144,
      "imperial": 5145,
      "napoleon": 5146,
      "peninsula": 5147,
      "escape": 5148,
      "ped": 5149,
      "pier": 5150,
      "sab": 5151,
      "vren": 5152,
      "##ses": 5153,
      "##ading": 5154,
      "cliff": 5155,
      "compens": 5156,
      "plane": 5157,
      "##scr": 5158,
      "severe": 5159,
      "approval": 5160,
      "raising": 5161,
      "previously": 5162,
      "birds": 5163,
      "describes": 5164,
      "remaining": 5165,
      "submitted": 5166,
      "monastery": 5167,
      "permanent": 5168,
      "comprehensive": 5169,
      "vrenna": 5170,
      "2a": 5171,
      "jim": 5172,
      "pc": 5173,
      "##aff": 5174,
      "##itative": 5175,
      "whitting": 5176,
      "poland": 5177,
      "courty": 5178,
      "effectiveness": 5179,
      "visiting": 5180,
      "portion": 5181,
      "##book": 5182,
      "gods": 5183,
      "expectations": 5184,
      "##kyo": 5185,
      "efficiency": 5186,
      "ordered": 5187,
      "treasury": 5188,
      "teleph": 5189,
      "transportation": 5190,
      "assumed": 5191,
      "stupid": 5192,
      "intellect": 5193,
      "nations": 5194,
      "tokyo": 5195,
      "fortress": 5196,
      "conven": 5197,
      "atl": 5198,
      "chain": 5199,
      "champ": 5200,
      "##astr": 5201,
      "##actions": 5202,
      "crack": 5203,
      "organized": 5204,
      "harder": 5205,
      "understood": 5206,
      "buried": 5207,
      "silence": 5208,
      "significantly": 5209,
      "iii": 5210,
      "motiv": 5211,
      "essential": 5212,
      "virginia": 5213,
      "viet": 5214,
      "##ox": 5215,
      "sew": 5216,
      "doctors": 5217,
      "bull": 5218,
      "desk": 5219,
      "smoke": 5220,
      "depress": 5221,
      "protected": 5222,
      "explor": 5223,
      "territory": 5224,
      "scholars": 5225,
      "sultan": 5226,
      "appendix": 5227,
      "whittington": 5228,
      "23": 5229,
      "dust": 5230,
      "peter": 5231,
      "##lines": 5232,
      "##orough": 5233,
      "doors": 5234,
      "alloc": 5235,
      "mans": 5236,
      "resource": 5237,
      "##aker": 5238,
      "expos": 5239,
      "smell": 5240,
      "statewide": 5241,
      "investments": 5242,
      "auditor": 5243,
      "treated": 5244,
      "15th": 5245,
      "sugar": 5246,
      "shoes": 5247,
      "victory": 5248,
      "surprise": 5249,
      "##exp": 5250,
      "tomorrow": 5251,
      "barely": 5252,
      "bout": 5253,
      "dream": 5254,
      "sale": 5255,
      "vent": 5256,
      "##how": 5257,
      "##orter": 5258,
      "chronic": 5259,
      "nox": 5260,
      "ages": 5261,
      "expenses": 5262,
      "fuel": 5263,
      "signs": 5264,
      "allows": 5265,
      "delivered": 5266,
      "limits": 5267,
      "bird": 5268,
      "replaced": 5269,
      "manufactur": 5270,
      "schedul": 5271,
      "sacr": 5272,
      "global": 5273,
      "occasion": 5274,
      "franklin": 5275,
      "powers": 5276,
      "chemical": 5277,
      "reputation": 5278,
      "kennedy": 5279,
      "fans": 5280,
      "mut": 5281,
      "pock": 5282,
      "##cas": 5283,
      "##craft": 5284,
      "##ona": 5285,
      "##ilit": 5286,
      "columb": 5287,
      "tourism": 5288,
      "##orpor": 5289,
      "displays": 5290,
      "ridic": 5291,
      "tickets": 5292,
      "writer": 5293,
      "tonight": 5294,
      "oversight": 5295,
      "bunch": 5296,
      "kos": 5297,
      "riding": 5298,
      "tor": 5299,
      "angry": 5300,
      "lift": 5301,
      "##osen": 5302,
      "grants": 5303,
      "acid": 5304,
      "brain": 5305,
      "recyc": 5306,
      "blow": 5307,
      "surf": 5308,
      "corrupt": 5309,
      "opera": 5310,
      "##umptions": 5311,
      "mistake": 5312,
      "pilgr": 5313,
      "crafts": 5314,
      "crazy": 5315,
      "lord": 5316,
      "tons": 5317,
      "##rees": 5318,
      "##itan": 5319,
      "##illy": 5320,
      "excess": 5321,
      "sport": 5322,
      "laid": 5323,
      "highway": 5324,
      "lawrence": 5325,
      "basket": 5326,
      "presidential": 5327,
      "destination": 5328,
      "attraction": 5329,
      "victims": 5330,
      "catholic": 5331,
      "wealthy": 5332,
      "decrease": 5333,
      "jail": 5334,
      "rum": 5335,
      "veter": 5336,
      "thomas": 5337,
      "pride": 5338,
      "nep": 5339,
      "upd": 5340,
      "accomm": 5341,
      "fewer": 5342,
      "opening": 5343,
      "elsewhere": 5344,
      "holds": 5345,
      "pull": 5346,
      "voters": 5347,
      "newspapers": 5348,
      "comfortable": 5349,
      "accommod": 5350,
      "es": 5351,
      "youth": 5352,
      "sole": 5353,
      "upst": 5354,
      "##aken": 5355,
      "##ached": 5356,
      "ideal": 5357,
      "jewel": 5358,
      "definition": 5359,
      "structures": 5360,
      "banks": 5361,
      "exhibits": 5362,
      "##going": 5363,
      "weapon": 5364,
      "latest": 5365,
      "henry": 5366,
      "crisis": 5367,
      "hidden": 5368,
      "pig": 5369,
      "##fa": 5370,
      "knowing": 5371,
      "improp": 5372,
      "assumptions": 5373,
      "helpful": 5374,
      "subsequ": 5375,
      "discr": 5376,
      "1993": 5377,
      "tells": 5378,
      "improvements": 5379,
      "institute": 5380,
      "philos": 5381,
      "guidelines": 5382,
      "accomplish": 5383,
      "giant": 5384,
      "muslims": 5385,
      "prospect": 5386,
      "ultimately": 5387,
      "26": 5388,
      "bin": 5389,
      "soph": 5390,
      "tight": 5391,
      "thorough": 5392,
      "##urb": 5393,
      "friday": 5394,
      "##iber": 5395,
      "incorpor": 5396,
      "monit": 5397,
      "##ologists": 5398,
      "##bell": 5399,
      "mainten": 5400,
      "portra": 5401,
      "operation": 5402,
      "promot": 5403,
      "necessarily": 5404,
      "devoted": 5405,
      "sacred": 5406,
      "muslim": 5407,
      "conflict": 5408,
      "pitch": 5409,
      "ring": 5410,
      "tob": 5411,
      "##itals": 5412,
      "forty": 5413,
      "albert": 5414,
      "enth": 5415,
      "##arts": 5416,
      "quit": 5417,
      "discip": 5418,
      "depict": 5419,
      "##ugged": 5420,
      "weekly": 5421,
      "facade": 5422,
      "surprising": 5423,
      "scenes": 5424,
      "rarely": 5425,
      "repeated": 5426,
      "retrof": 5427,
      "saturday": 5428,
      "om": 5429,
      "taught": 5430,
      "ww": 5431,
      "##ingu": 5432,
      "input": 5433,
      "outdo": 5434,
      "user": 5435,
      "cruc": 5436,
      "artif": 5437,
      "enjo": 5438,
      "summary": 5439,
      "administrative": 5440,
      "chairman": 5441,
      "sample": 5442,
      "minimum": 5443,
      "merely": 5444,
      "33": 5445,
      "nic": 5446,
      "##front": 5447,
      "##icing": 5448,
      "##usion": 5449,
      "trend": 5450,
      "##isted": 5451,
      "##acted": 5452,
      "regulation": 5453,
      "stream": 5454,
      "allowances": 5455,
      "testim": 5456,
      "typical": 5457,
      "##ushed": 5458,
      "divor": 5459,
      "expressed": 5460,
      "expression": 5461,
      "prepare": 5462,
      "catal": 5463,
      "appears": 5464,
      "increasingly": 5465,
      "institution": 5466,
      "begun": 5467,
      "candidates": 5468,
      "folks": 5469,
      "satisf": 5470,
      "daniel": 5471,
      "boulev": 5472,
      "providers": 5473,
      "scotland": 5474,
      "00": 5475,
      "dating": 5476,
      "kr": 5477,
      "wore": 5478,
      "##bel": 5479,
      "##greg": 5480,
      "stared": 5481,
      "##cel": 5482,
      "##ola": 5483,
      "exceed": 5484,
      "##iform": 5485,
      "plat": 5486,
      "191": 5487,
      "contrast": 5488,
      "studied": 5489,
      "emission": 5490,
      "facing": 5491,
      "flood": 5492,
      "sweet": 5493,
      "sensitive": 5494,
      "consumer": 5495,
      "splendid": 5496,
      "carolina": 5497,
      "fount": 5498,
      "fda": 5499,
      "kil": 5500,
      "kings": 5501,
      "math": 5502,
      "sulf": 5503,
      "tub": 5504,
      "##itable": 5505,
      "alf": 5506,
      "assume": 5507,
      "smoking": 5508,
      "ends": 5509,
      "natalia": 5510,
      "arrange": 5511,
      "volcan": 5512,
      "excited": 5513,
      "attacks": 5514,
      "accompan": 5515,
      "liberal": 5516,
      "##works": 5517,
      "scenario": 5518,
      "malaysia": 5519,
      "nursing": 5520,
      "rank": 5521,
      "##cing": 5522,
      "##hs": 5523,
      "dozen": 5524,
      "ours": 5525,
      "elabor": 5526,
      "ski": 5527,
      "possibility": 5528,
      "officers": 5529,
      "lovely": 5530,
      "films": 5531,
      "consideration": 5532,
      "participate": 5533,
      "normally": 5534,
      "germany": 5535,
      "candidate": 5536,
      "welcome": 5537,
      "bradley": 5538,
      "valuable": 5539,
      "ble": 5540,
      "cod": 5541,
      "##yl": 5542,
      "##wan": 5543,
      "##pay": 5544,
      "##entially": 5545,
      "spons": 5546,
      "represented": 5547,
      "styles": 5548,
      "suggests": 5549,
      "characters": 5550,
      "uncle": 5551,
      "communications": 5552,
      "frequent": 5553,
      "seeking": 5554,
      "buddhist": 5555,
      "category": 5556,
      "residential": 5557,
      "exposure": 5558,
      "cu": 5559,
      "brick": 5560,
      "reporters": 5561,
      "investors": 5562,
      "palest": 5563,
      "collected": 5564,
      "solid": 5565,
      "avoided": 5566,
      "settlement": 5567,
      "indiana": 5568,
      "survive": 5569,
      "reliable": 5570,
      "commitment": 5571,
      "cous": 5572,
      "ire": 5573,
      "mental": 5574,
      "migr": 5575,
      "stations": 5576,
      "depending": 5577,
      "healthy": 5578,
      "johnny": 5579,
      "recommended": 5580,
      "colorado": 5581,
      "articles": 5582,
      "innoc": 5583,
      "carrying": 5584,
      "ugly": 5585,
      "29": 5586,
      "caves": 5587,
      "kir": 5588,
      "lock": 5589,
      "lately": 5590,
      "##icial": 5591,
      "stamp": 5592,
      "output": 5593,
      "##agger": 5594,
      "cried": 5595,
      "scar": 5596,
      "##encing": 5597,
      "guided": 5598,
      "##text": 5599,
      "thoughts": 5600,
      "transition": 5601,
      "officer": 5602,
      "memory": 5603,
      "teaching": 5604,
      "earthqu": 5605,
      "december": 5606,
      "abandoned": 5607,
      "maintenance": 5608,
      "cin": 5609,
      "element": 5610,
      "ramp": 5611,
      "vary": 5612,
      "prove": 5613,
      "##asty": 5614,
      "incred": 5615,
      "consc": 5616,
      "flower": 5617,
      "attest": 5618,
      "johnson": 5619,
      "distinct": 5620,
      "participation": 5621,
      "crowded": 5622,
      "odd": 5623,
      "constructed": 5624,
      "soviet": 5625,
      "bork": 5626,
      "ferry": 5627,
      "wid": 5628,
      "##zy": 5629,
      "##semb": 5630,
      "chick": 5631,
      "##abilities": 5632,
      "brings": 5633,
      "seriously": 5634,
      "buff": 5635,
      "poet": 5636,
      "legend": 5637,
      "temper": 5638,
      "bills": 5639,
      "properly": 5640,
      "sculptures": 5641,
      "latin": 5642,
      "##employ": 5643,
      "bronze": 5644,
      "faster": 5645,
      "pond": 5646,
      "stead": 5647,
      "whis": 5648,
      "ships": 5649,
      "lee": 5650,
      "outl": 5651,
      "drawn": 5652,
      "finish": 5653,
      "considering": 5654,
      "classes": 5655,
      "##ikes": 5656,
      "combination": 5657,
      "categories": 5658,
      "intellectual": 5659,
      "35": 5660,
      "pure": 5661,
      "##bi": 5662,
      "reagan": 5663,
      "##aining": 5664,
      "##acco": 5665,
      "arc": 5666,
      "graph": 5667,
      "feels": 5668,
      "heads": 5669,
      "choices": 5670,
      "breed": 5671,
      "existence": 5672,
      "claimed": 5673,
      "contribution": 5674,
      "settled": 5675,
      "requests": 5676,
      "hoping": 5677,
      "experiences": 5678,
      "punishment": 5679,
      "pyram": 5680,
      "courtyard": 5681,
      "ireland": 5682,
      "ba": 5683,
      "##bles": 5684,
      "deem": 5685,
      "chateau": 5686,
      "##outs": 5687,
      "outcome": 5688,
      "clo": 5689,
      "gran": 5690,
      "##road": 5691,
      "joint": 5692,
      "keeps": 5693,
      "rising": 5694,
      "opposed": 5695,
      "exciting": 5696,
      "listed": 5697,
      "positions": 5698,
      "turkey": 5699,
      "convention": 5700,
      "suspic": 5701,
      "precise": 5702,
      "bauer": 5703,
      "perspective": 5704,
      "ottom": 5705,
      "32": 5706,
      "75": 5707,
      "pac": 5708,
      "##ias": 5709,
      "##nn": 5710,
      "##esty": 5711,
      "conce": 5712,
      "unemploy": 5713,
      "aci": 5714,
      "interim": 5715,
      "strip": 5716,
      "cazar": 5717,
      "player": 5718,
      "aircraft": 5719,
      "improving": 5720,
      "applications": 5721,
      "##ographic": 5722,
      "cooking": 5723,
      "##burg": 5724,
      "encouraged": 5725,
      "venet": 5726,
      "expanded": 5727,
      "##know": 5728,
      "disagree": 5729,
      "improper": 5730,
      "artifacts": 5731,
      "bol": 5732,
      "gp": 5733,
      "##zone": 5734,
      "##inations": 5735,
      "disney": 5736,
      "assass": 5737,
      "monet": 5738,
      "minister": 5739,
      "economics": 5740,
      "economists": 5741,
      "mainly": 5742,
      "creation": 5743,
      "equally": 5744,
      "##box": 5745,
      "domin": 5746,
      "violent": 5747,
      "dining": 5748,
      "13th": 5749,
      "occurred": 5750,
      "situations": 5751,
      "kath": 5752,
      "les": 5753,
      "##uze": 5754,
      "##aic": 5755,
      "##arm": 5756,
      "##ota": 5757,
      "##illed": 5758,
      "##ifts": 5759,
      "uniform": 5760,
      "usual": 5761,
      "scary": 5762,
      "colors": 5763,
      "estate": 5764,
      "marked": 5765,
      "admitted": 5766,
      "tested": 5767,
      "projected": 5768,
      "tennis": 5769,
      "judgment": 5770,
      "measured": 5771,
      "competitive": 5772,
      "falling": 5773,
      "documentation": 5774,
      "survived": 5775,
      "folk": 5776,
      "cuba": 5777,
      "stretch": 5778,
      "tobacco": 5779,
      "sulfur": 5780,
      "jac": 5781,
      "##anes": 5782,
      "##ird": 5783,
      "shore": 5784,
      "worship": 5785,
      "##apes": 5786,
      "enorm": 5787,
      "spell": 5788,
      "smo": 5789,
      "preserved": 5790,
      "medit": 5791,
      "##ternal": 5792,
      "successfully": 5793,
      "winning": 5794,
      "attrib": 5795,
      "penn": 5796,
      "maryland": 5797,
      "pleasure": 5798,
      "masterpie": 5799,
      "accuracy": 5800,
      "suffered": 5801,
      "aspects": 5802,
      "bodies": 5803,
      "hy": 5804,
      "tan": 5805,
      "##gate": 5806,
      "##fast": 5807,
      "##ja": 5808,
      "ther": 5809,
      "asia": 5810,
      "so2": 5811,
      "aggress": 5812,
      "coach": 5813,
      "preamble": 5814,
      "indians": 5815,
      "##ensus": 5816,
      "warri": 5817,
      "slim": 5818,
      "##bey": 5819,
      "staying": 5820,
      "statistics": 5821,
      "arrive": 5822,
      "reference": 5823,
      "clubs": 5824,
      "capture": 5825,
      "florida": 5826,
      "railway": 5827,
      "patterns": 5828,
      "substantial": 5829,
      "hawai": 5830,
      "enforcement": 5831,
      "borrow": 5832,
      "##inent": 5833,
      "inner": 5834,
      "##etr": 5835,
      "whenever": 5836,
      "handed": 5837,
      "causes": 5838,
      "profits": 5839,
      "anticip": 5840,
      "rocks": 5841,
      "sentence": 5842,
      "hunting": 5843,
      "handsome": 5844,
      "weakness": 5845,
      "immigration": 5846,
      "announced": 5847,
      "penalty": 5848,
      "telephone": 5849,
      "testimony": 5850,
      "luc": 5851,
      "tig": 5852,
      "vul": 5853,
      "##eing": 5854,
      "toxic": 5855,
      "inhab": 5856,
      "##verse": 5857,
      "anton": 5858,
      "acknow": 5859,
      "branch": 5860,
      "expense": 5861,
      "driven": 5862,
      "puts": 5863,
      "affair": 5864,
      "20th": 5865,
      "privile": 5866,
      "cream": 5867,
      "sixty": 5868,
      "awards": 5869,
      "##board": 5870,
      "destr": 5871,
      "approaches": 5872,
      "bedroom": 5873,
      "widely": 5874,
      "galleries": 5875,
      "celebrated": 5876,
      "investigation": 5877,
      "begins": 5878,
      "disappoint": 5879,
      "stakeholders": 5880,
      "complicated": 5881,
      "kl": 5882,
      "nur": 5883,
      "tone": 5884,
      "tues": 5885,
      "wise": 5886,
      "##rit": 5887,
      "thin": 5888,
      "##ania": 5889,
      "shift": 5890,
      "##essed": 5891,
      "##ighter": 5892,
      "grace": 5893,
      "carib": 5894,
      "serves": 5895,
      "visits": 5896,
      "parli": 5897,
      "earned": 5898,
      "killing": 5899,
      "##apped": 5900,
      "observed": 5901,
      "14th": 5902,
      "combined": 5903,
      "priority": 5904,
      "principle": 5905,
      "restrictions": 5906,
      "beside": 5907,
      "ticket": 5908,
      "2010": 5909,
      "consequences": 5910,
      "##standing": 5911,
      "bat": 5912,
      "cet": 5913,
      "tab": 5914,
      "##bby": 5915,
      "##itures": 5916,
      "sust": 5917,
      "prohib": 5918,
      "trained": 5919,
      "febr": 5920,
      "##ucture": 5921,
      "##ogue": 5922,
      "finest": 5923,
      "1992": 5924,
      "judges": 5925,
      "turk": 5926,
      "division": 5927,
      "entry": 5928,
      "channel": 5929,
      "agricultural": 5930,
      "kyoto": 5931,
      "disease": 5932,
      "february": 5933,
      "coc": 5934,
      "derry": 5935,
      "hud": 5936,
      "nile": 5937,
      "pace": 5938,
      "##my": 5939,
      "shock": 5940,
      "sum": 5941,
      "proved": 5942,
      "##tro": 5943,
      "evolution": 5944,
      "explo": 5945,
      "disaster": 5946,
      "##ecess": 5947,
      "nowhere": 5948,
      "desire": 5949,
      "consol": 5950,
      "blame": 5951,
      "blade": 5952,
      "sets": 5953,
      "surely": 5954,
      "##resp": 5955,
      "musee": 5956,
      "greuze": 5957,
      "renov": 5958,
      "argue": 5959,
      "settle": 5960,
      "farmers": 5961,
      "danger": 5962,
      "dutch": 5963,
      "##known": 5964,
      "struggle": 5965,
      "mccain": 5966,
      "parliament": 5967,
      "cycle": 5968,
      "dates": 5969,
      "sought": 5970,
      "##imate": 5971,
      "fruit": 5972,
      "orange": 5973,
      "##ushing": 5974,
      "trau": 5975,
      "##orted": 5976,
      "unknown": 5977,
      "serving": 5978,
      "blank": 5979,
      "marks": 5980,
      "signed": 5981,
      "receiving": 5982,
      "teachers": 5983,
      "writers": 5984,
      "african": 5985,
      "inventory": 5986,
      "gor": 5987,
      "gau": 5988,
      "lying": 5989,
      "latter": 5990,
      "##point": 5991,
      "asian": 5992,
      "chest": 5993,
      "prosec": 5994,
      "##istical": 5995,
      "clar": 5996,
      "strike": 5997,
      "monuments": 5998,
      "writes": 5999,
      "ruins": 6000,
      "metal": 6001,
      "formed": 6002,
      "listening": 6003,
      "ceiling": 6004,
      "romans": 6005,
      "##annon": 6006,
      "sadd": 6007,
      "islamic": 6008,
      "alexander": 6009,
      "basketball": 6010,
      "ae": 6011,
      "gagas": 6012,
      "ozone": 6013,
      "##rad": 6014,
      "##gar": 6015,
      "theat": 6016,
      "##ato": 6017,
      "reward": 6018,
      "weird": 6019,
      "##oster": 6020,
      "nov": 6021,
      "worker": 6022,
      "cro": 6023,
      "impe": 6024,
      "##ache": 6025,
      "tail": 6026,
      "smile": 6027,
      "monarch": 6028,
      "species": 6029,
      "switch": 6030,
      "faced": 6031,
      "infr": 6032,
      "150": 6033,
      "cheer": 6034,
      "pollut": 6035,
      "conclusion": 6036,
      "framework": 6037,
      "concerning": 6038,
      "shadow": 6039,
      "unusual": 6040,
      "jose": 6041,
      "pit": 6042,
      "pir": 6043,
      "##rant": 6044,
      "##town": 6045,
      "##oir": 6046,
      "##met": 6047,
      "##aa": 6048,
      "##enues": 6049,
      "rein": 6050,
      "shaped": 6051,
      "somehow": 6052,
      "scope": 6053,
      "finn": 6054,
      "supplement": 6055,
      "finds": 6056,
      "##uese": 6057,
      "charged": 6058,
      "##attered": 6059,
      "auditing": 6060,
      "generations": 6061,
      "copies": 6062,
      "divided": 6063,
      "applicable": 6064,
      "embr": 6065,
      "installation": 6066,
      "relationships": 6067,
      "sleeping": 6068,
      "remarkable": 6069,
      "portuguese": 6070,
      "kitchen": 6071,
      "boulevard": 6072,
      "infrastr": 6073,
      "hij": 6074,
      "rival": 6075,
      "##hal": 6076,
      "##imination": 6077,
      "##estr": 6078,
      "alle": 6079,
      "yellow": 6080,
      "canada": 6081,
      "spin": 6082,
      "unl": 6083,
      "##ansas": 6084,
      "##yside": 6085,
      "visibility": 6086,
      "##raw": 6087,
      "instru": 6088,
      "countryside": 6089,
      "avenue": 6090,
      "harv": 6091,
      "climate": 6092,
      "degrees": 6093,
      "strugg": 6094,
      "scientific": 6095,
      "scottish": 6096,
      "website": 6097,
      "expenditures": 6098,
      "hijack": 6099,
      "instruments": 6100,
      "fer": 6101,
      "pink": 6102,
      "roles": 6103,
      "tin": 6104,
      "##gl": 6105,
      "##omed": 6106,
      "##iguration": 6107,
      "##amber": 6108,
      "##abbed": 6109,
      "unre": 6110,
      "compare": 6111,
      "relative": 6112,
      "##seless": 6113,
      "attitude": 6114,
      "instances": 6115,
      "prompt": 6116,
      "##anean": 6117,
      "educational": 6118,
      "eleph": 6119,
      "links": 6120,
      "photo": 6121,
      "francis": 6122,
      "28": 6123,
      "bor": 6124,
      "boss": 6125,
      "fiction": 6126,
      "pine": 6127,
      "ske": 6128,
      "##uge": 6129,
      "##aver": 6130,
      "##pan": 6131,
      "##pro": 6132,
      "stair": 6133,
      "##estone": 6134,
      "trick": 6135,
      "manual": 6136,
      "plastic": 6137,
      "##agues": 6138,
      "everyday": 6139,
      "palais": 6140,
      "faces": 6141,
      "##aimed": 6142,
      "hung": 6143,
      "answered": 6144,
      "treaty": 6145,
      "fault": 6146,
      "superb": 6147,
      "crowds": 6148,
      "inspired": 6149,
      "examined": 6150,
      "exhibit": 6151,
      "##under": 6152,
      "release": 6153,
      "engagement": 6154,
      "dismiss": 6155,
      "furniture": 6156,
      "ridiculous": 6157,
      "kosov": 6158,
      "ottoman": 6159,
      "400": 6160,
      "cnn": 6161,
      "dar": 6162,
      "ment": 6163,
      "##rich": 6164,
      "stable": 6165,
      "context": 6166,
      "trop": 6167,
      "##ipe": 6168,
      "disclos": 6169,
      "pope": 6170,
      "charl": 6171,
      "resulted": 6172,
      "admit": 6173,
      "financing": 6174,
      "portr": 6175,
      "202": 6176,
      "189": 6177,
      "ruled": 6178,
      "winds": 6179,
      "towers": 6180,
      "implementing": 6181,
      "heavily": 6182,
      "panel": 6183,
      "regularly": 6184,
      "www": 6185,
      "smooth": 6186,
      "turkish": 6187,
      "fena": 6188,
      "ga": 6189,
      "wage": 6190,
      "wages": 6191,
      "##ya": 6192,
      "##12": 6193,
      "##adium": 6194,
      "##ulating": 6195,
      "orn": 6196,
      "alb": 6197,
      "invas": 6198,
      "joy": 6199,
      "milk": 6200,
      "authent": 6201,
      "stepped": 6202,
      "sanct": 6203,
      "researchers": 6204,
      "physicians": 6205,
      "machines": 6206,
      "opinions": 6207,
      "integrated": 6208,
      "analyz": 6209,
      "enemy": 6210,
      "vehicle": 6211,
      "dancing": 6212,
      "erect": 6213,
      "tape": 6214,
      "##la": 6215,
      "##comm": 6216,
      "isol": 6217,
      "prud": 6218,
      "##istan": 6219,
      "noise": 6220,
      "reserve": 6221,
      "##ensions": 6222,
      "shoulder": 6223,
      "##ordan": 6224,
      "personnel": 6225,
      "souven": 6226,
      "charges": 6227,
      "##hips": 6228,
      "bringing": 6229,
      "preferred": 6230,
      "characteristics": 6231,
      "removed": 6232,
      "enthus": 6233,
      "elaborate": 6234,
      "cinem": 6235,
      "ak": 6236,
      "aer": 6237,
      "hired": 6238,
      "rice": 6239,
      "torn": 6240,
      "##iors": 6241,
      "##fit": 6242,
      "##lla": 6243,
      "##owed": 6244,
      "##urally": 6245,
      "shared": 6246,
      "dear": 6247,
      "##agn": 6248,
      "evil": 6249,
      "roll": 6250,
      "mayor": 6251,
      "basil": 6252,
      "charming": 6253,
      "classic": 6254,
      "accordance": 6255,
      "acceptable": 6256,
      "contracts": 6257,
      "split": 6258,
      "enemies": 6259,
      "volunteer": 6260,
      "gambling": 6261,
      "souvenir": 6262,
      "dun": 6263,
      "gop": 6264,
      "rig": 6265,
      "sau": 6266,
      "tip": 6267,
      "wet": 6268,
      "ham": 6269,
      "##aders": 6270,
      "lev": 6271,
      "plot": 6272,
      "##aks": 6273,
      "assumption": 6274,
      "resulting": 6275,
      "annually": 6276,
      "facilit": 6277,
      "lively": 6278,
      "dull": 6279,
      "installed": 6280,
      "tombs": 6281,
      "constantly": 6282,
      "declared": 6283,
      "criminals": 6284,
      "ethnic": 6285,
      "introduced": 6286,
      "vegetables": 6287,
      "adequate": 6288,
      "litigation": 6289,
      "monitoring": 6290,
      "mediterr": 6291,
      "ast": 6292,
      "bio": 6293,
      "core": 6294,
      "cair": 6295,
      "dil": 6296,
      "##gers": 6297,
      "##case": 6298,
      "##coming": 6299,
      "abbey": 6300,
      "lean": 6301,
      "nove": 6302,
      "##quar": 6303,
      "ads": 6304,
      "residence": 6305,
      "persons": 6306,
      "locals": 6307,
      "involving": 6308,
      "involves": 6309,
      "images": 6310,
      "ordinary": 6311,
      "israeli": 6312,
      "legislative": 6313,
      "casual": 6314,
      "suspect": 6315,
      "conclusions": 6316,
      "comparison": 6317,
      "hersheim": 6318,
      "kentucky": 6319,
      "recycling": 6320,
      "hersheimmer": 6321,
      "36": 6322,
      "cock": 6323,
      "dre": 6324,
      "map": 6325,
      "##iant": 6326,
      "##llo": 6327,
      "haz": 6328,
      "priest": 6329,
      "assemb": 6330,
      "##anta": 6331,
      "trips": 6332,
      "asset": 6333,
      "performances": 6334,
      "retired": 6335,
      "##isms": 6336,
      "designs": 6337,
      "mailers": 6338,
      "continuing": 6339,
      "represents": 6340,
      "excuse": 6341,
      "epis": 6342,
      "description": 6343,
      "reforms": 6344,
      "appearance": 6345,
      "maintained": 6346,
      "dorcas": 6347,
      "recipients": 6348,
      "defeat": 6349,
      "implications": 6350,
      "vietnam": 6351,
      "alfred": 6352,
      "tuesday": 6353,
      "mediterranean": 6354,
      "ax": 6355,
      "dome": 6356,
      "pair": 6357,
      "sna": 6358,
      "useless": 6359,
      "##tan": 6360,
      "##cast": 6361,
      "##cend": 6362,
      "##oma": 6363,
      "##otyp": 6364,
      "stadium": 6365,
      "forum": 6366,
      "height": 6367,
      "shirt": 6368,
      "frustr": 6369,
      "chosen": 6370,
      "##ante": 6371,
      "abortion": 6372,
      "##ifice": 6373,
      "##ipa": 6374,
      "repair": 6375,
      "lav": 6376,
      "recall": 6377,
      "##oupe": 6378,
      "##riend": 6379,
      "advanced": 6380,
      "protoc": 6381,
      "responses": 6382,
      "examine": 6383,
      "fresco": 6384,
      "festivals": 6385,
      "wednes": 6386,
      "professionals": 6387,
      "explanation": 6388,
      "pocket": 6389,
      "cuis": 6390,
      "authentic": 6391,
      "cios": 6392,
      "lind": 6393,
      "sits": 6394,
      "util": 6395,
      "vital": 6396,
      "wound": 6397,
      "yield": 6398,
      "##isters": 6399,
      "##otes": 6400,
      "stark": 6401,
      "anth": 6402,
      "exemp": 6403,
      "##abled": 6404,
      "meal": 6405,
      "canal": 6406,
      "donations": 6407,
      "##acks": 6408,
      "##ensity": 6409,
      "farther": 6410,
      "factory": 6411,
      "productive": 6412,
      "directed": 6413,
      "transl": 6414,
      "employers": 6415,
      "promote": 6416,
      "sunset": 6417,
      "addresses": 6418,
      "breakfast": 6419,
      "magazines": 6420,
      "colonial": 6421,
      "unlikely": 6422,
      "error": 6423,
      "bags": 6424,
      "neighbors": 6425,
      "memorial": 6426,
      "philosoph": 6427,
      "infrastructure": 6428,
      "gains": 6429,
      "kore": 6430,
      "ze": 6431,
      "##oly": 6432,
      "rely": 6433,
      "habit": 6434,
      "##chal": 6435,
      "##the": 6436,
      "proof": 6437,
      "alleg": 6438,
      "##ifies": 6439,
      "unn": 6440,
      "##enda": 6441,
      "drunk": 6442,
      "acting": 6443,
      "flag": 6444,
      "taxi": 6445,
      "taxpay": 6446,
      "passing": 6447,
      "##whel": 6448,
      "practical": 6449,
      "pottery": 6450,
      "1980s": 6451,
      "colorful": 6452,
      "apartments": 6453,
      "principal": 6454,
      "drawing": 6455,
      "satisfact": 6456,
      "cabin": 6457,
      "components": 6458,
      "enhance": 6459,
      "compensation": 6460,
      "gpra": 6461,
      "enormous": 6462,
      "cairo": 6463,
      "55": 6464,
      "jordan": 6465,
      "##right": 6466,
      "##iate": 6467,
      "##ingly": 6468,
      "##rem": 6469,
      "##ician": 6470,
      "##amm": 6471,
      "withd": 6472,
      "unw": 6473,
      "unified": 6474,
      "recru": 6475,
      "remote": 6476,
      "visible": 6477,
      "phr": 6478,
      "headed": 6479,
      "explains": 6480,
      "administrator": 6481,
      "eleven": 6482,
      "analyst": 6483,
      "consumers": 6484,
      "disappear": 6485,
      "deficit": 6486,
      "boilerm": 6487,
      "inquir": 6488,
      "cigaret": 6489,
      "cousin": 6490,
      "diverse": 6491,
      "ow": 6492,
      "ter": 6493,
      "tent": 6494,
      "##ully": 6495,
      "##gia": 6496,
      "inland": 6497,
      "##itage": 6498,
      "ongoing": 6499,
      "stairs": 6500,
      "##opes": 6501,
      "##ifted": 6502,
      "proven": 6503,
      "1990s": 6504,
      "humans": 6505,
      "allowing": 6506,
      "elected": 6507,
      "securities": 6508,
      "operate": 6509,
      "projections": 6510,
      "##idding": 6511,
      "waited": 6512,
      "identity": 6513,
      "poorly": 6514,
      "permit": 6515,
      "hanging": 6516,
      "praise": 6517,
      "pounds": 6518,
      "amendment": 6519,
      "hes": 6520,
      "vs": 6521,
      "vine": 6522,
      "##lor": 6523,
      "##gy": 6524,
      "##adays": 6525,
      "##anda": 6526,
      "##acious": 6527,
      "##pping": 6528,
      "cents": 6529,
      "nowadays": 6530,
      "deserve": 6531,
      "blind": 6532,
      "publication": 6533,
      "oppon": 6534,
      "statistical": 6535,
      "iran": 6536,
      "authorities": 6537,
      "pleased": 6538,
      "12th": 6539,
      "##lining": 6540,
      "corporations": 6541,
      "requested": 6542,
      "substance": 6543,
      "discovery": 6544,
      "ibm": 6545,
      "prince": 6546,
      "lewis": 6547,
      "attestation": 6548,
      "600": 6549,
      "bost": 6550,
      "gig": 6551,
      "pour": 6552,
      "##iated": 6553,
      "##king": 6554,
      "threw": 6555,
      "thurs": 6556,
      "##erity": 6557,
      "##ills": 6558,
      "studying": 6559,
      "##iox": 6560,
      "visitor": 6561,
      "elections": 6562,
      "terrace": 6563,
      "figured": 6564,
      "remembered": 6565,
      "routine": 6566,
      "similarly": 6567,
      "democracy": 6568,
      "proposals": 6569,
      "hypoth": 6570,
      "immigrants": 6571,
      "spiritual": 6572,
      "contemporary": 6573,
      "archaeological": 6574,
      "diversity": 6575,
      "nepal": 6576,
      "bos": 6577,
      "bible": 6578,
      "dir": 6579,
      "diox": 6580,
      "nuc": 6581,
      "naz": 6582,
      "##thy": 6583,
      "crash": 6584,
      "informed": 6585,
      "captain": 6586,
      "managing": 6587,
      "egg": 6588,
      "corps": 6589,
      "recorded": 6590,
      "achieving": 6591,
      "contribute": 6592,
      "michel": 6593,
      "holiday": 6594,
      "mandatory": 6595,
      "buddha": 6596,
      "errors": 6597,
      "controlled": 6598,
      "boston": 6599,
      "nucle": 6600,
      "dict": 6601,
      "##tle": 6602,
      "##yard": 6603,
      "##days": 6604,
      "tech": 6605,
      "overwhel": 6606,
      "heritage": 6607,
      "drag": 6608,
      "strang": 6609,
      "prescr": 6610,
      "requiring": 6611,
      "mini": 6612,
      "barri": 6613,
      "palazz": 6614,
      "seconds": 6615,
      "analyses": 6616,
      "dealing": 6617,
      "agreements": 6618,
      "paperwork": 6619,
      "recognition": 6620,
      "victim": 6621,
      "riders": 6622,
      "sandy": 6623,
      "linked": 6624,
      "declined": 6625,
      "christianity": 6626,
      "minority": 6627,
      "upstairs": 6628,
      "jewelry": 6629,
      "vulner": 6630,
      "destruction": 6631,
      "wednesday": 6632,
      "dol": 6633,
      "jur": 6634,
      "pin": 6635,
      "rational": 6636,
      "rams": 6637,
      "zero": 6638,
      "##bul": 6639,
      "##itated": 6640,
      "##oms": 6641,
      "beer": 6642,
      "ang": 6643,
      "shout": 6644,
      "neck": 6645,
      "knife": 6646,
      "##uns": 6647,
      "##ouses": 6648,
      "groc": 6649,
      "grave": 6650,
      "sheep": 6651,
      "yours": 6652,
      "acts": 6653,
      "##iana": 6654,
      "downtown": 6655,
      "discour": 6656,
      "metric": 6657,
      "nato": 6658,
      "##engers": 6659,
      "accessible": 6660,
      "periods": 6661,
      "returns": 6662,
      "describe": 6663,
      "hoped": 6664,
      "hospitals": 6665,
      "surplus": 6666,
      "altar": 6667,
      "concluded": 6668,
      "wheel": 6669,
      "controvers": 6670,
      "byzantine": 6671,
      "november": 6672,
      "ain": 6673,
      "auction": 6674,
      "pizz": 6675,
      "ram": 6676,
      "tu": 6677,
      "##oons": 6678,
      "##onald": 6679,
      "##alf": 6680,
      "weigh": 6681,
      "gosh": 6682,
      "external": 6683,
      "unh": 6684,
      "imposing": 6685,
      "repr": 6686,
      "##ubb": 6687,
      "accused": 6688,
      "regions": 6689,
      "caf": 6690,
      "##awa": 6691,
      "##lessly": 6692,
      "northwest": 6693,
      "##arrass": 6694,
      "objects": 6695,
      "fifth": 6696,
      "##rupted": 6697,
      "premature": 6698,
      "africa": 6699,
      "karf": 6700,
      "converted": 6701,
      "forgotten": 6702,
      "outdoor": 6703,
      "innocent": 6704,
      "dioxide": 6705,
      "45": 6706,
      "fing": 6707,
      "hou": 6708,
      "lined": 6709,
      "pp": 6710,
      "sights": 6711,
      "wolf": 6712,
      "##bre": 6713,
      "##kins": 6714,
      "##inian": 6715,
      "##ester": 6716,
      "##eds": 6717,
      "stroll": 6718,
      "frag": 6719,
      "chamb": 6720,
      "orch": 6721,
      "##osition": 6722,
      "leon": 6723,
      "##oca": 6724,
      "drivers": 6725,
      "buchan": 6726,
      "partner": 6727,
      "handling": 6728,
      "capable": 6729,
      "valuation": 6730,
      "##ception": 6731,
      "musical": 6732,
      "missing": 6733,
      "volunt": 6734,
      "solic": 6735,
      "determining": 6736,
      "answers": 6737,
      "ignore": 6738,
      "integrity": 6739,
      "cruise": 6740,
      "astronom": 6741,
      "pilgrims": 6742,
      "nurse": 6743,
      "aege": 6744,
      "dirty": 6745,
      "dying": 6746,
      "roc": 6747,
      "vic": 6748,
      "##ien": 6749,
      "##rep": 6750,
      "##uting": 6751,
      "##cher": 6752,
      "ate": 6753,
      "knock": 6754,
      "truck": 6755,
      "drove": 6756,
      "stry": 6757,
      "relating": 6758,
      "flav": 6759,
      "courses": 6760,
      "delay": 6761,
      "landsc": 6762,
      "passengers": 6763,
      "electron": 6764,
      "methodology": 6765,
      "coastal": 6766,
      "indicate": 6767,
      "establishing": 6768,
      "quietly": 6769,
      "earthquake": 6770,
      "chicken": 6771,
      "consolid": 6772,
      "invasion": 6773,
      "aegean": 6774,
      "bench": 6775,
      "cum": 6776,
      "diction": 6777,
      "hars": 6778,
      "lam": 6779,
      "mothers": 6780,
      "pad": 6781,
      "till": 6782,
      "##oque": 6783,
      "wash": 6784,
      "exotic": 6785,
      "theme": 6786,
      "pools": 6787,
      "adding": 6788,
      "modest": 6789,
      "##chnine": 6790,
      "funchal": 6791,
      "refuge": 6792,
      "raj": 6793,
      "limestone": 6794,
      "breaking": 6795,
      "##attle": 6796,
      "traveling": 6797,
      "puert": 6798,
      "unfair": 6799,
      "examination": 6800,
      "venice": 6801,
      "flying": 6802,
      "captured": 6803,
      "bowl": 6804,
      "gathered": 6805,
      "strychnine": 6806,
      "cant": 6807,
      "cyc": 6808,
      "dame": 6809,
      "file": 6810,
      "locked": 6811,
      "tool": 6812,
      "##rete": 6813,
      "##isk": 6814,
      "##urd": 6815,
      "prize": 6816,
      "##thouse": 6817,
      "shannon": 6818,
      "##keep": 6819,
      "grade": 6820,
      "impr": 6821,
      "##ubs": 6822,
      "struck": 6823,
      "provision": 6824,
      "lasted": 6825,
      "starts": 6826,
      "performing": 6827,
      "walks": 6828,
      "blacks": 6829,
      "nonf": 6830,
      "closely": 6831,
      "demands": 6832,
      "universal": 6833,
      "faa": 6834,
      "unemployment": 6835,
      "bour": 6836,
      "cos": 6837,
      "fert": 6838,
      "tas": 6839,
      "##night": 6840,
      "##ora": 6841,
      "toler": 6842,
      "##ici": 6843,
      "uncon": 6844,
      "##aved": 6845,
      "monop": 6846,
      "personally": 6847,
      "corresp": 6848,
      "weekends": 6849,
      "morris": 6850,
      "patr": 6851,
      "armed": 6852,
      "exclud": 6853,
      "promise": 6854,
      "filed": 6855,
      "administer": 6856,
      "fallen": 6857,
      "objective": 6858,
      "obser": 6859,
      "embarrass": 6860,
      "purchased": 6861,
      "jackson": 6862,
      "triump": 6863,
      "license": 6864,
      "false": 6865,
      "impeach": 6866,
      "controversial": 6867,
      "correspond": 6868,
      "800": 6869,
      "rot": 6870,
      "rust": 6871,
      "tables": 6872,
      "zoo": 6873,
      "##uits": 6874,
      "##ih": 6875,
      "##inos": 6876,
      "##oral": 6877,
      "reaction": 6878,
      "##stream": 6879,
      "##thod": 6880,
      "##iva": 6881,
      "newly": 6882,
      "intention": 6883,
      "boom": 6884,
      "##ava": 6885,
      "indig": 6886,
      "parent": 6887,
      "locations": 6888,
      "soul": 6889,
      "lessons": 6890,
      "##bean": 6891,
      "monthly": 6892,
      "lands": 6893,
      "topics": 6894,
      "salary": 6895,
      "popularity": 6896,
      "representative": 6897,
      "romantic": 6898,
      "encoun": 6899,
      "falls": 6900,
      "duke": 6901,
      "creative": 6902,
      "burned": 6903,
      "laughed": 6904,
      "comprom": 6905,
      "buchanan": 6906,
      "bread": 6907,
      "rib": 6908,
      "rode": 6909,
      "##war": 6910,
      "##his": 6911,
      "##field": 6912,
      "gro": 6913,
      "reserv": 6914,
      "undert": 6915,
      "##ucks": 6916,
      "marketing": 6917,
      "extended": 6918,
      "arrest": 6919,
      "addressing": 6920,
      "malay": 6921,
      "qualified": 6922,
      "merchant": 6923,
      "mobile": 6924,
      "vehicles": 6925,
      "conscious": 6926,
      "ramses": 6927,
      "houston": 6928,
      "dip": 6929,
      "dup": 6930,
      "##tes": 6931,
      "##iot": 6932,
      "##lied": 6933,
      "##bour": 6934,
      "thro": 6935,
      "##ano": 6936,
      "doz": 6937,
      "exists": 6938,
      "##udes": 6939,
      "loves": 6940,
      "fox": 6941,
      "secure": 6942,
      "reader": 6943,
      "curious": 6944,
      "feelings": 6945,
      "authors": 6946,
      "arrested": 6947,
      "absence": 6948,
      "renew": 6949,
      "considerable": 6950,
      "initially": 6951,
      "optim": 6952,
      "architectural": 6953,
      "exhibition": 6954,
      "denied": 6955,
      "globe": 6956,
      "premium": 6957,
      "martinique": 6958,
      "concentration": 6959,
      "lifet": 6960,
      "virtually": 6961,
      "editorial": 6962,
      "dynasty": 6963,
      "interpretation": 6964,
      "crucial": 6965,
      "platform": 6966,
      "kosovo": 6967,
      "hiring": 6968,
      "jr": 6969,
      "nerv": 6970,
      "nipa": 6971,
      "pul": 6972,
      "sons": 6973,
      "##fl": 6974,
      "##esis": 6975,
      "##ales": 6976,
      "anx": 6977,
      "##illing": 6978,
      "cha": 6979,
      "##istry": 6980,
      "##une": 6981,
      "##ques": 6982,
      "##arel": 6983,
      "indo": 6984,
      "guadel": 6985,
      "baroque": 6986,
      "equival": 6987,
      "palm": 6988,
      "difficulty": 6989,
      "subjects": 6990,
      "referred": 6991,
      "voted": 6992,
      "impression": 6993,
      "recommendation": 6994,
      "pilot": 6995,
      "gentlem": 6996,
      "confirmed": 6997,
      "veterans": 6998,
      "subsequent": 6999,
      "protocols": 7000,
      "chambers": 7001,
      "##thodox": 7002,
      "gap": 7003,
      "gaz": 7004,
      "gained": 7005,
      "hates": 7006,
      "pupp": 7007,
      "pont": 7008,
      "##lv": 7009,
      "##oration": 7010,
      "forec": 7011,
      "##amental": 7012,
      "##aine": 7013,
      "hast": 7014,
      "imposed": 7015,
      "recre": 7016,
      "assurance": 7017,
      "supplies": 7018,
      "surg": 7019,
      "passage": 7020,
      "southwest": 7021,
      "authorized": 7022,
      "expecting": 7023,
      "hitler": 7024,
      "juan": 7025,
      "committees": 7026,
      "femin": 7027,
      "pushed": 7028,
      "situated": 7029,
      "component": 7030,
      "delightful": 7031,
      "rebuilt": 7032,
      "supervis": 7033,
      "occasionally": 7034,
      "discrimination": 7035,
      "caribbean": 7036,
      "harsh": 7037,
      "guadeloupe": 7038,
      "93": 7039,
      "cater": 7040,
      "dat": 7041,
      "gifts": 7042,
      "mun": 7043,
      "rit": 7044,
      "##yon": 7045,
      "##bound": 7046,
      "##xual": 7047,
      "##erce": 7048,
      "stor": 7049,
      "hamm": 7050,
      "##vered": 7051,
      "##illes": 7052,
      "##usted": 7053,
      "incident": 7054,
      "actor": 7055,
      "guides": 7056,
      "##ologist": 7057,
      "edition": 7058,
      "clever": 7059,
      "beneath": 7060,
      "ceram": 7061,
      "employer": 7062,
      "employed": 7063,
      "passion": 7064,
      "traveled": 7065,
      "burning": 7066,
      "murd": 7067,
      "settings": 7068,
      "diam": 7069,
      "dressed": 7070,
      "opposition": 7071,
      "involvement": 7072,
      "mirr": 7073,
      "guarantee": 7074,
      "mystery": 7075,
      "tropical": 7076,
      "album": 7077,
      "erected": 7078,
      "rod": 7079,
      "##rig": 7080,
      "##uine": 7081,
      "##atoes": 7082,
      "##omach": 7083,
      "##iration": 7084,
      "##essions": 7085,
      "sees": 7086,
      "noble": 7087,
      "##active": 7088,
      "myth": 7089,
      "shell": 7090,
      "##aki": 7091,
      "expans": 7092,
      "##aches": 7093,
      "pregn": 7094,
      "##ocks": 7095,
      "publications": 7096,
      "simpl": 7097,
      "temporary": 7098,
      "covering": 7099,
      "refuse": 7100,
      "solve": 7101,
      "silk": 7102,
      "grande": 7103,
      "inflation": 7104,
      "beautifully": 7105,
      "multi": 7106,
      "motion": 7107,
      "institutions": 7108,
      "evaluate": 7109,
      "horror": 7110,
      "blocks": 7111,
      "injured": 7112,
      "##iptions": 7113,
      "sevent": 7114,
      "instrument": 7115,
      "relaxed": 7116,
      "rejected": 7117,
      "manufacturers": 7118,
      "trauma": 7119,
      "ls": 7120,
      "lod": 7121,
      "ves": 7122,
      "vend": 7123,
      "zone": 7124,
      "##ko": 7125,
      "##fall": 7126,
      "##irable": 7127,
      "##oli": 7128,
      "chamber": 7129,
      "##oker": 7130,
      "agenda": 7131,
      "crown": 7132,
      "190": 7133,
      "guests": 7134,
      "##lands": 7135,
      "depth": 7136,
      "profile": 7137,
      "transm": 7138,
      "refers": 7139,
      "northeast": 7140,
      "187": 7141,
      "significance": 7142,
      "encl": 7143,
      "focuses": 7144,
      "balanced": 7145,
      "influenced": 7146,
      "maintaining": 7147,
      "sculpted": 7148,
      "immediate": 7149,
      "injury": 7150,
      "adopt": 7151,
      "mexican": 7152,
      "picturesque": 7153,
      "bathroom": 7154,
      "scenarios": 7155,
      "portugal": 7156,
      "fabric": 7157,
      "divorce": 7158,
      "fountain": 7159,
      "sauce": 7160,
      "bern": 7161,
      "mit": 7162,
      "##pit": 7163,
      "##inate": 7164,
      "##areness": 7165,
      "##utory": 7166,
      "##ima": 7167,
      "##uls": 7168,
      "liqu": 7169,
      "tran": 7170,
      "trials": 7171,
      "##aux": 7172,
      "resem": 7173,
      "score": 7174,
      "boards": 7175,
      "apparel": 7176,
      "cares": 7177,
      "monte": 7178,
      "monitor": 7179,
      "flour": 7180,
      "handled": 7181,
      "planet": 7182,
      "childhood": 7183,
      "fundamental": 7184,
      "swung": 7185,
      "badly": 7186,
      "southeast": 7187,
      "ceo": 7188,
      "##boys": 7189,
      "colleagues": 7190,
      "heaven": 7191,
      "hopes": 7192,
      "ninet": 7193,
      "etc": 7194,
      "deficits": 7195,
      "carrier": 7196,
      "austral": 7197,
      "boutiques": 7198,
      "sophistic": 7199,
      "venetian": 7200,
      "elev": 7201,
      "fcc": 7202,
      "jazz": 7203,
      "wt": 7204,
      "wol": 7205,
      "##lord": 7206,
      "##enger": 7207,
      "inher": 7208,
      "##ican": 7209,
      "##owing": 7210,
      "##irm": 7211,
      "fro": 7212,
      "trends": 7213,
      "##eline": 7214,
      "assert": 7215,
      "reluct": 7216,
      "presents": 7217,
      "##erman": 7218,
      "fled": 7219,
      "margin": 7220,
      "para": 7221,
      "concrete": 7222,
      "statutory": 7223,
      "patron": 7224,
      "##liers": 7225,
      "excurs": 7226,
      "nonpro": 7227,
      "awareness": 7228,
      "enterpr": 7229,
      "distingu": 7230,
      "pund": 7231,
      "woods": 7232,
      "jersey": 7233,
      "ladin": 7234,
      "submit": 7235,
      "conservatives": 7236,
      "talent": 7237,
      "advocates": 7238,
      "lifesty": 7239,
      "songs": 7240,
      "carriers": 7241,
      "datab": 7242,
      "fond": 7243,
      "na": 7244,
      "##cks": 7245,
      "##zes": 7246,
      "##idays": 7247,
      "##urred": 7248,
      "notre": 7249,
      "##oda": 7250,
      "suits": 7251,
      "##arded": 7252,
      "spo": 7253,
      "loyal": 7254,
      "quiz": 7255,
      "driver": 7256,
      "commerce": 7257,
      "legs": 7258,
      "caps": 7259,
      "edward": 7260,
      "delhi": 7261,
      "medica": 7262,
      "designated": 7263,
      "villa": 7264,
      "entering": 7265,
      "##onym": 7266,
      "speaker": 7267,
      "connected": 7268,
      "trails": 7269,
      "instruct": 7270,
      "ninety": 7271,
      "certification": 7272,
      "##scrib": 7273,
      "sewing": 7274,
      "explorer": 7275,
      "thursday": 7276,
      "ritual": 7277,
      "bike": 7278,
      "hatch": 7279,
      "##rah": 7280,
      "##mand": 7281,
      "##ault": 7282,
      "##ki": 7283,
      "##stone": 7284,
      "##opher": 7285,
      "comedy": 7286,
      "##ighters": 7287,
      "pla": 7288,
      "crose": 7289,
      "decent": 7290,
      "legit": 7291,
      "homeland": 7292,
      "campus": 7293,
      "statute": 7294,
      "behalf": 7295,
      "dealers": 7296,
      "travelers": 7297,
      "granted": 7298,
      "historically": 7299,
      "checked": 7300,
      "neglect": 7301,
      "damaged": 7302,
      "banned": 7303,
      "reflects": 7304,
      "establishment": 7305,
      "holoca": 7306,
      "garb": 7307,
      "swords": 7308,
      "obtained": 7309,
      "automated": 7310,
      "luxury": 7311,
      "earnings": 7312,
      "shelter": 7313,
      "maximum": 7314,
      "rapidly": 7315,
      "intelligence": 7316,
      "cliffs": 7317,
      "acknowled": 7318,
      "frescoes": 7319,
      "cuisine": 7320,
      "holocaust": 7321,
      "95": 7322,
      "lu": 7323,
      "tort": 7324,
      "tied": 7325,
      "##hem": 7326,
      "theories": 7327,
      "##organ": 7328,
      "##alle": 7329,
      "inject": 7330,
      "##olis": 7331,
      "exit": 7332,
      "spoken": 7333,
      "myster": 7334,
      "##agers": 7335,
      "exposed": 7336,
      "carbon": 7337,
      "flaw": 7338,
      "supports": 7339,
      "talks": 7340,
      "letting": 7341,
      "entit": 7342,
      "stops": 7343,
      "wondered": 7344,
      "acquired": 7345,
      "procedure": 7346,
      "mixed": 7347,
      "profitable": 7348,
      "interviews": 7349,
      "wedding": 7350,
      "tapes": 7351,
      "adventure": 7352,
      "inev": 7353,
      "convinced": 7354,
      "portrait": 7355,
      "enjoys": 7356,
      "pyramid": 7357,
      "antonio": 7358,
      "dozens": 7359,
      "lifetime": 7360,
      "medicaid": 7361,
      "37": 7362,
      "dirt": 7363,
      "mild": 7364,
      "nit": 7365,
      "pap": 7366,
      "ros": 7367,
      "tact": 7368,
      "##pe": 7369,
      "sail": 7370,
      "aggreg": 7371,
      "##ipts": 7372,
      "crop": 7373,
      "prepar": 7374,
      "mons": 7375,
      "monks": 7376,
      "parad": 7377,
      "phar": 7378,
      "farming": 7379,
      "economically": 7380,
      "allowance": 7381,
      "confused": 7382,
      "promised": 7383,
      "membership": 7384,
      "shrines": 7385,
      "##sylv": 7386,
      "treasure": 7387,
      "utter": 7388,
      "bombing": 7389,
      "constitutional": 7390,
      "bureaucr": 7391,
      "convenient": 7392,
      "surface": 7393,
      "pennsylv": 7394,
      "theatre": 7395,
      "nuclear": 7396,
      "wtp": 7397,
      "39": 7398,
      "aic": 7399,
      "horn": 7400,
      "oak": 7401,
      "tok": 7402,
      "##arse": 7403,
      "##ashing": 7404,
      "##iro": 7405,
      "conrad": 7406,
      "##acc": 7407,
      "trash": 7408,
      "nose": 7409,
      "cancer": 7410,
      "##quis": 7411,
      "##ems": 7412,
      "thrown": 7413,
      "##athers": 7414,
      "warn": 7415,
      "warning": 7416,
      "##ugs": 7417,
      "airport": 7418,
      "transactions": 7419,
      "swing": 7420,
      "ruling": 7421,
      "superior": 7422,
      "adjustment": 7423,
      "florence": 7424,
      "seventy": 7425,
      "sticks": 7426,
      "confirm": 7427,
      "succeeded": 7428,
      "innovative": 7429,
      "oriented": 7430,
      "fingers": 7431,
      "bic": 7432,
      "foster": 7433,
      "harr": 7434,
      "nh": 7435,
      "nich": 7436,
      "##ria": 7437,
      "##lined": 7438,
      "##wa": 7439,
      "##inity": 7440,
      "##any": 7441,
      "##stit": 7442,
      "anger": 7443,
      "##olitan": 7444,
      "nema": 7445,
      "##istent": 7446,
      "##eled": 7447,
      "outr": 7448,
      "peas": 7449,
      "craw": 7450,
      "roy": 7451,
      "##avag": 7452,
      "assigned": 7453,
      "throne": 7454,
      "highlight": 7455,
      "marry": 7456,
      "proph": 7457,
      "retreat": 7458,
      "admission": 7459,
      "rulers": 7460,
      "identifying": 7461,
      "coastline": 7462,
      "competing": 7463,
      "distin": 7464,
      "rocky": 7465,
      "customs": 7466,
      "alternatives": 7467,
      "##inois": 7468,
      "touched": 7469,
      "cowboys": 7470,
      "bonds": 7471,
      "strictly": 7472,
      "cryst": 7473,
      "eager": 7474,
      "42": 7475,
      "dot": 7476,
      "dies": 7477,
      "diving": 7478,
      "fulf": 7479,
      "finger": 7480,
      "gulf": 7481,
      "mwe": 7482,
      "##ym": 7483,
      "##bar": 7484,
      "##orious": 7485,
      "##rets": 7486,
      "bears": 7487,
      "stun": 7488,
      "##olate": 7489,
      "##olta": 7490,
      "shil": 7491,
      "conj": 7492,
      "orthodox": 7493,
      "alike": 7494,
      "acres": 7495,
      "##licit": 7496,
      "striking": 7497,
      "subur": 7498,
      "revenues": 7499,
      "marvel": 7500,
      "editors": 7501,
      "simon": 7502,
      "porto": 7503,
      "files": 7504,
      "argued": 7505,
      "assistant": 7506,
      "campaigns": 7507,
      "ensuring": 7508,
      "deeply": 7509,
      "priorities": 7510,
      "celebrate": 7511,
      "indicated": 7512,
      "fashioned": 7513,
      "injuries": 7514,
      "discounts": 7515,
      "produces": 7516,
      "resistance": 7517,
      "pierre": 7518,
      "solely": 7519,
      "weaknesses": 7520,
      "joseph": 7521,
      "ornate": 7522,
      "nervous": 7523,
      "paragraph": 7524,
      "pennsylvania": 7525,
      "aicpa": 7526,
      "shiloh": 7527,
      "dal": 7528,
      "fel": 7529,
      "rivers": 7530,
      "##bc": 7531,
      "##down": 7532,
      "##erable": 7533,
      "##inter": 7534,
      "##esque": 7535,
      "##ider": 7536,
      "hav": 7537,
      "prol": 7538,
      "##che": 7539,
      "##imental": 7540,
      "shade": 7541,
      "sequ": 7542,
      "agents": 7543,
      "##load": 7544,
      "remove": 7545,
      "mines": 7546,
      "topham": 7547,
      "housed": 7548,
      "solutions": 7549,
      "demanded": 7550,
      "strongly": 7551,
      "illness": 7552,
      "illinois": 7553,
      "breaks": 7554,
      "installations": 7555,
      "measurement": 7556,
      "camer": 7557,
      "extraord": 7558,
      "transferred": 7559,
      "guaranteed": 7560,
      "ghost": 7561,
      "carpet": 7562,
      "brilliant": 7563,
      "sacrifice": 7564,
      "cete": 7565,
      "basilica": 7566,
      "pizza": 7567,
      "tasks": 7568,
      "99": 7569,
      "cage": 7570,
      "fancy": 7571,
      "hub": 7572,
      "nas": 7573,
      "pays": 7574,
      "##makers": 7575,
      "##iner": 7576,
      "##orous": 7577,
      "prest": 7578,
      "seas": 7579,
      "##osh": 7580,
      "##eling": 7581,
      "adapt": 7582,
      "comply": 7583,
      "usa": 7584,
      "boost": 7585,
      "##rogen": 7586,
      "email": 7587,
      "generate": 7588,
      "patri": 7589,
      "reaching": 7590,
      "traditionally": 7591,
      "assessing": 7592,
      "contractor": 7593,
      "broadcast": 7594,
      "impressed": 7595,
      "dramatically": 7596,
      "racial": 7597,
      "advisory": 7598,
      "bustling": 7599,
      "osaka": 7600,
      "columbus": 7601,
      "steady": 7602,
      "hawaii": 7603,
      "inhabit": 7604,
      "satisfaction": 7605,
      "palazzo": 7606,
      "ell": 7607,
      "hi": 7608,
      "lion": 7609,
      "punch": 7610,
      "pushing": 7611,
      "##ull": 7612,
      "##mony": 7613,
      "##born": 7614,
      "##ho": 7615,
      "##fare": 7616,
      "##oning": 7617,
      "##asy": 7618,
      "stro": 7619,
      "stomach": 7620,
      "##char": 7621,
      "deals": 7622,
      "fright": 7623,
      "proc": 7624,
      "cans": 7625,
      "spark": 7626,
      "perth": 7627,
      "quint": 7628,
      "##osexual": 7629,
      "intent": 7630,
      "##iano": 7631,
      "genuine": 7632,
      "plano": 7633,
      "ruined": 7634,
      "deliber": 7635,
      "barr": 7636,
      "experiment": 7637,
      "palaces": 7638,
      "hillary": 7639,
      "wondering": 7640,
      "polls": 7641,
      "1989": 7642,
      "exception": 7643,
      "attempts": 7644,
      "fashionable": 7645,
      "verd": 7646,
      "permitted": 7647,
      "boxes": 7648,
      "advertise": 7649,
      "occasional": 7650,
      "neighborhoods": 7651,
      "announce": 7652,
      "ultimate": 7653,
      "graduate": 7654,
      "sympath": 7655,
      "eliminate": 7656,
      "bargain": 7657,
      "uncertainty": 7658,
      "mathem": 7659,
      "warriors": 7660,
      "unnecess": 7661,
      "az": 7662,
      "cited": 7663,
      "oly": 7664,
      "pump": 7665,
      "wished": 7666,
      "##mo": 7667,
      "##lights": 7668,
      "##atures": 7669,
      "##anas": 7670,
      "infer": 7671,
      "reign": 7672,
      "stall": 7673,
      "hamp": 7674,
      "notable": 7675,
      "shirts": 7676,
      "chees": 7677,
      "lips": 7678,
      "exha": 7679,
      "tries": 7680,
      "trump": 7681,
      "outs": 7682,
      "brut": 7683,
      "##00s": 7684,
      "rolling": 7685,
      "preced": 7686,
      "contrary": 7687,
      "polish": 7688,
      "meanwhile": 7689,
      "elastic": 7690,
      "publicly": 7691,
      "1991": 7692,
      "heading": 7693,
      "receives": 7694,
      "generated": 7695,
      "excav": 7696,
      "eggs": 7697,
      "christians": 7698,
      "couples": 7699,
      "deaths": 7700,
      "reconstr": 7701,
      "ceremony": 7702,
      "kirby": 7703,
      "bauerstein": 7704,
      "monetary": 7705,
      "bart": 7706,
      "pent": 7707,
      "##mir": 7708,
      "##ka": 7709,
      "##fish": 7710,
      "##cho": 7711,
      "shield": 7712,
      "traged": 7713,
      "abc": 7714,
      "outstanding": 7715,
      "compound": 7716,
      "##ignment": 7717,
      "belt": 7718,
      "warrant": 7719,
      "homeless": 7720,
      "personality": 7721,
      "soccer": 7722,
      "refres": 7723,
      "landmark": 7724,
      "nights": 7725,
      "execution": 7726,
      "discusses": 7727,
      "worthy": 7728,
      "networks": 7729,
      "commonly": 7730,
      "referral": 7731,
      "drinks": 7732,
      "battles": 7733,
      "rapier": 7734,
      "literally": 7735,
      "journalists": 7736,
      "challenging": 7737,
      "bottle": 7738,
      "collabor": 7739,
      "targets": 7740,
      "concerts": 7741,
      "academy": 7742,
      "ceremon": 7743,
      "granite": 7744,
      "boris": 7745,
      "enthusi": 7746,
      "aerob": 7747,
      "##mandu": 7748,
      "olymp": 7749,
      "bh": 7750,
      "fet": 7751,
      "tie": 7752,
      "vig": 7753,
      "##zo": 7754,
      "##oric": 7755,
      "inches": 7756,
      "istan": 7757,
      "worn": 7758,
      "##iev": 7759,
      "spear": 7760,
      "gras": 7761,
      "brothers": 7762,
      "disability": 7763,
      "buck": 7764,
      "straw": 7765,
      "carv": 7766,
      "moors": 7767,
      "phen": 7768,
      "caes": 7769,
      "restoration": 7770,
      "mainland": 7771,
      "2005": 7772,
      "prototyp": 7773,
      "suggestions": 7774,
      "soldier": 7775,
      "attacked": 7776,
      "wildlife": 7777,
      "indicates": 7778,
      "treasures": 7779,
      "utility": 7780,
      "suffer": 7781,
      "princess": 7782,
      "fantastic": 7783,
      "kathmandu": 7784,
      "istanbul": 7785,
      "65": 7786,
      "density": 7787,
      "fbi": 7788,
      "gest": 7789,
      "hiking": 7790,
      "wan": 7791,
      "wave": 7792,
      "##bits": 7793,
      "##erie": 7794,
      "##sters": 7795,
      "fred": 7796,
      "suic": 7797,
      "abund": 7798,
      "abroad": 7799,
      "##udi": 7800,
      "##oks": 7801,
      "serb": 7802,
      "##eck": 7803,
      "colony": 7804,
      "whereas": 7805,
      "slave": 7806,
      "payroll": 7807,
      "moderate": 7808,
      "define": 7809,
      "engines": 7810,
      "transaction": 7811,
      "exploring": 7812,
      "steve": 7813,
      "arrival": 7814,
      "wake": 7815,
      "irre": 7816,
      "discussions": 7817,
      "renowned": 7818,
      "minded": 7819,
      "competitors": 7820,
      "turks": 7821,
      "circle": 7822,
      "engineer": 7823,
      "supposedly": 7824,
      "substit": 7825,
      "quarters": 7826,
      "displayed": 7827,
      "applies": 7828,
      "merchants": 7829,
      "tapest": 7830,
      "retailers": 7831,
      "ratio": 7832,
      "aimed": 7833,
      "atlanta": 7834,
      "disclosure": 7835,
      "##quarters": 7836,
      "dictionary": 7837,
      "impeachment": 7838,
      "01": 7839,
      "48": 7840,
      "ceter": 7841,
      "ging": 7842,
      "hint": 7843,
      "rab": 7844,
      "wow": 7845,
      "##vre": 7846,
      "##isons": 7847,
      "##olished": 7848,
      "butter": 7849,
      "leaf": 7850,
      "unexp": 7851,
      "cloud": 7852,
      "offset": 7853,
      "overcome": 7854,
      "accum": 7855,
      "underground": 7856,
      "invited": 7857,
      "joke": 7858,
      "suppliers": 7859,
      "visa": 7860,
      "causing": 7861,
      "directions": 7862,
      "musc": 7863,
      "viewed": 7864,
      "naturally": 7865,
      "greet": 7866,
      "balear": 7867,
      "regarded": 7868,
      "languages": 7869,
      "achievement": 7870,
      "camera": 7871,
      "responded": 7872,
      "introduction": 7873,
      "fatal": 7874,
      "territories": 7875,
      "defeated": 7876,
      "derived": 7877,
      "springs": 7878,
      "academic": 7879,
      "mansion": 7880,
      "pacific": 7881,
      "prudie": 7882,
      "biograph": 7883,
      "puerto": 7884,
      "surgery": 7885,
      "nonprofit": 7886,
      "bree": 7887,
      "cot": 7888,
      "crew": 7889,
      "cott": 7890,
      "hiding": 7891,
      "lag": 7892,
      "ry": 7893,
      "rav": 7894,
      "##esth": 7895,
      "betr": 7896,
      "reorgan": 7897,
      "stained": 7898,
      "shiva": 7899,
      "seats": 7900,
      "##illa": 7901,
      "procl": 7902,
      "unr": 7903,
      "universe": 7904,
      "##endous": 7905,
      "brave": 7906,
      "evol": 7907,
      "afgh": 7908,
      "owns": 7909,
      "happily": 7910,
      "transpar": 7911,
      "terminal": 7912,
      "##elled": 7913,
      "summit": 7914,
      "representing": 7915,
      "fails": 7916,
      "failing": 7917,
      "compete": 7918,
      "acceptance": 7919,
      "assessments": 7920,
      "references": 7921,
      "mistakes": 7922,
      "connections": 7923,
      "quarterback": 7924,
      "meaningful": 7925,
      "demonstration": 7926,
      "macau": 7927,
      "##related": 7928,
      "inspection": 7929,
      "occupied": 7930,
      "roughly": 7931,
      "athlet": 7932,
      "overseas": 7933,
      "convince": 7934,
      "surprisingly": 7935,
      "prosecut": 7936,
      "facilitate": 7937,
      "throat": 7938,
      "garbage": 7939,
      "inhabitants": 7940,
      "carvings": 7941,
      "44": 7942,
      "dumb": 7943,
      "hc": 7944,
      "lau": 7945,
      "mud": 7946,
      "riv": 7947,
      "vivid": 7948,
      "##cy": 7949,
      "##cul": 7950,
      "##orrect": 7951,
      "inapp": 7952,
      "choc": 7953,
      "gov": 7954,
      "exquis": 7955,
      "##acle": 7956,
      "alter": 7957,
      "yep": 7958,
      "spots": 7959,
      "evident": 7960,
      "timely": 7961,
      "explicit": 7962,
      "disg": 7963,
      "flash": 7964,
      "obsc": 7965,
      "worldwide": 7966,
      "186": 7967,
      "apolog": 7968,
      "summar": 7969,
      "sixth": 7970,
      "winner": 7971,
      "reasonably": 7972,
      "listened": 7973,
      "120": 7974,
      "recording": 7975,
      "dominated": 7976,
      "credibility": 7977,
      "stronger": 7978,
      "santo": 7979,
      "drawings": 7980,
      "babies": 7981,
      "mandate": 7982,
      "integration": 7983,
      "tracks": 7984,
      "jeff": 7985,
      "jeans": 7986,
      "princes": 7987,
      "prosperity": 7988,
      "gentle": 7989,
      "emphasis": 7990,
      "expertise": 7991,
      "exclusive": 7992,
      "scheduled": 7993,
      "conventional": 7994,
      "analysts": 7995,
      "hcfa": 7996,
      "cree": 7997,
      "dances": 7998,
      "fate": 7999,
      "ferr": 8000,
      "gender": 8001,
      "ko": 8002,
      "nar": 8003,
      "rides": 8004,
      "xiv": 8005,
      "##iable": 8006,
      "##hand": 8007,
      "##fers": 8008,
      "chin": 8009,
      "chatter": 8010,
      "alab": 8011,
      "##ardo": 8012,
      "spare": 8013,
      "lovers": 8014,
      "schem": 8015,
      "ohio": 8016,
      "instinct": 8017,
      "locally": 8018,
      "metrop": 8019,
      "headquarters": 8020,
      "passes": 8021,
      "extend": 8022,
      "arches": 8023,
      "lowest": 8024,
      "cultures": 8025,
      "hillside": 8026,
      "shortly": 8027,
      "devast": 8028,
      "physically": 8029,
      "prisoner": 8030,
      "borders": 8031,
      "concentrations": 8032,
      "incentive": 8033,
      "luxor": 8034,
      "observation": 8035,
      "emotional": 8036,
      "exclusively": 8037,
      "satisfied": 8038,
      "jacob": 8039,
      "masterpiece": 8040,
      "francisco": 8041,
      "grocery": 8042,
      "gingrich": 8043,
      "bom": 8044,
      "baza": 8045,
      "ease": 8046,
      "lists": 8047,
      "pitt": 8048,
      "pork": 8049,
      "wo": 8050,
      "wines": 8051,
      "##aire": 8052,
      "inexp": 8053,
      "libert": 8054,
      "##uscan": 8055,
      "tripp": 8056,
      "##aping": 8057,
      "unim": 8058,
      "workforce": 8059,
      "lobby": 8060,
      "invaded": 8061,
      "respected": 8062,
      "curve": 8063,
      "accountable": 8064,
      "receipt": 8065,
      "singing": 8066,
      "antiques": 8067,
      "modeling": 8068,
      "godd": 8069,
      "device": 8070,
      "circular": 8071,
      "scrut": 8072,
      "creatures": 8073,
      "germans": 8074,
      "sweep": 8075,
      "casino": 8076,
      "holidays": 8077,
      "paths": 8078,
      "gateway": 8079,
      "industries": 8080,
      "complain": 8081,
      "1960s": 8082,
      "expanding": 8083,
      "fortune": 8084,
      "revealed": 8085,
      "escaped": 8086,
      "clinical": 8087,
      "therap": 8088,
      "privilege": 8089,
      "lifestyle": 8090,
      "nitrogen": 8091,
      "fake": 8092,
      "hip": 8093,
      "kiss": 8094,
      "pension": 8095,
      "##laimed": 8096,
      "##yards": 8097,
      "##10": 8098,
      "##alo": 8099,
      "##omo": 8100,
      "stim": 8101,
      "stays": 8102,
      "forests": 8103,
      "unt": 8104,
      "poly": 8105,
      "wanting": 8106,
      "attended": 8107,
      "excite": 8108,
      "identical": 8109,
      "civilization": 8110,
      "hearings": 8111,
      "votes": 8112,
      "legislature": 8113,
      "formerly": 8114,
      "restrict": 8115,
      "threatened": 8116,
      "attempted": 8117,
      "sensit": 8118,
      "essentially": 8119,
      "decreased": 8120,
      "suitable": 8121,
      "dependent": 8122,
      "nineteen": 8123,
      "pharao": 8124,
      "tragedy": 8125,
      "34": 8126,
      "fier": 8127,
      "honey": 8128,
      "ms": 8129,
      "pets": 8130,
      "pale": 8131,
      "xv": 8132,
      "##vin": 8133,
      "##itudes": 8134,
      "##ching": 8135,
      "frowned": 8136,
      "meals": 8137,
      "ark": 8138,
      "incorrect": 8139,
      "##achus": 8140,
      "mood": 8141,
      "studio": 8142,
      "smallest": 8143,
      "populations": 8144,
      "ending": 8145,
      "contest": 8146,
      "milan": 8147,
      "communist": 8148,
      "steal": 8149,
      "armor": 8150,
      "promen": 8151,
      "1980": 8152,
      "appropriations": 8153,
      "lacking": 8154,
      "districts": 8155,
      "slept": 8156,
      "greece": 8157,
      "skilled": 8158,
      "duties": 8159,
      "literary": 8160,
      "adjusted": 8161,
      "hindus": 8162,
      "peaks": 8163,
      "scientists": 8164,
      "channels": 8165,
      "launched": 8166,
      "cataly": 8167,
      "institutional": 8168,
      "pollutants": 8169,
      "pirates": 8170,
      "alleged": 8171,
      "hastings": 8172,
      "crystal": 8173,
      "unexpected": 8174,
      "aqu": 8175,
      "dc": 8176,
      "iolta": 8177,
      "pav": 8178,
      "rugged": 8179,
      "vamp": 8180,
      "##mother": 8181,
      "##bl": 8182,
      "##falls": 8183,
      "##orse": 8184,
      "##ani": 8185,
      "pron": 8186,
      "notion": 8187,
      "##oped": 8188,
      "soil": 8189,
      "##ieur": 8190,
      "unions": 8191,
      "comptro": 8192,
      "brid": 8193,
      "quote": 8194,
      "goodness": 8195,
      "commod": 8196,
      "commem": 8197,
      "attached": 8198,
      "##ugawa": 8199,
      "hardware": 8200,
      "engaged": 8201,
      "reviewing": 8202,
      "generous": 8203,
      "varied": 8204,
      "trem": 8205,
      "enjoyable": 8206,
      "steam": 8207,
      "arranged": 8208,
      "promul": 8209,
      "sounded": 8210,
      "175": 8211,
      "geograph": 8212,
      "educated": 8213,
      "argues": 8214,
      "hungry": 8215,
      "fleet": 8216,
      "troub": 8217,
      "engineers": 8218,
      "appeals": 8219,
      "ignor": 8220,
      "agrees": 8221,
      "distributed": 8222,
      "repeat": 8223,
      "engagements": 8224,
      "shooting": 8225,
      "worksharing": 8226,
      "amendments": 8227,
      "retrofits": 8228,
      "##avery": 8229,
      "staircase": 8230,
      "phrase": 8231,
      "voluntary": 8232,
      "monopoly": 8233,
      "aerobics": 8234,
      "goddess": 8235,
      "43": 8236,
      "98": 8237,
      "bast": 8238,
      "bib": 8239,
      "dense": 8240,
      "eve": 8241,
      "jet": 8242,
      "nu": 8243,
      "nave": 8244,
      "naked": 8245,
      "pist": 8246,
      "rating": 8247,
      "slo": 8248,
      "wool": 8249,
      "##rome": 8250,
      "##mate": 8251,
      "##gage": 8252,
      "##gments": 8253,
      "##care": 8254,
      "##hr": 8255,
      "##ongh": 8256,
      "##igan": 8257,
      "##ader": 8258,
      "neut": 8259,
      "trains": 8260,
      "arth": 8261,
      "arist": 8262,
      "moreover": 8263,
      "grate": 8264,
      "scout": 8265,
      "moor": 8266,
      "flank": 8267,
      "simulation": 8268,
      "posted": 8269,
      "yorker": 8270,
      "pulling": 8271,
      "beds": 8272,
      "jungle": 8273,
      "assuming": 8274,
      "counseling": 8275,
      "mcd": 8276,
      "dishes": 8277,
      "corruption": 8278,
      "volcanic": 8279,
      "assembly": 8280,
      "philosophy": 8281,
      "reprod": 8282,
      "dipl": 8283,
      "diamond": 8284,
      "expansion": 8285,
      "paradise": 8286,
      "cy": 8287,
      "census": 8288,
      "gle": 8289,
      "rush": 8290,
      "wire": 8291,
      "##ga": 8292,
      "theaters": 8293,
      "inch": 8294,
      "reass": 8295,
      "stan": 8296,
      "hect": 8297,
      "##aco": 8298,
      "trim": 8299,
      "worsh": 8300,
      "whatso": 8301,
      "brows": 8302,
      "crops": 8303,
      "que": 8304,
      "##itty": 8305,
      "twin": 8306,
      "actors": 8307,
      "shoulders": 8308,
      "slaughter": 8309,
      "modified": 8310,
      "easter": 8311,
      "senator": 8312,
      "confusion": 8313,
      "188": 8314,
      "insur": 8315,
      "impacts": 8316,
      "circus": 8317,
      "hurry": 8318,
      "massachus": 8319,
      "casa": 8320,
      "purchases": 8321,
      "mixt": 8322,
      "birthday": 8323,
      "gathering": 8324,
      "monasteries": 8325,
      "climbing": 8326,
      "symptom": 8327,
      "prayer": 8328,
      "intelligent": 8329,
      "chemicals": 8330,
      "skiing": 8331,
      "aggressive": 8332,
      "hazard": 8333,
      "episode": 8334,
      "boilermakers": 8335,
      "overwhelming": 8336,
      "tokugawa": 8337,
      "comptroller": 8338,
      "whatsoever": 8339,
      "47": 8340,
      "49": 8341,
      "lin": 8342,
      "nick": 8343,
      "tut": 8344,
      "ties": 8345,
      "tack": 8346,
      "tends": 8347,
      "vet": 8348,
      "##mond": 8349,
      "##aics": 8350,
      "##pir": 8351,
      "##jo": 8352,
      "##erves": 8353,
      "##enberg": 8354,
      "##oul": 8355,
      "toy": 8356,
      "##child": 8357,
      "shame": 8358,
      "comed": 8359,
      "##abeth": 8360,
      "aged": 8361,
      "##ounced": 8362,
      "themes": 8363,
      "##izabeth": 8364,
      "braz": 8365,
      "intake": 8366,
      "cared": 8367,
      "buses": 8368,
      "elizabeth": 8369,
      "sinai": 8370,
      "coron": 8371,
      "humid": 8372,
      "lesson": 8373,
      "technological": 8374,
      "configuration": 8375,
      "grey": 8376,
      "winding": 8377,
      "girlf": 8378,
      "puzz": 8379,
      "protecting": 8380,
      "basement": 8381,
      "madonna": 8382,
      "checks": 8383,
      "11th": 8384,
      "rider": 8385,
      "encouraging": 8386,
      "crossed": 8387,
      "suspected": 8388,
      "hosts": 8389,
      "demonstrated": 8390,
      "concepts": 8391,
      "tribes": 8392,
      "relaxing": 8393,
      "printed": 8394,
      "agriculture": 8395,
      "vulnerable": 8396,
      "triumph": 8397,
      "equivalent": 8398,
      "sophisticated": 8399,
      "unnecessary": 8400,
      "cheese": 8401,
      "excitement": 8402,
      "diplom": 8403,
      "massachuset": 8404,
      "cad": 8405,
      "cem": 8406,
      "dump": 8407,
      "ic": 8408,
      "pants": 8409,
      "tong": 8410,
      "wag": 8411,
      "##ala": 8412,
      "##ito": 8413,
      "##idable": 8414,
      "##amic": 8415,
      "##mental": 8416,
      "scots": 8417,
      "apple": 8418,
      "string": 8419,
      "accent": 8420,
      "guest": 8421,
      "highlights": 8422,
      "wrest": 8423,
      "artistic": 8424,
      "posts": 8425,
      "##ieties": 8426,
      "barnes": 8427,
      "nightlife": 8428,
      "traditions": 8429,
      "singer": 8430,
      "##shire": 8431,
      "stephen": 8432,
      "sells": 8433,
      "bankrupt": 8434,
      "evaluations": 8435,
      "suffering": 8436,
      "quantitative": 8437,
      "fortunate": 8438,
      "navy": 8439,
      "delicious": 8440,
      "cooper": 8441,
      "beliefs": 8442,
      "resolve": 8443,
      "prospective": 8444,
      "disappointed": 8445,
      "skept": 8446,
      "unhapp": 8447,
      "monsieur": 8448,
      "distinction": 8449,
      "extraordinary": 8450,
      "prestig": 8451,
      "suicide": 8452,
      "97": 8453,
      "dud": 8454,
      "dick": 8455,
      "ger": 8456,
      "lan": 8457,
      "pak": 8458,
      "ted": 8459,
      "tang": 8460,
      "wis": 8461,
      "wins": 8462,
      "##zing": 8463,
      "##fr": 8464,
      "##ederal": 8465,
      "toss": 8466,
      "##itarian": 8467,
      "##isan": 8468,
      "##isure": 8469,
      "##omfort": 8470,
      "priced": 8471,
      "##ador": 8472,
      "severn": 8473,
      "##uster": 8474,
      "leisure": 8475,
      "##ouri": 8476,
      "##ums": 8477,
      "grim": 8478,
      "incomp": 8479,
      "lazy": 8480,
      "invaders": 8481,
      "helms": 8482,
      "warned": 8483,
      "popul": 8484,
      "barry": 8485,
      "technique": 8486,
      "mailer": 8487,
      "landed": 8488,
      "classified": 8489,
      "armies": 8490,
      "volumes": 8491,
      "sunny": 8492,
      "balcon": 8493,
      "seaf": 8494,
      "norman": 8495,
      "scenery": 8496,
      "diagn": 8497,
      "casinos": 8498,
      "1970s": 8499,
      "prisoners": 8500,
      "remarked": 8501,
      "losses": 8502,
      "demonstrate": 8503,
      "advocacy": 8504,
      "pursue": 8505,
      "boiler": 8506,
      "reveal": 8507,
      "picass": 8508,
      "proceedings": 8509,
      "porch": 8510,
      "vault": 8511,
      "precisely": 8512,
      "2020": 8513,
      "sanctuary": 8514,
      "withdraw": 8515,
      "disappeared": 8516,
      "ceramics": 8517,
      "procure": 8518,
      "phenom": 8519,
      "cotton": 8520,
      "chocolate": 8521,
      "fierce": 8522,
      "massachusetts": 8523,
      "59": 8524,
      "bang": 8525,
      "cale": 8526,
      "dent": 8527,
      "fighters": 8528,
      "gord": 8529,
      "jal": 8530,
      "kam": 8531,
      "kash": 8532,
      "lane": 8533,
      "ward": 8534,
      "##lah": 8535,
      "##oret": 8536,
      "##orca": 8537,
      "##rey": 8538,
      "bearing": 8539,
      "##otte": 8540,
      "##urning": 8541,
      "shog": 8542,
      "shorter": 8543,
      "sectors": 8544,
      "fried": 8545,
      "chances": 8546,
      "##ortions": 8547,
      "cance": 8548,
      "##apse": 8549,
      "##elle": 8550,
      "##endered": 8551,
      "usps": 8552,
      "impose": 8553,
      "inclus": 8554,
      "drives": 8555,
      "bund": 8556,
      "bugs": 8557,
      "##ensed": 8558,
      "recycle": 8559,
      "##into": 8560,
      "descend": 8561,
      "colored": 8562,
      "legacy": 8563,
      "backed": 8564,
      "regret": 8565,
      "surge": 8566,
      "revised": 8567,
      "elite": 8568,
      "proportion": 8569,
      "economist": 8570,
      "crete": 8571,
      "oklah": 8572,
      "##liest": 8573,
      "gardening": 8574,
      "constraints": 8575,
      "romanesque": 8576,
      "acquire": 8577,
      "panor": 8578,
      "greeks": 8579,
      "surviv": 8580,
      "evaluated": 8581,
      "jean": 8582,
      "matching": 8583,
      "awarded": 8584,
      "luxur": 8585,
      "pursu": 8586,
      "subsidy": 8587,
      "emotion": 8588,
      "kicked": 8589,
      "schedules": 8590,
      "lifted": 8591,
      "inquiry": 8592,
      "database": 8593,
      "aggregate": 8594,
      "aristocr": 8595,
      "kashmir": 8596,
      "bac": 8597,
      "bapt": 8598,
      "cbo": 8599,
      "cfo": 8600,
      "mock": 8601,
      "merg": 8602,
      "pose": 8603,
      "races": 8604,
      "sq": 8605,
      "sorts": 8606,
      "sending": 8607,
      "silly": 8608,
      "voc": 8609,
      "vba": 8610,
      "waves": 8611,
      "##oll": 8612,
      "##matic": 8613,
      "##iences": 8614,
      "##len": 8615,
      "##liss": 8616,
      "##vy": 8617,
      "##father": 8618,
      "##esford": 8619,
      "stages": 8620,
      "ford": 8621,
      "deer": 8622,
      "dean": 8623,
      "##oded": 8624,
      "##umin": 8625,
      "##enders": 8626,
      "sailing": 8627,
      "clou": 8628,
      "adap": 8629,
      "loose": 8630,
      "incidents": 8631,
      "intact": 8632,
      "intense": 8633,
      "##uces": 8634,
      "moham": 8635,
      "adds": 8636,
      "##angelo": 8637,
      "subscrib": 8638,
      "persu": 8639,
      "slavery": 8640,
      "visual": 8641,
      "producing": 8642,
      "publicity": 8643,
      "defending": 8644,
      "postage": 8645,
      "##aware": 8646,
      "follows": 8647,
      "refuses": 8648,
      "equipped": 8649,
      "classification": 8650,
      "calend": 8651,
      "availability": 8652,
      "prominent": 8653,
      "absurd": 8654,
      "texan": 8655,
      "measuring": 8656,
      "antique": 8657,
      "professors": 8658,
      "associations": 8659,
      "administrators": 8660,
      "emerged": 8661,
      "junk": 8662,
      "mosaics": 8663,
      "packed": 8664,
      "focusing": 8665,
      "extravag": 8666,
      "davis": 8667,
      "sadly": 8668,
      "featured": 8669,
      "affordable": 8670,
      "evaluating": 8671,
      "flexible": 8672,
      "adjustments": 8673,
      "jamaican": 8674,
      "melaka": 8675,
      "cruel": 8676,
      "beresford": 8677,
      "victorian": 8678,
      "deserves": 8679,
      "appointed": 8680,
      "incredible": 8681,
      "whisp": 8682,
      "priests": 8683,
      "zeal": 8684,
      "taxpayers": 8685,
      "storage": 8686,
      "outrage": 8687,
      "chatterbox": 8688,
      "commemor": 8689,
      "46": 8690,
      "hike": 8691,
      "kle": 8692,
      "lis": 8693,
      "mumb": 8694,
      "nons": 8695,
      "pomp": 8696,
      "rushed": 8697,
      "sate": 8698,
      "session": 8699,
      "tale": 8700,
      "yach": 8701,
      "##mat": 8702,
      "##lu": 8703,
      "##vas": 8704,
      "##orke": 8705,
      "stal": 8706,
      "stones": 8707,
      "whip": 8708,
      "##amin": 8709,
      "shares": 8710,
      "chew": 8711,
      "comic": 8712,
      "liability": 8713,
      "alliance": 8714,
      "donated": 8715,
      "##eman": 8716,
      "grin": 8717,
      "resolution": 8718,
      "reporter": 8719,
      "carr": 8720,
      "ourselves": 8721,
      "contrad": 8722,
      "capita": 8723,
      "medium": 8724,
      "format": 8725,
      "affirm": 8726,
      "painter": 8727,
      "collecting": 8728,
      "currency": 8729,
      "foods": 8730,
      "##ippers": 8731,
      "filing": 8732,
      "counted": 8733,
      "snorke": 8734,
      "arguments": 8735,
      "contributed": 8736,
      "flee": 8737,
      "hopefully": 8738,
      "foreigners": 8739,
      "describing": 8740,
      "evaluators": 8741,
      "photos": 8742,
      "precious": 8743,
      "qualitative": 8744,
      "videos": 8745,
      "limitations": 8746,
      "feedback": 8747,
      "alexand": 8748,
      "ownership": 8749,
      "homosexual": 8750,
      "deposition": 8751,
      "champions": 8752,
      "mansions": 8753,
      "prohibited": 8754,
      "harvard": 8755,
      "souvenirs": 8756,
      "dreams": 8757,
      "vineyards": 8758,
      "exquisite": 8759,
      "arthur": 8760,
      "pakistan": 8761,
      "picasso": 8762,
      "mohammed": 8763,
      "satell": 8764,
      "38": 8765,
      "61": 8766,
      "bid": 8767,
      "bored": 8768,
      "dental": 8769,
      "gand": 8770,
      "##bing": 8771,
      "##pass": 8772,
      "##pread": 8773,
      "##kin": 8774,
      "##icate": 8775,
      "##leas": 8776,
      "##changed": 8777,
      "##adian": 8778,
      "asks": 8779,
      "##illo": 8780,
      "alley": 8781,
      "trace": 8782,
      "##uman": 8783,
      "##gram": 8784,
      "feas": 8785,
      "heroes": 8786,
      "bold": 8787,
      "declining": 8788,
      "supporters": 8789,
      "slopes": 8790,
      "planets": 8791,
      "##ressed": 8792,
      "populated": 8793,
      "artific": 8794,
      "advised": 8795,
      "beneficial": 8796,
      "missile": 8797,
      "missouri": 8798,
      "budgetary": 8799,
      "##retion": 8800,
      "failures": 8801,
      "attracted": 8802,
      "bald": 8803,
      "lacks": 8804,
      "predicted": 8805,
      "affects": 8806,
      "accomplished": 8807,
      "sampling": 8808,
      "cuban": 8809,
      "minimal": 8810,
      "advocate": 8811,
      "substantially": 8812,
      "observations": 8813,
      "olive": 8814,
      "ratings": 8815,
      "producers": 8816,
      "delicate": 8817,
      "depression": 8818,
      "accompanied": 8819,
      "ranking": 8820,
      "sponsored": 8821,
      "incredibly": 8822,
      "hyd": 8823,
      "analyzed": 8824,
      "michelangelo": 8825,
      "vessel": 8826,
      "frozen": 8827,
      "afghan": 8828,
      "inexpensive": 8829,
      "sensitivity": 8830,
      "oklahoma": 8831,
      "77": 8832,
      "diet": 8833,
      "lung": 8834,
      "rico": 8835,
      "sik": 8836,
      "sisters": 8837,
      "tank": 8838,
      "vague": 8839,
      "wick": 8840,
      "##row": 8841,
      "##rals": 8842,
      "##uity": 8843,
      "##uel": 8844,
      "##iat": 8845,
      "##wart": 8846,
      "##anke": 8847,
      "##rection": 8848,
      "##idency": 8849,
      "stalls": 8850,
      "conting": 8851,
      "cher": 8852,
      "chop": 8853,
      "##ective": 8854,
      "##umber": 8855,
      "donate": 8856,
      "saudi": 8857,
      "workplace": 8858,
      "crypt": 8859,
      "amig": 8860,
      "scouts": 8861,
      "colour": 8862,
      "underlying": 8863,
      "longest": 8864,
      "joe": 8865,
      "marsh": 8866,
      "paralle": 8867,
      "valle": 8868,
      "imported": 8869,
      "millenn": 8870,
      "followers": 8871,
      "approve": 8872,
      "##idespread": 8873,
      "privat": 8874,
      "youngest": 8875,
      "politically": 8876,
      "##aughters": 8877,
      "dealt": 8878,
      "discussing": 8879,
      "immense": 8880,
      "difficulties": 8881,
      "screens": 8882,
      "floors": 8883,
      "furthermore": 8884,
      "hurric": 8885,
      "emerging": 8886,
      "cleaning": 8887,
      "conducting": 8888,
      "imagination": 8889,
      "attempting": 8890,
      "consistently": 8891,
      "automatically": 8892,
      "naples": 8893,
      "graduated": 8894,
      "conquer": 8895,
      "conquered": 8896,
      "explanations": 8897,
      "cooperation": 8898,
      "venture": 8899,
      "retrofit": 8900,
      "poetry": 8901,
      "gauve": 8902,
      "shouted": 8903,
      "astronomer": 8904,
      "compromise": 8905,
      "murdered": 8906,
      "fern": 8907,
      "gear": 8908,
      "kur": 8909,
      "mol": 8910,
      "rick": 8911,
      "sigh": 8912,
      "ts": 8913,
      "tuck": 8914,
      "##och": 8915,
      "##gio": 8916,
      "##hou": 8917,
      "##vic": 8918,
      "##erately": 8919,
      "##anches": 8920,
      "##arians": 8921,
      "stiff": 8922,
      "##see": 8923,
      "##tha": 8924,
      "##keys": 8925,
      "org": 8926,
      "donation": 8927,
      "outer": 8928,
      "outlo": 8929,
      "adam": 8930,
      "teeth": 8931,
      "##ags": 8932,
      "overr": 8933,
      "asser": 8934,
      "afterwards": 8935,
      "invo": 8936,
      "costly": 8937,
      "valued": 8938,
      "lets": 8939,
      "metaph": 8940,
      "formula": 8941,
      "swall": 8942,
      "salmon": 8943,
      "stein": 8944,
      "steven": 8945,
      "insight": 8946,
      "colleges": 8947,
      "demanding": 8948,
      "argent": 8949,
      "lights": 8950,
      "shrugged": 8951,
      "junior": 8952,
      "panels": 8953,
      "merit": 8954,
      "respectively": 8955,
      "holes": 8956,
      "mandates": 8957,
      "collapse": 8958,
      "efficiently": 8959,
      "logical": 8960,
      "contempl": 8961,
      "coalition": 8962,
      "masters": 8963,
      "athens": 8964,
      "resolved": 8965,
      "updated": 8966,
      "depicting": 8967,
      "kilomet": 8968,
      "ramparts": 8969,
      "anticipated": 8970,
      "saddam": 8971,
      "elephant": 8972,
      "fertile": 8973,
      "duplic": 8974,
      "moorish": 8975,
      "unhappy": 8976,
      "41": 8977,
      "67": 8978,
      "700": 8979,
      "96": 8980,
      "900": 8981,
      "aunt": 8982,
      "bah": 8983,
      "ears": 8984,
      "gab": 8985,
      "gently": 8986,
      "pas": 8987,
      "pag": 8988,
      "sie": 8989,
      "sway": 8990,
      "widespread": 8991,
      "##eas": 8992,
      "##iencies": 8993,
      "##lete": 8994,
      "beef": 8995,
      "rebell": 8996,
      "##lyn": 8997,
      "##irer": 8998,
      "notably": 8999,
      "abrah": 9000,
      "enl": 9001,
      "hispan": 9002,
      "peer": 9003,
      "peop": 9004,
      "closing": 9005,
      "timing": 9006,
      "##izer": 9007,
      "drank": 9008,
      "drama": 9009,
      "tai": 9010,
      "consists": 9011,
      "persian": 9012,
      "propag": 9013,
      "completion": 9014,
      "advise": 9015,
      "waterfront": 9016,
      "camps": 9017,
      "salv": 9018,
      "paused": 9019,
      "occurs": 9020,
      "horiz": 9021,
      "burst": 9022,
      "participated": 9023,
      "determination": 9024,
      "ancest": 9025,
      "universities": 9026,
      "banking": 9027,
      "uncomfort": 9028,
      "wishes": 9029,
      "combat": 9030,
      "reflected": 9031,
      "threats": 9032,
      "tastes": 9033,
      "closest": 9034,
      "industrialist": 9035,
      "bothered": 9036,
      "bias": 9037,
      "criticism": 9038,
      "bullet": 9039,
      "honorable": 9040,
      "triang": 9041,
      "fortunately": 9042,
      "jumped": 9043,
      "controversy": 9044,
      "legendary": 9045,
      "evolutionary": 9046,
      "charlotte": 9047,
      "cosm": 9048,
      "pentagon": 9049,
      "promenade": 9050,
      "calendar": 9051,
      "aston": 9052,
      "dy": 9053,
      "dare": 9054,
      "dign": 9055,
      "dagger": 9056,
      "daughters": 9057,
      "gut": 9058,
      "si": 9059,
      "##tic": 9060,
      "##eem": 9061,
      "##har": 9062,
      "##ker": 9063,
      "ingr": 9064,
      "inade": 9065,
      "##itious": 9066,
      "stab": 9067,
      "hack": 9068,
      "##theless": 9069,
      "chant": 9070,
      "manip": 9071,
      "pear": 9072,
      "##ishes": 9073,
      "aging": 9074,
      "##acked": 9075,
      "perp": 9076,
      "amid": 9077,
      "incons": 9078,
      "interrupted": 9079,
      "bump": 9080,
      "nevertheless": 9081,
      "consensus": 9082,
      "flu": 9083,
      "wrap": 9084,
      "genius": 9085,
      "belg": 9086,
      "makers": 9087,
[...]
