[PAD]
[UNK]
[CLS]
[SEP]
[MASK]
!
"
#
$
%
&
'
(
)
*
+
,
-
.
/
0
1
2
3
4
5
6
7
8
9
:
;
<
=
>
?
@
[
]
_
`
a
b
c
d
e
f
g
h
i
j
k
l
m
n
o
p
q
r
s
t
u
v
w
x
y
z
{
|
}
~
¦
§
®
¶
·
¸
º
½
æ
ø
†
‡
™
##e
##n
##c
##o
##m
##a
##d
##t
##s
##v
##r
##f
##i
##w
##k
##l
##z
##y
##8
##b
##u
##h
##2
##p
##g
##4
##1
##7
##x
##5
##3
##0
##6
##9
##j
##ø
##q
##½
##™
##¸
##æ
##®
th
the
##on
##er
##ti
##en
##es
##ed
##at
##in
of
##or
in
##al
##is
##tion
##nd
to
##ou
##it
##ar
##an
##ic
##ent
##ec
##as
##ing
##re
##ro
and
re
that
con
##ot
st
##ly
##le
##ation
##ce
##st
##se
##om
be
##ur
cou
pro
is
##ment
##id
su
for
wh
##ate
##ve
##ts
##il
##ri
an
as
on
##th
##ac
##pp
##ir
cour
##ion
##ol
##ess
or
##ter
not
at
##ver
19
##ut
de
court
com
##ith
by
ac
##ig
##mp
dis
it
ex
##ad
se
##ul
app
un
##ers
##ab
##ld
with
al
stat
##tin
##la
##ow
##us
##im
##ch
##ity
##tr
##end
was
##ay
this
##qu
##ting
##ud
##ted
##ff
pr
res
##ain
##ere
##ge
state
##el
##ther
##ich
comm
cons
##os
##and
ad
##eral
##am
no
sh
##ant
which
##igh
en
he
##ould
par
ch
cas
ha
##for
##ect
##tive
##ew
see
##li
are
##rom
##ence
we
##min
from
und
##ard
##tu
##vid
##aw
##uc
le
##ary
##ited
states
##able
am
under
##tic
co
ag
##pon
have
its
inter
ar
comp
##not
##ress
##te
any
##use
##lic
do
##fic
##un
##ial
##ty
##ations
law
##ated
would
##ra
##ust
dec
fo
##iss
##ision
##cl
##tions
##lo
ind
pe
has
##um
me
##ven
rec
##ak
##tric
##over
##per
such
his
united
sub
##ose
act
##gh
jud
requ
##all
imp
foot
##est
fed
footnot
there
##iti
##ance
##iz
but
##ue
qu
##ight
cla
tr
case
per
federal
##ib
footnote
sec
cong
##ous
##ure
may
##tition
##od
##act
##ill
all
##ally
##ip
emp
##ort
def
##oc
##ough
were
##titu
##ef
ass
##ory
other
ne
##ree
had
statut
distric
petition
vi
##ause
appe
##ell
reg
if
##titution
sp
##ail
rep
ab
exp
##ish
congress
##ord
197
##ition
##tain
jur
district
pres
##ens
##ission
##gu
gr
##ments
10
##ore
inc
##ans
their
##overn
##tice
govern
id
been
int
##iv
respon
##ice
bec
##duc
##vi
##als
ob
##ome
pur
op
pre
only
##erv
amend
##ach
##loy
ord
fin
jus
gen
##ub
##em
supp
sup
##ound
##ason
so
##age
##ist
constitution
leg
one
##ges
pri
can
employ
##ia
##enc
acc
claim
##ign
cont
2d
198
commission
##ies
##op
##ke
they
##so
rem
inv
disc
##ire
##clud
##fore
tri
li
##old
proc
general
government
##ents
these
reason
pol
whe
##ax
##out
##ive
new
than
##ise
##ection
because
also
whether
provid
more
##ied
20
##uth
pers
11
decision
18
##ber
coun
eff
##anc
respond
pub
##ass
##fer
ques
##ings
when
##oin
##rimin
does
cor
iss
##sel
##inion
conc
##its
##ade
bas
opinion
who
##uthor
##lain
again
mo
tax
aff
pow
196
##ility
statute
author
cer
##ates
will
##ari
ca
fir
##ine
cases
prov
13
car
di
##ific
##str
12
##ged
evid
##ork
amendment
##our
regul
order
##ider
person
##iction
argu
el
public
##oth
att
pl
those
##ors
##ey
must
rel
deter
justice
how
dep
petitioner
##ong
##ected
offic
upon
tim
appeals
sch
us
##ule
first
against
##ack
consider
##ath
over
bo
contr
##ame
cir
mar
judg
fact
purp
require
##oll
ter
man
sa
15
serv
prot
##if
determin
right
##ative
evidence
##ll
rule
##rib
proper
question
##ities
lim
requir
viol
supra
here
provision
des
##ceed
##ational
##form
could
##ake
did
##mit
##ties
##wn
should
spec
circ
##cep
##og
##fter
##enti
##me
##oun
14
##ond
courts
our
##ever
##ear
appro
pos
judgment
##ating
legis
42
add
action
ins
##vers
some
before
char
cl
defend
stand
fa
trial
##we
##ms
time
##lish
power
part
##ast
##ized
##ved
held
mat
constitutional
even
##red
40
indi
##ights
##isd
16
br
diff
made
##res
##one
##clus
rights
proceed
applic
30
##ective
tw
##cc
##ense
39
##orn
te
33
however
est
out
17
nor
199
bet
where
##ants
##ide
jurisd
41
partic
##et
find
##ile
after
##tit
##ru
50
##ite
without
##ecess
##reat
shall
corp
##ible
jurisdiction
##ag
##view
##tiv
trans
hold
equ
fac
fil
##ult
conf
interest
37
within
cle
them
den
present
##mm
43
##ful
38
own
dir
34
min
##ual
##ap
##tical
same
##und
##led
##man
reli
28
##ject
35
bri
board
36
31
respondent
46
issue
25
##ici
##ween
two
45
ref
between
use
him
44
bar
review
##ret
22
diss
##road
##tim
##erc
##ular
jury
32
##con
gu
year
47
##ern
agree
##ently
##mb
commit
195
##osed
clear
21
view
##inc
49
section
val
##ool
sc
##urr
##ablish
##ee
##ank
brief
establish
what
necess
##ees
process
##ution
194
48
includ
into
29
##ost
##istr
##ency
##ances
found
##ph
##orney
attorney
disp
ben
##ability
##irm
ro
26
school
subst
both
standard
##ought
23
24
si
clause
prac
##urn
differ
invol
##are
##gin
sy
##ical
##son
go
mon
##clusion
##art
##tif
ii
defendant
##ious
work
produc
form
ext
##enn
set
##ority
##ving
##ither
##ok
cal
##struc
thus
proced
##pect
##fe
record
plain
##ince
four
effect
authority
pay
contro
##ures
mr
express
inj
sent
crimin
particular
##ie
oper
##ase
##gr
cannot
admin
av
purpose
##ended
union
conclud
conv
pros
##gation
inde
##ute
##ness
loc
criminal
rul
cause
27
prob
substan
filed
property
off
##unc
hear
poss
make
might
since
ante
matter
str
claims
polic
ma
##miss
petitioners
individ
##atory
prec
##ural
##lev
national
##ger
##les
##hib
fail
conduc
prop
##icial
concern
##urd
well
##00
##stem
##less
judge
imm
system
ph
required
##now
##reme
laws
repres
discrimin
##hip
fur
##lative
appell
##rit
##oses
##ather
war
party
non
service
priv
indic
##ollow
alle
princ
subject
princip
lab
affirm
ra
tes
follow
##self
need
circum
show
fund
judicial
##oint
hist
##enting
##ild
##ison
certain
ed
adv
er
further
civ
basis
##ount
maj
##gan
administr
##ages
direct
##ech
enfor
then
issu
thr
har
ret
bank
pp
##mitted
benef
##ects
supreme
each
##ention
##stances
##ry
dem
provisions
inform
##ogn
##erce
##lied
accord
recogn
class
legisl
ev
through
##ices
therefore
cond
suff
parties
statutory
##ys
##temp
##ably
while
51
##uring
nat
respondents
sug
represent
interp
##ange
##ays
##ks
##aking
##ss
cri
post
##ater
sign
##iness
tit
##av
sal
##ton
limit
second
##tee
read
beli
appeal
sen
labor
commerce
ste
rece
prohib
argued
##uit
common
mean
52
bus
ver
##allen
civil
spe
bl
##eric
plan
commun
dou
##ind
memb
##tis
members
lan
compan
excep
rev
proceedings
##iven
substanti
policy
certi
remed
legislative
challen
defin
long
rather
##pri
based
specific
doc
mer
reasonable
said
counsel
##though
##crib
respect
col
conduct
exerc
activ
cost
although
pa
like
opp
about
##ward
53
cre
##anted
broad
employees
sim
##ately
poli
circumstances
allow
york
fr
application
##ests
necessary
##par
eng
protection
result
relig
ground
##ential
support
three
less
dissenting
prosec
conclusion
langu
prior
holding
language
54
title
tex
##ortion
contract
given
##acy
americ
##bid
years
enforce
occ
due
most
cf
private
business
193
##enth
now
individual
course
land
provided
##ided
abs
pass
##sequ
pla
##hing
ful
inf
cap
enter
committee
know
local
apply
majority
regulation
##arily
coll
##tained
ever
political
##tiff
import
##ization
##air
##used
circuit
itself
argument
60
requirement
decl
et
cent
plaintiff
conn
##gram
##land
##lement
##ony
carri
##struction
##itions
used
provides
city
##lig
##ouse
simp
appropri
program
revers
relief
purposes
##levant
concurr
dam
##ibility
##arge
##itiz
corpor
##state
cod
her
pat
##ilar
##ession
##mption
citiz
contin
##ference
history
ser
rail
ann
rules
provide
##tual
##ict
secur
##ten
join
deli
##tern
##ality
terms
appear
##other
adop
agency
complain
denied
regard
##eign
##oting
child
##ner
##ize
burd
fl
200
vot
##ised
violation
pun
##ident
emph
similar
##sp
free
fair
inst
suit
asser
enti
##oci
sugges
during
mere
##bt
jo
either
compe
neg
##unction
emphas
##ves
##nia
cali
califor
different
california
official
pen
interests
##ket
hearing
belie
##ator
##aining
55
avail
addition
gas
secret
##ying
##ified
persons
##omp
granted
restric
stated
decisions
##ink
obj
intended
##amp
interstate
##orts
legal
concurring
##vious
agreement
high
56
##istent
##ft
statement
##ury
associ
##hn
num
##osition
##row
ill
##til
red
##eas
57
err
reach
practice
far
anal
regulations
##ital
##vered
liti
being
##iod
period
sel
cand
##ences
##reed
suffici
ori
##ending
meaning
price
another
61
ear
dist
##ging
main
control
end
word
signific
information
interpret
relevant
black
american
candid
entit
remand
tak
applied
##day
##ral
county
organ
subs
##ons
##ived
term
##arch
rej
way
treat
assist
prev
company
##ines
secretary
##uted
##cons
lo
discrimination
death
facts
exercise
code
sever
equal
appropriate
##ood
dr
##jud
##ecting
accep
origin
substantial
sol
sit
special
exam
house
##io
58
limited
every
dismiss
great
never
##rup
##stand
warr
##mber
##ional
today
penal
65
discre
cur
educ
search
employer
simply
obs
bill
##oup
report
##orari
##uty
good
involved
certiorari
justif
hand
requirements
means
police
ibid
##ender
considered
point
##ock
proble
##of
wit
##pr
requires
according
depart
##yp
##wise
indeed
design
immun
##ections
cust
uni
administrative
concluded
writ
##ian
permit
##sh
alleged
66
63
prim
trib
vari
iii
62
70
place
established
74
punish
available
purs
least
determination
##xt
motion
exec
##uch
##endent
##try
though
valid
64
exe
relations
vir
sentence
group
000
damages
##uss
fe
med
prom
many
oblig
##erial
59
##equ
otherwise
benefits
my
religious
separ
procedure
##king
burden
call
discretion
take
bel
comple
including
election
##tun
entire
soc
mil
speech
##ley
statutes
wil
cho
examp
##hold
testim
##ination
##orted
##oss
area
finding
witness
compens
bro
entitled
contrib
exis
reversed
effective
71
##quir
services
prison
amount
##leg
consideration
rate
stud
##ope
liability
##acter
sm
##reg
assum
mod
affirmed
intern
##ix
attemp
sou
proceeding
determine
trad
##ends
lic
qual
det
construction
##law
##bit
##vel
discuss
identi
##ily
75
reasons
material
##lop
questions
indep
standards
interpretation
added
character
complaint
ordin
imposed
employment
##teenth
enforcement
testimony
##iting
resol
##ued
income
73
tre
think
conviction
citizens
artic
perform
##tives
72
mis
say
nothing
super
mc
congressional
respons
just
intent
68
##velop
recognized
full
unless
##app
employee
67
##elle
white
neither
position
ir
office
penn
test
defense
##uck
trust
very
railroad
you
emphasis
deal
corr
up
declar
sought
##read
clearly
department
##mission
taken
issues
until
arbit
##ture
##alth
significant
##ortun
##ising
give
##sw
presented
light
opportun
##cribed
notice
##tle
develop
##oid
hab
situ
activities
example
1983
incre
##ross
##omic
##ave
noted
80
192
##itor
merely
moreover
remedy
##fication
market
dissent
##ature
thir
contrary
actions
lib
crime
69
defendants
uncons
brought
lit
value
number
##tisf
important
peop
##to
econ
##val
##imin
purch
81
prof
barg
appelle
sur
##ick
arbitr
76
remain
generally
contrac
among
doctr
ge
##vile
##ces
line
77
believe
transp
people
privile
guil
life
rac
doubt
rates
fav
nature
unconstitution
##tinc
explain
inves
conditions
much
resul
turn
convic
##akes
constit
answ
litigation
##umption
decided
##licit
wr
officers
sentenc
chan
constr
duty
money
central
legislation
day
arr
adver
##enses
acts
costs
low
particip
failure
##ulation
typ
1976
##ortation
extent
##eme
reserv
ur
applicable
analys
sufficient
pursu
##sy
distinc
initi
cred
six
du
enac
she
##clusive
fif
##ined
demon
later
conte
##ferred
fourteenth
large
##ins
sess
##omm
diffic
discl
analysis
address
##raph
79
favor
##loc
amended
safe
return
adequ
satisf
final
immunity
insur
78
officer
habeas
##gn
foreign
indian
investi
mand
schools
authorized
delivered
warrant
##ield
fourth
##ilities
contemp
bey
having
natural
##by
##thers
tra
texas
exc
##ren
real
beyond
bre
##edi
unre
ess
indust
sti
solic
rejected
sing
vol
##ead
consequ
following
##au
corporation
doctrine
##mental
nar
john
sole
findings
summ
several
##tal
force
##ested
exper
scope
third
opportunity
making
obtain
proposed
below
appar
grant
3d
plac
##ension
senate
##iving
independent
##ody
pursuant
benefit
##lies
##tices
demonstr
true
education
##ipp
83
offer
appellants
award
remo
##lan
##standing
##tually
82
principle
ple
##ring
##lying
##ises
90
makes
protected
##unt
miss
##ale
limitations
possible
mill
answer
communic
funds
compensation
1972
water
racial
offense
##thod
##ble
termin
distrib
100
##van
##ters
##pay
open
appellant
inval
conven
art
exist
security
ali
conflic
depri
access
invalid
association
contain
92
challenge
##uce
bu
##own
84
wa
context
ris
beh
original
consistent
##co
words
lou
##ced
##mate
##ators
exclud
anti
error
economic
air
injury
prosecution
##ased
none
charge
prevent
personal
##ron
resid
dan
steven
related
restr
sale
##ives
determined
officials
##missible
lack
others
##umb
method
##ience
inquir
oh
properly
subsequ
unconstitutional
il
whom
85
manner
191
##utes
##ling
##viously
stri
observ
change
capital
bargaining
##ght
procedures
avoid
enc
##ina
draw
note
decide
##her
##ino
ou
exception
meas
activity
scheme
joined
##anch
whose
principles
single
children
pot
##ked
##imum
##eless
##aries
##ification
correct
##ured
treatment
adopted
##yer
fifth
actual
separate
stock
1970
bal
##rupt
1973
louis
press
except
ohio
enacted
charged
tradition
willi
chi
repe
penalty
##ister
##tified
directly
fut
back
##ning
##izing
preced
##fully
statements
##rug
date
expressly
inquiry
stevens
ordered
fam
prem
conclude
additional
recover
##pa
sales
article
guar
##itive
##bur
##ained
serious
##uses
william
harm
##itary
problem
91
la
plaintiffs
governmental
too
grand
protect
determining
identif
##way
1982
1974
susp
##osure
days
include
guarant
requiring
freed
1977
paid
approach
condition
president
accept
##ready
accordingly
phys
sell
enj
illeg
##ida
function
##osing
remanded
reven
event
proof
account
violated
yet
virgin
short
issued
various
occur
pred
##utions
##ler
absence
##iver
altern
already
legislature
acqu
factors
##ask
1981
powers
kind
instead
chief
flor
compell
limits
##ah
financ
dev
impro
punishment
month
assess
vote
1978
transportation
poin
privilege
1971
voting
resp
87
uph
custom
##ior
taxes
mich
narrow
##theless
##mpt
sour
##ateg
definition
86
injunction
ul
disch
grounds
es
primary
unlaw
health
##ensive
##judic
future
cert
refl
##ev
mor
broadc
hard
amendments
competition
legiti
trade
##tingu
##une
virginia
##tinguish
member
existing
threat
1975
ve
specifically
geor
sett
##inois
cover
##alf
illinois
finally
liber
execu
florida
designed
complete
##pir
merits
license
carrier
sentencing
insurance
country
sust
unf
render
##up
districts
bound
div
north
little
drug
loss
##ep
concerning
##aged
received
exclusive
ultim
88
collective
marsh
##ris
impose
taxpay
##asion
##omes
##lu
##itation
##atives
race
relationship
lead
##thing
asse
continu
permitted
operation
failed
##itable
##action
patent
bear
1964
bur
orders
demand
##ental
explicit
aut
wor
freedom
sure
##ove
94
immedi
guilty
curr
assistant
whol
wom
constitutionally
candidate
##cer
forth
93
quoting
likely
vac
contracts
##lier
##rip
hearings
lands
95
rest
standing
murd
instruc
consent
bankrupt
candidates
showing
agg
##oma
payment
once
down
##cy
1980
mass
nation
aid
entered
individu
june
##trust
89
##olog
judges
conspir
##eng
color
##ude
##ama
sense
enact
commissioner
reading
status
ju
seems
matters
military
risk
adequate
called
community
incons
pop
adjudic
let
pending
necessarily
practices
je
refus
##ercial
##overeign
why
oil
choice
sovereign
##selves
##erman
precise
1979
omitted
##lose
##ark
##ism
appears
deem
still
comb
##encies
put
##uf
##lvan
wrong
##lvania
deb
##izes
##lay
request
##iae
basic
curiae
unlawful
lower
self
##bert
included
190
categ
arg
took
often
##crip
administration
religion
committed
fix
iv
level
##atter
created
assign
five
above
share
pennsy
justify
pennsylvania
cross
commercial
defined
mot
1968
total
intr
situation
home
afford
dispute
1984
controvers
challenged
succ
applies
social
precl
convicted
face
reference
##ili
##tics
camp
adj
manuf
restrain
wat
funda
appellees
emb
organization
washing
reasonably
briefs
footnotes
deg
97
##unic
executive
legitimate
thought
providing
distinguish
washington
appellate
seeking
individuals
whole
##orting
##gl
procedural
cr
hos
maintain
serve
##cent
##atever
volunt
interpre
##raud
credit
##ames
medical
themselves
##gether
run
murder
consum
##ically
indict
bankruptcy
whatever
best
fel
prices
obtained
contention
##ug
marshall
##ously
quot
denial
1st
1969
96
rational
##thern
##know
earlier
faith
described
fre
##iana
invest
decree
plural
##erve
obligation
involving
charges
vii
taking
don
louisiana
name
financial
approved
##versity
asserted
owners
guid
101
hel
##ways
189
examination
subj
greater
revenue
jan
##rial
allowed
##mes
become
left
raised
alternative
actually
1967
brenn
workers
187
impact
##ace
fall
accomp
past
##utor
carry
difficult
carriers
##rison
potential
##ob
transfer
assistance
subsequent
inconsistent
success
##ulated
expend
brennan
substantially
solely
limitation
compar
corpus
controll
south
relied
presumption
refer
connection
production
bring
1985
sex
outs
##ledge
mul
receive
excess
##tification
entirely
danger
##men
degree
directed
leave
regulatory
existence
attempt
arrest
solicitor
##mits
disclosure
validity
arm
approval
phr
times
text
##ric
##go
superv
antitrust
probable
##eld
plurality
agreed
##ember
substantive
done
fees
##mer
eas
representative
reduc
concerned
##ash
##gest
expendit
engaged
##ps
exclusion
explained
##gia
##like
##aff
merger
exemption
minority
rele
##ify
conflict
manage
similarly
thom
mag
struc
der
186
##ists
suggests
joint
powell
ach
follows
99
georgia
internal
outside
remedies
conced
witnesses
##ered
##aps
sanc
unreason
distinction
##ifications
seek
##holders
liberty
international
small
close
suits
##ering
1994
senator
1966
##iety
##ned
shar
carol
considerations
percent
##ards
violate
tech
prejud
agreements
##ength
discriminatory
1986
possibility
thomas
elec
##liance
prohibition
essential
responsibility
defer
##ene
##verse
##ases
refused
connor
gri
ct
chap
histor
98
##tically
facilities
unfair
debt
ce
1965
achie
construed
companies
##eness
unlike
problems
alone
met
techn
exch
pet
strong
care
ship
latter
dismissed
##ually
particularly
##erson
brown
oc
discussion
theory
rob
intention
quite
##roduc
##cil
nav
##nel
citizen
indictment
views
##tial
max
##oura
securities
industry
ens
territ
tribe
desp
elections
##right
records
##ona
cop
1988
violations
##ha
passed
society
accused
lines
served
contained
##ened
alab
ded
carolina
alabama
bond
influ
verd
vic
103
previously
sw
attack
mcc
##olid
restrictions
organiz
element
interven
detail
former
establishment
summary
type
filing
despite
possession
forbid
west
##iding
discover
apparently
##here
ap
old
fundamental
102
uniform
fee
population
ari
##ounts
prove
create
##edy
docu
comment
fraud
illegal
manufact
##fici
investigation
constitute
ability
110
teach
##ker
##ored
norm
ariz
job
effects
file
together
enough
fully
188
ruling
extr
acknow
taxpayer
written
elect
policies
seg
##lin
exceed
factual
mary
management
belief
confession
age
elimin
##ansas
323
march
development
incor
men
last
employed
expressed
implic
book
placed
himself
programs
importance
safety
certainly
traditional
overr
125
1995
concep
principal
rela
covered
apr
supported
initial
meet
argues
temp
fire
rich
##der
inher
cfr
##sey
1987
come
deemed
contributions
producers
##ues
owner
representatives
suggest
sixth
investig
presum
imprison
unn
communications
##ane
##quist
products
command
difference
assume
aside
wel
able
conspiracy
smith
absol
concerns
controversy
##uary
##omin
practical
suggested
net
field
fal
motor
portion
asked
always
factor
persu
elig
##haps
oral
certific
unreasonable
fcc
dra
recomm
##rutin
hour
broadcas
##hood
scrutin
kenn
phrase
##ata
known
perhaps
forum
phil
columb
lik
105
justified
1963
regulate
admission
resour
january
announ
thereby
134
observed
inte
##rop
representation
few
jr
##ote
##ott
##ograph
affected
wal
voters
foc
##titive
sil
continued
env
104
occasion
exchange
employers
##aign
underlying
aw
##igu
##mon
applying
discharge
role
involve
seiz
##ole
frank
upheld
##mun
##reh
prohibited
dougl
verdict
pac
etal
cited
understanding
##ially
##most
ign
##ape
munic
integr
arbitration
disag
compliance
##bigu
litig
ordinance
months
agencies
municip
##ecided
douglas
judgments
##ordin
instruction
council
consequences
subsection
campaign
hosp
ves
payments
product
response
nl
begin
prosecutor
gre
expression
absolute
argue
gra
students
301
shown
source
absent
organizations
acting
112
physical
##duce
##ones
resolution
changes
wholly
permits
entry
major
1996
thereof
appellee
objection
accepted
##ne
401
retro
##decided
##certain
specified
pan
indians
plans
liqu
##unctions
convention
##usion
441
dri
inn
veh
nevertheless
registr
near
results
##01
negro
admitted
areas
speak
women
false
claimed
knowledge
106
##alu
qualified
jj
publish
##after
look
2000
unnecess
columbia
blackmun
reservation
##oti
1961
##lements
adjust
advoc
duties
seem
doing
affirmative
pic
attach
reached
##ota
irre
coal
##ished
evalu
107
instance
maryland
equally
occurred
enactment
constitutionality
adverse
##tili
privacy
##hnquist
##oke
strict
##ient
424
gave
vehic
rehnquist
##ading
family
enjoin
alien
##urch
refusal
drawn
##icient
##agraph
presence
impair
obligations
##oy
ban
##ster
##uff
deny
ok
rad
behalf
fish
operations
sold
negoti
fri
sus
deduc
scrutiny
##ingly
objective
consist
uns
sustained
prevail
scal
justification
april
indicated
almost
opinions
waters
goods
mind
possess
ordinary
minor
fram
##fare
392
branch
imper
##por
1989
1962
390
jer
pip
robert
equitable
jack
maximum
effort
reliance
da
stay
133
materials
##entially
##lated
reports
purchase
difficul
resources
##organ
##cra
minimum
introduc
402
##cribe
groups
##tify
affect
perman
neglig
reasoning
stew
acknowled
sherman
strike
confron
divid
estate
##isc
##ories
mee
1947
feb
points
regarding
##ration
owned
church
caused
build
reve
increase
arguments
offered
225
proposition
weight
governing
##oper
##eck
111
testified
help
##alty
parents
permissible
##igan
agents
384
subsid
custody
kennedy
esp
##yn
arising
##eful
##ateral
johnson
williams
delay
welfare
followed
occup
structure
suppress
##line
consolid
contempt
arizona
bene
tempor
eigh
##lace
reorgan
reh
measure
desir
jurisdictional
assn
1990
##isted
##int
wis
372
##riter
amic
okla
efforts
authorities
current
##ublic
##ibly
relating
plainly
investment
113
december
367
chapter
##ortionment
letter
amicus
disposition
hum
experience
distribution
##ier
109
electric
##set
james
apparent
content
raise
advertis
hous
##vey
encoura
##opard
##berg
##ries
advant
ten
envir
##ump
exemp
jeopard
##ouri
##avi
251
division
##rie
giving
##enced
compelling
463
relative
stewart
aver
agent
##com
careful
missouri
environ
corporations
1960
ut
alter
##xim
setting
democ
suggestion
offenses
kn
##den
taxation
##see
traff
##regation
criter
##aska
scalia
haven
assumption
necessity
body
##rav
surely
explicitly
##iam
convictions
136
utili
##ico
seq
elements
wee
inapp
parts
##osen
capac
propos
aband
347
##ado
##elines
multi
inclusion
##itch
errone
assets
profession
imprisonment
continue
##eep
recent
##ille
##rec
incrimin
count
mal
traffic
shipp
operating
##aded
submitted
vessel
octo
october
michigan
500
prejudice
##titutions
neut
391
##ham
sl
##titute
purchas
infring
longer
arres
advance
repeated
unw
understand
##ago
furn
##estern
abandon
##istic
amici
says
377
institution
504
refund
const
unnecessary
better
prisoner
330
implement
recovery
contribution
prohibit
instructions
pacific
anything
sufficiently
lar
using
prel
nove
chic
urging
higher
withd
november
123
youn
referred
400
performance
counter
mention
aggrav
release
##far
##arks
403
comply
crimes
expect
fear
##ex
precisely
1958
accordance
river
436
201
indicates
attrib
431
gar
##idential
incorpor
reversal
copy
abortion
501
compelled
##ery
mail
411
af
sound
corporate
116
disagree
arrange
vis
ball
prelimin
abuse
became
voluntary
quality
treated
southern
203
banks
##issipp
mississipp
incident
mississippi
dismissal
examin
cooper
315
retail
produce
preserv
requested
129
ultimate
obvious
114
373
liable
regardless
retroac
compel
115
hospital
municipal
##actions
144
object
##avis
membership
alleg
immediately
seeks
deliber
unions
mental
violates
##ana
exha
tort
paragraph
##inth
##more
transaction
##br
alloc
chicago
monop
educational
reorganization
lawful
recognize
415
##raw
prepar
##stood
394
interpreted
keep
conducted
##pective
formul
ultimately
balance
##que
##ague
page
innoc
satisfied
##erg
attorneys
##ium
judici
guilt
burdens
miti
informed
expenditures
conce
##airs
408
1991
flow
july
1959
apart
131
##atures
contends
reverse
108
##ival
needs
obsc
jersey
##bers
##erous
##asive
indicate
resulting
classification
1940
curiam
preliminary
coerc
##anced
road
functions
sum
413
breach
judiciary
rely
395
##apers
primarily
jones
185
1992
identified
##ides
equity
settled
compet
influence
420
wide
denying
gives
##roll
397
##pons
##ang
early
##tts
132
##achuse
##achusetts
##yers
minn
seizure
davis
situations
demonstrate
discussed
422
##idav
understood
improper
massachusetts
advertising
421
engage
acquir
affidav
jackson
fixed
eighth
pertin
##keting
aliens
appoin
332
declared
satisfy
coverage
##lor
barred
forfe
1948
fec
333
mid
##anting
expenses
remains
505
ninth
participation
##ford
##illing
383
hence
fairly
##cription
##iary
prescribed
339
significance
312
fla
386
405
authorize
resolve
##ault
waiver
citing
interro
unable
promul
removal
130
490
##uls
##ming
tenn
safegu
jeopardy
304
##homa
antic
next
forec
data
contrast
human
produced
##ruary
adjudication
february
gain
compare
else
infra
mem
enterpr
capacity
miller
register
punitive
withdraw
equip
dealing
double
##kins
immediate
told
iden
##ca
380
disputes
##rb
consc
1946
peti
412
adopt
jurors
addressed
includes
calc
oklahoma
1954
##come
183
437
excluded
espec
##ville
treaty
exceptions
railroads
##opp
##sement
fails
extend
concluding
##oly
responsible
supplement
list
university
rendered
contend
get
prohibits
##ruption
aug
obviously
undert
404
389
plea
416
treas
thereafter
##ores
350
tried
341
##ancy
gross
administer
finds
formal
334
428
117
##lex
log
toward
433
assumed
##unctive
implied
navig
applicant
petitions
exempt
regular
486
licens
secure
registration
million
identical
139
##be
nlrb
restriction
mess
project
length
410
##lear
increased
buck
##sych
task
120
hours
sections
##bor
amounts
range
##sofar
467
arbitrary
ownership
137
director
438
##otion
##tees
allegations
153
1952
especially
places
118
deliver
equipment
insofar
##burg
compreh
##cing
hardly
##tility
notes
affairs
cens
effectively
##aled
elev
451
griev
deputy
##isory
respective
mandatory
fit
shows
systems
ing
ark
pertinent
parole
##arm
permanent
disreg
vacated
deciding
controlling
coast
republic
achieve
unp
recognition
contains
settlement
receip
insuff
meant
richard
##anda
426
hol
previous
340
operate
flo
relation
476
sep
##10
temporary
station
##ston
permitting
365
371
debtor
319
443
declaratory
competitive
depos
1950
conference
122
458
domes
guarantee
explan
358
things
throughout
va
boy
178
##ustr
continuing
ensure
imposition
suspect
##riting
allowing
tribal
approxim
injunctive
##well
ambigu
1993
##with
160
esc
collateral
429
##orth
mont
456
497
heard
went
##off
significantly
bure
guidelines
weigh
nonetheless
historical
preclud
1957
##uries
##ommod
represented
surr
418
restraint
domestic
accommod
141
430
recip
subd
331
extended
instances
140
##erated
remarks
##uting
##ars
assertion
meeting
institutions
felony
307
erroneous
psych
transactions
unc
lawyer
assert
399
category
frequ
##making
##ont
179
acted
##essee
retain
invok
world
##ites
challenges
accur
450
remedial
sk
unan
1949
406
disability
316
criteria
appoint
bul
369
peace
adoption
##ortions
##eline
355
radio
##ams
417
green
reti
lease
granting
##emn
unit
parent
precedent
465
##lock
##arr
357
step
393
attention
##tine
viewed
462
##gating
accomplish
353
145
involves
minim
preven
385
considering
enjoy
vers
move
##iation
acquis
territory
inherent
documents
announced
instr
assuming
202
affili
exclude
your
345
manufactur
icc
reviewing
study
noting
believed
sources
362
combination
exists
184
138
san
newsp
instru
sanction
neutral
deleg
502
communist
communication
121
376
consistently
##tenance
mist
128
infer
submit
appointed
cli
435
western
335
autom
exhib
indir
479
america
##consin
deference
425
wisconsin
sched
468
epa
##amed
##ald
sort
337
buckley
inade
483
inadequ
##urb
assessment
##tible
exercised
kent
mach
depend
dischar
457
##ea
critical
336
447
emer
##ratic
truth
victim
vehicle
156
491
harlan
methods
360
travel
##work
imposs
concept
item
uses
disregard
working
willing
470
##ectives
performed
gold
indirect
342
violence
1997
customers
passage
want
##lac
##ectic
119
student
moved
461
imposes
300
mir
379
455
pi
356
plant
471
depar
##vation
##rees
mandate
half
478
##iable
reported
388
414
attend
substance
pack
reject
whenever
superior
broadcasting
citizenship
commonwe
##inson
discip
1953
proportion
bureau
489
residents
recommend
444
penalties
relying
commonwealth
419
dil
telev
442
##inding
370
487
qualifications
##asing
forfeit
analog
rou
124
unanim
colorado
excessive
hir
224
selection
located
industrial
certificate
led
pret
180
##pe
tele
extension
eligible
irrelevant
motiv
applications
fairness
wall
automa
im
##ney
150
hon
364
fp
352
##ology
##ecticut
committees
connecticut
damage
427
uphold
##ats
rein
panel
stating
focus
241
juven
carried
along
constituted
321
multip
135
409
retroactive
wish
forms
##ological
apportionment
insufficient
play
island
worth
young
discovery
maintenance
distinct
fig
establishing
benefici
stree
##gated
##aster
354
holds
imposing
494
conclusions
475
immig
differences
broadcast
average
##aker
205
167
parte
346
port
manif
440
182
ruled
equival
convinc
407
##bo
338
434
interference
limiting
##isa
base
predic
proved
343
indication
derived
democratic
english
unus
1951
##ift
firm
344
simple
##po
automob
virtually
authorizes
away
##isite
mex
##entiary
choose
normal
explanation
negligence
446
controlled
gl
##aken
complex
removed
detention
##isp
##going
enh
developed
pointed
##ivision
378
subsequently
303
rationale
introduced
ballot
guard
448
relies
151
503
subdivision
##rid
implicit
remaining
determinations
320
termination
advantage
completely
##ashion
##nings
2003
aim
351
363
485
dispar
##igent
449
168
##ett
chosen
numerous
##abl
374
fashion
mech
diversity
##pects
news
147
488
deprived
going
constitutes
##gers
uncertain
clauses
erisa
466
confirm
1934
debate
quoted
228
elector
1956
attempted
wages
152
460
preserve
secured
stop
desire
361
append
conceded
squ
events
158
disab
aware
compuls
329
474
1955
execution
ren
roy
essentially
concur
residence
estim
rests
reb
intim
328
version
loan
extra
magistr
472
prefer
##ancing
needed
##tember
kansas
mechan
poll
september
##iority
goal
fpc
ven
cable
independ
television
sta
recons
481
nonp
affirmance
cat
elected
464
452
comprehensive
describ
##lip
310
town
participate
eleventh
impossible
protecting
privileges
pati
##orial
143
emphasized
assemb
368
something
pu
prisoners
mort
circumst
incumb
recently
operated
##owa
subcom
afforded
##kets
507
375
##itime
##arian
inference
housing
pattern
bcra
469
issuance
ca2
##aging
declined
reflect
maritime
writing
subcommit
iowa
approximately
142
receiving
medic
177
ent
premises
tell
century
dispos
professional
authorizing
building
souter
207
authorization
495
shares
359
349
163
room
changed
nond
473
colle
teleph
##earing
promote
454
liquid
acquired
dangerous
resulted
149
books
burn
302
ga
157
wholes
mitigating
stage
##ding
348
445
erred
##ewise
##na
confront
causes
439
likewise
fine
resolved
lawyers
secular
482
regarded
declaration
supply
sentenced
subcommittee
urged
pregn
127
woman
maintained
examine
##isting
prohibiting
##eed
lea
##bted
appendix
##aves
##laim
minnes
competit
aggravating
defe
minnesota
##ground
126
engine
381
##wide
supports
##ableness
physici
percentage
burger
##enders
accompan
head
ow
injuries
bad
becomes
309
##ert
reconsider
juris
dept
146
began
soft
204
insp
250
211
eliminate
deportation
432
lay
extensive
acquisition
dict
convey
clark
lev
313
refuse
suspension
252
foster
northern
162
forces
edward
severe
ways
haw
##ucky
sentences
waste
grants
453
brother
august
1942
pure
181
profits
consequence
##ergy
##fere
expected
##ma
423
##eration
387
366
improve
##imbur
steel
arise
types
personnel
obtaining
presents
grow
testify
came
##where
##ics
##let
brad
named
arkansas
utility
conform
injured
459
##time
prompt
ca5
side
detailed
##times
238
subjected
cru
prospective
miranda
##ening
##eli
food
thing
regulated
agric
498
tend
administrator
##regon
155
encomp
measures
oregon
encompass
322
railway
overrul
reimbur
happ
precedents
consolidated
som
preclude
instant
##mir
##ques
ca9
148
##ze
kentucky
infringe
treasury
active
154
allen
325
seniority
adequately
210
176
bell
immigration
enterprise
sometimes
unusual
difficulty
##ety
##tise
associated
175
484
##utors
##inafter
##ners
affecting
1945
1943
merit
324
sev
hereinafter
searches
ordinarily
proposal
477
##qual
evidentiary
##ena
209
382
##withstanding
valu
alleging
designated
##roy
327
318
david
165
ee
wood
confine
dele
492
expand
tel
environmental
398
298
##hat
supporting
formula
expense
308
behavi
equivalent
rise
delaw
preference
advocacy
undermin
480
largely
correctly
294
distinguished
creates
1998
respects
furthermore
miscon
##bery
509
sanctions
1938
164
probation
deprive
corruption
drugs
##rac
takes
1941
admir
##illed
freight
306
##oted
objectives
496
##gress
tribes
##els
demonstrates
banc
aspects
strength
reserved
sect
furnish
thomp
reasonableness
326
interrogation
sens
reasoned
thompson
intell
returned
defici
feca
win
values
cul
##ife
dest
159
allows
notwithstanding
sexual
tot
396
telephone
161
availability
papers
unique
premise
##ugh
wea
marks
brand
bord
##uly
secondary
deprivation
circumstance
trials
slip
##eg
170
sue
eeoc
behavior
automobile
allegedly
indiana
convers
carrying
173
cash
interior
##ounting
seized
works
supplied
263
inadequate
533
acknowledged
##bs
267
serves
ago
506
knew
lost
assure
dur
##ii
273
206
tennessee
bi
acquit
2002
dom
message
statis
protections
em
242
somew
adher
objections
sued
caus
aspect
lien
##ifying
mad
monopoly
reduced
forced
franch
affidavit
perf
opposed
breyer
entertain
repeatedly
reaching
originally
reduce
attempts
encourage
##iff
falls
armed
wilson
lee
254
impermissible
317
identification
##gate
stip
paper
jeff
jail
arrested
1944
2001
##get
goes
1939
exclusively
sand
trustee
document
disapp
competing
highly
amp
facility
268
charles
taxable
forfeiture
confer
499
208
harris
ask
refers
271
device
demands
inev
vo
utah
expir
305
week
reporting
governments
wage
define
##ste
##oring
##ulate
consumer
##don
commod
depends
314
annual
##astate
hamp
dimin
incur
seven
rehearing
pension
311
taxpayers
##az
producer
consumers
withhold
expenditure
alaska
mark
comparable
classes
contractor
draf
02
finance
moral
energy
##sa
intrastate
cut
lie
493
747
training
##ibilities
sustain
live
253
embod
##ienti
280
assigned
entity
juvenile
ham
265
rejecting
##omy
farm
background
admiralty
283
variety
trustees
##kes
226
segregation
magistrate
regulating
232
515
memor
interim
narrowly
nonc
appearance
boundaries
sher
discretionary
##elihood
guaranteed
broader
doll
##ining
258
refusing
restrictive
extreme
harmless
bearing
juries
##iliar
appeared
reviewed
quotation
##lam
enforced
emption
pec
swe
sav
forward
##fur
motions
cler
haz
divided
check
297
categories
reflects
##utory
existed
identify
forecl
counties
likelihood
reform
229
negroes
##rew
exact
publication
1999
##emp
staff
relatively
profit
recon
remained
299
rig
center
demonstrated
zone
asserts
adjustment
bor
nearly
remove
juror
integrity
171
cra
proceeds
510
##ocation
eight
retained
##istric
construc
tests
exhaus
comes
281
expert
subpo
incrimination
##indic
bargain
technical
hud
contractual
preferred
218
governed
intend
261
certification
multiple
602
mut
717
frankfur
##adv
hy
suffered
prevailing
##nell
##the
arri
prepared
spons
consequently
pipeline
frankfurter
223
channel
carefully
231
option
somewhat
articles
foundation
direction
readily
284
tal
preventing
interfere
presumably
290
legally
critic
accorded
##enty
##udence
normally
frequently
214
surv
##ilit
eastern
train
alia
po
##uing
##iscrimin
star
struck
anticip
gun
unj
508
easily
244
pain
##ada
substitute
vindic
delaware
##room
##da
series
##tituted
timely
166
safeguards
manifest
nine
closely
##entions
concludes
compon
incomp
287
moore
king
chair
##mates
montana
analy
wife
conclusive
##esting
221
514
guarantees
##ropri
##idents
174
172
dependent
unav
accident
selected
tribun
hyp
modified
confined
##augh
inqu
sho
511
279
##vert
##ented
eligibility
##osite
240
outcome
293
creditors
convenience
beginning
hall
169
bod
234
army
contended
mine
departure
##holder
236
paul
seriously
transcrip
enforcing
274
virtu
counts
disturb
282
england
intrusion
bow
reaff
539
restricted
rh
nom
249
framers
claimant
emerg
collection
jurispr
conferred
feel
hen
oath
claiming
delivery
moot
##ariff
##hol
establishes
stra
pree
pretrial
1935
anyone
joins
voter
appealed
living
overt
copyright
advanced
prosecutions
##tific
deduction
##acts
##ken
dead
217
##rote
perce
212
navigable
extraordin
bd
leaves
272
advisory
##ael
enacting
##wh
commitment
creation
seen
##arely
promulgated
deseg
passing
enl
violating
segreg
binding
219
expans
##utable
familiar
mentioned
description
##licable
227
initially
mineral
failing
client
east
fu
recognizes
retire
aud
characterized
organized
selling
empow
funding
picketing
appointment
clay
lear
glo
tariff
##vention
overb
235
gins
237
associations
fid
defining
governor
519
seventh
##utation
##veness
roads
##field
therein
awarded
245
wrote
registered
usually
reserve
ascertain
invoked
chris
harv
elsewhere
521
assur
advised
213
banking
jurisprudence
restraints
del
trea
abrid
243
creating
considerable
hill
difficulties
resident
confidential
goals
##itations
259
recognizing
rock
electoral
262
discriminate
destroy
##gage
266
##tiveness
600
##anti
sovereignty
288
install
hands
##aper
plead
steps
receipt
257
2004
floor
unrelated
infringement
geograph
contempor
franchise
##kin
vested
impar
discharged
220
reflected
hypoth
215
traditionally
partners
292
ger
presidential
subjects
216
justices
probably
items
reaffirm
##berts
255
mother
aro
master
positions
useful
rebut
michael
##stein
charter
wrongful
surround
tail
disqual
##icious
virtue
inmates
nov
mexico
assembly
##employ
ideas
contemplated
size
advers
phase
ca7
complaints
##andum
grievance
wy
573
errors
enum
usual
lesser
characteris
##ominant
##mar
challenging
ought
##laced
innocent
rejection
manag
jose
cast
restrict
losses
inspection
label
supplemental
newspaper
##zed
threatened
mob
535
illustr
saying
robbery
evident
signed
547
##iat
nebr
mitch
246
evil
##orm
web
preceding
savings
compact
517
instructed
##orship
exercising
competent
revision
isol
milk
##inted
voluntarily
##idence
inflic
transferred
fore
notion
unanimous
##acted
solicitation
cham
decline
291
risks
##itz
bid
wash
default
nebraska
fell
involunt
reduction
na
purchased
##mond
applicants
containing
leaving
univers
submission
requests
institute
redress
bir
faced
##win
##ultural
##uits
hart
532
concedes
network
memorandum
late
##ann
admit
##titude
clari
528
222
separately
revenues
qualify
stake
##olution
552
277
liquor
ward
##tims
arrangement
miles
draft
##respon
renew
ginsburg
nos
##pass
practic
operators
teachers
certified
experi
effectu
601
taxing
applicability
##ades
club
286
twenty
opposition
289
questioning
##earch
526
retirement
513
theat
stations
detain
research
230
defines
prescribe
530
extraordinary
undue
inapplicable
dak
forbidden
cities
accru
condemn
opportunities
##enger
rico
##contr
legislatures
ca1
street
mrs
270
incorporated
weeks
purely
father
favorable
od
victims
offers
##erted
rested
display
invoke
promotion
chairman
allocation
persuasive
census
marri
##ette
arrangements
bears
offender
knowingly
fixing
vague
adult
248
vital
namely
285
supervision
emergency
disclose
assignment
inad
##usive
classifications
523
##wood
key
names
295
guidance
dakota
541
joseph
##under
cum
##lem
##aylor
citation
clayton
##rist
meaningful
resort
accounting
##duct
##weigh
waived
conflicting
utilities
##ounted
##phy
lawsuit
relev
##ception
520
occurr
modern
##enity
296
522
1937
dealt
veter
seat
nations
##orne
##ship
##itan
flex
physician
##eff
contractors
slight
contentions
protects
customs
silence
modification
liter
correspon
##ommunic
264
behind
represents
misconduct
233
responsibilities
door
sul
literal
##gment
whereas
narco
cruel
telec
##shire
assessed
aggreg
##uli
##ulative
martin
properties
eth
taylor
alco
location
gener
276
hus
proj
asserting
beliefs
serving
260
confrontation
portions
256
534
franc
griff
confinement
chose
interview
reapp
##uction
extends
territorial
bonds
college
##macy
##rep
published
ford
prima
broadly
passenger
unlikely
suppression
lew
terminal
saw
licensing
##band
custod
intentional
gro
cruc
##roit
upholding
park
##eping
##ush
##orter
##lips
##atz
deterr
describing
void
##vol
##iel
275
706
enable
markets
dealers
obscene
cam
redistric
hope
determines
innocence
truc
roberts
coh
presumed
incurred
novel
schedul
increases
misd
ambiguous
george
intervention
truck
arose
239
card
provis
hiring
hampshire
forbids
##advant
entr
1933
empted
idea
##house
ange
512
inmate
highest
subpoena
arguing
advice
entities
separation
hal
martial
capable
collect
supervis
disadvant
278
mining
542
pray
media
soon
##ull
md
##ume
examined
instrument
characteristics
knowing
precluded
544
##ifies
inappropri
pric
liberties
##ictions
detroit
successful
##ta
##onic
nev
fru
##ivers
madison
##iser
acceptance
subsidiary
unequ
partial
contra
commenced
terminate
merch
exhaust
##entive
closed
implication
##itt
wright
##ov
545
struct
exhaustion
robinson
endor
531
litigants
decis
disputed
247
bills
##aho
527
reads
##ream
interpreting
beneficiaries
defeat
seller
unam
shap
cement
lot
516
sets
speaking
543
alcohol
gil
raising
transcript
equality
model
##ds
arises
contrad
identity
vacate
attempting
enjoined
interested
herein
competitors
phot
environment
perfect
##tile
processes
##abil
revised
released
unavail
try
escape
##de
surve
lacked
foregoing
ke
los
adams
cogn
devices
relevance
##oming
requisite
promise
anderson
##elly
heavi
hund
regional
##gg
nonm
fraudul
implementation
crucial
boyc
protest
operator
jefferson
##port
pal
spending
husband
insist
facilit
awards
exclusionary
enab
facie
##abor
##lif
modify
##itude
hundred
commissioners
metrop
jobs
coordin
perpe
possibly
518
blo
operates
republican
arguably
524
metropol
offices
vary
##readth
motivated
lake
wire
believes
relie
famil
overruled
mandated
651
2005
belong
omission
ineff
certificates
confessions
##shore
surpr
proviso
##att
telecommunic
wol
fulf
chance
##ression
expectation
unambigu
##eth
pregnancy
christi
##uliar
francis
core
shareholders
metropolitan
crim
pressure
##icion
ones
outweigh
licenses
suspicion
peculiar
##eny
questioned
##illa
terminated
measured
manufacturers
##ese
collected
recommended
inappropriate
telecommunications
venue
leading
269
efficient
touch
turned
holmes
##volous
producing
industries
##oph
clar
reveal
session
##uct
claimants
reimbursement
transit
construing
striking
546
accounts
purchasers
prere
mom
disappro
##itably
discussing
thres
doub
attributable
examiner
sun
compulsory
completed
##anor
plus
mitchell
link
pere
##lines
##alle
##inger
maintaining
purchaser
vice
categor
patents
repeal
tool
525
combined
felt
attached
vast
entering
earnings
703
invalidated
manufacturer
undou
roe
cease
##ba
turns
reconsideration
##lementing
straight
listed
##rick
debates
construe
harass
563
deliberate
undoubted
math
selective
desegregation
##ients
##ano
stress
threshold
describe
examples
embodied
progress
destr
clean
phillips
gather
hun
ends
excluding
targe
##aneous
##dc
postal
1936
enhance
abstr
misdeme
plaus
sheriff
ash
##ime
replace
incentive
reveals
##ander
disabled
##tivity
mcf
automatically
gam
immunities
incumbent
involuntary
writs
laid
indirectly
fiduc
barri
indigent
write
ey
reality
pursue
hawa
protective
votes
processing
warrants
psychiat
families
##stone
allege
legislators
##aid
permission
presump
vessels
chem
presently
levels
tradem
districting
##key
indicating
answered
suffer
stopp
##ework
spent
periods
##mont
block
ho
conting
idaho
respecting
observation
ber
##head
##eller
##zing
thor
conserv
constitu
536
rhod
##anta
enforceable
safeguard
##question
vehicles
prerequ
529
calls
bail
approve
alternatives
participating
angeles
assault
pricing
##rete
sac
drawing
discipline
cig
executed
548
reserves
larger
##livan
marketing
discovered
balancing
##point
ca3
allowance
shortly
sullivan
##ompe
racially
thereto
kep
unquestion
neigh
##emy
##roc
communities
doct
acquire
aimed
tob
priority
##olds
fle
unconstitutionally
mac
preclear
555
564
surrounding
##ians
units
##ucker
jour
answers
disparate
discoura
##bling
coercion
##oks
##repres
devi
##lantic
shif
genu
nondiscrimin
sea
respectfully
currently
abandoned
uncon
plants
conscious
story
holdings
tenth
yield
ft
rank
##table
around
549
desirable
wid
features
treaties
narcotics
stan
moment
restraining
ignore
totally
unduly
adopting
evaluation
clerk
##vin
differently
exemptions
machin
proving
prohibitions
cogniz
heavily
possessed
kill
occurs
##ny
comprom
implementing
valley
##riety
assurance
routine
interfer
admissible
engineers
ca8
obscenity
programming
strongly
2254
hew
subcontr
##ynolds
confirmed
ray
toler
##ompetitive
stor
##ulf
firearm
partnership
worked
551
lyn
rap
quanti
contempl
ment
586
rand
##each
##acco
purported
frivolous
honor
paying
jurisdictions
guide
potentially
##minent
domain
concrete
fer
conflicts
segregated
prevented
redistricting
boston
negative
suggesting
citations
lies
automatic
rape
##ki
##iles
mortgage
fraudulent
##cel
qualification
wholesale
1920
premium
licensee
exped
engaging
performing
deposit
raises
mills
anc
lawfully
monopol
ta
wanted
finality
imag
van
tender
reed
frustr
pool
diction
bars
stockholders
uncertainty
independently
reop
suc
consult
overall
insure
maine
575
studies
##upp
incon
560
mutual
##ffer
allegation
accommodation
pages
silent
interloc
quar
cigar
yes
liquidation
atlantic
negotiations
stands
contribute
agricultural
licensed
katz
##iro
2006
ignores
unwilling
receipts
unb
allot
extending
economy
creditor
genuine
testing
mur
stone
break
comparison
##west
predecess
ny
ca6
film
eliminated
reynolds
##adel
embrac
rog
unemploy
homes
##rof
officeholders
intellig
deep
##osis
margin
framework
store
occasions
00
568
nomin
impairment
tobacco
toll
americans
557
analogous
houses
617
confusion
across
seam
554
referring
##ectiveness
basin
recipient
twice
calculated
save
##reciation
movement
schedule
figure
outset
essence
701
griffin
propriety
##cher
directors
bringing
cars
hend
538
utter
impeach
loy
ware
instituted
hypothe
confronted
administered
rulings
608
1866
rout
537
##cess
acad
invasion
uniformity
kept
606
acceptable
recommendation
classified
institutional
584
daily
clin
succeed
bay
appra
disclosed
patient
libel
03
fores
steph
540
factf
achieved
distinctions
poor
receives
cro
transmission
sectarian
closing
pipe
acquittal
site
reply
##ivoc
##lamation
table
##pped
suspended
mus
codified
tucker
abstract
relate
##rating
indemn
proceeded
advantages
accurate
levy
##acp
comments
federally
610
handic
fishing
situated
kinds
routes
figures
emotion
##vive
magn
globe
##rect
##encing
683
warrantless
avoiding
clarif
remote
charging
intervene
chev
punished
persuaded
team
typical
inevitably
tribunal
undoubtedly
##olic
naacp
incorrect
convincing
##tifying
##urs
trig
##tz
##umin
cox
elabor
665
lacks
##ults
numbers
mari
condem
night
anim
dual
##ero
##iling
contest
05
725
involvement
shaw
attain
track
component
##fers
##acture
##ched
surveill
bed
quo
effici
increasing
branches
fiduciary
fisc
633
volume
affidavits
mf
582
##dle
hire
##adelph
##ko
supervisory
philadelph
compensatory
indef
924
mix
ran
tor
whit
top
probability
initiated
exceeded
##troll
continental
manufacture
cab
philadelphia
##atement
609
select
pleas
god
paralle
references
dictionary
##edent
shield
desired
shop
##ourse
flag
hot
chec
barn
manufacturing
adversely
ample
editor
ix
jap
pt
apportion
motive
stamp
##rey
patients
##eded
ca4
1932
##craft
enumerated
ba
showed
rip
570
misle
dispositive
800
induce
##terson
representing
##avy
589
scott
japan
burgl
indisp
projects
pit
concent
conducting
624
kir
picture
divor
coup
##amount
facto
eventually
abandonment
605
disciplin
impartial
businesses
hawaii
shel
wheat
judicially
explaining
hor
wind
founded
revealed
apartment
##iated
longshore
pleading
birth
feas
supposed
##tisan
rosen
urge
recipients
##sell
565
ala
veterans
undisp
##actory
616
ferc
##rel
vig
offensive
621
shippers
regime
ambiguity
pick
controls
##onet
##lands
distributed
retard
squarely
electr
heavy
grad
553
historic
561
teaching
fort
trou
assumes
evaluate
tailored
adversary
effectiveness
mistaken
channels
misc
##face
##ede
618
chevron
##inite
##tress
focused
reaches
accepting
cohen
wild
##do
unfor
supers
hop
643
edwards
613
treating
broadcasters
surveillance
undisputed
bon
##fo
577
mentally
hypothetical
##ilton
612
mcdon
relationships
disagreement
surrender
endors
##ews
fundament
coastal
1927
litigant
reck
##acting
piec
reaffirmed
photograph
##ez
abst
directing
transport
beneficiary
implicitly
pont
exposure
willful
survive
customer
driver
incidental
hugh
##no
##owed
spir
lewis
neighbor
reapportionment
##teen
schem
boards
dollars
resale
556
profess
aggregate
##och
##gun
immune
libr
571
blacks
correction
bat
contex
fisher
overcome
sharp
improperly
##onial
ide
vermont
purchases
658
furnished
weapon
evans
656
stem
leases
##ousand
reliable
running
thousand
##uccess
highway
financing
got
avo
admissions
incriminating
misdemeanor
refr
seizures
preserving
##onetary
unsuccess
trademark
nevada
##uper
alto
742
sd
##astic
denies
favored
delegated
##ots
heart
585
exactly
hudson
##soever
opposite
702
petro
shift
632
someone
inherently
##place
spouse
562
avoided
hereby
nlra
newspapers
christ
undertaken
##ky
league
federalism
whereby
commodities
fet
lod
##anger
spend
##missibly
559
strikes
civilian
entitlement
##ivable
entail
german
668
strictly
##iter
enroll
##mination
affects
democr
prerequisite
bud
parker
abol
discern
nondiscriminatory
negl
574
581
fiscal
nonres
833
logic
##abilitation
lose
sam
##iaries
##mpted
contents
commissions
marked
declare
rehabilitation
dilution
defenses
symb
participants
compared
##say
warranted
##worth
settle
rede
hay
##tered
altogether
warning
monetary
indicted
blood
bag
male
commence
##ills
os
unex
576
turner
statistics
whatsoever
boundary
##rieved
parallel
gulf
tac
moving
convinced
leon
gerry
presentation
implicated
preservation
##ariness
##arcer
really
##verted
imply
##ram
##iders
reluct
##ficial
567
precludes
rent
disse
terry
absolutely
murphy
fem
prevents
622
hereafter
disprop
unemployment
inspect
trading
minimal
emotional
perv
approving
unequivoc
inequ
593
affirming
issuing
solution
warren
disciplinary
estopp
waive
01
revocation
estimated
unjust
undermine
henry
print
decrees
technology
deliberately
keeping
mechanism
bias
merc
interm
suffice
grievances
##lays
##ches
transfers
flat
bounds
publishing
##tt
604
placing
cance
announce
foreclose
trigger
violent
longstanding
superint
addressing
hazard
repealed
suspend
summar
adjustments
undertake
coercive
disproportion
asking
##irms
gray
certainty
##atic
##owner
contracting
borrow
newly
2000e
##low
fines
667
pleaded
confidence
planning
naturalization
aircraft
##eased
interpretations
dup
sla
##aly
explor
proposals
condemned
##iley
aven
nuc
manual
formulation
##missibility
chooses
rus
##tively
compulsion
##abilities
securing
marine
1926
opening
dic
differenti
607
files
offering
withdrawal
##uge
offenders
579
returns
569
friend
##orters
spok
posed
empowered
fundamentally
invent
formed
scienti
629
expiration
successive
promptly
foreclosed
##ease
interlocutory
bona
##leum
unm
airlines
illegiti
##itative
ads
corps
aggrieved
gerrym
thorn
##actor
bondholders
##ded
##sters
attr
##amus
circuits
reservations
vict
adhere
prosecuted
ross
continues
royal
ky
##oul
##imination
1931
unwarr
navigation
petroleum
enjoyed
##elson
boycott
inability
accomplished
wholesal
perceived
effectuate
##tio
elimination
anticipated
withholding
doubts
cath
##tail
##oning
federation
definite
mandamus
ineffective
inex
parental
672
novo
##uana
pharm
incarcer
attendance
590
abro
##oked
prosecutors
worker
salary
connected
misrepres
gib
adea
induc
assured
convict
feet
596
dun
disease
636
shipper
accompanying
##ounded
personally
valuation
adding
blue
pict
start
anticompetitive
overturn
ore
wade
insured
crow
ec
renders
##xic
leaders
##engers
##anged
films
senators
550
affiliated
unwarranted
dealer
##olved
commonly
558
choices
easy
677
##held
##tious
christian
##ulture
relates
afdc
condemnation
lt
irs
affirmatively
malice
comptroll
conceal
bodies
comptroller
##erald
complic
641
journ
withheld
##urally
##tum
631
punishable
unquestionably
height
##erto
##ulating
agriculture
##pper
##ows
composition
earned
##bl
suppose
glass
dall
capr
630
credibility
details
reinstate
chemical
misleading
leads
acknowledges
deficiency
##lim
defect
##apped
teacher
##angible
editorial
passengers
hardship
##aur
614
contexts
740
preserved
delin
pertain
discon
string
572
covering
##icts
observe
##ican
richardson
715
solicit
jac
implies
puerto
thorough
hughes
stores
##idge
disclaim
minors
runs
independence
##pl
responded
carries
04
norris
611
648
explains
investigations
conscienti
electronic
reliability
678
##ara
positive
consumm
repud
obst
subjective
##antly
artific
practicable
unknow
depreciation
731
surface
investigate
##elig
predicate
delinqu
doe
facial
participated
disposal
preclearance
700
lemon
##ung
invalidate
fide
gender
perm
advertise
assessing
accuracy
wise
##eering
##espass
taxed
purport
prospect
identifying
lock
duration
predecessor
2007
pictures
bloc
baker
route
improvement
payable
warnings
exercises
voted
countries
cell
##bed
pron
578
motors
682
competence
carter
feature
typically
##burgh
universal
expansion
plausible
orderly
evaluating
valuable
diminish
mfg
nuclear
anom
trespass
illegally
techni
deductions
sat
##acies
##vidious
##timore
749
649
##whel
##eis
overwhel
prejudicial
consolidation
streets
##iled
postpon
591
changing
emphasize
wig
quick
657
711
surprising
sitting
adjudicate
##itals
580
smaller
harassment
proscribed
punishments
752
dispose
obstac
##kee
howard
nonprof
prud
governs
639
shapiro
aus
accum
delegation
##bi
##how
invidious
ka
##ulty
covers
1925
##kers
##rage
rulemaking
loans
baltimore
refunds
examining
chambers
inadmissible
##atible
subordin
overlo
speedy
urges
negligent
brotherhood
ordering
controversies
magaz
brady
##ulations
hearsay
son
objected
indefinite
sund
looking
domic
wishes
597
region
freedoms
navy
enterprises
accompanied
expanded
reckless
bes
abroad
impaired
storage
supre
implications
recommendations
669
donations
medicaid
decisionmaking
1930
articulated
introduction
##entation
753
advocate
##rant
forma
760
stol
scar
distinguishing
##ationally
contact
saving
690
flaw
roth
634
middle
regularly
conservation
vigor
supplies
liens
planned
constrain
restatement
##embers
publications
border
seats
##isdom
objects
concede
commodity
weak
cloth
crew
survey
regents
space
689
shared
levi
violative
grave
##mph
underw
retal
##ban
entirety
ly
household
calling
functional
predominant
younger
royalty
##wright
offset
626
##hand
prayer
licensees
pervasive
supremacy
etc
obliged
cub
646
respectively
rigid
prep
620
694
hat
##till
repr
widely
injunctions
pauper
front
rhode
mission
bench
debts
beneficial
isolated
differential
dangers
weapons
wet
box
shipping
drafted
fill
una
electioneering
thirty
negotiated
adjac
meetings
intermedi
655
599
justifies
642
594
demanded
endorsement
destruction
burglary
greg
##umber
irri
dictum
619
cognizable
##vent
usage
lacking
rear
curtail
disabilities
##hr
suscep
nonprofit
##acc
statistical
permian
leasing
exempted
fn
##ament
##wer
scale
departments
efficiency
640
analogy
coordinated
firms
erie
abortions
652
707
historically
torts
prescrib
daniel
recall
645
compromise
566
incumbents
dro
##veland
hereto
inside
603
cooperative
facilitate
machinery
unfortun
eis
##bell
judic
concession
592
bla
depending
summarily
affords
describes
fra
wisdom
ended
##paid
pup
ant
720
##oni
unch
restaur
quantity
ltd
partisan
decre
grade
specify
perempt
##enu
cook
ca10
ceiling
journal
ty
legality
parcel
stream
cleveland
inferences
scientific
pupil
sid
wag
##ersu
steved
speed
587
letters
permanently
unres
660
expired
criticism
alex
perfectly
adjacent
fault
726
rod
proff
##ponder
promoting
bradley
dollar
overth
appropriately
spirit
preponder
598
737
integrated
forem
denver
resolving
duly
brandeis
mans
discriminated
definitions
expertise
intentionally
altered
##ball
species
lynch
perj
subsidiaries
sensitive
marriage
##lington
exhibit
extremely
craft
pronoun
cites
fred
##mons
##atisf
pauperis
inhib
courtroom
statewide
currency
maintains
eliminating
nd
##inder
638
637
623
occurring
flight
duplic
detained
654
compensate
repair
dues
rub
theatres
##ggs
villa
advances
583
sums
oppon
remainder
burns
superintendent
##ilateral
composed
deriv
imported
##iveness
successfully
speaker
inquire
hes
##ros
enemy
##force
decedent
manip
##avor
713
minorities
estoppel
flood
##nis
wein
municipality
conscience
arrived
##antial
logical
competitor
contingent
invention
##roduce
publicly
patterson
morgan
expectations
unpersu
carl
653
625
837
unlawfully
concerted
pleadings
691
elementary
born
morris
impermissibly
##pping
individualized
excuse
die
investors
santa
##iate
##inal
discount
##arms
##leans
freely
650
buy
felon
lengthy
##uson
adequacy
affiliation
lives
rationally
paramount
underc
concurrent
ensuring
##gue
foresee
jew
principally
distribute
retroactively
##uthorized
663
1871
unknown
preponderance
youth
administering
wealth
704
unavailable
handicapped
gone
destin
directs
##af
acres
disposed
compete
characterization
criterion
orleans
dismissing
yale
inelig
webster
cole
complied
##unk
pollution
nul
nowhere
##foot
exploration
##uter
##inter
shot
generic
fifteenth
drive
towns
austin
gir
truly
outstanding
745
commands
retroactivity
bull
stipulation
defam
nex
prosecute
handling
664
dives
reclamation
walker
overthrow
##mi
##bach
paroch
opposing
bases
admittedly
discontin
parochial
##ilt
requesting
615
agrees
designation
595
declaring
dedic
##riet
coming
nonf
801
neutr
##cap
appreh
caution
restricting
acknowledge
farmers
4th
rough
rapid
##oz
mayor
divers
refrain
bare
666
765
loyalty
judicata
unlim
quid
obstruc
sufficiency
##mann
completion
676
intimid
schemes
alleges
inevitable
unlimited
han
rom
abuses
monitor
mile
admissibility
strick
preparation
##oir
##dro
consens
trying
irres
threats
nationwide
firearms
purchasing
unjus
##hart
mccl
flexibility
docket
complained
680
distill
647
presume
driving
correspond
feasible
les
whites
disall
disadvantage
leased
knows
ignored
vagu
##owitz
contested
speculative
ready
suitable
688
begins
stipulated
##ensable
cargo
767
supervisors
intelligence
##ulp
plen
subdivisions
expansive
academ
fda
nelson
distance
illegitimate
graham
unauthorized
effected
clos
nationality
addresses
susceptible
holders
drivers
band
##ik
expl
strateg
diminished
poc
consists
realized
campaigns
conversations
manager
stopped
discourage
taft
female
shipments
teamsters
resem
explo
operative
simult
802
922
coc
719
684
holid
##mark
buyer
harmful
doctor
##bb
stringent
stare
727
pas
##rational
661
liberal
697
buildings
gambling
##claim
barring
693
##alous
somehow
conversation
decisis
plenary
reputation
authoritative
sustaining
collectively
adjudicated
deterrent
hoff
satisfactory
1917
machine
hob
nix
resist
consistency
fab
pose
##vity
##iries
##he
indiffer
funded
755
premised
reducing
awa
vagueness
##oles
decep
##guard
inh
##ita
powerful
holder
arbitrator
attachment
congressman
761
largest
mobile
zoning
reproduc
facially
724
vent
subvers
reversing
obligated
hospitals
coerced
samp
stolen
hans
tu
entrust
generated
harbor
exhausted
purports
748
685
derivative
nexus
rejects
756
##burn
##xon
##thur
705
doubtful
contemporary
sic
demonst
delegate
conscientious
738
lind
##western
##era
##lete
charitable
intervening
imprisoned
culp
unambiguous
07
luc
var
659
exceptional
donald
accrued
fulfill
hunt
lord
ol
procure
692
opened
enhanced
fruit
ep
willfully
appropriation
750
latin
integral
weighing
pregnant
indec
##ouses
basing
illness
contributed
673
pil
sinc
decides
martine
##parable
retailers
conformity
incap
remember
distributing
irrational
container
##aneously
voice
capricious
printed
notified
desist
continuous
incompet
##tifications
681
ocs
dividends
instruments
martinez
##isw
concepts
censorship
tendency
residential
encoun
soci
ftc
##ressive
overrule
satisfies
willingness
warehouse
##igned
##ignment
developments
comparative
reprinted
export
##ondition
overriding
occupied
russell
##titure
henderson
predict
inconsist
big
stephen
demonstrating
path
assignments
utilized
heretofore
killed
drama
730
speaks
arrests
advertisements
village
dim
domin
kan
probative
mexican
unilateral
infirm
monthly
accommodate
resc
erroneously
fat
killing
##anity
ongoing
##berger
endanger
588
1928
indispensable
searched
corrections
shipment
deposits
cy
greatest
635
aggravated
expressive
675
alike
gift
proxim
publicity
counterclaim
peremptory
justifications
adherence
hamilton
enabling
accus
annu
1921
overbreadth
literature
sides
remark
solid
662
causing
nonmembers
divestiture
cure
##ountain
refuge
fro
impression
acquies
clarity
enactments
heightened
##mn
importantly
sweeping
exposed
doctrines
conception
gains
wyoming
hom
collins
distributors
firmly
lu
##active
##ello
committing
mu
faculty
ratio
rivers
forest
723
fuel
bott
arch
687
renewal
perry
detri
overbroad
unmist
mcn
810
bulk
sunday
prepare
##life
manufactured
introduce
wells
1924
816
symbol
900
##race
indemnity
experts
824
invoking
abused
insurer
uniformly
unmistak
rare
defraud
blan
choosing
722
identifiable
influenced
lessee
##oline
844
preferences
rogers
##icted
grounded
surpl
popular
combat
dallas
##ox
##ulted
patented
intimate
growth
suffering
prosecuting
wallace
minimize
pitts
lists
harsh
1923
wrongdo
divorce
unitary
##atories
physicians
devoted
##orthy
motivation
happened
categorical
cs
presenting
627
709
exceeding
apprec
academic
propriet
696
fbi
roll
ende
trucking
checks
##gel
reviewable
philos
wished
incidents
discrete
richmond
francisco
considers
judged
liabilities
confess
learned
perpetu
cad
dominant
contemporaneous
ic
grisw
735
kid
disrup
goldberg
insanity
voluntariness
griswold
tic
751
surplus
wides
##mas
##pread
##ales
compels
hired
deficiencies
nixon
modifications
757
790
played
borders
shoe
blanket
widespread
assump
schol
813
laguard
nonpublic
laguardia
##aine
intercep
deple
710
pollut
##aband
diverse
custodial
##upon
entang
sweep
gilbert
game
699
kot
mel
##nett
##note
fined
1331
owed
neutrality
hur
associates
geographic
retarded
fried
encouraging
cooperation
variance
##ridge
philosoph
visit
porn
minutes
764
1001
unclear
greatly
placement
bros
mode
1929
##olk
disbur
formally
mccon
##gar
believing
901
economically
stayed
concededly
samu
##itate
internet
growing
##isters
justifying
803
municipalities
ferg
disord
##ables
admon
chain
casual
louisville
achieving
attacks
disproportionate
##wa
##ions
associational
asset
implemented
longshoremen
dire
send
parish
wheel
carp
carriage
calend
takings
severance
781
waiting
bry
628
excludes
occupation
catholic
##iner
##rett
rooted
recorded
mck
80th
donors
northwest
mistake
gerrymand
gard
ram
718
initiative
1915
rendering
inferred
conj
unse
##edience
fetus
ease
##utive
##ingham
defective
misapp
merchand
wolf
ferguson
contraband
directions
conditioned
fd
##rs
chapman
odds
petitioned
##ubst
686
threaten
psychological
preemption
library
subpar
overs
containers
copies
overruling
stressed
apa
imb
##ried
recre
furtherance
##book
bra
dated
notify
##loqu
differs
friends
apprais
season
##akers
litigate
ped
constitutions
advis
##onym
812
inquiries
##zation
unanimously
wain
902
##ga
##gent
foia
sims
narrower
flowing
amounted
refuses
importation
671
808
causation
gasoline
restrained
chamber
2a
patently
734
716
mcconnell
burton
afric
promulgate
deterrence
psychiatric
nash
1918
campbell
ships
assumptions
##bar
speculation
developing
1911
predicated
wainwright
##fall
##itated
721
##roe
##lets
attending
brings
outlaw
extortion
bald
fields
prosecutorial
custodian
pne
blind
708
relieve
pneum
##rence
797
843
##va
##bal
attributed
dor
corrupt
persuasion
2255
barrier
asks
deals
spoke
##han
urban
declares
695
trail
exceeds
accurately
06
haul
concurrence
factfinding
##ishment
679
nn
vit
adults
794
825
subparagraph
tied
scre
satisfaction
drew
##sen
transform
directive
670
820
schedules
##nic
##ounds
invalidating
calendar
tends
##keeping
##entives
politics
2008
components
pursued
improvements
abstention
##areness
associate
backpay
territories
enunc
815
792
summons
built
##ench
functioning
sacri
budget
pneumoc
dia
thereon
executing
islands
pneumoconi
retrial
conveyance
stanley
tension
##righ
##laugh
##opez
pneumoconiosis
lopez
mun
computed
811
distributor
853
package
apportioned
unpersuasive
pittsburgh
##lined
destroyed
morn
disf
notification
empt
confirms
1922
burdensome
supervisor
wetlands
lived
tain
##uts
##tially
ital
intends
adds
penry
calculation
undes
twa
##apol
vindicate
prompted
##ower
perjury
arthur
evidently
broker
mandates
assessments
maxim
seaman
levied
looked
prevailed
intermediate
fabric
royalties
tying
theore
distress
absor
770
turning
delic
therefor
investigative
frustrate
neglect
##oned
809
scheduled
##isms
reins
replaced
confers
retention
reinstatement
##vering
meets
delegates
enhancement
dar
rose
##wing
##otti
adap
peter
fela
773
arms
opt
regulates
cald
allegh
residency
gathering
contemplates
##yle
contending
dennis
##ivens
contraven
##viction
cher
alternatively
flexible
mixed
wholesalers
bivens
tas
inland
illust
neighborhood
breadth
scene
summarized
artificial
listing
nonex
warden
morning
##ordination
canon
714
##elled
wildlife
professor
dow
##mill
##zer
amending
revolution
741
fs
subch
mergers
testimonial
qualifying
1914
outer
undertaking
irrigation
##eding
deems
awareness
ca11
##lie
ell
698
814
demonstration
footnotesfoot
allocated
jacob
overwhelming
footnotesfootnote
obey
options
estimate
geographical
subversive
compr
putting
electors
clients
sanders
tribunals
##feld
conditional
forbidding
negotiation
hazardous
cry
ral
rarely
##iably
colo
644
674
821
disagreed
fruits
african
cot
1913
infringed
endorsed
reit
federalist
faa
administrators
shareholder
proportionality
tank
pipelines
expressing
fundra
invocation
##criptions
attacked
barriers
daugh
submer
bol
cant
died
fm
736
762
retains
inflicted
pornograph
econom
derives
copyrigh
acquiring
prevention
decisive
unpaid
deferred
totality
dc
rea
computer
habit
persuade
##oking
728
robb
##tisement
780
shifting
naturally
switch
dign
tangible
##ulous
determinative
monroe
patron
advertisement
retired
severely
inventory
entrusted
forcing
meyer
739
unsuccessful
##onged
schw
##tish
dissented
unnecessarily
dry
appearing
ordinances
##gins
particularized
766
dub
sir
lawrence
##luent
jointly
conveyed
talk
mcdonald
##stated
seattle
unexp
complicated
subchap
sn
justic
763
775
fellow
corresponding
cocaine
vet
##mpath
postcon
arbitrate
921
adhered
thousands
nu
ratification
signs
798
pierce
osb
##lers
##urity
admits
displace
varying
carpent
shut
decades
informant
suspected
presumptively
reopen
cigarette
tuition
ry
overtime
privately
square
trucks
lane
physically
adjusted
ko
##robor
##eche
experienced
tro
collecting
appropriations
races
swift
disparity
lin
##outh
proffered
##pt
shell
sier
759
841
##inge
806
768
veto
beat
barge
favoring
implicate
drafting
merchandise
subchapter
las
##any
##aco
filings
intoxic
workmen
783
devised
burning
voir
convened
continuance
desires
5th
##ustice
pear
observations
unambiguously
target
begun
thereupon
premature
ak
jure
mountain
##rap
771
magnitude
advise
744
observing
restaurant
holiday
ron
incentives
##ours
##aterial
titles
happen
starting
hunting
caldwell
##ray
##idiv
subtle
guess
discriminating
ratified
sites
reconstruction
obstacle
##ror
imports
thereunder
mckin
integration
commencement
atl
##ipped
invalidation
married
immaterial
suffrage
pertaining
##erable
##fort
recidiv
assuring
blackstone
iron
senior
withdrawn
conclusively
pocket
aer
batter
1870
irreparable
conceivable
creche
science
appealable
interrog
interd
729
1910
1916
guaranty
rebuttal
bind
##ington
##che
qui
assisted
prescription
salt
733
customary
intervened
murr
rut
##aj
informal
deleted
consummation
indecent
##udes
briefly
guideline
silver
impeachment
nullif
girl
practically
subsections
participant
encompasses
ros
sab
intercon
##illary
prime
morton
insurers
unreasonably
dissemination
host
nich
##wick
##roach
severity
dicta
entertainment
##ubstantial
discriminates
embrace
framed
perceive
ancillary
##rol
override
walter
focuses
literally
induced
ineligible
postconviction
strug
fox
score
##kett
promises
pressed
supervised
constituting
kur
comity
proves
insisted
packing
inconven
rental
##loyd
imagine
alexander
##lit
legitim
ethnic
kelly
##rell
##otes
attended
substances
patern
754
pressures
occurrence
victor
undesir
yard
restitution
unders
6010
bodily
##non
##forward
reporter
overla
1890
strugg
airport
marginal
extinguish
correctness
conventional
stages
##thle
attitude
deline
consisting
intact
furman
honest
preferential
mobil
concentr
interconn
arra
metal
bellotti
appraisal
##accep
empir
proscrib
tenure
rice
theft
prer
accumulated
##tery
seize
certify
diver
poses
mines
mitigation
bit
##body
##eds
appr
##osures
posture
804
##aa
deceased
deserv
brut
scarce
bern
##enson
miners
helpful
native
##zen
declining
##payment
franklin
juveniles
straightforward
##berry
classic
patman
variations
deeply
##iance
##oney
guided
reservoir
830
acre
brien
recovered
simmons
1919
evils
hod
##iers
prejudic
prisons
treble
naval
embraced
misrepresentation
simultaneously
hou
elli
hostile
indictments
sexually
speakers
kidn
nichol
homic
##efend
agreeing
substituted
805
903
1252
listen
##gett
oli
theories
##ewal
complainant
instruct
achievement
defeated
sponsor
murray
perspective
817
disqualification
crown
japanese
consensus
##oard
reside
viewpoint
construct
##ingles
invitation
corrobor
amb
818
transported
cranch
seemingly
##recy
beer
treats
842
individually
oct
messages
##anges
stood
##urate
temporarily
unaccep
shape
sympath
companion
characteristic
fitz
weekly
noncomp
wiret
lucas
thin
secrecy
##ema
deprives
negotiate
dictates
conjunction
mckinney
rum
carroll
calif
precision
elaborate
strickland
depletion
##amin
trier
dispens
pays
misp
828
wins
##atri
dism
aba
differing
electrical
##orthiness
sanctioned
labeling
dimension
##enbach
##orily
grain
annex
brothers
colored
apt
suppressed
endorse
quickly
produces
love
realistic
investigating
peaceful
inhab
pursuit
789
eye
absurd
materially
791
depriving
seemed
possesses
inferior
inadvert
mathews
dignity
##juana
consumption
adopts
807
avoidance
rigor
sed
##sm
##ighting
users
teague
colon
769
shipowner
unsupp
disregarded
gingles
sons
propon
notions
##ensible
validly
controversial
enjoyment
periodic
illegality
examiners
weighed
reargu
eld
hind
##maker
##gues
distinguishable
incompatible
isolation
indifference
rene
insubstantial
convenient
helvering
746
782
webb
reluctant
ald
vern
oppose
prerog
dwell
subjecting
successor
incorporate
tolling
marijuana
bypass
adjud
spring
emphasizes
1909
sdny
enunciated
submerged
misplaced
lumber
oce
##izations
encouraged
spoken
##esis
interc
bruce
nons
definitive
misuse
sells
incarceration
computation
portland
structures
coupled
mas
assertions
hostility
litigated
motives
unfairness
competency
hotel
samuel
##mos
796
787
affording
sworn
audience
techniques
jay
##zz
795
divisions
opponents
reiterated
eu
vul
captain
delayed
travelers
ton
span
intrusive
commentators
electorate
furnishing
wear
codefend
entanglement
##termin
owns
pointing
demanding
##mund
##best
invalidity
sellers
grace
enjoining
intelligent
##from
bridge
paragraphs
hazards
coleman
##erate
##using
hein
##log
employing
upset
848
bidding
christmas
gerrymandering
pend
bever
democracy
closer
ker
##itant
salaries
732
insistence
##folk
##uk
sentencer
evaluated
attributes
medicare
##urst
circums
philip
1343
##board
##apolis
thrust
segment
au
##bury
incl
colum
sharing
evers
row
##bles
pled
specialized
##owners
encroach
reflecting
attaches
##arran
puts
pronounce
##uous
##rail
norfolk
stead
colloqu
joel
meaningless
827
commentaries
1291
inconsistency
dick
##asm
##oln
syn
execute
swann
##ettes
replacement
confed
##goti
eli
##itious
testifying
911
preclusion
fears
attribute
remanding
observes
auto
occupational
sidewal
bak
##ka
parli
wherever
fewer
deliberations
disob
##athers
cumulative
cigarettes
clarify
british
sugar
commentary
examinations
prin
trusts
unconstitutionality
removing
unpro
admitting
predominantly
##ching
prong
neb
derive
mccar
1404
therefrom
user
didn
drastic
billion
743
superf
latitude
improvid
craw
tariffs
ll
unlo
precinc
repeat
consented
1908
prejudiced
cents
##inqu
communicate
anomalous
len
parks
evade
mccarran
constant
fatal
borne
cite
linc
disruption
##charge
friendly
##elli
handle
712
1789
reinfor
irrespective
sierra
empirical
parliament
effluent
pursuing
wd
851
sector
##cle
unt
alj
##imm
agu
spread
788
minds
escap
procurement
lincoln
tur
##elman
adduc
unequivocal
yards
##hurst
##erly
758
towards
mathema
oversight
mig
##eced
parenth
transmit
772
registrant
##unte
deport
insol
indebted
##orem
formulated
envision
dictate
correctional
##resh
coe
interch
whoever
textual
utilize
unacceptable
mos
consisted
complying
defects
authors
credits
unfortunate
##ordon
823
telling
annuity
filled
vmi
##ishop
legislate
exhibits
##umph
garn
constraints
dedicated
poly
##ressed
evidenced
nonpar
lessen
777
venire
sponsored
optome
##ito
##kete
chand
effic
robbins
ocean
gained
819
getting
nurs
pull
##gma
793
799
##sett
outweighed
nonresident
tie
##tib
repay
highways
selecting
garner
pornography
##icide
impede
butler
##orton
deposition
838
routinely
accords
roughly
crawford
##bre
anth
unreg
wording
patterns
wir
converse
shr
shore
contradict
perpetr
cos
proscription
medium
881
enlarge
confidentiality
losing
##isen
disappear
piece
unen
indis
representations
fraction
cele
estimates
bailey
gal
coerce
becoming
dissenters
machines
reconc
sacrific
wherein
alteration
boyd
exhibition
lieu
premiums
domicile
culpability
koll
lad
##sts
consec
expended
buyers
##ulpatory
renegoti
asbest
questionable
tested
861
subsidy
fundraising
spon
##nes
##lation
##iously
promised
arbitrarily
822
dangerousness
imprac
canal
carr
##feas
accepts
responses
rackete
879
1907
interpretive
unbund
philosophy
lam
##gen
reward
nepa
relinqu
pennhurst
draws
uncondition
tendered
##ugn
##part
patrol
initiate
831
855
441i
##workers
unjustified
cadc
gardner
cio
twel
incorporation
truthful
eminent
andrew
unequivocally
unseaw
decade
returning
829
conspirators
##viate
signal
undermined
era
##liest
74th
excise
846
89th
mechanical
belonging
farr
minerals
consultation
undesirable
##enas
ines
unpr
##trak
##uniary
split
offend
distinctive
1367
deadline
amtrak
##ailing
##erick
load
908
1905
retaliation
reinsur
concert
province
778
restore
1906
wigmore
pendent
##stream
petit
##keted
misunder
sixty
volunte
858
guardian
cards
forb
##endo
contacts
sept
doctors
cotton
tent
##orpor
transporting
analyzed
incompetent
dates
notices
odd
deceptive
insists
##redited
776
826
862
morator
discussions
resource
ideal
bab
bishop
##ses
##bank
cone
illustrates
literacy
bottom
albe
partially
designate
variances
disclosures
abridge
experiment
magazine
albeit
vou
univ
spar
earliest
reciproc
gradu
clothing
aed
seas
needless
ern
discloses
784
catv
nashville
##eing
##illy
responsive
threatens
formerly
##hl
reass
indig
establishments
heroin
farmer
residing
shipped
arresting
rosenberg
jewish
adduced
aedpa
advancing
earn
profound
audit
##car
##ester
stability
intol
merged
##legraph
tenant
##brand
avi
map
ada
briefing
evolution
allowances
foreseeable
patronage
fals
kil
tant
conrail
ourselves
viewing
flsa
mcg
watson
encompassed
gon
jen
##laus
vertical
reconcil
camera
utterly
abrogate
diversion
wrongdoing
bou
gordon
raw
parking
suburb
persec
conveni
1896
older
attendant
focusing
learn
concentration
##onymous
indistinguish
pul
equipped
edison
separated
ingred
katzenbach
tasks
cc
liv
por
##rich
lowest
realities
levin
surviv
slightly
##otions
proven
##endum
tract
##ishing
searching
905
##iliation
exempting
instrumental
deviation
##cence
##hill
forc
10b
invari
trip
restored
acquitted
emission
##sum
inacc
unaw
induction
discriminations
nonre
concurs
subordinate
societ
##asi
evening
centers
williamson
880
dependents
paso
##cock
##wau
##atch
##ateness
convert
suicide
strange
lawsuits
qualifies
1912
identifies
accomplic
illustrate
##inations
##loch
milwau
834
concurred
sensible
disallow
kotelly
everson
kollar
indistinguishable
##atically
##icks
unten
considerably
refining
vacation
acquisitions
constructed
hartley
milwaukee
delays
clearance
##phere
everything
balanced
widow
diagn
fiction
humph
alan
##union
harper
imminent
structural
peculiarly
nonresidents
lend
invited
expresses
legitimacy
viii
ancient
daughter
akron
09
dig
wo
##vable
seld
assa
providers
warned
restricts
continuation
1257
dividend
thornton
wants
##night
stret
prophy
format
evasion
freeman
excused
monitoring
eg
lh
tip
##arial
dean
chase
solici
774
laund
auton
bac
##ument
anton
coordination
perception
abund
##enna
bush
##sha
sheet
886
electricity
layoff
vend
won
shopp
needy
passes
answering
worse
exchanges
publishers
discharges
accrual
seamen
soliciting
gap
hut
904
852
##qualified
amply
quarter
cheroke
lion
mend
rural
telegraph
propag
initiation
unreal
872
nearby
hale
##rative
##acks
##coming
sponsors
homicide
##sler
additionally
pecuniary
avenue
endangered
unqualified
minister
imperative
aims
hydro
counted
untenable
fay
##ederal
characterize
depriv
850
firef
reimburse
##eston
circulation
burdened
realm
possessing
managerial
##enberg
dod
trac
schne
907
escal
mistrial
enlar
inescap
governors
1346
presumptions
delinquent
##izon
fired
specially
theatre
interchange
##orah
courth
atmos
enorm
arguable
watch
technically
gao
happens
renewed
societal
jun
##ware
##bro
recoup
recourse
suffers
signals
tree
##eo
injustice
harry
multim
verdicts
incriminate
scholars
##wca
##bel
withstand
expensive
incidence
texaco
779
privileged
845
desirability
kar
arts
complaining
wait
enjo
clubs
defamation
worship
computing
stronger
stops
cancell
unsupported
cau
timber
servitude
awarding
clerks
bought
forty
unreli
devise
1902
1867
churches
##arrass
rigorous
round
##kinson
weber
dece
injure
786
nomination
learning
illustrated
##ean
##inity
inre
seaw
footing
revis
justifiable
trades
latino
##poin
##sees
supporters
allowable
annually
earning
contributory
##aught
ripe
perkins
statutorily
clinic
pupils
##yl
##urious
specifies
guards
##missive
indications
faithful
theoretical
pig
rp
##ria
inapposite
superflu
vide
##dings
dissents
traditions
petty
skill
mootness
beck
medically
extrad
disqualified
stevedoring
##erb
##tiality
seab
recordkeeping
centuries
threatening
1904
hoffman
lhwca
##oration
##asc
exh
##cho
champ
lif
actionable
denomin
914
investor
allotment
nuis
houston
tub
memph
proscribe
harms
punishing
materiality
ignor
venture
quiet
unaware
rptr
memphis
hoc
kle
##iscl
conver
charl
bribery
bennett
broadcaster
owing
drafts
disapproval
destruc
##handed
prescribing
pendency
##ima
1897
actively
felonies
gyp
defa
harold
objectively
08
suffices
##avored
895
logically
undermines
kaiser
narrowing
##omatic
cuba
deprivations
recording
random
coven
harrison
##iliary
merchant
varied
ku
##outs
defic
outright
investigatory
##while
deviations
undersc
lakes
##blo
##char
permissive
canada
generalized
systematic
treason
785
targeted
eyes
##enz
rew
indul
##ocks
dissatisf
distant
mcd
1901
conceived
aviation
bates
yak
interception
marital
embarrass
recited
plate
appropriated
1874
capacities
twelve
shopping
schneider
##ranch
##ighters
allocate
retaining
tools
uncont
legitimately
gypsum
cz
ss
##gs
unimp
strip
frequent
packages
instrumentality
trouble
decrease
ticket
humphrey
dunc
fly
tap
##pan
##oral
classroom
drink
modes
avoids
advancement
unsuccessfully
multimember
##ensen
utilization
malicious
atmosphere
##rest
unin
##ivably
81st
aiding
ignoring
formulate
catch
enrolled
leonard
prophylac
##arked
##omb
soph
carey
insign
offence
categorically
justiciable
superfluous
##cla
senatorial
indebtedness
polyg
lor
##otts
beach
amor
arguendo
maturity
displaced
watkins
promulgation
arc
propose
simon
847
approaches
##mester
feared
engineering
surviving
factfinder
nonfederal
aguilar
dred
ira
inclusive
outlined
lineup
brewer
laur
pollutants
ero
##osex
spr
dissolution
836
conceivably
photographs
antonio
implaus
##lane
phrases
acknowledging
germany
invariably
##olo
##agon
distinguishes
publisher
manifestly
clarification
reaction
specifying
defending
tenants
1292
worthy
shooting
relieved
interfering
##makers
prox
coinc
miner
entitle
organize
839
1002
causal
await
jenkins
exacting
unaff
minute
meritor
915
influencing
kenneth
magistrates
detainees
nominal
prudential
arraignment
vulner
prophylactic
lun
ports
sake
##ica
##iced
atomic
compiled
spectr
joining
lightly
864
combinations
reductions
magazines
untr
purposeful
consequent
deficient
conferring
ftca
prudent
vest
wong
##roft
quasi
##ideon
ending
contracted
nationals
mccorm
manslaugh
oliver
duncan
eag
rab
rif
##ares
##cell
19th
##ancies
##inet
carb
prescribes
renegotiation
insignific
manslaughter
fresh
gall
mason
nh
yell
##huana
actors
##spective
invested
fashioned
disapproved
marihuana
anthony
spectrum
##ala
exxon
##lating
trend
remit
fisheries
destructive
mic
arn
promoted
840
1253
subcontract
adjudged
mathematical
rain
xx
stern
criminals
mapp
origins
militi
constrained
832
criticized
subcontractor
gregg
parenthood
gonz
gideon
##lean
repar
obser
exempts
incapable
kidnap
heck
reen
##thy
trained
##took
methodology
wrongfully
hobbs
bright
circumvention
signature
calculating
strategy
##ecedented
unprecedented
sphere
partner
scrup
compensated
conventions
875
1903
greene
slightest
vigorously
paternity
courthouse
dial
complement
partly
investments
subpoenas
sharply
winship
##stead
estelle
revoke
doubtless
90th
##ront
relax
expressions
preparing
battery
interconnection
##pat
actor
elective
french
retrospective
dilig
rodri
undertook
objectionable
driven
attachments
disparities
tells
deadly
##tected
allied
observance
916
financed
drafter
nursing
shrink
moratorium
##points
kr
##istence
started
baldwin
##tes
ang
resting
##reek
responding
timing
##aird
everyone
vesting
mcdonnell
engages
increas
unsatisf
##caa
exhibitor
generate
hog
##vailing
##tra
##tracted
##apping
##location
stigma
970
alcoholic
thinks
lying
ng
rid
onto
semin
alito
chron
##forth
unden
abide
canad
pamph
modest
marketplace
835
automobiles
frustrated
heinous
instrumentalities
gent
nr
##len
sud
depended
saved
revoked
realty
897
delicate
chandler
##down
casey
preceded
laf
accommodations
assurances
interfered
townsend
confessed
struggle
alarm
expatri
estates
dock
occasioned
generating
colloquy
reex
bea
policeman
conspiracies
denials
prejudgment
desegreg
pilot
disruptive
vitality
ax
kim
sor
##otic
prol
comfort
contours
mature
evenhanded
buying
countervailing
growers
interviews
postpone
proponents
prog
hispan
milli
73d
patentee
1341
writings
replied
##mma
formation
doubted
856
939
attacking
advocates
grossly
ballots
conversion
bia
trunk
presiding
steam
counseling
obtains
947
raymond
accomplice
firefighters
nuisance
##atable
dish
strain
entertained
866
falsely
mailing
ascertaining
rhodes
delinquency
carpenters
unh
recru
recurr
norman
bart
##echt
##regular
1880
forums
manifested
contemplate
gibson
##bir
mann
avoc
joinder
emphasizing
strikers
1101
propositions
incorporates
foreclosure
unprotected
militia
sham
impliedly
disturbing
hundreds
homosex
recreational
circular
mediation
thinking
veteran
dissemin
canadian
ncaa
tug
##arri
##ocol
contras
irregular
morrison
1396
leadership
##asmuch
lat
##rill
prete
supplier
brooks
athle
rla
##ius
##emer
rightly
furthers
nonj
873
stamps
reluctance
progeny
dress
##yd
unwise
##eway
cannon
passive
survived
insignificant
increasingly
##omo
878
absentee
deductible
flows
##books
catal
steelworkers
expanding
atlanta
##iant
unint
albert
commits
presupp
provider
##appe
solicited
embodies
abridgment
democrats
gregory
bible
##mel
leh
minne
##rows
trace
basically
falling
1868
1887
documentary
detriment
vernon
sophistic
sudden
##sed
##voc
inasmuch
cha
##load
##estock
illumin
slow
republicans
kirk
livestock
reexam
reiter
anywhere
enters
duke
respected
1891
afoul
complexity
flatly
##tibility
prince
scrap
workable
##auf
unfet
enrollment
proprietary
ri
##vis
lex
button
871
afl
ethics
printing
unfettered
cow
##inn
##otyp
consp
proposes
curtis
ensuing
music
6th
ceased
jerome
cardoz
ranging
incarcerated
foreman
##isites
doors
scient
informing
politically
credited
realize
breaking
unrep
futures
harmon
877
religions
1892
proportional
destro
unequal
monopolize
bore
fast
sick
##mo
conve
##termination
amen
substitution
moneys
airline
approached
improved
874
gravel
superseded
imbal
autonomy
rodrigue
##master
##oner
##tier
sequ
resent
supplying
broken
925
feeling
hartford
flawed
remin
exig
##agger
handed
compensable
liquidated
milliken
cold
spot
confisc
looks
1374
leaf
vindication
infliction
quantities
extradition
##croft
##istically
powerless
convince
1886
managers
roger
inhabit
unseaworthiness
##vial
withers
##elity
heir
##lification
##umes
plat
##gery
feld
economics
massive
belongs
efficacy
asbestos
rc
senti
##onau
canv
##iah
facing
officeholder
debtors
ost
##add
##child
resided
purporting
signatures
promotes
favors
917
menorah
concealed
1395
preempted
tactics
attract
admonition
consecutive
cort
ls
##titious
##quar
flu
920
inclined
##illo
viability
##onder
##aterrit
leader
adjudications
intervenor
trains
embraces
succeeded
pes
pue
tow
heights
quash
locality
865
899
organizational
cooperate
rankin
differentials
lessees
rutledge
kurtz
arnold
gate
viable
signatory
announcing
negotiating
universities
announcement
aeronau
##patrick
##cia
##taw
sears
##chi
##amble
##ernand
receiver
codes
eventual
forfeited
millions
guns
disturbed
ashcroft
batson
dwelling
unenforce
cris
ling
tva
##tan
spite
##titudes
payton
centered
ratemaking
performs
exculpatory
thirds
inherit
larc
constructive
frederick
noncompliance
racketeering
rot
##ori
##otte
##adic
spect
attenu
terminating
headquar
##ulates
summer
holland
grown
abolished
diego
meritorious
sending
##rams
##12
##lemma
mails
dictated
hyde
technique
vigorous
tending
obedience
##ribution
transfere
workplace
indicia
circumvent
stein
fifty
876
unavoid
tainted
dol
mack
exigent
invite
affirmation
occasionally
insuffici
disturbance
entails
acquiescence
ralph
scarcely
cere
rio
taught
##za
##ila
courses
##ulting
##liers
##licity
variation
anticipate
discard
colonial
##eastern
smoking
departed
reinstated
inequitable
dubious
inconvenience
rodriguez
##omery
alf
protocol
##titutes
loading
excer
lawfulness
pharmacy
destination
garnishment
reconcile
specificity
adjudicating
441a
analyzing
bowen
implausible
specifications
originated
overlooks
encounter
nas
##ycl
empty
##ordan
lockett
handb
thirteenth
stockholder
919
murders
##poon
##matic
proximate
enormous
##gomery
breath
1894
montgomery
affiliate
disadvantaged
perez
endeavor
larceny
alumin
accidents
trimester
plra
##athan
salv
handbook
customarily
remotely
postponed
intercepted
europ
conveniens
##nc
stre
benj
principled
declarations
857
##certained
easier
extraterrit
inflict
hogan
jaff
osha
sib
vinc
summoned
relatives
visited
mechanisms
fidelity
labeled
shifts
underwrit
correspondence
forbade
##aling
disav
suppl
repetition
prediction
burke
combine
submitting
guardians
witherspoon
unenforceable
##med
##back
resign
spouses
trivial
mcgr
grande
1895
##istrict
windfall
cherokee
benjamin
ditch
gerald
zones
unreview
predatory
phrased
occupy
sip
##idden
ascertained
viet
repugn
generation
cancer
valeo
confirmation
entrance
dropped
apprehension
eros
##bled
##put
peril
possibilities
breached
improvidently
conversely
aluminum
chim
931
ethical
conti
960
deposited
medicine
craf
treatise
inhabitants
jordan
lug
wick
matth
retailer
logan
exploitation
aided
sister
forgo
shock
##tituting
abet
dilemma
muster
surety
891
allegiance
academy
discontinu
junior
seaboard
##ernandez
birm
ceded
mond
##bors
910
reduces
uncertainties
contracep
fleet
inspector
intolerable
drafters
birmingham
daw
##acity
briefed
wars
laborers
arranged
bowers
abridging
promotional
ellis
ze
##oux
##ernal
noncons
contributing
putative
minimis
disburse
##itarian
choc
##ensity
##aching
marc
loose
thoughts
harmony
donor
overturned
choctaw
ni
##war
##ectual
compatible
##lified
thoroughly
repudiated
wiggins
unmistakably
##kel
isa
arisen
peters
957
assignee
1898
undercut
canvass
creek
rs
theme
expose
##ops
flast
promotions
932
encourages
##franch
##minently
buttress
##artz
handled
geo
849
1332
hamd
manipulation
accusation
czma
dair
lm
doyle
imprec
secre
curti
1003
936
##brid
infirmity
wheeler
rome
##usting
drain
memorial
codefendant
gentle
minneapolis
akin
##osh
evol
##ahan
adjudicatory
1875
understandable
empowers
riparian
kahn
vincent
##urer
sche
defended
collision
882
883
continuously
grey
picket
frequency
allotted
2c
cwa
fathers
stim
connecting
909
898
enumeration
mcfl
friedman
ronald
burr
ru
concom
inserted
clearer
2009
restoration
cea
appointments
inspections
disclaimer
casualty
enjoys
lloyd
reid
comports
termed
variable
crossing
##ricks
implicates
soldiers
invokes
weinberger
copyrighted
vulnerable
feldman
fol
lending
lung
##etti
suggestions
##thodox
intervenors
walz
hanover
kurtzman
##mers
##abilit
laboratories
framing
visitation
affiliates
arriving
wareh
reargument
horn
##oley
forever
proclamation
brid
palmer
surrendered
unrealistic
headquarters
dul
eaves
##yard
suppliers
correl
saf
transmitted
bankers
suspects
mailed
supplemented
duress
nomine
unfortunately
inaccurate
kidnaping
dairy
ele
onerous
##aked
displays
attainder
aet
valued
frust
subscrib
chiefly
walton
rehabilit
conceive
skin
reopening
tracks
adapted
tentative
aetna
##erees
1876
cutting
hayes
saturd
pon
pier
vt
##pin
##lair
nonunion
labels
specification
penit
illicit
freedman
868
941
938
fashioning
enables
unchanged
intimidation
remembered
afor
oak
forti
terror
reliti
herself
992
incorporating
fitness
inadequacy
owen
borden
transferee
holy
stere
generous
blum
854
unreliable
creat
dyn
lec
##alt
##oud
##asse
myself
gravity
colleges
linked
divorced
loses
procured
movi
barc
collier
contempts
863
vacating
1889
encouragement
mutually
delta
9th
fost
via
76th
##uminous
ryan
fitzg
cbs
kel
##mah
deterring
civilized
solicitations
85th
1011
echo
##yas
sees
employs
phone
adviser
burlington
1872
wanton
dramatic
ree
##laying
##ewit
decency
##aph
informer
923
technological
radical
machinists
cycle
osborn
recidivist
tape
##atural
ster
notably
##raf
brit
valorem
roots
classify
evolved
913
885
940
transferring
mccree
1447
lottery
sinclair
enlarged
erosion
converted
suited
##olph
meanings
costly
declines
detective
warranty
waivers
northwestern
933
950
irrevoc
emerged
psychiatrist
kiryas
redeem
isaac
ties
##ertion
##enton
attained
partin
ambit
meanwhile
resides
dono
textbooks
exempl
uniquely
installment
boycotts
icj
elliott
mccarthy
##brook
scienter
underwriters
tier
##fc
##ias
##strom
enmund
booth
civic
##rington
2241
baseball
transcripts
defamatory
unregulated
gif
klan
lap
stored
##ola
alb
comport
communists
flour
918
890
refugee
kon
conject
stabil
textile
935
murdock
withdrew
skills
##anium
adoles
excepted
collector
surprise
disorder
unbundled
##nam
intert
appropriateness
dayton
926
litigating
obscure
bowman
suburban
sle
acute
1005
talking
hendricks
supersede
##ption
defender
1873
unilaterally
persecution
yellow
null
##ora
##eworthy
deported
judging
monell
phen
evinc
herbert
##atorial
myers
1014
winter
unavailing
rubber
cultural
lump
porter
##east
##agues
conclus
suing
attitudes
whichever
neil
frame
corrective
860
teaches
garcia
colleagues
durational
aeronautics
extraterritorial
og
tab
inception
sioux
##ennial
##inker
wayne
forthwith
ensures
accomplishment
nonmember
resistance
detrimental
pullman
pounds
wes
discounts
corrected
occupants
intrusions
consummated
alleghany
envisioned
##rown
amer
obstruction
cart
912
narrowed
occupancy
afla
precluding
installation
intercourse
circumscribed
iraq
fortiori
##43
##alc
lef
corn
scha
merrill
fron
numer
articulate
906
harmed
1899
mccul
1888
coalition
memoranda
incorrectly
wagner
prerogative
reciprocal
cardozo
discontinuance
fitzgerald
baird
cess
sua
untime
empts
emptive
##eases
executives
wrongs
radioactive
illustration
unaffected
untimely
ot
gran
##ache
934
acknowledgment
allocating
forecloses
inhibit
nichols
spanish
degr
amd
abusive
intangible
##aches
barb
##tifies
landowners
944
commanded
bulle
sponte
anonymous
869
893
helps
advocated
deducted
constantly
futile
interferes
inducement
inexp
bakke
org
standpoint
immoral
appealing
detect
##ologies
referendum
medication
inspectors
roman
falsity
attenuated
bulletin
tate
vag
##icul
adam
assisting
insane
barry
sie
dunn
allegheny
aux
sophisticated
##dom
orr
##uctu
personam
confines
localities
favorably
donnel
2244
incomplete
disfavored
forcible
cancellation
drop
tended
tom
##ente
##laps
##agen
quota
weighty
enabled
berger
beside
schwartz
alfred
hub
##hall
##11
##tricted
prospects
warn
994
hatch
obstruct
sample
overlap
ranch
inven
toxic
grat
guise
disposing
occas
highl
seriousness
certificated
unsound
impartiality
animals
shelter
mercy
voucher
yakima
imbalance
streams
7th
mens
pump
forg
##othy
brun
advocating
hills
proxy
1374c
dynam
tun
##drop
##wined
inaction
1900
impedi
equities
confident
locations
nonst
inflation
conspired
unfairly
censor
discharging
engineer
mcculloch
dip
fug
xii
edelman
commons
884
supervise
unrestricted
beverages
fight
fighting
invi
##ared
##tray
##eman
decisionmaker
virtual
numbered
profitable
##iami
objector
supplementary
##boro
survival
dramatically
screening
donnelly
occasional
dere
gear
mes
extern
##iating
scot
engender
airp
unfavor
degrees
grazing
abridged
anglo
assail
transgress
dealings
incremental
adhering
merchants
victory
pharmac
unmistakable
unsatisfactory
gill
jim
sanch
theod
ofappe
unsett
weiss
scores
productive
joy
farms
867
larson
1231
biased
borough
hunter
obstacles
disobedience
sanchez
ofappeals
fits
xi
##water
intric
purview
##ounding
overse
differed
furthered
verbal
plays
1362
honored
gloss
delawares
homeste
explos
contigu
ox
##rice
deme
##lication
tempt
advising
75th
dominion
unloading
casting
##uman
regards
reflection
983
visual
memory
randall
epis
brib
bingham
##stal
##uten
indiscrimin
scrant
characterizing
937
banned
visible
halper
tolerate
expeditious
concealment
proscribes
athletic
scranton
meat
brook
colorable
populations
suppressing
fulfilled
sessions
whitney
stemming
amdt
biz
##ww
stu
pey
reviews
founding
##ulsion
touchstone
inescapable
penitentiary
fate
games
hood
sorts
##father
##omed
##lage
underlie
lawless
##ligious
contributors
888
1251
walk
piper
mortg
remarkable
rifle
sports
incite
root
males
trainmen
chartered
contingency
pearce
homosexual
gifts
cty
eug
ewing
lip
nick
##gee
marshal
woods
analyze
detainer
##baum
unconv
libraries
stems
seldom
episod
bizar
tan
che
dissolved
warner
capt
continuity
commanding
retrogress
melvin
disbursements
lest
fifteen
870
1151
unpat
jeffrey
diligence
auxiliary
htt
mouth
miami
upper
quan
assures
##seless
13a
scho
covert
##ologists
versions
perfected
shoes
practiced
norton
reporters
healthy
976
##comb
biological
compactness
nominating
mueller
contravene
fmc
rud
##lord
noia
abd
mah
posted
oriented
immunized
##burger
consuming
griffith
awaiting
ingredient
cun
gary
##tration
pra
shed
##istol
proclaim
956
rationality
financially
uncover
entries
unjustif
fslic
unexplain
rcd
crisis
unreviewable
jon
##des
##anto
edge
inflex
928
proportionate
reno
disapprove
retardation
hoffa
sympathy
migr
concomitant
voc
##bu
##endi
expedi
dissol
array
divest
aids
consumed
philipp
1787
preferable
##employer
horse
bernard
cinc
wine
##zburg
prur
coff
remedied
pair
satisfying
devoid
1032
1883
investigator
constituents
attainment
battle
italics
covenant
http
pope
voy
##sch
##iatory
##gor
factory
afterno
receivers
johnston
banning
multiemployer
counterpart
forfeitures
##etta
##naire
sawyer
coordinate
colonies
ngpa
##arriage
unconvinc
sod
sny
fortun
consign
pardon
abrams
##encer
corner
verba
##ologist
tyler
reinforced
video
stereotyp
mol
yates
##mend
##rove
abb
incong
dixon
questionnaire
insulate
benefited
modifying
networks
nyquist
indefinitely
incongru
8th
##inna
stark
undist
speculate
barr
preclusive
dividing
garmon
1202
unusually
animus
reconciled
breed
dorm
##etic
##elec
hair
confused
deduct
knock
craig
intelligently
abolish
concentrated
egreg
deficit
cincinna
cincinnati
dale
##aley
boys
gets
safely
1012
stevedore
wiretap
hitch
atch
##titutional
##overnmental
preamble
electing
gov
simpson
surcharge
gerrymander
pueblo
omn
tons
index
alleviate
lessor
settling
instructive
opponent
dismant
pledge
mcgrath
bridges
##electric
vests
vinson
##abb
casts
football
waterf
929
magic
hazel
lewd
indigents
sight
##iences
heat
approves
passport
capit
belonged
declarant
southwestern
unpop
hypothesis
theodore
gi
##uum
anders
lever
##oused
barber
damaged
79th
volumes
triggered
parcels
brokerage
chronic
unpopular
cit
jenn
##ck
##case
##ser
##eskey
##ecured
##rod
##riad
amel
deserve
dispense
benz
##unct
landmark
landlord
misread
859
measuring
1254
helped
journey
definitely
btu
mall
wartime
##aux
wrongly
derog
hawkins
robertson
disallowed
secrets
homestead
fib
wals
##ek
##ym
##xious
##utations
overly
myriad
1893
disqualify
longshoreman
drove
bizarre
dancing
deterred
offends
nonwh
eddings
fris
negate
mandating
conditioning
career
midwest
vindicated
fortas
tantamount
luggage
hinder
disrupt
##overty
18th
conferees
barrett
payroll
damaging
residue
942
981
1073
beatrice
##ylum
external
asylum
leeway
interrup
claib
managed
founders
looph
meek
anomaly
subscribers
amelior
claiborne
loophole
bork
ske
zero
##ien
##edded
##ato
##igs
bron
##incorpor
locomo
proposing
eradic
officially
detach
traveling
2680
lieuten
crystal
precinct
hydroelectric
eavesdro
cessation
cip
##ivid
chad
dog
##estone
##ourn
clim
scen
##ahl
88th
991
recommending
optional
clinical
antec
mccleskey
intertwined
eugene
afternoon
bax
##norm
##ionally
invaded
transition
930
952
953
quotes
stanford
nullify
pretext
numerical
elic
seeing
##tick
##illion
congressionally
schwe
edwin
951
986
navaj
1415
barnes
antecedent
nut
exert
submits
coroll
payne
phases
readers
83d
antid
residual
southeastern
1869
investigated
commander
panama
##letter
neighboring
hispanic
##incorporated
poverty
que
##aint
##cles
regret
blank
cured
urgent
conspiring
guides
temper
deliveries
##eseen
overlooked
retaliatory
olson
pollutant
propaganda
lunch
dipl
finger
nud
nude
##gc
##edia
##urg
##veled
##very
denno
processed
steams
86th
943
955
deferential
introducing
trafficking
jacksonville
hanson
sincere
dimensions
sidewalk
steamship
benson
oly
##ua
unincorporated
tracts
governance
boat
##apital
imperf
breaches
township
novelty
tortious
eliz
insolvent
ignorance
greyh
dormant
walsh
olymp
gore
kod
ud
beef
dob
remarked
moves
oppressive
solve
penalize
887
1885
##lett
copyrights
osborne
misunderstanding
repugnant
hollow
lends
##cm
ascap
atty
##adow
envelop
faces
reserving
##criptive
intrude
consolidations
formulating
skilled
arrive
bird
revealing
ideological
riverside
appreciate
observer
prolonged
fluid
unavoidable
vietnam
chimel
greyhound
##kowitz
##stad
conson
##osic
replac
intentions
passion
herit
accessible
1864
morales
trailer
repayment
phenom
prurient
wed
##isle
grades
soil
particularity
locked
drilling
solom
987
investigators
intellectual
##actorily
expatriation
gang
von
precip
furthering
##archy
situs
curb
embar
961
969
cruz
stopping
lodge
hesitate
explore
perpetuate
coext
unreported
corollary
tire
stocks
consular
marqu
candidacy
889
tortfeas
depositions
sanity
enlight
universally
unchallen
encountered
bryan
amenable
saturday
snyder
##imp
##har
##54
throw
civilians
trustworth
breth
missing
pressing
commentator
2518
noncomm
besides
underwriting
hurt
defaulted
##iculum
heritage
coextensive
lond
##bons
theater
exacted
##ader
##ositions
intense
invites
newman
##arious
servicemen
1008
guiding
predecessors
clarified
couple
hopkins
misrepresent
curtailment
acreage
sacrifice
dulles
overseas
atchison
mcel
##eda
##ini
exagger
mayer
cafe
france
77th
984
rooms
touching
abstain
symbolic
weakness
survivors
unfavorable
huff
##eper
##rue
##iability
##just
parade
##isson
proportions
landowner
##emeal
divis
894
963
commented
scales
unwork
piecemeal
cancel
intimidate
afores
duc
kin
pad
##celer
alert
managing
harlow
entitles
writers
speeches
1009
visits
treasurer
horizon
resembl
nonreligious
brethren
aforesaid
releg
abnorm
moosic
plane
##aires
burdening
belt
brew
worst
massiah
assns
impossibility
polls
contradicts
dy
laugh
protracted
chances
accrue
dix
overre
##ogue
##ager
injurious
percentages
commandments
dependency
extensively
checkpoint
kingdom
bids
redemption
fare
##icop
##enture
acceler
##tract
arlington
particulars
similarity
detection
solemn
influences
exceedingly
cantwell
unexplained
clock
gay
riley
wm
##tte
starr
##omer
whis
polar
posts
patrick
loaded
948
furnishes
pilots
ice
kc
orthodox
##msd
975
conceding
988
progressive
endorsing
pieces
lodged
emissions
fw
www
whitt
impinge
policymaking
excludable
accompany
prospectively
repudiation
dominated
ahead
kram
##50
##usable
ours
guam
erected
salmon
##sworth
naturalized
morality
954
990
griggs
1884
deliberation
lots
shifted
randolph
settlements
hernandez
rival
##ike
##ario
##strong
posting
brush
evading
embody
interprets
2281
preemp
installed
outweighs
apprendi
kodak
ring
##atur
##aro
##ilitation
generality
mcmill
recoverable
utilizing
1311
unconditional
subcontractors
egregious
kcmsd
lenity
nc
zadv
##tist
ches
vienna
marion
##ounced
indetermin
codification
goodman
927
danforth
964
966
armstrong
divide
hoped
advisers
ernst
scholarship
##ydas
britain
zadvydas
bend
pf
##itivity
outrage
strang
departures
satisfactorily
grandfather
949
falsehood
unanimity
assembled
spokane
##blatt
unchallenged
noncommercial
bm
kal
chanc
casing
personality
credible
959
##ographic
interrogated
##hattan
contradiction
unavailability
mistakenly
slavery
ew
mop
nice
zen
##oe
##erts
##icals
##eliness
denatural
eliminates
paint
subpoenaed
blockburger
subcontracting
window
dispensing
##birth
contiguous
a1
chen
peer
##ublish
manhattan
15a
3701
mons
counsels
967
997
mindful
slate
adversarial
disadvantages
expedited
navajo
solomon
london
hit
##bin
##hard
stable
##lyn
##rim
##eree
peterson
##vency
##guire
protests
refin
noncon
connections
87th
assuredly
rapids
counterclaims
seminole
exigencies
chancery
##anel
amounting
canons
##oker
postmaster
behest
sovereigns
jeopardize
safeguarding
stuart
verbatim
##term
noise
revise
primaries
comparing
undertakes
foods
tapes
drinking
resemblance
##utary
coke
ages
servants
organizing
subscribe
equalization
stripped
977
vicinity
calculations
1790
gibbs
duplication
##children
conclusory
lav
##year
##21
##related
##amond
##efined
persistent
irving
1076
escrow
gathered
misdemean
##chester
proximity
interdistrict
encroachment
laurence
heirs
filling
gates
##acious
casino
usur
childbirth
upward
referral
averages
counterpar
disregarding
inconce
shelf
nudity
nb
##itors
##oli
##class
##okes
immunize
crude
leasehold
culmin
pains
reapportion
bonus
deserves
mccormick
counterparts
fi
rit
##04
compass
##illard
decisional
elkins
operational
capture
hourly
infringes
diminution
toolco
bruton
##eries
stee
##ighted
sovi
accredited
diamond
insisting
outlets
stric
demonstrably
1004
welch
garrett
entrant
traceable
evolving
kelley
inconceivable
sad
##naires
##lich
##utter
weaken
inters
nonret
signing
severability
##laney
esch
disregards
omissions
barnett
attractive
apprehended
illustrative
reinsurance
recoupment
seaward
owe
pape
zob
amuse
discounted
questionnaires
probate
nont
harvey
contributor
946
refusals
uncomp
reopened
torture
overwhelm
monsanto
aust
boll
cu
roles
shir
##umet
##ipated
faca
recordings
973
##tilities
prevails
retirees
puzz
arrival
structured
recreation
charlotte
##lapsed
inflexible
kern
##teria
notm
alliance
procedurally
realistically
accountable
971
apache
enlist
facilitating
frozen
archit
abundantly
imprecise
lefkowitz
unworkable
soviet
kend
viz
##iday
##thal
appreciation
##imony
##uded
enquir
##acht
criminally
##iano
preserves
familiarity
empower
elaborated
amorti
supplant
lapse
consonant
horizontal
kings
##gence
##46
token
exac
##aming
shorter
desc
insular
offended
##insic
esa
hostilities
inno
approximate
ambiguities
strengthen
displayed
narcotic
contradicted
prerequisites
abolition
sidewalks
mcmillan
1a
jensen
sem
compart
invade
scant
necessities
retribution
approaching
morse
989
minded
deletion
segregative
literary
embracing
comparatively
annexation
correlation
innovation
wake
connot
isra
unmar
alimony
parr
recalc
twin
viewpoints
realization
979
1865
exhaustive
pronounced
impractic
lieutenant
omit
pb
adul
additions
encla
metro
malloy
infringing
cooperatives
imagin
deception
impractical
fluctu
##judicial
religiously
compensating
disclosing
1877
instructional
chancell
miscarriage
lexis
sibron
##ewitness
auth
tide
##aks
##octr
diverted
singular
vacuum
subsidize
handicap
troubling
redetermination
easement
eldridge
escaped
gonzales
ds
hier
nancy
##cal
##rt
##oria
seed
cooley
interesting
indoctr
39th
guest
terminals
flagr
misconce
eyewitness
schempp
destined
dishon
voyage
##ublished
pbgc
oust
ull
##vals
##iels
##41
exclus
##anton
percep
match
lob
studied
characterizes
functionally
quotations
broadcasts
3553
sevente
cognizance
animal
reparations
chancellor
fis
zant
ther
viewers
##arez
sykes
creative
lobb
solutions
segments
1304
ski
stephens
inextric
habitat
matthews
steele
bund
sisters
wider
##iger
exposition
contests
insulated
substitutes
bargained
arbitrariness
adjusting
successors
inequality
unresolved
escalation
graph
##rift
recess
offending
objecting
redund
mcin
downstream
releases
999
counterfe
calculate
entrap
plausibly
genuinely
pickering
wisely
antagon
strategic
fsia
lon
ply
tight
##uals
recoll
accounted
overton
locally
qualities
predomin
972
impairments
temporal
appointing
tolerance
succeeding
lodging
##smith
unpatented
hac
hicks
##ptic
##econ
##abeth
##ensibly
1301
regulators
legislatively
reversible
deaths
developmental
arbitrators
extracted
strictures
subsidies
detainee
borrowing
cubic
##heard
contraceptives
temptation
amusement
rush
tus
commencing
notic
arson
##ibi
spencer
##entials
output
standardized
sympt
doctrinal
maxwell
booker
holt
storer
taint
extinguished
poul
rating
slo
##marks
##rons
relocation
##away
lawmaking
##itism
corrup
plug
descriptions
politic
complains
negligently
licensor
guaranteeing
gros
gotts
markedly
eisen
screen
nonexistent
califano
hinds
precincts
volunteer
platform
abdic
kramer
mell
sisson
##ombe
noteworthy
##imil
chick
coher
decreed
amends
divert
boeing
directives
forthcoming
citizenry
1337
movements
sherbert
involuntarily
submissions
gamble
differentiate
recalled
misappreh
deserving
excerp
aar
ms
sin
##uters
##ella
weather
interruption
protesting
simplicity
unconsc
loud
daniels
suspending
feasibility
bands
endeav
absorb
whittaker
tam
viti
##tc
tour
prominent
##olm
byr
##ffel
encl
##raham
##mitt
benign
titanium
1006
945
occupant
1326
departing
walling
encompassing
wholesaler
duplicate
rapidly
wearing
mcgow
locomotive
eavesdropping
elizabeth
denaturalization
usurp
ble
##amy
coolid
##lick
assimil
idle
insuring
passages
subsistence
shepp
apparat
978
manageable
eighteen
greenberg
loyal
bacon
caught
reeves
abbott
stricter
coolidge
trop
tinker
xvi
##oms
##ilings
orally
##imer
abatement
congressmen
1201
boot
peoples
soldier
confronting
abandoning
camer
photo
wolff
clarke
optometr
traced
lehman
hurd
##iment
##inclusive
##arle
sew
prag
abiding
manville
charity
##iciously
reader
preval
devote
strongest
##recon
understandably
withdrawing
explanations
goldsmith
woodson
##igsberg
casinghead
##requ
##umed
infr
emphatically
suggestive
resolutions
buff
inquired
quotas
ceilings
exhibited
1681
installments
restaurants
elliot
tube
cuts
hint
exaction
comming
hague
coker
bob
##agan
systematically
lanham
freeze
mclean
please
curriculum
896
countless
predictions
contravention
protestant
clarifying
##aja
mosley
jes
pin
##rus
deed
affirms
creed
priorities
favoritism
1776
flee
pleasure
tyr
tickets
listeners
misrepresentations
sheppard
ip
kee
pound
##03
##atutory
underlies
bran
processors
locate
goodyear
smug
openly
alternate
assigning
motel
cope
professionals
burea
squared
constructions
abrogation
foremost
uncontested
##ivided
israel
##reconcil
atkins
contri
boil
commitments
forming
cram
1879
walking
possessory
circumstantial
feelings
replacements
quarters
surprisingly
reproductive
inadvertent
latest
barbara
inextricably
paw
wool
##rite
##kal
##born
##sely
##eton
factually
laboratory
stockyard
unpublished
preventive
extensions
noncapital
unquestioned
column
deportable
disallowance
conveys
abetting
konigsberg
aaron
mcgowan
kauf
ye
##but
##24
actu
unsp
weis
impasse
##actment
##guided
elk
descriptive
patrons
fares
wilkinson
moderate
irreconcil
singled
intra
996
bullock
##urbed
rebutted
kirby
correspondingly
sabb
phenomen
overreaching
pond
##yon
##izable
uss
fullest
arbitral
##insky
shortage
objectors
davidson
discouraging
tacit
contradictory
fpa
pistol
##amo
##ibus
affiant
confusing
offshore
eds
legislator
complainants
assigns
985
1075
formulas
mistakes
2283
barnette
concessions
symbols
girls
deceit
destroying
donovan
ogden
capitol
mcelroy
entrapment
rents
##utic
copper
confining
earth
terminology
backdrop
958
mitigate
promulgating
entertaining
wyman
borrowed
morrissey
visitors
pronouncements
clo
gust
hess
##ios
therewith
schm
brian
extract
columbus
vesti
1125
altering
reinforce
culture
tailoring
keith
sacred
females
culpable
recidivism
prerogatives
conspic
##franchise
warehouses
olympic
zenith
aec
bif
lac
##sing
##jo
speiser
broadened
1007
garb
consciousness
clinics
indemnification
fdca
outlawed
##laughlin
layoffs
frustration
undisturbed
eggs
eaja
moin
unified
##antum
quantum
finished
marry
penalized
feels
improb
morals
968
1013
cattle
bowles
projected
entrants
blake
laundering
recurring
##build
elicit
ride
flra
92d
conspirator
crack
thorpe
ineligibility
reproduced
rescue
interrogatories
dissatisfied
ostensibly
bot
##ran
##zes
##yall
##alo
##identi
##ados
alters
##ustomed
expulsion
mclaughlin
breard
91st
993
982
grew
subsidized
pacifica
messrs
enhancing
puyall
heads
consensual
embargo
puyallup
pole
push
engel
optical
moody
revol
fifra
esche
felons
998
alienation
wishing
crowd
domiciled
flaws
unexpected
##isclosure
heckler
naked
varies
##xo
atroc
grantees
deferring
impairs
3731
predicted
intimately
cramp
purportedly
germane
discernible
cells
foremen
rescission
eleven
elapsed
##cp
##rance
shack
servant
presentence
disposes
cream
playing
instructs
assertedly
upholds
wasteful
elaboration
whitley
##oza
annuities
cosme
elicited
wech
##mings
##afe
##orum
##arand
##anian
##stown
adarand
enrich
strained
commonplace
capability
lifetime
84th
892
962
robber
firemen
image
linkletter
canceled
comprising
wechsler
berman
eminently
##81
alive
##ayer
tru
firing
guy
prostitution
removes
conflicted
prede
980
experiences
precleared
carlson
portray
sequence
nickel
ea
py
tene
##entures
##ensed
infrequ
82d
adjoin
announces
unwanted
inquis
##lify
targets
theretofore
slaugh
stretch
impediment
zat
zimm
##rager
petitioning
evidences
norms
##etor
friday
drunk
fuller
richards
1132
1441
survives
illustrations
cummings
##ovich
decreased
switching
delineated
pronouncement
avocados
inheritance
buttressed
impracticable
noticed
csa
dot
stays
stump
##ired
##olent
disloy
spell
lang
meaningfully
distinctly
supposedly
mileage
olm
forestall
sentiment
amerada
zatko
ki
kitch
lund
stif
wonder
##kind
ina
##usory
##arden
verified
repeating
embedded
965
multiplied
compromised
intoxicating
definitively
mendoza
whiskey
lobbying
cel
mold
##ls
##45
##umont
implying
assent
regan
abe
presidents
shoulder
readjust
feed
brokers
accountability
1105
practicing
##rock
cautioned
aptly
farrand
dereg
pragmatic
hines
mount
##ci
seated
##election
##americ
shapp
impacts
##acken
##phane
##wards
habilitation
developmentally
consolidate
1854
##contrad
grocer
presumptive
eisent
klein
recruit
bold
otis
tum
##zze
##06
promiss
uncontrad
moor
barrel
retreat
##rysler
substantiality
joe
policemen
communicated
mullaney
1121
visa
departs
diluted
culombe
crews
rolls
advisable
##chief
waterfront
indeterminate
misdemeanors
promissory
uncontradicted
bass
cater
cello
##eties
##ulus
accustomed
corbin
baseline
dispatch
illusory
travis
vex
1017
1878
possessions
grav
1365
acquires
fitting
minimizing
rhetor
geographically
rebuttable
cardinal
vendor
european
moines
eisentrager
omah
russ
westing
##dy
##graf
ances
alibi
butter
permissibly
abate
finley
counting
conciliation
deterior
##atorily
improving
974
donation
conferences
kyles
##interested
##rowski
overwhelmingly
westinghouse
keny
lig
nathan
##47
##owell
neal
steag
burch
supervising
mccain
goldstein
portal
monopolies
unwillingness
triggering
discarded
fugitive
phenomenon
laches
##hem
##05
##erting
notor
teen
##etter
owning
referee
curs
solem
veget
tenuous
3626
analytical
wyo
grove
tolerated
shelton
wealthy
overlapping
assaults
dawson
np
chip
empire
provisional
roose
conducts
mcgee
chanuk
incidentally
sensitivity
usefulness
allotments
blocks
blocking
indifferent
complementary
antidiscrimin
eschew
zimmerman
cellophane
dut
wanting
##urc
##illi
firestone
elects
defenders
precondition
centum
errs
handgun
administratively
##velt
441b
utmost
golden
reconsidered
depositors
##isclosed
pel
tod
wastes
##therland
##unier
impressive
1000
procunier
cauc
synd
cftc
socie
antip
##affer
advantageous
documented
prayers
fragment
economies
wirtz
lmra
movie
expedient
roosevelt
ruth
##hs
##32
##uder
##tuous
##viated
usoc
##ledo
infil
upd
divested
socialist
faithfully
southwest
attaching
1821
nondisclosure
fulfilling
liberally
ocsla
csb
omnibus
nbc
unmarried
olmstead
chanukah
useless
##asts
appren
interg
compounded
##ounsel
rati
concurrently
famous
exclusions
elevator
oaths
fetal
gibbons
lyons
rescind
appreciable
scholar
indoctrination
gottshall
bifurc
henn
omar
till
##utably
commend
underrepres
aboard
exports
schn
42d
outc
prosser
##idental
handlers
devising
hardy
commercially
1881
frankly
telric
institutionalized
troubles
simultaneous
authoritatively
marquette
enquiry
antidiscrimination
intergovernmental
fled
##inges
stap
unde
oneida
implicating
1857
comprehend
mechanics
halt
nondiscrimination
bryant
adapt
dodge
unconvincing
dental
snow
tut
##dale
undefined
arrow
recycl
expire
marbury
screw
harves
identities
removable
1097
5219
revisions
sacra
pooling
torres
jewel
predictable
pestic
hitchcock
irreconcilable
lading
##22
##entic
##ouch
undisclosed
##acher
carload
marketed
clergy
##redict
legislated
organic
traveled
disagrees
staying
desiring
unpredict
packaging
adherents
shaped
wolman
picked
haynes
polygraph
pamphlet
nrc
nonstatutory
apparatus
omaha
ratios
fca
hig
tang
##side
##lman
##entes
exerted
##ula
commenting
parity
cornell
timeliness
majors
secondly
fringe
annals
penalizing
discusses
testament
1041
unsafe
preempt
##itzer
tactical
avenues
discontinue
maximize
huffman
fence
##browski
seizing
##tini
chilling
brac
nonb
##shot
broke
illog
uncounsel
##box
catco
trademarks
efficiently
disclaimed
detached
cch
mish
tomp
anch
sealed
##user
underpin
recounted
subtit
##ibles
defence
responds
elusive
interposed
surge
1016
panhand
emerge
laying
dombrowski
franchises
voices
ascertainable
inconclusive
lockhart
wiretapping
cafeteria
tompkins
fasc
gm
tar
##tly
##anan
bylaw
disinterested
##lak
defiance
pref
landf
curious
misled
grandy
campus
crash
winning
conservative
disobey
andrews
embarrassment
beaumont
presupposes
skinner
inventions
receivership
panhandle
nur
##31
hereof
serviceman
pace
landgraf
northeast
adjudicative
1034
unsecured
beneath
larry
motivating
poison
crowell
undercover
linda
pearson
nicholas
nominees
fostering
010
lilly
##uro
forge
orange
##fford
invo
insider
transl
clem
refute
schoolchildren
##statement
irwin
impropri
instructing
##apeake
1302
1391
delivering
1738
incurs
interviewed
quarrel
reargued
chesapeake
bans
ler
nda
##rain
##gson
style
##ulc
##ulators
consulted
shadow
heed
pern
##emarle
royer
calder
avowed
remedying
##privation
mischief
mci
airways
respir
1056
listening
clerical
bedroom
monday
albemarle
buch
hens
kre
##wart
inse
toledo
coach
inculc
depth
closure
bened
blow
severable
executor
populous
olds
1040
memoir
global
delim
pervasively
habitual
hodel
dissatisfaction
unsettled
lobby
buffalo
adjoining
uncounseled
##mouth
##cey
##stock
proli
excell
seal
##uster
10th
##ems
20th
##agne
conduit
##enthal
anne
laun
divul
##lux
##rehensible
owens
haley
blair
revisers
catalog
kirkpatrick
climate
kra
sind
torn
##nie
stories
unass
tea
esco
franks
parolee
effectuating
consciously
yields
hansen
excerpts
cd
dies
dark
manc
sar
wards
zerb
##89
##iture
##itates
retr
fortu
pari
dozen
secures
phel
herman
dismissals
surgery
##ommon
potts
crane
impairing
1144
dependence
probationer
ascertainment
monopolization
pharmace
intercept
contrasted
adamson
rick
##ires
consents
aged
complies
perip
equated
ministers
briggs
earner
1025
1111
avery
midterm
augment
affiliations
1513
disqualifying
unborn
troubled
invidiously
##umbered
neighborhoods
nonparty
barclay
dissolve
nonwhite
smugg
slaughter
cursory
lag
moses
nga
rising
##haw
thrown
##estim
##ece
computations
intensive
##via
plastic
timothy
overc
warth
eviction
separating
dump
crossed
teachings
sanford
reimbursed
effectuation
hawai
nullification
explored
alderman
laundry
uncontro
curtilage
gentleman
mortgages
imperfect
cda
eha
lub
rata
vand
##iency
##lon
sheds
elrod
refine
##pace
##rists
crossover
extraction
settings
immigrant
complexities
independents
owes
documentation
fishermen
fdic
unintended
cunning
vocational
leverage
tenets
kenyon
zerbst
bk
jet
moth
meck
tamp
vision
##anna
disgu
apple
##amiliar
chipp
lethal
grin
equate
scrip
reverses
##cester
1104
scrutinized
coastline
uncommon
sensibly
hampton
shaping
keeton
christians
neglected
##owski
fulfillment
italic
diplomatic
4a
kov
pause
sant
sail
tall
wulf
##has
##power
##iscer
##ura
unear
consulting
gram
grumet
purse
matching
refined
guild
eviscer
broadest
farming
misbrand
communicative
waives
unfamiliar
mentions
constable
1850
dispositions
yielded
contemplation
shops
households
rabin
demeanor
compartment
mt
sr
yon
##gant
##44
##aton
rex
sects
providence
boats
appealability
resolves
depositor
##donald
fuentes
psychiatrists
inexor
resembles
mcnabb
undeniably
suddenly
pernicious
dw
gte
ivan
rend
tec
wives
##ders
##erty
##ilove
##ionage
nob
##romberg
cooke
gras
obviate
acca
certifying
addiction
transc
informants
substituting
justifiably
fullilove
surm
measur
definitional
technologies
robust
1333
reorganized
1141
collaterally
assemble
##ertz
mackey
widows
bayview
carlisle
victoria
celebr
conjecture
nullity
joyce
bpt
rita
txo
##rand
##hed
##arco
##amen
cool
repris
purposely
lesson
premed
##pired
unfit
debatable
succession
liquors
espionage
arrestee
soundness
cohes
vastly
macdonald
indisputably
gradually
clothes
discontinued
nonjus
recalcit
tuscar
memoirs
hond
tv
um
##eat
##fa
##gam
##anahan
impending
abington
practition
wilfully
mcguire
##payments
moran
quote
jane
mullane
easter
shipbuild
##ographical
##farb
1842
palp
benchmark
theoretically
codefendants
ministerial
incongruous
hawaiian
nonjustic
herald
pitt
##bag
thur
rever
disen
recount
careless
##ulton
##osts
issuer
caption
handc
sheer
waiving
advertised
regularity
panels
poe
neighbors
subordinated
##interp
riot
gratuit
captured
ussg
gau
gille
sate
ssa
tables
##eer
##icting
reent
forget
##lap
paris
chatt
##ensurate
##emies
accre
discredited
roof
merge
loving
milton
patentable
1055
majorities
boyde
1605
worthless
bags
christianity
carpenter
atlas
wesberry
inviol
zobrest
exacerb
descend
sabbath
dna
gome
hed
##anging
interrelated
becker
verification
challengers
caps
patri
78th
grantee
aired
1342
negligible
knife
auditor
theaters
honorable
lenient
champion
##lenburg
insufficiency
nonretro
mecklenburg
yonkers
3a
pap
##gging
##35
##99
##acon
##ousal
defray
depression
violator
transcon
##istry
edition
edmund
salutary
infected
turnover
1018
1863
hung
blocked
acquiesced
relaxed
handcuff
satell
crop
dal
jav
##nick
##itous
##ewa
intermitt
replete
minton
friction
serge
distortion
witt
communicating
vacancies
1103
occupations
intimated
ssi
hamdan
intricate
replacing
7a
fic
lone
anx
undivided
artis
discred
howell
1401
informs
qualitative
1973c
1010
deferral
winters
ranks
disorderly
aeros
scotland
mothers
grinnell
italicized
gomez
bic
heller
ts
##ati
##will
##bra
##het
##jan
##eson
bethle
##adden
unob
##quin
resisted
parad
composite
decennial
effecting
erect
mainland
tremend
presumes
helping
goldfarb
domination
somewhere
talked
##aughton
irrespons
proprietor
diagnosis
hutch
salvage
marcus
npdes
cunningham
bethlehem
bless
gin
##cri
##produc
thwart
##thes
##ulously
enemies
chal
##liances
undo
importer
##ivity
carrington
infant
farther
dismisses
mccoll
seventy
##thetic
alcoholism
revolutionary
flet
gertz
tilton
vw
##zo
##leader
imperial
willard
dirks
misinterp
traum
##auer
potato
unfounded
banner
1114
1819
hybrid
vitale
mansfield
disbursement
fdf
absorption
troops
rummel
reinforces
relinquish
crafted
adolescent
fibre
bos
dand
jews
lass
mak
za
##isch
bean
##tson
interaction
peak
abor
incont
##opers
coram
separable
johns
summaries
burks
1015
1031
frauds
1060
1162
skelly
images
software
1651
protestants
sheriffs
hayden
regions
optometry
resentencing
fletcher
naming
tag
##iors
##ectivity
##ira
##akos
newport
##ritten
verizon
colgate
analyses
voluminous
##alez
precedential
problematic
1882
##onesty
1069
ballard
1081
voiced
invasions
rubin
intoxication
masters
ernest
authentic
ancestry
nab
ti
wl
##eco
##urice
asarco
seques
subro
importing
opa
polling
20a
lessening
distort
proofs
conceptual
pertinency
1182
1793
brands
manifestation
##anny
surveys
warsaw
lecs
engendered
clemency
blam
##edes
##isco
china
##awanna
intending
plaster
overpayment
scatter
demurr
earl
correcting
predisp
combining
multitude
copying
innov
1833
boren
chemicals
hopes
inducing
eccles
infirmities
tanker
justiciability
rehabilitative
benzene
architect
bottle
grocery
boun
sket
umb
##02
disaster
grutter
overheard
fah
calib
injection
shea
excusable
debentures
1022
holly
1226
owcp
characteristically
magnet
abrogated
nonconstitutional
gaining
##oven
##die
##flow
##yne
sutherland
##rigan
antis
seym
##usal
deck
subpart
butts
quit
cercla
deprec
clearest
precep
candidly
inquiring
worcester
debated
pacs
aggravation
1153
hospitalization
puget
ninety
accidental
prayed
exhibitors
disavow
subtitle
seymour
baz
wenz
##hal
resorted
statehood
leather
##teakos
decent
recitation
trends
handful
executory
surg
swain
goldman
dilute
hypothes
tolled
alexand
distiller
reproduction
kotteakos
untrue
schmid
blakely
liggett
chippewa
dandridge
cv
hick
iol
peck
##mal
##itating
##aniel
stromberg
commissioned
##riminal
doesn
scouts
##nessy
varieties
validate
traded
departmental
##inski
demonstrable
##umbers
backed
flores
downward
1028
1070
emerges
stipulations
sponsorship
sunray
monopolistic
concealing
donaldson
inadvertently
insolvency
sterling
brooklyn
redundant
leroy
fulton
kap
reich
##ostic
perlman
##efer
dioc
depra
oppression
businessmen
dras
billing
pursuance
995
1129
susan
1855
packers
strengthened
constituent
disproportionately
thornburg
constraint
duplicative
holidays
jurek
lafave
postponement
poultry
sewage
unspec
##pps
commensurate
interrel
impanel
perverse
mayn
##occ
moe
depu
brick
displac
infinite
repeals
calculus
1997e
gilmore
##bedo
subordinates
curtailed
obstructing
frost
comprised
dispensed
confederation
enlargement
experimentation
##charges
scruples
jaffe
dynamics
improbable
escobedo
nol
sax
##mans
##tinental
shaugh
ordained
policing
handw
demonstrations
southland
##boat
relieving
pools
closest
contravenes
kerr
hensley
phelps
grasp
fibreboard
wenzell
shaughnessy
bays
vance
##rants
##buck
##33
##tists
tofc
disres
##ulable
##elling
persist
##reatment
monte
maurice
restruct
accountant
patentability
aggressive
bookst
accomplishing
fraudulently
appraised
estopped
spokes
undeniable
insufficiently
philippine
queen
recollection
atrocious
tuttle
alexandria
bap
dat
ucm
##tie
forsy
##imilar
shee
chrysler
sylvania
calvert
codify
waterman
1053
1064
1384
1674
manifests
confirming
2284
ripeness
avena
overlook
absorbed
confederated
needlessly
dredge
ceremon
pottsville
ucmj
##sby
##fied
##tity
##eder
##utaries
coin
mead
subclass
repairs
usra
monument
blat
redef
chaplain
1030
1051
palm
unemployed
6063
croson
trackage
entailed
dowd
jacobs
nullified
proscribing
apprised
sympathetic
rewrite
satellite
ast
fallen
ies
##pen
##gas
##asting
stov
##idal
##ucid
agos
##tyre
prescriptions
discourse
transpar
nonpayment
colville
occidental
continent
mainly
##pati
vaca
mccr
humane
accommodating
1803
hyd
corroborated
tanto
springs
disseminate
reiterate
tortfeasor
bmw
kovac
drastically
stovall
jenc
wip
##ints
##rition
##ersinger
leo
##efeller
##opher
overhead
classifying
##judgment
discrep
##legiate
strife
argersinger
rationales
##ashi
prejudices
1029
1072
eighty
misconstr
foreclosing
rockefeller
installations
borrower
hesitation
mcclanahan
reservoirs
tonn
ingredients
mcdaniel
sickness
handbills
exemplary
peyote
flagrant
sergeant
5a
hald
sain
##80
whim
deve
severed
##raft
affix
precious
witters
indianapolis
louder
swim
inheres
irrebut
##racial
cultiv
samples
spector
mcintyre
steagall
nobis
artistic
tremendous
aqu
fung
sits
yca
##ns
##tles
##enko
##irc
##osp
##amous
sha
shorth
##ardi
##unity
exportation
respondeat
##entio
1400
maher
busing
worded
originating
tributaries
balances
armies
armour
1027
understandings
1146
midland
imagination
summarizing
conscientiously
repudiate
trailers
amorph
reenacted
avocado
episode
bureauc
cosmetic
jencks
hul
lect
nant
##86
##bourn
##trained
spaw
##enner
##lesinger
edmond
connell
warranting
educated
helms
##otex
silentio
nearest
youngstown
1824
breaks
willfulness
unpersuaded
incapac
incapacity
sweeps
wolfish
imbler
hierarchy
aerospace
amorphous
klux
pion
##enfeld
forged
##utt
dew
underground
implements
necessitate
necessitated
appearances
goodwill
interpreter
exchanged
tenable
grievous
shotgun
irrevocable
bribe
corrupting
commingled
celotex
dust
ila
rf
tin
##roken
amal
amos
recap
##oinder
schlesinger
outlet
formality
##hibited
broaden
childhood
typographical
singer
jean
1019
browning
jeopardized
accommodated
1845
1828
sandstrom
##iello
widmar
mortgagee
unbroken
latinos
disorders
babcock
digest
axi
fictitious
surgical
iolta
agostini
kore
vain
anes
##elin
allison
discriminatorily
penological
completing
solicitude
lackawanna
embez
1021
disabling
vindicating
vindictiveness
glover
accruing
cruelty
feres
checking
diminishes
refugees
luther
bolton
jaffree
pyram
shorthand
embezz
cus
woll
##pca
##minence
trump
##oder
abraham
scher
syl
designating
waterways
attribution
1791
##petition
lsc
fwpca
##rtcy
bkrtcy
disrespect
cession
wing
##orr
##thorne
delaying
persisted
##ollone
##prac
universe
devast
chapters
1050
##sette
3730
2021
sanitary
##lette
braden
enlisted
segregate
##annon
fiduciaries
fleeing
uncontroll
fertili
clinton
##keeper
weinstein
transformed
elderly
indulge
lingu
cipollone
relegated
coherent
shipbuilding
anxiety
maynard
kovacs
amalgam
keller
vint
##light
stanton
##aces
clash
17a
##manage
dissimilar
##urring
monies
nonmin
1798
undermining
modeled
ferber
mislead
refrained
discerned
micro
wickard
ritual
tecum
ah
hays
ps
taps
wend
##uate
##states
##abbed
quorum
abood
pless
##iful
violators
clearances
scan
##arton
faretta
writer
repetitive
registry
mailings
equivalents
meritless
slave
intermediary
bryson
celeb
pamphlets
impropriety
buchanan
transcontinental
eman
hidden
neck
rat
##town
##ja
forman
sewer
unbrid
##lihood
undergo
optim
stranger
failures
distributions
vacant
watts
1020
furniture
gainful
anticipation
truckers
repealing
mcfadden
artificially
spiritual
exploit
sampling
darby
shocking
laughlin
byrd
boss
hole
pell
##97
thwar
##ani
whar
anew
##tering
appliance
incred
finish
1100
oversee
##icians
foundations
nonn
harbors
meantime
suspicious
freedmen
churchill
extraordinarily
rockford
mixture
shields
lujan
bacch
redeeming
chenery
exclusivity
graphic
escheat
lundy
unbridled
##tor
##fold
##terior
comstock
adt
chill
weld
##establish
lift
ratifying
##tism
collabor
belated
1038
livelihood
rosenberger
dickinson
pigments
lsd
forsyth
lamp
##eney
##illar
##ellin
regim
provoke
##week
annul
initiating
##istered
marshals
phrasing
1057
picay
unprof
##iffer
apportioning
vigil
divergent
beverage
uninhibited
hamdi
unjustifiable
seventeenth
vestiges
gom
mild
##nor
##oot
##42
tower
beth
beeper
##tings
haiti
subvert
impute
##keters
##enness
strat
policyholders
##umbr
vein
fishery
1336
1152
1221
embodying
detainers
palko
##termined
lifted
mcdowell
reparation
kaufman
apprentices
troublesome
benedict
rabinowitz
bacchus
picayune
cp
gag
ib
lights
maps
ridge
sper
##gates
##teries
ammun
##tainment
sufficed
buses
opposes
##itorial
embass
transferor
multif
garrison
anticor
weighted
1451
pike
reforms
discouraged
lyon
romero
displacement
carbon
pharmacists
indiscriminate
fascist
unspecified
fica
vel
xix
##oval
stokes
foreseen
diseases
##chers
healy
##licensed
##gher
vieth
spark
aber
abilities
14th
indicative
suitcase
tribune
medellin
wilko
invalidates
intrinsic
walked
1112
criticizing
wygant
##iterate
unrestrained
fitzpatrick
draftsmen
zeal
keeps
todd
screws
illogical
demurrer
ammunition
hug
ith
maker
venti
##fast
##40
##7v
##95
unacc
hether
anybody
impunity
obli
obste
informational
verify
##tillo
trap
faiths
occupies
intimation
branded
persuasively
ecker
frag
wagering
bitter
drainage
forgot
commonsense
envelope
cruzan
jesus
depraved
datab
obstetric
9a
bact
ceases
dta
fun
moul
unad
nobody
replev
protested
circulated
legislating
##astro
##ultz
##sons
formats
colony
secretaries
contributes
scrutinize
1068
1316
psychologist
1503
burned
sandoval
nineteenth
camara
christopher
rentals
inequity
sidney
manipulative
resemble
interdep
wires
pulled
strains
stabilization
bylaws
nonjusticiable
mccollum
kaplan
tonnage
gomillion
anticorruption
ath
othing
##pard
atkinson
detract
spousal
congresses
purdon
##opath
instituting
proscriptions
enforceability
ironic
recovering
1196
expedite
expediting
appraise
superseding
eroded
stigmati
conspire
udall
unpredictable
plessy
gomp
mcl
nia
pir
##kn
##pro
##icular
stale
unapp
paraph
interval
arab
recod
recomp
countenance
rightful
confid
displaying
nonob
postjudgment
connect
63d
misses
##ologically
1033
1344
helpless
knox
inferring
2314
roebuck
checked
pedd
mccormack
uncovered
javits
gompers
fanc
oah
wra
##df
##ben
##uity
##eno
dear
chines
coch
eric
interpretative
takeover
wilbur
murderer
1102
knight
worldwide
1191
defeating
sustains
strait
impartially
aggregating
shielded
baggage
stricken
intoxicated
tips
denominated
loudermill
irrebuttable
chinese
bfo
benton
omits
##eu
##wander
##93
##erte
##leton
##vern
deeds
hey
##fications
importers
corre
##metry
posner
transameric
simpl
callery
chargeable
1052
1054
multistate
prohibitory
clifford
pretty
rebell
constructing
shoot
surrounded
nominate
mfrs
interrogations
brutal
unregistered
trustworthiness
kendrick
##economic
devastating
bfoq
cn
gol
kev
yoder
##educ
##arc
##anties
commuter
##anson
genesis
##emen
specter
directory
misguided
stir
forceful
branching
1115
pretense
guarded
bidder
##winn
lynn
expediti
photographic
neglects
levies
seasonal
evinces
strangers
darden
eph
sara
##nected
##mony
##yards
##91
appliances
arena
anyway
##ountable
broadrick
arbitrability
terminates
convening
airbag
continually
1067
reorganizations
1858
1321
explanatory
disciplined
excessively
##antile
bloom
ashwander
utterances
endorses
lasting
paternal
improvident
fronti
consignee
moulton
buc
rises
##gara
##60
unal
##chin
resorting
shal
chest
areeda
abc
obso
criminality
ervin
excepting
collusion
shepard
hardison
divine
1229
walls
equivalence
convinces
manifestations
preex
pertains
prospectus
steadily
leniency
desegregate
branzburg
expeditiously
obsolete
goss
nac
tion
##aquin
##sis
##heral
##edith
toy
stro
wharton
anad
chlor
##rae
##ortable
prepaid
marvin
purposefully
nonad
meredith
entitling
smoke
traders
convicting
shevin
94th
1861
1035
bangor
madsen
quarles
mercantile
thornhill
rosado
perpetrator
flyn
gonzalez
##ernalia
societies
peripheral
paraphernalia
bath
huge
##fi
##wich
##jean
##riger
impeded
trick
expost
contesting
schwinn
nonin
salient
lessened
joaquin
summers
milling
##eva
fixes
murderers
unnamed
wald
1074
1071
1079
alienage
convincingly
levine
checkpoints
overturning
inconvenient
proponent
underscored
migratory
hazelwood
chadwick
unearned
cia
rcra
##bie
anonym
##ppa
unlicensed
impounded
congru
faulty
immense
editors
wilkins
socially
1063
1095
2515
1083
1322
1412
minimized
squee
anticipatory
fuerte
reaffirming
scheduling
comparisons
whitcomb
superintend
rowe
curtiss
##franchisement
outcomes
scattered
niagara
fanciful
bour
holl
lur
##iken
##pillar
stub
beating
disbar
compil
opens
procter
pollak
##version
brain
reliably
##pherson
roan
80a
forcefully
potent
settlor
curry
nationally
persuades
visiting
1382
diligent
jeffers
deviate
thornburgh
accumulation
recklessness
hurley
misapplied
synonymous
graduate
reexamination
abnormal
readjustment
caterpillar
rebellion
bun
ceding
fry
nra
##frey
oft
##otted
##usi
shear
recites
exposing
supplements
outlying
config
dispel
rochester
orig
loew
urg
formulations
criticisms
livingston
husbands
utterance
godfrey
electron
distillers
parliamentary
earnest
relitigation
retrogressive
prolifer
halderman
gou
tipp
##utical
##52
##51
##sets
##andy
parens
parado
ard
reprehensible
tries
usery
##phen
periodically
miscell
devotion
sanctity
smallest
noncriminal
condemns
stresses
renton
admonished
wheeling
economical
prevalent
deputies
paradox
jul
rash
##fus
##uments
disas
##enda
parke
compacts
compounds
##ocument
grading
cave
hereunder
sym
interpleader
mcga
brewing
futa
recoveries
1037
squad
inspected
contemporaneously
gerstein
indisputable
journalistic
inhibiting
listener
deportability
inescapably
sorrell
europe
scheiner
assailant
enlightened
exaggerated
anchor
inseparable
pharmaceutical
##occup
roanoke
##ocumented
gub
nord
ute
yam
##tl
##uer
inim
##aser
##asti
##uration
proph
##thought
imputation
spin
provocation
dams
grouping
69th
morally
runyon
professions
1319
1851
1305
accrues
imagined
inventor
solicitors
tydings
massey
remitted
schmidt
preexisting
gor
##cott
##din
##zy
towing
cous
undocumented
leary
trumb
allis
elucid
overnight
wellhead
principals
endless
wilkes
settlers
burford
metaph
1023
2511
formalistic
newsman
liquids
stoppage
boxes
girard
distilling
combatant
wrongdoer
coeur
leaflets
ceremony
quantit
testamentary
ecclesias
anesthes
kevin
trumbull
geller
lender
lark
nap
romp
sass
##rum
##heed
##ouched
proffer
fool
repose
equivoc
redist
justly
registrants
1061
conforms
effectuated
breakdown
condemning
burglar
addington
lockheed
bituminous
veniremen
disappeared
forcibly
seldin
converting
eradicate
grosjean
mellon
incontest
inimical
gree
hust
pdf
##mott
##88
##uously
##alli
stats
##elow
parden
metic
spelled
##utha
insight
2101
douds
revoking
patria
##nery
executions
irvin
enacts
mandel
balder
salesmen
##eville
93d
sanctu
silk
1042
1049
evaluations
radically
1137
1307
inadequately
3742
badge
6511
fleming
tolls
wetland
jacobson
profoundly
unimport
confiscation
parratt
gratuitous
chalmers
embassy
mcgautha
quantitative
ecclesiastical
rompilla
balderas
denti
hide
##82
##idable
fortson
##rira
parap
amass
underestim
spill
mooted
carm
purpa
adduce
sometime
iirira
conducive
civilization
##lander
candor
remands
construes
murdered
1043
1124
sounds
##borough
plausibility
gotv
oscar
mercury
weakened
##orporate
diagnostic
unintention
blumstein
siegel
indiscriminately
derogation
paradig
aes
hmo
kl
klam
nw
rol
sway
vin
wield
##gmann
##6v
inordin
##itting
disinc
unans
alv
engin
parked
lawmakers
regester
repos
trips
##berman
##acking
denig
##erness
demise
connally
distorted
modifies
1491
formulae
exhausting
hyper
futility
structuring
frustrates
grady
canton
lasted
relinquishment
cuy
gubern
patriae
klamath
6a
ay
din
frit
ragen
sty
forests
##acle
##esson
resigned
##ousing
##ancc
evidencing
##rible
##isdiction
##etus
refutes
barlow
processor
formidable
##ritzer
privity
mostly
burdine
everyday
witnessed
identifications
demonstrators
##cox
vacancy
swancc
unsc
1325
1832
treasure
forwarded
henkel
facilitated
christiana
##afee
unbundling
lamb
deceive
fingerpr
robberies
gubernatorial
a10
gest
gault
kane
##ski
##had
revel
##aced
##olics
##andering
##amination
castle
##oga
mats
roving
##prising
detectives
##ermann
pickets
1334
espoused
1099
##quez
1087
1837
1849
1526
blame
predictability
ramifications
fabrics
constructors
endorsements
cautious
catchall
nasa
irrevocably
otter
organs
scholarly
recalcitrant
##patient
uncontrolled
cres
kress
oy
##uation
##hsa
##err
annot
notifying
weaker
wouldn
quir
abrupt
intang
##viating
1800
##gert
thence
cripp
belies
prohibitive
95th
succinc
1383
mirror
hamper
generations
contingencies
tolerable
tavern
ranges
catholics
cuban
volunteers
duces
sloan
bifurcated
fiat
iep
lau
rican
##63
unity
meier
intest
somebody
equation
##erner
sciences
readiness
communism
median
upshot
adverted
swear
motorists
unsur
malprac
1232
versa
versus
enhances
1464
conveyances
heavier
cleanup
positively
csra
vitally
inadvertence
sedition
celebre
refiners
discredit
intangibles
gould
gyn
hers
rib
sink
##23
thib
intu
##icab
antif
appended
##antan
weems
perme
spritzer
taxicab
dissip
dispers
erection
reception
programmers
variables
aides
1039
eighteenth
exemplified
registering
newsr
generis
touche
hoover
deficits
polygamy
uncontroverted
gillette
replevin
larkin
gott
hither
rnc
sable
ted
##hf
thesis
inroad
reap
prosely
aspir
dea
adec
##ante
computers
subset
tran
1300
carson
bram
disprove
extre
origination
brock
misj
superiors
trusted
distributes
residences
forthright
aggregation
sharpe
swall
garment
1839
frequencies
inconsequ
indefensible
hardships
dedication
mckay
silverman
honestly
xxvi
sentiments
resignation
jonathan
bounty
miscellaneous
##onstr
##aria
##rea
exactions
abey
marking
strenu
precau
retried
suffolk
stealing
engle
players
pene
distances
punishes
fein
myster
models
##locked
bump
influential
1109
1792
comprehensively
conforming
020
hyphen
halls
harvard
keyes
seatrain
priced
keene
touched
7403
friendship
disfavor
untouched
##hardt
interrelations
precautions
slop
sten
##chner
##fortable
##estar
quinn
spur
##enck
mov
guantan
scr
critically
lessons
redraw
mcrae
habits
1862
##operative
pierson
sunk
safeguarded
gradual
inconsistencies
economists
corroboration
reconciling
ignorant
echoed
garbage
excellent
wharf
malpractice
inconsequential
abeyance
guantanamo
iad
riv
uch
##rda
##uel
##ught
##5v
##61
##otal
##rian
##usen
haslip
##ghten
permissibility
##uley
##met
barren
salfi
infamous
fallacy
armco
marchetti
councils
pugh
pensions
cutoff
##market
031
##burne
lux
csc
samuels
conveying
lmrda
retrogression
sodomy
enclave
perceptions
irresponsible
hitherto
##iker
aclu
wasn
underg
cohn
##ums
presided
##erved
geneva
twining
outline
afterwards
##apor
cleared
dispat
controverted
##uncture
demographic
counselor
moragne
1118
measurement
advertisers
newsmen
layman
clarence
musical
mcnally
diaz
steady
quarterly
sacrament
fertilizer
regimes
cochran
bing
bread
fow
hyn
kiss
vick
##87
##bound
therap
reemploy
reactor
stenberg
##immer
##ighter
##raid
reciting
grams
insert
administers
steffel
colson
participates
textbook
substantively
bonded
1024
1127
1062
infringer
1089
1409
noncitiz
riggins
pickup
shuttles
delineate
migration
fractional
spont
reinsurers
frisk
ullman
antagonistic
enclosed
handwriting
unimportant
lighting
mike
##ifer
##iological
##hut
##gall
##justice
##isman
##urisdiction
resisting
##ainted
cog
##licated
expropri
confuse
ppm
selections
handler
totaling
persuading
nondis
burnet
deadlines
ranked
expedition
grayned
hesitated
fatally
assaulted
observers
unjustifiably
floyd
ged
lomb
worn
##enched
##ashing
##rier
distr
noon
underinclusive
carn
plight
respectful
solved
backup
frey
helicop
1345
rehear
1133
afraid
1443
1222
sanctioning
1211
perpetual
interlocking
topic
mutil
philosophical
underscores
lips
##identified
beanie
sheets
transamerica
sassower
gynec
interrelationship
oig
##erity
promp
headed
impetus
qua
savan
##retti
interpose
burson
##cript
felix
organizers
councilm
eastman
truckee
harassing
rodgers
lorillard
##inetti
kras
creature
enlistment
landfill
tornillo
pyramid
shuttlesworth
lud
nder
sos
sba
wiley
##atibility
##vo
##hear
##inos
##isi
beech
alberts
subordination
incurring
defends
##mble
clearing
prosper
entitlements
superficial
accountants
acquaint
hardware
jump
1255
1126
drives
1303
tenney
glad
durham
redressed
partnerships
triggers
merck
summarize
pledged
canvassing
misconceives
stumpf
antipsych
proselyti
misjoinder
dich
kamp
lut
##wild
##gger
##antine
##ully
resume
resumed
compute
expects
remonstr
plas
maricop
servs
desertion
standby
clemons
barker
##urry
probabilities
nonrec
enforces
variant
devil
restated
booking
1065
1363
mentioning
1312
##mington
incumbency
wooden
caminetti
cabinet
mercoid
rusk
indecency
lovell
airplane
skeptic
rhetoric
##urisdictional
maricopa
dying
ej
jar
##83
##62
##oton
stuff
ascribed
##iginal
##abash
conserve
heading
impressed
triable
counters
regulator
schmer
estes
ministry
roemer
benefiting
recogniz
vera
landis
enduring
reservists
1123
possessor
garland
1142
mortality
pregnancies
criticize
auditing
verner
relinquished
champlin
desegregated
destroys
xiii
explosives
bolling
symptoms
infiltration
equivocal
crescent
skepticism
hile
nit
tone
##lance
##boy
##77
inverse
straud
##olia
atwater
leap
cogent
nem
spends
presid
setoff
systemic
veracity
equalize
mcne
duff
deeming
adjunct
outsiders
1026
1106
awk
occupying
avert
cataly
indemnify
lodestar
lockout
barely
contravened
reconciliation
vendors
schneiderman
unhapp
gateway
follette
proclaimed
script
restructuring
forgotten
flynn
celebrezze
antipsychotic
schmerber
strauder
hull
juncture
olig
##rate
##rad
##hler
##gian
##90
inches
##outing
##leas
##omination
coupons
forgery
alban
cobb
imperson
imprim
neat
sport
schl
usages
15th
##phone
systemwide
counselman
articulable
urine
offeror
shortcom
vicarious
conceptions
welcome
jerry
alterations
1236
garage
##inthrop
flowed
1082
1852
hammond
sweet
castro
strikingly
parallels
glasser
fraught
ventures
garden
ramsey
captains
unconditioned
indigency
amortization
vintage
shortcomings
mbe
nong
piv
winthrop
zwick
##isition
notable
impugn
quest
procompetitive
##ancock
equals
mcpherson
lightfoot
offerings
releasing
friant
1330
3729
1131
mirr
wineries
touches
subcontracts
613a
diminishing
offsetting
incompetence
dominance
luk
mckesson
##million
jayce
baxter
##stadt
##lapse
nabrit
incredible
anonymity
sacramento
awkward
imprimatur
hancock
ric
##nik
##fts
thi
inner
prudence
compositions
recite
allan
abh
abduc
remun
##llan
matto
simplify
loop
##ahala
pointer
motorist
draper
1044
bulw
pretenses
1502
worthen
stemmed
editorials
remarkably
defaults
illuminating
lingering
excerpt
choctaws
gentlemen
nominee
brewster
paraphr
naz
##mountable
##ai
##xtual
##eska
notation
##ayette
artists
compound
##estor
spare
exposes
procuring
poland
##eyer
reviser
6501
##shr
wilful
trees
investing
wrtl
insurmountable
##auff
morale
unreasonableness
robbed
detailing
picking
alongside
glenn
analytically
weinberg
graduation
dialogue
lafayette
terrorism
mishkin
hugoton
tranqu
aly
ges
hinge
kemp
##bian
##esville
##riend
exon
resurr
commutation
##andra
##ectarian
copa
meals
impress
impeding
assoc
1200
chart
betts
signatories
verb
frat
landmarks
##aired
negates
##ralik
pointless
feit
##aug
ohralik
ensued
registrar
1088
1324
nineteen
magnolia
inequities
rubric
nonsectarian
inaccur
eagle
tunnel
tumey
misbranded
tuscarora
potatoes
aboriginal
##ircum
nantahala
correlative
unsurprising
fowler
jaycees
1the
ake
bent
bess
crom
celler
density
lays
riding
yar
##fman
##84
##55
##otomy
unl
##endale
##uding
shank
enf
arsen
##usted
butz
abel
##ensated
contamination
carved
marg
maneu
insti
nonvi
assistants
##swick
contemplating
##asky
burt
combines
metals
averred
maliciously
attributing
1084
1853
henceforth
1831
1830
1531
multiplicity
hawk
clara
manipulate
charleston
dredging
endeavors
intermittent
compilation
cage
gaps
zor
##isers
##asaw
seag
unidentified
##rape
##ghan
maybe
relator
cloud
1601
calandra
testifies
critics
docketed
conductor
##essional
similarities
performances
transports
singles
capitalization
letting
runoff
1120
expectancy
##bridge
1086
1181
greenwood
1381
1359
suspensions
sponsoring
windows
slaves
differentiation
startling
boxing
fraz
perjured
apprehend
intimidating
reexamine
granite
airports
oxford
succinctly
mattox
dre
tear
wacken
##lass
thread
chavis
emporia
baseless
plates
rightfully
circulators
##unders
noninter
nonimm
captive
mainstream
arbitrable
mccle
recommends
1045
tenor
1239
navigational
willingham
birds
facilitates
hewitt
stephan
frothing
munson
transmitting
nonpartisan
stimulate
puzzling
optometrists
tyranny
ginzburg
wackenhut
kol
kla
nug
sided
vene
##horn
##27
##pitude
##jr
thri
disj
##tino
willis
schine
safer
equating
29a
harb
specialist
obligatory
wilmington
modem
misbe
1973b
variously
mott
donated
achievable
daven
1295
probationary
impeached
distilled
surplusage
obeyed
tankers
turpitude
abundant
pesticide
overcrow
blatant
caveat
alyeska
frothingham
auction
cron
nerv
yan
thayer
##enblatt
react
##olly
seman
alme
undergoing
impound
presby
inculpatory
theirs
finch
howe
maternal
cleburne
advises
capabilities
##umburg
lowered
##haul
manufactures
builders
1157
televised
1354
badger
borak
##ushita
postponing
lindsey
mountains
concentrations
seditious
sparse
rainey
xxx
disavowed
ponti
schaumburg
outrageous
underrepresented
mancari
symmetry
matsushita
remonstrance
almeida
bould
eat
ica
kath
wi
##96
##atc
bystand
lawson
india
meth
rechar
impot
prepayment
generalization
1801
manpower
##ifiable
scri
fourteen
collegiate
orientation
socony
libretti
sixteen
trag
restoring
extrac
2000d
steward
1361
preliminarily
##brough
1323
midwestern
midnight
1848
1280
renoun
patterned
nonde
2113
deleter
arraigned
periodicals
sacrificed
1396a
fostered
brunswick
peyton
respiratory
##criber
2the
dance
dade
nolo
sends
wunder
##mt
##orf
##orrow
##ndon
##icar
##otko
requisites
expel
generalizations
##inegar
circle
scout
nonun
fraser
supportable
texts
educators
presses
premar
felton
histories
benefic
unworthy
1238
1163
1314
1227
weighs
estimation
giles
coordinating
stamped
professors
acquiesce
depleted
covenants
unimpaired
prolong
##bird
interrupted
dobbs
accelerated
hutchinson
councilmembers
deleterious
wunderlich
eloqu
mits
mock
##3v
##esters
reelection
alt
parsons
grun
contacted
##acker
desert
promot
promising
contractually
populated
southeast
1139
understands
1080
1406
entre
##laimed
1461
reconstruc
experimental
surprised
stressing
hooper
unjustly
varity
dominick
huron
perpetrated
intoler
ponce
inviting
nontax
conspicuous
launched
swimming
pioneer
linguistic
celebration
presidency
nonimmig
bip
sach
##37
##je
##ortive
##aning
spray
purge
newton
##formed
inspired
norwood
##erno
##ernity
##phant
workweek
extenu
##enne
##avag
serial
waited
1108
malley
forecast
laymen
crux
adheres
##azz
empowering
ginsberg
budd
discerning
disrupted
hodgson
exigency
movies
hubert
stereotypes
holloway
uncompensated
cameron
cooling
fritz
jam
kad
lite
util
therape
beau
anted
enshr
artif
subp
##itives
##opedia
invented
afflic
1210
instinc
branti
equitably
mined
benev
endow
subscriber
feat
belle
brooke
iran
arbiter
discovering
extravag
temple
slack
1836
delegating
pretend
20543
keating
constituency
lynaugh
ecause
romano
incompetency
perpetuating
escapes
disappears
kilbourn
leaflet
barclays
exemplars
tomorrow
breeding
guste
vwil
thwarted
zorach
mcclellan
bin
berg
cans
sne
til
ug
##di
##enactment
parham
chish
##minous
meach
juda
##ibbs
spa
spurious
intensity
nonfor
evapor
blument
##prene
encycl
narrowest
totaled
1036
sword
coercing
1437
berry
topics
pedal
comprises
coincide
halperin
divisiveness
##kalb
kitchen
therapy
seagram
entreprene
chisholm
blumenthal
cott
dill
gla
hhs
##oa
##uated
##14
##enbaum
##orp
inhere
anast
exterior
unification
chafee
##ardo
foley
recital
##vie
obno
outdo
salerno
readings
landrigan
blackburn
terminiello
jeh
1048
1096
1309
contendere
boyle
1193
motivations
levitt
expires
inflicting
jobsite
ashe
uttered
030
unforeseen
irrig
steadfast
reciprocity
classrooms
nrdc
inculcate
lassiter
shalala
quirin
##ircumvention
bomb
dice
lthough
##34
##lee
couch
dekalb
unsw
uncom
pepper
imputed
intake
elastic
##mming
refiner
raich
infla
wilcox
smo
transpired
sheff
repetitious
laud
westover
overridden
1160
anticircumvention
1170
comprehended
##enai
aggregated
##ovah
cleaning
berke
crops
sni
concentrate
sleep
mescal
philippines
ameliorate
austral
counterfeit
disloyalty
inexorably
nonminority
frontiero
aesthetic
oligop
recharacter
jehovah
omb
wies
##36
input
conley
appur
shores
shaffer
hep
dohsa
peers
judith
carhart
desper
couldn
fagan
barenblatt
workman
offences
propounded
conduits
emphases
educate
ballo
brownell
swan
1058
graves
seeming
watershed
1117
1164
1859
437h
dischargers
1807
relevancy
winds
##cheson
proffitt
##rosec
nonfri
obstructions
cock
warehousemen
silverthorne
asbestosis
tracing
convertible
reminded
dismantling
precipitated
abdication
hyphenates
sunkist
davenport
eve
fouch
nj
ricks
##ports
##16
##ecked
steep
##igable
italy
##ushing
##osity
##andard
chas
arnett
##ocial
expelled
jurists
prefers
##opsy
overd
maroney
addres
evenly
advent
revising
protectionism
mca
volition
acquainted
moris
lowering
presuming
irrevers
1318
memo
piers
proportionately
selectively
ranking
cognizant
raped
musk
dorothy
survivor
confiscatory
evinced
trustworthy
kingsley
actuarial
underpinnings
rendition
thurston
gagnon
zwickler
foucha
4b
iq
wax
##85
##20
##26
##gy
toth
appx
##trous
preston
##oski
##ammel
lawn
hasten
defensive
spald
10a
polk
##ively
corning
provoked
##onditions
mincey
3500
twofold
edny
steal
blanch
pena
mcm
credentials
##iliated
shipowners
unsuit
1113
1147
roadway
1856
midst
ingenu
1497
expands
sooner
ranged
hopeless
artifice
ironically
hutcheson
lehigh
unconscious
premeditated
nemours
obnoxious
sheffield
spalding
juli
kick
moss
yick
##oo
##dock
##linsky
##19
##jian
##ener
isn
##amine
grass
moose
powder
brign
refuted
2201
necessitates
workings
##oken
##iegel
circumv
##avigable
lochner
belton
mcder
thirteen
precedence
1860
1107
1150
1352
pollard
woodwork
disclaims
surveyed
unseem
baby
videot
temperature
therapeutic
nonfrivolous
brignoni
mcdermott
aa
aero
eating
hare
pate
pinet
##rin
##fish
##knight
##tite
##estion
##esty
##isler
bequ
##liff
leve
perp
alluded
authorizations
capper
saunders
descent
17th
minus
##aplo
harrington
blunt
patton
freezing
selects
endure
chaplinsky
malone
malapp
1168
midd
analogies
mechanically
burnett
happy
stipulate
boddie
camden
ineffici
poorly
scientists
inhibited
pedest
apprise
bouknight
lifting
contrasting
contraceptive
oakland
misreading
adulter
chickasaw
transparent
axiomatic
alvarez
slope
kissinger
nonforfe
anastaplo
8a
ahr
glean
kam
mite
rented
sli
##civ
##dem
inaug
##alach
reweigh
anger
##activity
orte
##quer
para
amy
##gued
overcharge
presentment
viewer
nonjudicial
##entioned
mcke
upland
narrative
buffer
vacc
deriving
1078
1335
disagreeing
##brecht
apartments
1186
3313
extrajudicial
emergencies
abridges
satmar
stevedores
##heimer
dominate
kidnapping
galla
##belie
jennings
schweiker
woolworth
notorious
impaneled
nonnavigable
disastrous
tragic
mescalero
wiesenfeld
ahrens
dp
fought
ire
stiff
##cents
belied
iso
whal
##mploy
disin
distrust
resell
arre
rectify
sobel
remission
desk
insulation
warfare
simplified
penfield
distorts
writes
belts
stevenson
totalitarian
1059
1122
negotiable
1338
1161
allocable
1317
1604
skew
1246
1829
1818
perfection
swept
starts
tailor
adversaries
##ophony
widest
nominated
undercuts
comprise
raley
prematurely
sabot
ambient
wantonly
palpable
artifacts
smooth
bain
cade
ely
fountain
hilton
kay
lust
makers
##bon
##bard
##gi
thrift
##aste
acme
disbelie
##ady
noerr
subc
abated
expun
presti
prize
pollock
thanks
publicized
mater
1701
##etting
dispro
schooling
strand
preconditions
pauley
herndon
smok
buys
intrudes
thoughtful
##hausted
mccready
##ography
maloney
1159
1834
minimally
routing
immigrants
delete
1702
surroundings
budge
attracted
decreasing
exploited
proximately
darlington
brutality
patrolman
misunderstand
underscore
nonjurisdictional
frustrating
cheap
giord
thermal
crampton
deterioration
discrepancy
databases
electronics
intestate
bipar
morissette
gig
oz
rider
tila
##eau
##30
##tiously
##esee
##aring
##arthur
##lyde
##endon
commences
parol
##loper
reposs
supportive
corners
caa
timken
##agra
denomination
rooker
solvent
studying
##bitt
mcle
irish
contemptuous
councilman
1223
liquidate
weaver
audits
relieves
hotels
complications
jacket
bigelow
transformation
fmla
unseaworthy
suburbs
incitement
divisive
eisenstadt
measurable
opaque
precepts
strenuously
dichotomy
ortega
bipartisan
hath
kne
xiv
##dam
##tm
##64
tol
##asa
storing
ons
##olite
##adach
appalach
shri
chess
intervals
impelled
truman
grub
matured
guests
##urricular
burdick
exams
66th
lowe
crossings
ensured
1077
slade
greenhouse
1287
inflicts
wardens
unexhausted
announcements
illegitimacy
clothed
diversification
rolling
rewards
revisit
scrupulous
hispanics
inexplicable
schwegmann
sequestration
proliferation
albany
sniadach
lent
pfe
pink
xv
##colm
##mars
##fax
##hoff
##28
##25
inch
reactions
stove
##ido
##ils
asph
cogen
trash
newsw
persists
1501
##evers
substandard
monuments
extant
prosp
ratify
counselors
costello
lessors
distorting
##rupted
militate
mcfar
1983decided
ultra
uniformed
1128
malcolm
floors
hirsh
preferring
levying
##letes
hampered
isolate
linking
spirits
encounters
harsher
divergence
unloaded
raines
kinney
preemptive
politicians
infraction
teenage
1b
brow
cord
cyn
horton
mud
pda
rust
##wered
##better
##75
##itur
##icz
disaff
##abar
consenting
requisition
##oco
spain
carc
schiro
matched
transco
mini
calla
immature
erwin
##tenger
mcmah
##ipper
willie
achieves
1297
humanity
stationed
yourself
glance
enumer
##dez
hoch
compromises
baum
anomal
inhibits
lords
endeavored
reenactment
optometrist
boiler
reprisal
amalgamated
unanswered
appurten
ginn
lange
##cr
##rogate
##omical
##ateur
##rix
demp
meze
##izer
finishing
finkel
generalities
bog
yearly
receivable
delivers
emphatic
fairfax
everywhere
surrep
combating
extrapol
1046
knowledgeable
enjoins
1093
1840
inadequacies
1240
predicting
strengthening
winans
hammer
painful
##ropriated
keystone
tolerances
marginally
topco
professed
exploratory
satmars
resembling
chains
dickerson
carbide
evenhandedly
highlights
shirt
enclaves
smuggling
extracurricular
julius
dempsey
mezei
dating
dyer
dahl
fenner
gs
hate
hue
hors
lich
tid
##wc
inoperative
conrad
fora
seeds
chea
chester
meager
##ishi
preh
contamin
elstad
plot
refriger
rochin
probe
resultant
passports
walters
panther
confronts
1116
unwed
1187
1215
1192
2243
gaud
steelhead
fuels
researchers
suspicions
pittenger
accusations
easements
misapplication
dcss
denominations
##character
episodes
fortune
bendix
imaginary
plymouth
hindsight
russian
ceremonies
unhappy
nervous
appalachian
bach
fusion
pine
##otive
##iates
thro
infeas
reilly
forew
##ilene
ascribe
##adium
##usp
##elo
##ewald
indign
##oughs
neub
registers
spor
abilene
##oret
genius
##ubishi
decisionmakers
institutes
charters
##ilet
primacy
misused
mischaracter
pennington
capitalized
virginian
assignor
publishes
5010
stationary
1788
1408
14501
1351
leagues
bradford
conformed
misconception
perceives
laidlaw
unconnected
killer
democrat
7602
sincerity
defrauded
disbursed
bolster
rosario
vouchers
graduated
unreliability
erotic
rotary
mahoney
nutrition
singularly
harvesting
invoices
developer
spontaneous
helicopter
misbeha
mitsubishi
outdoor
unseemly
ireland
ginnane
athe
bator
ctr
citi
cumbers
fha
##39
##sex
beam
sut
##essler
deaf
heiner
finances
usefully
##grad
##unciation
stray
collects
availed
##archer
goodwin
irony
develops
##ringing
1987decided
1134
flowers
davidowitz
winner
keo
inefficient
attaining
shelley
caprice
inhibition
munitions
lasciv
eager
retrospectively
diligently
harmonious
ipso
brackets
surgeon
sindermann
cohesive
trauma
grunewald
hepburn
perplex
dion
gme
hank
nard
##empt
##sc
##rated
##pi
##edo
inject
angu
##ules
apples
sheep
aroused
##umerable
saves
posing
brink
##etz
##erney
precon
precurs
cola
highlands
endowed
validated
contemn
consequential
waterway
airco
crand
discoveries
helpers
1234
mitigated
especial
2024
reaffirms
keys
redistricted
entrenched
succeeds
evansville
borderline
rigidly
epstein
mckenna
inhabitant
interchangeably
gallon
recruiting
matthew
zealous
niem
adolescents
wedlock
culminating
honda
redistribution
nonviolent
disjunctive
irreversible
sobeloff
cheaper
lascivious
4the
dough
gist
hiv
hack
hang
ken
rach
tc
##meyer
##wig
##inks
reagan
couched
unrec
adick
partiality
##trick
congestion
defy
##efe
vivid
##asses
coron
fires
addicts
16a
faction
barbar
sci
##arten
evince
inflated
earmar
designs
validation
centralized
initiatives
distributive
##ahy
crosses
homeowner
##haus
1066
1085
sumner
1228
1385
sustainable
forwarder
geography
rebutting
contextual
7421
abolishing
strategies
brake
lovett
reassess
reassignment
coincidence
salvors
polarized
adultery
vitiate
adickes
bust
bland
git
mim
rag
##lings
##bright
##76
##jection
##iteness
retry
##stra
unmin
##eler
##eling
adh
##rome
underwood
armb
hass
trinity
spills
##guen
##ogen
standardless
propensity
busy
connick
examines
feeney
summation
pleases
panop
innumerable
advertiser
tenet
visitor
sky
emerging
ledbetter
1260
talisman
##holes
bandemer
nonexempt
vagaries
1151c
schooner
conspicuously
deregulation
descendants
affixed
presbyter
boulder
fan
lens
mam
rath
##tory
##pac
##onte
forens
anat
unli
##lical
impinges
trino
assass
exported
incomes
discounting
margar
lime
##entis
##entieth
twentieth
translated
confuses
scophony
representational
counseled
connolly
misstate
essentials
volstead
magna
practicalities
frankel
frighten
1320
fitted
glen
checkoff
virtues
##ahoe
disapproving
consultant
nominally
bonelli
wagon
dedicate
subversion
cycl
cady
##masters
circumscribe
seaworthiness
unrepres
loosely
pumping
dynamic
inquisitorial
nurse
antisocial
bookstore
mccrary
embezzlement
##management
apprenticeship
squeeze
inordinate
newsracks
movant
sabotage
cumbersome
trinova
cb
ired
ives
##utively
##49
ink
dose
jurid
priest
accede
plumb
subscription
loe
ratesetting
accessories
littleton
burg
restrains
embarked
1986decided
swiss
1347
transactional
psychologists
1212
truthfully
packaged
1241
1356
nonpre
perfunct
pleads
##dox
inducted
disclaimers
mccarty
telegraphers
enjoying
rewriting
scrupulously
disseminated
padilla
moorman
gravamen
eschewed
disguise
accretion
misinterpre
catalyst
benevolent
whalen
panoply
dnc
gaff
gsa
jicar
pill
slander
##ely
##ement
##epa
##gens
##gie
##74
##tique
##anz
##asiveness
beard
almend
noble
##antom
##allotted
affair
carib
overstated
##ogy
demarc
frames
collections
##spe
##ompan
soler
everybody
summon
harder
copied
1047
campaigning
1090
1366
1294
formalism
1174
1281
predicates
1421
forwarders
enhancements
ferry
manipulated
oliphant
spreading
degrandy
homosexuality
regrettable
culminated
compassion
commendable
baptist
inroads
cronic
ingenuity
shrimp
almendarez
darr
gel
ion
yee
##mens
##zon
##itters
##ickey
staley
##adena
##andid
healey
##ticip
imposts
regs
##emore
employes
certifies
carve
overpayments
mart
maternity
##weeney
interplay
longs
suitability
medlock
72d
##herty
1982decided
facets
1136
1172
holm
1846
analogized
winston
sweez
glove
dunbar
curtailing
leslie
hindrance
sugarman
##breaker
dishonest
endeavoring
revolver
predeprivation
gauge
unaccompan
unaccompanied
fen
fong
mpr
tile
##sky
##kamp
##block
##hoe
##enstein
##edents
##alities
##itory
##eca
stair
prosequ
##utz
dell
disestablish
unst
adkins
##mins
coex
decedents
incommunic
lied
##otham
addict
holdsworth
barron
clearfield
goguen
makeup
##hips
docketing
infection
collusive
solving
detected
singling
educationally
1974decided
embry
referenced
ensue
greer
1989decided
1119
1442
1206
approximation
venerable
liquidating
grows
emerson
harrisburg
hartman
entrances
keefe
kills
wilderness
ideals
hatred
wagers
ramos
outlawing
delicto
schwab
troopers
truthfulness
splitting
axle
rudiment
connotes
fortuitous
practitioners
easterbrook
##manship
incontestable
prestige
paroled
jicarilla
sweezy
rudimentary
aerial
fold
imit
ott
pied
pile
ruck
tires
wich
wiss
##eal
##ni
##aire
##atious
##dful
##15
##icing
sues
aligned
##chem
enth
##lio
##awa
leland
amster
indentation
quint
defies
reprosec
##omey
supposition
schla
productivity
pho
raid
postde
merri
illiterate
executors
articulation
responsibly
geico
autolite
intrac
crush
1130
1185
1225
retiree
inferiority
multiplying
1355
basement
intimates
1265
maddox
incompatibility
redistrict
killings
pleasant
ideology
recklessly
interceptions
dorsey
disfav
unconditionally
disallowing
breathing
assailed
bronson
intensely
omitting
dishonor
rfra
configuration
noncitizens
recognizance
nonimmigrant
forensic
incommunicado
2b
gadd
honesty
kro
krug
neder
pills
##07
##entin
##enix
##artic
##arned
stagger
##acock
shannon
chave
casually
copp
compounding
dogma
peacock
mayo
##ode
##iva
##vior
overinclusive
1500
brinegar
##mmers
##ician
workp
##gren
collapse
landing
originate
bestowed
robison
swearing
apex
richfield
1348
divides
consolidating
1091
malt
innocuous
treasuries
dilutive
rebate
happiness
1765
analysts
matheson
kepner
horrible
pockets
pornographic
cherokees
tubes
bruno
contriv
disloyal
zahn
diocese
bureaucr
buddh
gallagher
piedmont
amsterdam
phoenix
cba
glick
rans
ratable
##uges
##13
##ingenu
stack
disingenu
##iman
partition
amateur
supporter
corros
limb
brent
whereupon
finder
##erne
##oster
23a
payee
##parably
drum
bounded
phillip
picc
allocations
elevated
bullington
2412
happening
bordering
marriages
occurrences
transmissions
bespe
proffers
##heim
kanter
perpetuation
corruptly
switchmen
lorain
highlighted
pharmacist
pawn
spokesman
bossier
swallow
meachum
unsworn
citibank
unmindful
gaffney
##andidate
chavez
3the
flying
htm
karcher
pandering
##cies
##aic
##dell
##59
##enburg
##idan
anxious
disd
apposite
unallotted
alber
paraly
##romous
preiser
pretermination
##keep
liver
affront
12a
12th
schiz
shoulders
##eese
dispelled
workday
phantom
evange
companions
##ortioned
joiner
##sher
grouped
mismanagement
##locker
nonemploy
precede
westmore
1256
1340
deducting
1094
1327
1203
1350
1277
overrules
cohab
shapes
doubly
flemming
editorializing
celling
sonar
italian
unload
reinsurer
pierre
cartwright
tortfeasors
dixie
pfister
dsl
usurpation
anadromous
cousins
unintentional
revelation
penetr
mprsa
quintess
kun
lacy
ruf
tack
wors
xero
##ois
##854
##bold
##greg
toomer
andrus
##staking
courier
##iler
alene
alford
prone
shor
chapp
##ector
##issue
indenture
subter
footlocker
concise
manus
saff
protesters
28a
nonpr
negated
educating
obligor
separates
terminations
acceptability
curran
extraneous
cooperating
1328
memories
withdrawals
1784
sanitation
waller
mechanic
painstaking
harvest
aggregations
lotteries
clarifies
6321
domiciliary
frederic
lindh
advisors
racketeer
stretched
unaffiliated
mackay
canvassed
syndic
staples
##hawk
sperry
styled
antifraud
reemployment
nonforfeitable
anguish
##jectionable
postdeprivation
westmoreland
xerox
luck
pulp
wabash
##even
##oon
##wagen
##kir
thumb
##esp
anil
detr
deering
disable
allies
alask
##tronic
lehr
##odal
preisler
counten
boggs
mankind
nonapp
revoc
designations
detecting
##velle
increment
volpe
missed
communicates
convene
balk
precedes
1984decided
phraseology
1360
1166
1315
1373
unann
1775
badly
2679
seatbel
##imeter
monopolized
beds
abstained
anteced
destinations
pasadena
inhuman
olsen
perpetuated
elih
lamont
relitigate
wesley
scenes
cameras
bolden
santos
shafer
oblique
arsenal
frazier
inflamm
unsuitable
newsworthy
anomalies
8c
sweeney
vil
##city
##zi
##hove
##isse
##ectible
##tsa
conscription
ames
compose
imping
tray
congreg
sob
accardi
plc
marx
inserting
##retation
syll
warri
informers
signify
player
adoptive
68th
actuality
burgett
juan
westfall
introduces
subsidence
1165
1169
1158
1838
lengths
ingen
1844
1581
cataw
arrives
custodians
belongings
psychiatry
muslim
cabin
unexception
accumulate
lybrand
correspondent
fundraisers
linley
annexed
unsupportable
untruth
nhtsa
latent
hornick
conjectural
mahon
vexatious
tampa
sketch
dewey
wichita
wissner
unannounced
bib
bsa
eiken
fc
fant
hoy
lash
mw
nestor
song
tues
turb
##sim
##woven
##gio
##98
##isture
##omac
begs
whist
##uld
uninter
prouse
cass
##lib
dole
regain
polity
persp
schenck
##ifier
esthe
payphone
positioned
fourths
potomac
devotes
practicality
radiation
riverbed
1167
1306
bullet
brandhove
##azell
sheridan
adversative
experiments
generates
bedrock
hawaiians
trespassing
drown
##forcement
jaybird
loads
misunderstood
envelopes
##achtman
shearson
impotent
circumvented
subcateg
neuborne
eikenberry
cec
ech
hi
jess
mp
mund
nier
sadd
uhf
##math
##rity
##giving
##tiz
##enter
##aso
atasc
##adero
##ticipated
coa
allwright
##iston
cornel
moisture
schultz
charities
aftermath
46a
harlem
blend
earners
drun
wrought
assessor
1985decided
jobbers
picketed
introductory
1155
1835
formalities
##armed
unanticipated
##arrest
1820
1263
##elief
forwarding
mobility
detaining
generators
wilder
tuila
gerrymanders
parenthe
reimbursements
sipes
imprecision
infrequent
refinement
unobjectionable
##ifferenti
roland
ejus
remuneration
yankee
mcleod
callahan
gitlow
misstatements
atascadero
tuilaepa
laps
uaw
##17
inund
##step
acid
exertion
##ulatory
##abouts
alpa
##udge
consol
ennis
undifferenti
coins
interwoven
##licability
##oca
schor
boerne
maria
insiders
##irmen
##vington
criminalize
edgar
reversion
codifies
annoy
##shaw
vires
medtronic
racism
esk
worry
unlawfulness
consume
pluralism
donnell
##psa
1250
dischargeable
negotiators
1135
1148
interrogate
peaceably
1358
tendencies
##ggy
unforesee
inventors
journals
warehouseman
##felder
bolst
confeder
bakery
embarrassing
scheuer
creator
iraqi
inexpensive
impediments
unsettling
bribes
taney
jenness
scenario
weaknesses
infractions
infrequently
stifle
schneck
caliber
misconstrued
cuyler
nondischarge
extravagant
laudable
berkeley
dougherty
subterf
uninterrupted
ejusdem
kos
ritch
sizable
tand
##ae
##loth
##bow
##gged
stur
beings
##ulator
commuters
covington
haste
reclass
tractor
spher
manning
faulted
transient
cleary
roper
wares
##ksh
53a
businessman
severally
smel
excusing
potter
guaranties
bankruptcies
1979decided
chapel
electroc
##monary
panagra
1364
1402
1195
sherwood
analyst
angel
fleisch
yesh
libelous
hesitant
budgetary
beaten
delineation
nonparticip
consecutively
slowly
unavoidably
##iener
bundled
embargoes
judaism
earmarked
warrior
tuesday
cja
gosp
kapp
lil
lum
natives
pachtman
sif
##euser
##wear
##baugh
##hm
##reve
aspen
##think
##abody
albrecht
coit
peabody
##uez
##ailable
##ensiveness
genitals
##ubs
##emia
depressed
usuf
manor
##mitting
whereabouts
21a
salem
patch
distaste
billings
antiter
singleton
1981decided
donner
thomson
##haeuser
overrides
registrars
rehire
counteract
1603
1214
1217
diluting
1249
1827
1267
hallock
6512
ineffectiveness
honoraria
impeaching
appraising
scarcity
rambo
cherished
tanks
proscribable
garnish
burroughs
safeway
sincerely
kendall
displaces
subpena
presbyterian
juridical
usufr
astr
fres
fernandez
jatc
llam
mys
saks
tong
wave
##iform
##erd
##orality
ince
alamed
##oward
nog
##iale
dech
clammers
regression
exple
intens
##ervice
justin
##ubert
thank
##associ
depiction
sauc
insens
calvin
locals
27a
mauro
immorality
furl
infants
subscribed
internally
realizing
moreno
downtown
subjection
swing
1209
1607
1407
skid
1380
1194
300z
dilutes
1247
1804
staula
1426
1706
vindictive
bowl
horowitz
crowded
7114
lydon
missions
9006
listings
vetoed
##rorism
binds
ethnicity
envisions
ladies
pulmonary
1396r
derelic
fmcsa
fungible
repository
dissipate
gleaned
antecedents
perspectives
schneckloth
alameda
aide
bick
mk
senses
##nant
##fel
semi
##usch
weights
weyer
diem
usi
##acki
manuals
locker
indicators
flights
subsumed
70a
uranium
antithe
antiunion
96th
sexes
ceq
navar
welsh
##iery
malinski
1446
1205
1563
predictive
2239
margins
birthday
dunaway
complicate
archives
appreciably
rosenthal
corroborate
absurdity
fictional
draftsman
erode
9706
highlight
bronx
handguns
exacerbated
subrogation
urgency
hynson
bulwark
hochfelder
spheres
antiterrorism
llamas
nogales
baking
dum
gress
grip
giant
ghet
kau
kline
lpo
mpp
pale
sender
##dou
##rical
##9a
##enforcement
inel
##anos
##reated
beacon
forer
courage
orches
deeper
purity
depictions
usable
##ogene
insertion
outward
hearst
straw
mahan
simpler
herd
loft
myth
traged
milligan
granderson
restate
conspiratorial
envis
furnco
sounding
1208
peacetime
exhibiting
1825
nonpun
reaffirmation
jeffersonville
constituencies
musicians
pharmacies
monitored
hobby
untoward
##feasance
nasd
crafts
cartel
weakening
fleeting
translate
divulge
practitioner
captioned
plasterers
aquatic
custis
anilca
drunken
undifferentiated
saucier
ghetto
gw
hese
hinges
hickey
koz
tat
tash
##dick
##var
##fton
##bri
##hel
##ecker
##ingold
##oto
##stating
belo
##idas
##riev
disb
pratt
##elsha
consor
chey
##tuc
pemb
meyers
recur
subtr
trpa
perish
defensible
reprim
abort
abbre
grab
preoccup
ordeal
remar
discom
##outot
##uthers
elgin
deprav
##itek
agreeable
paych
nonbank
blm
blur
blbra
policyholder
connaughton
##ofield
callous
reflections
transferable
##nello
tempted
housed
garfield
1140
allocates
formalized
analogue
3466
defeats
717f
painting
sulph
##ophren
baggett
undercount
foreseeability
kurland
upsetting
irregularity
coffin
dismantle
skep
dobson
semic
fluctuations
umwa
thiboutot
unlv
misbehavior
margaret
perfunctory
ruckelsha
contrivance
schizophren
unforeseeable
yeshiva
gospel
antithetical
reprimand
ruckelshaus
kear
muff
nass
stow
deten
disg
sealy
consul
shale
shreve
chis
##tea
recusal
sparks
reproduce
##ishian
incoming
poles
affluent
depicting
posited
reviewability
##artolo
recorder
indicator
harriet
retrie
compania
##shine
obligate
smy
superven
credence
##lanting
oha
1977decided
debartolo
extrinsic
silently
1230
humanitarian
1392
1378
automotive
telegram
1425
statistically
emasc
6011
keyishian
sunshine
hook
wheaton
##rella
##ubstanti
efficacious
enlarging
converts
homosexuals
reiterating
guardianship
collieries
nonwhites
assimilation
creamery
qualitatively
spinelli
rivals
snepp
ritchie
weyerhaeuser
nonpunitive
cheyenne
eich
marian
ome
osp
tss
tark
tahoe
zem
##mire
##aus
##zie
##alk
tope
stag
##lege
fork
stature
##tron
resh
heating
hag
underlay
agins
decer
impr
empting
abett
trimble
moff
carton
manhart
locke
bustillo
excepts
broadening
##estside
connelly
annum
wilk
1976decided
pursues
volks
##coerc
assignees
intract
camps
1988decided
organizer
retailing
1171
1204
1536
3583
packard
dilatory
pointedly
progression
fortner
unrespons
appreciated
braun
tensions
hodge
babbitt
conveniently
vernonia
gillesp
baxley
fiore
idlewild
cramer
pawtuc
caucas
##opathic
airbags
bingo
nazi
enshrined
coronado
disingenuous
manuscript
cornelius
depravity
detentions
pawtucket
ayers
dave
epp
ios
lak
stic
westside
##oise
##mother
##rals
##bot
##entine
##isible
##reaux
reloc
atyp
##ldg
##queness
##elite
##therford
shill
leb
doherty
##ellis
spo
repatri
11a
translation
unionism
demograph
condoned
signer
##inkler
farley
specialty
goode
choate
superimp
sixteenth
##ipping
1978decided
hardin
adjourn
1349
2253
abandons
1143
1156
1313
midcal
flagg
gainesville
1176
13981
1413
discharger
packer
1823
rebates
nonpro
1273
1276
accompanies
1812
cruise
jails
hamling
deadlock
redressability
286854
truckload
suspicionless
peculiarities
doubles
allottees
foreshad
nighttime
bonuses
gotten
inequalities
##afson
shotwell
mcclung
wrongdoers
disrupting
munaf
colonists
bakelite
optometric
perpetration
propagation
cancelled
pretextual
replaces
dye
ncua
hurdle
gustafson
kiewit
oahu
prophec
dentists
disincentive
nugatory
scripps
irrigable
addressee
horses
crandall
pembaur
tarkanian
volkswagen
evelle
lax
oun
olin
pc
pomer
rar
sane
vaugh
wound
##ets
##menting
##fs
theological
##aried
##anas
revive
##usiveness
shots
pard
##ewater
interrupt
##vens
##alls
replies
preface
accent
governmentally
newark
##ointed
##inee
overcoming
dissu
scand
roche
injuring
classical
evaded
substantiate
flan
periodical
corrid
surrogate
daytime
excuses
northeastern
debar
gremillion
graver
2252
1098
inapplicability
1310
unpleas
boykin
attendants
assemblies
717c
channeling
growe
unchecked
nonfinal
irresis
irrationality
rolled
ambass
volunteered
indulged
schaefer
sodium
overtones
recycling
sindram
unassigned
recapture
stratton
golf
albertson
plastics
skeptical
gillespie
batt
bldg
duck
kessler
pinter
tard
wary
##ehr
##grow
##53
threw
##enhall
##rez
exacts
##abe
alm
adler
leuk
trunc
abut
##ishes
cane
dissipated
foundry
offsets
merging
illusion
obligates
mcall
wrest
1973decided
cran
menom
grease
utes
slot
1237
cooperated
1154
1285
2415
1472
confrontations
1813
emanc
sandra
noncost
rigsby
channeled
1740
strauss
easton
intelligible
approvingly
cautionary
quids
obstructed
mcclint
fruitless
doran
hauling
maximizing
sieracki
annexations
mendenhall
perils
nonconsenting
rutherford
tacitly
cloak
truax
rescinded
augmented
handcuffed
korean
meticulous
renounce
afflicted
materia
syllab
shreveport
ambassad
aub
afore
bc
bub
cede
hain
hann
hmos
rally
rume
ue
yug
##course
##irie
##zell
##73
toto
##seq
betray
prominently
##usad
##look
pertained
congregation
spaces
canning
18a
##ariously
caval
attle
terre
saia
teeth
##retriev
criminalizing
struthers
nonracial
labors
informally
policymaker
challenger
dockets
etseq
feingold
mcmann
irretriev
1972decided
##aski
helf
certifications
11341
knapp
identically
437g
1177
floating
1414
delegations
honey
1558
odious
mixing
supersed
tactic
ausp
decreases
speedily
mcnaughton
proprietors
sacrilege
linen
interdiction
disappearance
lady
ladder
exhs
chaos
resentment
handbill
prairie
poisonous
ivanov
ventil
disbarment
anesthesi
sosna
mcmahon
corrosive
ingenious
whistle
mppaa
loftus
zemel
rumely
bender
cts
pent
yn
##cost
##veston
##friend
##waves
##gon
##70
rez
##stall
anach
alloyd
alamo
wasting
##osla
##romedia
underway
compos
subgr
defers
oberly
obviated
11th
basket
##laine
provoc
##cept
refuges
plains
postpetition
creight
passim
centr
secretly
highland
witte
feeding
##veloped
##insically
unremark
georget
intrinsically
affordable
metromedia
1293
1296
forfeitable
1207
1785
1794
1622
1816
amplification
anticipating
disqualifications
wireless
widower
bagley
hanging
impressions
cryptic
ambival
nonsign
galveston
stretching
hutto
relaxation
disseminating
preempts
enrichment
dirksen
umbehr
ephra
gouled
sanctuary
neatly
inefficiency
giglio
reprosecution
tssaa
topeka
yugosla
attleboro
anachron
georgetown
bis
bpa
gast
kul
rays
vra
##section
##94
tours
toilet
##stance
##idated
19a
##uto
unite
##elp
shosh
amax
##itis
trench
trenton
##guay
opined
amendatory
provident
##atham
insuper
boarding
valdez
calh
##ritt
retrib
candidacies
##xtures
arranging
airwaves
backlog
narrows
1975decided
2000a
imperil
1369
##rolling
accommodates
accomplishes
1244
1802
telephones
1555
1487
bidders
theatrical
palazz
bailout
7532
destiny
daugherty
links
rumm
confederate
escaping
sparingly
abundance
dishonesty
unhelp
athletics
gratuity
landlords
enlighten
prevalence
##john
inquisition
tallman
nonretroactivity
predisposition
##abarger
keogh
contemnor
tandem
disbelief
atypical
ephraim
insuperable
palazzolo
ail
hiale
kasti
mg
mounted
pma
sig
tison
tiff
##beck
##bringing
##hite
##hauf
##29
##66
##enry
##atal
##oran
##orially
inb
incho
##uron
unto
shab
amnes
coopers
peggy
clauson
oneidas
pollu
moham
diox
attends
attested
depress
determinate
bramble
brig
mazze
salaried
medina
upbringing
strive
backs
laz
1980decided
facet
janis
swenson
elemental
lastly
unsolic
1092
averaged
unwarned
grossman
1184
1248
3599
emotions
amplified
ashcraft
berk
discourages
050
differentiating
repairing
robbing
shellabarger
happenstance
guessing
metallic
adjudge
vulgar
lambert
bottomed
interchangeable
pigment
irregularities
explosion
pushed
recruitment
higgin
disenfranchisement
roofing
bazemore
chaplains
interdependent
mystery
prosperity
muskie
precursor
chappell
intractable
mcallister
hialeah
kastigar
mazzei
unsolicited
cud
eject
ming
mask
malf
nm
tung
##nsworth
##tily
##real
online
##thesis
##ads
##adas
seizes
##licably
quin
##efoot
spear
inciting
diet
schul
prototyp
determinable
insures
cluster
41a
presentations
barefoot
syrac
injures
immem
immutable
informative
##ysical
stepped
colors
##mberg
penalizes
convicts
initiates
uphaus
patentees
vacatur
janet
multin
carolene
vicariously
apthe
##lining
graff
1110
1189
1224
psychology
1190
packed
rouge
portf
deleting
##elsen
amplif
weekend
coordinator
misrepresented
capriciously
eisenberg
flooding
sociological
huntington
diverting
corroborating
sipc
safeco
intricacies
crystalli
noncont
eyewitnesses
counterfeiting
syndrome
higgins
reprisals
umbrella
engines
xxviii
gynecologists
##ammeled
thanksgiving
nardone
misinterpreted
traynor
fresno
epperson
lebron
unremarkable
inchoate
aptheker
bop
hecht
lenders
mash
ringer
vander
wond
##pool
##gal
##jacking
theology
##itland
storm
##ombs
##idity
forgoing
ack
unat
recast
clair
perimeter
vile
abram
supplementing
wills
willingly
bok
outlines
2501
raffel
condone
postenactment
blas
substantiated
remediation
##teness
fairer
redes
misin
superiority
profile
racing
typew
excite
obtainable
methodologies
shortfall
motto
excessiveness
menace
factories
integrate
strictest
knights
3477
unwitting
4006
1308
uncri
1453
1822
estimating
1465
stafford
talbot
delcost
naive
practicably
gilmer
stoppages
deviated
caban
inducements
bonilla
redevelop
inexper
rigidity
unchar
##ballos
youthful
cyr
pedig
decisively
tractors
##bloom
flyer
harmonize
terrorist
inexplicably
hillsborough
9835
govt
hazeltine
seventeen
contrived
pesticides
hondur
##hetamine
abduction
smokeless
rachel
bolstered
unresponsive
foreshadowed
syracuse
delcostello
curing
dud
dressed
laird
rives
vas
##eem
##caso
##oyer
##south
##wale
##ux
##isable
##rode
stal
##terp
##iguez
##ameral
casc
##esta
nets
regina
gratz
provable
attest
boyer
##isdell
barton
##oughton
phon
titan
##tises
##tisans
opperman
landon
legalization
sola
solitary
solvency
70th
treach
misstatement
pennoyer
##tinction
pleased
stockyards
comparability
bookkeeping
1298
deliberative
##arrange
1847
traveler
imla
##atsu
promptness
reimburs
1734
madden
2325
praying
momentum
guidep
torcaso
disciplining
blaisdell
brak
summonses
schware
dwellings
dickson
forbear
survivorship
cowart
tentatively
kontrick
stabilize
explosive
lawlessness
tanner
dalehite
misreads
abnormality
fisk
bundle
tightly
ratings
caucus
##uderer
surgeons
celebrated
zauderer
sterlingwale
unprofessional
sarausad
paraphrase
asphalt
burgess
alaskan
tragedy
auspices
retributive
gh
lith
mould
mush
sacher
##bush
##pers
##72
##tigan
##edler
##attainment
revert
##urance
deuts
byproduc
unstated
pride
caselo
undergrad
agnello
arid
compile
##lico
tracy
perversion
empanel
assists
explication
preside
##vies
mooney
14a
47b
maitland
##lessly
##echter
postage
blount
policymakers
activated
oppress
nowak
loper
uniqueness
broch
marketable
7701
chiefs
hosiery
okay
1235
garrity
1145
1219
1689
renunciation
1481
acquittee
hudd
familial
attainable
distillery
lester
bottles
fabricated
cantor
boudin
cowan
nielsen
unconvinced
intersection
butterworth
inviolate
scanlon
sewerage
collaboration
cpc
nacional
metaphor
extremes
mcneil
nongovernmental
pivotal
middles
bureaucracy
gressman
aforethought
yniguez
bramblett
ceme
fles
kit
kopp
nig
ratz
sloch
twe
vant
vill
xcept
zap
##nance
##nah
##tured
##wind
##backs
##57
##68
##tium
##rex
reimp
##urated
fortified
untrust
uneth
##laf
leis
underval
cove
agurs
doj
##iber
repurch
##uber
##uble
##oldrick
boom
circulate
insec
clues
maturing
brecht
28ø
avco
propan
nonenter
landrum
punta
##spring
billed
designing
essay
accessibility
backward
grigson
radi
1368
counterbal
tennard
1173
millionaire
1180
1271
1268
tellico
gaming
bait
nonexclusive
mcgoldrick
recurrent
supplanted
predetermined
surmise
patriotic
korea
obstetricians
congruence
acquaintance
bustam
kroger
subterfuge
syllabus
pedigree
slochower
untrustworth
nonentertainment
bies
korem
lp
tarr
ub
vland
vicious
##cliff
##rancy
##gle
##inting
##isor
reign
stout
stakes
consignment
##osier
partisans
hawn
undecided
arouse
imputing
opted
##arians
##clusiveness
denounced
mink
condon
revived
docks
##cribing
71a
misper
wah
conditionally
bearer
ceballos
103d
swed
weston
discovers
silas
panam
##ulsive
1538
1780
1841
mistreatment
1471
static
1424
1631
1278
1261
1769
withholds
hamlin
crazy
talley
mitchum
unconstr
emotionally
animating
inexc
weiner
foreseeably
socio
sabba
deserved
nurses
galleg
widowers
catalo
towage
handbilling
crafting
vagrancy
ousted
1105a
sailors
dioces
dinner
savannah
pinette
intracorporate
skidmore
moffitt
leukemia
unhelpful
tiffany
vantage
korematsu
vlandis
6the
bild
clyde
giv
hell
lenses
lasky
mn
oss
slips
##tance
##iksh
##orthodox
##issel
##retion
anarchy
##acing
exit
##adilly
##usiness
wasted
chee
intervent
meal
replic
abney
##viates
fink
canals
cappa
carlin
schaffer
desec
faults
##weight
22a
grounding
suitably
redington
takah
decidedly
crediting
##locks
bugging
salesman
embark
excesses
mccre
panetti
deductibility
incriminatory
laredo
elevate
pretreatment
1357
2282
##nais
cruiksh
voidable
provisos
dictionaries
bayh
duplex
recalling
speeding
hanna
ramire
economou
kohn
ambitious
inclination
encroachments
prints
superfund
spared
digital
revisited
desegregating
contrasts
falsehoods
lavalle
innovative
hypothesized
haitian
athletes
peddlers
stubbs
silkwood
nonintercourse
prospectivity
mcfarland
supervening
shoshone
ratzlaf
takahashi
cruikshank
ale
cory
ding
rin
##ook
##vous
thurs
inure
stabbed
##leur
sumit
##ilm
ont
ortiz
##ulse
unused
unorthodox
##tram
proud
##elon
##elcome
##osc
decor
imple
##estand
quern
expounding
##ensual
incip
intel
obl
canyon
authored
schechter
usa
posits
outpatient
filburn
24a
injected
##gry
needful
erecting
signifies
blush
penny
wrenn
terminally
drugg
referrals
discoverable
panthers
tenancy
sliding
1233
aggravator
rivera
afa
disagreements
1175
assembling
##saa
cutler
##lamations
disturbances
6002
ineffectual
fulfills
hooven
ferre
institutionalization
6331
checker
bonbright
baton
illegitimates
ecological
rearing
driveway
071
doris
ralston
snail
autonom
traces
uninformed
untrammeled
krish
quashed
nonconsensual
siegert
fischer
infiltr
underrepresentation
jewelry
disguised
pittman
blessing
displacing
tiny
gorman
nitro
gesture
piccadilly
redevelopment
bustamonte
sumitomo
aik
lul
murch
mda
nico
puc
td
voin
##enfield
##icum
##ilogy
##verts
existent
resold
reseg
undet
##pont
fosters
##loff
butenko
trilogy
nether
spang
incest
deploy
schre
manages
insult
bras
1700
filtering
barrows
productions
unionization
nonreg
hartigan
classifies
limitless
capita
60th
herb
designates
64a
trader
upro
advert
singly
volt
terminable
risking
aggression
rationalization
98th
##efully
refunded
##offs
unclaimed
greenwich
1452
1198
guarding
woodbury
sensibilities
behavioral
projection
surveying
bloch
yielding
animated
rossiter
susceptibility
hobson
shutdown
koota
hostetter
moratoria
rotation
curbing
##harnais
connotation
misapprehended
misapprehension
measurably
cultivation
lutheran
undergone
tranquility
beauharnais
bequest
malapportionment
##piece
detracts
inflammatory
mcclintock
bubble
unethical
gallegos
bildisco
ramirez
voinovich
aston
bmi
gab
mi
uter
##cio
##mad
##dated
##although
##anim
##terday
##aden
##ultra
appla
prun
compag
hastings
subcla
regal
finney
##opa
proclamations
##athy
brisco
facile
workload
localized
currie
promisc
brod
7201
misidenti
gebs
drawings
repeats
veil
autopsy
embro
multic
fireman
##ropic
slim
1796
skipper
1218
1564
1242
##grounds
cutters
macdou
ferris
yesterday
unbounded
##tzfus
tacoma
neutrally
bottling
7106
admonitions
rumsey
dispensation
diagnosed
ridic
beaver
dolan
steril
sleeping
hubbard
precipitate
russia
##boxes
underpinning
bicameral
fraternal
sachs
entrepreneur
talismanic
demarcation
mkultra
lavallee
macdougall
5the
cupp
dent
euth
ff
hiat
kimm
mastro
ting
##can
##leston
##bay
##rot
##aca
##essed
##uso
##chk
heff
##raff
expounded
deters
depicts
overm
transmits
##unded
circumven
protectionist
infect
corporal
freeing
modicum
articulating
realizes
grandpar
##ahont
watt
historians
vehicular
unwelcome
fearful
1393
comprehension
parolees
1602
montreal
14504
glidden
trusteeship
##emphas
##ova
keen
palmore
interferences
rayon
factfind
##tzer
couples
borrowers
##blos
stoltzfus
reprint
tyson
youths
pocahont
060
swiftly
transmittal
##tibly
bouie
denominator
pueblos
misconceived
drunkenness
kraemer
dumping
chattels
innovations
architectural
encyclopedia
steadfastly
giordano
kunz
consortium
demographics
nicotine
subclause
gebser
pocahontas
bant
dav
egg
gn
gale
jetti
lalli
punc
vist
wad
##witch
##lach
##gments
##estine
tovar
##lew
##oman
beg
onset
orph
##ulties
unguided
##ldon
alice
allay
##chie
##ayashi
##ardon
understatement
peoria
##oded
gren
obra
sof
soap
remot
insulating
barges
##ercraft
scofield
##urnum
laburnum
seconds
labored
##rupa
witsell
belkn
typed
travers
solicits
grandmother
debating
helst
compares
bondholder
irrelev
subsidization
136v
slater
1329
minimizes
hires
motivate
predicament
1476
1546
valuing
winn
profitability
hallmark
phillipsburg
rosenbloom
hopt
repudiating
expansively
csx
subparagraphs
chandris
dodson
consignees
brewers
imaginative
hierarch
predominate
bootleg
srha
hellerstein
##productive
recodified
confidently
mirrors
anatomical
electrocution
smyth
cavalier
gaston
reimbursable
byproduct
middlesex
unconstrained
interventors
belknap
ctea
flies
kw
nun
wounds
wiener
yacht
##lid
##lad
##gart
##09
reint
stau
asc
##actual
##udging
##osph
coleg
comported
doz
##akings
aborted
##ulewitch
marr
faculties
25a
barchi
probing
##ictment
caller
profane
surf
surcharges
sheldon
deborah
okl
pipef
1339
counterproductive
1299
1179
1371
1377
1370
holoca
competitively
1799
skrupa
1456
1197
1243
1511
1264
conformance
2674
lieberman
talks
1725
eastland
gilli
sunal
##sellers
constrains
antenna
brakes
outlaws
nonexistence
sniff
interrogatory
colonel
prongs
kuhl
ssrs
krulewitch
chairmen
echoes
scottish
throwing
dutton
tillman
lecture
unprofitable
foolish
stenographic
yarbrough
semantic
arrear
budgets
brinkman
prosequendum
furlough
tashjian
pardons
inbau
mushroom
huddleston
inexcusable
briscoe
circumventing
bantam
helstoski
stauffer
colegrove
holocaust
brom
bilateral
gut
gwin
nsa
pv
stick
vitek
zumbr
##iest
##jac
##ouded
##rials
##riano
defor
seelig
##ulent
unins
unrest
statue
##owah
##tinger
hem
##ratically
decker
defs
ordnance
legion
legacy
invoc
coroner
carmen
##athon
boos
bru
##agers
locating
hears
precarious
showings
busch
conductors
patric
##space
suitors
joan
specialists
71st
##apper
upstream
helm
robins
1258
humiliation
abandonments
obviousness
preparatory
1991decided
logging
1389
1213
1245
telephoned
wholesome
infringements
valuations
criticizes
wyatt
sultan
generously
lewin
alcoholics
cognitive
toolson
##rocar
macarthur
foresaw
budenz
wholesaling
crowley
pronged
sampson
haulers
taste
drydock
lasalle
struggled
colloquial
eagles
ranchers
cipriano
plugs
chicken
unconscion
shackle
stifling
kremer
gramma
inexorable
palpably
syllog
mutilation
prompting
overcrowding
parenthetical
perishable
provocative
amnesty
cascade
mnf
cheek
misidentification
patricia
dys
euc
josh
surn
sjr
##nut
##wes
##list
##orenko
##arbit
##access
exor
##ulk
consigned
hemp
impart
fedorenko
neuro
contour
tripar
13th
caret
publicize
depict
overrepres
##oggin
##ogram
16th
esteem
confided
maz
nonattainment
erects
recognizable
posters
colt
plagued
etowah
lois
##rupulous
placements
exceptionally
1971decided
roberson
booksellers
dairies
countered
##opper
1178
travels
royall
rebu
loaned
1274
1275
inspecting
banco
##egraff
franchising
restrictively
paralleled
professes
printz
inventories
dunes
bullitt
inconsistently
combatants
dowling
interrogator
delineating
homicides
auer
microf
comfortably
##assemb
knocked
updegraff
nonbusiness
championship
oyama
feinberg
geduld
impersonal
tongue
unpleasant
panamanian
murchison
compagnie
zumbrun
euclid
tripartite
geduldig
ced
pons
ruff
yank
##new
##atio
##yan
##botham
rey
conway
##leen
##utch
comfortable
##quire
noxious
impost
neely
newcom
taxability
boone
mara
circulating
40a
3001
norwe
evatt
##ysis
laborer
appropriating
flash
completeness
responsiveness
67th
77b
dupont
antiqu
airing
kindred
risky
deba
97ø
bestow
maggio
##enez
mccann
dravo
awes
registrations
##olyn
1372
comprehends
1797
worthwhile
2111
winch
installing
forego
halli
conserving
rapanos
fundamentals
reluctantly
differentiated
induces
unaided
6851
lindsay
endangering
defrauding
trooper
accomplices
remittit
pilotage
kimber
towed
isaacs
interruptions
nonretrogress
finishes
cnj
greely
unscrupulous
bumper
impoundment
wieman
foreword
sporadic
perplexing
fenwick
esthetic
undergraduate
nitrogen
aikens
bose
bitt
dag
jub
rated
##zan
##yk
##bee
##uti
##48
##icol
##entown
whaling
##olio
agenda
##estors
allentown
sporting
##tainable
##vix
##opic
diab
depicted
marketers
manoli
posadas
charts
bristol
outm
sculp
##ennon
phosph
nontes
raab
edmon
steering
merrell
herr
##sps
farnsworth
lohr
misg
airspace
1970decided
burst
landsc
intrab
robbers
1259
focal
1990decided
withdraws
equipoise
1795
1284
1269
2119
552a
cumber
hoosier
bedford
russel
attrac
strickler
csrt
ickes
mobilization
alder
alden
nonparties
assaulting
dredged
rifkind
evenhandedness
illuminate
reexamined
evolve
##uctuary
##ienable
lavine
misapprehends
truism
premeditation
handcuffs
##flower
fingerprints
reconstruct
dillon
sutton
unrepresented
plumbing
gaddis
brentwood
cecil
usufructuary
##ogeneous
kearney
nassau
##anasia
irresistible
supersedeas
portfolio
vasquez
krishna
resegregation
euthanasia
fons
pitch
rt
rale
tibbs
ybar
##tors
##fl
##qs
##ono
##inous
reac
##ilvie
##quier
parades
chauff
recounting
##alled
mayberry
defl
contag
cervix
diame
##athom
marathon
inspir
powerpl
##cca
3301
3401
refresh
monograph
stringer
evac
postwar
lanza
colten
reversals
immunizes
belmont
ups
upgr
surpass
physiological
mores
1968decided
shipyards
inherited
2516
1397
1220
1786
1286
3009
1808
renounced
1430
medications
1626
culloch
acquittees
halbert
width
ancestors
whitman
supersedes
christensen
040
disadvantageous
archaic
harshness
ici
appraisals
jacobellis
kohler
hindered
sparsely
beauty
recurrence
lexington
warehousing
ogilvie
grosso
xviii
nathaniel
undeveloped
vigilant
funeral
oahe
chloride
niemotko
pentagon
thursday
jettison
awesome
remittitur
landscape
raleigh
##quierdo
chauffe
baff
dusen
fhl
hiding
kello
lats
pie
qta
tissue
wounded
##vic
##fried
##aturity
##arelli
##ecs
rees
orth
disloc
seating
semb
ungar
##endel
pry
##elf
enfranchisement
chew
chaff
##ewicz
leach
composing
hasty
hisquierdo
cartr
overp
teams
calm
nontr
blown
definiteness
flint
gases
redding
tributary
duane
foreigners
strips
##burton
landsberg
intrusiveness
##obile
dangerously
swanson
jackp
1138
4704
dilation
rebuff
catastro
badges
1763
valueless
sexuality
brandenburg
conferral
treatises
adverseness
pereira
sacb
macon
ferpa
nominations
tracking
efficiencies
hotchk
sheltered
journalism
felonious
delicacy
coter
unexpressed
noncompact
springfield
perpetrators
graduates
ruiz
jimenez
coffee
##abbing
shirley
architects
loyalties
yeager
rhetorical
incursions
diesel
celebrate
spokesmen
cogently
cadets
repossession
chessie
appurtenant
enthusi
sulphur
overmyer
joshua
cumberland
latsis
semblance
catastroph
hotchkiss
aj
dos
hatever
knot
nly
nless
rug
sf
tuls
yang
##flin
##18
##ecd
prominence
##acles
nod
heter
paragon
parsing
interbrand
indiv
impover
neill
openness
ordain
elman
schiff
overhaul
filip
offspring
frick
flout
penins
endured
loath
equalizing
originates
studio
##regn
narrown
waterhouse
commercials
potentiality
donee
technologically
influx
mccull
segura
havens
constantine
elevation
ingraham
1283
televising
reinterp
1584
royster
1777
colleague
3020
1640
strengthens
bargains
hudgens
##adventure
dealership
##lifies
oneself
consultants
coupler
unexpired
ltv
diversified
predictably
misappropri
disfranch
jacobsen
nullifying
indulgence
vulnerability
incongruity
ameliorative
abdicate
hurdles
intuitive
cromwell
mockery
kneedler
contaminated
##keepers
elihpa
forerun
ventilatory
mohammed
higginbotham
autonomous
outmoded
tulsa
narrowness
coss
dining
dorem
fano
glor
gann
ist
tense
wines
##oving
##mist
##aution
##dahl
##vos
##zler
##92
##arming
##econd
##ateful
##olul
unatt
alerted
##oway
##chard
##quidated
##elected
##tegr
##ghue
impulse
mayflower
##anco
movable
carta
howey
insin
faulk
##orned
bartle
gutier
valentine
monter
precaution
believers
##cribes
groundless
textually
##ampton
geological
kinderg
worried
immediacy
##cyon
##iliaries
tempered
philbrook
irreparably
malle
4208
engagement
1399
ingress
surrenders
peacefully
1216
exhibitions
honolul
woodard
totals
lieb
2409a
delg
rocky
halcyon
linkage
burglaries
darter
struggling
circulars
illumination
ostensible
##franchising
relitigating
donoghue
frontier
refinery
reapportioned
kaufmann
weisman
shackles
portrayed
##illian
lagrand
precept
hickman
hydrocar
edmondson
welding
recodification
nonadher
loopholes
windsor
adjournment
sabbatino
exorbit
norwegian
attractiveness
kellogg
coterminous
doremus
honolulu
hose
hints
mh
mounting
nigh
qa
rak
rko
sine
vs
##mayer
##vine
##kol
##bour
##erley
##entable
##omach
forrest
resists
commute
##ewood
leu
ama
petr
##reet
##ensities
##acho
saud
##ributed
matte
breck
valve
necessitating
maguire
propeller
plaza
codifying
suitum
curiously
mischie
geer
moneyed
distinctiveness
johnny
encumbered
backwards
mormon
intruding
switzer
professionally
interrogating
tenneco
1375
1183
hirab
1805
imminence
1353
dictating
haworth
intellect
technicalities
audiences
charterer
cummins
categorization
tolerates
bedau
shelby
##accio
inhum
reinsured
daughters
yardstick
mathematics
nonreview
yakus
gallons
seminal
kimbell
remind
spectators
laughter
yeah
clover
gravest
invoice
mancusi
nolan
scherk
nonobvious
wrapped
simplest
simplistic
forthrightly
associating
pontiac
endowment
glazer
uncomfortable
carcin
orchestra
discomfort
wilkerson
calhoun
ejectment
malfunction
tungus
schreiber
uninsured
unconscionable
debauch
intrabrand
ybarra
mccullough
mischievous
bard
bone
cary
cppa
funk
hidal
rx
satter
troy
wore
yarm
##aqs
##tably
##iased
##hus
##hue
thy
thre
##esy
inlet
stotts
prods
angry
##amish
cassell
coat
quinc
congl
##ivings
persistence
1810
caring
carne
servicing
determinant
insulates
brant
afterward
35a
ederal
##amped
redacted
##equal
##legious
shortages
michie
1969decided
freestand
stewards
wiser
1958decided
logs
censure
psychic
1282
3616
nondiver
1621
1482
admiral
jailhouse
disappointed
staffs
emergence
jurisprud
naaqs
nonmoving
berth
unconf
depository
monopolist
interlocks
unbiased
photography
dunhill
frail
peremptorily
discouragement
hobbie
accusers
sacrilegious
fmha
instructors
bypassed
unsatisfied
amenability
saturdays
oxy
griffiths
derogatory
impingement
vitiated
harvester
lubben
eviscerate
ivanhoe
blamew
saxbe
hulks
paradigm
expropriation
lukens
infeasible
unliquidated
iredell
crushed
bespeaks
nonemployee
ounce
helfant
dioxide
multinational
treacherous
desecration
vista
monterey
hirabayashi
hidalgo
quincy
freestanding
eh
fou
kes
kus
muse
nce
omp
piz
pto
sbt
sizes
tia
tast
##sfeld
##wald
##08
tooth
tough
##asy
bets
prod
##ppel
##utreaux
exerting
unartic
##abric
##ucks
impedes
##anski
preaching
##emeral
invades
schro
overview
overcharges
34a
##inco
29ø
payor
nonwork
papp
herring
flot
##bta
competed
drill
socied
tread
irrit
testator
wrench
sheph
northampton
1964decided
97th
maintainable
swore
fearing
holtz
uncorr
intimating
gautreaux
2106
woodward
vogel
harmlessness
profitably
overborne
mdoc
harassed
tracked
intermodal
mcnair
6861
undersigned
rumsfeld
ditches
wickham
geared
praise
dissolving
cornerstone
therm
weatherford
teenagers
prefabric
fahy
bookstores
wende
ephemeral
devotional
balloting
blanche
videotape
grubart
hirshowitz
workpapers
countenanced
lakewood
prophecy
cudahy
cappaerts
netherlands
hierarchical
dozens
blameworthiness
uncorrected
cain
damp
egan
hc
jere
lank
pw
pelle
##dp
##tens
##tals
##rances
##bation
##uited
##erger
##esman
##asca
##rott
contum
stomach
##iluted
anecd
sear
alph
##trays
##endorf
shen
shrift
undiluted
leveled
interracial
##iall
meted
quil
perforce
spano
abf
grudging
plum
relent
marker
40th
brendale
filthy
##fulness
noneconomic
ppa
planes
blackledge
developers
80b
dukes
answerable
michelin
buried
burley
burma
donate
metc
##usions
radicals
1947decided
espouse
##intosh
slaton
refunding
1149
prepares
##angle
3121
undertakings
1826
3205
1473
1778
2072
gaz
1270
1625
embodiment
2321
rigors
hudik
redressing
cigars
heartland
underwriter
7207
6972
homer
transforming
koot
extinguishment
intercity
tiebreaker
pendente
pulling
exhortation
flourish
migrate
hurtado
cheney
fixtures
dutcher
superintendence
lurking
##hearted
duffy
australia
merrion
smelting
abbreviated
truncated
halliburton
contagious
saudi
sociedad
cm
fills
gul
mow
mug
pg
sq
tmt
vrb
##fano
##hner
##58
throws
##ermo
##tia
inpatient
##ecke
reper
whir
##ilitary
aca
disqu
##ersoll
##amie
seeger
amest
underage
coburn
coequal
##tefano
submar
traction
##oda
spots
grateful
oblit
##istan
procre
destefano
estep
beto
##ideological
26a
monarch
strate
nonideological
railways
61st
treatments
##iotic
curative
mcad
irvine
lowry
urs
dugger
assessors
upham
debs
freak
commanders
grapp
nearer
hospitalized
summit
appointees
censors
1288
ledes
glaring
disparage
1428
1540
sands
disqualifies
corresponds
5861
loyd
loyola
couplers
journalists
resistor
ics
fabrication
bolger
pledges
karen
extraterritoriality
expediency
postsecond
10762
plywood
platforms
assimilated
fragmentation
staple
misbranding
leatherman
##orrent
interdepend
earnestly
abhorrent
spaeth
adulterated
cogeneration
throat
staircase
caucasian
blasph
bittker
misgivings
qaeda
nondiverse
postsecondary
fences
jama
mute
nipp
rector
uint
wadd
##eford
##ohan
##dict
##tax
##word
##bas
##hu
##jor
profici
##aders
unoff
ally
##lake
##endall
##elke
shred
undone
##ucci
allstate
idios
##ementioned
sokol
prizes
remitt
plumbers
overstates
##resa
tehan
##eta
filter
denational
denote
guer
2901
rovi
erick
evasive
merid
passions
collar
herrick
patrolling
##easible
irvis
libell
predil
101st
jeopardizing
averments
1398
ingersoll
depositing
1416
360k
pierc
##ablec
1266
layer
crump
probationers
analytic
overtly
germ
generator
collectors
wolfe
doubled
sung
honorably
whitmore
apportionments
baal
differentiates
subordinating
floods
ellen
indulging
aforementioned
##rafted
degrad
fugitives
captures
divestment
popeo
fortunate
fortunately
eradicating
accelerate
kalven
disobeyed
blessings
tierney
2021e
unappropriated
congruent
crippling
nonuniform
premarket
misunderstands
pfeffer
surreptitious
nonprice
menominee
hannah
gannett
gutierrez
exorbitant
unarticulated
jerem
lankford
pwsa
amestoy
ledesma
idiosyn
cgl
gorton
hinted
lisen
nad
rouse
wt
##ela
##fth
##wine
##kon
##lab
##bler
##tig
inap
##entric
stones
bex
suable
fors
##utrix
##ithme
disenti
dislocation
disgor
alman
##ands
shit
shad
parlance
##lia
##ucture
underpayments
arithme
peru
preter
supplanting
cannery
accred
correlated
concerts
mohawk
##arios
carte
marina
##versial
clue
closes
timetable
outdated
transm
3101
aviall
stroud
mais
##atherine
privy
ers
##echn
informations
salish
freeholders
warranties
characterizations
irc
irons
penney
numbering
##iminished
wreck
reallocation
singing
summed
succumb
watched
##ashita
mccoy
mccray
##apeutic
vehement
1961decided
slender
conceals
holohan
1289
appendices
1436
1462
1815
emory
noncompetitive
1711
1662
fellows
contraception
disapproves
chevro
batch
ecology
sundays
irrigated
7203
##bben
machinegun
olney
linn
battered
springer
##breaking
woelke
seabed
sorauf
cardoza
9607
bordenkir
reeval
huber
inventive
jonge
undistributed
imperfections
wednes
bmv
austria
traumatic
redefin
rfg
psd
recompense
yamashita
klutz
redrawing
oligopol
pedestrian
paraguay
skewed
sobriety
subcategory
preoccupation
creighton
hiatus
deforte
jurisprudential
kootenai
bordenkircher
klutznick
ats
boul
cablec
doth
fcla
naught
riders
stin
tud
vaden
wer
##nison
##dgett
##firm
##38
##idler
untain
alg
alkal
##aman
enron
casinos
underpayment
subtracted
impuls
neu
neff
spies
presc
finite
gene
##axed
##formation
speculates
betting
38a
barth
barney
scram
bother
monahan
unionized
locus
eddy
harney
engraft
negatives
candy
militates
iras
litem
traverse
grantor
artware
drawers
fifths
libert
##luence
jealous
debase
assignable
segal
integ
greens
majoritarian
innis
unsubstanti
##ublication
midway
1843
1434
1272
culver
1611
hyster
1692
##holtz
biddle
loser
moments
mario
surveillances
coupling
disproportionality
eck
hester
liberalized
hansberry
roller
perpetuates
braz
##falls
hauled
costing
ladue
twelfth
maple
080
catalogue
reminder
tateo
transgressed
misinterpretation
wingo
superintendents
sanctuaries
gottesman
bystander
featured
unexceptionable
saddled
annoyance
envisaged
redesign
zapata
reintroduc
russello
faulkner
switzerland
mcadory
roviaro
lisenba
chevrolet
fclaa
untainted
001
gissel
lge
mast
ness
poff
rucker
sited
##oher
##vised
##rat
##lind
##zetta
##56
##ervi
inal
toomey
stance
##verdict
debit
byers
sebben
heath
undiminished
##ucity
coates
trout
[...]
