[PAD]
[UNK]
[CLS]
[SEP]
[MASK]
!
"
#
$
%
&
'
(
)
*
+
,
-
.
/
0
1
2
3
4
5
6
7
8
9
:
;
<
=
>
?
@
[
\
]
_
`
a
b
c
d
e
f
g
h
i
j
k
l
m
n
o
p
q
r
s
t
u
v
w
x
y
z
{
~
¡
£
¤
¦
¨
«
®
°
º
œ
α
β
γ
δ
ε
ζ
η
ι
σ
υ
ω
х
—
’
“
”
‡
…
‰
€
##l
##a
##d
##i
##t
##o
##r
##c
##e
##p
##b
##n
##k
##g
##s
##y
##x
##m
##h
##u
##w
##v
##8
##6
##f
##z
##q
##5
##4
##9
##0
##2
##1
##3
##7
##j
##°
##œ
th
the
##er
##in
##at
##es
##on
##en
##or
##ed
##ou
##nd
##an
##ing
to
##al
of
##re
in
##it
##ar
and
##as
##is
##ic
##om
##ion
##le
##ent
##ll
be
it
re
##ot
##ly
##ve
is
##st
that
##ow
##ut
on
you
##id
st
##et
##ct
ha
wh
for
##se
##ur
pr
##ld
##ay
##ver
##ch
was
##ce
##ig
an
##ir
he
we
##im
##ation
##am
##th
are
##ad
##ol
as
##ith
not
sh
##ter
##op
##il
they
with
ne
##ess
de
##est
##od
se
##ke
con
##ill
##ers
##ment
fr
do
have
##ere
##ul
at
ch
com
go
##ould
or
su
##ate
##igh
##ant
##ain
##ge
li
pro
ex
kn
##and
but
there
##ac
##us
##pp
al
ye
##ies
tr
##ist
##ab
##ust
by
know
ab
so
##ore
##ity
##os
##ort
from
##mp
##ost
all
##ive
##out
uh
wor
this
##ight
le
me
##ally
##gh
##if
##ome
##ard
no
##iv
can
##all
##ap
##ud
##ie
en
##un
##ect
man
sp
##our
his
##au
##art
pl
has
had
ar
##ough
##um
ma
##el
one
were
don
un
##ast
out
##qu
about
like
##end
##oc
any
will
sa
##ok
##em
bec
pe
their
cl
##tr
##ff
##act
ad
##ous
if
##one
tim
up
##ice
te
what
would
more
my
just
##ind
##ound
##ong
##ink
##ib
##ish
comp
gr
##ial
##ah
##ions
ag
us
##ack
##ated
##oun
##her
##ause
res
them
##iz
##ure
##ther
ac
year
some
br
##ople
##gr
did
people
##ip
per
work
##ance
she
because
##age
##ine
##ak
get
##orm
##ag
cr
who
##ide
been
imp
when
ever
lo
well
yeah
##ans
am
ev
time
think
new
exp
##ays
inc
off
qu
##ame
##ence
##ings
##ich
than
rep
##ite
##ations
fe
##ach
other
##able
##are
##ace
over
her
##form
##ue
##ery
inter
##ire
##ose
int
ser
co
dis
dr
mu
only
its
how
##ub
##itt
most
tw
##ult
every
##hing
sc
##00
##ors
##ree
##ary
bu
bo
##own
app
##wn
ro
could
##ep
po
good
your
act
##ign
19
part
him
ta
##ade
##enc
##ber
la
##ild
never
very
##reat
##ro
##ia
##ec
said
##lic
##uct
pre
which
##ass
##av
cent
comm
ve
ind
see
##ens
want
##ase
##ical
##ments
##ied
str
now
acc
rec
need
many
##int
##fer
##ount
##ved
right
gu
##pt
##ang
af
##ark
##vel
really
des
##ory
does
should
##ates
und
into
these
##ition
two
##so
fir
##ond
##lo
car
##ile
##ian
##ents
lot
ass
years
sm
much
here
bet
even
##ty
##ving
also
##og
may
um
col
thr
our
under
##ail
##uc
serv
then
look
after
##ord
##oss
progr
mo
##anc
##lect
##iss
dec
##ick
mon
##ater
fin
where
##tain
way
fo
##cess
cons
##ict
going
leg
prob
back
inv
##te
long
##ious
##omet
##ities
though
got
old
sy
##ices
##amp
program
##les
##thing
too
rel
##alk
##eral
bl
make
high
op
fu
##vern
sec
somet
##sel
contr
down
inform
rem
reg
jo
first
##ft
made
##ning
dif
##its
##ys
eff
##ual
cost
##mm
##ock
##fore
pres
##iver
##ible
prov
govern
pol
##ons
##ry
hel
through
##iew
##fe
##oth
didn
information
##ful
##way
##ath
great
##land
##we
still
##ublic
##gan
take
state
help
##ouse
sch
##ury
coun
##ily
law
##ting
##erm
before
those
##lud
requ
fl
##ways
##ational
##other
##urn
used
supp
stud
##ular
bus
wr
hu
##ject
##ise
##ittle
little
gen
##ific
oh
##lem
report
say
##get
##stem
id
##ather
add
bel
cour
##ually
##ating
system
##ange
##ative
use
war
find
##als
government
sub
##atch
always
##ility
mean
own
ke
##ited
day
pers
things
##ts
sl
call
house
##orn
vis
ll
##ks
city
sur
rev
something
includ
disc
hand
##ards
legal
##uring
fam
such
being
##ave
ob
emp
pay
dep
att
again
show
##sp
differ
##ures
bas
##air
world
cap
##mb
##olog
interest
##ered
small
plan
last
prod
kind
el
##ra
##eric
mar
place
around
##ient
##ix
inst
##oney
par
##ics
fed
ph
stand
found
##ues
mod
##ress
real
lar
##ew
americ
public
home
val
child
agenc
##oup
pop
##ug
red
set
199
##con
##ying
care
happ
loc
##led
##lish
same
##sc
ed
end
import
##ool
##self
money
##ars
countr
art
##ene
##ants
##ives
min
organ
##day
##ves
resp
anything
three
##ists
problem
ear
ho
while
##ident
##ody
def
##cent
est
av
ca
stre
town
eas
ru
mak
far
##ower
federal
organiz
person
read
century
start
school
tak
big
best
nor
sin
thing
cont
talk
rest
let
##ood
##red
met
prop
mark
##ek
cle
life
better
build
##ri
del
both
##ork
##osed
num
##ably
dem
##ines
each
##ern
##iness
##az
spec
##ets
##ted
come
sou
char
sim
play
comple
perform
##yp
hard
seem
fact
effect
put
econ
##ear
case
cor
##ren
med
econom
hum
less
form
services
few
fund
during
sk
aud
ret
##ution
point
##chn
##io
##velop
lead
incre
##ces
thought
eng
book
might
##llow
em
important
belie
##xt
##ven
det
wom
##atter
post
sure
mil
ask
since
cur
##ween
between
different
must
##iet
doesn
chang
compan
away
national
service
##be
tour
result
##istr
##ten
develop
main
iss
bar
nothing
aut
another
##ids
##urch
techn
##ee
watch
##hip
conc
soc
adv
percent
business
##cept
##lly
##ided
##ently
sign
##ior
tax
product
bene
##ized
partic
consid
##side
##ope
air
##ier
ent
visit
##ism
aff
hist
keep
went
run
##ash
##irect
country
##ever
##err
##loy
area
##res
why
##ata
manage
feel
cer
##der
design
##ilt
turn
open
##gest
water
times
benef
fun
##ason
##ute
ide
process
##ention
##ize
head
##alth
muse
##ward
##ically
temp
sit
children
##uss
island
commun
direct
guess
200
##ital
##body
near
##ins
four
week
room
##tern
states
without
mr
quest
rule
sen
hot
##oy
##ank
prof
##rew
cover
##ao
data
trans
left
##ural
large
##ling
jon
allow
mus
sw
##ired
once
exper
##ale
bud
view
sever
##ters
month
##str
conf
control
adm
mill
miss
##ains
##ected
financ
##ately
done
number
##pl
mail
##aw
##til
bad
test
invest
follow
tell
account
anal
men
##ined
employ
##que
##gress
##orts
management
maj
ref
suc
enough
next
gl
##ger
white
##co
camp
typ
appro
president
land
prot
da
hour
##ality
yes
doing
##ats
took
##read
##ared
programs
five
clint
night
000
##man
pret
job
kids
##less
museum
##ley
underst
##ology
##ble
##ends
##ides
probably
built
fri
intern
north
clinton
pass
ann
elect
##ron
pain
top
port
20
walk
##ians
secur
##cc
poss
expl
major
everything
support
##ience
priv
church
##cr
shop
cre
##ought
equ
give
group
south
##ric
##wh
wanted
came
youn
polit
gao
##ton
##ees
news
nat
today
terr
along
change
office
review
tra
grow
enj
pal
##iven
audit
until
ris
##ead
contin
stay
##ness
market
against
##ner
congress
class
several
##ned
crit
opp
##augh
able
##ases
stat
oper
power
collect
require
pract
##ages
american
seen
##ced
happen
rece
known
gener
mor
term
##uck
certain
beh
##ction
pretty
costs
everyone
bill
##ially
##ell
##ision
18
fac
##ral
lsc
inf
##aper
called
var
second
mov
street
name
ra
##up
##br
##els
polic
family
##ames
clear
##ime
##ds
##ote
security
agencies
ap
pat
cal
tre
##lement
summ
##erg
project
financial
ext
auth
##ived
however
huh
##ither
cond
won
##ified
understand
free
curr
arch
local
performance
else
impro
sal
##ensive
popular
often
level
invol
enjoy
trad
meet
center
ok
##ph
##ey
course
live
general
##hn
##ump
agency
##uff
ste
##ased
having
avail
story
##ivid
10
gre
past
##li
hal
##old
##ering
##ivers
health
examp
getting
cut
stop
##rop
ins
##ised
offic
##used
john
order
arr
arm
##idd
believe
problems
doll
united
success
provide
matter
##ained
isn
##ission
##eng
budget
wa
women
##uction
##ency
ten
##arr
wasn
low
six
win
##most
##ether
quite
rul
least
vol
##ember
complete
##aring
reason
repres
##ument
spe
capital
analys
actually
##upp
depart
building
fig
making
saving
activ
study
days
##erc
##ability
food
san
sta
exc
exec
park
available
try
ey
##ients
##gin
deliver
list
side
##ateg
thir
##erv
##ending
##ional
road
million
lim
says
##aph
cult
orig
black
ago
sing
##ulation
cho
##aster
vill
told
whole
young
love
##over
estim
site
tot
company
jap
based
saw
##ances
almost
japan
##ored
idea
##iving
##ured
##iting
gard
history
comput
among
##ife
addition
individ
rather
mag
yet
##imes
beach
##ipp
indust
##aut
non
lawy
bre
##uation
tomm
fut
##lf
full
tommy
half
origin
ir
sup
makes
social
individual
##inc
asked
jud
pos
looked
##ources
working
deal
pur
##sh
changes
pa
wind
whether
discuss
prom
maybe
15
sug
##ories
mount
##enty
distr
attr
easy
author
hous
ident
represent
##ik
pie
##ench
occ
##aces
resear
research
##idence
interv
execut
okay
acr
analysis
organizations
oth
west
##hod
aw
wall
##ences
others
##omm
benefits
imm
sun
##ield
trying
nice
##rist
##lev
private
later
##ina
##ont
including
manag
fish
ple
che
##lished
##na
future
sol
fil
true
##ended
needs
hor
##line
needed
tupp
##ibility
either
knew
enter
har
respons
sound
court
tuppence
york
hold
kill
lear
##ret
train
usually
##acy
brit
question
stuff
within
tow
early
issues
ce
face
technology
beaut
outside
cann
buy
##ert
rom
##fu
##att
##bo
hill
short
##ged
lab
sat
agree
heard
##iety
##ison
poor
present
gir
given
eg
method
##atic
abs
temple
amount
remember
example
due
env
travel
results
signific
income
##ination
##aim
using
##aking
special
17
king
##ane
someone
interesting
estab
fail
##pr
miles
prev
bur
postal
##utes
across
step
##ued
admin
become
##aps
fav
colle
christ
looking
bit
talking
wond
ep
regul
include
##ove
standards
diff
seems
music
tex
access
##hold
anyone
team
systems
quality
hund
12
##ense
hundred
east
doc
meas
modern
possible
ren
##work
address
##oci
worth
##icult
hours
dest
mind
rate
sil
sty
##where
##ister
ant
##ape
jew
##oke
profess
##ief
economic
alread
accord
staff
already
attract
mom
##iod
couldn
simp
particular
associ
effective
corp
##0s
drug
final
consider
enc
period
toget
coast
##ru
door
paper
##par
##by
reach
##ortun
together
squ
net
move
suggest
difficult
im
pot
cannot
alth
##elt
policy
envir
compet
close
record
##iding
months
although
##ising
count
foc
##ials
taken
coup
dist
held
environ
##itions
lost
model
civ
##ried
fine
##ows
daan
significant
eur
##ott
##fully
esp
ge
value
educ
computer
##ming
##unch
started
girl
god
hus
pen
tur
exact
movie
init
16
dollars
drew
particip
##ny
himself
improve
vi
##ms
department
line
##app
fall
bal
studies
defin
##uce
death
##ished
##mbers
dou
constr
##rin
descr
entire
risk
current
human
summer
##atory
##itting
sometimes
members
##band
contain
##ocr
implement
##me
sell
impact
woman
necess
##aint
ground
shows
##sw
sho
planning
return
sn
grand
accept
organization
##ov
##graph
rock
##gle
thous
development
thousand
europe
dom
foot
friend
environment
age
concern
infl
french
exist
##ilar
demand
##ature
strateg
republic
pub
increase
determ
administr
##oring
civil
fight
##ator
##imin
##ush
##ogn
cases
scre
specific
approach
behind
beautif
pick
##ica
companies
##itch
ones
arg
lit
rules
ach
community
##ius
##hol
workers
deb
single
personal
sort
total
rout
mem
pu
flo
const
##itive
tradition
##ese
assist
protect
haven
eval
fore
press
##ilities
favor
felt
object
claim
considered
rich
sent
bring
longer
##iously
dev
cred
husband
##aves
teach
wrong
recogn
river
resources
hun
justice
achie
areas
subject
##ening
hear
soon
commission
wouldn
fre
##ped
ital
regard
fur
##ball
leave
grant
required
##son
##aur
##itted
lou
##ake
alco
du
anc
##irc
employees
political
begin
desp
famous
aren
alcohol
univers
answ
##ama
living
light
british
activities
quick
##fect
##selves
requirements
according
##omes
expect
cast
##ium
wife
parents
similar
##ify
eight
##ony
gave
##ume
##ept
collection
became
##ropri
college
100
adrin
ele
works
vict
##vers
turned
price
involved
proper
##amed
espec
comes
##ators
##orp
poll
assess
key
experience
strong
offer
especially
treat
##aft
common
tv
coming
mur
happy
delivery
##yc
related
reports
takes
##ourn
instead
taking
texas
##lin
##ival
bir
##fact
##thern
198
exactly
##omp
##urs
self
completely
##ges
##asing
##ctor
expensive
america
sea
industry
histor
##ffic
hands
figure
eyes
mal
##ked
sense
couple
##of
charact
beautiful
##ened
circ
began
refer
midd
##ots
dead
ill
contrib
nation
sir
##ypt
fle
##tion
section
friends
repl
base
##hib
perfect
##temp
houses
visitors
heart
minutes
type
table
gold
##ential
means
##umb
likely
##aged
famil
milit
restaur
middle
cop
bro
worked
morning
ii
##uses
evidence
obs
detail
wonder
jul
cust
##ze
goes
labor
##ping
##uced
avo
questions
late
##atives
comments
further
##use
##ann
huge
attorn
wood
##rect
france
drink
hur
mult
14
bed
relig
economy
opt
##gn
issue
mad
board
##reme
twenty
##bor
population
funding
lawyers
##ique
sex
central
shr
words
themselves
lake
reporting
speak
hall
##bs
emerg
vo
##yal
chec
event
##yn
sold
recent
hope
style
div
viol
foreign
sett
proposed
er
appropri
11
front
happened
village
cath
contract
standard
executive
hon
provided
brought
changed
journ
surr
30
##bert
aid
field
norm
##ring
above
democr
ancient
lang
lived
##istic
conn
perh
##isions
wide
##aign
neg
fair
perhaps
english
purp
roman
##epend
vir
washing
expected
allowed
campaign
trust
received
describ
anim
jer
recomm
conv
mrs
poir
fif
plans
neigh
##ler
ens
places
valley
poirot
din
peace
##ledge
kept
surpr
blo
displ
struct
independ
##erous
unf
scr
attack
##airs
leaders
archit
fa
fire
##den
influ
chap
tried
chall
decided
corpor
weather
##ols
##isc
architect
jun
##aced
books
moment
batt
mot
##ai
##ky
##ceed
##ization
buildings
epa
gone
pict
inside
##ips
attention
green
washington
##enue
decision
opportun
##let
##itely
military
bank
##urance
fort
heav
dog
higher
eat
break
##amb
deep
boy
investment
trade
prefer
entr
gets
paid
egypt
##he
nobody
none
son
applic
game
mass
reform
julius
##ires
request
third
mother
whate
spend
party
clean
whatever
lack
creat
##ores
span
dam
gall
mos
rid
express
saint
##ss
necessary
##ental
##inese
germ
drive
color
unc
prep
funds
chinese
square
district
custom
trou
##akes
designed
hotel
paint
piece
langu
james
vot
recently
##issions
taxes
hit
##med
education
##lus
knowledge
appear
##ades
original
household
lower
13
item
##osing
acqu
relations
rates
##ouch
##lled
itself
super
effic
artic
situation
##eter
created
ord
manu
bush
##sy
##val
##arch
action
following
culture
##ike
##iqu
crow
##aught
pan
countries
##ograph
word
auditors
surround
cat
save
secret
corn
ju
##estern
insp
select
mer
spent
ban
bon
spending
manufact
pack
##ronic
##rupt
gun
mess
chance
##iction
remain
retire
2000
finally
##ams
royal
committ
groups
ways
##hood
##iled
plant
palace
soft
saying
range
lad
scen
##ios
##ites
##osp
cook
##itten
wish
##isl
seemed
society
shops
aver
##ims
practices
efforts
everybody
natural
isra
focus
israel
mich
engine
character
##olution
complex
apart
broad
sav
moved
laws
di
died
##apers
##ource
annual
bey
princ
training
stock
comb
cold
credit
prior
seven
slow
growth
document
##igr
throughout
sand
intr
appe
ran
separ
lives
extr
internet
##port
##uries
located
medic
princip
50
emb
mater
##ipment
older
tourist
definitely
notice
indian
western
prim
legisl
streets
trees
japanese
sant
##idents
increased
geor
##aries
##thorp
##ops
altern
##ded
##more
stone
remains
benefit
##hic
university
wee
tourists
##bur
ingle
supposed
exam
maintain
position
included
sle
share
phys
respect
inglethorp
km
##uth
prices
##for
draw
americans
running
views
##ci
##xic
farm
card
alone
reported
cele
cause
narr
force
except
communic
ah
fill
gree
wants
traditional
favorite
terrible
conduct
celebr
##ulpt
##ift
equipment
critical
size
##ises
sculpt
exhib
clients
students
assistance
despite
station
subst
##ological
destro
russ
##arily
##ification
swe
tar
doub
beyond
father
wild
##olute
##ude
former
weeks
dark
den
upon
##izing
impress
written
paris
emissions
voice
ign
ti
inn
toward
quar
##ma
##uary
##cell
##umn
body
##oon
##go
role
garden
additional
fix
china
fell
developed
gardens
link
round
##ength
established
dor
hop
rain
##zz
movies
bab
covered
shopping
continue
practice
learn
dav
mary
mach
adj
discover
page
thinking
indic
surv
islands
##set
absolute
clim
provides
generally
quickly
##oming
season
insurance
guy
interested
anyway
initi
check
##oint
feet
increasing
cand
easily
certainly
vers
##und
region
encour
sad
proced
##ights
instit
fash
##ware
install
language
dang
##ole
pred
imag
##een
extreme
led
##utions
fres
safe
below
tomb
##ctions
##vert
feat
affect
reflect
##oph
crime
cas
vote
##ode
relationship
##edi
establish
myself
international
dress
effects
##to
##oses
average
web
products
battle
blue
largest
basis
afford
evalu
destroy
dall
rights
looks
25
##ging
goals
earth
bay
bought
sky
skill
ball
rad
##orr
brown
slate
choice
dallas
hol
mis
##egr
events
drop
patients
##estic
published
gar
purch
##pect
##xim
deg
cross
lots
various
hosp
tend
wealth
phil
restr
accounting
growing
spanish
hate
sites
space
german
##ables
##iff
entities
volume
pleas
answer
retirement
mid
mand
threat
closed
carry
demon
production
steps
construction
emergency
officials
fast
##leg
comment
letter
nature
floor
##bers
horse
##bed
##itor
weap
club
##ck
##ana
hotels
phot
leading
glass
internal
##aughter
terms
ded
##iest
##ex
operations
schools
correct
immedi
attemp
trip
##aving
flow
fashion
mostly
meeting
committee
fem
wait
appropriate
recommend
luck
##erve
quiet
actions
difference
##asons
agre
helped
trouble
##iques
path
ur
ven
##ches
ali
includes
achieve
louis
excell
##enced
##like
cathed
##ining
whose
opin
wrote
watching
cit
mist
##ux
##ask
integr
avoid
##ino
##scape
tower
##ne
stories
##ustr
individuals
horr
families
rap
goods
lawyer
##dh
susp
mic
##uments
consist
mart
##ob
##uted
stood
##olf
regulatory
serve
serious
authority
##aded
spot
sched
mission
sounds
ensure
##ax
##unt
offers
particularly
cities
tit
prec
subm
managers
measure
blood
display
master
##astic
##idge
197
gate
##ivity
##room
medical
40
sens
tom
##ara
effort
nearly
simply
dave
stra
successful
simple
knows
anymore
guid
obv
absolutely
dut
##entions
track
accur
connect
jes
named
##yr
##ively
sports
cloth
levels
winter
##ipped
fly
confer
truth
regular
reading
##usal
reduce
thirty
liter
host
##ban
items
senior
administration
ess
##come
##wide
drugs
imposs
revenue
passed
pieces
frequ
multip
##ented
bye
ready
killed
je
lat
ver
##iced
savings
fisc
prison
reli
investig
equal
occur
accomp
media
types
excellent
60
spl
payments
policies
official
army
jewish
restaurants
1996
constant
##erry
##onse
perm
cam
##iling
entertain
journal
mort
##erved
yourself
centuries
decl
smaller
beaches
industr
christian
touch
##pped
##atively
respond
judge
chair
disp
seek
experi
##ster
##ibly
bes
payment
methods
commerc
religious
mention
##lling
beat
newsp
india
potential
fiscal
walls
property
##eed
##nes
##sequ
##ung
somebody
paying
rooms
sword
beginning
impossible
grad
column
neighbor
##oud
added
larger
response
##ille
cars
2001
politics
film
article
##ls
decor
conserv
treas
george
david
ft
##omb
##anced
kal
director
buddh
critics
independent
##iny
parts
block
lay
##reci
##ulf
mountains
forward
ange
useful
married
phone
electric
estimates
county
vac
box
limited
challeng
catch
gives
inj
##iring
compl
environmental
giving
##asc
adop
beg
wear
196
enjoyed
failed
participants
purpose
animals
convers
southern
regulations
jerusal
jerusalem
##lier
served
science
playing
magaz
hong
sac
##back
nearby
receive
calif
structure
ben
glo
hang
spain
greater
warm
capt
analy
mountain
responsible
mix
ut
##put
star
spir
##uctions
providing
variety
magn
note
obtain
constit
hans
pil
##ira
##ada
points
autom
watched
castle
born
bott
pun
hair
advert
##teen
distrib
republicans
meant
##ornia
propos
believed
profit
store
##ously
interview
fest
kong
las
rele
sector
sud
coff
consum
requires
oppos
clearly
fishing
kid
coll
basic
behav
ib
##aud
reasons
eastern
tast
##icians
guide
influence
band
##vey
worse
spoke
cathedral
##ety
spring
##ground
setting
charge
swim
stayed
eye
european
flex
paintings
source
qual
prem
directly
straight
500
omb
##fort
##aters
function
continued
assessment
##ael
ability
expand
decre
remained
jobs
italian
sleep
adjust
candid
caught
rural
##eys
liber
opportunity
destroyed
agreed
##iers
suff
decisions
discount
followed
associated
domestic
eventually
send
tick
##wood
prin
weak
worry
telev
series
remark
empire
thousands
alternative
greek
hanson
spect
tele
progress
ideas
estimate
jack
appl
ended
raised
##mon
factors
daily
billion
currently
route
extra
narrow
extremely
##ander
crimin
easier
strategic
21
##ners
##uit
apply
seeing
played
electronic
rare
##oes
liked
professional
association
shot
unit
flor
writ
contains
jama
##wise
minor
stopped
micr
gi
##ament
therefore
sales
shall
england
##ergy
condition
hurt
loss
##gas
##oted
affected
create
debt
cash
date
##iar
##change
unless
murder
corner
commercial
##cil
##itz
##key
##ula
##action
statements
opened
categ
hind
willing
adult
starting
towards
attorney
efficient
quarter
##orrow
thus
reb
exerc
##icted
meaning
ken
clock
immediately
eth
doctor
arab
clos
gas
pet
##aped
amaz
contact
talked
fresh
citiz
cheap
##ares
brother
##ocked
northern
choose
target
sudden
1998
majority
estimated
intervention
bord
oil
##ones
mel
lose
values
identify
attorneys
entrance
games
##ipt
capac
musl
testing
activity
originally
conference
##ena
##ests
chief
colon
demonstr
california
die
grew
firm
assets
occas
claims
ul
##chan
anywhere
fully
jan
boat
appreci
emper
aug
hyp
sus
doubt
fol
##lls
march
biggest
entity
treatment
bono
procedures
rue
theater
stores
##antage
saf
residents
craft
waiting
multiple
sor
frank
brief
write
introd
lunch
vide
wine
franc
resort
oldest
statement
funny
generation
cultural
gain
match
sight
##cl
forg
trail
lew
plants
##izes
disapp
listen
##levant
wonderful
features
television
##tim
##emp
##eth
##ibilities
bridge
offered
parties
explain
##umption
italy
search
cool
transport
please
evaluation
##force
hospital
pow
##uing
##ague
assum
immigr
hills
daughter
##reg
shown
sund
compared
towns
existing
ahead
homes
los
od
##ule
dram
##week
feeling
jesus
gore
unlike
vegas
1999
camping
positive
grantees
##ps
repe
shouldn
standing
projects
implementation
coffee
merc
nine
##bb
##ney
##kn
##ado
location
violence
dinner
prepared
clothes
mine
samp
##can
##itude
intended
completed
objectives
heavy
##ream
##istics
##oken
evening
traffic
##raid
dollar
err
july
baby
cub
dub
sitting
tall
tough
sev
guard
highly
earlier
refused
industrial
neighborhood
##ham
##onna
##oles
interior
moving
walking
anti
separate
breat
stick
starr
lie
businesses
newsweek
doro
sources
##kes
201
discussed
reached
birth
dedic
##men
calls
numbers
representation
learned
tal
theory
surpl
concerned
michael
burn
##ij
##ta
mexic
energy
loved
thinks
commit
writing
limit
award
cav
patter
##mer
##inct
plenty
draft
afraid
temples
snow
architecture
nap
rand
wer
##oft
forced
worst
risks
totally
member
software
capacity
psy
race
rail
##inated
welf
amb
thank
counsel
council
understanding
##ycle
opinion
welfare
papers
##inating
noted
prosp
holy
caused
election
determine
fifty
rac
thorn
robert
defense
routes
acquis
rent
slight
revolution
engage
recognized
##ucing
police
busy
##riage
vari
picture
susan
psych
bow
retr
##irt
spee
instr
1997
performed
historical
behavior
##los
stew
actual
symb
##centr
##aza
controls
powerful
bother
##ifying
19th
minim
minute
##azz
conditions
protection
weren
##ller
advoc
republican
boring
##outh
bron
ride
##iday
waste
##ested
statue
16th
eld
uses
brand
appar
18th
radio
august
##iles
concept
trib
relax
handle
##fficient
martin
##lam
##50
##ulated
##iveness
screening
pictures
bag
ton
##light
concentr
union
survey
foundation
executives
normal
jury
##af
##oh
leaving
##oking
accounts
satis
regarding
manufacturing
cow
gent
nin
wed
##ae
##eless
discussion
prevent
dangerous
emperor
##mber
##etic
libr
##ender
importance
hundreds
football
gather
##unk
cru
rulem
interventions
entirely
virgin
micros
via
##erate
neither
grass
painted
##liance
et
##dom
##mas
client
incent
overall
conclus
pattern
bi
bare
dan
golf
print
novel
##iel
log
profession
lux
##gu
##ston
comfort
194
findings
records
golden
unfortun
fasc
##pper
unp
unique
restaurant
june
weapons
##enge
##ieval
1995
involve
lady
cards
fat
exchange
##using
strange
strug
stands
matters
purs
material
citizens
rulemaking
dod
push
vand
##ca
##wor
##ald
##lex
##antic
alt
units
##ago
otherwise
afric
career
suggested
pollution
il
thanks
guys
housing
competition
gallery
filled
dad
rise
##zen
arts
willi
##ancy
greatest
produce
defic
senate
transfer
employee
glad
aware
mosque
relevant
compliance
fear
veget
processes
situ
identified
network
double
shoot
determined
22
rose
conflic
manager
households
bath
mall
oct
finance
happens
described
nod
names
task
lif
text
recip
cert
leadership
chapter
##oo
##otic
##abor
highest
earn
mac
##mark
##adem
##asts
monument
reduction
markets
medieval
technical
announ
ira
jane
peak
pool
decide
register
flat
examples
concerns
##burgh
skills
acquisition
bomb
yard
##rel
wel
spread
interp
rob
##enses
leader
reviews
##mos
weight
enem
calc
##idden
17th
girls
accepted
abuse
uns
##aging
offices
student
changing
advice
figures
scenar
appeal
imagine
##nie
##ket
##eria
monaster
helps
players
keeping
fighting
drinking
amp
##da
##oned
sem
suit
scient
boil
command
guar
depend
founded
skin
critic
microsoft
trial
gotten
helping
planned
advantage
territ
initial
merch
substant
cyn
lines
goal
##agon
irish
details
ultim
##rid
online
##tered
defe
chem
indeed
mob
produced
surprised
machine
entertainment
spectac
laugh
mir
islam
throw
circum
medicare
version
conversation
sam
##sid
##olic
shel
##unte
firms
factor
status
volunte
previous
corporate
mortality
speech
mcc
##eries
##orses
bob
cafe
stret
funded
exercise
dedicated
bul
mc
##ais
##do
##anch
pra
##ulate
##oked
##akers
showed
kinds
holly
walked
pleasant
gradu
vast
##erly
##ctors
forces
quant
buying
aftern
differences
coverage
accountability
congressional
window
degree
guarant
vice
tea
artists
raise
virt
faith
climb
##nam
##west
compar
##roll
supply
finding
honor
legislation
schedule
tap
stup
heat
tri
hadn
grown
##gry
##berg
##ancing
relatively
selling
malays
fortun
spirit
library
horses
reve
users
invent
suppose
courts
younger
requirement
cuts
speaking
responsibility
honest
angeles
row
##ba
##ortion
##emey
developing
measures
recommendations
opposite
bou
lic
length
##ries
forget
hell
shar
feed
##ictions
models
facilities
inspect
engineering
swimming
gh
frame
twice
##ension
recon
concer
##place
steel
argument
primary
rome
tun
aspect
lies
plain
bright
editor
flexibility
##emeyer
##lig
##inary
##othing
vehic
elig
organizational
advis
arrived
presented
construct
slowly
magazine
jamaica
cart
mat
##ein
tools
inqu
strength
desert
tests
portug
illustr
perfectly
santa
breath
vandemeyer
hasn
familiar
amazing
bound
cab
##cer
##bal
finished
advent
painting
der
ine
driving
visited
irs
windows
democrats
neighb
chapel
challenges
dish
era
tiny
##oti
##ayed
dece
##endish
resident
roof
occup
freed
massive
song
##gs
##orters
shut
##ession
centre
issued
fourth
speed
jews
mere
##oln
tro
confir
24
##ii
##ha
forth
##ulous
sufficient
scand
mont
consult
owned
marriage
instance
numerous
techniques
corporation
conducted
linc
##ji
##era
##ini
##onom
contemp
worried
saved
imper
carter
topic
movement
regardless
options
guidance
cavendish
lincoln
gd
pic
##bon
##inal
192
governments
##ologies
opportunities
russian
constitution
cell
iron
##inger
##reh
##itness
perman
surrounding
circumst
gal
##gd
##atically
fraud
193
slaves
audits
tours
##insky
returned
observ
sunday
illeg
alex
hen
nurs
van
##iency
##ties
##eness
fired
decline
##ardship
weekend
telling
improved
crowd
dublin
unfortunately
bond
tree
##time
##ero
##ari
chic
broke
fellow
contro
owners
reduced
responsibilities
silver
picked
fixed
electricity
sorry
afternoon
lakes
ou
##has
spr
compon
strict
gothic
counter
succeed
satur
surrounded
safety
gdp
bure
ice
lond
haw
sept
academ
queen
##owned
carri
smiled
apr
agreement
negative
cup
mile
##tom
##bit
##hab
##ford
stage
shad
carved
realize
retail
eleg
damage
magnific
hollywood
cio
##uous
##orary
unable
becoming
somewhere
herself
shook
screen
selection
jump
native
ol
rough
rang
##arian
stated
likes
compr
dry
marble
asking
conclud
holding
attractions
distance
contributions
vacation
london
ber
##per
##itors
##enth
##sec
ship
##apt
provid
reductions
putting
2002
negoti
orders
title
kar
noticed
conqu
aband
meat
upset
boys
boats
leads
productivity
statues
patient
teams
message
bell
forms
calm
memor
apartment
impressive
female
suddenly
bureau
gay
rub
consequ
chann
tru
edin
runs
##holders
victor
gift
##ett
agric
dism
symp
typically
terror
burden
rena
william
edinburgh
fan
hat
rat
waters
##ding
coal
challenge
video
spectacular
agricult
gonna
nav
pound
proceed
enh
worksh
##issance
approved
##ront
newspaper
nodded
bars
kent
mouth
##pm
##stein
whom
proud
##ulations
##izz
cry
believes
##iking
addressed
principles
physical
##nic
hearing
conver
lawn
presence
depends
defend
communities
moral
stake
computers
friendly
shrine
fairly
innov
punish
aim
furn
##hi
##ched
##adel
disag
produc
explained
facility
managed
documents
renaissance
kitch
##equ
##aming
maxim
amend
scale
##encies
join
madeira
belong
churches
roads
loud
communication
dropped
photograph
consistent
january
april
aust
sar
seat
195
carp
attend
basically
protest
aliens
mond
##off
##wards
fee
schol
letters
delight
magic
##gment
##house
clothing
fees
howard
pover
centers
smart
reasonable
penal
strategy
pressure
teacher
purchase
flowers
besides
apparently
300
bod
hers
hide
mas
##enn
##ita
mechan
click
compreh
##iza
brad
explan
entered
religion
discovered
por
sick
alive
resorts
##well
flight
1990
edge
pointed
absor
christmas
elements
customers
encourage
##iment
##tery
##aints
loan
##others
elimin
content
restored
trading
learning
forgot
freedom
ath
##gen
##icip
whe
ash
leather
hero
monica
subsid
##ashed
reviewed
operating
awful
specifically
creating
horrible
criminal
poverty
fal
pia
sister
wil
##ois
##east
##ville
shape
##iverse
interests
hardly
balance
recognize
soldiers
democratic
advertising
esc
##iy
##uk
thick
pray
neat
dole
##elve
clin
##aret
overs
skies
attractive
random
piazz
27
pm
##eration
##alia
onto
##ida
manner
plus
brill
increases
approxim
harbor
sexual
application
accurate
ox
rh
##lies
wearing
##antly
##ishing
##agan
scott
decade
owner
emot
millions
missed
archae
salt
effectively
implemented
hunt
secretary
obvious
obviously
slightly
magnificent
fgd
hom
pages
##water
##ette
leaves
enforce
scene
audience
covers
employment
kingdom
taste
september
truly
80
cere
gamb
##ils
anybody
oblig
depos
publish
proposal
hindu
border
code
##nel
##zar
##amble
accident
direction
harm
rennie
baseball
materials
initiative
splend
experienced
festival
illegal
90
oce
##lers
storm
sections
gross
remo
cutting
detailed
bust
cats
##ober
resist
decades
governor
wars
explore
collections
extent
solution
##heim
package
october
iv
os
upper
##pie
##aled
##itation
stars
delic
orient
offering
carried
provisions
museums
##phere
option
bau
##ef
retain
##stand
forest
adequ
overse
hole
processing
meetings
strategies
replace
fascinating
cable
fit
pill
wal
##ris
hey
##aka
##aked
barb
advance
percentage
happening
dogs
cave
dance
divers
dyn
nom
##iture
outc
##tress
reput
smith
empty
##raft
reality
image
improvement
selected
adopted
eating
male
sult
va
witness
forever
##ght
placed
becomes
artist
##what
attempt
reliability
distribution
applied
sharp
dig
ky
sather
##com
##lets
##okes
intel
carol
barg
yester
silent
debate
guns
closer
kentuck
31
fab
##dy
##iance
##tions
##rence
reject
forb
sharing
sov
somewhat
##iption
craz
crimes
launch
rapid
columns
bottom
stewardship
eligible
elegant
yesterday
hated
sides
##pa
##ertain
prime
aside
notes
emphas
expert
##while
turning
litig
uncertain
ibiza
kenned
napole
ought
tel
##awn
##here
fool
valid
1994
landscape
##ellig
extensive
##ipping
britain
focused
copy
incentives
eag
pyr
##thia
diss
everywhere
##ifications
perspect
detect
exclus
independence
urban
circumstances
losing
##han
##acing
##igned
recover
ignored
predict
ocean
70
ec
gates
##head
webs
cris
syn
controver
realized
readers
supported
supreme
purposes
lucky
connection
symbol
iraq
ot
tired
wing
##sey
##ateau
##ivals
##alls
##umes
expend
scot
guil
revol
##ixon
defined
functions
transform
supporting
privacy
villages
professor
pulled
replied
wooden
journey
animal
primarily
mentioned
surpluses
ug
##iation
##oto
##imp
chose
loans
append
stress
##anged
technologies
experts
confidence
continues
richard
convin
customer
released
rebu
interpret
##nis
##uts
##ura
atmos
broken
coop
twelve
poison
active
background
superv
egyptian
russia
initiatives
mercury
cynthia
chicago
atmosphere
##lying
anse
##irts
plaza
##acts
teen
feature
partners
remind
confident
representatives
sculpture
duty
conservative
appreciate
lewinsky
dramatic
astr
cig
##edy
bear
league
##elines
complic
overlo
intellig
regional
greatly
carefully
largely
possibly
departments
parks
paul
penins
voting
fought
ny
##erson
criteria
arms
historic
adults
elderly
guilty
##aling
##ads
gray
deser
facts
turns
achieved
eighty
motor
literature
decorated
mexico
piazza
dim
hire
nixon
stuck
mah
unus
crus
scared
valu
bigger
formal
belief
politicians
failure
contained
dial
##life
##ico
plays
##agas
appoint
committed
consumption
relief
joined
reducing
affairs
directors
classical
steep
beauty
madrid
fields
peaceful
medicine
scandal
monday
approximately
fant
gang
##ship
##fo
##omas
##uration
myst
implic
coord
moon
calling
showing
charles
jones
cheaper
grounds
appeared
alien
frequently
troops
outcomes
kick
##sa
##hen
##zant
byzant
resol
dise
vision
phase
careful
amounts
fifteen
imperial
napoleon
peninsula
escape
ped
pier
sab
vren
##ses
##ading
cliff
compens
plane
##scr
severe
approval
raising
previously
birds
describes
remaining
submitted
monastery
permanent
comprehensive
vrenna
2a
jim
pc
##aff
##itative
whitting
poland
courty
effectiveness
visiting
portion
##book
gods
expectations
##kyo
efficiency
ordered
treasury
teleph
transportation
assumed
stupid
intellect
nations
tokyo
fortress
conven
atl
chain
champ
##astr
##actions
crack
organized
harder
understood
buried
silence
significantly
iii
motiv
essential
virginia
viet
##ox
sew
doctors
bull
desk
smoke
depress
protected
explor
territory
scholars
sultan
appendix
whittington
23
dust
peter
##lines
##orough
doors
alloc
mans
resource
##aker
expos
smell
statewide
investments
auditor
treated
15th
sugar
shoes
victory
surprise
##exp
tomorrow
barely
bout
dream
sale
vent
##how
##orter
chronic
nox
ages
expenses
fuel
signs
allows
delivered
limits
bird
replaced
manufactur
schedul
sacr
global
occasion
franklin
powers
chemical
reputation
kennedy
fans
mut
pock
##cas
##craft
##ona
##ilit
columb
tourism
##orpor
displays
ridic
tickets
writer
tonight
oversight
bunch
kos
riding
tor
angry
lift
##osen
grants
acid
brain
recyc
blow
surf
corrupt
opera
##umptions
mistake
pilgr
crafts
crazy
lord
tons
##rees
##itan
##illy
excess
sport
laid
highway
lawrence
basket
presidential
destination
attraction
victims
catholic
wealthy
decrease
jail
rum
veter
thomas
pride
nep
upd
accomm
fewer
opening
elsewhere
holds
pull
voters
newspapers
comfortable
accommod
es
youth
sole
upst
##aken
##ached
ideal
jewel
definition
structures
banks
exhibits
##going
weapon
latest
henry
crisis
hidden
pig
##fa
knowing
improp
assumptions
helpful
subsequ
discr
1993
tells
improvements
institute
philos
guidelines
accomplish
giant
muslims
prospect
ultimately
26
bin
soph
tight
thorough
##urb
friday
##iber
incorpor
monit
##ologists
##bell
mainten
portra
operation
promot
necessarily
devoted
sacred
muslim
conflict
pitch
ring
tob
##itals
forty
albert
enth
##arts
quit
discip
depict
##ugged
weekly
facade
surprising
scenes
rarely
repeated
retrof
saturday
om
taught
ww
##ingu
input
outdo
user
cruc
artif
enjo
summary
administrative
chairman
sample
minimum
merely
33
nic
##front
##icing
##usion
trend
##isted
##acted
regulation
stream
allowances
testim
typical
##ushed
divor
expressed
expression
prepare
catal
appears
increasingly
institution
begun
candidates
folks
satisf
daniel
boulev
providers
scotland
00
dating
kr
wore
##bel
##greg
stared
##cel
##ola
exceed
##iform
plat
191
contrast
studied
emission
facing
flood
sweet
sensitive
consumer
splendid
carolina
fount
fda
kil
kings
math
sulf
tub
##itable
alf
assume
smoking
ends
natalia
arrange
volcan
excited
attacks
accompan
liberal
##works
scenario
malaysia
nursing
rank
##cing
##hs
dozen
ours
elabor
ski
possibility
officers
lovely
films
consideration
participate
normally
germany
candidate
welcome
bradley
valuable
ble
cod
##pay
##yl
##wan
##entially
spons
represented
styles
suggests
characters
uncle
communications
frequent
seeking
buddhist
category
residential
exposure
cu
brick
reporters
investors
palest
collected
solid
avoided
settlement
indiana
survive
reliable
commitment
cous
ire
mental
migr
stations
depending
healthy
johnny
recommended
colorado
articles
innoc
carrying
ugly
29
caves
kir
lock
lately
##icial
stamp
output
##agger
cried
scar
##encing
guided
##text
thoughts
transition
officer
memory
teaching
earthqu
december
abandoned
maintenance
cin
element
ramp
vary
prove
##asty
incred
consc
flower
attest
johnson
distinct
participation
crowded
odd
constructed
soviet
bork
ferry
wid
##zy
##semb
chick
##abilities
brings
seriously
buff
poet
legend
temper
bills
properly
sculptures
latin
##employ
bronze
faster
pond
stead
whis
ships
lee
outl
drawn
finish
considering
classes
##ikes
combination
categories
intellectual
35
pure
##bi
reagan
##aining
##acco
arc
graph
feels
heads
choices
breed
existence
claimed
contribution
settled
requests
hoping
experiences
punishment
pyram
courtyard
ireland
ba
##bles
deem
chateau
##outs
outcome
clo
gran
##road
joint
keeps
rising
opposed
exciting
listed
positions
turkey
convention
suspic
precise
bauer
perspective
ottom
32
75
pac
##ias
##nn
##esty
conce
unemploy
aci
interim
strip
cazar
player
aircraft
improving
applications
##ographic
cooking
##burg
encouraged
venet
expanded
##know
disagree
improper
artifacts
bol
gp
##zone
##inations
disney
assass
monet
minister
economics
economists
mainly
creation
equally
##box
domin
violent
dining
13th
occurred
situations
kath
les
##aic
##uze
##arm
##ota
##illed
##ifts
uniform
usual
scary
colors
estate
marked
admitted
tested
projected
tennis
judgment
measured
competitive
falling
documentation
survived
folk
cuba
stretch
tobacco
sulfur
jac
##anes
##ird
shore
worship
##apes
enorm
spell
smo
preserved
medit
##ternal
successfully
winning
attrib
penn
maryland
pleasure
masterpie
accuracy
suffered
aspects
bodies
hy
tan
##gate
##fast
##ja
ther
asia
so2
aggress
coach
preamble
indians
##ensus
warri
slim
##bey
staying
statistics
arrive
reference
clubs
capture
florida
railway
patterns
substantial
hawai
enforcement
borrow
##inent
inner
##etr
whenever
handed
causes
profits
anticip
rocks
sentence
hunting
handsome
weakness
immigration
announced
penalty
telephone
testimony
luc
tig
vul
##eing
toxic
inhab
##verse
anton
acknow
branch
expense
driven
puts
affair
20th
privile
cream
sixty
awards
##board
destr
approaches
bedroom
widely
galleries
celebrated
investigation
begins
disappoint
stakeholders
complicated
kl
nur
tone
tues
wise
##rit
thin
##ania
shift
##essed
##ighter
grace
carib
serves
visits
parli
earned
killing
##apped
observed
14th
combined
priority
principle
restrictions
beside
ticket
2010
consequences
##standing
bat
cet
tab
##bby
##itures
sust
prohib
trained
febr
##ucture
##ogue
finest
1992
judges
turk
division
entry
channel
agricultural
kyoto
disease
february
coc
derry
hud
nile
pace
##my
shock
sum
proved
##tro
evolution
explo
disaster
##ecess
nowhere
desire
consol
blame
blade
sets
surely
##resp
musee
greuze
renov
argue
settle
farmers
danger
dutch
##known
struggle
mccain
parliament
cycle
dates
sought
##imate
fruit
orange
##ushing
trau
##orted
unknown
serving
blank
marks
signed
receiving
teachers
writers
african
inventory
gor
gau
lying
latter
##point
asian
chest
prosec
##istical
clar
strike
monuments
writes
ruins
metal
formed
listening
ceiling
romans
##annon
sadd
islamic
alexander
basketball
ae
gagas
ozone
##rad
##gar
theat
##ato
reward
weird
##oster
nov
worker
cro
impe
##ache
tail
smile
monarch
species
switch
faced
infr
150
cheer
pollut
conclusion
framework
concerning
shadow
unusual
jose
pit
pir
##aa
##town
##oir
##rant
##met
##enues
rein
shaped
somehow
scope
finn
supplement
finds
##uese
charged
##attered
auditing
generations
copies
divided
applicable
embr
installation
relationships
sleeping
remarkable
portuguese
kitchen
boulevard
infrastr
hij
rival
##hal
##imination
##estr
alle
yellow
canada
spin
unl
##ansas
##yside
visibility
##raw
instru
countryside
avenue
harv
climate
degrees
strugg
scientific
scottish
website
expenditures
hijack
instruments
fer
pink
roles
tin
##gl
##omed
##iguration
##amber
##abbed
unre
compare
relative
##seless
attitude
instances
prompt
##anean
educational
eleph
links
photo
francis
28
bor
boss
fiction
pine
ske
##aver
##pan
##pro
##uge
stair
##estone
trick
manual
plastic
##agues
everyday
palais
faces
##aimed
hung
answered
treaty
fault
superb
crowds
inspired
examined
exhibit
##under
release
engagement
dismiss
furniture
ridiculous
kosov
ottoman
400
cnn
dar
ment
##rich
stable
context
trop
##ipe
disclos
pope
charl
resulted
admit
financing
portr
202
189
ruled
winds
towers
implementing
heavily
panel
regularly
www
smooth
turkish
fena
ga
wage
wages
##ya
##12
##adium
##ulating
orn
alb
invas
joy
milk
authent
stepped
sanct
researchers
physicians
machines
opinions
integrated
analyz
enemy
vehicle
dancing
erect
tape
##la
##comm
isol
prud
##istan
noise
reserve
##ensions
shoulder
##ordan
personnel
souven
charges
##hips
bringing
preferred
characteristics
removed
enthus
elaborate
cinem
ak
aer
hired
rice
torn
##iors
##fit
##lla
##owed
##urally
shared
dear
##agn
evil
roll
mayor
basil
charming
classic
accordance
acceptable
contracts
split
enemies
volunteer
gambling
souvenir
dun
gop
rig
sau
tip
wet
ham
##aders
lev
plot
##aks
assumption
resulting
annually
facilit
lively
dull
installed
tombs
constantly
declared
criminals
ethnic
introduced
vegetables
adequate
litigation
monitoring
mediterr
ast
bio
core
cair
dil
##case
##coming
##gers
abbey
lean
nove
##quar
ads
residence
persons
locals
involving
involves
images
ordinary
israeli
legislative
casual
suspect
conclusions
comparison
hersheim
kentucky
recycling
hersheimmer
36
cock
dre
map
##iant
##llo
haz
priest
assemb
##anta
trips
asset
performances
retired
##isms
designs
mailers
continuing
represents
excuse
epis
description
reforms
appearance
maintained
dorcas
recipients
defeat
implications
vietnam
alfred
tuesday
mediterranean
ax
dome
pair
sna
useless
##tan
##cast
##cend
##oma
##otyp
stadium
forum
height
shirt
frustr
chosen
##ante
abortion
##ifice
##ipa
repair
lav
recall
##oupe
##riend
advanced
protoc
responses
examine
fresco
festivals
wednes
professionals
explanation
pocket
cuis
authentic
cios
lind
sits
util
vital
wound
yield
##isters
##otes
stark
anth
exemp
##abled
meal
canal
donations
##acks
##ensity
farther
factory
productive
directed
transl
employers
promote
sunset
addresses
breakfast
magazines
colonial
unlikely
error
bags
neighbors
memorial
philosoph
infrastructure
gains
kore
ze
##oly
rely
habit
##chal
##the
proof
alleg
##ifies
unn
##enda
drunk
acting
flag
taxi
taxpay
passing
##whel
practical
pottery
1980s
colorful
apartments
principal
drawing
satisfact
cabin
components
enhance
compensation
gpra
enormous
cairo
55
jordan
##iate
##right
##ingly
##rem
##ician
##amm
withd
unw
unified
recru
remote
visible
phr
headed
explains
administrator
eleven
analyst
consumers
disappear
deficit
boilerm
inquir
cigaret
cousin
diverse
ow
ter
tent
##gia
##ully
inland
##itage
ongoing
stairs
##opes
##ifted
proven
1990s
humans
allowing
elected
securities
operate
projections
##idding
waited
identity
poorly
permit
hanging
praise
pounds
amendment
hes
vs
vine
##lor
##gy
##adays
##anda
##acious
##pping
cents
nowadays
deserve
blind
publication
oppon
statistical
iran
authorities
pleased
12th
##lining
corporations
requested
substance
discovery
ibm
prince
lewis
attestation
600
bost
gig
pour
##iated
##king
threw
thurs
##erity
##ills
studying
##iox
visitor
elections
terrace
figured
remembered
routine
similarly
democracy
proposals
hypoth
immigrants
spiritual
contemporary
archaeological
diversity
nepal
bos
bible
dir
diox
nuc
naz
##thy
crash
informed
captain
managing
egg
corps
recorded
achieving
contribute
michel
holiday
mandatory
buddha
errors
controlled
boston
nucle
dict
##days
##tle
##yard
tech
overwhel
heritage
drag
strang
prescr
requiring
mini
barri
palazz
seconds
analyses
dealing
agreements
paperwork
recognition
victim
riders
sandy
linked
declined
christianity
minority
upstairs
jewelry
vulner
destruction
wednesday
dol
jur
pin
rational
rams
zero
##bul
##itated
##oms
beer
ang
shout
neck
knife
##uns
##ouses
groc
grave
sheep
yours
acts
##iana
downtown
discour
metric
nato
##engers
accessible
periods
returns
describe
hoped
hospitals
surplus
altar
concluded
wheel
controvers
byzantine
november
ain
auction
pizz
ram
tu
##oons
##onald
##alf
weigh
gosh
external
unh
imposing
repr
##ubb
accused
regions
caf
##awa
##lessly
northwest
##arrass
objects
fifth
##rupted
premature
africa
karf
converted
forgotten
outdoor
innocent
dioxide
45
fing
hou
lined
pp
sights
wolf
##bre
##kins
##inian
##ester
##eds
stroll
frag
chamb
orch
##osition
leon
##oca
drivers
buchan
partner
handling
capable
valuation
##ception
musical
missing
volunt
solic
determining
answers
ignore
integrity
cruise
astronom
pilgrims
nurse
aege
dirty
dying
roc
vic
##ien
##rep
##uting
##cher
ate
knock
truck
drove
stry
relating
flav
courses
delay
landsc
passengers
electron
methodology
coastal
indicate
establishing
quietly
earthquake
chicken
consolid
invasion
aegean
bench
cum
diction
hars
lam
mothers
pad
till
##oque
wash
exotic
theme
pools
adding
modest
##chnine
funchal
refuge
raj
limestone
breaking
##attle
traveling
puert
unfair
examination
venice
flying
captured
bowl
gathered
strychnine
cant
cyc
dame
file
locked
tool
##rete
##isk
##urd
prize
##thouse
shannon
##keep
grade
impr
##ubs
struck
provision
lasted
starts
performing
walks
blacks
nonf
closely
demands
universal
faa
unemployment
bour
cos
fert
tas
##night
##ora
toler
##ici
uncon
##aved
monop
personally
corresp
weekends
morris
patr
armed
exclud
promise
filed
administer
fallen
objective
obser
embarrass
purchased
jackson
triump
license
false
impeach
controversial
correspond
800
rot
rust
tables
zoo
##ih
##uits
##inos
##oral
reaction
##stream
##thod
##iva
newly
intention
boom
##ava
indig
parent
locations
soul
lessons
##bean
monthly
lands
topics
salary
popularity
representative
romantic
encoun
falls
duke
creative
burned
laughed
comprom
buchanan
bread
rib
rode
##his
##war
##field
gro
reserv
undert
##ucks
marketing
extended
arrest
addressing
malay
qualified
merchant
mobile
vehicles
conscious
ramses
houston
dip
dup
##lied
##iot
##tes
##bour
thro
##ano
doz
exists
##udes
loves
fox
secure
reader
curious
feelings
authors
arrested
absence
renew
considerable
initially
optim
architectural
exhibition
denied
globe
premium
martinique
concentration
lifet
virtually
editorial
dynasty
interpretation
crucial
platform
kosovo
hiring
jr
nerv
nipa
pul
sons
##fl
##esis
##ales
anx
##illing
cha
##istry
##une
##ques
##arel
indo
guadel
baroque
equival
palm
difficulty
subjects
referred
voted
impression
recommendation
pilot
gentlem
confirmed
veterans
subsequent
protocols
chambers
##thodox
gap
gaz
gained
hates
pupp
pont
##lv
##oration
forec
##amental
##aine
hast
imposed
recre
assurance
supplies
surg
passage
southwest
authorized
expecting
hitler
juan
committees
femin
pushed
situated
component
delightful
rebuilt
supervis
occasionally
discrimination
caribbean
harsh
guadeloupe
93
cater
dat
gifts
mun
rit
##bound
##yon
##xual
##erce
stor
hamm
##vered
##illes
##usted
incident
actor
guides
##ologist
edition
clever
beneath
ceram
employer
employed
passion
traveled
burning
murd
settings
diam
dressed
opposition
involvement
mirr
guarantee
mystery
tropical
album
erected
rod
##rig
##uine
##atoes
##omach
##iration
##essions
sees
noble
##active
myth
shell
##aki
expans
##aches
pregn
##ocks
publications
simpl
temporary
covering
refuse
solve
silk
grande
inflation
beautifully
multi
motion
institutions
evaluate
horror
blocks
injured
##iptions
sevent
instrument
relaxed
rejected
manufacturers
trauma
ls
lod
ves
vend
zone
##ko
##fall
##irable
##oli
chamber
##oker
agenda
crown
190
guests
##lands
depth
profile
transm
refers
northeast
187
significance
encl
focuses
balanced
influenced
maintaining
sculpted
immediate
injury
adopt
mexican
picturesque
bathroom
scenarios
portugal
fabric
divorce
fountain
sauce
bern
mit
##pit
##inate
##areness
##utory
##ima
##uls
liqu
tran
trials
##aux
resem
score
boards
apparel
cares
monte
monitor
flour
handled
planet
childhood
fundamental
swung
badly
southeast
ceo
##boys
colleagues
heaven
hopes
ninet
etc
deficits
carrier
austral
boutiques
sophistic
venetian
elev
fcc
jazz
wt
wol
##lord
##enger
inher
##ican
##owing
##irm
fro
trends
##eline
assert
reluct
presents
##erman
fled
margin
para
concrete
statutory
patron
##liers
excurs
nonpro
awareness
enterpr
distingu
pund
woods
jersey
ladin
submit
conservatives
talent
advocates
lifesty
songs
carriers
datab
fond
na
##cks
##zes
##idays
##urred
notre
##oda
suits
##arded
spo
loyal
quiz
driver
commerce
legs
caps
edward
delhi
medica
designated
villa
entering
##onym
speaker
connected
trails
instruct
ninety
certification
##scrib
sewing
explorer
thursday
ritual
bike
hatch
##ault
##rah
##ki
##mand
##stone
##opher
comedy
##ighters
pla
crose
decent
legit
homeland
campus
statute
behalf
dealers
travelers
granted
historically
checked
neglect
damaged
banned
reflects
establishment
holoca
garb
swords
obtained
automated
luxury
earnings
shelter
maximum
rapidly
intelligence
cliffs
acknowled
frescoes
cuisine
holocaust
95
lu
tort
tied
##hem
theories
##organ
##alle
inject
##olis
exit
spoken
myster
##agers
exposed
carbon
flaw
supports
talks
letting
entit
stops
wondered
acquired
procedure
mixed
profitable
interviews
wedding
tapes
adventure
inev
convinced
portrait
enjoys
pyramid
antonio
dozens
lifetime
medicaid
37
dirt
mild
nit
pap
ros
tact
##pe
sail
aggreg
##ipts
crop
prepar
mons
monks
parad
phar
farming
economically
allowance
confused
promised
membership
shrines
##sylv
treasure
utter
bombing
constitutional
bureaucr
convenient
surface
pennsylv
theatre
nuclear
wtp
39
aic
horn
oak
tok
##arse
##ashing
##iro
conrad
##acc
trash
nose
cancer
##quis
##ems
thrown
##athers
warn
warning
##ugs
airport
transactions
swing
ruling
superior
adjustment
florence
seventy
sticks
confirm
succeeded
innovative
oriented
fingers
bic
foster
harr
nh
nich
##lined
##ria
##wa
##inity
##any
##stit
anger
##olitan
nema
##istent
##eled
outr
peas
craw
roy
##avag
assigned
throne
highlight
marry
proph
retreat
admission
rulers
identifying
coastline
competing
distin
rocky
customs
alternatives
##inois
touched
cowboys
bonds
strictly
cryst
eager
42
dot
dies
diving
fulf
finger
gulf
mwe
##bar
##ym
##orious
##rets
bears
stun
##olate
##olta
shil
conj
orthodox
alike
acres
##licit
striking
subur
revenues
marvel
editors
simon
porto
files
argued
assistant
campaigns
ensuring
deeply
priorities
celebrate
indicated
fashioned
injuries
discounts
produces
resistance
pierre
solely
weaknesses
joseph
ornate
nervous
paragraph
pennsylvania
aicpa
shiloh
dal
fel
rivers
##down
##bc
##erable
##inter
##esque
##ider
hav
prol
##che
##imental
shade
sequ
agents
##load
remove
mines
topham
housed
solutions
demanded
strongly
illness
illinois
breaks
installations
measurement
camer
extraord
transferred
guaranteed
ghost
carpet
brilliant
sacrifice
cete
basilica
pizza
tasks
99
cage
fancy
hub
nas
pays
##makers
##iner
##orous
prest
seas
##osh
##eling
adapt
comply
usa
boost
##rogen
email
generate
patri
reaching
traditionally
assessing
contractor
broadcast
impressed
dramatically
racial
advisory
bustling
osaka
columbus
steady
hawaii
inhabit
satisfaction
palazzo
ell
hi
lion
punch
pushing
##born
##mony
##ho
##ull
##fare
##oning
##asy
stro
stomach
##char
deals
fright
proc
cans
spark
perth
quint
##osexual
intent
##iano
genuine
plano
ruined
deliber
barr
experiment
palaces
hillary
wondering
polls
1989
exception
attempts
fashionable
verd
permitted
boxes
advertise
occasional
neighborhoods
announce
ultimate
graduate
sympath
eliminate
bargain
uncertainty
mathem
warriors
unnecess
az
cited
oly
pump
wished
##lights
##mo
##atures
##anas
infer
reign
stall
hamp
notable
shirts
chees
lips
exha
tries
trump
outs
brut
##00s
rolling
preced
contrary
polish
meanwhile
elastic
publicly
1991
heading
receives
generated
excav
eggs
christians
couples
deaths
reconstr
ceremony
kirby
bauerstein
monetary
bart
pent
##ka
##mir
##fish
##cho
shield
traged
abc
outstanding
compound
##ignment
belt
warrant
homeless
personality
soccer
refres
landmark
nights
execution
discusses
worthy
networks
commonly
referral
drinks
battles
rapier
literally
journalists
challenging
bottle
collabor
targets
concerts
academy
ceremon
granite
boris
enthusi
aerob
##mandu
olymp
bh
fet
tie
vig
##zo
##oric
inches
istan
worn
##iev
spear
gras
brothers
disability
buck
straw
carv
moors
phen
caes
restoration
mainland
2005
prototyp
suggestions
soldier
attacked
wildlife
indicates
treasures
utility
suffer
princess
fantastic
kathmandu
istanbul
65
density
fbi
gest
hiking
wan
wave
##bits
##erie
##sters
fred
suic
abund
abroad
##udi
##oks
serb
##eck
colony
whereas
slave
payroll
moderate
define
engines
transaction
exploring
steve
arrival
wake
irre
discussions
renowned
minded
competitors
turks
circle
engineer
supposedly
substit
quarters
displayed
applies
merchants
tapest
retailers
ratio
aimed
atlanta
disclosure
##quarters
dictionary
impeachment
01
48
ceter
ging
hint
rab
wow
##vre
##isons
##olished
butter
leaf
unexp
cloud
offset
overcome
accum
underground
invited
joke
suppliers
visa
causing
directions
musc
viewed
naturally
greet
balear
regarded
languages
achievement
camera
responded
introduction
fatal
territories
defeated
derived
springs
academic
mansion
pacific
prudie
biograph
puerto
surgery
nonprofit
bree
cot
crew
cott
hiding
lag
ry
rav
##esth
betr
reorgan
stained
shiva
seats
##illa
procl
unr
universe
##endous
brave
evol
afgh
owns
happily
transpar
terminal
##elled
summit
representing
fails
failing
compete
acceptance
assessments
references
mistakes
connections
quarterback
meaningful
demonstration
macau
##related
inspection
occupied
roughly
athlet
overseas
convince
surprisingly
prosecut
facilitate
throat
garbage
inhabitants
carvings
44
dumb
hc
lau
mud
riv
vivid
##cy
##cul
##orrect
inapp
choc
gov
exquis
##acle
alter
yep
spots
evident
timely
explicit
disg
flash
obsc
worldwide
186
apolog
summar
sixth
winner
reasonably
listened
120
recording
dominated
credibility
stronger
santo
drawings
babies
mandate
integration
tracks
jeff
jeans
princes
prosperity
gentle
emphasis
expertise
exclusive
scheduled
conventional
analysts
hcfa
cree
dances
fate
ferr
gender
ko
nar
rides
xiv
##iable
##hand
##fers
chin
chatter
alab
##ardo
spare
lovers
schem
ohio
instinct
locally
metrop
headquarters
passes
extend
arches
lowest
cultures
hillside
shortly
devast
physically
prisoner
borders
concentrations
incentive
luxor
observation
emotional
exclusively
satisfied
jacob
masterpiece
francisco
grocery
gingrich
bom
baza
ease
lists
pitt
pork
wo
wines
##aire
inexp
libert
##uscan
tripp
##aping
unim
workforce
lobby
invaded
respected
curve
accountable
receipt
singing
antiques
modeling
godd
device
circular
scrut
creatures
germans
sweep
casino
holidays
paths
gateway
industries
complain
1960s
expanding
fortune
revealed
escaped
clinical
therap
privilege
lifestyle
nitrogen
fake
hip
kiss
pension
##laimed
##yards
##10
##alo
##omo
stim
stays
forests
unt
poly
wanting
attended
excite
identical
civilization
hearings
votes
legislature
formerly
restrict
threatened
attempted
sensit
essentially
decreased
suitable
dependent
nineteen
pharao
tragedy
34
fier
honey
ms
pets
pale
xv
##vin
##itudes
##ching
frowned
meals
ark
incorrect
##achus
mood
studio
smallest
populations
ending
contest
milan
communist
steal
armor
promen
1980
appropriations
lacking
districts
slept
greece
skilled
duties
literary
adjusted
hindus
peaks
scientists
channels
launched
cataly
institutional
pollutants
pirates
alleged
hastings
crystal
unexpected
aqu
dc
iolta
pav
rugged
vamp
##bl
##mother
##falls
##orse
##ani
pron
notion
##oped
soil
##ieur
unions
comptro
brid
quote
goodness
commod
commem
attached
##ugawa
hardware
engaged
reviewing
generous
varied
trem
enjoyable
steam
arranged
promul
sounded
175
geograph
educated
argues
hungry
fleet
troub
engineers
appeals
ignor
agrees
distributed
repeat
engagements
shooting
worksharing
amendments
retrofits
##avery
staircase
phrase
voluntary
monopoly
aerobics
goddess
43
98
bast
bib
dense
eve
jet
nu
nave
naked
pist
rating
slo
wool
##rome
##care
##gage
##gments
##mate
##hr
##ongh
##igan
##ader
neut
trains
arth
arist
moreover
grate
scout
moor
flank
simulation
posted
yorker
pulling
beds
jungle
assuming
counseling
mcd
dishes
corruption
volcanic
assembly
philosophy
reprod
dipl
diamond
expansion
paradise
cy
census
gle
rush
wire
##ga
theaters
inch
reass
stan
hect
##aco
trim
worsh
whatso
brows
crops
que
##itty
twin
actors
shoulders
slaughter
modified
easter
senator
confusion
188
insur
impacts
circus
hurry
massachus
casa
purchases
mixt
birthday
gathering
monasteries
climbing
symptom
prayer
intelligent
chemicals
skiing
aggressive
hazard
episode
boilermakers
overwhelming
tokugawa
comptroller
whatsoever
49
47
lin
nick
tut
ties
tack
tends
vet
##aics
##pir
##mond
##jo
##erves
##enberg
##oul
toy
##child
shame
comed
##abeth
aged
##ounced
themes
##izabeth
braz
intake
cared
buses
elizabeth
sinai
coron
humid
lesson
technological
configuration
grey
winding
girlf
puzz
protecting
basement
madonna
checks
11th
rider
encouraging
crossed
suspected
hosts
demonstrated
concepts
tribes
relaxing
printed
agriculture
vulnerable
triumph
equivalent
sophisticated
unnecessary
cheese
excitement
diplom
massachuset
cad
cem
dump
ic
pants
tong
wag
##ala
##ito
##idable
##amic
##mental
scots
apple
string
accent
guest
highlights
wrest
artistic
posts
##ieties
barnes
nightlife
traditions
singer
##shire
stephen
sells
bankrupt
evaluations
suffering
quantitative
fortunate
navy
delicious
cooper
beliefs
resolve
prospective
disappointed
skept
unhapp
monsieur
distinction
extraordinary
prestig
suicide
97
dud
dick
ger
lan
pak
ted
tang
wis
wins
##fr
##zing
##ederal
toss
##itarian
##isan
##isure
##omfort
priced
##ador
severn
##uster
leisure
##ouri
##ums
grim
incomp
lazy
invaders
helms
warned
popul
barry
technique
mailer
landed
classified
armies
volumes
sunny
balcon
seaf
norman
scenery
diagn
casinos
1970s
prisoners
remarked
losses
demonstrate
advocacy
pursue
boiler
reveal
picass
proceedings
porch
vault
precisely
2020
sanctuary
withdraw
disappeared
ceramics
procure
phenom
cotton
chocolate
fierce
massachusetts
59
bang
cale
dent
fighters
gord
jal
kam
kash
lane
ward
##lah
##oret
##orca
##rey
bearing
##otte
##urning
shog
shorter
sectors
fried
chances
##ortions
cance
##apse
##elle
##endered
usps
impose
inclus
drives
bund
bugs
##ensed
recycle
##into
descend
colored
legacy
backed
regret
surge
revised
elite
proportion
economist
crete
oklah
##liest
gardening
constraints
romanesque
acquire
panor
greeks
surviv
evaluated
jean
matching
awarded
luxur
pursu
subsidy
emotion
kicked
schedules
lifted
inquiry
database
aggregate
aristocr
kashmir
bac
bapt
cbo
cfo
mock
merg
pose
races
sq
sorts
sending
silly
voc
vba
waves
##len
##liss
##iences
##oll
##matic
##vy
##father
##esford
stages
ford
deer
dean
##oded
##umin
##enders
sailing
clou
adap
loose
incidents
intact
intense
##uces
moham
adds
##angelo
subscrib
persu
slavery
visual
producing
publicity
defending
postage
##aware
follows
refuses
equipped
classification
calend
availability
prominent
absurd
texan
measuring
antique
professors
associations
administrators
emerged
junk
mosaics
packed
focusing
extravag
davis
sadly
featured
affordable
evaluating
flexible
adjustments
jamaican
melaka
cruel
beresford
victorian
deserves
appointed
incredible
whisp
priests
zeal
taxpayers
storage
outrage
chatterbox
commemor
46
hike
kle
lis
mumb
nons
pomp
rushed
sate
session
tale
yach
##lu
##mat
##vas
##orke
stal
stones
whip
##amin
shares
chew
comic
liability
alliance
donated
##eman
grin
resolution
reporter
carr
ourselves
contrad
capita
medium
format
affirm
painter
collecting
currency
foods
##ippers
filing
counted
snorke
arguments
contributed
flee
hopefully
foreigners
describing
evaluators
photos
precious
qualitative
videos
limitations
feedback
alexand
ownership
homosexual
deposition
champions
mansions
prohibited
harvard
souvenirs
dreams
vineyards
exquisite
arthur
pakistan
picasso
mohammed
satell
38
61
bid
bored
dental
gand
##pass
##pread
##bing
##kin
##icate
##leas
##changed
##adian
asks
##illo
alley
trace
##uman
##gram
feas
heroes
bold
declining
supporters
slopes
planets
##ressed
populated
artific
advised
beneficial
missile
missouri
budgetary
##retion
failures
attracted
bald
lacks
predicted
affects
accomplished
sampling
cuban
minimal
advocate
substantially
observations
olive
ratings
producers
delicate
depression
accompanied
ranking
sponsored
incredibly
hyd
analyzed
michelangelo
vessel
frozen
afghan
inexpensive
sensitivity
oklahoma
77
diet
lung
rico
sik
sisters
tank
vague
wick
##iat
##row
##rals
##uity
##uel
##wart
##anke
##rection
##idency
stalls
conting
cher
chop
##ective
##umber
donate
saudi
workplace
crypt
amig
scouts
colour
underlying
longest
joe
marsh
paralle
valle
imported
millenn
followers
approve
##idespread
privat
youngest
politically
##aughters
dealt
discussing
immense
difficulties
screens
floors
furthermore
hurric
emerging
cleaning
conducting
imagination
attempting
consistently
automatically
naples
graduated
conquer
conquered
explanations
cooperation
venture
retrofit
poetry
gauve
shouted
astronomer
compromise
murdered
fern
gear
kur
mol
rick
sigh
ts
tuck
##och
##gio
##hou
##vic
##erately
##anches
##arians
stiff
##see
##tha
##keys
org
donation
outer
outlo
adam
teeth
##ags
overr
asser
afterwards
invo
costly
valued
lets
metaph
formula
swall
salmon
stein
steven
insight
colleges
demanding
argent
lights
shrugged
junior
panels
merit
respectively
holes
mandates
collapse
efficiently
logical
contempl
coalition
masters
athens
resolved
updated
depicting
kilomet
ramparts
anticipated
saddam
elephant
fertile
duplic
moorish
unhappy
41
67
700
96
900
aunt
bah
ears
gab
gently
pas
pag
sie
sway
widespread
##iencies
##eas
##lete
beef
rebell
##lyn
##irer
notably
abrah
enl
hispan
peer
peop
closing
timing
##izer
drank
drama
tai
consists
persian
propag
completion
advise
waterfront
camps
salv
paused
occurs
horiz
burst
participated
determination
ancest
universities
banking
uncomfort
wishes
combat
reflected
threats
tastes
closest
industrialist
bothered
bias
criticism
bullet
honorable
triang
fortunately
jumped
controversy
legendary
evolutionary
charlotte
cosm
pentagon
promenade
calendar
aston
dy
dare
dign
dagger
daughters
gut
si
##tic
##eem
##ker
##har
ingr
inade
##itious
stab
hack
##theless
chant
manip
pear
##ishes
aging
##acked
perp
amid
incons
interrupted
bump
nevertheless
consensus
flu
wrap
genius
belg
makers
demons
investing
landing
anno
annoy
operational
practically
180
condem
parking
considerations
richards
eighteen
1986
1987
avoiding
cooked
celebrities
bayliss
deduct
flowing
essay
buddhism
odds
variation
variable
monumental
volunteers
hello
adventur
picnic
validity
deserted
arrangements
cloak
borrowing
novak
barriers
administered
pregnant
legitimate
outlook
inadequ
bot
han
hid
ty
##top
##cus
##mith
##atient
staring
##imm
##adv
neo
della
pros
yelled
enqu
##unction
spite
##asted
##trap
##inking
resc
exped
offsh
reply
coat
bucks
guards
##loved
assault
##ails
moves
invented
presum
handful
realistic
soci
museo
senor
confusing
##mann
sixteen
authorization
executed
moments
approached
italians
ladies
michigan
stocks
garage
responding
automatic
automob
conflicts
inspector
willey
nye
atlantic
accommodate
volcano
palestine
migrant
flavor
gentleman
mysterious
entitled
tactics
gordon
abraham
brew
cattle
dere
hoc
mike
nut
sed
sba
saints
xii
##yth
##za
##isy
react
stitch
##aying
##ami
chairs
##ighth
envelop
enlight
ariz
safer
pepper
clut
sheer
export
incurred
boots
root
fires
relation
costing
governmental
keys
discl
larry
hobb
farms
returning
mainstream
menu
glance
182
salad
departure
##aneous
associates
counting
##otto
grandmother
devices
accordingly
nationwide
flew
voices
influences
philipp
correctly
achievements
respondents
conditioning
occasions
appreciated
unpleas
praised
loudly
absorber
barbec
forbidden
rebuild
partnership
confidential
allocation
linda
poured
cafes
##bourg
mirror
catalyst
aesth
fame
gsa
hitting
sic
sessions
##ras
##rical
##part
##onic
##enin
##enous
##itis
relic
stabbed
shocked
convert
##ulative
attain
exter
thereby
##ista
##elon
composed
bra
##anship
intentions
dislike
screw
bug
1950
##lical
##ogether
legally
bland
registr
##ermen
supplied
bases
mars
marine
cleared
charm
factories
tourn
finances
glimp
landlord
dawn
possibilities
reviewers
generating
salaries
traders
insist
noneth
harass
##fund
specialists
minds
containing
existed
louvre
murm
nonex
creates
inspiration
planted
narrative
exhibitions
permits
entertaining
complaints
applying
willingness
altogether
malls
certified
semi
stretches
reconf
neighboring
terrorists
1950s
publishing
dialect
portraits
toxicity
renovated
settlements
allegations
opponent
dolph
anxious
municip
utterly
stunning
havana
inappropri
scrutiny
arkansas
symptoms
girlfriend
artificial
enquirer
glimpse
nonetheless
berg
duck
eighth
faint
fighter
hits
rude
soup
tips
##limin
##din
##rics
##pers
##gal
##70
##oust
##iti
beard
stability
haul
anch
shifted
sep
lect
##apher
spokes
unm
timber
ups
grav
acre
quoted
herod
disadv
commander
carl
wherever
preserve
presidency
subcomm
handy
##resses
hook
humor
affil
swamp
swept
glory
annette
painters
##ella
promises
identification
fishermen
presentation
favored
settlers
versa
250
restricted
tracking
flyer
obtaining
assumes
apparent
novels
throwing
faithful
naval
porcel
eliminated
pillars
transformed
overlooking
buffalo
##estrian
recruit
electronics
australia
disgust
alabama
annoying
arizona
aids
bent
cord
dimin
ku
mum
rhod
yanke
##ua
##30
##enna
##rels
habits
##urai
##iments
shipping
##ila
dei
##acent
##acles
##iful
##ifting
##arten
brass
perce
newer
overtime
coins
disord
rober
strongh
carn
evenings
relie
bless
costumes
parade
readily
contents
restore
meters
specified
coral
thoughtfully
concert
fourteen
freeze
judicial
dealer
stephan
suggestion
screaming
desperate
1000
historians
circuit
copper
custody
democrat
preparing
deny
affecting
fema
accurately
flytrap
investigations
mortgage
1960
collaps
textile
merchand
negotiated
negotiations
synag
manufacturer
discipline
enjoying
palestinian
temperature
masterpieces
isolated
lavish
cabinet
cigarettes
nonfederal
encounter
tranqu
reluctant
##onymous
mathemat
caesar
tapestries
bazaar
clouds
gabr
tournament
roberts
stronghold
biz
dread
java
kansas
nest
nost
pile
porn
rud
rental
##40
inex
##omin
##leans
beloved
helic
aswan
##odes
orleans
##antages
lied
button
soap
##osity
arise
clue
agent
interf
##osevic
intim
scores
scattered
prelimin
presidents
surve
capabilities
signature
benefici
missions
lowered
christopher
wonders
countless
pubs
friendship
convent
versus
glasses
1970
utah
arabs
seventh
variables
kentuckian
dialogue
coordination
struggling
elephants
hypothesis
refugees
grateful
procurement
amiga
subcommitt
helicop
71
fy
hond
lor
lump
ruth
som
tib
yards
##no
##gg
##wr
##oub
##reach
stir
##aye
##imb
seasons
alan
sober
noon
maus
disabled
boasts
appra
seeks
accidents
moore
##athan
##atherine
lesser
audited
milosevic
curios
processed
viewing
##crow
alongside
termin
billions
##phia
officially
ruler
delivering
villas
specialty
specialized
bitter
potentially
accepting
##oval
civilian
devil
deadline
erotic
script
merger
##portant
##burse
sweat
survival
balls
philadel
horseback
mistaken
1974
##rooms
analyze
racing
registered
graduates
advisers
ranging
provider
scholarship
incorporated
promoting
graceful
cigarette
bicycle
unimportant
neutral
pursuant
whispered
alexandria
peoples
offshore
unpleasant
ced
hipp
jard
kh
kim
ly
vie
witch
##min
##mar
##hin
##houses
##uate
##wich
##view
##fp
##inople
##ati
##arial
##step
##urable
pricing
##ithe
##kefe
chat
alert
abd
allies
meets
enfor
enacted
unin
grab
reserved
whoever
load
intensive
##econom
preach
indirect
reck
guilt
carries
smiling
provin
handic
planes
corrid
economies
barren
funeral
financially
##aws
anne
operator
array
questioned
burial
worthwhile
participating
illum
##umbling
observe
troubles
broader
communicate
indicators
dresses
##aska
citizen
revolutionary
honestly
victoria
obligations
oriental
replacement
columbia
discrimin
thoroughly
coco
snake
rockefe
reservations
preparation
promulg
luxurious
valleys
siege
uncomfortable
gabriel
bite
cul
dive
danc
diver
dwell
erupt
fathers
hence
hats
jam
jokes
lap
ray
tul
tenth
wand
ware
##lon
##oen
##post
##sis
##hor
##66
##38
##enon
##orus
##eda
toled
reich
##owa
asc
seated
chips
abb
plains
max
adverse
branches
sheet
##ager
loop
lobb
wells
cobb
cohen
drops
twisted
roots
##iley
lott
addict
##rake
feder
foundations
earliest
hobby
charity
mighty
particles
##awak
##covered
terribly
rises
continuous
solved
absent
178
geographic
149
contractors
eaten
applicants
massac
characteristic
farmer
featuring
restriction
##chester
benj
bottles
searching
unpop
calculated
virtual
innovations
protestant
mechanisms
forbes
overlooked
motivation
mutual
subsequently
distinctive
isolation
consolidated
seventeen
marginal
##stitution
bridges
mixture
brazil
jalan
mausole
philadelphia
rockefeller
eil
hust
kios
pon
sour
tid
tam
wre
wings
zen
##bu
##bow
##uv
##48
##atra
##anim
##arn
##etta
##iman
shake
shakes
##illion
ornam
suited
exagger
##ando
alph
trucks
##osaur
canyon
##uda
plate
##umer
##akia
replic
feud
dried
boot
partly
##rog
##asses
accus
##ference
lotus
assured
invite
opm
removal
##oths
hugh
subtle
depicted
attitudes
##aires
capit
marg
norther
glam
grows
budgets
thirteen
origins
choosing
villagers
##ippi
judgments
179
netscape
distant
baltim
descriptions
sne
screamed
approaching
offerings
divide
messages
intrig
louisiana
constantinople
journalism
interviewed
jacket
sightse
psychology
rangers
mechanism
witnesses
transformation
accompanying
suspicion
attributed
gorge
undertaken
enterprise
biography
cemet
seafood
survivors
mumbai
affirmative
inadequate
inappropriate
preliminary
tibet
benjamin
eilat
baltimore
58
72
bak
divid
gild
mt
osc
pause
pbs
rou
raw
wives
##lap
##ran
##burn
##ken
##onia
##iter
chart
chains
orang
##anted
##acca
##usc
##usive
als
##osis
nob
##umble
adul
upgr
centered
desired
##issippi
fold
relate
governors
callie
capability
endorse
demolished
simult
performers
formidable
differently
##eez
senators
mississippi
passaic
infant
raises
greens
insult
arriving
choir
##she
##aneously
preval
burd
associate
penetr
picking
hunger
obsession
structured
plantation
separated
safegu
tomatoes
conferences
journalist
dispos
beaten
conversations
sundays
birthplace
symbols
##worth
vegetable
baths
removing
revolving
severely
convenience
incorporate
sustain
asth
opponents
liquid
excursions
mcdonald
feasible
exterior
subcommittee
62
bount
batter
cite
iowa
lone
mes
mask
pud
ses
tony
venue
wagon
##rian
##py
##hill
thread
thunder
toll
##rea
andrew
beating
whit
weld
##olas
shots
sel
segment
##ulent
##apolis
plun
unaware
##astrop
justified
comparing
usage
crying
overcrow
acted
thriving
underne
conspir
probability
relatives
courthouse
subway
famed
famine
obst
audio
confront
admired
marketplace
raid
##brand
awake
attracts
memories
desperately
expects
1988
1982
referring
honored
jerry
egyptians
catastrop
planting
separately
examining
ignoring
benn
progressive
##itzer
contacted
concentrated
printing
logic
permanently
terrorist
innovation
kitchell
##oiselle
recovery
fountains
gigantic
injection
cameras
brutal
balearics
reorganization
scheme
therapy
shogun
satellite
ingred
hobbies
relics
registration
porcelain
unpopular
cemetery
underneath
54
66
cute
dw
foss
hm
jf
kin
maps
ports
pensions
piano
rented
sip
vib
wander
##dale
##hist
##va
##vent
##vest
##alay
##itary
##armed
beth
heels
##olo
##oline
sha
shining
dell
##ulously
##ainted
alban
##istine
unsp
##emoiselle
cler
upr
upcoming
grabbed
loaded
##ucted
##uccess
secrets
sometime
supper
courage
keen
parole
founder
simulations
airlines
profound
glorious
practition
185
freezing
traded
texans
civic
fights
arguing
floating
recognizing
expectation
treating
mademoiselle
scratch
bones
celebrity
adjacent
procedural
tendency
consistency
permission
remarks
ethics
targeted
2015
instructions
elders
criticized
quantity
reveals
controlling
rubin
sharply
foolish
pilgrim
breeding
suspicious
portray
cinemas
korea
vendors
pundits
transparent
wisdom
lisbon
millennium
presumably
##funded
nostal
curiosity
mausoleum
sightseeing
bark
bits
cass
ein
fen
jog
lc
lush
mow
pis
pard
ric
tier
tuscan
vin
##tles
##word
thumb
##repr
##isse
##ione
reed
rear
revel
##urity
##amel
##tering
##ilion
atop
##uscr
alps
##istically
##unic
manuscr
plates
##occ
##ishop
brow
lover
quaint
overt
rolled
actu
assign
addiction
discretion
parish
streams
deter
barik
watches
considers
designer
nightcl
operators
trek
freely
deliveries
paula
acrose
epic
dock
reno
considerably
environments
balances
sooner
##umbled
hurts
bloody
deeper
lacked
130
ranks
camel
disputes
qualify
petition
hypocr
talented
unsuccess
bulk
navig
deposit
satheri
reliefs
krug
codes
warrior
sustained
dismissed
gaul
cinema
cockpit
bosn
supervisor
acknowledged
fulfill
sequence
seaside
hampshire
tremendous
biblical
extravagant
propaganda
richardson
bass
celt
gn
japp
jaff
kau
nara
nbc
pestic
rfp
sid
tire
wip
##rix
##rale
##cour
##pur
##yre
##mere
##making
##ui
##inge
##inging
##itate
##icism
##omon
shed
shorts
shinto
##una
##unci
une
##asting
outd
resid
##grapher
amen
newest
exports
mugh
prehist
##veland
desirable
assure
##icks
inval
remem
##uala
gene
slip
##ologically
caut
ruin
delayed
bookst
emily
curb
swift
terrain
terrific
statutes
extrem
salon
128
125
movements
definitions
alcoholism
males
celebration
doubts
checking
misd
midnight
arabia
colonies
explaining
samples
stewart
altitude
recipient
appealing
samurai
ineff
occupation
belonged
photography
carpets
wheels
##books
cracked
motivated
veteran
blew
stamps
embrace
axe
utilities
prescrib
cycl
chaos
strawber
substitute
cottage
adapted
municipal
toledo
##reprene
52
78
cel
flem
pall
tires
##away
##roc
##sen
##manship
##wi
##fman
##arre
##isers
##isans
stol
forfe
##sect
##chi
##celer
##ambo
deities
oro
lip
knight
lever
##apore
manif
spa
spends
##astically
clan
acceler
perj
mund
##uctive
##iani
deck
costa
flows
geno
deput
worlds
kinderg
mino
hardest
pointe
##iov
autumn
islanders
arched
greco
singapore
breast
sunlight
travels
##workers
##anne
religions
trusted
dinosaur
mosqu
georgia
doubled
fixing
initiated
versions
radical
misunder
cathedrale
submission
liberation
bowed
williams
##marked
guarantees
eligibility
illustrates
neighbour
cells
1930s
enhanced
photographs
obligation
retained
pillar
allocated
pige
tubacca
graphic
pyramids
deemed
stretching
monarchy
cheerful
routinely
juris
indigent
tongue
reconfiguration
burdens
jaffa
austr
bun
cia
eh
fles
gee
gym
icon
kuala
mint
ron
rif
ronald
vouch
##ea
##uously
##zan
##15
thomp
anderson
##ente
##entine
##lli
belly
rever
##state
##ili
seld
knocked
butt
##aug
unbel
##aste
##ocation
composition
grat
grip
perception
coinc
rolls
indul
##ailed
##ailing
consort
olds
relied
bluff
secular
joining
##athed
wrapped
hug
depreci
maria
param
phases
careers
endang
defect
skys
watergate
##lington
practicing
##elling
facult
##bridge
apaches
generaliz
tennes
sanctions
halfway
identifies
favour
epid
jewels
sentences
recognizes
commissioned
arena
woodward
convinc
attacking
fortified
##held
maintains
gradually
telecomm
biological
citizenship
dependence
feeding
tunnel
1920s
conclude
conquest
clinic
oxides
walter
recovered
synth
craftsmen
bait
assassin
tiger
inhabited
taxpayer
inevit
gesture
creek
vampire
botan
surveys
krugman
flesh
thompson
73
cp
cyp
dorm
gays
hed
hier
ile
zelon
##lass
##iah
##ports
##fty
##friend
##esters
##oulos
tooth
##reed
##isp
reag
stur
stee
convey
chim
trag
##abs
abrupt
canadian
spraw
untr
outreach
##aho
overhead
serge
disli
##uba
buzz
partition
##erald
fuji
regards
revision
paych
instant
founding
reduces
cleveland
poste
##beat
barrel
##inson
admire
politician
stealing
counties
disturb
penang
##ovitz
europeans
litter
historian
brook
shrubs
unfor
mosaic
russians
verify
punished
bands
liberals
firmly
introduce
francois
randy
interpre
cartoon
henri
oliver
sarc
subsidies
wilson
archaeologists
litigants
elementary
rigid
frustrated
vsl
leonardo
cumulative
imprison
indigenous
diesel
deliberately
abundant
proclaimed
stephanop
bizarre
loren
promulgated
federally
shakespe
gilded
asthma
tennessee
57
85
dazz
eu
echo
fwi
lions
mower
oas
rape
tension
##lav
##dle
##ders
##ni
##gent
##mart
##mel
##went
toys
##llers
whites
##urf
##iratory
deleg
##estim
seized
alumn
canvas
plaster
unqu
unchanged
outlets
outbound
clay
compass
##aga
crashed
loving
incumb
appet
index
##anging
underm
deciding
blanc
informal
governing
subt
slope
lasting
imports
artisans
reads
charging
skull
booksh
detr
curse
autonom
advantages
signal
entreprene
waterfalls
mills
possess
possession
risen
practiced
insisted
160
##apping
protective
1983
appropriation
preference
knowledgeable
corners
israelis
combine
documented
draws
predecess
crossing
urged
citadel
angel
functional
decreasing
colonn
tribute
absorbed
digital
bargains
bargaining
websites
pedestrian
saddle
pollutant
anthrop
korean
nazi
electronically
recreation
suburbs
nasa
exhausted
ceremonial
dudovitz
##luent
argentina
horizon
feudal
northerner
epidem
shakespeare
alumni
51
cd
cors
dow
fas
kidding
lamp
lubb
morn
mister
rope
sizes
verm
ville
##oe
##bet
##sr
##uana
##zare
##esome
##oria
##anny
inaug
revers
reef
reverse
stere
heir
##oping
##acies
alic
nobel
ench
spy
unav
peel
theirs
clich
resent
perf
##akura
quot
quart
repairs
intend
himalay
desc
intoxic
synd
blond
blaz
downs
flock
slipped
##ews
respiratory
maker
medi
pointing
maine
airpl
2003
swed
miller
painful
portal
portions
generators
salam
limiting
noncom
awesome
burg
docket
destinations
attracting
potatoes
necessity
pressed
objections
credits
credible
answering
nationally
speaks
purple
scrub
superst
bananas
ranch
luckily
603
pilots
borne
applaud
minorities
sorb
##iji
railroad
recipe
lengthy
cups
nyt
appointment
excessive
kram
scarce
blanket
strangers
tuition
landscapes
excluded
embarrassed
hammer
inevitable
ceteau
olympic
metropolitan
hazardous
lantern
gandhi
dereg
sicily
merchandise
synagogue
lobbying
bennett
stolen
lubbock
02
bened
ff
fare
fanc
gum
mau
mature
mamm
rous
sod
sain
slic
sized
vatic
##aus
##aise
##tical
##oid
##boy
##gue
##will
##erge
##inn
##eded
##alous
inbound
itiner
##ido
##etto
forment
neph
##ules
oral
knights
alp
allen
##ardy
unhe
unrelated
##try
yearly
impl
amate
amended
overnight
twist
scuba
##roeconom
##ints
##ogy
##ometric
blades
opens
fluct
warner
warfare
kelly
modification
##ression
happiness
hood
cake
caution
formation
invested
##amese
clearing
generals
wallace
cheek
solar
hilltop
shortage
170
prevention
worthless
suggesting
1984
referrals
deadly
cops
manufacture
packages
examines
imagin
dispute
layers
analytical
bandits
qualities
giants
shallow
amazed
gaining
tribal
unfortunate
illustrate
emotions
reminded
crusade
champion
dusty
repeatedly
tanks
harvest
akbar
episodes
inquiries
enclosed
confirmation
irrelevant
troubled
balconies
championship
vessels
kilometers
versailles
apprais
kindergarten
sainte
bone
jus
kes
kend
loses
mouse
pip
ripped
vish
vinc
##lock
##de
##iary
##ean
##bat
##walk
##vens
##inth
##oro
##alds
reun
rehab
rewards
stagn
##uri
##urbed
prado
shah
seeds
altered
canals
sparse
maid
unanim
grind
##grad
shep
coin
dispar
scare
##arks
undoub
colt
programming
blessed
regime
##onsin
schwart
flop
busiest
kells
revenge
attending
martha
phoen
holl
defended
aviv
resting
demographic
formally
curtain
transpl
admissions
financed
testament
nightm
exploded
184
extension
irrit
promoted
cannon
buyer
presentations
176
prevented
musicians
hunters
cleaned
mosc
broadway
intricate
embass
cardinal
darkness
raining
reflecting
reflection
casc
threatening
titian
investigators
permitting
##ilingual
challenged
spirits
automation
meantime
printer
ethn
gasoline
hyper
matched
ambitious
welcom
amph
skinned
sheltered
consulting
escal
storms
adequately
dynamic
fantasy
update
catalog
arrangement
graphics
tigers
bathing
supplementary
portrayed
joyce
analyzing
terre
indoor
mitig
pundit
neglected
prophet
suburban
laund
obscure
apologize
hectares
harassment
dancers
actuarial
celtic
kaufman
outdated
skyscr
noncompl
kramenin
vatican
undoubted
schwartz
welcomed
92
cure
dated
gol
gins
ip
kins
nag
nass
pity
ri
rage
rows
ramb
rugs
tad
wig
##ti
##taking
##card
##uum
##uji
##fia
##inians
topped
##itical
##storm
##stairs
stern
haun
##chio
##olome
shy
##estra
fraction
##ulates
atom
##ighthouse
##geois
exh
exile
align
troy
##abet
allied
leap
enable
arn
##okers
peers
grades
##agged
cros
dischar
scro
pooh
needle
carriage
downstairs
studios
wrist
slam
shower
marij
mode
minnes
metro
propose
marking
playground
auto
societies
tempor
tempted
183
calle
greed
stopping
sixties
reasoning
amongst
sunsh
cef
regulated
antiqu
finely
##ova
castro
halls
conviction
independently
panthe
surroundings
bonus
characterized
embro
philip
jesse
frequency
decorative
disappro
mercen
taller
tallest
tales
vegetarian
comparable
shadows
concludes
abandon
##ennial
outdoors
tube
disclosures
frustrating
boilermaker
bourgeois
excursion
harris
marvelous
breeze
prosecutors
pistol
coroner
afghanistan
wicked
rebellion
astonishing
automobile
hockey
alsace
prehistoric
seldom
unbeliev
inevitably
sturdy
stephanopoulos
burgund
moscow
undoubtedly
marijuana
63
bend
fid
gary
hh
hik
lut
lyn
raph
ritz
tud
vel
wisc
yam
##dg
##rum
##nu
##jud
##eding
##ington
##isive
##leep
beij
ree
##sein
##section
##vere
anonymous
nev
defer
fra
atm
knee
traces
mead
##udge
##ours
plum
##umed
mare
maison
unfunded
##quet
beck
pecul
adoles
grain
##aky
inclined
offs
interrupt
interaction
serbs
disgr
disgu
drum
sco
buys
rooney
poets
actively
prefers
committing
##loaded
thrilled
##amped
blend
provence
##onsc
genetic
revival
baseline
mineral
sket
emerge
companion
advances
benefited
viewers
confined
##awed
accounted
glow
glanced
campbell
protests
protested
equation
receipts
behave
aphis
healthcare
winters
magical
windy
156
romance
labeled
129
squares
ballet
seller
grandfather
contribut
contributing
panic
##ography
banana
complexity
sandwich
wildly
mandated
commentary
precision
complained
complaint
distribute
remarkably
psychological
symbolic
tribe
gentile
spreading
boilers
stretched
malaysian
adventures
consultant
galile
consequence
delighted
##iyre
clinics
rhyth
##piece
emphasized
predictable
reminder
coordinated
depressed
pigs
temperatures
acknowledge
promptly
charlie
plotz
snapped
patrick
lodge
distinguish
verdict
elasticity
pavilion
leisurely
kamakura
descendants
parallel
privatization
hurricane
taiwan
xiii
sepul
capitol
gorgeous
simultaneously
tragic
##zarek
alicante
formentera
noncompliance
minnesota
wisconsin
beijing
peculiar
74
bind
eb
etr
fon
fist
fog
gour
jod
lal
lyr
nuts
rents
##lore
##dr
##rose
##ez
##power
##giving
##yle
##mont
##vable
##fri
##leine
bever
##otine
stole
wholes
fores
forcing
pristine
##chitis
angle
heb
heights
##olith
asleep
noting
shores
sued
##usible
trig
tract
##mphis
memphis
##ifiable
manh
spices
spaces
spacious
##ocal
adorn
compat
grid
brack
pertain
loire
actress
stripped
backing
madeleine
##wear
flame
slower
factual
skip
nearest
missiles
privately
shoppers
terraces
collective
certainty
181
halt
successes
breasts
originated
judged
promising
harbour
towering
##boats
specialist
turtles
sorting
grantee
replacing
145
ern
architects
softly
documentary
respective
evaluator
fastest
commented
integral
spotted
constitute
kidna
liberty
jacks
21st
janet
appreciation
briefly
guarded
bronchitis
ninth
##worthy
mallorca
macroeconom
robust
scientist
miracle
breathtaking
dishon
saturdays
austin
eliminating
heroic
obliged
accidentally
nominal
revolt
interpretations
supervision
crusader
dominant
##points
embraced
struggled
prompted
miniature
##keeping
consciousness
supervisors
wolves
announcement
refresh
athletes
ferries
woven
ignorant
nickn
##children
homosexuality
fernando
inconsistent
barbecue
nonexchange
yankees
beneficiaries
bounty
faculty
convincing
sergeant
paycheck
compassion
vishnu
ginsburg
pantheon
70s
baker
csr
czarek
duc
dug
fi
hilt
loun
lyon
mi
nerve
oreg
poker
rip
ross
ssa
tide
vert
wp
wy
##col
##bes
##nels
##namese
##mates
##wick
##anks
##ingo
toile
##icy
##llas
beans
rect
reese
reception
staged
ank
notices
##ilia
nebr
seattle
chau
chase
lik
knees
albe
alright
trap
abilities
sovere
enabled
spouse
plag
hass
donald
outfit
pepp
tear
##ishment
compost
compact
grill
acute
brah
ami
overth
intimate
serene
mule
sciences
roose
tavern
prejud
strikes
recession
descent
carving
servants
wayne
relies
download
polite
requester
genre
governmentwide
kevin
parale
homework
ministry
avenues
easiest
organize
proportions
delays
specify
forming
skirts
deterr
barn
technically
headline
profiles
confed
confess
accountants
majestic
varies
secondary
raids
arche
greedy
arrow
wax
volat
irrig
walled
harb
killer
##holder
modeled
hussein
snakes
pressures
laboratory
boyfriend
damn
secretly
plantations
combining
shareholders
##govern
candle
encourages
##ophag
establishes
balloon
dropping
purchasing
mistress
precip
hostile
dispatch
conservation
murderer
contacts
variations
calculation
laughing
inspections
brightly
strengthened
ranges
terrorism
aimd
disagreed
penalties
mechanical
rhet
deposits
crusaders
accommodations
ponds
conceived
attributes
windsurf
dilution
fragile
landscaped
cantina
fertility
feminists
wolfe
inherent
prolif
sympathy
exhaust
excavated
shields
prototypes
devastating
bankruptcy
incompet
annoyed
dolphins
collapsed
intimid
lumpur
ingredients
##unciation
steele
disturbing
sorbent
amateur
sunshine
oregon
albeit
69
ay
awhile
bambo
cau
couch
catherine
dur
dues
eiff
fitz
gon
gil
hoss
ipm
kab
kaz
masc
nasty
owe
pto
ropes
somed
tended
tyr
vain
##diction
##iets
##eu
##eav
##bra
##fire
##fits
##inas
##onies
##onso
##aned
inacc
##asters
##icient
sto
stored
##sem
##urate
wears
##olia
shapes
neu
frames
chlor
trave
##osa
worries
meg
nobles
##udic
manages
spun
spice
clust
justify
##heric
resur
brains
lob
offensive
quay
feared
overh
drain
poem
partial
needing
##velt
caring
preserv
flats
belts
suburb
revived
empower
marina
instantly
pharm
edger
endeav
earning
hooked
charter
correl
retal
developments
tempt
2004
annie
tops
apology
stepping
##ipper
harmon
kills
favors
penny
impacted
husbands
hunter
treatments
##fficiency
speakers
influential
chapters
##lette
manufactured
denver
linking
adjo
indication
garment
garland
threaten
titles
1975
veron
investigate
constantine
experiencing
adoption
magnitude
proposition
diego
emperors
safire
francisc
breathing
burns
1948
##agonal
tunnels
sufficiently
shady
jumping
negotiate
workshops
defenders
maximize
##uki
vietnamese
pockets
satisfy
earthquakes
purely
cloister
mentally
enthusias
discouraged
gentlemen
gaze
puppet
torture
nhh
peasants
paragraphs
frightened
enthusiastic
sweeping
pharaoh
pharaohs
prestigious
canceled
metaphor
duplicate
spokesman
perceived
province
cobbled
greenspan
flemish
mornings
appraisal
temporarily
raphael
gentilello
nebraska
sovereign
roosevelt
bamboo
eiffel
ptolem
someday
56
89
90s
aol
beng
boud
bidding
hog
hale
hikes
kan
lighter
merr
nagas
pf
pes
pending
rivals
sided
tiles
woke
##lings
##drop
##cos
##gian
##xon
thur
##erget
##itar
##oman
shifting
congr
conform
goat
alc
alarm
trin
abo
ally
##ifa
##ifix
pled
##ocative
##oka
tears
##ounce
perug
persec
crushed
offense
quo
overd
interactive
twins
boating
robb
##ounted
guill
##ption
umbre
thres
underwater
backs
inviting
blown
remn
poles
##ermere
hugo
idiot
subs
marath
endless
farr
bothers
##azed
specially
airy
headlines
communism
passenger
continental
summers
##phe
eyed
judici
windermere
##enched
##attan
labour
traveler
silently
encomp
sellers
footstep
claiming
commissioner
castles
assessed
##anni
madame
shrimp
divisions
frontier
surrender
breakdown
creature
ridge
uncomm
scenic
diary
reportedly
dangers
predomin
establishments
##iffs
layer
laying
##backs
constitu
microw
kenn
arabic
freshwater
cooler
industrialized
drafted
minimize
cruises
pursuing
substantive
troop
comprises
subsidized
##iya
warsaw
perspectives
poisoned
sporting
rumors
crucifix
intellectuals
folklore
pirate
unreal
washed
assertion
conjunction
reconstruction
evolved
untouch
snorkeling
cosmop
deductible
aesthetic
##bursement
##build
practitioners
unsuccessful
deputy
sarcophag
vinci
preservation
bengal
boudoir
judiciary
80s
aj
ais
ald
cun
cuc
cope
fow
fitting
hort
hardship
lt
lomb
lighthouse
mound
pits
qa
vest
##liness
##iantly
##rock
##path
##bling
##hy
##hara
##75
##inous
##esy
##onian
##educt
inscr
reop
##sept
##ayment
weaving
shack
seed
trinity
##mpt
allerg
##iffer
##ifices
enact
energet
##ection
hiss
unb
unst
saves
##oku
compelling
##izable
impair
impatient
co2
disreg
scan
goodwill
1900
partisan
taj
carav
thrust
mold
downward
governance
schumer
courtro
subtr
persians
obel
marco
##ugg
##scale
startup
admir
suck
##cover
daim
explored
equity
operated
thirds
mounted
##ikoff
questioning
viable
debates
debts
protects
duomo
lightning
##archy
##ospheric
##forward
swear
indicator
surviving
ballot
garlic
degas
commentators
females
literacy
hosted
essence
declare
decoration
injust
conversion
warmth
giul
melt
searched
powell
commitments
racist
speeches
##after
prints
reconcil
boundaries
roofs
consulted
1934
##ettes
hatred
wheat
pm2
harmony
soviets
expenditure
stressed
unusually
tightly
disappointing
spinning
hijacked
hesitated
jurors
impract
groves
recreational
transept
bureaucracy
dotted
prosecutor
explicitly
bombs
pitts
aqueduct
yacht
hispanic
murmured
affiliated
vibrant
pilgrimage
perjury
generalizability
autonomy
amphithe
burgundy
windsurfing
uncommon
cosmopolitan
88
bays
cv
das
fost
faded
gib
hmos
jaw
ker
kat
lon
lend
mck
oun
posed
rer
tay
tore
##aig
##ray
##cs
##hwa
##uated
##jon
theod
##erving
inh
haunt
haifa
##chet
wasted
anat
weed
##adic
ascend
notorious
shin
shifts
dos
chand
algar
##iston
##ustomed
soaring
cane
##ieu
##unks
donors
##ounded
##ounding
##acking
##izations
perched
craig
amy
offended
dissem
roller
##rood
coloss
thrill
blamed
helm
##tsa
handles
differing
basin
realm
##conn
edo
artwork
hollow
sins
delos
humble
signals
##pless
camped
approving
anna
secured
continually
opposing
infin
apost
wont
##phorus
101
insights
budgeting
cultiv
##iki
solomon
##boat
stylish
doorway
policymakers
computerized
168
163
dougl
humanity
domes
civilized
scream
favorites
objection
victories
keynes
murals
obsessed
wooded
divine
violate
journals
convicted
bloom
fortifications
entries
cleaner
galleria
unconsc
secretaries
juice
selecting
embod
indianapolis
respects
farmworkers
triple
investigated
decorations
1967
capturing
straightforward
discounted
telegraph
rebels
colonel
crafted
trailer
holyrood
coward
semin
shelters
bullets
comparisons
stupa
ghetto
inefficient
1929
workshared
prayers
kingdoms
fabulous
poisoning
nepdg
philosopher
depicts
omitted
wider
disneyland
shoreline
renovation
rewarding
tailored
hijackers
fragment
orchestra
vicious
unconstitution
observers
seventies
nhtsa
felipe
elasticities
refreshing
wanna
evidently
commodity
tossed
invoice
pagoda
ancestors
disgusting
helicopter
hughes
intriguing
prevalent
uprising
nightclubs
ineffective
austria
disliked
nevada
enthusiasm
nagasaki
aboard
footsteps
taylor
bishop
dus
dart
fict
git
giov
hil
jenn
lun
peng
pione
rated
rings
soda
tents
uk
voth
voy
yok
zion
##lise
##rd
##ns
##made
theoret
##erick
##inis
##inqu
##arter
##asp
##asth
##lehem
bells
beaux
rejo
stance
##eters
##etically
hay
hail
hagg
##imming
shaded
shiny
goss
goya
##anting
##andy
trent
##unity
mann
placing
uncovered
anytime
willie
clown
upwards
gracious
crap
ammon
amusing
incon
quotes
repet
intermed
disrupt
dragon
##owning
##eph
##ecd
needy
unders
smarter
monster
monkeys
blink
bloss
addicted
wares
warming
kef
discern
deploy
##spring
lasts
marx
marcus
modifications
esteem
rua
readiness
propert
##riages
corinth
importantly
nationalism
issu
taxed
turner
communists
roommate
seniors
equality
trapped
operates
morally
morgan
projection
##phy
insuff
additionally
cheers
eglise
173
kingston
counts
sentencing
devi
alcoholic
contributes
flea
140
fax
moses
laden
celebrates
fashions
mandrake
titan
1979
401
jealous
verification
catching
advertisers
laser
exercising
burnt
preventing
1940
pursued
recipes
unsure
ample
strengthen
contempt
circumstance
belongs
masks
randomly
publishers
launching
eagerly
teenagers
motorc
pcs
exploration
smells
promotion
trendy
kirk
distinctly
steadily
outlays
supplemental
dictator
dragged
discourage
encountered
enterprises
bartolome
grasp
ryan
betray
libertarian
veto
phenomenon
caleornia
wardro
inclusive
nonsense
contradict
kurds
##eastern
rhode
disorder
inexper
jardin
##minster
wandering
margaret
catastrophic
bethlehem
pardon
strawberries
telecommunic
reagent
incumbent
stagnant
laundry
embroid
unbelievable
edgerton
microwave
algarve
properties
84
aquar
bore
bub
balk
bilingual
cm
camb
fence
ironic
krist
lingu
lanes
mate
nash
penc
rains
rita
sop
sore
sib
sends
til
wat
wary
##table
##cked
##eur
##nity
##si
##hu
##zhou
##je
##onos
##aly
##reated
##itr
##itations
##arine
stu
stables
##ethe
##amo
shaking
shaft
nebb
sect
seam
goats
alumin
abu
soho
##oshi
##ivable
##aume
arbit
mafia
unac
pean
adams
teens
grapes
resign
##ipher
crick
crowned
amato
interven
laur
##roit
##licity
guang
assignment
##orde
supplier
wright
warren
visions
revisions
emplo
capitals
phones
##ressive
importation
metres
detroit
postm
particle
whitewater
annex
creole
growers
patio
patience
listing
##ertime
agreeing
staffing
simplicity
enclos
potter
competent
defining
screened
sentenced
##umbers
laborers
drinkers
optional
appropriately
standardized
surrendered
jerk
##heart
acquiring
merits
separation
separating
narrator
installing
affection
martyr
spiral
consumed
premier
functioning
decreases
italiane
petit
demonstrates
transported
cubans
ambass
instruction
bronx
elder
earnest
calculate
criticizing
chemist
chemistry
revealing
licenses
matisse
illustrated
illustrations
consultants
observatory
rubber
producer
carpent
attendance
scholar
ashamed
emphasize
detective
partnerships
jimmy
bullf
monitored
exceeded
arcade
bedrooms
hijacking
anthony
bosphorus
prescription
benchmark
anxiety
liquor
preceding
collaboration
vigor
ignorance
cyber
skeptical
grinned
enlighten
carnival
reckless
conspiracy
wiped
mosquit
pigeons
dazzling
nephew
atomic
proliferation
adjoining
courtroom
douglas
aluminum
guangzhou
awe
cows
cush
damp
diana
flic
imb
kurd
ling
mie
nope
nuns
ov
tag
tread
wit
wield
##lan
##rac
##cere
##nas
##nut
##kward
##gence
##mill
##mers
##western
##vis
##22
##oni
##orout
##anth
reim
##otted
stem
weights
##adi
##ilings
seg
chill
albr
allev
##orting
##ieves
spur
spont
araf
maze
unse
unex
sake
compares
agra
brod
brink
cries
amar
offspring
overly
overlap
cove
disabilities
poke
poems
partially
##ecy
##aven
firing
lottery
backp
backyard
contrasts
rembrand
provinc
##ermark
flip
slap
slender
endors
problematic
sincere
autorout
##iera
guessed
refusing
pretend
natives
facades
info
summertime
extending
stevens
awak
awkward
stuffed
remembering
competitor
166
shovel
rocket
assisted
similarities
pollock
1981
hurting
madras
shrink
requesting
mosques
voter
packet
lawsuit
lawsuits
dijon
slowed
positioned
##orrent
missionaries
commercials
blocked
angels
utens
franco
powered
dubbed
dedication
1945
skinny
maturity
memorable
rubens
##etti
lawns
furnished
harmful
ivory
dissent
mahal
diseases
motivational
inputs
nicer
divorced
##gregation
unemployed
cocaine
reinfor
assembled
lewisville
rajasth
bernini
flaws
##oshima
athletic
geographical
prestige
inclusion
subscribe
asserted
dignity
envelope
disclose
confidentiality
disadvantage
tranquil
accusations
overcrowded
clerk
tuscany
manuscripts
bosnia
manifest
atmospheric
franciscan
threshold
pittsburgh
gossip
ammonia
intermediate
corinthian
telecommunications
aquarium
arafat
rembrandt
provincial
53
68
64
aux
eats
ferv
fitness
mast
nc
nah
pk
pom
piet
puff
ral
rale
sank
tame
tens
vik
##lson
##ienced
##number
##naires
##kind
##gi
##gins
##sad
##uke
##ws
##writ
##orical
ingl
##arity
##arming
##lements
bearded
##idity
hak
prag
anecd
healing
##add
notor
shan
nelson
##ersed
doct
##ulse
chow
orr
butler
##acon
trunk
abstr
mae
outnumber
likewise
sai
upward
upscale
exported
incomes
overview
intercept
coh
bohem
laz
indign
##icals
monkey
backl
invade
blues
opium
remsad
lawful
flights
additions
obey
planners
realizing
##eneg
##enees
mining
defensive
retention
##attering
curiously
2007
hotline
experimental
landf
##leyman
##crop
terrified
palms
oppose
morals
morality
##ucky
##roph
estimation
151
##ikh
questionnaires
##parents
focal
grandparents
domed
devot
1985
hearts
hearted
broch
trustees
animated
peacefully
scrap
motives
##lett
spanning
damned
royalty
ladder
medici
santi
georgian
filling
destroying
safely
venus
rapids
beatty
complaining
##class
forgiveness
powder
immigrant
racism
renting
biased
unpro
robes
calculations
calculating
mobil
inventories
controller
spray
symph
workshop
photographed
austere
ashoka
oxy
oxley
pyrenees
ecological
iraqi
saber
depressing
blowing
accomplishments
floods
sponsors
assassinated
spelling
gauge
switched
gaunt
intentionally
plaque
reconstructed
ceremonies
worshippers
queens
wrestling
philippines
relieved
adultery
obstacles
consortium
lorenzo
borneo
keswick
hikers
lyrics
manhattan
peppers
pengu
unaccept
utensils
raleigh
bidd
bunk
cens
citing
dess
dak
dia
dys
fhwa
gur
gifted
hilar
hann
jocks
lent
mats
nancy
patch
riot
waved
yad
zuck
##law
##pill
##bache
##nin
##gam
##gie
##yrin
##uaries
##win
##was
##wara
##washed
##vals
##29
##ono
##ori
##real
inability
##arms
##icut
beau
##stick
##utant
heck
##olics
asp
sher
fren
sull
##anto
knives
triv
##abol
meiji
##ardt
cancel
arising
outsid
anyways
myri
britt
workout
##akhan
crane
hercul
interactions
##uber
twent
thrive
lookout
monstr
footh
consent
legends
invis
symm
reminis
costume
##athe
##luded
slide
marriages
contam
##erness
souls
incremental
engaging
deterg
curs
baron
designing
transfers
confron
testified
approvals
classroom
raft
policeman
steak
pasta
##olds
waist
sane
singers
chooses
judging
159
awa
cease
ceilings
labyrin
differs
modernization
educate
165
grandchildren
strategically
sentiment
circulation
110
influx
physician
exceptions
celebrating
rounded
imagined
miserable
venues
submitting
vacc
vacuum
benid
worrying
salesman
rebel
ethical
targeting
ultr
matches
surveyed
##ohama
thanksgiving
welcoming
virtue
scandals
pico
nurses
enhancing
hinduism
barbara
witnessed
detection
reminds
fantas
torch
1919
sponsor
varying
whisper
venetians
bolted
exploitation
gorbache
alleys
##laid
leaned
stadiums
exemption
recruiting
phrases
tolerance
patrol
embarrassing
licensees
optimistic
caterpill
passionate
murders
simpler
instrumental
transmission
montego
spoiled
rituals
plausible
niche
quinta
unrestr
summarized
summarizes
browser
##frame
bundle
surgeon
aristocratic
zealand
stabil
pearl
perpet
corridor
eruption
lonely
jfk
minoan
jurisdiction
vouchers
botanical
brooklyn
shepher
gourmet
beverly
hassle
kabuki
congrat
energetic
obelisk
reconciliation
yokohama
enlightenment
mosquitoes
albright
unacceptable
bidders
myriad
labyrinth
gorbachev
caterpillar
bach
bows
ee
erupted
fits
gwe
ig
jar
jain
kor
kel
lac
ming
mant
mowing
sink
tatt
ud
urea
wach
zo
zar
##des
##ros
##eenth
##parts
##bank
##nik
##kirts
##gun
##hed
##hour
##jah
##erite
##inals
##atial
##atri
##itter
##aria
##asu
##omphe
beams
recept
##otal
isab
onions
##cels
##irical
##imited
##ados
shal
shit
##illas
fron
franch
chron
chasing
livest
proxim
bypass
spurs
arlington
uno
unab
unity
uninter
##quest
clark
compos
graft
bred
perennial
##akis
##agne
looming
intensity
coves
goodman
accustomed
deserved
betty
finishing
flung
systematic
persist
discont
phill
modem
happier
edifice
hoff
builders
delib
delivers
developers
businessmen
turnover
processions
##oyant
transcr
prett
205
walker
gaoas
classics
collectively
1800s
facial
##ups
apocal
dolls
##arried
exclaimed
sidewalk
suprem
socialist
distracted
nicely
ceos
ceased
regulate
periodic
snap
memoir
forehead
credited
duch
strongest
148
sexually
appropriated
ensured
entrances
lowering
banner
cookies
santor
respectable
communicated
wilde
fells
rainy
dressing
restruct
urge
micro
displaying
jesuit
truths
disposition
layout
1966
magnet
collar
behaviors
psychiat
bowling
advocated
transferring
vegetation
managerial
triomphe
tune
advisors
matth
lakeside
counterparts
karn
consequently
sarawak
protestants
osi
retaining
heyday
ventura
sacrific
muttered
sophia
tubes
cousins
outputs
uniforms
lucr
privileges
klay
tablo
renovations
mentor
yields
withdrew
iranian
overwhelmed
stranger
barrier
anglo
solicited
rajput
lsfo
flourished
inferior
outsour
outskirts
olympics
accumulated
devastated
evelyn
diagnosis
fiercely
panorama
subscribers
contingency
sighed
tucker
enforced
illuminated
exaggerated
alphabet
tibetan
oscar
einstein
fenner
discretionary
remembers
mundane
abruptly
kendal
toilet
deterrent
farrakhan
crucifixion
cucumbers
unconstitutional
dusk
fictional
giovanni
wardrobe
inexperienced
stuart
vikings
dakota
livestock
350
450
60s
79
ao
aar
aks
bury
cze
duct
fiance
garr
gaps
hut
hath
hmo
iber
iup
lith
laughter
nab
nie
nude
nfl
ooh
ocho
pod
roth
rendered
tiber
ub
vom
yor
yug
##iards
##car
##cane
##bly
##based
##net
##mons
##vi
##zer
##28
##juk
thieves
##erates
##atown
##eses
##anese
ink
inel
##itous
##aro
##isi
##icans
relying
revered
##utive
whist
##urr
prone
prizes
##olved
shipped
##essim
framed
##gev
thereafter
alas
traced
aba
##oslav
##ifer
noisy
enron
sphin
##oured
plateau
maz
donalds
##ibu
graves
brib
workload
sheets
crude
amuse
indones
accuse
cargo
##ogs
##ogues
throws
servant
backward
blast
highways
remod
remedy
regent
##othy
flue
flute
subd
owning
slice
marit
margu
federation
realignment
organisms
avenger
capped
rested
restoring
##rians
delta
nationalist
socially
particulate
watering
experiments
refurb
succ
gloss
generosity
morrow
##bria
salute
trades
tenants
irr
##sha
filter
poorer
envy
antitr
coasts
squir
competence
balancing
snack
domination
civilians
debated
favorable
richest
quicker
murray
selfish
replen
violations
catholics
virgins
surprises
panama
cooks
legislators
drawer
causeway
tiers
seasonal
candy
skyline
corrected
consisting
connecticut
##banes
multipoll
complied
florentine
writings
cheapest
mercy
conceptual
##masters
1944
octagonal
volunteering
boundary
montmart
dismant
furnish
sarbanes
1952
gamblers
overseer
predicts
byzantines
sabah
sugarcane
1917
assassination
borrowed
anticipate
exploit
rewarded
unlimited
struggles
unreason
bosses
dilig
wounded
exempt
nazis
groceries
canton
##keeper
monopol
observer
triumphal
renewed
pregnancy
warnings
prolong
enthusiasts
abundance
butterf
unrest
lobbyists
pronounced
flanked
humidity
baptist
mergers
klein
pompe
hydro
conqueror
invoices
enlar
bumper
mathematical
mathematics
honda
cyclades
leverage
epidemic
lamps
vermont
stereotyp
salamander
skyscrapers
meadows
adolesc
irrigation
rhetoric
injustice
giuliani
unconscious
inconven
arbitr
inglis
backlash
zucker
proximity
lucrative
klayman
czech
sphinx
donaldson
antitrust
multipollutant
81
daring
eul
hir
kag
lil
moss
mason
mls
oath
pel
piss
pagan
pyl
rally
rats
ridden
tum
tiled
vec
vint
yog
##aid
##rest
##rise
##say
##with
##fol
##20
##atis
##esa
##enuous
inlaid
beast
beasts
##uten
stare
##etical
haired
harem
forem
##chool
##amoto
shug
##opy
neur
seleyman
##ulum
sums
prose
exuber
##usa
tray
tram
abolished
solem
leop
leaked
meh
##apable
spared
##arte
arrog
##eliness
unint
outlet
upheld
bruce
##ipur
peril
cram
eviction
thinker
incur
quad
##arets
herbs
interference
interconn
coe
disk
booming
apples
rogers
tapped
strain
smoked
moat
monso
consume
##leside
blm
blur
regimes
##feld
requesters
subpart
slot
callers
obstr
showrooms
realism
earmarked
norad
rests
charism
performs
touring
barred
runner
turnout
##aob
mailing
investor
menorca
password
electoral
terrifying
morr
billy
understands
understandable
insane
arrows
successor
irreg
supermark
awfully
solving
holdings
questionable
prevents
126
periodically
squad
vienna
linear
shoe
domain
argu
caste
coptic
wordsworth
connell
fairness
campaigning
preferences
damaging
appearing
messed
sandstone
quarrel
predictions
tender
deduction
senses
reliance
investigating
mentioning
vacations
1964
californ
spirited
jackets
gasped
melod
chiefs
introducing
talents
ambleside
ninja
bombay
cynical
graduating
vastly
quantify
constructive
cellar
splendor
resisted
##efin
nomine
detecting
predicting
cigars
pcaob
thoroughfare
incorporating
pitcher
disciples
330
suspicions
hawaiian
##etrical
hudson
theatrical
monarchs
fertil
suspects
translate
owing
bourbon
boomers
forecast
##ulsion
resemble
australian
distinguished
naive
adaptation
advertisement
serbian
greeted
betrayed
transparency
jefferson
narc
bastille
densely
puzzled
diplomatic
cancelled
contingent
adventurers
rescue
mumm
blessing
ornamental
safeguards
disposable
shogunate
dinosaurs
depreciation
interpreted
lanterns
transplant
hebrew
pertaining
ernest
harbors
lobster
insufficient
autoroute
oxygen
brittany
invisible
benidorm
fantasies
iupui
yugoslav
foremost
50s
6pm
76
91
ale
auctions
dah
dian
dair
ducks
gin
iey
jum
jets
kas
lust
lure
mul
mitch
mocked
nba
ost
oval
pant
rus
rend
rack
rios
tint
vp
##lion
##bury
##gic
##gone
##sim
##yer
##mund
##uil
##200
##jman
##erts
tod
toes
inhouse
##arat
##omy
bew
##utable
forested
##urer
##iguous
##ationally
##adas
asyl
shod
shaw
##opia
##ilant
withhold
neh
##illery
fruits
chip
sof
lease
mecc
##ivol
sphere
spouses
##ourt
plumb
arl
donkey
outpost
##ocod
griff
##izers
brian
brisk
broker
##grant
##agu
wholly
imply
implies
offenders
quas
cogn
drastically
##ignific
stras
undes
carth
decad
backdrop
blair
makeup
highlands
##leman
systematically
discos
obl
##mbur
parcels
carey
edges
defenses
schooling
metrics
seemingly
sku
skimming
mainframe
concise
taxation
ideally
ideals
admirable
pretended
continuity
statistic
operas
archives
insignific
succession
irak
intervene
solo
filmm
horus
##boards
silic
silhou
antich
reaches
potato
distress
footage
administrations
##ushu
pulls
devote
devised
devoid
teaches
##balls
treats
lakeland
violated
standardization
firef
creativity
inspiring
communicating
wilderness
tracked
camii
touching
qualifications
spectrum
meaningless
melanch
marching
guardian
railways
thankful
retrie
##guard
textiles
commanding
defeating
inquest
illustration
occupy
vanished
elegance
converting
1955
hersh
brilliantly
barbarians
kyushu
uncertainties
detectives
byzantium
updating
accomplishment
bailey
bolt
lucas
pitre
dismissal
1890
smoothly
translation
translated
unwilling
owes
shouting
fragments
voluntarily
##keepers
premiums
patriotic
##borne
frightening
advertisements
frederick
liberties
slogan
tucked
rebuilding
massacre
kiosks
glamour
fossil
nostalgia
jogging
genoa
##estimated
entrepreneur
phoenix
arnold
scrolls
tudjman
deferred
galilee
etruscan
wholesale
correlation
persecution
kenneth
qaeda
vigorously
cushion
kurdish
santiago
aksa
lithu
maritime
unreasonable
pompeii
morrison
ieyasu
insignificant
87
borr
dic
dwe
dyl
dwar
ely
fret
gases
hiv
hank
hunch
hhs
lapt
loral
misc
nr
nond
nerves
oy
paved
poul
pessim
rim
rio
vines
vantage
y2
##avel
##oise
##yoshi
##uch
##wed
##vos
##jab
##just
thigh
##orthy
andy
##isa
##icable
##omot
beings
beats
reh
relev
rebs
isa
isikoff
##utt
##etics
hambur
whale
prow
prayed
heal
heated
shattered
##term
##esting
seal
frivol
doomed
##erees
chee
chris
livel
liabilities
exor
##ands
trout
##abl
abol
##outed
leaks
##ifs
##ivities
manchester
spiel
plague
donating
sao
##emen
cla
clash
clinger
cluster
gramm
##ahoo
uso
reserves
##agg
crocod
overhe
muller
rogue
lax
##roads
commut
indefin
##ensing
moist
decides
backwards
invari
syria
relates
opulent
downhill
proves
##wealth
flamb
##angel
housew
discrep
basics
marie
standpoint
locomot
avid
startled
lethal
speculation
charitable
thoughtful
eman
curric
companions
barcel
##eeze
concorde
advancing
signing
signatures
designers
openly
ideology
transit
jonathan
musk
refin
passive
electrical
portable
cretan
terraced
raf
extends
tense
tenure
winners
sidebar
thirst
estimating
judith
distract
chevy
accessed
renamed
competencies
disturbed
turin
risky
sno
specifications
riches
murdo
##ycl
void
erlen
contracted
contracting
decisionmaking
creator
germain
efficiencies
stationed
tiered
indicating
midday
corrective
venerable
suspense
titled
sensible
tomato
declar
declines
judgement
mixing
releases
sleepy
exercises
capacities
powders
hillsides
positively
caval
drafting
acquisitions
variability
pursuit
semit
spectacle
deceased
roofed
olives
proceeded
proceeding
hideyoshi
absorbers
heroin
retains
oversee
eagle
dimensions
mahara
##foot
promotes
omn
satisfying
innocence
privileged
exploited
parliamentary
photographer
prudence
hamlet
vineyard
auctioned
weighing
renewal
vendor
bernard
elevated
assertions
instructor
prophecy
broadcasting
stroke
strolling
barracks
allegedly
geography
reproduction
diamonds
linux
comedies
icons
tangible
vaulted
panoramic
asserts
swallow
condemned
lecture
kiosk
##eezed
hypocrisy
gaulle
pesticides
mughal
rifle
endangered
sprawling
inaugur
airplane
imaginative
sparsely
lalley
lounge
temptation
thurmond
anatolia
theoretical
undersc
kristol
alleviate
spontaneous
orrery
yadda
reminiscent
unrestricted
marguerite
solemn
irregular
mecca
iraklion
dwarf
poultry
y2k
spielberg
barcelona
murdoch
erlenborn
aided
dared
gul
ggd
hips
jay
kit
koh
khan
lum
lamb
lorr
mou
matt
nl
nike
oira
osha
ras
rut
rug
rosen
vau
##dling
##iere
##tinent
##ollo
##rith
##rys
##evelop
##person
##patient
##bags
##konos
##gon
##mes
##mad
##math
##woman
##atism
##alified
##reuil
##asm
reims
whil
##iger
##irational
weary
asians
notew
sham
sharks
##iliar
##ileries
negr
##oding
seaw
##mented
chan
chalk
knit
alger
yelling
abused
abortions
sob
lehr
meek
##alling
##apur
enig
manners
spans
arose
unused
likeli
saus
clam
mykonos
##herent
brush
##group
##grams
cripp
cranes
amun
evac
incapable
herd
interiors
coerc
bulls
rooft
##ignon
carlos
undergrad
reloc
polished
stately
idi
slump
revise
obed
depr
valenc
childish
eds
organic
earl
defl
avis
cavern
metic
proposing
comeback
humil
retreated
##iograph
ideological
mailed
testify
refund
refrig
glen
glowing
whitewashed
annivers
porte
newsday
newshour
critique
apollo
10am
greg
paste
halted
insured
spears
capitalism
activists
##author
purse
155
1500
##iken
immort
pleasing
cheating
filmed
harry
holders
methodological
##prints
texoma
styl
encry
penrith
169
participant
definitive
accepts
militia
copyr
wonderfully
violation
ensures
unfam
##ambles
sonora
gallon
##eteria
inspire
bonap
complexes
sands
primitive
alternate
alternatively
physics
farmland
denial
gardener
afforded
pathetic
measurements
1977
sensual
jewell
604
buddhists
gloves
punjab
spectators
melted
snowed
ambitions
bowls
biology
novelist
comfortably
deficiencies
conflicting
semester
volunteered
pleasantly
tuna
matrix
inquired
breathed
montana
1923
cupboard
mileage
berth
negotiating
calmly
converse
wilkins
obligated
eagles
winged
ganga
coordin
accommodation
ranked
arcades
bagh
concealed
antoni
chestnut
clarified
unlocked
ferdin
darned
leaning
repaired
recalled
authenticity
hypothetical
tuileries
weighs
cafeteria
##ienne
lambs
observing
reservation
albums
enclave
databases
loyalty
crawl
landmarks
prototype
muscles
riviera
chinatown
metropolis
restrictive
vampires
pistols
emotionally
persuade
##uela
interfere
vieux
warehouse
addictive
oranges
profoundly
richer
amenities
cautious
downsizing
ffc
plummet
contributors
##olithic
inaccurate
umbrella
cunning
impractical
##anthrop
reimbursement
rajasthan
symphony
trivial
monstrous
unoffic
hoffman
deliberate
furnishings
pylon
asylum
strasbourg
isaac
invariably
declaration
noteworthy
lehrer
likelihood
anniversary
a50
bm
cind
dire
ditch
ech
emm
hitch
iz
jol
ka
kay
lace
luk
muss
ner
nail
nathan
nanny
ply
piv
pave
qut
rained
ratt
sff
tink
##dad
##tm
##rine
##cz
##cases
##bled
##nbc
##kill
##kakis
##vency
##49
##erpt
##erted
##inished
##atur
##esc
##ener
##orate
##ede
##ali
##requ
insect
##iso
##vell
##idences
stunt
pric
##ayan
##very
ante
##amas
##amine
shiver
shrew
sherman
neads
##odern
##kel
concess
##ulator
cham
goa
exxon
knox
##acio
soothing
leith
##ghia
enab
engr
spine
spike
spicy
arawak
maur
##ela
donor
unve
peac
closes
##oused
upright
complying
##ahu
crumbling
evans
evocative
##iche
fever
feast
overp
herald
herbal
intergovern
coo
coke
coats
scam
scored
bully
boyc
roar
laud
laura
##licable
prey
centr
smokers
undergo
##issible
monk
fines
invading
syner
oprah
informative
preschool
schwar
flames
warlord
##atched
daylight
parr
locate
minaret
contests
mete
completing
correction
economical
autob
swine
clintons
explos
##crimin
palma
continent
continuously
billing
patent
archive
trader
steaks
insists
arranging
successors
excerpt
culturally
purity
##shot
158
buyers
hilly
burton
epit
staffed
squash
squeezed
shoots
##ovia
determines
pickup
sentimental
teachings
subjective
dukakis
polling
commonwealth
murphy
replaces
goldberg
madness
emergence
settling
30pm
fairy
unfinished
scramb
applicant
bushes
softball
embed
ignores
hopeless
climbed
commenters
louisville
excellence
occurring
camels
responds
blockb
1968
advertised
tasty
eyebr
murderers
repeats
ambient
revolutionaries
broncos
tribun
cowboy
fascist
certific
##market
spreadshe
appealed
shelves
quantified
virtues
licensed
inquis
strengths
derwent
fellows
attendant
3000
homer
gambler
bustle
dissaving
teenager
cigar
##affected
sacrifices
lifting
recycled
youthful
flooding
palestinians
chickens
conceal
dominates
aggression
aggressively
cocon
rivalry
darn
basilique
hazards
drunken
556
gigot
neckl
##repres
knocking
puerta
blacksmith
corresponding
rusty
ribe
pulp
puppies
##ulsive
instructed
sailors
bureaucratic
patriot
announcements
cloudy
bombed
kissinger
honeym
insurers
vaults
vaguely
cherished
hurricanes
hispanics
siena
philippe
landlords
anchor
interface
handicapped
bakery
##course
extremes
prescribed
benedict
embassy
nassau
tadminster
exhilar
rhythm
trigger
nickname
paralegal
sovereignty
untouched
fowler
grafton
karnak
inelig
shuger
dairy
antichrist
dylan
flamboyant
refriger
copyright
unfamiliar
qutb
intergovernmental
schwarz
750
86
aide
apt
baked
cough
cites
dh
dual
duration
eug
eph
eternal
fuss
huts
joc
juries
lana
mong
maced
nud
oaks
pamp
tart
tensions
vern
wink
wto
yo
ym
yale
##locks
##iating
##oiled
##ridge
##eak
##burs
##nell
##xy
##vo
##zart
##34
##74
thar
##erated
##inia
##inanc
##ionale
##lee
##utta
stap
whir
forrest
##urt
angr
##olent
chuck
cherry
suite
sufficiency
lia
yeats
##abal
noises
arises
mace
unimp
##quist
##endously
##oco
sailed
clun
##iban
resume
brun
brake
brighter
crush
croses
implied
amused
quai
reputed
##achi
coch
diso
disburs
scra
boast
boiled
pole
##enco
##ecs
prefect
strive
guild
carre
##iances
aftermath
mozart
invention
invitation
politely
##atha
huff
genes
idaho
courbet
subia
daycare
persistent
handing
basse
parl
redeem
enduring
minisk
defender
default
##centric
aviation
organizing
startling
sinister
meth
metabol
fundament
audiences
curved
tournam
airports
sitcom
confessed
portals
supportive
palacio
criter
varieties
namely
apath
patric
calder
extinct
ordering
tenant
figuring
sanction
futur
juda
judy
interval
acros
immunity
harmed
towel
egus
172
regulators
musician
texaco
122
squat
recordings
penis
constrained
entirety
risking
dukes
universally
lighting
fleeing
custod
centralized
hopeful
119
viruses
jerked
preferring
expressions
138
acquaint
##iquitous
inspirational
wishing
stockholders
noticeable
cardinals
substances
russert
babys
affords
skyrock
ballroom
philanthrop
midst
midwest
integrate
1972
connecting
##yrus
hostel
essays
investigator
gradual
adopting
warmer
warmly
consuming
behaved
premises
amazon
hype
suscept
videot
2018
taliban
brands
libraries
danvers
1947
uniquely
daddy
malla
##mosis
cartoons
sprink
retailer
comprise
proceeds
proudly
attendants
absorb
archaeology
nominated
digit
revolver
overlook
overlooks
mystical
coordinate
chronicle
torre
surfing
upstream
boulevards
exceeds
bleak
solidarity
outlined
##respons
prosecution
clarify
impeached
reinforce
embracing
##proof
tornado
casualties
cockt
satisfactory
owed
hesit
hesitate
hypotheses
nazionale
gravely
solicitation
cycles
rotten
ceramic
mirrors
grandeur
sophistication
inherit
instructors
legitim
warranted
collaborative
grasmere
tapestry
hints
offsetting
vividly
gleaming
populist
balcony
outrageous
fleece
sikhs
salvador
disorders
terminology
replica
disposal
dwind
unspoiled
navigate
cautiously
toothp
echoed
detrimental
predecessors
reversed
blonde
deregulation
unanimous
riots
fidel
sepulcher
dishonest
miami
rectang
volatile
harmonious
reopened
mckin
colossal
brinkley
hilarious
zarco
prettiest
matthew
ubiquitous
butterflies
relevance
seawater
enabling
honeymoon
ymca
tournaments
skyrocket
au
aims
baff
cc
dens
hk
hing
hend
heter
jup
kud
kum
linger
mih
nets
nether
pau
pup
pairs
rw
rag
roses
sr
sque
sinking
tac
tina
vil
vase
vene
vcr
waving
yahoo
zinc
##lia
##iac
##rakes
##eous
##po
##nos
##nard
##kh
##master
##maker
##hall
##jack
theor
theft
##eroy
##esign
##orable
##orient
##reet
##reced
##arthy
beware
rearing
##otec
stack
stumbled
pruss
prisons
##ige
weeds
##imeter
##amous
notify
##ilitation
##esses
dele
deity
##estones
seine
seating
fringe
dolly
##uled
atroc
chess
chios
liar
lipp
proving
aligned
sox
leban
lemon
nood
##alled
plunder
hadrian
##elieu
outwe
outline
anyhow
sag
##oky
clues
myr
##ounds
##ishi
compiled
compelled
grapp
grotes
griev
aggr
agony
agitated
##agm
crest
crashing
imperson
impulse
lofty
evicted
newt
incidence
quil
repro
hered
##formed
disastr
muff
scorn
bog
##owners
goodby
commons
strung
needless
righteous
guitar
##ailable
afterward
deco
##taine
backup
##teenth
syl
downstream
regain
joan
effluent
governed
##urned
##getown
handbook
kindly
elimination
parque
##ewrit
setup
miners
defines
rup
nora
meter
propri
builder
##rium
##ypse
skipped
##chnya
postwar
signpost
##opez
airline
affluent
tempting
communal
nearer
transp
confuse
admiration
mailbox
##quez
typewrit
##lessness
##roned
portfol
walkers
possessions
grouped
behold
##elles
infamous
varanas
calip
caletta
##lique
orderly
armen
waver
millionaire
individually
futile
immune
sunrise
harlem
cannons
label
burge
administers
##worked
encycl
periodicals
coupled
geometric
godfather
picks
debut
richly
richelieu
recognizable
eighties
keyboard
malibu
halles
violently
118
recommends
structural
junction
preferable
reformation
spaniards
efficacy
medication
georgetown
sweaters
darker
dennis
linkage
rainbow
machin
##ophis
misrepres
pleasures
mandrakes
quieter
integrating
missionary
precinct
1976
hosting
605
entertained
columnist
conservatively
1965
mountainous
collins
bandit
telegram
jamaicans
##iptive
demonstrations
marched
lieuten
talm
brandy
relaxation
cruz
logistics
unpreced
gladi
certifications
robot
calcutta
commanded
samos
shelf
mccarthy
bulbs
tunic
shuttle
forthcoming
1920
irony
bonding
hawk
comprised
vacationers
defendant
disagrees
masada
deposited
extensively
symbolism
cooperate
courtyards
globalization
##urbar
streamline
unclear
migration
291
outlawed
lesvos
spelled
tanf
coaching
huntington
clarity
feroc
pinker
tricks
sanctum
levi
maple
habitat
vulnerabilities
wheelch
orchards
cycling
tolerate
exclude
rustic
hastily
rodin
transmit
1871
resembles
scorecard
flourishing
elevator
mysteries
swinging
peasant
patriots
warranty
serbia
lagoon
evolving
troubling
stanley
trimmed
worshipped
slaughtered
overwhelmingly
wagons
cooperative
skepticism
bacon
commemorate
stalact
swallowed
gutenberg
belgian
adventurous
sociology
enlightened
carlson
cedar
brazilian
tidal
wreck
rouen
upgrade
folded
fossils
portrayal
mughals
forfeited
oliveri
appetite
undermine
himalayas
itinerary
nightmare
irritating
golan
kinsley
haunted
mercenaries
vertical
clustered
retaliation
ptolemaic
inscriptions
impatiently
infinite
cambod
pencil
cricket
employs
segovia
endorsed
pomona
bohemian
unprof
penguin
detergent
apocalypse
supremacy
santorini
##juku
montmartre
arguably
carthag
silhouette
nrcs
cheeks
bonaparte
ferdinand
priceless
meteor
##inancial
criterion
judaism
jupiter
##oteca
outweigh
disastrous
goodbye
varanasi
unprecedented
3rd
bids
bats
battered
dion
daw
dipped
dizz
dhs
fading
fsis
gw
gem
gaming
het
hides
jah
lining
ni
nia
pand
pans
pied
render
rushing
sang
ull
wend
woo
witty
##afe
##rs
##ement
##paper
##nal
##nuts
##gir
##yo
##yll
##ystem
##mi
##mins
##wire
##zi
##71
thebes
##inarily
##atus
##attr
andrea
##leiman
bean
reigned
reactions
isle
##iders
stip
stalk
##eterm
forks
##urances
prc
prair
hewn
##imi
shir
##ilation
##estion
##odoro
seals
frie
fract
orrin
sue
suleiman
liking
##usions
almond
yel
trous
##abar
soy
allig
##outine
##ighting
##arding
cano
canopy
spit
##elong
unauthor
unaffected
##quer
##ishna
grief
reson
acoust
peru
##agement
##agging
cramped
evie
expatri
coarse
drums
mug
scour
scars
roasted
##berry
indec
strokes
accl
accr
reclaimed
firth
carmel
assisi
betting
undergoing
longterm
relent
blument
highland
fuzz
##sels
polo
helen
##weight
huang
surreal
empirical
kinda
parental
edited
minamoto
avant
capp
sinan
builds
charities
correlated
skirt
pointless
detached
technician
##isman
##ashes
waterfall
funn
majors
glor
camper
daff
hourly
passport
annan
annunciation
203
possessed
equals
statuary
morb
##ells
apache
patan
calv
improv
##uffy
grease
winnie
departed
garde
beachfront
irrespons
##enches
chef
chechnya
labels
satan
ego
simpson
corpses
##parable
pots
potent
turbul
##swater
inflow
specification
pressing
freud
duly
alcoholics
lightly
casting
birch
emergencies
honour
negatively
neglig
unfold
bankers
damages
expressive
merry
broadly
savoy
georges
slee
sculptors
stationary
denies
denying
discoveries
misle
misstate
garments
deductions
##iesta
flowed
urges
horrors
suspended
consisted
submarine
1978
connects
truthful
hostage
hostility
jeep
609
catcher
compliment
premiere
adjusting
televised
categor
closet
contacting
demonstrating
sorbon
limitation
prosperous
psychic
bronzes
danny
unprep
mirac
speeds
carriages
comprising
belonging
sarah
clicked
neatly
randomized
rhine
adequacy
nomination
stressful
gangs
pedest
allocate
promotional
disciplined
29th
rampant
oddly
widow
whisky
spells
attributable
anticipation
vulgar
disappointment
shocking
cheerfully
unlv
pineapp
dunes
wounds
exemptions
orchestr
nonfinancial
correspondent
optimal
forecasts
diameter
transmitted
flawed
bureaucrats
harrer
cameron
deliberations
mathematic
infert
excavations
tremendously
bastion
tutmosis
diplomacy
gerth
phenomena
whipmasters
immensely
geared
chanting
condemn
rescued
brewery
timbered
gravity
recruitment
robertson
helicopters
raiders
pesticide
12866
misdeed
favourite
hierarchy
predecessor
intoxicated
maui
rousse
twisting
rehabilitation
ethnographic
disgrace
fontaine
foresee
compatible
prejudice
chlorine
remnants
predominantly
horton
##ifferent
caravans
deviations
ambassador
unexpl
pokemon
ralph
##writers
notoriously
vaccine
vintage
yugoslavia
mitchell
nehru
indefinitely
curriculum
whilst
unofficial
autobiograph
embedded
liaison
grotesque
ullswater
blumenthal
2nd
5pm
94
boun
berm
bode
ds
dj
dough
dag
dile
dante
eric
fc
fade
gad
hart
hinter
jeez
kg
kitt
kais
khal
len
lus
lays
lenders
mcl
nou
pd
pse
pam
pines
rall
rph
sul
sara
tiss
vind
vitt
viking
wipe
yidd
##lit
##las
##avers
##iose
##tel
##pin
##pas
##not
##mip
##mail
##hir
##vill
##far
##55
##25
thesis
##anor
topless
ingen
inmates
##itomo
##arium
##aser
##ication
reacted
##otam
thatcher
stif
hailed
haghia
whipped
forge
forged
##seum
##igured
hep
##imon
##adoes
notification
shen
shred
sealed
##keley
fry
frost
frances
dove
comr
comf
##antley
proxy
exch
exchanged
tracing
sofa
noh
enrich
spill
plug
plugs
arte
unjust
outages
outfits
outcrop
##ocl
##emon
peep
clone
teodoro
justices
##ibus
gren
graff
someplace
brantley
pertinent
eva
newton
newcom
quarr
thanked
fears
##aching
intently
serra
coven
drowned
drowning
scow
scales
poo
##ignant
##berman
##lico
##ensible
strings
acclaimed
recount
recons
recalls
##fert
guerr
##angs
caravag
##ogen
##ogene
monot
monolog
##icts
invoked
##ometer
presently
flut
flashed
keb
##tsin
handwr
empires
depended
cape
parcel
realities
popes
endow
endpoints
specim
meditation
formations
believing
##belly
##tened
issuing
barber
watchers
concurr
socio
productions
enticing
##loyd
viewpoint
admitting
menace
refr
glac
glared
campers
walkway
traits
infected
volley
activist
activated
roadside
villain
##autions
puritan
##shed
awoke
sung
fisherman
##prod
preview
##working
destined
antilles
espn
turmo
humanitarian
grandson
grandiose
footpath
furious
despise
despair
pollard
malcol
circles
hurried
##boro
sexy
30am
normandy
langley
scrib
motive
driveway
packing
emblem
exceptional
tariffs
discovering
predic
##took
ballmer
radiation
##cki
glassware
urgent
venom
horribly
horrendous
precautions
bloodshed
splash
cambridge
touches
usefulness
boxing
1969
benign
constituted
punct
interviewing
bandw
spectator
progressives
floral
giac
clocks
petra
frankly
forgive
odys
snowing
retrosp
concentrate
loggia
strangely
certifying
commandments
bobby
afternoons
chapelle
occupies
kitchens
##offs
porter
##iye
digging
fabrics
forbid
forbidding
fooled
eccentric
crushing
implicit
scholarships
torches
tightened
pitched
enthroned
flooded
widest
outlay
jacques
faulty
mentality
portrays
rigorous
axes
cuisines
exempl
flags
remotely
leonard
astronomical
landscaping
consolidation
unconv
puppy
feminist
harshly
bathrooms
resembl
flourish
acknowledging
flawless
horns
##accio
highlighted
fulfilled
hubbell
##charge
fetch
fetus
accumulate
balearic
stimulating
##oretto
aristocracy
merged
vocab
lungs
organs
triangle
belgium
##immers
proserous
proserity
dolphin
kuwa
ruthless
somber
abdul
adversely
penetration
hungerford
battery
sesame
##occup
##occoli
browse
gnp
cpas
fujiwara
imprisoned
blanca
bookshop
fasab
sweden
alpine
disapproval
lynn
ebay
macroeconomics
plagiar
incompetent
pledge
guillotine
unbear
amphitheater
motorcycle
nebbish
intervening
postmodern
carpenter
flick
anecdotes
doctrine
shepherd
koran
isabella
restructuring
ductwork
refurbished
vecchio
diane
griffith
silicon
frivolous
overheard
inaugurated
lorraine
nlada
a504
lukas
shrewd
angrily
lebanon
hereditary
encycloped
yeltsin
trousers
unauthorized
irresponsible
sorbonne
bermuda
dilemm
kaiser
pseud
yiddish
quarries
malcolm
resemblance
512
aides
batch
baking
bake
bung
barts
cds
eia
ecl
fib
gt
gust
gamble
hires
htm
ie
iq
ioc
ja
jen
jess
jams
kota
kitty
krake
lime
mg
morm
miy
mamel
nist
py
pact
rays
rash
rica
routh
sard
sans
torrent
velve
wack
yr
##dog
##oire
##ration
##rick
##cott
##ele
##gies
##vara
##inav
##esus
##onin
##ouin
##aluation
##reen
inhib
##itas
##isen
##iscovered
##entious
##stood
##owers
##idated
stig
stubb
stems
##ete
##etary
##sees
prized
##chre
##chrome
##igs
##igu
##irds
##imps
##olini
aspir
shine
shuff
##opotam
##este
chir
chunk
chunks
goin
gosp
suh
##acz
alice
yell
##istas
##ostyle
leagues
canoe
enables
##unting
manson
mankind
spor
arsen
##endum
##ocre
peg
clad
adher
upside
##isha
grilled
reside
themed
brock
broth
perakia
##akusa
getty
crom
crust
crater
implying
loads
repayment
oversh
overha
overpay
interact
interchange
cole
disasters
drifted
boo
preambles
preoccup
centres
centrel
indifferent
strat
accadem
##pton
##loading
carne
throng
thrilling
##ancies
fuels
secluded
remed
presort
preserving
polar
takeover
##ermo
flirt
flaming
flashing
##ulars
generic
slack
slipping
discred
handmade
showcase
modules
townhouse
contend
##rio
demograph
##aze
median
emin
eminent
curves
mustang
barge
percentages
directing
swiss
##strom
confine
milliken
misses
##places
menor
refined
##atsu
##critical
classifications
collects
inflic
clearance
apoll
extensions
tradem
##uffs
storyte
arrives
staunch
pawn
authoritative
suns
sunburn
plea
harold
britann
presenting
methodologies
specialties
177
colleague
christie
##icultural
staffs
recordkeeping
turtle
definite
snar
##ogne
pressured
wrongdo
hunted
despatch
similarity
##ycles
malok
malabar
golds
copd
julia
##anners
shrinking
divides
journeys
trustworthy
fifties
diners
blooms
displaced
firearms
momentum
greenberg
masses
superf
messy
remainder
combines
respectful
kmart
farmhouses
sculptor
exhibited
tarzan
inns
climax
radar
misery
tendencies
##itorial
martial
1971
1973
sensational
verbal
occurrence
declaring
dispro
utmost
starving
profitability
sudan
tasting
weaker
giotto
conditioned
quarterly
melrose
colonists
hypostyle
francaise
odor
babylon
tougher
breathe
counselors
rentals
psychologists
bothering
brandon
tribune
martini
microsc
etienne
1946
announcing
bombings
robbers
samuel
mcg
honesty
cabins
##haus
scandinav
montreuil
galata
galax
fraudulent
dryly
negotiation
victorious
fanatic
ivy
delicacy
pills
launches
backgrounds
deserts
telephones
ridiculously
nicolas
streamlined
bleeding
conscience
buffs
joints
dominate
##anesh
hawaiians
destructive
exploits
exploiting
tornadoes
axis
philosophers
dragging
rationale
##break
viceroy
lamar
tolerant
feminine
incidentally
luu
##waite
ellison
precedent
rabbit
muscle
cottages
proclaim
kissed
polychrome
toyota
populace
surgeons
vocal
persuaded
pakistani
triangular
automobiles
envelopes
handicraft
culm
dwellings
jfmip
swiftly
misunderstanding
neighbourhood
synthesis
dowd
himalayan
descended
mediocre
implants
fluctu
reunion
nightmares
disguise
wyoming
intimidating
veronese
encompass
sarcophagus
aisle
ascendancy
bubble
peanuts
gauntlet
bachel
iberian
irrational
adolescents
kagoshima
quasi
undesirable
melancholy
lithuania
dwelling
obedient
mussolini
rectangular
stalactites
canoeing
kittens
graffiti
caravaggio
turmoil
encyclopedia
krakew
routha
centrelink
accademia
82
aur
ail
bending
cim
cort
cec
cork
dum
etern
eco
fidd
gond
gyp
gabled
jas
jarr
josh
kannon
lame
lss
mim
mish
nun
pok
pree
pase
pony
pipe
raging
sack
sorrow
soutine
tant
tile
vans
vila
waking
zip
##lide
##dings
##dled
##dlers
##eer
##pool
##papers
##bin
##bath
##bred
##nings
##hpur
##zary
##zia
##13
##jan
##jac
##atural
##onka
##enot
##orial
##anum
toe
topp
##alt
##algam
##rec
##ittering
##otting
isis
##utic
ster
stain
stump
stakes
stagger
haze
##urring
##ayama
ants
angu
##amud
##adena
shun
shipment
##opus
##ilcar
neander
##eston
sean
coniston
fray
fries
frug
##ulary
chorus
goof
alarming
abil
abusive
##mpanum
lex
maneu
sped
sperm
spikes
plent
plots
ary
##elf
unor
unsc
unear
##astro
outlying
outlines
##okie
##eming
peek
clip
clois
adri
advers
adhere
timeless
teeming
justification
##ongru
grotto
resigned
bry
brim
brac
brava
broccoli
##grove
percept
crab
crone
implements
incongru
quir
intu
intends
server
coherent
disband
disbel
drastic
##ittin
twitch
scal
poignant
##robor
##rolled
indis
strips
guad
##angu
##angor
##loge
carson
assurances
umeda
colomb
underwent
undergone
moyn
##issa
decay
decim
decisive
##icked
##icking
foal
backwater
inventions
securing
madeir
scheck
lawmakers
fla
genoc
kemp
dayton
daytime
persisted
depiction
attent
##spe
maraud
marvell
redesign
minarets
organizers
sinatra
lett
metals
proposes
cleans
delir
numb
demol
corrobor
fundra
skating
emerald
##xtap
nationalists
businessman
##althy
directive
weekdays
mush
sworn
conferees
admits
menhir
sucks
whitebelly
northeastern
passages
paints
portico
congressman
congressmen
1800
raikes
summaries
summoned
enjoyment
##iddy
capitalist
excise
singh
originals
irate
poses
posing
authorize
##iko
solvency
harp
envision
174
silo
##apeutic
vii
viability
container
screams
debating
assisting
forefront
riverside
freak
eleanor
referendum
illusion
copied
sexist
voiced
eras
115
normans
chapels
heavens
damning
expressing
##adesh
135
##ographers
juven
juxtap
retirees
savvy
combinations
##igraph
separates
conducts
celebrations
balloons
restrained
rapt
mickey
marta
hostilities
catches
hanged
qualifies
5000
ethic
freshly
interventionists
doubtful
doubtfully
cooling
dramat
##adox
births
drafts
thankfully
grassy
1941
robin
robinson
praises
inventive
tuned
adviser
inquiring
deriv
picn
1922
cellular
cellars
galerie
1936
illegally
counterpart
succeeds
succeeding
retailing
berkeley
workshare
protesting
clicking
wilshire
##ukk
praying
oxford
homage
harmless
sultans
rejection
kennedys
recovering
ecst
eclect
supervised
teenage
mystic
coordinating
pedro
champs
champagne
smelled
chronicles
kosher
rumor
nicotine
krishna
bricks
scarves
graphs
chateaux
disagreement
bolts
sustaining
croat
unlucky
tinos
akin
hamilcar
frustration
dictators
angles
weighed
nonfiction
excludes
undertaking
undertake
pulpit
mythology
motionless
reluctantly
preparations
warns
boosting
punched
sparked
genuinely
trumpet
vigorous
breezes
inapplicable
1868
alabaster
bazaars
msnbc
promulgate
tackle
puzzle
withdrawal
adapting
persuas
kleiman
pasadena
rebellious
tympanum
disclosed
screwed
unmarried
relieve
indirectly
corridors
glamorous
plunged
overcrowding
confrontation
kinabal
nostalgic
deterior
residual
residences
misunderstand
synthetic
bookshops
cliches
unheard
slammed
mercenary
luther
sketch
hosses
quayle
merrion
aldonka
allergic
unstable
daimler
chandel
apostles
seminars
haggling
blinked
embroidered
outnumbered
landfills
outsiders
rafting
prolonged
mehmet
arrogant
jumbo
laptop
commuter
##eveloped
pivotal
concessions
scrambled
noodles
typewriter
burgeoning
niaaa
piedmont
prairie
lusitan
volleyball
vocabulary
cromwell
overshad
britannia
mcgwire
lssm
paseo
neanderth
cloisters
kinabalu
650
9th
aure
bb
bse
bip
ces
csa
cyl
dsp
elo
fau
font
fann
fencing
gerald
kow
kod
katherine
lub
lanc
mentions
nig
nue
nao
pj
pint
pinto
ria
rips
sass
sier
tying
tipped
tester
ucl
vag
##low
##lich
##don
##dam
##iably
##ihan
##oos
##oidable
##cut
##cons
##bod
##bally
##bone
##notes
##kt
##kop
##gna
##ggen
##ymm
##ykt
##mu
##wind
##var
##fold
##zek
##qs
##atable
##ouded
##anse
##anity
##alys
inac
insec
##itives
andre
##leboro
reilly
##lyss
##stered
##staking
stating
hairc
##sex
##secr
hein
heming
weis
##imented
##amar
asymm
shim
nefert
segments
congest
consec
consecr
doe
##erem
##uli
chast
chai
chilled
goog
golly
suez
##antes
##antan
liz
liff
prostit
exams
trav
traps
troph
##abouts
abuses
##osystem
allergy
##unted
spire
plaint
aroused
mao
mazz
unarmed
unattr
outfl
##oculars
pee
pew
pebb
##ffles
uphill
upbeat
gram
gravel
usher
resale
brom
brace
perot
workpapers
sheikh
imputed
everest
loft
welles
evoke
expose
expelled
incense
##aceut
overst
coex
disd
disrep
disinter
drill
twists
scor
scent
##owness
roger
##encer
##asser
indies
indict
indisp
##ensable
##ensional
stray
strenuous
##integr
guggen
##anges
##angir
desir
undist
##solete
##loon
assuring
smear
bets
##ordinate
decree
fined
programmatic
programmers
relat
blows
preserves
statehood
flush
supporter
belle
persia
slab
cityof
surpass
obsolete
empt
attire
attleboro
basque
##iento
instig
paras
parried
paradox
feds
phant
modular
edgar
endowed
defence
metr
propon
charred
simone
playful
casellas
skimmers
booked
posters
differential
nationality
barth
affir
##ashi
guessing
2009
##insured
switzer
severity
glittering
campan
painstaking
crept
newslet
territorial
palermo
infect
infants
##brid
10th
limp
villager
youngster
youngsters
breach
irrad
dealings
promont
authoritarian
##iker
immoral
cheat
filipp
harvey
responsive
courtesy
labs
poorest
methodologists
interestingly
121
123
measurable
##parnas
squeeze
suggestive
competitions
distillery
##otti
gears
husky
164
167
determin
literal
##holes
achieves
despised
lighted
keyes
##ourne
malamud
woodland
146
141
eventual
englishman
animation
conventions
dinners
blooming
scramble
sonny
massage
reformed
ridin
banning
bonuses
chancell
averages
characterize
savo
savage
documenting
shareholder
cardboard
sweater
tarn
##maid
prediction
philips
restraining
preclud
sensation
verge
journalistic
declares
disputed
seekers
besie
beatrix
angelico
constitutes
ibic
flexibilities
premise
straightened
willingly
freshman
dubious
lieu
lieberman
newsweeklies
##lamation
cowley
weddings
1942
dodge
vandals
lifelong
##markable
robber
robots
fortunes
inspectors
concerted
tunes
strengthening
bounds
occupying
montparnas
1939
nursery
vanity
##bitant
berlin
abandoning
bellini
rubble
defendants
absorption
270
orientation
walcott
dynam
ecosystem
##heads
stresses
intellectually
allocations
ventures
torah
binoculars
ringing
omission
1915
elaborately
stamped
arcaded
bolshe
wisely
prohibits
sumatra
tailor
reinvent
unremarkable
hungary
darje
dunge
levada
lava
anthem
thursdays
graveyard
solicit
benches
dictionaries
patrons
rotund
reservoir
foreclos
lsny
depths
resembling
nicholas
outraged
royko
distinctions
josephine
ellis
##hoe
sympathetic
caesare
greeting
disgusted
narayan
woody
stimulate
browsing
wagner
stringent
incomplete
bundles
inconsist
clutched
swamps
terminus
kimono
witches
chatting
uninhab
preacher
discriminate
ponte
tamil
dividends
batteries
assignments
amenophis
remembr
bookstore
accelerate
bunr
parameters
cpk
cypress
unforget
imprisonment
oasis
unqualified
subtit
entrepreneurs
reefs
enchanting
unavailable
unavoidable
perfumes
quotations
syndrome
airplanes
swedish
benedykt
embassies
cascade
discharge
fragrant
adorned
macroeconomic
refreshments
fiery
hilton
chauff
likeness
plagued
brahman
mascul
travelling
veronica
trinf
##hydr
admiral
gibson
ounces
reruns
jennings
voyage
earnestly
bullfights
chowk
guru
perpetual
hathor
amusement
succumb
supermarket
tintoretto
##2001
briskly
elysees
warlords
spreadsheet
coconut
exhilarating
ineligible
ephesus
custodial
susceptible
hesitant
mckinney
machinery
lieutenant
unprofitable
hetel
fcic
odyssey
stubborn
trademark
wrongdoing
bachelor
abilene
plentiful
unscathed
unearth
bryant
moynihan
marvellous
eclectic
cylind
dspb
eloqu
kowloon
sierra
ucla
##alysis
inaccess
liffey
disrepair
indispensable
guggenheim
switzerland
montparnasse
darjeeling
05
83
cic
cakes
euc
eerie
ferg
gaza
horm
kap
lig
lance
lug
lured
lago
lola
lenin
mend
mack
misman
nub
naming
ps
pater
terry
vas
wob
yu
yupp
##iam
##iop
##test
##ogram
##ram
##rup
##polo
##nt
##norm
##gom
##mouth
##wall
##witz
##zu
thail
thai
##atro
##onne
tosh
##rell
ing
##icter
##icious
##icular
##ioned
bee
beers
beque
reins
##otations
ish
##stones
##idth
##etry
haute
hauss
hamas
anten
##irac
hefty
wein
weep
##imas
##olation
notified
noticing
shant
sherry
shaved
##opp
##ilater
neoc
##odrome
seize
conve
congl
fran
fris
dose
##ulatory
orph
knots
##andra
##aca
alaska
trian
soak
leak
##ardom
##ivan
##iecki
enters
manning
mangrove
spencer
plath
##elo
##astics
outage
sage
##embourg
clause
clergy
##actors
adject
upbr
##ibal
compose
grove
bras
##ipes
cran
crist
impart
amster
thinkin
expanse
incoming
fearing
##acha
herman
herbert
##uez
interl
interrog
intersection
coated
coaster
disintegr
boasting
rooted
poisons
laf
##rob
stricter
accusing
rightly
guj
guin
##log
smog
colmar
##ucci
moy
##anca
decipher
##icken
blunt
johor
helena
##ilyn
flushed
hump
idle
subl
slipp
discarded
payoff
depictions
attach
bask
elites
elbow
marion
maroon
marilyn
parlor
redistr
##contr
edmund
artworks
hoarse
defund
estates
estuary
avignon
caen
mets
speculate
effected
postp
curt
##ieth
socks
hottest
admiring
numbered
refusal
landings
nighttime
interns
internationally
204
collector
facet
raided
##upulous
apse
treach
understandably
freeway
archb
centerpiece
generalization
arrivals
waik
activism
##ercise
parked
listens
totals
154
authorizing
researched
##ontal
cheering
##naire
sounding
shortages
egal
##aneum
127
doorstep
netany
euro
specificity
deviation
louder
desperation
##yck
seafront
referenced
avoids
shrouded
connor
virus
challenger
momentary
greenhouse
applicability
gallic
gallons
139
##eteries
inspected
merge
bonnie
dioc
diasp
embar
swell
doubted
##cellaneous
initiate
battlefield
miscellaneous
midway
letterman
avoidance
strait
frequented
distributing
coffin
candidacy
liberated
narrowly
losers
2017
mexicans
ambival
steward
augustus
conception
luxembourg
fascinated
earns
unsafe
commands
commanders
mcm
##anche
stupas
familiarity
cabaret
deceived
confirms
montgom
ironically
1931
hatfield
watersports
mouths
stakeholder
maximizing
1958
comprehend
athe
ashes
ashore
falcons
rhy
homo
crusades
sabbath
compensate
exploratory
sultanate
lords
260
nicar
streamlining
divorces
alfonso
sponsoring
##biased
hyster
therapeutic
blankets
aeo
nova
switching
protocol
allegiance
dictated
prescriptions
juror
musicals
rococo
faaade
excluding
correspondents
ribs
surgical
juanito
hammered
lsn
lodges
vesuv
##pitel
fundamentalist
jazzercise
inherited
froze
reluctance
lifestyles
papacy
marrying
stunned
prolific
verdant
tiepolo
gestures
jeffrey
kobe
scrutin
sweeps
unexpectedly
aquatic
stanford
insurrection
comedian
cemeteries
teddy
dentistry
shoguns
yachts
chewing
alleyways
cherpitel
contemplate
nutr
exporting
barbecues
braque
bergen
anchored
yankee
beneficiary
stirred
mistakenly
hippodrome
provinces
hustle
tidy
alpha
selangor
dwp
pisa
revelation
manuscript
trekking
sidney
forfeiture
accelerated
burdensome
defectors
##lassical
chimps
untrue
colonnaded
fasb
disparity
curtains
mitigate
ipoh
confederate
pharmaceut
pfizer
robbery
encompasses
unrealistic
sarcophagi
fostering
ounce
##hearted
awakening
##giore
pragmat
abstract
brochure
dessert
hercules
discontin
sacrificed
fiancee
garrison
dismantled
inconvenient
pissed
crammed
monsoon
obliv
skulls
exorbitant
algeria
valencia
sffas
centrally
preschoolers
certificate
gladiators
wendy
acoustics
misleading
rousseau
bandwidth
retrospective
kuwait
dilemma
overpayments
demographics
goldsmith
guadal
genocide
lettuce
pjff
weisberg
consecutive
consecrated
unattractive
campanile
besieged
rotunda
fergus
thailand
neoclassical
conglom
trianon
upbringing
amsterdam
waikiki
netanyahu
5a
bunt
cf
cag
eust
eup
giles
ginger
gems
hig
hod
jade
jais
jagged
kem
lous
lakers
lido
nol
nast
nero
pb
pend
pash
paving
raz
tamp
tene
ulyss
von
witt
wann
wires
wadi
zer
##list
##dles
##olly
##rous
##rown
##rons
##cia
##eel
##gain
##gans
##gling
##ski
##hart
##hel
##van
##zena
##jas
##joy
thump
##eras
##erog
##atre
##ateness
##onaut
##edes
##anji
##almer
##ario
##asos
##isle
beam
rey
reyn
##oting
ist
##stant
##uters
ons
##idav
stink
haut
whales
##ayana
##chem
anson
heating
hears
##imo
##amation
##amiento
##thest
##adio
##ollect
notch
shab
shud
shone
neon
neural
##estimate
seiz
##kee
##illity
##ersen
fridays
havel
chi
sumpt
##antics
##antaged
lique
proff
exod
exiled
##acom
##acity
tramp
abbre
##osium
allotted
worms
leaped
mex
canon
canary
##iello
enroll
mania
spik
spoon
##ourse
plut
arid
maids
unic
unix
unto
unscr
uninsured
unbiased
saver
peach
pears
clans
##ffle
timeliness
##ibles
compel
grape
##aha
agatha
resumed
perse
perry
workmanship
sheath
impot
ams
exposing
##ichi
herring
interfer
intol
cozy
drought
##ubstant
bois
booth
robe
roared
rochester
parted
tails
##avis
induce
indisc
gupt
guiding
desires
assim
smi
underway
##issos
backst
relocation
blat
contrace
downloaded
regained
flam
flocked
wrink
wrought
ida
warmed
subscr
subsection
slid
cityel
surm
surcharge
revis
reviving
disco
obama
attic
##space
elche
elusive
##rawn
marley
modesty
americas
popped
popping
reds
redemp
seti
##eney
##redict
marker
delights
delaware
charms
complement
factions
humming
##xton
detour
posting
barrels
watchful
advises
taxis
affidav
manageable
turnar
sitter
statesman
swir
confession
testifying
analog
refine
glimps
presidentas
proto
protagon
nightly
pretending
understate
explores
churchill
##riced
palhe
critically
oppressive
termination
behead
##ello
infrequ
extin
improves
sala
steer
grec
capitalized
capitalize
eyel
choke
##overs
maggiore
socialists
distraction
identifiable
##enching
researcher
##onto
plead
pleaded
shortest
specialize
specializing
##print
texts
renoir
staffers
encirc
doorways
distorted
esplan
grands
grandpa
inflated
personalities
memo
float
##eseen
commonplace
multirac
opted
negara
viral
trusting
fireworks
battled
deepest
preferential
expressly
appearances
1300
culturebox
catfish
broadband
colder
priorit
sweating
sweats
doubling
denom
hopkins
sadness
ledford
webster
wealthiest
philae
pleasurable
venge
##untamiento
titans
jesuits
jeop
607
camx
conservatism
1962
1961
gloomy
captivity
uttered
festivities
telecon
narrowed
exercised
petr
northernmost
bordered
melting
briefing
loser
repeating
sticky
2016
randall
slightest
psycho
tonic
barefoot
##guards
fascination
unpaid
robi
robbed
quantities
quantifiable
faithfully
sharon
reconc
reconquest
inequ
imperative
1930
sprung
hawks
dismal
symposium
aiming
belongings
attendees
mechanic
publisher
accidental
overseeing
diversion
digest
dissu
ecology
synony
revolts
transforming
appointments
steeple
moonlight
desktop
nicole
1914
accompany
bleach
coda
migrated
scarlet
outlaw
coaches
toxicant
caribs
batman
traumatic
crooked
crooks
pitfalls
stairway
1895
dunlap
dreamed
yielded
philosophical
allegorical
enhancements
unwanted
teresa
pouring
crashes
cummins
administering
optimism
indoors
cleverly
bernstein
spoil
papal
crawling
dala
punches
azur
excavation
bhak
shivaji
rivas
apologized
instincts
xvi
stanisl
hectare
worshipping
diplomats
wrestlers
merging
##uminous
commemorating
chewed
chopped
coloured
marshall
parallels
swayed
dyes
##harth
perpetr
fluid
tyco
murmur
diminish
diminishing
tranquillity
dwellers
1492
rouge
endorsement
pudding
bookstores
minoans
rifles
indulge
paramount
cliche
syndic
blazing
scrubber
fancied
mammoth
soder
itineraries
unhealthy
harvesting
##eanor
shahjah
kinship
discharged
rhythms
bracket
kidnapped
ankle
overthrown
ayuntamiento
kazin
neuharth
alcaz
perugino
impaired
disregarded
daimyo
zionism
treadmill
backpack
hakone
twenties
confronted
ultra
receptive
aaron
yoritomo
squirrels
replenishment
monopolies
enlarged
arbitrary
charisma
decadence
filmmakers
cavalry
underscore
sausage
meticulous
jewellery
conversely
baghdad
eyebrows
refrigerator
schwarzeneg
prefecture
densities
netherlands
atrocities
ferocious
jahangir
alligator
misstatements
infertile
dsm
gadget
hinterland
wacky
superficial
maneuver
incongruous
fundraising
fannie
coexist
phantom
dynamics
bolshev
unforgettable
inaccessible
##ramatic
guinness
aeo2001
jaisalmer
ulysses
reynolds
unscrupulous
redemption
esplanade
shahjahan
06
9x
aub
aix
bould
bair
bins
bert
berry
bikes
bowness
cages
ding
fitted
foul
gm
gou
gaud
giza
hr
hok
hib
iff
ji
jaume
kok
kitten
kett
lid
lore
lama
lament
m3
mals
momm
motto
nan
nord
oo
oig
pi
pens
panc
pino
pads
rah
raves
riley
sacks
tg
upp
vos
vall
vogue
vowed
yarn
##lie
##dies
##tans
##turn
##cards
##bons
##bson
##now
##mia
##million
##hame
##fus
##fires
##46
##16
thief
thasos
##eried
##atr
##atories
##enance
##enne
##orio
##orph
##ouk
##oux
##aney
##alus
inad
##itud
##iterate
andersen
##isation
##isner
##llable
bea
bellow
rewr
##veau
##starch
##owiecki
youells
stagg
haps
##chur
##chief
##chamber
##ceived
anj
##thr
##ilian
##essing
degr
deaf
congreg
frantic
##ulators
chore
chilling
chenna
coma
goers
suites
liv
knot
knum
##acs
##ppe
aloud
alignment
trays
trenches
##abra
##abilia
abre
abnorm
##ortional
##ighted
leaking
canoes
##alla
enr
##unct
manpower
ard
##umsy
donkeys
unad
unite
##quoise
sauna
saxton
clive
cloning
clumsy
timeline
uphold
##ibb
##ibution
grizz
##iality
agon
usable
brute
brushed
didion
perverse
##akuji
##agall
crag
crock
crises
imposes
lovel
logo
ames
amber
amalgam
evas
incarn
herb
serp
serial
cob
drab
drift
muham
boone
1900s
##rogate
##ecanese
pref
precon
preten
vehe
stride
strives
strapped
stricken
accred
accuses
recounted
recollect
undeveloped
##loo
carville
smugg
evenly
umbria
moh
mole
decap
monsters
finland
leger
legged
invitations
programmed
somethin
remake
##feit
##othe
##athos
##landa
busing
genres
surowiecki
revaluation
emph
empress
showers
kindness
marig
marian
marais
parach
homeowners
edit
aval
takayama
contends
proportional
performer
hardwood
corral
booking
booklet
believable
cured
autop
taxing
aired
runaway
##entional
headache
buddy
##stroms
confisc
accountant
menacing
sucked
gloria
campo
campuses
typh
typing
##bleau
internally
20s
southeastern
southwestern
palmer
##aughlin
morale
facsim
infirm
policemen
##lemente
involunt
generalize
104
mattered
villains
sawyer
brea
##income
judah
##shaw
157
cheated
solitary
filters
questionnaire
cement
shortfall
##apsed
regulating
anto
antagon
distaste
educating
turb
doug
grandma
dominating
footing
liters
objected
##fficients
malt
circled
deadlines
copying
multim
multicultural
shrie
shrunk
116
honoring
303
fieldwork
norms
firearm
juno
motherhood
spanned
customary
surrounds
cornstarch
chancel
naturalization
engineered
principals
embell
##zzo
##ointed
institut
instituted
imaginary
misuse
misgu
garn
restraint
midi
cathedrals
suspension
microph
##axos
straits
verified
beatles
graduation
blocking
hangover
releasing
tasted
tasteless
shotgun
flora
lunchtime
##classes
trailing
ode
sampled
guardians
ambiguous
variance
psyche
psychologist
augustine
etiqu
bien
1943
unpredict
dodecanese
pushes
##zenji
220
nodding
weighted
dependency
criticize
bulb
praising
virtu
tapas
rowlett
bougain
forgetting
sharm
ghat
advisor
inquire
memorials
memorabilia
converts
brady
porches
falwell
escort
sexuality
publishes
overseers
walt
dissim
exclusion
synonymous
wingers
revolutions
astrology
bearings
nymp
dimension
mahar
resolving
fortresses
auditorium
fueled
mutually
corrupted
##itano
accommodated
upstate
improperly
skiathos
locker
ottomans
lesb
uniformly
therm
handedly
batu
taboo
prohibit
crochet
cheerle
reinv
unreli
manuals
tropic
sanctuaries
levy
astute
utilized
enhancement
recruited
vulnerability
angered
vicente
uncontro
puppets
feminism
catering
expansive
simplified
1904
wolff
patronage
##scribed
injected
rosy
nichol
adaptations
ellen
quintiles
pumps
prototyping
ravines
evolve
commodore
geographically
scouting
reproductions
browsers
tutank
diagnosed
regretted
zealots
commemorates
snorkel
satellites
tsim
tsui
overrun
overrated
passe
enlisted
salvation
cosmetic
hackath
expedition
expeditions
braun
nonexistent
dialects
ducked
lectures
mummy
bitterly
hippie
lyd
enforcing
preaching
1789
massacres
nobility
prevalence
vincent
revelations
bosnian
uneasy
celts
palladian
hedge
unquestion
subtly
anthropologists
corso
stereo
resentment
rehabilit
floppy
hollings
croseng
antiquity
disguised
scoop
sketches
sepulchre
jodie
tractor
compatibility
volatility
incompetence
gonz
gilbert
endeavor
endeavors
perugia
overdose
allergies
shinjuku
cultivated
keynesian
rejoined
issuance
embroidery
stevenson
madrasa
symmetry
tattoos
wachter
transcript
duchy
tabloid
outsourced
mazda
glossary
coefficients
nominee
fertilizer
softer
plumbing
cognitive
entrepreneurial
diclemente
oyster
liveliest
crocodiles
discrepancies
gregory
bmw
insects
maurice
unveiled
synergies
inquisition
macedonia
pamph
cluny
miniskirts
fundamentally
hinges
grievances
signposted
waverley
wheelchair
##girls
friezes
fuzzy
funniest
morbidity
turbulent
pineapple
fontainebleau
mclaughlin
nouveau
pdfa
footpaths
miyares
gospel
carnegie
inflicted
ailments
gyps
adriatic
disbanded
juvenile
picnics
bbq
kodak
hemingway
asymmetrical
google
pewter
bromide
painstakingly
promontory
remembrance
haussmann
sublime
baskets
archbishop
vesuvius
nutrition
lousy
abbrev
extinction
schwarzenegger
pinochet
staggered
muhammad
pretense
vehement
facsimile
misguided
7th
7pm
812
aus
bess
cary
cokie
d9
dand
duff
dna
dana
durable
durbar
dyck
elic
eaves
fiss
fath
fuck
gory
gior
gilt
gerry
gittin
hick
kite
kamp
kwan
kastro
lant
lah
longh
mph
nd
nam
nik
nih
oven
pous
pah
pug
roths
sats
somm
tat
tion
tides
tending
tainted
vat
vit
vod
vases
vista
wist
wiz
yasser
##iour
##tapur
##rimin
##cule
##nstroms
##gings
##gals
##sut
##sons
##sky
##yfus
##merc
##haye
##hardt
##uy
##uable
##wright
##free
##fork
##19
##jc
##journ
theolog
##inform
##enhaus
tome
tolls
##alore
inert
##arer
##omi
##entials
beacon
reeng
reex
reuters
##ste
sting
forts
prick
prerog
##chs
ana
##irth
##irlanda
hei
heel
##amy
##adors
shu
neolithic
deeds
##illon
frown
##erella
chit
chrys
chagall
gogh
orb
liver
liable
liby
prostitution
##acoteca
alm
trot
tracy
##ablo
abound
wors
nois
##iview
cancell
##uder
##uding
manchur
spins
##uming
##elos
##elia
##elago
unres
unpar
##asties
outright
outpatient
##endent
##endra
peck
clare
ado
tearing
teatro
##ibi
##ishable
grah
grues
graced
##ahs
agaa
##izen
bru
brist
brav
brits
##grave
##ipse
##ipelago
perak
perimeter
shells
##akov
##agua
cres
crump
amass
incidences
repub
##eryl
interd
sermon
disl
draped
##ubon
booths
appalling
poop
poetic
partake
##role
commenced
strand
accents
recapt
recurring
guam
guise
unden
##onduct
carc
carly
carlo
smashed
smokes
smoker
##ogu
colin
thress
underwear
##ords
deccan
deciview
monitors
folly
probation
probable
toobin
blouse
secre
regrets
joao
##yslaw
##othr
schm
##ermouth
flies
suppress
suppression
##lemen
subclass
subclasses
slang
calligraph
discreet
deport
worldly
marm
instability
parc
parody
parnell
modify
valuing
redgrave
locke
hover
restless
delinqu
##azquez
soufri
simulate
econometric
hume
formats
skins
audible
audubon
engulf
believers
detained
milestones
##teness
barc
entail
histories
waterways
waterloo
funicular
commune
##inski
##anked
musings
mussels
protein
annuity
explode
cretans
equitable
nativity
marketed
terminated
infancy
raiding
##brow
pataki
calam
treks
treason
archipelago
##phur
109
##roportion
insider
armey
waivers
figur
limbs
blackmail
computing
paella
152
1500s
authorizes
executing
executions
wallpaper
immature
sunk
soundly
##retched
envious
prevailing
christened
bitch
modernized
corpse
euros
geological
descriptive
summerhaye
containers
grounded
snacks
frenchman
fightin
totalitarian
floated
assistants
protections
objectivity
huns
subjected
beginnings
livingston
replies
perfection
obsess
julie
juliet
erisa
appropriateness
112
117
bloated
firebrand
influencing
massively
132
##system
cornell
packers
diaries
coldly
extrap
maternal
sleek
conductor
tara
impressions
imagery
imagining
brownell
threatens
louisian
horrific
##obic
precar
multiplied
mortal
disproportion
commercially
decorate
blockade
1963
captures
starter
notebook
springer
swimmers
rebutt
doctorate
brotherhood
oils
briefings
francs
forgiven
searches
cooled
dramas
errone
##olester
starring
counsels
holyhead
behavioral
wedlock
novelty
altars
africans
bathed
lifers
textbooks
flattened
cynicism
defeats
miracles
samothr
comparative
lengths
ghirlanda
advisable
matador
illustrating
inefficiency
confirming
imperfect
nurseries
controllers
academics
conquering
fanat
bodhis
hideous
subsidize
clinicians
homic
801
barbar
advancement
dynasties
nominating
nomadic
outcry
smithy
witnessing
fooling
deserving
dimensional
kicking
visionary
pierced
compensated
craftsmanship
jails
rumble
prospects
incorporates
pitching
disciple
disciplines
kilow
##ylmerc
buffer
jointly
pacif
monetized
kathy
enormously
attribute
thernstroms
lucy
gracefully
tabs
pitiful
embraces
kosovars
1898
albu
dunn
gopur
biographer
cockermouth
dreyfus
paired
heightened
lindsay
utilization
vitality
withdrawn
nepalese
pinacoteca
pizzas
astronomy
trucking
reactionary
compromised
groaned
arresting
rodrig
simplest
decentral
papa
papyrus
crawled
crawfish
conjured
orthodoxy
dalmat
felony
extraordinarily
sparkling
azale
reigning
stallion
brutality
##kaido
compounds
enthusiastically
bhair
bucket
leaflet
greetings
pitti
incorrectly
institutionalize
pronounce
commodities
goddesses
wireless
queer
caddes
dumped
bangalore
aristocrats
baptism
lisa
stalagm
contradictions
boldly
colourful
conquerors
contemplation
triangulation
annoyance
stitching
hauled
disadvantaged
rhodes
perceive
lavishly
dreadful
pornographic
tenths
ascended
replicas
accusation
sneak
oscars
##ranos
insulted
mesopotam
whitney
whiteness
plunge
scratching
barker
cassettes
lc50
petitioned
##court
invaluable
prescribe
strawberry
palladio
spagh
neighbouring
pigeon
iconocl
coincidence
conveyed
plasterwork
undermined
anthropology
descending
holland
ipo
##storms
bourgeoisie
lynch
velazquez
contributor
sandwiches
binding
kidnapping
paralegals
mascot
resurrection
empowerment
constituents
troopers
ajanta
caravan
fostered
seminar
jennifer
repetitive
##ephren
issuers
titanic
jealousy
sopranos
resignation
miecz
amarillo
pragmatic
brochures
hannah
frenzy
twentieth
foothold
contaminated
tattoo
shalit
phillips
tabloids
outsourcing
stereotype
exuberant
shoddy
thirsty
evacuated
deflation
caverns
humiliation
stylized
berthel
cinderella
pavement
overpriced
boycott
lauded
blockbuster
tribunal
jockey
scrapped
methylmerc
metabolife
rwc
aggrav
armenian
almonds
acclim
unprepared
misdeeds
sulphur
tissue
giacomet
velvet
remedies
pokhara
croatia
lusitania
nueva
disdain
undisturbed
caesarea
uninhabited
chauffeur
unearthed
bequeathed
embargo
nolan
exodus
unicorn
indiscretion
palheiro
vengeance
bhaktapur
stanislas
gaudy
hokkaido
kettle
tgv
dissimilar
tutankham
lantau
rothschild
##information
graham
gruesome
soufriyre
rebuttal
ghirlandaio
bodhisatt
stalagmites
mieczyslaw
methylmercury
4th
8a
8pm
9am
a12
bail
bounced
binge
banners
ci
cb
dine
dach
dives
dior
dime
eid
fay
fos
fused
gion
ganesh
ix
ils
jag
jub
kon
kand
kame
kerr
kai
kha
kiy
latt
lund
lopez
ml
mf
mour
merm
mural
mourn
mante
moust
ns
nm
nra
noses
naxos
oss
pare
pian
poth
paw
piety
pyre
tm
tet
tian
tumble
touted
uff
viv
wade
wits
wired
zig
zones
##lest
##dal
##rera
##cal
##eim
##eers
##nc
##nox
##gore
##gang
##simm
##yu
##mills
##ueless
##wo
##winian
##vation
##vine
##frey
##zter
##41
##90
##jur
##jour
thwart
##inational
##inov
##atap
##esia
##esco
##orose
##aning
tox
##rev
##aru
##assemb
##iser
##omatic
##llos
bees
reap
reared
##otics
##vet
iso
ise
onward
##idal
##idly
stam
stout
stove
stacked
##eta
##ctic
hare
forens
##urry
##cha
wasting
anas
anah
anonym
##iris
heinous
##imeters
##think
##thex
##olin
##olph
ascent
notwith
shark
shik
shaken
shuman
##terr
##opatra
withheld
nea
nept
cone
##ersion
frater
frowning
orsay
lib
exal
exley
##andi
##andie
butcher
##acci
trams
##abad
byron
aback
soaked
##osseum
##ostic
##ghada
##apidated
##unts
manic
manzan
pluck
arles
##uma
##umen
maury
mazar
donna
uncover
##ocations
##okko
##emb
clueless
##acting
##acteria
timothy
grie
grized
agin
##izi
bride
##oplex
##ipation
perkins
##ineering
##agio
##agency
##agna
crass
crags
amort
evictions
quota
repay
feats
overboard
overworked
herm
herron
interm
intercourse
scree
boeing
booster
actresses
partying
##bergh
##rofo
##ecified
##associ
commute
strides
##angk
##onder
##ondition
carve
smir
beta
betsy
##tych
colum
colosseum
undercover
underestimated
##osses
##lected
foil
##lesia
relinqu
blended
bladed
blaming
fug
contra
downturn
costumed
presided
greatness
scho
beforehand
suppressed
reportage
belf
warlocks
slapped
slabs
revising
legality
obit
obnox
showc
placement
parano
realised
realization
publicized
pops
redirect
redund
carelessly
edith
endure
hooks
esther
causal
contention
cleopatra
numer
demise
##azard
completeness
correg
humane
retiring
emit
emile
posture
##bein
barons
signaled
airspace
runnin
ceracz
designate
##ilton
##entionally
##ankind
swam
experimented
##plate
analogy
glazed
approves
shopkeepers
equiv
equestrian
trait
opposes
statistically
1812
facets
rake
authored
currents
salle
107
greider
##lius
insure
execute
listings
sideways
limb
singular
breake
irres
purification
##shund
mounts
distrust
imminent
chev
171
burlington
accessories
modernize
styrofo
competency
##owski
turrets
##ocratic
shoved
sniff
snorted
domingo
specifics
sorted
protector
foreground
duel
dueling
beginners
expectancy
castillo
##iums
murcia
##linary
hurghada
multinational
sexes
##ynes
normandie
connolly
diner
unfl
fireplace
decidedly
junct
battling
motel
greenery
136
acquitted
articulate
inspires
packets
averaged
stocking
coldest
sandal
sandals
intrins
sleaz
cardiov
##ooning
gardeners
macho
adjudic
climbs
seasoned
garm
crossfire
triptych
urging
rapists
##obia
##untled
gatehouse
##banks
permissible
environmentalists
##ascular
mixes
starvation
piles
kidney
ibn
weakening
weakened
billionaire
petite
petty
petrole
cheaply
janitor
augmented
transporting
hospitality
hospitalization
erratic
guarding
sticking
2011
ambience
ambush
prospered
retro
auguste
1949
rosewind
bathe
textbook
unsur
unsupp
mcint
##namon
horseshoe
licensing
hellen
illustrative
amazingly
bounded
derives
picardy
1924
##ariat
memorand
ratios
punishments
1951
smartest
bodily
mechanics
pm10
##heimer
osiris
delicately
pillow
reputable
rejecting
emphasizes
##awned
702
##headed
reminders
scandalous
cracks
cracking
bulldo
dustin
accommodating
essex
eszter
sophom
ominous
omaha
332
1912
kilgore
volcanoes
cinnamon
steadfast
outlaws
assassins
dominance
uniformed
tuesdays
unlaw
skewed
tricky
4000
darwinian
dilapidated
360
yielding
koreans
blindly
dictate
dictates
victimized
rationalize
wheeler
reprint
orchids
unfairly
observes
embarrassment
boomer
renewable
impressionist
forecasting
myths
1905
nonprofits
distinguishes
##alleled
oakland
niches
dalai
felic
ellora
unnecessarily
vigilant
muscat
rivoli
narthex
340
steamer
jetty
flanking
reassured
hectic
coronel
##from
populism
phenomen
dentists
survivor
mocking
carrots
feasibility
donatello
metaphys
contemplating
kilometer
horizontal
ancestry
bulletin
chantilly
perplex
hanuman
tyler
assaults
clutch
clutching
bergman
carlton
kuching
synagogues
hondur
somalia
vieille
troublesome
tulare
loopholes
taman
ornaments
1793
upgrading
safeguard
sustainable
catastrophe
unspecified
practitioner
overturned
invalid
invalides
mosquito
gymn
reverted
gratitude
colonnade
epidemi
intoxication
scrubbers
superstore
scarcely
slick
imaginable
maidan
grinding
skyscraper
nasser
crosethe
disgruntled
miata
overthrow
fitzsimm
kazan
tyrant
resurgence
marathon
##building
lombardy
enactment
hissed
theodore
embodies
pioneered
betrayal
balkans
ovitz
unseen
cohort
devotion
censure
sullivan
herculaneum
cursing
kelantan
fronts
rajputs
nabate
indonesia
indonesian
yogurt
##atisf
perilous
interconnected
passwords
ruskin
bewild
firefighters
hamburgers
housewife
locomotive
suspenseful
semitic
moulin
rooftop
immortal
coordinator
plummeted
izmir
jolanta
ribeira
benedictine
eugene
brunelles
cochin
acquaintance
baffled
ccls
henderson
venez
##oriented
sylph
proprietary
portfolio
precincts
carthaginians
dizzy
cappella
negligible
mathematician
caravanser
daggers
rallied
guerrilla
##ogeneous
kebap
bungal
jenkins
mormon
mameluke
stigma
sporades
overhaul
aurang
disbelief
overshadowed
neanderthals
lancaster
##kopf
nefertari
metroplex
newsletter
chancellor
savoie
foreclosure
masculine
trinfan
nicaragua
lsnj
oblivious
ferguson
gupta
glimpses
grecian
multiracial
alcazar
##hameha
inadvert
chennai
abreast
decapitated
unpredictable
unreliable
vodka
chitwan
unresolved
unparalleled
caddesi
spaghetti
berthelot
tutankhamun
dachshund
kamehameha
mantegna
moustache
uffizi
##juraho
anaheim
notwithstanding
neptune
grizedale
correggio
breakeven
styrofoam
cardiovascular
petroleum
eszterhas
fitzsimmons
brunelleschi
ace
bing
bening
berman
bitty
cenot
dul
dour
dord
dung
eut
fod
fumes
fiesta
fpas
gel
gits
guts
hd
hp
homb
jc
jig
joking
ked
kom
latch
mp
nyc
nails
ore
oates
ping
pious
puck
piled
pne
ration
rive
ramble
ripe
reneg
sill
sers
tou
uda
vistas
wak
wyn
wald
xx
za
##lift
##di
##dry
##dered
##rus
##rated
##racted
##cult
##cio
##caster
##comp
##eb
##eal
##ears
##eux
##eaux
##pipes
##non
##nath
##kim
##gias
##hot
##hep
##hole
##hoff
##vie
##fels
##zaa
##jima
##erary
##enida
##orth
##edia
##ouces
##ndon
##alom
##aline
##alypt
##aloes
inlet
##itory
##itask
##itatively
##itiveness
##isite
##omat
##ionally
reloaded
##stag
##owered
##owitz
##utz
##idian
staging
stero
stumble
stardom
##etric
haph
whipping
fork
pry
prix
##ayun
wastes
##igo
anarchy
##iri
##irting
##imson
##thood
##adians
ascer
shave
shaven
##teries
##ilated
negev
deft
debr
##odas
##odle
##odden
segregation
##kew
conner
frying
franks
dooms
##ereal
atatur
chu
chol
chores
chests
charts
chania
chenon
cholester
ori
suw
##antically
knitting
##aciously
altr
traction
trillion
##istak
##aba
##abil
##ustion
abl
abide
abusing
##osterous
allah
leh
leland
meats
##ifully
##ifference
##ivism
##apa
##iele
manor
manley
sput
spies
spitting
splin
spurred
spatial
##arton
plac
##umi
##umonia
maver
unass
unification
uncritical
outward
outbreak
##quets
wills
sapp
becker
peeled
clift
clones
cloned
justinian
##ishly
grudge
##ahon
usda
brig
brides
brune
##grown
##ipated
perd
##akian
geth
##orman
##agena
crimson
impec
loading
amm
evangel
quitting
repos
overl
herds
intert
interstate
coy
disqu
disket
dro
drople
##ittal
tweed
scant
scoff
scopus
boiling
rood
roast
roaming
taw
##ecks
preached
whichever
commits
vex
induced
indifference
strom
strained
guer
##ondo
##ogamy
cola
moot
mojac
monolith
monogamy
foe
invoke
syrian
programme
bls
bliss
blames
fuk
downpl
downright
provoke
provoked
provocative
polishing
##landish
schw
schor
flops
wrang
##lemy
idol
subsystem
slop
slav
slash
revive
revamped
discon
handover
showroom
##spread
differed
kinder
marin
marse
mario
marne
parv
parcell
moderately
realistically
##uga
redo
redef
endured
ministers
earners
hoops
avenida
farthest
contested
restor
props
markers
##azi
simmons
corr
corb
humility
humorous
humayun
skus
skidd
##llows
emanc
##atters
##ietal
nationalities
concier
conceded
concede
societal
businesslike
entails
keepers
benefiting
funerary
museu
2008
configured
sucking
glancing
glenn
glouces
daunting
pretentious
annals
electorate
##ccles
churchyard
continual
generates
1850
variously
##upi
policing
tremb
salted
salinger
##phones
103
stopover
armored
waits
lowincome
winston
analysed
limous
irving
superman
socialize
promin
##ika
sunbat
horloge
holder
killers
killings
britons
egreg
burger
burgl
bites
accessing
1200
##istery
antid
moms
encro
imit
recorder
distances
distortion
geisha
turquoise
1600
##appro
snatch
rockets
friendliness
totaling
devout
devise
wrongly
rivera
achievable
castration
circulated
tablecl
copp
laboratories
hugely
multitask
142
143
1400
##gne
madr
madison
shrum
hallmark
romana
convict
blob
weathered
heavier
entrenched
creators
expressways
saintes
preposterous
caters
secretive
corniche
juicy
packaging
messing
cookie
beyaz
combustion
principally
embark
maternity
primaries
fills
swelling
denby
denounced
dorothy
##zzi
learns
davids
indicative
climbers
initiating
checkbook
miser
degli
midland
waiter
urb
urg
flynn
latino
investigative
splashed
camar
dispersed
##lsen
angelen
vacant
southerners
captive
qualification
ombo
telecom
bordeaux
safari
##bbing
snowy
ambition
psychologically
radioactive
gatherings
etched
conclusive
biologist
golfing
fearless
texture
cynics
sammy
mcgr
prawn
rowing
ghuri
carts
cartagena
derive
deceive
picc
galvest
1935
1933
fellowship
sprang
magnificently
concluding
shipyard
patiently
rubbing
dismounted
austrians
1953
1957
absorbing
athen
subsidizing
rhinos
osman
##tresses
smithson
foolproof
scotch
confidently
valuables
implication
pedoph
convened
atlas
appendixes
mutiny
excessively
jailed
exceedingly
coding
codification
migrate
migrants
transitional
buffaloes
deems
conceivable
veneto
nurt
tailors
supplemented
harvested
skelet
1897
smoothed
invasions
akko
facilitating
dreary
snapping
forums
recalling
utilize
utilizing
unnot
hesitation
nucleus
anglic
altarpiece
unharmed
##breaking
vicinity
cantal
imprint
ribera
ribbon
platforms
equivalents
storied
eleventh
plaques
acknowledges
tortured
rosa
tactical
monsanto
superiority
brutally
buttermere
ravaged
quarterbacks
muddy
alterman
flashes
1863
restricting
contestants
pronunciation
slobod
gleam
reassuring
1889
coronation
greyfri
triumphant
tongues
tedious
pursuers
baptistery
yachting
##matized
hyde
metaphors
pagodas
dignified
manipulation
seduced
saladin
faintly
unmistak
affiliation
collapses
merchandising
grabbing
orientalism
discriminating
cocoa
hatshep
tulips
ascetic
abbot
wrecks
dividend
##uscans
upgraded
penetrated
plunging
ingredient
albanian
albanians
courageous
pisano
pardons
nightclub
acrosea
unsuccessfully
fulfillment
misdem
lipstick
mintie
buttons
chimney
delegation
resentful
perfume
quotation
applauded
maureen
fluctuate
maiden
unanimously
irritated
haunting
yamuna
scoot
etruscans
1453
refreshment
nicknamed
dispatches
exhausting
inaccur
neuf
constituencies
lombards
mounds
vestig
impairment
disregard
theodos
lunatic
kefir
deployment
marxist
siblings
enclosure
awakened
reinforced
fervor
fervent
dyson
sullen
foothills
symmetrical
cursed
sentimentality
bowsher
eeac
iglesia
jargon
aarp
tiberias
remodeled
tumult
exuberance
coefficient
nominees
narcotics
kasich
withholding
hankinson
hamburger
abolish
grammar
locomotives
refinanced
semitism
omnibus
rosenberg
undergraduate
encrypt
encryption
sensuality
nerds
peacocks
necklace
patriotism
huffington
sanctioned
futuristic
heterosexual
kudupi
theorists
rupert
calvary
foreseeable
autobiography
comrades
exchanges
reconsid
endowment
predicament
exemplary
eclipse
aspirations
staggering
aryans
colombia
attentive
##speople
marauders
menhirs
derivative
##ukkah
dictatorship
chandeliers
haircut
prostitutes
pebbles
ushered
dungeon
inconsistencies
eucalypt
mismanagement
toshogu
shanty
slippery
diaspora
mcmahon
pharmaceutical
##heartedly
zercher
intolerable
affidavit
turnaround
sweatsh
denominations
synonyms
jiang
vosges
parachute
nicholson
braunfels
kwanzaa
cancellation
crumpled
secrecy
calligraphy
erroneous
bhairav
mesopotamia
giacometti
obnoxious
numerical
caravanserai
cenotaph
dordogne
fodder
pneumonia
sersa
haphazard
ascertain
debris
ataturk
chenonce
cholesterol
altru
brunei
mojacar
gloucester
sunbathing
angelenos
galveston
slobodan
greyfriars
eucalyptus
a5
bc
bish
bisc
bubb
bounce
cbs
cpa
czes
dice
dash
dashed
eto
ebook
ehr
fong
gam
gould
gag
gown
geph
giddy
hord
jave
jai
kad
kah
kip
kits
kibb
kooning
lur
lens
lending
lille
mam
mite
nort
nong
naut
nailed
ole
pt
pfe
pains
pinsky
rans
sap
sind
sri
sacked
tp
tether
tiff
vass
wes
wong
woes
zola
zanne
##lery
##laught
##locked
##aways
##aque
##dar
##daughter
##iu
##oge
##oji
##cence
##corn
##comes
##cini
##pern
##bis
##bot
##birds
##kuji
##sight
##yg
##yna
##melon
##hire
##horet
##uu
##uettes
##wau
##watch
##wined
##fax
##zhen
##zko
##zheimer
##97
##39
##ju
##jid
theres
theban
##erb
##inette
##atious
##eson
##escr
##org
##educ
##anz
##anos
##anmen
toh
##arazz
##icol
##omen
##enta
beads
regress
rehn
reimb
##veigh
onion
##idou
stool
stacks
##etus
##etyp
whim
whaling
forear
##sell
##seman
##aya
##chins
##igl
##igue
##igian
hem
hew
##amachi
##olve
shap
shaping
shaky
##terfield
##opo
##opic
##opping
##ilot
##ilight
##iltr
##ilib
neil
dex
dew
##odils
seism
##mentioned
frog
frogs
##ulk
##ulas
##ulus
chile
chek
chino
goose
orih
exac
excr
knitted
knosses
##ppings
alison
alibi
alzheimer
##about
##abble
##abaugh
abbe
abiding
soared
sojourn
alluring
##outing
leant
lexic
##ghai
cana
canche
canadians
energ
enrolled
##unaga
##ectory
spat
spying
spider
##auer
##artisan
plo
plaz
plush
##elius
dont
unner
unob
unequ
unmet
unesco
##emis
pelee
clog
clipp
clinging
adept
mys
##ibald
compuls
graz
gripped
gritty
agn
agers
usc
resides
##izu
acad
brine
peripher
shearer
##aku
##aksh
##agin
##agen
cron
crabs
impetus
loom
wellington
amending
expon
expended
exposes
expensed
incrimin
quays
quiver
reperc
overval
intersect
seren
coined
coleman
disburse
disbursement
drav
drained
drake
drudge
twink
tweak
twilight
sci
boaz
boister
##aval
commens
vegan
indist
reclining
needles
gull
afar
undulating
caric
assists
##ogany
##ogenous
mayors
underp
##ucopia
##uciating
moody
decency
finals
foes
foll
foals
probe
backbone
longabaugh
##ometry
syd
bled
remorse
presorting
informational
helpless
fluffy
dayak
sliding
slashed
houseboats
##orne
cityhall
surrogate
payable
payback
worldcom
prodig
marital
parry
parched
phased
modes
moderates
popcorn
rediscovered
caret
careless
carefree
edifices
minors
respa
defying
defensible
este
bigot
contag
clement
##riends
chariot
simul
medal
medals
humankind
poster
milo
