[PAD]
[UNK]
[CLS]
[SEP]
[MASK]
!
"
#
$
%
&
'
(
)
*
+
,
-
.
/
0
1
2
3
4
5
6
7
8
9
:
;
<
=
>
?
@
[
\
]
_
`
a
b
c
d
e
f
g
h
i
j
k
l
m
n
o
p
q
r
s
t
u
v
w
x
y
z
{
~
¡
£
¤
¦
¨
ª
«
®
°
º
œ
α
β
γ
δ
ε
ζ
η
ι
κ
σ
τ
υ
ω
х
–
—
’
“
”
‡
…
‰
€
##o
##l
##a
##r
##i
##z
##e
##d
##u
##n
##5
##6
##h
##t
##g
##s
##f
##c
##v
##p
##y
##k
##m
##b
##w
##j
##x
##8
##7
##4
##q
##9
##0
##1
##3
##2
##°
##œ
th
the
##er
##in
##at
##es
##on
##en
##or
##ed
##ou
##nd
##an
##ing
to
##al
of
##ar
in
##it
##re
and
##as
##is
##ic
##om
##ion
##le
##ent
##el
it
##il
be
##ot
is
re
that
##st
##ow
##ve
##ut
you
on
##id
##ly
##et
st
##ct
wh
ha
for
##ro
##ur
##ay
##se
##ch
##ver
was
##ol
##ig
##ce
##ir
an
##ation
##im
##am
al
##th
are
##ad
##ld
as
he
##ith
##ter
sh
##ul
they
with
not
pro
##ess
ne
##est
we
con
##ers
##ment
fr
##ill
##ke
have
se
##ere
at
de
ch
##op
do
go
com
##ra
su
or
##ould
##igh
##ant
##od
li
##ge
ex
##ate
##ain
kn
there
##pp
but
##us
##ri
##ist
by
##and
ye
##ust
##ity
know
##ck
##ab
ab
##ort
from
##ore
##ies
##mp
so
##ell
uh
##ost
le
##ome
##ight
wor
##out
##gh
this
##ally
##ard
me
##ff
##os
can
all
##all
##ud
##ive
en
##un
##ect
man
##iv
##um
##art
ma
pr
sp
pl
his
no
##ough
has
had
one
##ap
##ie
##our
ar
##ci
##au
were
##qu
##ast
un
out
sa
don
##end
##em
about
lo
will
cl
##ok
like
pe
ad
if
their
tr
##ous
what
bec
up
##ice
would
tim
any
##ound
my
just
##ind
##ink
more
##ish
##ong
##one
us
##ions
some
ag
comp
##ated
##oun
##ah
##her
res
them
##if
##cc
##ure
##iz
##ther
##ople
per
year
people
##ance
work
##orm
##ack
##ine
##ause
te
ta
get
who
when
she
did
am
##ans
##ide
##age
imp
yeah
well
##ven
been
think
because
exp
##ount
##gr
fa
di
new
inc
##ely
time
qu
##ame
##ings
##ag
##ble
##ich
off
cont
##ence
rep
##ations
ever
##ays
int
##ach
than
its
##able
other
##form
car
gr
over
inter
##ue
##erv
ro
her
dis
##ite
fe
mu
how
##ub
##ry
##pt
##ery
tw
##itt
##ult
app
##ary
##ose
##ber
##hing
##00
br
la
##ors
bo
co
##ip
##ree
##wn
only
most
19
##own
##ign
good
part
act
bu
your
##so
could
##enc
##ade
##ild
him
every
which
##reat
##ace
cr
##uct
said
pre
cent
##ical
sc
##ak
##ia
##ass
##ments
ind
acc
comm
##lo
col
ve
po
##ens
see
##int
##ase
now
##ang
very
##lic
##og
many
##ep
af
need
gu
want
##ving
##vel
mar
right
des
##ire
serv
rec
##ory
two
really
into
##ates
should
und
##ond
fir
##ac
##ition
##ents
these
##ved
lot
##ile
here
may
bet
never
sm
##act
##als
hel
much
##ty
years
does
um
even
under
our
then
att
look
after
##king
also
##ian
##ord
progr
##omet
##lect
pol
fin
mo
thr
##ful
##iss
where
cons
mon
##ict
leg
back
##ater
somet
going
inv
dec
##ices
way
rel
##ick
got
##ities
sy
##cial
though
program
tra
str
##amp
old
##are
##eral
long
par
inform
sec
op
diff
ass
make
too
##vern
##ial
##ft
down
first
rem
##old
high
reg
jo
##its
pres
##les
##ert
made
##ces
spe
##und
eff
##ons
##ning
cost
##mm
##elf
##oth
##ious
##ys
##iew
govern
information
through
prov
##fore
bl
##thing
##ath
##av
##gan
##ail
##ood
great
##ouse
##way
state
sch
##land
ev
ke
take
pub
help
##ury
requ
law
##ational
##oll
those
##lud
still
##erm
##ress
##ks
##fe
supp
count
##other
used
##we
didn
ac
##ract
##ting
##urn
bel
fl
stud
before
bus
litt
little
##ib
##ular
##ual
##oc
##ject
oh
gen
something
report
say
##ied
##ility
##stem
##ise
add
things
##ating
system
##iver
call
##get
use
id
##ather
cour
sub
pers
find
mean
##ually
wr
##ily
##cess
own
war
government
fam
##ible
includ
legal
##ited
##uring
ll
house
sl
emp
##ards
ob
##atch
##orn
city
vis
##ange
differ
##ways
sur
##led
##ced
dep
being
day
such
##pe
art
bas
show
hand
cap
again
##ures
pay
prod
##oss
##olog
##mb
interest
##eric
el
disc
##ked
##ics
around
small
place
##ool
ca
##ph
##ug
fed
world
plan
ph
##ered
americ
kind
inst
stand
##ues
real
last
found
##ative
199
agenc
mod
##ix
##con
##lish
child
ret
tal
lar
##oney
##aint
##sc
val
end
always
##ene
loc
dr
public
ed
ga
set
red
##ms
##rib
##ants
##oup
organ
##kes
##rect
same
##ves
ear
import
min
est
money
resp
pop
##rol
while
town
ent
##cent
##ars
three
##ying
del
##day
ru
ins
stre
##te
##ident
start
##ives
century
federal
def
home
proble
person
happ
##ew
organiz
##ower
##ists
rev
care
both
rest
school
big
far
read
num
pri
##ets
nor
sin
thing
##ody
##red
##ss
appro
##ork
best
sim
build
##ines
char
let
sou
seem
thought
##ific
##osed
met
##ek
eas
dem
##ably
perform
life
cor
services
##fer
##iness
bar
play
come
##conom
anything
cle
might
##ently
##ern
med
each
put
fund
prop
fact
##ren
belie
av
point
effect
hum
few
during
hard
better
eng
##ution
aud
case
##ici
econom
less
##chn
hu
##ear
lead
##velop
post
##xt
sk
sure
tri
national
book
##ween
em
between
wom
##tern
incre
comple
different
another
important
service
rule
det
must
mil
chang
cur
##ains
iss
develop
since
techn
##ters
aut
##air
##urch
percent
compan
mark
form
result
dist
product
##hip
##ids
tour
##ically
country
##ided
sign
control
partic
away
##ins
##cept
air
adv
##ized
business
##be
bene
##res
watch
##loy
##ull
tax
consid
manage
hist
went
##pl
conc
##ined
##der
##ilt
##ds
ser
aff
feel
design
keep
visit
gra
##ten
##ata
muse
island
##ier
ext
##ash
doesn
head
##az
##ts
fun
sit
che
##uss
news
##gest
##ention
area
why
##ason
##ital
benef
##ever
run
commun
open
turn
process
##uc
temp
four
direct
children
##ism
quest
near
times
##ling
##self
##ward
200
water
room
##ired
##alth
##ural
guess
sen
ide
ty
states
##io
number
view
trans
once
wal
hot
jon
adm
mr
cover
##rew
sever
cert
finan
##ron
sw
##ize
prof
week
data
##ross
yes
##ollow
mill
prob
conf
da
management
pat
miss
left
nothing
invest
account
maj
employ
allow
without
##ately
##que
##ted
anal
follow
mail
##orts
##oy
##man
men
done
##ected
const
##co
##ale
bud
tell
test
##body
exc
mus
month
programs
president
poss
##gress
##ared
##til
museum
prot
bad
camp
##ality
##els
white
doing
ra
000
major
gl
##ger
##ee
clint
##ends
pret
##ec
intern
expl
land
five
elect
##ides
south
hour
enough
next
##ric
probably
##read
group
##ology
##ats
support
north
night
port
##ley
built
cre
kids
secur
clinton
##stand
took
gao
job
impro
ter
##ought
large
stu
ann
church
polit
ref
pass
pal
fri
give
youn
shop
called
nat
ris
several
20
mat
office
along
##ained
equ
##ton
priv
##ged
class
came
crit
review
american
grow
audit
today
require
able
contin
opp
beh
##ock
##wh
##ness
stat
collect
congress
certain
against
##ior
until
pract
##ner
family
inf
mor
##ead
market
var
##ank
change
enj
18
dri
##ral
top
power
term
seen
oper
##ute
sect
##ases
##augh
##ned
##side
gener
lsc
rece
##ision
street
everything
##ruct
pretty
##ees
name
happen
##ages
second
financial
main
agencies
known
##ote
summ
giv
polic
security
costs
wanted
##less
##ime
##ames
arch
auth
tre
##aper
cond
performance
##ety
##gy
level
sal
wa
center
agency
##lement
cal
ap
however
bill
huh
##ining
ok
stay
##vers
project
understand
##ither
course
often
mov
##per
##uck
exper
trad
dra
clear
curr
local
believe
meet
past
examp
##hn
avail
pa
##ey
##ru
activ
invol
##ering
##ivid
##iel
enjoy
##ccess
provide
general
##ump
##ised
bro
hal
repres
else
having
##ken
popular
problem
##most
##ether
six
stop
john
united
getting
story
won
##ember
order
analys
##li
##ased
capital
##ional
low
ste
deliver
##upp
free
women
gre
##ency
depart
##pped
##aring
##ission
doll
vol
##idd
cut
##used
saving
isn
health
building
##ified
##ark
success
problems
side
##ensive
least
try
har
##oot
##ability
##imes
10
ey
rul
budget
black
reason
everyone
ten
lim
study
says
san
##ending
actually
list
almost
days
quite
estim
sta
##gin
told
making
million
available
thir
exec
##eng
wasn
asked
road
cho
win
cult
fig
orig
young
vill
saw
mer
ago
##ured
based
food
##ients
gard
##ances
whole
##aster
##ulation
mag
beach
looked
history
live
lea
individ
whether
##ored
jap
occ
sing
experi
site
represent
comput
addition
japan
prom
among
##iting
indust
vi
jud
rather
##aut
hop
##cif
half
pie
fac
##br
lawy
origin
wind
sug
idea
##sel
company
##ps
##ont
15
tot
pos
maybe
social
deal
mount
hous
##ument
tomm
##ient
aw
non
##ife
tommy
fut
##uation
##ench
full
discuss
wall
##ries
ident
changes
pur
analysis
bre
author
##ources
tupp
makes
yet
##ibility
resear
research
##ried
##ived
tuppence
sat
##ina
##idence
court
##lished
working
including
organizations
##ians
##emp
##ences
##sh
##pect
##vent
okay
ple
##na
respons
##ories
sun
west
execut
question
true
benefits
ir
##omm
##hod
someone
##anc
##ively
desc
sound
##ended
##ret
present
york
ce
fil
enter
##rist
##arr
within
es
manag
arm
either
ho
hold
brit
##aim
tow
heard
nice
trying
short
needs
later
rom
blo
fish
bra
lear
usually
oth
issues
remember
technology
##bo
needed
##ination
private
future
others
bit
sol
stuff
17
early
il
estab
beaut
king
##ison
cra
imm
hor
##rict
interesting
##ane
##lev
bur
income
accord
using
example
signific
amount
travel
outside
step
wond
agree
buy
across
possible
admin
seems
access
##irl
become
##up
postal
method
results
##pr
##utes
##att
face
temple
##ration
env
standards
given
lab
tex
meas
poor
hill
systems
easy
##atic
##ateg
special
east
kill
##aking
looking
regul
##hold
##line
jew
colle
address
##aces
miles
rate
##par
final
eu
##ued
christ
sil
12
##icult
quality
##iod
##soci
ep
girl
##ister
sty
team
##ows
toget
reach
coup
##by
##enty
##elt
##cient
talking
profess
period
include
economic
enc
together
particular
specif
hund
modern
abs
hundred
ant
associ
sometimes
mom
pot
bal
consider
net
cann
suggest
civ
##over
love
knew
door
difficult
##ortun
worth
attract
##itions
fav
##0s
##iding
coun
prin
taken
educ
alth
coast
mind
im
staff
value
although
due
##cip
paper
##iled
move
drug
talk
park
started
##ivers
init
hours
significant
record
dest
##ott
improve
policy
16
daan
hus
ge
##work
foc
death
##fully
##iron
compet
matter
##ilar
##cially
dom
flo
##raph
##enn
##ape
particip
##ready
euro
already
held
computer
drew
environ
typ
couldn
##ming
##ense
simp
human
department
##ica
months
##where
tur
##gle
##ze
##ising
##uce
##unch
##iful
paint
model
line
squ
##ese
##vious
himself
fall
dollars
shows
behind
french
##iter
##band
##itting
##ished
##por
implement
woman
approach
music
lost
administ
arg
summer
assist
civil
##aps
claim
##mbers
##kely
##atory
repub
##tain
##erg
rock
##sw
necess
grand
fre
members
sent
movie
europe
return
##ator
##val
exist
accept
current
##ove
ground
##bs
organization
infl
community
fine
##ush
planning
risk
development
dou
environment
thous
thousand
determ
age
##rin
according
##hol
demand
republic
protect
tradition
eval
studies
foot
friend
cannot
impact
companies
sn
##rop
sell
rout
anyone
deb
walk
areas
increase
total
mem
scre
required
beautiful
personal
haven
rules
cases
ones
sort
##ilities
husband
exact
similar
concern
workers
close
##ume
##chie
cred
##acy
object
rich
##ogn
justice
became
fort
##ges
##itch
hun
##yn
##ature
##ening
##selves
##ius
fle
##imin
political
alco
bring
entire
light
eight
grant
##aur
fight
ele
teach
single
subject
requirements
press
considered
felt
river
doc
commission
texas
alcohol
div
fore
lou
##itted
##ama
wouldn
activities
sus
resources
##aw
begin
regard
answ
##irc
gave
british
##itive
dev
couple
##omes
##amed
cast
famous
achie
fell
recogn
employees
parents
ital
##ield
delivery
hear
expect
##ny
leave
works
##aves
collection
favor
univers
hol
college
##ium
defin
##fact
self
##ball
quick
fur
##ov
vict
##ony
interv
related
##rem
cop
pick
wife
##thern
assess
##ourn
longer
turned
##oring
comes
soon
contrib
obs
type
began
living
strong
experience
espe
saint
histor
nation
offic
taking
takes
price
treat
##iet
construct
wrong
eyes
especially
coming
198
mal
mur
##lin
reports
famil
adrin
mult
sea
##yc
##ators
involved
america
wonder
likely
sir
##atives
charact
industry
##uced
11
provided
##ential
refer
proper
tv
wood
instead
ii
##ler
##asing
section
circ
##urs
goes
##iddle
##oke
offer
restaur
##ograph
milit
bir
aid
figure
##pri
themselves
table
aren
common
effective
questions
14
##umb
houses
##use
dead
repl
soci
words
middle
##ify
minutes
describ
drink
maint
sense
gold
means
lang
##ened
ask
above
roy
opt
cust
appropri
complet
##fect
heart
issue
central
check
mad
##ann
board
morning
base
poll
standard
brought
attorn
vo
bed
jul
journ
worked
evidence
hall
##bor
god
labor
friends
##uses
village
30
france
reporting
detail
viol
key
vari
##aining
pen
surr
roman
visitors
##ping
##ots
hands
contract
norm
##bert
relig
100
sold
lawyers
individual
cath
conn
comments
recent
late
recomm
changed
##isions
proposed
unf
received
ancient
##istic
twenty
sett
funding
sex
english
style
##aign
further
##oura
poir
economy
##hib
campaign
##ique
##den
executive
front
avo
poirot
hur
jer
##epend
archit
washing
neg
chap
displ
exactly
democ
happened
mrs
hon
##son
foreign
##ledge
speak
event
huge
hope
arr
vir
expensive
architect
pain
##app
anim
fair
applic
shr
places
population
happy
du
##isc
ens
perh
tried
fif
chall
trust
independ
opportun
purp
inside
books
perhaps
struct
leaders
influ
mot
expected
plans
##let
##omp
weather
##ake
##urance
lake
surpr
ran
##ai
##ring
suff
investment
corpor
jun
mass
##gypt
moment
neigh
unc
##lus
##amb
##ization
washington
stra
##rible
gets
military
##gn
perfect
manu
appear
attack
egypt
##ols
attention
##ky
lived
langu
er
ti
item
education
pict
ren
initi
buildings
##airs
decision
reform
13
emerg
square
party
mother
relations
fire
##ores
created
strateg
epa
##ival
completely
##arch
##ental
son
##ires
prep
valley
mos
desp
bush
green
ways
chines
piece
decided
ban
##ction
trade
gone
##iqu
express
district
chinese
designed
boy
located
palace
drive
third
pan
##ceed
manufact
higher
request
trou
household
james
knowledge
break
##ik
following
span
peace
acqu
spend
julius
funds
hit
##osing
allowed
dam
lower
necessary
custom
whate
surround
whatever
gall
artic
hotel
recently
color
royal
kept
specific
bon
rid
##ped
##ging
super
##issions
plant
arri
batt
creat
stri
saying
itself
eat
germ
##ades
original
game
dog
select
clean
secret
action
paid
##estern
deep
##isl
situation
separ
culture
groups
prefer
practices
vot
##ims
natural
ill
##med
2000
seven
##eter
countries
ord
spending
##ouch
scen
##hood
##ites
cat
gun
lack
##ronic
apart
pack
appe
serious
auditors
lad
##olution
##erous
spent
taxes
shops
exam
sav
##icient
character
ju
mess
stone
fail
finally
princip
##orp
engine
range
##venue
##ded
##ource
stock
corn
##ios
included
##ief
rates
comb
seemed
crow
sand
##ification
complex
legisl
geor
##ef
##itten
cook
committ
broad
moved
isra
##rupt
israel
focus
training
##uction
supposed
retire
##of
##he
conv
word
reported
altern
soft
indian
ingle
ali
efforts
annual
streets
##zz
##aught
trees
ingleth
mich
quar
aver
km
western
bey
ang
older
views
prim
save
##eks
##uals
notice
card
lat
prior
society
##oes
##set
##ams
credit
remains
inglethorp
##ript
dav
chance
americans
hi
##aries
none
##ole
##row
##osp
wish
##ana
lives
internet
##for
offici
laws
russ
##port
##uries
throughout
traditional
growth
mary
mater
narr
tourist
conduct
sant
##eness
subst
various
doct
assistance
##eless
indic
##umpt
voice
gree
cold
##xic
except
students
communic
swe
increased
position
benefit
##bur
upon
covered
draw
cele
force
university
##ises
provides
document
##ror
died
japanese
adj
phys
body
##umn
garden
celebr
link
guy
##ipment
share
##izing
prices
correct
ah
established
emb
additional
##ara
##idents
impress
everybody
commer
##ological
bank
##hic
##cks
dor
toward
wants
medic
season
china
scul
critical
cause
##arily
vers
inn
##illed
slow
bi
sculpt
sle
##itely
respect
islands
beyond
##apers
clients
wild
station
former
gardens
reflect
instit
language
cas
father
pred
thinking
paris
democr
despite
cro
wide
weeks
emissions
affect
##oon
##ights
insurance
farm
tomb
##ength
establish
mach
role
relationship
size
nobody
##rod
##ude
##ift
##iction
evalu
ven
written
interested
developed
##go
##utions
continue
imag
##uth
sup
equipment
bay
den
shopping
##oming
international
dress
round
##oint
##roy
clim
##bb
tar
myself
discover
##vert
exhib
anyway
doub
##sy
##ware
##leg
proced
feat
led
dall
50
page
fix
extrem
bab
##een
attemp
increasing
generally
tend
practice
learn
##ne
deg
below
tourists
din
quickly
alone
clos
decl
dallas
vote
published
25
##inc
##xim
train
cand
##aced
phil
encoura
web
production
running
pleas
rap
entities
cross
fash
surv
fem
favorite
sad
##estic
goals
dark
crime
install
certainly
mand
events
emergency
heav
fres
cru
sites
dro
hy
wealth
construction
##onst
##room
comment
patients
##iff
##oph
region
##more
rights
basis
named
slate
hosp
rad
looks
wrote
products
movies
answer
##ob
brown
largest
horse
observ
steps
field
includes
officials
letter
complete
##ipp
feet
choice
definitely
##itor
growing
families
threat
##edi
consist
extra
spanish
purch
lots
accounting
glass
recommend
average
bought
weap
appropriate
mid
louis
effects
##ha
opin
sky
carry
blue
helped
excell
floor
gar
##tered
difference
senior
internal
ign
197
nature
##ode
flow
##scape
volume
fast
##egr
multip
retirement
whose
sched
ball
##uted
club
afford
operations
mist
##asons
serve
hotels
meeting
absol
items
##aded
earth
mart
phot
easily
##bers
##erc
terms
hers
tit
space
previous
measure
cit
gate
ur
agre
german
##uments
pieces
##iques
ara
ded
scr
medical
authority
battle
##iced
##iling
reb
quiet
schools
leading
terrible
trouble
path
sens
fashion
individuals
60
lawyer
types
##ett
##ips
##enced
regulatory
master
##ux
##ables
##ches
1996
sounds
cathed
bye
##ivity
levels
goods
blood
rain
##ox
##wide
occur
spot
##astic
actions
reading
destroy
display
luck
mort
appar
particularly
achieve
##ba
watching
investig
administration
##olf
sports
offers
effort
##ex
stood
cloth
integr
##icians
mis
##usal
mostly
guid
connect
committee
##ax
##idge
winter
beaches
mic
##ban
stories
nearly
managers
journal
ensure
dang
sci
entr
##omb
simply
dut
ess
##cious
disp
mission
##cked
##unt
closed
##aughter
david
40
##erve
perm
regular
tower
excellent
jes
tom
##oses
subm
reduce
thirty
mention
##onse
savings
fly
ful
somebody
accomp
host
spl
equal
##rit
##rel
added
trip
##ills
revenue
payments
administr
##come
##sequ
army
cities
obvious
dave
wait
##ira
simple
beat
safe
reli
2001
smaller
cam
ver
##iny
media
respond
passed
judge
walls
restaurants
liter
immedi
avoid
##ma
##ster
prison
india
response
frequ
official
##erry
column
##ests
successful
##ille
accur
##asc
confer
box
religious
yourself
budd
##oud
payment
killed
drugs
article
conserv
cars
rooms
policies
film
fisc
mountains
treas
believed
jewish
flex
196
estimates
magn
decor
neighbor
pil
##anced
##reci
knows
truth
potential
##ask
##vey
##ung
hong
##eed
##atively
star
playing
##yr
grad
##utely
participants
adop
centuries
consum
southern
kal
##back
beginning
director
ut
expert
paying
limited
fiscal
points
constant
ft
hom
inj
contr
kong
chair
parts
phone
hans
george
##usalem
lit
touch
warm
ready
responsible
jerusalem
lay
requires
critics
giving
magaz
pros
served
useful
larger
christian
property
sud
newsp
independent
glo
beg
spoke
providing
adjust
sac
nearby
methods
ast
bes
convers
ability
discount
castle
liber
entertain
interview
bri
##uary
##ops
basic
capt
oppos
gives
##ornia
je
reasons
forward
compl
empire
eastern
distrib
sword
calif
republicans
##lier
constit
##uit
##ously
expand
setting
##cy
county
animals
receive
structure
##iring
anymore
analy
estimate
associated
source
##teen
omb
wear
advert
agreed
##put
##change
remain
bott
pun
##ament
note
raised
politics
domestic
narrow
hate
ib
spain
greater
series
hang
##aged
decisions
swim
environmental
date
rural
##ave
##gg
variety
absolutely
mix
##aters
spir
contains
guide
watched
electric
sector
mountain
multiple
catch
las
##cil
autom
eye
route
meant
starting
regulations
##fort
spring
billion
##ones
coff
propos
stopped
towards
science
fest
##oh
opportunity
hanson
married
restrict
activity
cathedral
##cul
shar
spect
charge
european
alternative
##men
progress
candid
band
born
kid
ul
##ners
purpose
influence
entrance
500
appl
jobs
tick
therefore
demonst
factors
fishing
jama
##cl
store
assessment
greek
exerc
qual
opened
continued
sor
##cing
affected
##wood
create
hair
telev
directly
roll
##ada
##rap
prem
##aily
professional
strategic
##eys
imposs
england
followed
currently
tast
cash
apply
statements
talked
profit
occas
##iar
meaning
vac
paintings
micro
bord
categ
gas
##ground
behav
challeng
flor
played
thousands
21
caught
worse
northern
attorney
sudden
aug
fol
##to
##itz
rele
ended
association
quarter
jack
loss
##chan
1999
unless
sleep
eth
##ience
intervention
##key
1998
electronic
enjoyed
daily
##nes
##ergy
##ena
unit
cry
rent
##ino
##oted
clearly
gi
jan
##wise
thus
search
compared
failed
debt
straight
pet
##gas
sho
clock
##aud
##ula
choose
eventually
shall
commercial
citiz
hind
weak
wonderful
angel
send
##rated
contact
appreci
seeing
oldest
estimated
##wor
##ils
stores
resort
coll
statement
italian
murder
corner
shot
##ope
values
california
impossible
##ule
##tim
assum
##ially
reached
nine
amaz
towns
sales
##antage
##rif
crimin
saf
dub
mine
##zy
invent
minor
originally
craft
treatment
##uing
brother
prevent
ideas
separate
willing
claims
features
brief
##ander
entity
majority
hurt
target
pra
assets
##umption
wine
colon
existing
games
sight
wel
##rof
italy
hospital
destroyed
et
match
tele
funny
procedures
##iers
##vely
boat
firm
decre
cheap
##mon
worry
testing
representation
discussed
##force
bor
##dom
chief
plants
adult
emper
musl
listen
cultural
shown
capac
aware
attorneys
##making
rail
##bed
lew
introd
bono
opinion
theater
liked
##ffic
evening
risks
location
easier
violence
lose
condition
samp
television
##inct
frank
sitting
##itude
interior
##ibilities
please
prepared
doctor
fresh
daughter
grew
disapp
remained
insp
identify
od
##ham
##aped
offered
numbers
walking
council
##rial
##week
doubt
conference
coffee
breat
die
compar
text
bridge
march
standing
limit
gore
sund
unli
repe
desert
architecture
fu
los
race
engage
##ucing
doro
heavy
clothes
##ji
evaluation
bag
biggest
learned
anti
homes
oil
##onna
transport
bul
##inating
##eth
amb
function
jesus
immediately
neighborhood
cool
draft
implementation
nap
vegas
earlier
ben
pul
welf
##ream
alt
welfare
lunch
tro
vide
uses
parties
symb
##ibly
newsweek
waiting
##inated
calls
defense
immig
temples
holy
extremely
sources
thorn
minim
##roll
performed
##levant
protection
member
objectives
regarding
burn
forced
uns
manufacturing
rue
##outh
##istics
residents
robert
19th
hills
routes
##ycle
bron
feeling
conditions
industrial
determine
acquis
fully
tough
wer
##lam
writing
counsel
ahead
dinner
august
bomb
papers
##oles
guard
shouldn
described
behavior
cub
theory
starr
thanks
grass
dram
susan
july
predict
##ipped
##iveness
actual
prec
spee
controls
businesses
stayed
grantees
historical
martin
pow
##ney
noted
1997
generation
via
##ael
##can
forg
mexic
intended
commit
moving
write
accounts
camping
projects
dollar
susp
software
bow
##los
##mer
##iles
##riage
thinks
psy
##izes
minute
##ventions
16th
lie
energy
foundation
##iday
##antic
traffic
capacity
revolution
completed
baby
pic
union
conclus
dedic
psych
##reg
surpl
201
birth
cav
incent
##uctions
##action
##azz
picture
weren
cyn
ride
##light
##irt
units
caused
18th
identified
rand
##ris
##iest
##ado
advoc
statue
powerful
normal
thank
track
screening
concerned
award
shoot
concent
##pper
##akes
pattern
pictures
michael
eld
##ulf
libr
client
##ague
painted
gent
willi
arts
situ
employee
suggested
restaurant
pollution
fifty
cow
dan
ira
exchange
tall
executives
fasc
##raid
brand
overall
student
golden
trib
busy
slight
emperor
nin
##ae
stick
comfort
##liance
republican
radio
bell
dod
processes
profession
mall
##ray
##ette
guys
understanding
records
recognized
wed
monument
findings
1995
importance
virgin
abuse
survey
##zen
##mber
relax
positive
housing
purs
dad
golf
discussion
22
fat
mel
greatest
critic
examples
jury
earn
challen
##burgh
rise
yard
##inary
stew
novel
unp
effici
election
##ancy
lady
lux
wid
print
afraid
police
##ushed
gro
##da
nod
##ca
spread
anywhere
career
##aza
conflic
satis
##50
##lex
compliance
##ago
interventions
initial
snow
imagine
hell
##asts
afric
appeal
citizens
offices
strug
flat
material
cards
ken
##rid
##ials
##adem
concept
rose
filled
##ested
strange
highly
chapter
june
households
pu
##oking
##mos
islam
pool
obtain
leaving
weapons
arab
pull
depend
senate
jane
vand
##otic
suppose
##etic
waste
finance
produce
leader
##ields
194
explain
gather
##eria
defe
goal
plenty
acquisition
oct
interp
##berg
register
stands
rulemaking
advantage
matters
mosque
exercise
##mas
##abor
##ender
hundreds
mir
otherwise
fear
technical
markets
accountability
17th
network
unfortun
degree
ton
suit
peak
mont
keeping
window
bath
laugh
yell
##rant
##iving
competition
scenar
names
##west
relevant
handle
produced
version
mortality
sevent
lies
feed
efficient
reduction
responsibility
gallery
aust
##gu
neither
incor
##ologies
kinds
advice
status
schedule
entertainment
##ois
##sec
weight
##ieval
happens
medieval
involve
football
drinking
ultim
speech
tun
##erved
##soft
manager
machine
funded
corporate
substant
flexibility
microsoft
fan
worst
indeed
guar
decide
helping
skills
double
legislation
mcc
forces
##olic
courts
cafe
occup
pleasant
recommendations
veget
showed
trial
changing
congressional
merch
fighting
amp
##ald
sem
##enses
presented
##has
transfer
girls
lif
boil
command
depict
totally
accepted
determined
concerns
fortun
primary
spectac
library
gain
##eries
unique
speaking
differences
walked
painting
medicare
sam
##using
artists
terra
scient
coverage
reviews
gh
tools
highest
helps
##sid
players
##ifying
founded
chapel
surprised
magazine
buying
stret
freed
virt
gradu
jamaica
guarant
bother
##lig
##ortion
##unte
loved
supply
territ
angeles
##ctions
franc
aftern
finished
organizational
announ
volunte
surrounding
opposite
lines
rang
vice
centre
gotten
gothic
editor
figures
opportunities
breath
##reh
firms
strength
finding
##pective
leadership
challenges
der
iron
reve
##verse
aspect
log
vehic
skin
raise
familiar
circum
24
##pa
forth
##ession
hadn
##ension
elig
reduced
merc
holly
hors
##ein
##anch
online
frame
mac
remo
developing
portug
measures
selling
van
##oo
entirely
cart
gd
##ta
glad
requirement
honor
engineering
santa
song
vast
planned
younger
dublin
era
tap
tiny
##oned
faith
twice
realize
tests
apr
irish
block
massive
climb
##cra
enem
mob
retail
confir
details
swimming
##uous
##mar
##tery
shel
grown
windows
argument
task
inqu
stated
throw
audits
illust
conversation
dedicated
##nam
##endish
compon
resident
depends
inspect
##iro
##inal
tea
bob
numerous
##place
facilities
##ancing
arrived
spirit
gift
tree
##house
##othing
chem
##oked
##gry
carri
marriage
##idden
rough
##gd
forget
asking
heat
boys
counter
returned
cab
lic
length
##equ
##ugh
users
imper
scand
monaster
issued
options
row
##ding
##bon
##orters
##oln
##ulous
quant
##eyer
guidance
gdp
##oti
factor
cuts
irs
malays
female
hyp
dangerous
cavendish
horses
somewhere
relatively
models
refused
jews
contributions
maintain
democrats
##incoln
amazing
bou
cio
lincoln
noticed
dece
##unk
fourth
conducted
vandem
haw
##cket
outc
roof
consult
instru
topic
burden
shad
carter
leads
moral
driving
##uk
##erly
sept
vandemeyer
##iy
worried
enh
contain
##akers
restored
##insky
advis
apartment
##bal
chic
techniques
sunday
kar
mile
rome
##ero
##ched
movement
corporation
constitution
ol
##ais
compr
contemp
193
decline
academ
edin
steel
dish
por
sar
carved
seek
believes
title
april
bound
rub
wit
##ini
satur
magnific
edinburgh
cell
fit
##era
marble
2002
perman
192
owned
explained
silver
buddh
##ulated
fraud
pray
distance
telling
victor
shrine
herself
william
bat
gal
##tom
owners
instance
productivity
statues
honest
surrounded
slowly
afternoon
shut
lawn
addressed
screen
january
boring
consequ
speed
slaves
improved
russian
impressive
apparently
##iment
ship
seat
lakes
responsibilities
suprem
circumst
hen
##rate
##ev
##do
forms
##adel
proceed
saved
symp
explan
eleg
elements
consistent
sorry
vacation
gay
waters
##ii
becoming
queen
coal
schol
putting
pointed
suddenly
dry
lond
##hi
compreh
bright
boats
flight
negoti
nodded
native
nurs
hasn
tours
illeg
fairly
mouth
##arian
meat
content
fired
provid
conclud
stake
rena
damage
selection
message
dropped
##ught
##hab
whom
##ront
furn
hat
pia
##inger
recip
plain
resorts
holding
attractions
physical
london
aim
##well
overs
governments
agreement
negative
principles
innov
nav
va
##atically
##orary
stage
proud
agric
amend
##ardship
approxim
advent
runs
facility
teams
picked
neighb
fixed
hollywood
300
alex
mond
##ita
##ishing
##issance
madeira
visited
interests
discovered
attempt
agricult
ice
jump
mc
##aming
##pping
##agon
rob
letters
broke
##holders
application
freedom
ber
bure
kent
chann
tru
scene
weekend
border
gamb
##lers
##itors
hearing
manner
remark
renaissance
rat
##ford
##apt
reductions
defic
roads
entered
piazz
renn
##stein
##amble
neat
scott
owner
basically
improvement
communication
photograph
##encies
employment
hunt
flowers
##nic
maxim
defend
balance
electricity
loan
unfortunately
spectacular
##gment
##com
##ston
1990
memor
documents
challenge
dyn
fgd
##bit
thom
clothing
worksh
learning
##lies
orient
likes
mechan
##iza
dism
brad
direction
reasonable
managed
encourage
safety
bars
fal
gonna
iv
kitch
##ville
presence
operating
archae
copy
aliens
##ription
rennie
##rence
##ari
##ida
hero
strate
subsid
approved
typically
secretary
drop
pound
##east
##thia
unable
smiled
crowd
bureau
egg
fill
male
sister
centers
monica
extent
museums
terror
sections
friendly
newspaper
strategy
##nel
conqu
suc
fee
scale
communities
patient
churches
punish
shook
video
##iture
howard
smart
perfectly
succeed
bond
esc
##off
##pie
whe
ash
aband
cu
pm
carried
incentives
cynthia
bod
mas
195
emphas
computers
attractive
regardless
27
##time
##pm
alive
wearing
placed
##owned
pover
strict
join
belong
##ashed
explore
kingdom
orders
reag
carp
fees
attend
governor
oblig
reviewed
christmas
penal
soldiers
hindu
wil
##icip
resist
salt
magic
pressure
splend
dole
upset
protest
##what
uncert
customers
mentioned
adopted
fascinating
september
magnificent
onto
enforce
plus
strategies
purchase
ox
##aled
##alia
shape
adequ
covers
harbor
##zar
##itation
leather
elimin
edge
barg
religion
guns
poverty
ought
pyr
##elve
offering
scot
##others
publish
harm
implemented
eighty
creating
obviously
fool
tor
##wards
webs
disag
technologies
processing
advertising
truly
gri
sather
##cel
storm
##ulate
somewhat
intel
underst
##phere
##eration
##ico
meetings
detailed
initiative
proposal
random
fab
##ares
forest
##umes
wars
effectively
experienced
absor
debate
recognize
applied
##rog
provisions
reality
increases
specifically
fellow
##heim
criminal
gentle
sult
##sa
##icious
shock
divers
advance
focused
replace
sexual
appeared
materials
reput
##igned
delight
hardly
landscape
option
initiatives
symbol
ny
os
leaves
prime
trail
depos
millions
##while
sharp
slightly
gross
ky
loans
clin
parks
audience
collections
historic
reliability
sharing
notes
click
launch
emot
napole
witness
nom
##ober
##aked
teacher
egyptian
democratic
urban
festival
occasion
october
kentuck
ath
thick
cris
charles
calm
awful
80
ba
##za
##erate
accident
instruct
skies
criteria
loud
forgot
ot
oce
##water
##irts
sov
syn
defined
supported
happening
britain
distribution
eligible
elegant
31
##road
transform
trading
package
rapid
experts
supreme
piazza
##elled
active
decade
belief
calcul
departments
solution
russia
columns
taste
outcomes
code
eating
##head
##lets
conven
##ellig
becomes
expend
##anged
recover
consumption
missed
privacy
cutting
customer
bottom
bust
nic
penn
##gl
anybody
guil
confidence
villages
purposes
sufficient
decorated
illegal
sick
league
contained
partners
poison
decades
possibly
richard
independence
cere
dance
hide
sides
##alls
overse
artist
cave
1994
effectiveness
percentage
classical
beauty
animal
motiv
closer
90
rh
##iance
##ket
alloc
carefully
readers
functions
wooden
selected
ibiza
appreciate
lewinsky
cable
fant
gates
pages
tent
tel
upper
##ses
##oto
carol
valid
portion
approximately
cup
dig
##ties
hey
lucky
unlike
dust
tired
aside
atmos
plaza
##acing
bigger
##ifications
limits
rebu
elderly
2a
losing
##hen
##han
atl
##cco
realized
detect
formal
besides
surpluses
chicago
circumstances
atmosphere
bau
##zed
##hal
conver
##ria
crimes
reducing
professor
litig
pulled
guilty
cliff
teen
brill
everywhere
crus
statewide
assumed
monday
ped
wing
append
phase
continues
baseball
superv
connection
duty
accurate
cats
pill
##sey
##ateau
laid
smith
relief
vision
approval
stup
dogs
sculpture
essential
##rofit
iraq
interpret
ocean
fought
fields
reject
gods
arms
resol
intellig
remind
supporting
motor
##craft
26
70
hire
##gar
champ
##antly
overlo
twelve
background
spec
fewer
napoleon
pier
##ls
##orter
organized
journey
teleph
kenned
nix
rum
##iation
##zant
##aling
byzant
yester
representatives
hole
amounts
penins
displays
stewardship
scandal
permanent
scholars
dim
stars
dise
moon
lawrence
allows
stuck
describes
medicine
incorpor
yesterday
forb
myst
expos
##agas
remaining
politicians
replied
frequently
fo
grants
acid
empty
showing
opening
directors
expectations
primarily
previously
literature
vren
##bel
##aka
regional
treasury
intellect
vrenna
##la
##elines
##uts
chose
plat
plays
joined
horrible
grounds
replaced
efficiency
bunch
gang
mut
##ext
##ented
complic
coord
courty
ends
delay
concert
visiting
fortress
victims
convin
##umptions
weapon
schedul
accomplish
conservative
fuel
peninsula
escape
##uable
##now
larg
protected
explor
paul
15th
birds
fifteen
pilgr
troops
scotland
##rig
##edy
##ading
##erson
chronic
##aker
committed
assume
madrid
catholic
alien
philos
crafts
comprehensive
riding
##rovers
compens
columb
writ
distinct
turns
facade
buried
turning
scenes
institute
submitted
mexico
imperial
nixon
eag
sab
##greg
##ura
anse
nep
resource
coop
assumptions
calling
subsequ
revol
image
manufactur
dramatic
comfortable
##aly
##itan
##ulations
spr
##okes
gray
appoint
auditor
crazy
significantly
ordered
virginia
sultan
23
##enance
sole
##ells
##iously
##ugged
careful
confident
sugar
contrast
tickets
released
reputation
sale
##lines
##iber
##ola
unus
feature
##actions
facts
exclus
possibility
silence
improvements
appears
consumer
oversight
appendix
largely
bout
##yl
bear
whitting
doors
tourism
presidential
bird
jim
##ilit
mans
controvers
stress
jones
broken
represented
achieved
arrange
observed
mistake
adults
soph
##uff
##fa
##jack
##rees
ages
poland
surf
iii
crisis
nations
##dy
##here
##uration
helpful
affairs
ideal
conflict
territory
whittington
fer
ww
##life
##icing
##imp
sport
dial
delivered
##book
surprise
indiana
franklin
transportation
##entially
##urb
shoes
sew
implic
##acts
assert
jewel
definition
voting
cig
rare
##nis
spons
recyc
greatly
investments
raising
silent
necessarily
expressed
administrative
liberal
ring
forever
excess
truck
upd
depress
signs
extensive
steep
viet
holds
failure
##exp
saturday
kos
pig
##kn
##icial
youth
forty
chain
expenses
seeking
artif
cheaper
structures
##kyo
##going
tonight
splendid
uncertain
bin
tub
##how
##itals
##lying
proven
##aging
basket
tells
opera
##employ
typical
banks
expression
doctors
mercury
bull
dream
lord
peter
vary
##ingu
tokyo
pride
highway
plane
sensitive
folks
muslim
minimum
alf
##abilities
##elling
nox
regulation
1993
recommended
ridic
sample
chemical
understood
33
##gs
##eling
trend
monit
promot
surprising
global
dating
ferry
kings
vent
##rors
##isted
transition
victory
wealthy
guidelines
sulf
##ike
##ship
##cas
##ona
##racy
##ivals
brick
allowances
facing
domin
flood
devoted
giant
ultimately
kennedy
ire
rar
##rations
##front
##my
##orrow
stations
lift
##osen
##ached
##aken
smoke
##ologists
stream
testim
improving
claimed
divor
institution
newspapers
caves
taught
thor
enth
unemploy
temper
summary
styles
voters
latest
increasingly
candidates
pyram
ble
push
friday
##agger
191
writer
johnson
brain
suggests
destination
thomas
bradley
punishment
cous
cried
fda
math
stamp
##rose
angry
dozen
knock
scared
discr
aircraft
##ruction
peaceful
tomorrow
welcome
repeated
monastery
henry
fans
mig
##uces
##gers
##fri
##illy
##stairs
knowing
##ella
##arts
diss
blow
portra
treated
listed
attraction
participate
officer
normally
colorado
category
bronze
residential
29
arc
##asty
quit
coach
scar
##ints
positions
candidate
00
cod
jail
kil
veter
##inent
feb
harder
merely
consideration
settlement
prepare
##works
ack
##itative
##outs
valuable
ski
memory
exhibits
pleasure
nursing
thorough
kir
accomm
attrib
investors
measured
competitive
teaching
applications
germany
begun
ireland
accommod
tig
tons
clar
preamble
marked
desk
attest
flower
slim
breed
uncle
attacks
ignored
accompan
muslims
commitment
daniel
satisf
carolina
stupid
exposure
acknow
ment
input
whis
reporters
improper
volcan
choices
sweet
odd
kick
##oty
##ads
context
monet
officers
sacred
hidden
pond
##ias
##eland
clo
studied
perspective
barely
rising
##box
maintenance
sacrif
powers
boulev
dates
ec
wore
##inem
stared
estate
heads
tennis
turkey
contribution
occurred
decrease
scenario
malaysia
hawai
soviet
tight
output
outdo
colors
depending
signed
classes
reference
avoided
articles
communications
carrying
chairman
december
bork
##ania
buff
serves
drawn
sentence
survive
expanded
aspects
fount
##bles
ships
prove
lovely
poet
emission
feels
admitted
palest
bills
films
turk
settled
maryland
innoc
categories
providers
ottom
dar
lately
om
##zing
albert
conce
##rian
brings
##encing
##ogue
desire
elabor
1992
corrupt
economics
considering
natalia
participation
characters
##ography
14th
applicable
artifacts
gif
hated
ramp
##zone
##amber
incred
legend
entry
elsewhere
combination
75
##wan
chat
##iform
assass
minister
thoughts
surely
collected
enjo
falling
reliable
2010
##mark
##bi
anton
##raw
so2
interim
evolution
keeps
johnny
venet
##ipping
reagan
bauer
400
dining
les
exceed
mah
intent
subt
player
exciting
masterpie
frequent
borrow
railway
stretch
francis
shadow
gor
##point
##inations
lee
user
preserved
##standing
equally
constructed
principle
earthqu
restrictions
sulfur
element
ug
##hs
inner
usual
gran
cazar
ruins
projected
solid
argue
cooking
convention
relationships
sadd
substantial
nile
pure
pitch
##20
##ird
asia
asian
shaped
##bey
tested
##ruary
anticip
13th
accuracy
florida
february
dol
mental
##pes
##pay
##ja
theat
outl
ours
operation
experiences
judgment
##ographic
latin
begins
situations
islamic
scottish
courtyard
tab
##rants
##eff
##anes
toba
##eline
shif
prosec
chateau
sust
finish
blade
causes
earned
corps
switch
division
telephone
rarely
kath
rely
##zes
##nn
##bby
stead
chest
outcome
reserv
faced
prev
indians
recall
drag
ceiling
consequences
enforcement
disease
bol
gp
util
vul
##fast
enorm
tail
smoking
##ternal
graph
mainly
sixty
beside
buddhist
stakeholders
35
cer
cycle
##rich
##ki
toxic
reward
stair
explo
disney
recon
visits
weekly
excited
creation
hunting
galleries
seriously
crowded
documentation
sculptures
ticket
framework
disagree
core
tone
##right
thin
stab
##che
worship
guided
serving
remar
##resp
driven
staying
rocks
teachers
requests
combined
##burg
capture
conclusion
furniture
##pan
##erning
##esty
carib
monuments
flag
handed
grace
winds
##board
divided
hijack
gambling
testimony
tobacco
dens
sought
##ano
inhab
rein
alle
shared
fruit
uniform
worker
opposed
##ructure
winning
implementing
superb
clubs
kyoto
jac
kr
##town
##arm
##adium
sum
faces
finest
blame
judges
towers
bedroom
violent
celebrated
investigation
struggle
mccain
website
##known
28
ozone
ske
tan
orn
##uese
hoping
dutch
portuguese
explanation
channel
abandoned
turkish
fro
##rane
##semb
deem
branch
sets
charged
charming
corp
privile
involving
listening
approaches
characteristics
latter
folk
cuba
writers
cigar
boss
##aver
##bar
##itures
##isms
chick
##oster
nov
unknown
lock
whenever
finn
countryside
financing
harv
150
educational
properly
degrees
erect
pc
##aven
##rad
##ota
disaster
persons
warri
existence
renov
arrive
strike
installation
disappoint
conclusions
patterns
penalty
ae
faster
##rast
##eing
##tained
##met
##12
attitude
20th
successfully
priority
vehicle
agricultural
complicated
derry
gau
tues
trop
stable
ham
shift
##estone
##anta
lively
##orted
aggress
scary
transl
statist
##annon
remarkable
aci
fert
pink
##hor
weird
##istan
mak
impe
expense
fault
marks
instances
personnel
affair
copies
encouraged
philosoph
pit
##af
##ya
##stream
plastic
monarch
charges
infrast
sanct
remembered
hung
survived
weakness
inspired
comparison
announced
www
ottoman
##ranean
32
gagas
rice
wages
##uze
##case
##asion
stadium
##usion
##ushing
trick
##ubb
relative
finds
concerning
musee
admit
elected
suffered
inventory
immigration
cet
##oir
meal
spin
asset
writes
visibility
puts
healthy
prompt
facilit
settle
fresco
adopt
african
unusual
nur
##coming
reven
smile
parli
basil
metal
elections
stepped
##aimed
treaty
links
linked
tombs
regularly
bodies
adequate
na
pir
wage
##imate
##essed
map
##ipa
consol
parent
resulted
cheer
annually
auditing
generations
ordinary
principal
embra
climate
instruments
basketball
avenue
fena
hud
pine
##uge
##owed
reserve
shoulder
publication
formed
electron
accordance
eleph
pollut
scientific
enthus
gop
kl
pair
##fo
##itable
##omed
##otes
proved
prohib
##ighter
abortion
##ansas
scope
traum
strang
retired
##hips
classic
practical
ruled
awards
suspect
answered
error
breakfast
split
engagement
strugg
removed
components
boulevard
aer
cinem
cnn
dome
##quar
compare
residence
trained
analyses
preferred
sandy
israeli
colonial
altar
cabin
expenditures
species
ugly
##imination
alb
shirt
lev
canc
plot
somehow
visible
economists
nonp
researchers
description
traveling
images
bringing
democracy
crowds
danger
sleeping
volunteer
alfred
parliament
cios
lying
pace
noise
unw
##aks
pocket
charl
responses
romans
36
lor
torn
##rates
##ato
orange
##cipl
##ensions
desper
parad
disclos
phr
profits
statistics
addresses
examined
casual
yellow
amendment
ridiculous
rival
roles
vs
wet
##iguration
##thy
height
unt
accused
joint
performances
mediter
receiving
represents
sunset
pottery
mosa
exhibit
ethnic
bags
boilerm
tin
##oma
##chal
##aders
##ante
##enda
cock
##ensus
recru
explains
examine
legislative
dorcas
farmers
machines
enhance
kosov
hired
jose
jord
lind
rene
##cast
anth
withd
abbey
canal
blank
palazz
authent
greuze
holiday
michel
declared
introduced
mediterranean
fiction
nerv
##comm
##oupe
ongoing
everyday
1990s
promote
describe
requested
defeat
recipients
alexander
kitchen
unemployment
tip
##ipt
stroll
##urally
leon
lean
mayor
smo
advanced
excuse
securities
continuing
traveled
appearance
apartments
examination
release
professionals
wednes
archaeological
monitoring
dun
wound
forum
fran
capable
farther
souven
trips
controlled
involves
killing
contribute
contracts
physicians
consumers
astron
festivals
widely
cousin
ain
bost
vital
prud
faa
presc
supplement
headed
employers
cream
promise
objects
eleven
heavily
administrator
cuis
vietnam
gpra
stark
habit
shore
exemp
##anda
canada
ads
conscious
evil
cairo
handsome
opinions
byzantine
infrastructure
souvenir
boston
cy
dancing
wise
alleg
##the
##ouses
buchan
resulting
receipt
blacks
drawing
cruise
prosper
disappear
situated
karf
kentucky
compensation
nepal
attestation
kore
stairs
##tering
nowhere
assumption
visitor
missing
allowing
12th
recorded
panel
substance
indicate
hersheim
occasionally
elaborate
tuesday
hersheimmer
bos
gains
rams
sna
##iant
inland
haz
##adays
##opes
sheep
quiz
discipl
nowadays
locations
pope
protoc
northwest
operate
managing
periods
strip
africa
litigation
jewelry
enormous
hes
sits
neck
##oken
locals
##ception
waited
epis
acceptable
demands
achieving
maintained
##oxide
minority
jordan
authentic
bench
##ingly
##illes
chamb
repair
lav
triump
189
1980s
malay
colorful
installed
buddha
dismiss
vulner
ak
dil
pad
rac
##lv
##lor
##agues
downtown
barri
taxi
directed
permit
unlikely
vegetables
enemies
diversity
ax
pin
rig
rational
##oque
##acc
heaven
joy
caf
emer
palais
dealing
falls
fifth
reforms
magazines
hanging
criminals
contemporary
recycling
buchanan
dre
ow
sau
ze
##oly
##inian
isol
asc
assemb
chamber
manual
diverse
acting
##angel
informed
curious
nonf
##rupted
venice
discovery
premature
enemy
neighbors
gig
tape
##ician
frag
chosen
gosh
nove
##oured
imposing
##ipe
funchal
musical
declined
captured
satisfact
wheel
statistical
cant
##kins
##bra
tool
##itated
weigh
##agn
##under
studying
##idding
romantic
riders
integrated
memorial
implications
smooth
file
##tan
##gate
thurs
dear
noble
upstairs
##ifies
tech
yours
blind
designs
morris
accessible
architectural
quietly
analyst
groc
terrace
november
bour
dict
pont
tu
##rep
##urd
exotic
##ques
unified
roc
invasion
requiring
severe
mailers
raj
##whel
seconds
figured
identity
agreements
answers
optim
establishing
mandatory
praise
immigrants
hypoth
pounds
converted
55
600
hou
hug
lined
##bul
##isters
##uting
sha
##abled
delic
performing
productive
iran
universal
juan
hospitals
laughed
concluded
deficit
aege
luc
tas
##iors
##don
##cr
orch
donations
modest
mini
deliber
extended
walks
passing
authors
volunt
##engers
encoun
prince
similarly
referred
errors
extreme
closely
ibm
spiritual
dynasty
pilgrims
wednesday
aegean
bible
diction
fing
rode
##iate
##days
##amental
##thouse
hast
dioxide
boards
simpl
corresp
topics
##like
limestone
representative
authorities
solic
constantly
bowl
correspond
45
nuc
ram
sel
##ij
##har
##attered
##itage
##keep
locked
partner
guadel
prize
metric
factory
employed
landsc
projections
popularity
victim
duke
lewis
nucle
lu
sights
##bound
threw
##ros
shout
proof
##osition
grade
captain
valuation
portray
nato
administer
##attle
recognition
corporations
evaluate
apparel
integrity
inquir
ramses
lam
##iated
exists
imposed
struck
soul
baroque
feelings
lands
terrif
passengers
pleased
committees
commerce
denied
femin
pilot
qualified
subsequent
astronom
guadeloupe
cyc
jr
rod
vine
##oms
beer
knife
##iva
##apes
##icted
regions
personally
southwest
oppon
addressing
determining
impression
proposals
puert
pushed
wolf
##iot
##bour
##eds
##omach
##vered
##illing
spa
uncon
myster
theme
expans
overwhel
heritage
cents
assurance
supplies
courses
taxpay
creative
indicated
conservatives
comprom
platform
tropical
frescoes
dir
jur
zero
thro
##cher
wash
external
##une
##uns
humans
lessons
##bean
refuge
salary
##arrass
multi
flying
jackson
burned
forgotten
ceram
consolid
chambers
##aust
##rating
##ko
##oration
forec
##mental
crash
employer
scenarios
component
carrier
acknowled
innocent
cos
pla
##ubs
acts
pools
starts
fundamental
encl
paperwork
grande
##awa
embarrass
luxury
confirmed
interpretation
divorce
earthquake
dame
##alf
shell
frust
tran
aggreg
indig
flav
obtained
handling
swung
exclud
passage
drivers
breaking
blocks
returns
dressed
sophistic
gifts
houston
aven
gained
mothers
naz
till
##oons
##wa
thri
shil
shannon
boom
monop
skill
airport
northeast
destruction
motion
drove
martinique
oriented
bread
dying
gap
piz
rust
tables
##lied
##inate
stry
##irm
unre
newly
crown
filed
entering
wondered
methodology
coastal
objective
ignore
fabric
intellectual
chicken
erected
bern
pent
rit
##uits
##sp
##ester
##oli
weekends
pacif
hoped
authorized
crack
difficulty
diving
voted
purchased
opposition
mixed
ninet
caribbean
impeach
renew
dirty
strychn
800
auction
nipa
##esis
##iration
ate
myth
resem
guides
monte
relating
highlight
provision
supports
demon
milk
distingu
transm
swing
considerable
injured
adjustment
surplus
vehicles
##friend
theatre
nurse
kosovo
shiloh
strychnine
mit
##war
hamm
liqu
smell
constra
equival
housed
burning
granted
sculpted
recommendation
concentration
earnings
seventy
editorial
fcc
pag
##inos
##atoes
##stone
187
influenced
ladin
georg
crucial
relaxed
austral
merchant
license
mystery
manufacturers
pyramid
venetian
album
aic
sons
##night
##gen
toler
reaction
##utory
##idays
##uls
##aine
##usc
##udes
secure
experiment
beautifully
murd
christianity
complaint
etc
bombing
virtually
outdoor
93
dull
lod
pp
pund
##pit
##esque
##ales
##areness
##ima
trends
##aki
surg
plano
absence
unfair
damaged
globe
mexican
cum
cater
fond
ros
wt
anx
##thod
undert
adding
designated
confused
statutory
maintaining
portugal
bic
jazz
ron
##eas
##fl
##ka
ineff
stor
##olis
doz
agenda
diam
actor
remove
##scrib
clever
beneath
transactions
covering
marketing
awareness
##boys
coastline
fallen
initially
acquired
institutions
gathered
sewing
aicpa
95
bare
fel
nit
##zo
##organ
##isely
##aux
guests
remote
presents
reader
medica
campus
southeast
palm
steven
dealers
enterpr
settings
hitler
striking
ninety
shelter
delightful
veterans
trauma
protocols
hars
ly
vin
##fall
##isk
##essions
fright
sees
nose
190
monitor
produc
edition
trials
certification
excurs
ceo
craw
argued
##riptions
swords
lifet
mobile
roughly
false
rapidly
boutiques
basilica
palazzo
dat
zoo
##istent
##usted
##eller
recre
decent
trails
summar
identifying
poorly
subjects
alternatives
##ettes
premium
advocates
involvement
guarantee
explorer
discrimination
dies
horn
rot
##rent
##irable
sail
loy
offset
lasted
childhood
talks
profile
balanced
woods
supervis
hawaii
##thodox
medicaid
37
dup
lion
mild
pays
##va
inher
##rete
stomach
##olitan
##istry
enact
outstanding
exposed
incident
##agraph
disg
indo
##licit
throne
reluct
##lands
flour
retreat
publications
patron
monthly
passion
palaces
armed
inflation
expecting
connected
arrested
ensuring
attacked
fulf
confirm
deficits
rebuilt
cliffs
controversial
##lights
##rest
##mir
##inity
##any
##ican
beard
proph
conj
cha
spoken
##ems
##ache
##aches
##lock
mons
assigned
handled
planet
viewed
significance
checked
speaker
shrines
innovative
maximum
fingers
finger
ls
prest
unh
agents
##agers
intention
carbon
reconst
legit
genu
entit
temporary
statute
solutions
illin
reaching
focuses
deaths
traditionally
##ourage
treasures
lifesty
songs
carriers
constitutional
intelligence
portrait
kirby
42
fox
mun
tied
##aa
##aff
##ih
##vings
inev
##ashing
notre
deserve
##ocaust
##ologist
allowance
stops
promised
holocaust
assessing
jersey
languages
superior
establishment
injury
picturesque
defeated
illinois
oak
wow
wol
##field
anc
seas
comedy
##ighters
##ardo
useless
warning
editors
delhi
deter
badly
##lessly
villa
hopes
travelers
illness
exhibition
extraord
measurement
boris
sticks
wtp
nich
pupp
##ym
##unning
outs
pregn
belt
warn
simon
patri
prototy
solve
arrest
supposedly
##bbed
automated
florence
cryst
cowboys
ghost
convinced
columbus
fountain
cuisine
thursday
az
foster
gulf
hiring
tie
inject
reign
react
shade
shirts
##opher
suits
##oda
##00s
provin
define
letting
economically
behalf
driver
silk
assistant
neglect
broadcast
hiking
photo
injuries
touched
ultimate
rejected
dozens
39
hatch
theories
##erable
hav
##roph
abroad
spo
paragraph
depth
metrop
terminal
##liers
networks
rocky
##onym
historically
customs
interviews
collabor
sympath
atlanta
surface
##quarters
cot
##trol
##makers
stal
preced
score
##erman
meanwhile
moderate
retrof
discusses
wondering
strongly
substit
attempts
garb
journalists
homeland
prospect
resistance
antonio
tasks
99
##gage
##wr
##alle
##ulating
suic
cans
usa
prepar
##load
margin
membership
alike
impressed
reflects
procedure
verd
rolling
fantastic
uncertainty
sauce
nuclear
vend
yield
##oning
##orious
toph
##urred
deals
polish
fled
talent
nights
files
christians
priorities
permitted
treasure
concerts
nonprofit
joseph
franco
satisfaction
viney
topham
dot
fancy
lag
##orous
##isons
##olate
unne
loves
##erves
marvel
legs
subur
drunk
edward
mainland
horror
soldier
greece
crose
responded
boxes
discounts
advertise
occasional
challenging
derived
##rogen
harsh
ari
dal
elev
nh
tort
##ault
##rical
##mand
##xual
##eled
##owing
##amm
sequ
abc
assign
schem
acres
retain
transaction
apolog
ruling
1989
##sylv
displayed
quarterback
bathroom
graduate
macau
academic
carpet
pennsylv
pierre
mathem
sacrifice
granite
prosecut
aerob
nervous
lifetime
datab
loyal
##hem
##ati
