[PAD]
[UNK]
[CLS]
[SEP]
[MASK]
!
"
#
$
%
&
'
(
)
*
+
,
-
.
/
0
1
2
3
4
5
6
7
8
9
:
;
<
=
>
?
@
[
\
]
_
`
a
b
c
d
e
f
g
h
i
j
k
l
m
n
o
p
q
r
s
t
u
v
w
x
y
z
~
¡
£
¤
¦
¨
ª
«
®
°
º
œ
α
β
γ
δ
ε
ζ
η
ι
κ
σ
τ
υ
ω
–
—
’
“
”
‡
…
‰
€
##r
##o
##h
##i
##b
##t
##n
##a
##s
##y
##l
##d
##u
##e
##c
##v
##g
##x
##p
##m
##k
##f
##5
##3
##7
##6
##w
##z
##1
##2
##4
##9
##0
##j
##8
##q
##°
##œ
th
the
##er
##in
##at
##es
##on
##en
##or
##ed
##ou
##an
an
to
##ing
##al
in
of
##ar
##it
##re
and
##as
##is
##ic
##om
##ion
##le
##ent
be
##ll
it
re
##ve
is
that
##ot
##st
##ly
##ow
##ut
you
##et
on
##id
wh
st
##ct
for
##se
##ro
##ad
##ld
##ur
##ay
##ch
was
##ce
##ig
##ver
##ir
he
##ation
we
##im
##am
are
##th
ha
as
##ith
##ter
sh
##ol
##il
they
with
pro
##est
##ess
se
de
##ke
con
##ers
##ment
##ill
##ul
fr
##ere
ne
have
##op
go
ch
not
at
do
##nd
##and
##ould
com
su
##ate
or
##igh
##ant
##ge
##ain
li
##od
ex
but
##pp
kn
##ac
##ies
by
##ist
##us
ye
there
##ab
pr
al
tr
##ust
##ore
##ity
##ort
know
ab
from
##ome
so
##mp
##ost
##if
##ive
##ight
le
##gh
uh
wor
me
this
##out
##ally
##ard
can
##iv
##os
##all
##ie
##ap
##ud
man
##un
en
all
##art
##um
##ect
sp
##our
##ough
pl
his
ma
##el
ar
##au
had
has
one
were
##qu
##ast
like
##end
out
##em
un
pe
lo
about
sa
##one
if
bec
will
cl
##ok
##ous
their
ad
some
##ci
would
more
##ff
te
what
up
##act
##ice
tim
my
##ink
##ish
##ong
##ound
us
##ind
ag
just
##ions
##ib
##ack
##ople
##her
##ated
##ah
##iz
##oun
res
people
comp
gr
ac
them
##ther
##ause
##ure
year
##gr
don
no
work
##orm
##age
##ance
per
get
##ine
who
##ak
when
##ag
because
she
am
##ide
imp
well
##ans
yeah
think
been
exp
##ip
##ings
time
ev
inc
##ich
new
##ount
qu
##ence
cont
off
than
br
##ame
rep
##ations
fe
other
int
##ach
any
did
cr
over
##form
ro
##able
##ays
##ite
##ace
inter
co
##ue
##ck
her
##erv
car
ever
##ire
mu
its
how
dis
tw
##ub
##ult
##ose
most
##itt
##ery
app
##ary
good
##00
##so
##ree
bo
##wn
##ors
bu
po
##ry
part
act
##ber
##ade
your
##ign
could
19
##enc
##own
him
##ild
la
ta
which
dr
many
##reat
##hing
##ep
##uct
pre
##lic
##ia
sc
##lo
##ial
cent
said
##av
acc
##ass
##ical
##ments
ind
##fer
comm
##ens
only
##ied
every
see
af
want
now
##ase
##int
ve
str
gu
##ang
fo
very
##vel
mar
need
lot
##pt
serv
two
des
rec
right
##ory
may
into
##ents
##ates
##ond
bet
really
##ile
fir
##ition
should
also
und
these
##omet
##ian
years
sm
here
much
after
our
then
att
somet
col
##ty
look
thr
##og
fin
progr
under
um
mo
##ord
##lect
mon
even
##ail
##iss
##ving
cons
##are
##ick
##ved
back
leg
where
##cess
##ices
prob
dif
##ict
though
got
##ater
inv
##ities
going
##amp
program
sy
old
##les
##eral
dec
too
long
make
##cial
inform
way
sec
##ious
fu
rel
ass
first
spe
##vern
par
high
made
op
##sel
jo
##alk
prov
##its
pres
##ual
reg
hel
##oth
eff
cost
down
##ons
##ning
##ft
##ert
does
information
pol
##ys
##iew
govern
through
##land
rem
##iver
##fore
##ath
help
##mm
great
##gan
bl
##we
state
##ces
sch
##ful
##fe
##ouse
##lud
law
pub
those
take
used
##ational
##erm
requ
##ular
##ury
something
##ible
supp
##ily
##ting
##other
##way
count
##ific
stud
##urn
fl
bus
still
##ise
bel
things
before
litt
##ks
little
##ra
gen
##ject
##ually
hu
add
say
differ
report
oh
##lem
cour
##ility
##ange
use
##ather
##stem
call
pers
##ating
fam
##get
##als
wr
find
system
##ative
sub
includ
being
own
war
legal
emp
ll
government
mean
id
##ited
##uring
ke
##ards
ob
##atch
dep
art
sl
vis
##ress
city
##te
house
sur
##orn
such
##ven
didn
day
##pe
bas
show
prod
##ave
##ures
again
##thing
##olog
hand
##mb
small
##ix
cap
##eric
##oss
lar
##cr
around
##con
place
interest
pay
plan
last
world
##ics
##aint
##oney
child
fed
real
americ
agenc
##ues
ph
ret
##ered
##ene
pop
end
stand
##uc
##lish
el
199
inst
val
ed
found
mod
##oup
kind
##ug
import
never
loc
public
##ants
red
##ways
##led
home
##air
set
##cent
money
##ying
organ
##ool
##ives
ca
ear
while
min
est
three
##self
disc
resp
start
town
##ists
both
big
person
problem
tak
ins
##ars
ho
##ower
##ves
##ets
stre
num
##ident
federal
happ
organiz
##day
mak
century
ru
rest
same
best
school
might
ent
rev
read
better
##sc
##ew
##red
seem
always
cor
sin
##ss
far
char
thought
appro
different
sou
sim
##ably
##ood
##ri
nor
thing
del
services
prop
dem
build
##ek
hard
##ork
##az
belie
##ines
def
##conom
play
##iness
form
life
perform
come
let
##osed
talk
each
fund
met
##ren
few
put
##be
econom
point
mark
##xt
care
important
##llow
case
med
contro
during
effect
lead
eng
##chn
hum
##velop
fact
##ear
##ution
aud
av
##ern
##ently
sure
eas
##ody
another
post
national
##ains
less
##ween
between
ask
wom
##istr
must
##io
tour
cle
incre
bar
em
book
det
sk
mil
develop
chang
##tern
service
cur
result
##urch
product
techn
compan
iss
##loy
##ters
since
aut
##ized
##ids
percent
##hip
##ts
##ten
##ism
##ior
business
partic
sign
##res
##ier
manage
country
bene
##ced
adv
##ided
went
##der
air
tax
hist
watch
consid
##gest
ser
feel
##co
ext
fun
contr
muse
##ata
visit
design
sever
##lly
##ize
conc
aff
island
keep
##irect
##ash
##ired
##cept
##pl
head
##ilt
commun
che
children
four
comple
##cc
benef
##ason
sit
why
number
ty
##ins
##ital
news
times
temp
view
turn
adm
##ural
away
run
##ward
area
near
quest
process
##uss
finan
##ao
large
yes
trans
sw
##alth
room
once
##oy
employ
sen
direct
prof
guess
hot
management
states
rule
##ron
##ention
##ever
##ically
water
200
##rew
week
control
mill
##ute
miss
##ling
open
mr
cover
account
invest
##ale
##que
data
maj
ide
follow
##ross
##ici
##ted
cert
month
conf
##ained
##orts
jon
pat
men
##ends
##aw
##ank
anal
000
prot
bad
tell
done
left
programs
mail
museum
several
poss
##ared
##ined
major
##err
##ds
const
president
##ph
next
##gress
test
##ger
##til
##ected
bud
anything
hour
mus
probably
##ides
impro
five
##ality
##ble
expl
white
intern
##ee
##ately
without
pret
##ec
south
camp
fri
group
tra
elect
##ought
job
doing
enough
da
##stand
gl
clint
secur
polit
took
night
allow
##ology
gao
ann
kids
port
called
##ric
cre
youn
enj
support
church
north
land
built
office
clinton
##ats
##man
##read
along
var
grow
nat
walk
pass
class
wanted
pal
crit
##ock
##ley
family
ris
doesn
shop
give
opp
stu
##ages
beh
fac
came
20
american
##augh
require
equ
congress
often
mor
##iven
able
audit
review
##ton
##aining
priv
##ner
power
today
##ness
##body
suc
contin
term
top
stat
change
certain
##ral
inf
##ees
until
collect
against
name
18
main
##ction
pract
##wh
##ases
popular
rece
market
financial
ste
##ote
oper
happen
##ision
##iet
pretty
agencies
##ime
known
lsc
street
##ruct
##br
sal
summ
second
polic
mat
tre
ra
##aper
enjoy
##enn
security
arch
##ark
##side
cond
##ived
however
seen
##els
##erg
agency
believe
gener
##ames
auth
##ified
center
tu
level
performance
ap
##less
past
##imes
costs
understand
##lement
course
ref
exper
##ensive
general
trad
local
##ering
bill
ok
curr
project
examp
ce
order
##most
avail
huh
repres
meet
cal
mov
##ey
six
##ither
##ivid
provide
activ
##hn
live
bro
##per
##old
##ency
##oc
getting
hal
having
##ead
##eng
##ised
vol
##ether
invol
else
##aring
try
united
everything
women
##ump
analys
stop
##ember
deliver
##arr
john
doll
almost
story
terr
##aut
##pped
quite
low
side
free
gre
black
depart
success
##ased
building
##aph
wa
capital
study
arm
problems
arr
saving
cut
##ument
spec
days
##gin
lim
asked
10
##ability
##ract
##ending
offic
list
##uck
win
##li
actually
exec
ey
estim
##ional
reason
health
making
million
##ateg
food
orig
##ission
young
ago
least
##idd
available
budget
cult
thir
cho
##ned
##ivers
san
##ured
vill
##ients
##lf
based
##ances
fig
mag
hop
##ulation
saw
among
someone
addition
history
##used
maybe
sta
rul
##up
represent
road
occ
told
##iting
beach
individ
##aster
lawy
says
looked
indust
prom
pie
rather
clear
half
experi
gard
whether
isn
##iving
pos
whole
jap
wasn
comput
won
sug
jud
15
tupp
origin
wind
makes
japan
beaut
stay
tuppence
exc
##ife
individual
##ient
fut
##ench
nice
aw
site
social
company
resear
research
distr
hous
##ored
##ources
usually
deal
full
##ik
##aces
har
##uation
##ont
discuss
pur
including
wall
analysis
##emp
##ina
working
needs
bre
##hod
##ended
##ibility
organizations
##vent
##pect
##ences
author
non
pa
changes
bit
oth
execut
##idence
love
others
nothing
lear
tomm
short
idea
mount
respons
##ison
trying
##lished
##ret
present
true
diff
court
tommy
ident
##ination
wond
within
sun
either
##ories
needed
benefits
##ians
##omm
sometimes
fish
##sh
##ield
##aim
question
blo
manag
tow
west
york
fil
ir
##rist
okay
yet
interesting
es
later
##bo
king
##icult
enter
hold
sing
brit
future
##anc
remember
due
ple
using
early
heard
issues
become
seems
tot
sound
sol
##acy
technology
17
rom
income
everyone
estab
##ane
admin
access
##att
amount
accord
method
signific
across
##ully
##utes
eg
##ged
example
step
results
##line
agree
difficult
kill
##pr
stuff
possible
imm
##ries
bur
buy
travel
rate
looking
##na
private
##over
toget
env
tex
##rop
meas
together
##ru
##ell
##ense
##aking
postal
coup
final
lab
##par
##atic
systems
standards
face
jew
##by
colle
hill
address
fav
eu
given
##lev
hor
##iod
quality
poor
include
reach
park
team
regul
##ndred
attract
hundred
sat
temple
##iding
educ
outside
special
ant
alth
close
miles
christ
sty
although
period
economic
profess
##work
consider
pot
##aps
value
coun
ten
gir
##hold
##ister
12
particular
##cient
civ
worth
east
started
improve
##soci
hours
##ief
months
mom
drug
effective
##itions
taken
suggest
##vers
##ilar
##ued
door
typ
significant
ep
descr
death
##ape
im
pu
associ
##ortun
corp
##cip
prin
mind
##ety
vi
##elt
enc
paper
##0s
init
dom
move
modern
policy
record
talking
beautif
bal
dest
##ows
##ica
##ott
arg
coast
ge
##gle
staff
16
compet
foc
dist
##ials
euro
fall
human
particip
drew
flo
mer
##enty
dollars
computer
##iron
administr
##cially
environ
##sw
##fully
daan
sent
hus
##vious
##ished
net
##ese
claim
behind
department
##uce
french
##ried
held
simp
community
##ming
##ising
himself
shows
##unch
rock
implement
risk
thous
thousand
paint
tur
##graph
protect
model
tradition
##mbers
infl
##itive
civil
lost
squ
##ator
couldn
knew
return
line
repub
easy
summer
age
members
workers
woman
##ready
already
complete
according
girl
assist
planning
similar
current
##ove
ones
determ
companies
friend
##ocr
europe
sn
##atory
approach
movie
necess
political
sell
deb
##ush
grand
required
##ms
strateg
environment
fail
areas
exist
cases
republic
fine
eval
music
became
##itting
development
##selves
organization
##rin
abs
dou
mem
##band
##ilities
light
demand
fre
##aur
##ume
foot
famous
specific
eight
rich
personal
##yn
teach
favor
ele
rout
sho
ground
pick
##ov
##hol
begin
object
##ature
##aves
couple
hun
studies
total
##omes
fight
accept
works
felt
employees
##where
sort
justice
##ening
answ
fort
fore
requirements
activities
matter
texas
increase
##ius
##imin
cred
british
beautiful
husband
gave
##bs
##ama
bring
rules
alco
grant
##orp
quick
##ogn
college
ach
cast
sil
interv
##ball
parents
##amed
doc
subject
likely
##itch
sus
soon
obs
resources
contrib
##rect
self
##ourn
impact
expect
scre
concern
delivery
lit
##aft
mult
##ny
wouldn
##itted
river
press
alcohol
considered
wonder
haven
dev
strong
commission
##ony
cann
##ining
experience
##ake
takes
lou
##me
##fact
wife
##thern
collection
began
coming
ill
nation
hear
provided
##ium
taking
achie
##irc
assess
##uced
industry
##tion
cop
fur
recogn
charact
type
mur
proper
ital
##ges
##ify
turned
vict
espe
##son
##bor
poll
aid
##atives
comes
famil
price
america
11
##ypt
univers
restaur
especially
mal
related
fle
friends
sea
leave
minutes
histor
##yc
##ential
construct
treat
##ators
##asing
themselves
milit
adrin
drink
198
reports
eyes
##ival
common
wood
##ened
sir
words
longer
##oke
##ique
regard
30
lang
brought
14
maint
##omp
single
describ
cust
goes
instead
section
journ
saint
repl
du
tv
sect
soci
involved
##urs
above
means
check
##ipp
table
##ots
entire
refer
questions
##tain
standard
emerg
##pri
worked
board
##iddle
wrong
living
expensive
figure
viol
gold
offer
hur
funding
sense
##yal
##use
sold
bir
event
appropri
##app
circ
attorn
mad
central
labor
ii
dead
village
middle
houses
changed
base
bed
lawyers
##umb
##isions
contract
received
jul
opt
late
recent
reporting
##ze
pen
pain
##ann
sex
france
exact
hall
##istic
key
morning
sett
shr
evidence
displ
recomm
detail
issue
heart
##uses
english
##bert
cath
fif
democr
economy
lik
relig
hope
archit
executive
ren
chall
places
lake
god
opportun
happened
roman
norm
ancient
##ols
visitors
item
chap
gets
proposed
vo
##ledge
surr
mrs
style
influ
foreign
##aged
twenty
##epend
happy
##amb
ens
architect
ways
front
huge
100
field
mot
struct
further
div
washing
neg
jer
##aced
education
fa
jun
anim
##arch
weather
conn
tried
cannot
applic
comments
suff
perh
poir
military
vir
##aign
population
poirot
campaign
langu
perhaps
fair
appear
prep
independ
trust
leaders
##ping
surpr
##den
##lin
##let
##ires
purp
##hib
##ler
investment
##urance
trade
moment
batt
scr
relations
higher
corpor
exce
hands
hon
##reme
plans
attack
pict
neigh
party
13
mass
prefer
egypt
unf
expected
##ental
trou
washington
er
reform
##ization
heav
##ores
##isc
manu
created
##osing
palace
initi
bon
fire
avo
mother
##ky
decision
custom
artic
inside
wide
##val
plant
acqu
##ips
green
##ring
books
following
rid
speak
buildings
gall
##airs
piece
square
son
knowledge
saying
defin
manufact
district
lower
pan
aren
gone
spend
bush
hit
##ai
express
break
epa
##erous
attention
designed
chines
royal
anyone
##aught
seven
##akes
drive
##iqu
##itor
unc
##ept
color
secret
julius
##he
select
recently
countries
chinese
mos
third
original
creat
spent
funds
effici
groups
natural
practices
character
dam
lived
boy
vot
separ
situation
##isl
##ification
mess
##ites
##lled
eat
##lus
super
necessary
##ades
serious
various
game
james
itself
training
surround
sav
request
paid
##ograph
##med
comb
household
range
desp
culture
##estern
valley
##olution
span
##issions
hotel
shops
exam
appe
pack
dog
##rupt
sand
##hood
deep
princip
spending
stone
action
scen
##set
whate
tourist
apart
whatever
bank
##ims
2000
rates
geor
cat
##fect
legisl
supposed
ju
##ource
chance
moved
##iction
students
engine
included
prim
finally
older
views
focus
km
lad
stock
##ronic
gun
ti
taxes
lack
##ike
trees
##ios
ord
located
broad
germ
##eks
##eter
save
committ
retire
clean
seemed
##ded
##ift
isra
complex
auditors
israel
cook
conduct
traditional
crow
streets
##ouch
exactly
##bur
prior
decided
narr
ingle
tourists
mary
##iled
prices
##osp
indian
reported
corn
lat
##idents
lives
guy
correct
society
ingleth
dav
wish
##und
bey
inglethorp
##go
peace
##ped
annual
mater
##of
soft
subst
cold
western
##zz
aver
card
##aries
##ams
##itten
draw
mich
reven
##uries
efforts
##apers
americans
covered
impress
thinking
##uction
##uary
##igr
wants
laws
increased
benefit
upon
##orce
conv
altern
body
emb
commer
provides
growth
position
link
notice
scul
cause
##ises
internet
vers
season
##hic
communic
cele
sculpt
died
tomb
weeks
doct
word
toward
adj
##izing
quar
garden
phys
quickly
di
throughout
islands
celebr
##utions
fell
medic
tend
##gn
china
learn
assistance
relationship
##arily
instit
additional
japanese
credit
university
den
##port
inn
##ude
indic
language
deg
##ights
discover
voice
##illed
favorite
russ
sant
##xim
##ength
establish
beyond
swe
share
largest
former
document
##oming
station
##umn
lots
##ological
##ware
reflect
established
ran
##xic
clients
page
remains
international
##ole
feat
dress
respect
production
critical
wild
##str
##ipment
insurance
increasing
evalu
ah
size
except
pred
developed
tar
mach
led
sle
father
##rod
demon
din
force
crime
role
helped
gree
hol
perfect
25
attemp
imag
bab
##inc
includes
anyway
allowed
dall
ven
farm
kept
##oon
web
bay
fem
round
##bers
##sy
wealth
proced
gardens
50
##oint
everybody
slow
cas
fix
vote
##bed
##een
##ging
##asons
battle
ban
##orr
clim
generally
pleas
dor
##uth
emissions
shopping
continue
observ
wrote
written
interested
despite
##estic
myself
entities
multip
dallas
named
basis
phil
doub
mand
exhib
published
affect
horse
items
sup
growing
##vert
products
equipment
hosp
previous
officials
sad
events
glass
purch
consist
answer
emergency
cross
fash
rad
threat
##room
mid
##oph
looks
cand
excell
mist
types
dark
##ne
paris
flow
afford
patients
##ana
##lling
weap
train
region
construction
cit
brown
steps
197
decl
volume
recommend
rights
below
internal
families
comment
trip
goals
feet
sites
practice
surv
accounting
fast
##uments
##iff
pieces
running
choice
senior
nature
operations
lawyer
letter
lu
mart
##uted
fres
##ino
hotels
appropriate
##roy
opin
difference
##iques
60
gate
agre
reading
louis
average
rain
##cise
bye
mostly
slate
investig
bought
##tered
whose
##iety
movies
neighbor
##egr
sched
##to
##oses
watching
effort
hy
install
meeting
encour
retirement
serve
trouble
spanish
ur
##aded
##ode
blue
levels
tit
spot
phot
schools
authority
blood
ded
##ceed
prison
regular
terms
##ask
##leg
medical
measure
fashion
dang
##wide
ali
effects
journal
carry
nearly
individuals
##iest
##enced
floor
administration
excellent
gar
##ables
leading
beaches
1996
winter
dut
sens
##ivity
sports
##aving
sky
je
mis
smaller
mission
##ob
##erry
##iling
offers
added
##oring
space
club
appar
occur
committee
rap
##ex
cro
##onse
##ustr
earth
killed
display
particularly
somebody
entr
certainly
regulatory
ensure
##erve
extreme
restaurants
cathed
tom
cloth
mort
##sequ
##icians
thirty
german
40
ball
alone
##astic
goods
actions
wait
fly
##more
savings
david
mic
beat
integr
accomp
guid
managers
achieve
host
master
stories
##usal
##yr
response
sounds
##edi
##olf
disp
frequ
challeng
##oud
consum
reduce
easily
##aughter
article
##reci
connect
ess
spl
accur
##iced
reasons
seek
equal
successful
path
##ha
restr
playing
##idge
army
bes
luck
##asc
##ches
##like
##ax
##ills
believed
rooms
##ban
subm
cru
quiet
sci
##ster
reli
simply
conserv
kal
parts
196
tower
##come
##ille
safe
policies
limited
jewish
jes
inj
##ulf
track
larger
liber
providing
payments
respond
passed
judge
fisc
ver
##unt
decor
southern
dro
##eed
expert
points
treas
pil
##lls
confer
requires
magn
column
2001
destroy
cities
dave
star
revenue
india
official
estimates
responsible
film
drugs
##mer
useful
media
director
walls
block
beginning
liter
multiple
cam
##ung
box
centuries
flex
fiscal
glo
pros
perm
payment
religious
castle
vac
starting
magaz
agreed
mention
stood
expand
##back
##ls
##ara
knows
cars
critics
date
adop
estimate
mix
coll
served
obvious
george
decisions
nearby
sword
methods
potential
participants
grad
interview
##anced
##iring
##ornia
budd
mountains
commercial
adjust
##iny
##ively
activity
##omb
sud
truth
spain
##ously
completely
narrow
ib
sac
forward
ability
towards
eventually
structure
catch
##atively
ready
esc
##ones
yourself
variety
christian
gives
##lier
enjoyed
##usalem
giving
pun
ut
##cil
##change
guide
greater
paying
constant
calif
jerusalem
hong
##uit
distrib
republicans
independent
spect
contains
empire
##teen
discount
series
receive
500
##lt
beg
wear
county
phone
factors
property
jama
advert
setting
demonstr
citiz
kong
spir
eastern
swim
simple
##ma
##ira
##ops
chair
exer
compl
qual
coff
capt
newsp
raised
immedi
opportunity
lay
therefore
##itely
constit
domestic
purpose
ast
rural
spoke
extra
behav
eye
thousands
hans
touch
stra
politics
oppos
avoid
cash
las
##aud
propos
aug
caught
source
##aters
analy
billion
ft
tast
jobs
none
##ners
##fort
shar
search
telev
##icted
basic
electric
entrance
gas
tick
ange
followed
associated
environmental
##vey
unless
appl
profit
occas
wonderful
animals
gi
##ett
appreci
murder
candid
##ially
meant
flor
function
professional
quarter
cathedral
prem
influence
##orrow
##ented
autom
watched
create
fishing
categ
fest
spring
tele
##ground
subs
regulations
european
route
liked
ign
omb
##ience
convers
note
england
easier
band
hang
kid
store
stopped
choose
##eys
reb
oldest
aware
assessment
attorney
eth
##iar
##put
thus
##itz
##roll
##ibly
amaz
warm
sector
micro
##ipped
##wise
##ado
meaning
strategic
bott
##wood
closed
ended
1999
biggest
born
oil
##olute
apply
affected
reached
paintings
hospital
compared
statements
charge
hanson
talked
science
hair
hurt
separate
##key
clock
funny
stores
opened
mountain
pet
##iers
##cl
resort
writ
played
walking
currently
dub
##oted
##ada
progress
sales
representation
debt
treatment
california
nine
##antage
##ague
discussed
features
##ena
seeing
alternative
##ps
shot
statement
northern
majority
association
sudden
##uing
##edy
##chan
towns
existing
greek
games
mine
arab
willing
brother
craft
1998
21
##nam
adult
prevent
directly
continued
loss
rail
##gas
##ula
numbers
race
originally
intervention
die
wine
rele
daily
positive
##can
unit
lose
assum
values
location
electronic
##ergy
claims
heavy
sleep
##ji
##rof
plants
clos
##action
thanks
married
##ucing
ideas
council
prepared
bono
procedures
opinion
bord
et
##itude
brief
assets
absolute
television
jan
match
tro
##ule
##izes
nobody
contact
crimin
caused
waiting
estimated
violence
shall
colon
target
fol
sight
anymore
emper
italian
od
worse
engage
##umption
corner
coffee
##bb
##lam
text
cultural
send
##force
compar
insp
testing
risks
counsel
breat
grew
sources
##kn
boat
evening
italy
homes
##ael
##ope
trail
uses
remain
musl
attorneys
frank
##ffic
draft
strange
minor
entertain
protection
hind
jack
##mon
theater
##ander
lew
august
##inating
forced
residents
entity
businesses
cheap
dinner
weak
offered
accounts
powerful
architecture
tal
##inated
grass
thank
terrible
listen
##ifying
##aped
earlier
##ests
introd
symb
definitely
tough
##cing
welf
temples
controls
martin
welfare
parties
capac
anti
clothes
conference
##ream
##ibilities
amb
repe
cool
disapp
1997
minim
minute
defense
conditions
immigr
horr
fifty
daughter
via
##oes
##iday
##ipt
interior
guard
foundation
conclus
learned
ben
lunch
shown
##cked
spee
manufacturing
pow
##inct
##istics
actual
holy
limit
determine
evaluation
described
fresh
neighborhood
papers
samp
##ca
##eth
alt
march
moving
objectives
july
##outh
standing
routes
err
software
citizens
tall
ult
##onna
##ulated
uns
##iveness
member
doubt
##oles
intended
robert
vegas
calls
arts
16th
painted
nap
rare
19th
performed
vari
cyn
sund
##week
student
transport
employee
susp
regarding
doctor
bag
chief
##antic
bridge
overall
firm
##raid
landsc
critic
acquis
sor
##men
##reg
##iles
##azz
##ycle
picture
cav
##ney
theory
##eless
unique
feeling
condition
identify
fasc
psy
##rial
noted
units
remark
implementation
baby
extremely
thorn
abuse
##unk
bron
greatest
writing
revolution
profession
destroyed
psych
stick
exchange
slight
newsweek
housing
identified
failed
grantees
eld
gore
sitting
unlike
surpl
cub
ride
wer
commit
##centr
situ
camping
traffic
examples
suggested
behavior
bow
vide
afraid
pictures
jesus
burn
los
client
leader
processes
susan
dedic
dad
rac
##irt
saf
strug
executives
restaurant
historical
##burgh
nin
rent
starr
comfort
dram
projects
##nes
union
willi
guys
helps
##aza
merc
mall
wed
##ette
libr
##uctions
busy
write
earn
advoc
industrial
clearly
pollution
virgin
dan
monument
pattern
statue
generation
degree
doro
weren
cow
##ae
##light
##wor
##ventions
normal
emperor
award
gent
dod
spread
novel
completed
dollar
please
hills
forg
energy
purs
records
straight
capacity
ham
jane
rise
##los
concentr
thinks
suppose
republican
efficient
gro
##ray
##da
goal
18th
network
exercise
fat
yard
##zen
relev
incent
kinds
bomb
mexic
log
##riage
hundreds
initial
material
bi
cards
##gu
##ago
rob
##ologies
golden
immediately
gather
##inary
islam
##unte
otherwise
mont
shoot
birth
ahead
understanding
volunte
22
mir
brand
shouldn
findings
importance
window
imagine
radio
rand
##ba
print
trib
##oking
feed
1995
advantage
screening
june
primary
##oh
weight
defe
leaving
finished
reduced
explain
concerned
golf
tools
lie
offices
centre
career
##icient
##liance
laugh
##eria
worry
register
snow
appeal
lady
drop
##asts
fear
desert
fully
depend
produce
conflic
michael
rue
##pa
imposs
boil
finance
artists
senate
occup
painting
push
##mber
indeed
police
survey
rulem
lux
il
##af
##dom
##eries
##reh
##lex
trial
peak
speaking
##ancy
corporate
nod
##iel
interp
##erved
pool
afric
relax
cafe
responsibility
fortun
drinking
absolutely
entertainment
speech
mac
vand
##abor
invent
depends
election
201
gallery
acquisition
oct
##adem
wel
sevent
hadn
rose
produced
changing
advice
manager
satis
chapter
magazine
jamaica
bath
##ald
##pper
compliance
decide
freed
challenges
ultim
##rid
##west
##otic
shel
##cious
interventions
##soft
194
keeping
##pective
recommendations
microsoft
filled
jury
##ij
##iro
##ieval
##gry
highest
differences
reduction
status
matters
discussion
legislation
dangerous
bul
sam
##ctions
funded
skills
accountability
17th
version
pleasant
spectac
##50
##olic
sem
##using
mel
courts
congressional
recognized
households
substant
weapons
amp
reve
##apes
helping
realize
markets
calc
football
breath
rulemaking
24
names
tree
forces
##agon
highly
players
fighting
opportunities
##has
##tery
handle
schedule
relevant
iron
scient
ton
concept
##ulous
franc
buying
guar
gothic
showed
competition
chapel
machine
impossible
gift
##ril
##uous
##etic
##ulate
medieval
merch
selling
surrounding
van
##lig
twice
##berg
supply
flat
presented
determined
ira
lif
##aging
stret
younger
double
leadership
flexibility
task
##mos
stew
waste
##ested
tri
grown
##akers
veget
developing
technical
mosque
mortality
fan
rang
##erly
##ender
strength
finding
planned
retail
stands
coverage
raise
windows
girls
surprised
dublin
gh
gd
tun
vice
##house
aspect
##ension
editor
transfer
measures
scenar
song
##oo
frame
suit
unp
somewhere
imper
vehic
happens
confir
portug
figures
conducted
medicare
amazing
library
kar
hell
##ession
lies
enem
aftern
mob
elig
organizational
jews
concerns
familiar
guarant
##ein
##ament
worried
##endish
boys
command
##enses
reviews
counter
contributions
massive
female
gradu
cup
dish
##anch
##oln
scand
argument
cart
hors
##eness
outc
marble
numerous
tests
addressed
length
compr
decre
edin
restored
asking
involve
##ancing
##incoln
swimming
fit
lincoln
rough
vast
##inal
leads
returned
options
virt
mcc
forth
##sec
loved
##cks
driving
moral
territ
santa
cavendish
edinburgh
gain
ou
##iy
##ller
saved
founded
conversation
aven
##uk
seat
compon
maintain
details
angeles
gdp
cio
wit
##mas
##othing
tea
quant
firms
throw
approxim
techniques
explained
arrived
illustr
mile
online
putting
##place
statues
lines
##do
##gs
fraud
becoming
resident
gotten
holly
skin
improved
requirement
april
cuts
##iking
shrine
honor
apartment
engineering
spirit
era
gay
lic
rub
##bal
##ville
boats
scene
decline
elements
democrats
guidance
opposite
mere
##ini
inqu
resorts
believes
accepted
unfortun
message
magnific
horses
consequ
users
compreh
fellow
##ictions
employment
facilities
steel
circum
rena
faith
dedicated
##gd
##era
##rel
##oti
chem
proud
owner
owners
audits
brok
satur
climb
title
bare
##equ
dece
##oked
scott
marriage
fired
issued
announ
movement
distance
row
renn
##ii
shad
ship
noticed
recon
consult
2002
stake
eleg
challen
discovered
vacation
bell
carter
bob
topic
apparently
aim
bound
##erate
##orters
stated
forget
##adel
heat
enh
contemp
roof
carved
##issance
inspect
explan
walked
malays
impressive
flowers
sunday
der
gal
hen
sar
##orary
##ched
proceed
pra
##ortion
##ishing
schol
models
advis
##insky
##eyer
irs
holding
damage
consistent
illeg
pic
##lers
##ita
##ulations
flight
fourth
##what
teams
improvement
victor
freedom
renaissance
rennie
300
bat
nurs
##bon
stage
##aming
haw
pray
symp
defend
forms
pointed
telling
negative
dropped
vandem
cab
furn
mond
##ham
##ta
##arian
meat
##iza
queen
contain
coal
interests
productivity
irish
principles
afternoon
lakes
neat
chic
tru
monaster
##ront
##holders
physical
vandemeyer
tenn
##bit
##iption
herself
lawn
letters
tours
hunt
attempt
native
rome
##itors
hearing
sept
orient
somewhat
burden
sections
corporation
william
male
pia
waters
##iders
webs
neither
manner
maxim
upset
academ
##encies
extent
fairly
russian
fill
lond
tiny
##ding
##gment
##ares
##iture
193
monitor
relatively
remained
weekend
learning
likes
negoti
application
kent
mouth
wal
recip
conver
owned
factor
facility
broke
##idden
attractions
picked
silver
constitution
suddenly
piazz
london
##tom
##ford
##ston
##ida
plenty
governor
entered
documents
screen
surrounded
january
dyn
ice
##east
##amble
fee
cry
carri
typically
innov
pyr
centers
madeira
runs
millions
glad
attractive
balance
nodded
bou
gamb
nav
##ses
##stein
speed
visited
conclud
customers
selection
kenn
mc
##hab
##ero
##oned
##thia
placed
amend
overs
howard
governments
slaves
instance
agreement
friendly
hyp
fing
##rence
##hi
##ais
##orter
perman
##well
##while
responsibilities
honest
fixed
alex
fal
soldiers
photograph
punish
subsid
border
bure
fab
hate
pound
##elve
loan
click
hero
192
museums
salt
roads
memor
penal
crowd
buddh
occasion
cynthia
fascinating
hollywood
##lies
##mark
##itation
whom
storm
chann
##ght
mechan
clothing
agric
scot
belong
terror
implemented
electricity
spectacular
circumst
challenge
agricult
iv
tired
ash
##cket
attend
monica
reductions
approved
managed
detailed
uncert
slowly
besides
ol
sister
##pie
##ider
smart
##raft
defic
covers
protest
reasonable
newspaper
safety
27
fgd
##com
##iment
bright
carp
accident
emphas
##ardship
basically
technologies
archae
strategy
copy
secretary
hat
content
reput
obtain
advent
##ashed
creating
materials
communication
adopted
ought
approximately
sather
##pm
carried
dism
195
scale
recover
reviewed
splend
experts
sorry
slightly
bod
jump
rat
##nic
##zar
##ils
##iously
presence
purchase
incentives
bureau
aust
enforce
hasn
pover
guil
magnificent
##nel
##aled
##icip
conven
prime
##igned
reality
patient
explore
magic
christmas
historic
egyptian
31
##atically
reag
loans
resist
fees
anywhere
active
reducing
beauty
replace
sexual
orders
aliens
dry
gonna
hers
kitch
losing
sult
##ris
whe
shock
##umes
adequ
oblig
depos
1990
succeed
operating
kingdom
accurate
proposal
sharp
poverty
bars
pages
##gen
##apt
plus
##izz
brad
cris
bask
advance
debate
motiv
mentioned
applied
hindu
ber
dance
##wards
wearing
leather
offering
##others
##iverse
publish
direction
computers
strategies
appeared
taste
symbol
outcomes
truly
##off
onto
clin
##aked
contained
##onds
join
extensive
communities
churches
specifically
eighty
initiatives
encourage
criminal
ny
##time
thick
##eration
craz
smiled
decade
artist
edge
charles
effectively
teacher
appreciate
kentuck
2a
##head
shut
becomes
intel
poison
partners
elimin
belief
processing
focused
religion
ibiza
illegal
mas
ine
##ads
launch
##ifications
wars
meetings
departments
richard
pressure
recognize
guns
weapon
decorated
advertising
elderly
witness
guilty
pm
##awn
##ari
forest
##irts
league
relief
vision
bigger
criteria
experienced
napole
piazza
wil
##hs
shape
decades
provisions
barg
portion
stayed
harbor
absor
##orpor
displays
cable
cave
fought
os
delic
notes
worksh
instruct
valu
carefully
emot
transform
privacy
villages
baseball
customer
##heim
obviously
video
elegant
code
eating
hom
sick
##tions
sharing
gods
alive
worst
twelve
fool
consumption
effectiveness
audience
functions
package
essential
distribution
september
90
fant
ky
nom
ox
oce
penn
##ties
##aling
atl
dole
sov
crimes
syn
readers
solution
entirely
animal
initiative
sculpture
supreme
duty
divers
##uff
delight
cutting
limits
harm
##ellig
wooden
democratic
previously
urban
rapid
festival
closer
surpluses
cere
alloc
cliff
expend
moon
background
statewide
valid
formal
##phere
supported
shook
independence
reliability
eligible
80
rum
va
##ober
##hen
##alia
nep
complic
incorpor
##anged
lawrence
obt
realized
increases
politicians
happening
option
selected
mistake
accomplish
random
october
dust
hide
ped
conqu
champ
leaves
fewer
careful
classical
continues
totally
purposes
landscape
##craft
spr
teen
grants
parks
delay
defined
concert
opening
sugar
medicine
russia
##rofit
monday
napoleon
26
pier
tent
vren
##oto
##owned
laid
strict
helpful
phase
ends
vrenna
bother
gates
##enance
##lying
##illy
plaza
remo
missed
confidence
allows
collections
pulled
dogs
scenes
columns
assumed
scotland
dig
hire
ot
##han
intellig
possibility
cell
motor
predict
bottom
comfortable
comprehensive
70
ath
gross
sides
##iance
##ship
##gar
##see
aside
##acing
##alls
crus
overlo
detect
amounts
describes
primarily
seeking
lewinsky
ocean
pill
vary
hey
##aker
carol
assume
percentage
fifteen
fields
adults
bau
crop
##hal
##lets
##abilities
resource
dise
remind
stuck
britain
improvements
administrative
expectations
replaced
sufficient
schedul
liberal
sacr
iraq
upper
##ext
shore
unus
severe
professor
journey
philos
frequently
troops
scholars
nix
##water
##ateau
aband
##acts
brill
diss
scared
columb
1994
organized
controvers
stup
replied
##ipping
appears
convin
lucky
forgot
unfortunately
wing
##for
##okes
disag
underst
subsequ
##crib
skies
supporting
facade
arms
representatives
jewel
destination
ridic
efficiency
institute
consumer
chicago
reputation
sultan
ec
nic
rh
riding
angry
##ivals
plain
unable
acid
coord
everywhere
fuel
calling
depict
surf
showing
possibly
crafts
interpret
scandal
crisis
bunch
##how
##fa
anse
##itan
atmos
##usion
##actions
committed
visiting
turns
presidential
explor
escape
virginia
tonight
imperial
crazy
##urb
##terday
chronic
##pping
myst
stress
smoke
joined
hardly
cheaper
yesterday
directors
protected
buried
observed
conservative
teleph
broken
circumstances
atmosphere
##iation
##icial
youth
##elines
ages
##agas
expos
discr
jones
holds
attraction
grounds
fortress
superv
alien
tomorrow
franklin
pyram
permanent
mut
tel
##ef
##zant
##inent
##entially
##ading
byzant
spons
upd
compens
recyc
tourism
contrast
15th
catholic
##going
treasury
rebu
400
##orough
stars
gray
crack
append
smith
courty
approval
facing
trading
paul
doctors
dramatic
valuable
nixon
23
soph
##tr
##lines
##ico
##iber
regional
transition
ideal
arrange
pull
flood
victims
bird
penins
submitted
pilgr
ba
bust
cig
dial
math
##rig
##ox
##rees
forty
##imp
dozen
plat
clo
anybody
regulation
raising
domin
competitive
birds
surprising
expression
connection
tickets
folks
basket
intellect
dream
sulf
taught
##sey
##erson
trend
cried
highway
investments
auditor
madrid
manufactur
expressed
literature
minimum
cu
ire
nations
##fo
##otes
stations
friday
mans
sport
##aken
depress
artif
testim
##employ
distinct
necessarily
banks
sensitive
released
conflict
ultimately
fro
fda
ga
gang
kick
sale
##ingu
##uts
chose
poland
facts
significantly
image
shoes
litig
surprise
voters
##exp
stewardship
peninsula
jim
tub
##rib
thorough
reject
##ilit
alf
plays
coop
coach
bull
smell
assert
awful
loud
prepare
ordered
##know
saturday
punishment
uncertain
33
cous
eag
kir
viet
ww
##dy
##antly
pride
##outs
appoint
assump
##ologists
represented
global
muslim
territory
oversight
assumptions
29
caves
dim
dating
pc
ring
sab
##front
##ura
##ola
doors
unemploy
feature
stream
##book
styles
achieved
recommended
neighb
candidate
category
splendid
##life
chain
signed
breed
participate
claimed
pleasure
appendix
00
##omas
lift
context
flower
perspective
harder
aircraft
affairs
summary
delivered
typical
victory
mercury
ireland
cats
dates
kings
lord
##road
excess
##isted
##osen
acknow
brick
signs
investors
improving
officer
maintenance
colorado
indiana
latest
##works
bin
##bel
##aic
##greg
resol
##aka
##agger
hole
economics
temper
largely
steep
johnson
turning
structures
expanded
vent
##oty
weir
##abbed
expenses
greatly
blow
##ugged
revol
sentence
contribution
definition
increasingly
guidelines
mexico
henry
peter
##bles
tob
##arts
graph
attest
##ogue
remaining
estate
silence
iii
##kyo
wealthy
sample
transportation
bronze
scottish
nursing
bork
cod
jail
ske
##inations
##ona
whitting
stamp
##uration
brain
desk
colors
monet
depending
1993
considering
listed
positions
films
memory
repeated
cin
ferry
util
##sa
##12
tokyo
##itals
knock
usual
implic
brings
heads
hoping
turk
teaching
settlement
normally
articles
voting
accompan
giant
categories
writer
tennis
borrow
core
ment
rank
veter
##cend
prove
truck
knowing
quit
preamble
indians
serves
slim
causes
player
ski
tells
improper
rising
volcan
suggests
combination
frequent
chemical
whittington
bout
hidden
##cas
##gers
##point
ships
sew
conce
##asty
outdo
evolution
scar
strip
studied
portra
exclus
consideration
turkey
13th
communications
odd
residential
artifacts
75
fans
tig
##ias
bear
##stairs
albert
enth
arc
explo
attrib
entry
confident
##standing
allowances
measured
properly
attacks
institution
begun
candidates
powers
aspects
soviet
les
tap
thomas
theat
output
drawn
plane
marked
opera
treated
argue
falling
##ushed
14th
catal
maryland
sweet
welcome
francis
shadow
bradley
carolina
dining
pig
tor
##uces
##gl
##verse
clar
joint
##raw
corrupt
faces
winning
occurred
sacred
florida
suspic
framework
furniture
sulfur
##itative
rein
##amber
prosec
fran
##iform
nox
enjo
faced
choices
judgment
implementing
reference
applications
uncle
relationships
exhibits
newspapers
stretch
merely
hawai
understood
intellectual
gif
wore
##aver
##wr
##lla
asian
gran
accomm
elabor
##isms
##board
failure
settled
renov
galleries
combined
germany
muslims
december
monastery
weird
accommod
ble
kil
kath
##icing
reward
forb
incred
buff
desire
assass
preserved
subt
medit
surely
feels
tested
classes
lively
characters
characteristics
##ographic
latin
sadd
reliable
conclusions
consequences
stakeholders
kos
lately
oz
tight
##acco
so2
##ached
##encing
recall
finish
cazar
switch
palest
opposed
bills
listening
lovely
applicable
preferred
capture
railway
struggle
daniel
satisf
website
complicated
exposure
boss
ramp
sought
##bby
##semb
##rose
shif
sum
sust
worker
ours
attitude
locals
sets
earned
##bey
keeps
mainly
harv
anticip
participation
devoted
##burg
survive
masterpie
commitment
bauer
stupid
fount
pit
##bi
##town
##llo
whis
enorm
driven
prev
##uese
minister
financing
##ruction
superb
investigation
ticket
islamic
portuguese
testimony
faster
##rich
##yl
##anes
asia
chick
alle
reserv
febr
smoking
monuments
legend
1992
thoughts
electron
collected
calm
involving
exciting
rocks
regardless
divided
principle
crowded
carrying
begins
inspired
conclusion
substantial
mccain
kennedy
enforcement
disease
february
35
gp
mental
meal
mah
emission
equally
##box
bedroom
venet
situations
reagan
cigar
turkish
tons
wise
##rant
##ux
##ja
##ano
inner
##anta
outcome
grace
interim
marks
finest
providers
ruins
transl
elections
ceiling
150
towers
solid
violent
sandy
scenario
explanation
gor
jac
map
nile
trop
inhab
shared
chat
trick
lee
reporters
intent
carib
poet
desper
empty
visits
charged
johnny
linked
accuracy
beside
comparison
vehicle
malaysia
ottom
ridiculous
28
hij
kl
##pay
##mar
ther
##erning
disney
prec
warri
charming
##resp
admitted
officers
experiences
##ikes
remembered
traveling
educational
avoided
dutch
chairman
buddhist
philosoph
tobacco
hijack
##pan
##my
##enz
##ania
shaped
lock
##cipl
disaster
parent
blame
publication
charges
profits
operation
cooking
perfectly
writers
volunteer
2010
gambling
occasionally
element
pitch
##fast
##wan
##20
input
stair
stared
spin
reserve
scary
handed
sanct
teachers
democracy
latter
consumers
unusual
cycle
kr
##nn
toxic
##esty
##estone
chest
yellow
uniform
overse
##aints
natalia
projected
excited
##anean
constructed
suffered
degrees
strugg
courtyard
unemployment
bol
migr
pine
tues
##adium
##ulating
fruit
chateau
worship
somehow
##ipe
precise
strike
monarch
retired
##ternal
resulted
represents
judges
pottery
existence
hung
documentation
adequate
basketball
ozone
bor
fert
pure
##coming
##met
##itated
##asion
##etr
forever
branch
serving
finn
persons
charl
##bell
annually
exceed
seriously
israeli
boilerm
boulev
lying
om
tone
vul
wage
##oir
##che
##istical
trained
191
tail
guided
stead
stepped
##ructure
sixty
analyses
convention
casual
earthqu
restrictions
colonial
patterns
components
penalty
kyoto
telephone
ae
cer
gop
rice
rival
tab
##rad
thin
##istan
blade
basil
concerning
privile
elsewhere
successfully
images
settle
principal
regularly
clubs
split
error
barely
cabin
cinem
cios
nur
pac
##uge
##gate
height
proved
deem
##ushing
alb
##oster
manual
plastic
grave
shoulder
asset
writes
instances
metal
classic
facilit
generations
promot
researchers
faa
requested
links
sculptures
tombs
folk
engagement
remarkable
dome
por
tan
wages
##ya
##cast
##oupe
##stream
##ete
##thy
##orted
plot
##ansas
elected
species
nonp
suspect
division
climate
immigration
cuba
defeat
inventory
scientific
agricultural
alfred
bio
pir
##iors
##gy
stadium
##aine
ads
impe
expense
accused
formed
performances
employers
weekly
creation
involves
waited
arrive
sunset
traveled
answered
fault
breakfast
examination
michel
weakness
altar
channel
nepal
cuis
ain
dar
hired
##bar
##itures
##omed
ongoing
shift
shirt
##estr
##essed
noise
discipl
relative
puts
countryside
explains
staying
awards
eleven
eleph
copies
handsome
priority
celebrated
holiday
survived
analyz
disappoint
cnn
fena
gagas
pink
tip
##rast
##uze
##arm
##ota
stable
##ante
leon
##enda
outl
unw
tech
user
##aks
##ache
personnel
##hips
affair
cheer
missing
securities
infrast
promote
excuse
addresses
approaches
demands
treaty
##annon
panel
requests
fresco
installation
professionals
disagree
jewelry
dancing
figh
gau
jose
wet
##la
##illes
aggress
residence
compare
sheep
##ipa
everyday
recru
flag
locations
economists
musee
receiving
falls
describe
bags
amendment
mediterr
36
32
aci
pace
ter
vital
##case
##itable
##aders
haz
priest
nov
whenever
visible
controlled
practical
description
objects
hunting
machines
danger
introduced
rarely
situated
recipients
bodies
www
mediterranean
ak
dio
nerv
roles
anton
##ingly
##imate
abbey
canal
outs
##ouses
##acted
interrupt
cock
##ensions
smile
##eared
barri
nonf
apartments
horrible
karf
bench
lind
rene
##isters
##oma
stro
stairs
##quar
evil
pocket
##ensus
finds
capable
admit
palazz
prompt
promise
winds
romans
administrator
examined
farmers
ethnic
wednes
african
enemies
avenue
enhance
enthus
dip
derry
sna
tin
wound
##comm
anth
##chal
withd
boards
1990s
popularity
authors
##aimed
accordance
recorded
bringing
pollut
substance
cousin
ottoman
boring
vs
##ois
##bre
##amental
##opes
##ordan
downtown
instru
farther
simpl
curious
advanced
airport
20th
ruled
dealing
agreements
malay
referred
contracts
examine
drawing
mixed
converted
kentucky
removed
instruments
aer
dol
dict
file
hes
pair
##ato
##attered
##owed
stroll
##the
neck
canada
drunk
scope
studying
phr
employed
continuing
operate
managing
periods
appearance
peaceful
dorcas
encouraged
buddha
qualified
astron
triump
announced
alexander
expenditures
erect
fiction
yield
##right
##ician
forum
frag
##ifies
##ifice
guadel
mayor
taxi
directed
greuze
responses
contribute
duke
legislative
cruise
immigrants
contemporary
archaeological
attestation
enormous
bost
##oque
##ora
##urally
habit
chamb
chamber
myster
acting
souven
milk
visitor
traum
allowing
egg
closely
heavily
mandatory
prosper
##known
africa
pounds
compensation
recycling
elaborate
guadeloupe
bos
diverse
hud
pul
##here
##bul
##bound
##oration
stark
##iguration
abortion
nove
repair
pope
headed
auditing
juan
crowds
commerce
exhibit
festivals
comprom
spiritual
monitoring
hersheim
gpra
tuesday
boston
hersheimmer
dre
gig
jordan
##oly
##lv
rely
##adays
##tering
gosh
trips
##acks
donations
nowadays
struck
caf
protoc
northwest
statistics
representative
romantic
colorful
ordinary
venice
conservatives
captured
premature
release
byzantine
boulevard
souvenir
ow
pont
rams
sits
torn
##days
##uting
##vered
weigh
frustr
##anda
exemp
knife
unknown
expans
consol
cairo
fundamental
##ception
blacks
authorities
wondered
solic
killing
12th
answers
1980s
reforms
impression
flying
blocks
ibm
sleeping
mirr
luxury
wheel
cant
gaz
tables
vic
##iant
##atoes
ang
proof
orange
unh
##ipts
buchan
informed
modest
resulting
confused
cream
seconds
corps
achieving
maintained
optim
fifth
widely
indicate
integrated
unlikely
##losure
vietnam
neighbors
tropical
vulner
bour
cy
dil
diction
hou
ze
##inian
##imination
assemb
prud
##une
##oured
grade
yours
lav
parli
statistical
##whel
##arrass
architectural
physicians
pilot
minority
diversity
infrastructure
pav
sau
sights
##gia
alleg
unified
upstairs
roll
##iana
conscious
remote
courses
corresp
designs
##awa
riders
evaluate
photo
decrease
dismiss
subsequent
wednesday
cum
gains
kore
lam
pad
rational
##tan
##uine
##cer
##kins
thro
inland
chosen
exotic
unre
imposed
imposing
quiz
partner
drag
##ensity
monte
assumption
mini
extr
extended
funchal
limestone
accessible
epis
corporations
##under
embr
opinions
injured
hanging
laughed
enemy
memorial
chicken
chambers
ram
##ocent
##inate
tool
##ighth
prize
sole
pla
locked
overwhel
##ubb
invasion
baroque
musical
lands
projections
encoun
acceptable
multi
discovery
magazines
satisfact
confirmed
oriented
deficit
kitchen
sophistic
acknowled
buchanan
ax
dying
##iate
##aff
wash
##irm
fright
##gean
##abled
lev
##oken
monop
requiring
flav
visibility
##riend
##bean
employer
morris
authent
refused
figured
recognition
femin
crucial
permit
analyst
lewis
groc
pushed
vegetables
praise
pyramid
litigation
aegean
astronom
parliament
55
lined
na
##aust
##idays
##urd
##keep
lean
noble
##agues
supplement
supplies
captain
personally
admir
swung
walks
topics
189
refuge
volunt
healthy
beautifully
divorce
creative
embarrass
declined
criminals
martinique
obtained
pilgrims
ceram
diox
bern
fcc
rod
tas
##rah
##iot
##eds
##oms
isol
##illing
##uns
##aki
acts
skill
passage
##engers
encl
determining
innocent
indicated
declared
integrity
errors
frescoes
dioxide
gap
##yard
##ked
##ester
##omach
orch
crown
roc
pools
assurance
parad
metric
factory
lessons
feelings
swing
weekends
passing
palais
oppon
difficulty
influenced
establishing
installed
apparel
quietly
opposition
bowl
earnings
fabric
kosov
fond
rode
##iated
##oral
forec
##ros
orn
hast
aggreg
striking
southeast
portray
##idding
identity
victim
bombing
dynasty
implications
caribbean
houston
45
aic
bond
ging
jr
pond
wid
##ria
anx
stry
shil
prohib
##osition
shell
##ubs
supports
soul
performing
viewed
southwest
nato
summar
methodology
addressing
grande
committees
globe
adjustment
proposals
seventy
abandoned
theatre
ramses
rig
rust
wolf
##ki
##field
##cher
dear
##agers
newly
joy
handling
productive
transm
salary
identifying
similarly
languages
damaged
voted
treasures
premium
hypoth
interpretation
nurse
strychn
gained
hated
pin
ug
##bour
##lied
##ull
##fall
##zes
threw
##areness
beer
shout
liqu
##acious
prest
trends
##iva
crash
craw
cents
reluct
blank
starts
taxpay
northeast
passengers
housed
prince
distingu
gentlem
license
inquir
concluded
austral
controversial
kirby
gifts
impeach
november
authentic
aicpa
strychnine
bible
cos
mit
tape
##oons
##eas
##ko
thurs
##alf
##itage
##rep
reaction
hav
exists
tran
outstanding
agents
theme
blind
raj
awareness
iran
considerable
woods
institutions
hospitals
purchased
shelter
forgotten
album
renew
shiloh
600
diving
pizz
##uits
##mir
##inity
doz
##ques
agenda
##agn
indig
regions
surg
valuation
marketing
terrace
hoped
returns
routine
universal
unfair
sculpted
recommendation
drove
scenarios
manufacturers
basilica
correspond
800
95
az
bread
cyc
dun
hiring
jazz
lod
mild
mothers
nipa
pp
pent
rot
wt
toler
##olis
external
##usted
##ems
resem
heritage
guides
decent
highlight
presents
ceo
hopes
excurs
breaking
authorized
filed
##boys
enterpr
paperwork
coastal
absence
silent
illness
checked
attacked
dressed
swords
##ettes
etc
jackson
fingers
false
columbus
bic
pays
rit
##yon
##esque
shannon
##istry
##ava
guests
provision
handled
lasted
childhood
discour
constr
terminal
administer
traditionally
granted
expecting
ensuring
ignored
ninet
concentration
gathered
roughly
component
cliffs
platform
veterans
dies
dame
jur
till
##ih
##aa
##pit
##stone
##udes
##unning
##aux
myth
undert
mons
genuine
transactions
certification
patron
nights
##ocaust
pleased
reaching
objective
maintaining
settings
initially
acquired
holocaust
constantly
burned
ghost
vehicles
mobile
delightful
erected
pag
sons
zoo
##row
##xual
##esis
##orca
anc
##oli
##olitan
deals
##uls
##ardo
exposed
offset
boom
##avag
strang
smo
assign
warn
moderate
clever
temporary
campus
palm
equival
entering
solve
solutions
argued
inflation
motion
establishment
songs
rapidly
outdoor
consolid
ls
nuc
##rument
##ka
##ales
stomach
trials
para
##erman
instrument
designated
##aws
allowance
palaces
187
cultures
exclud
dealers
wondering
deaths
fallen
stronger
denied
challenging
interviews
extraord
florence
sticks
surplus
ninety
carrier
convenient
franco
hawaii
venetian
nervous
palazzo
nucle
auction
ron
vine
##night
##war
inher
beard
##utory
##ima
##thod
ate
pron
uncon
usa
actor
drivers
relating
##ologist
plano
publications
reader
files
##onym
assessing
suffer
ladin
broadcast
##inois
editorial
reconst
atlanta
boutiques
earthquake
cuisine
protocols
42
dir
horn
lion
mun
nit
ros
ves
##fish
##ashing
##urred
shirts
conj
comedy
##acle
alike
##erves
owns
beneath
covering
passion
statutory
burning
illinois
diam
christianity
##iptions
cowboys
mexican
lifesty
confirm
sacrifice
trauma
tasks
ritual
93
cater
fel
fulf
sate
tie
wow
##troll
##lights
##wa
theories
##inos
inject
##etime
##licit
assigned
remove
retreat
personality
medica
destruction
commonly
hitler
superior
supposedly
journalists
touched
picturesque
portugal
virtually
sympath
maximum
constitutional
concerts
mystery
sewing
wtp
37
bh
dat
dal
naz
oak
##fl
##ican
reign
shade
##olate
##opher
suits
##eling
legit
adding
meanwhile
produc
planet
humans
mailers
statute
enjoyable
stops
##attle
murd
engineer
alternatives
fashioned
injury
automated
trails
finger
surface
biograph
hiking
rib
vin
##zy
##organ
##isk
sees
sequ
abroad
##aping
spo
nose
##aches
rolling
accum
descend
secure
paral
restoration
entit
talks
economically
barr
promised
prominent
puert
balanced
argent
networks
soldier
shrines
impressed
utility
advocates
defeated
fortune
merchant
convinced
mathem
monetary
prosecut
granite
joseph
ugly
dup
gulf
wines
##taining
##cy
##oning
seas
##uscan
sail
incident
##load
fox
attended
flour
belt
define
transaction
profile
##lessly
experiment
discusses
christians
subjects
historically
customs
attempts
injuries
advertise
profitable
talent
macau
intelligence
enjoys
dozens
paragraph
##thodox
dirty
satell
medicaid
nh
ted
tied
##gage
##any
##rem
##roph
##essions
notre
suic
##istent
themes
evol
190
score
indo
recre
throne
monks
edition
simulation
heading
behalf
industries
discussions
travelers
pund
jungle
deeply
substit
holidays
gateway
collabor
inev
fantastic
explorer
fountain
boris
nonprofit
cot
cott
hars
harr
ry
sorts
##lah
##orous
##alo
##sters
stor
stim
stained
##oda
exha
##ounced
gras
intention
##00s
invited
editors
proph
badly
musc
exploring
oklah
calend
armed
dominated
coastline
membership
silk
flee
speaker
legislature
##sylv
crose
prospect
guarantee
derived
carriers
emphasis
ineff
pennsylv
pierre
discrimination
philosophy
expansion
99
hatch
lin
pump
##ault
##inction
##esth
##rete
##owing
stones
libert
schem
##cription
letting
beneficial
accountable
monthly
186
availability
##liers
assistant
regarded
beds
connected
priorities
reflected
measurement
jeans
displayed
responded
verd
quarterback
graduate
dishes
cryst
innovative
deficits
rebuilt
##avery
##quarters
kosovo
nineteen
pennsylvania
cete
foster
pushing
rab
rav
tact
tapes
wol
zero
##hem
##oric
##inger
notion
driver
preced
scout
mood
phen
retain
hardware
contrary
transpar
prototy
esp
stephen
educated
madonna
jersey
1970s
treasure
relaxed
involvement
bureaucr
uncertainty
skept
weaknesses
paradise
smooth
cfo
dot
ferr
riv
tack
##hand
##lom
toph
inch
whip
yep
soil
leaf
spoken
##eled
compound
brut
brothers
reprod
apple
##ails
provin
##lands
homeland
causing
simon
skilled
naturally
arrest
arrested
villa
turks
demanded
credibility
strongly
drinks
wildlife
exhibition
threatened
prisoner
demonstration
occasional
wedding
occupied
ultimate
guaranteed
eliminate
beliefs
emotional
springs
surprisingly
portrait
tapest
masterpiece
boilermakers
triumph
prosperity
sauce
gingrich
topham
39
duck
hub
tort
wick
##oe
##vre
##pers
##mand
##10
##orse
tok
bears
cha
tries
abc
##eline
acres
carbon
marry
ohio
depth
tournam
serb
ruling
shortly
couples
rocky
suffering
heaven
reflects
adjusted
##rofits
targets
peaks
revealed
merchants
carpet
supervis
steady
dictionary
throat
cem
fet
fate
lists
##liss
##iter
##isite
stan
nema
outr
comply
##cking
marvel
colony
warning
delhi
metrop
apolog
arrival
rulers
significance
attracted
contributed
scrut
exception
jeff
connections
lifetime
adventure
fantas
brilliant
inhabit
aerob
phrase
satisfaction
prestig
pizza
oklahoma
cage
elev
erupt
fancy
fbi
hiding
kash
pitt
zone
##ran
##king
##jo
##ati
anger
##child
##igan
shield
socc
worn
incidents
twin
##eps
wanting
margin
deserve
legs
polish
wrest
phar
coron
engaged
admission
directions
patri
greet
representing
measuring
princess
focuses
device
godd
campaigns
revenues
babies
##rooms
1960s
expertise
boxes
adopt
discounts
racial
gentle
transferred
bargain
enthusi
impeachment
surgery
extraordinary
datab
kashmir
soccer
44
dc
hm
nets
tong
##aire
##ym
##vings
##pes
##mony
##ederal
relic
##idable
##rogen
##amin
##amic
shorter
prol
cans
perth
quint
poly
pregn
ourselves
moor
proven
obsc
slavery
produces
mines
revised
deliber
headquarters
refres
wake
listened
worthy
appropriations
renowned
romanesque
troub
districts
celebrate
evaluations
purchases
demonstrate
ignore
dependent
advisory
academic
resistance
scheduled
facilitate
34
38
700
bonds
dud
fer
gest
hc
lag
mam
nar
rides
wave
xiv
##pread
##atures
##itious
istan
##ching
alab
alley
abund
unexp
loves
loyal
moreover
aged
grate
roy
fled
warrant
##ressed
1991
follows
glor
suggestions
puzz
modeling
polls
votes
demonstrated
applies
repeat
horror
crops
mansion
exclusive
bauerstein
jacob
staircase
withdraw
unhapp
hastings
cotton
hcfa
istanbul
bib
dense
dirt
luc
nich
vend
##har
##laimed
##pir
##isons
reorgan
stall
convent
conrad
gov
choc
notable
##iev
##elle
sailing
explicit
overcome
prepar
shoulders
moors
invaded
costly
##athers
persu
populations
edward
##ugs
porto
generated
refers
traditions
reasonably
hillside
competing
circle
versa
fashionable
garb
camer
distributed
immediate
subscrib
losses
aimed
ceremony
intelligent
francisco
warriors
antonio
sophisticated
analysts
ceramics
ornate
goddess
aqu
bom
ell
faint
nas
pas
rivers
##bits
##cul
##vas
##ga
##mate
##kes
##ongh
##isan
##char
shiva
##oped
tripp
cancer
##ieur
spare
ark
unne
clou
grin
##achus
carvings
##osexual
boost
##angelo
subur
obst
farming
technological
concrete
mainland
sixth
poorly
antiques
arguments
competitors
lights
hearings
1989
appeals
photos
submit
camera
permitted
fatal
prayer
subsidy
electronics
hazard
interrupted
diplom
voluntary
thursday
lifestyle
49
bart
ceter
eve
fame
fake
pension
tut
tends
vba
ward
wished
yach
##erable
##imental
trump
traged
cance
unr
comptroll
reporter
commem
##iano
moham
whereas
joke
flash
flank
##rapped
slave
capita
museo
questioned
colleagues
120
pupp
balear
battles
acquire
quarters
formerly
greece
attempted
procedure
mistakes
prisoners
rapier
exerc
engagements
inspir
counseling
sponsored
volcanic
alleged
sanctuary
barriers
harsh
##mandu
density
hi
mud
oly
slo
vig
wire
##bc
##ui
##uel
##mers
##mother
##anas
inches
##ader
proc
neut
exqu
cloud
commod
attached
thrown
visa
elastic
publicly
homeless
ruined
crete
varied
classification
2020
steve
salv
trem
volumes
excav
dealt
failing
hungry
obser
11th
fleet
neglect
bayliss
observation
affects
integration
literary
expanding
gathering
convince
rejected
kathmandu
nuclear
unnecess
mohammed
olymp
hint
lor
rush
##rome
##lor
##iner
##rets
hect
shog
severn
spots
quoted
nowhere
instinct
economies
easter
barry
barnes
communist
steam
generate
promen
eggs
hillary
antique
minded
determination
devast
assessments
massachus
planted
davis
casino
hosts
essentially
concentrations
scientists
retailers
succeeded
clinical
skiing
evolutionary
incredible
pacific
michelangelo
monsieur
calendar
01
98
cited
crew
dental
ken
mol
porce
ts
##born
##lined
##vic
##fare
##oret
##orrect
inexp
##asant
##otte
della
orthodox
lips
##udi
precious
moves
joe
helms
buses
planets
disclosure
lesson
followers
youngest
arranged
paused
texan
geograph
protecting
illum
seaf
hurry
drawings
featured
mandates
restrict
assuming
cuban
academy
ratio
osaka
ceremon
athlet
##seeing
privilege
aggressive
inhabitants
unexpected
massachuset
dick
ko
pist
sending
##rison
##gian
##makers
ingr
infer
stab
##urning
##ila
##illo
universe
pear
export
timely
offs
brid
##ords
worldwide
hook
humid
extend
steal
currency
irr
horiz
princes
civilization
nationwide
rider
investigations
duties
literally
matching
limitations
criticism
boiler
launched
eager
cataly
harvard
precisely
porch
extravag
grocery
havana
satellite
suicide
crystal
67
bid
bang
dy
ms
pak
ties
wool
##bing
##kin
##arks
##omy
stabbed
##olta
seats
##illa
meals
##enders
##endous
lobby
adapt
impose
incomp
contest
slopes
producing
payroll
##ugawa
format
medium
postage
curve
confusion
professors
potentially
balcon
efficiently
attempting
flexible
variation
remarked
pursu
volunteers
proceedings
channels
schedules
anticipated
therap
analyzed
mirror
monopoly
phenom
aerobics
comptroller
porcel
massachusetts
pakistan
48
65
77
baza
cree
dent
gle
hid
mwe
nick
punch
si
sq
sque
waves
##dr
##gio
##wart
##orke
##itudes
##stit
##anted
trim
resolution
evident
coat
colored
underground
spear
suppliers
warned
artific
imported
signature
affirm
waterfront
2005
classified
180
receives
arches
grey
argues
floors
snorke
acceptance
references
contractor
preparing
combat
stocks
indicates
evaluating
slept
disappeared
malls
pursue
bias
shooting
tribes
fortunate
announce
victorian
coalition
accompanied
mysterious
unhappy
47
hip
honey
kle
pap
vamp
##yards
##down
##gments
##po
##ani
##itarian
##ador
##cho
dean
##mental
butter
##uster
abrah
worsh
envelop
arist
teeth
straw
recycle
##ermen
adds
retrofits
respected
formula
posted
188
immense
recording
balt
administrators
1980
referral
norman
panor
correctly
physically
mandate
jean
mortgage
paths
appreciated
meaningful
birthday
luxur
territories
climbing
symptom
agriculture
partnership
chatter
cabinet
priests
ancest
tokugawa
chocolate
berg
kiss
lau
vivid
wan
##iable
##lu
##eem
##falls
##enberg
react
procl
chin
ornam
exit
##ortions
##apse
##ouri
peer
que
scots
accent
backed
regret
studio
ending
mailer
summit
##liest
execution
winding
excite
fishermen
yorker
difficulties
distinction
bankrupt
focusing
threats
aston
neighborhoods
ownership
depression
appointed
corruption
charlotte
compromise
equivalent
nitrogen
pharao
tragedy
commemor
abraham
bac
lis
pose
pale
rugged
wins
##iat
##aics
##adv
##kefe
org
##osh
unions
clut
workforce
intr
##aved
afgh
marine
deserves
betray
invaders
provider
approve
differently
senator
armor
promul
pulling
demanding
checks
circular
engineers
santo
predicted
250
advocacy
industrialist
feedback
relaxing
bullet
navy
amendments
saddam
nonfederal
overwhelming
rockefe
aggregate
moorish
72
bree
cad
fier
ger
nave
pants
pets
tale
wag
##rical
##oll
##ture
##va
##fr
toy
##itivity
bearing
stunning
ford
forests
##theless
spark
lovers
##active
disability
disadv
##look
spell
artistic
##resses
caps
nevertheless
advised
landed
collecting
salad
presentation
175
girlf
compete
absurd
circus
hopefully
scenery
consistently
interviewed
textile
printed
inspector
inspection
nye
incorporated
pillars
updated
gorge
fighters
vulnerable
pentagon
paralle
puerto
clouds
rockefeller
43
41
59
bast
bike
fern
ic
tang
##uate
##fers
inapp
##arn
##idency
##iga
chances
##ighter
butt
##abeth
##umin
##izer
##izabeth
workplace
##anship
incorrect
brows
intim
crypt
partly
actors
##ensed
string
supporters
keys
populated
elizabeth
barb
milan
missions
missile
anne
passes
generous
discussing
burial
approached
sells
existed
painter
settlers
influences
germans
declining
1960
jamaican
shares
searching
automob
criticized
dramatically
reveal
suitable
alexand
ratings
homosexual
atlantic
mansions
satisfied
pirates
prudie
tranqu
grateful
aristocr
900
brew
dumb
hond
naked
ray
##rals
##hin
##his
##don
##father
##erie
##omo
##lete
stal
shame
##acent
spokes
##elon
##asted
##ishes
agent
newer
brass
feas
intake
cares
boots
bund
bucks
##lical
guest
returning
modified
sinai
metaph
email
milose
technique
airlines
cheese
millenn
missouri
configuration
anno
condem
##elled
associates
##otto
participated
hurric
avoiding
panels
breaks
michigan
respectively
casa
encouraging
utter
utah
complain
benj
graduated
publishing
delicious
borrowing
overseas
inquiry
duplic
relics
46
lane
pile
pork
sigh
wives
##care
##cape
##vin
##enon
toss
inade
##iti
##leans
##lyn
##aye
##irable
asc
sel
deer
comic
orleans
spite
hispan
outlook
inclus
intense
drives
screw
indirect
underlying
popul
valle
valued
insight
corrid
charm
economist
barbe
completion
##iciary
##idespread
dawn
182
receipt
stein
179
balances
merit
failures
sectors
emerged
penang
shrugged
junior
plantation
mosaics
creatures
achievement
collaps
bottles
introduction
incentive
registered
motivation
masters
delicate
obtaining
depicting
arrangements
bustling
frozen
chemicals
institutional
poetry
linda
cafes
assembly
cosm
mathemat
cemet
exquisite
artificial
milosevic
benjamin
inadequ
benn
dances
rating
races
sba
widespread
xv
##uity
##inople
##asso
reass
stiff
##changed
##olo
fred
neo
neu
button
##aco
priced
alter
trains
##iful
##unction
arth
unt
##cia
aging
exped
cobb
goodness
buck
##into
highlights
counted
geno
##atherine
visual
capit
hobby
##riate
defending
performers
engines
lesser
menu
possess
politically
billions
foods
bitter
singer
fails
impacts
devices
1988
emerging
foreigners
celebrities
imagination
glasses
installations
tomatoes
prospective
permits
adjustments
borders
naples
picasso
jumped
kentuckian
synag
vault
strictly
rebuild
dialogue
pollutants
dreams
zeal
episode
cale
dign
kam
mum
merg
rick
silly
voc
##top
##ua
##cus
##esford
anch
reich
relo
chop
notably
##anting
exagger
trash
canad
##uman
outf
outer
##eman
donated
##ags
quote
replic
bugs
consists
##sels
planes
retr
audited
contrad
viewing
patr
##aware
gardening
sounded
178
bald
richards
flew
junk
suffici
communicate
deny
observations
exhibitions
crossed
escaped
tastes
advocate
bathroom
merchand
explanations
victoria
websites
shocked
obligations
beresford
cooper
temperature
shifted
conventional
disappointed
entitled
unnecessary
excitement
cbo
gently
han
hamp
hike
jal
jam
kim
mumb
sik
session
##bu
theaters
##isure
##enth
##roe
##ayed
##keys
align
alert
abd
leisure
loose
closing
donation
containing
braz
reply
coins
bold
guards
smiling
##ogether
invo
governmental
bases
locally
publicity
insur
insist
makers
particles
admired
finances
swall
##aughters
equipped
reviewing
raises
moments
minds
universities
1987
149
circuit
ladies
cleaning
sweep
evaluated
evaluators
achievements
restricted
collapse
constantinople
complaints
ignor
odds
logic
counterp
validity
controversy
cooperation
lifted
buffalo
desperate
souvenirs
astronomer
gentleman
storage
tournament
database
garbage
procure
porcelain
cemetery
hence
iolta
lan
mt
mes
nut
vie
wand
##rum
##hy
##ez
##mat
##ito
##owa
stability
stalls
##imore
asks
notor
comed
lip
lied
##acc
peop
usps
grab
grabbed
sheer
brave
carries
scores
parade
registr
pubs
endorse
elite
restore
proportion
posts
funeral
investing
glimp
annoy
185
184
trek
specified
filing
singing
burd
civic
saints
deadline
conducting
greeks
procedural
casinos
philipp
qualitative
bottle
minimal
sampling
altogether
monumental
conflicts
virtual
allocation
delayed
coordination
resolved
suspicious
##enzo
vineyards
##onymous
argentina
netscape
seafood
chatterbox
arthur
glimpse
bot
biz
bapt
hats
lets
lung
mask
nons
roth
sed
vet
vague
yan
##ras
##och
##bow
##pass
##rels
shots
fried
manip
enl
maus
timing
perp
incons
contents
intensive
interven
carn
tai
strongh
marsh
margar
legacy
opm
##athan
flu
depicted
##cont
retrofit
caes
ears
coral
formidable
humor
financially
reviewers
lowest
harass
identical
merger
describing
superst
packed
tracks
nonex
applying
closest
hindus
fortunately
calculated
triang
mechanisms
convenience
kitchell
transformed
kicked
ranking
portraits
kilomet
elephants
novak
flavor
refugees
injection
biography
outrage
promenade
pursuant
affirmative
afghan
stronghold
bah
daughters
foss
gsa
hier
rico
tib
##away
##sm
##cue
##70
##arse
##ione
beef
##acles
safer
grim
perce
amid
wells
root
##cker
disg
##itty
scouts
scattered
seeks
sometime
relie
##crow
realistic
earliest
thoughtfully
factories
cleared
certified
annette
landing
alongside
salaries
armies
suggestion
arguing
civilian
eighteen
picking
louvre
offerings
basement
painters
applicants
troubles
mosaic
creates
versus
diagn
affordable
surviv
tracking
arabs
contacted
awarded
occupation
substantially
negotiated
walter
adventur
obligation
overlooking
mutual
cloak
venture
renovated
accommodate
palestinian
##estrian
gauve
recruit
anxious
reluctant
bicycle
scrutiny
inexpensive
bridges
baltimore
fierce
61
96
bite
cite
cute
census
diet
dump
ease
fy
gender
hitting
ku
kansas
ritz
##hor
##houses
##gg
##pered
##arial
##itis
andrew
##icism
rebell
stages
##ami
seasons
convey
##ando
##antages
##oded
plate
loop
beck
clay
donate
intrig
roots
interf
drank
index
##ference
desired
consensus
costumes
capabilities
larry
happily
readily
propag
audio
mainstream
steven
departure
winner
thirteen
identification
##aneously
burst
considerations
associations
turt
approaching
lacking
narrative
##unded
##oleum
holes
mistaken
1974
deduct
sensitivity
flyer
cruel
automatic
variable
suspected
williams
concepts
rangers
quantitative
recovery
champions
scholarship
manufacturer
confidential
sustain
leonardo
##committ
constraints
administered
producers
ingred
catalyst
dur
dimin
dagger
eighth
jet
kur
nost
rhod
rental
sway
tuscan
ware
wrapped
##rian
##rics
##de
##gal
##zing
##atra
toys
##rey
##omin
##omfort
dei
dock
##uscr
##apher
manuscr
alliance
##umed
##inking
feud
carl
twisted
##uba
bump
drum
##issipp
probability
longest
secular
preserve
supper
callie
wrap
surge
discl
hobb
simult
senor
mississipp
##phia
authorization
##aneous
grandmother
murm
definitions
wishes
adjacent
tendency
fema
radical
journalism
apparent
videos
throwing
##related
monasteries
protestant
struggling
isolated
##bourg
shouted
tongue
alabama
neutral
shogun
luxurious
annoying
mausoleum
mississippi
62
73
71
divid
gand
gab
iowa
poured
rud
rushed
soup
wis
##hou
##bl
##sp
##limin
##onia
##enous
##rection
##rog
helic
##olished
##ulative
chart
##usive
spouse
pepper
saudi
##oker
adam
composed
offsh
coco
cared
disord
actu
acted
centered
parole
##seless
bless
##icially
possession
glance
privat
operational
salon
array
budgetary
dealer
executed
125
screens
males
dull
democrat
bonus
planting
separated
lacks
philadel
conferences
citizen
automatically
assumes
appealing
baths
ranging
wilson
severely
subsequently
volcano
palestine
reservations
cigarettes
fertile
pavil
legitimate
murdered
tapestries
arkansas
alexandria
burdens
helicop
philadelphia
58
aph
aesth
bent
cul
kau
pestic
sisters
tony
##hist
##mere
##onic
##anches
toll
##isers
stir
stitch
##iments
pricing
##umber
##endered
##oks
upcoming
amended
amiga
bra
carr
disabled
scuba
afterwards
legally
fuji
presidency
supplied
demons
##awed
##awak
operator
##bridge
refuse
sixteen
judicial
entertaining
##oval
screaming
religions
furthermore
script
massac
bones
broader
ranks
##aska
beaten
accomplished
restriction
willingness
racing
seventh
##iyre
enhanced
contempl
picnic
mechanism
olive
deposit
deposition
emotion
resolve
forbes
elephant
enclosed
opponents
descendants
seaside
versailles
symptoms
aids
aunt
bits
dive
nu
nara
sid
wre
##essee
inbound
stol
haul
habits
##ulent
yelled
thereby
##osaur
enlight
##arten
ariz
##acked
overl
coinc
boasts
bug
prelimin
fold
evenings
relatives
assault
preserv
presidents
remarks
genius
subcommitt
handful
caut
admire
possibilities
nightlife
facult
continuous
practically
tuition
traders
origins
occurs
halfway
wonders
##shire
christopher
destinations
societ
##ippers
voices
characteristic
eaten
examining
consistency
survival
louisiana
journalist
dispute
accurately
respondents
analyze
symbols
conditioning
mallorca
logical
luxor
unple
guarantees
conquer
pyramids
##trap
codes
knocked
ramparts
electronically
settlements
discipline
acknowledged
taxpayers
australia
scheme
tactics
biblical
gild
hits
jf
jokes
ri
tank
##oen
##hill
##iah
##tic
toled
##ala
##rea
##isy
beth
##veys
stays
##ithe
sep
seed
convert
liability
##osity
##apore
enacted
spa
spends
adverse
reserved
acre
##gram
overt
##berts
guilt
##iley
wherever
programming
regards
addict
modification
extrem
designer
swift
confront
nightcl
maine
traded
sunny
parking
worthwhile
descriptions
obsession
recognizing
1983
1982
structured
honored
uncomfort
##iosity
##burse
flowing
agrees
flytrap
dispos
responding
##class
bulk
honorable
tennessee
sharply
absorber
worksharing
allocated
pilgrim
legendary
cigarette
cinema
encounter
transparent
girlfriend
feasible
inadequate
capitol
peoples
tibet
arizona
preliminary
cia
dare
flem
gut
hipp
icon
kh
kios
nest
pall
porn
piano
ric
vib
wander
##sr
##din
##cour
##vy
##mond
##orus
##arre
revel
##roc
chairs
exter
abb
meets
allies
unm
adap
##akia
incurred
intric
cruc
roberts
heroes
preach
prehist
##anging
invite
relate
assured
costing
governors
courage
deput
endang
simulations
defect
swamp
swept
202
promises
singapore
colleges
attracts
specialty
floating
accordingly
memories
accepting
130
separately
georgia
celebrity
horseback
crossing
balls
ethics
sightseeing
talented
altitude
semi
vegetable
eligibility
rubin
negotiations
naval
photographs
photography
motivated
eliminated
discrimin
masterpieces
warrior
bosn
diesel
reorganization
inspiration
yanke
66
awhile
ced
hates
lap
osc
raw
ruth
rope
sic
sessions
xii
##yre
##yth
##mill
##matic
##manship
##jud
thread
##inter
##esters
##enger
tooth
##lli
reed
##tha
##istically
alph
trace
spraw
##astroph
ups
comparing
grav
yearly
conting
intend
dislike
appra
fires
invented
##rake
courth
foundations
hoc
pointe
controlling
emily
deter
miller
camps
glory
landmark
salmon
##enna
lowered
freeze
greens
budgets
choir
villagers
jewels
specialized
epic
devil
copper
custody
contractors
catastroph
dresses
affecting
purchasing
permission
progressive
railroad
colonn
##guard
melaka
quantity
oriental
transformation
athens
columbia
dialect
thoroughly
breeding
incredibly
graceful
##marks
fighter
cockpit
valleys
registration
97
bored
cattle
dere
gord
hed
lush
ses
sizes
tier
wagon
##no
##nie
##vens
##gins
##min
##fp
##zare
##erge
##oro
reck
staring
seated
seized
segment
cher
alban
lect
##osis
##uda
plates
plains
max
##quet
unco
lobb
sheet
accidents
lotus
moore
removal
hugh
slaughter
instant
founder
viewers
termin
generating
irre
favour
favored
regulated
associate
jerry
convinc
sadly
targeted
revolutionary
##worth
novels
interpre
unfortunate
reconf
innovation
navig
terrorists
witnesses
graphic
enjoying
toxicity
korea
solely
excursions
reconstruct
municip
substitute
prototypes
brutal
pregnant
lisbon
inapprop
synagogue
procurement
offshore
austr
cel
cass
celt
dow
ff
gee
lc
lone
rif
sie
tid
tul
wo
yards
##rix
##bted
##nu
##lass
##dale
##uously
##making
##66
##za
##zan
##isans
beating
stere
##sein
##section
##rol
##imb
##iman
shake
shakes
shinto
##ili
##ulously
chips
suited
alan
alright
soap
cane
arise
unl
unst
cler
usage
nob
##ager
officially
overr
mugh
##ometric
attitudes
conspir
deciding
persian
famine
##ression
smallest
founding
farms
charity
meters
pointing
##iov
extension
##inson
profound
confed
confusing
##mann
grows
passaic
statutes
practition
generators
sanctions
ruler
judgments
##retion
considerably
movements
hussein
absent
##ovitz
assessed
italians
##umbling
penetr
initiated
messages
banking
celebration
sweat
farmer
1970
garage
liberation
liberals
samples
taller
birthplace
seventeen
reveals
ranges
tunnel
##uku
bargaining
foolish
incorporate
champion
gaul
revolving
tiger
blew
intentions
##oiselle
dolph
enterprise
undertaken
dudovitz
tremendous
##stitution
promulg
merchandise
hobbies
gabr
stolen
hik
pom
pause
ports
ross
vish
verm
vouch
##iji
##burn
##ni
##len
##uana
##vest
##post
##ports
##enin
##oust
##alg
##otine
whit
##urf
heels
deities
##ulates
neph
chew
##ista
alumn
alps
##aug
##emoiselle
unbel
clue
grat
whoever
exports
branches
overcrow
herod
disabilities
##loved
accus
indul
lott
blades
counting
insult
mighty
skull
curiosity
auto
advise
fourteen
stealing
##brand
noneth
bloody
burg
specialists
europeans
sne
observe
historian
referring
mademoiselle
egyptians
complexity
cooked
reflection
##chester
briefly
##losures
printing
henri
advisers
innovations
conclude
replacement
instructions
utilities
attributed
assassin
harvest
gigantic
allegations
francois
balearics
therapy
bizarre
subcommittee
gabriel
nephew
alumni
nonetheless
57
bland
cord
csr
eh
gon
ile
jus
lump
pip
rous
rented
som
slic
wig
zelon
##rous
##ho
##bet
##sis
##inge
##repr
##omon
reef
##state
forment
##sect
shah
dell
deck
##odes
als
canvas
spray
outbound
load
upr
##grad
quaint
brow
##lock
intoxic
downs
addiction
handy
capability
##aires
ruin
demographic
formation
watergate
invested
terrific
170
texans
128
suggesting
disturb
fights
expects
expectation
alcoholism
chapters
establishments
featuring
mixture
##etta
landscapes
psychology
graduates
cups
sarc
terrorist
satheri
1950s
trucks
suspicion
fountains
inhabited
prosecutor
exhausted
ferries
bazaar
jalan
botan
unpleasant
toledo
vishnu
burgund
##reprene
hh
mow
maps
tips
useless
wings
##eu
##fman
##wi
##wich
##15
##eda
##oul
revers
whites
weld
shipping
docket
allen
unaware
##izations
grain
amen
newest
offensive
buzz
dried
mock
relied
prescrib
costa
schwart
countless
gene
feder
minar
skim
advances
serge
islanders
infant
practiced
cef
choosing
magical
##she
participating
historians
reno
influential
1000
speaks
indicators
commented
603
comparable
citizenship
unsure
dependence
stretches
recipient
honestly
willey
pedestrian
stamps
intellectuals
subtle
saddle
desperately
snapped
vsl
lavish
frightened
embarrassed
preparation
horizon
propaganda
manuscripts
gilded
exterior
courthouse
schwartz
ais
diver
fare
fles
jog
ly
mike
pon
pensions
rou
sized
tires
##boy
##onian
##alay
inaug
##reach
reverse
shining
##olas
##oline
chains
abst
abrupt
manh
enfor
plaster
resent
perj
shep
overhead
appet
drama
prejud
sco
needle
desc
##iani
attending
colour
underm
underne
assure
parce
param
joining
presum
##ertime
remn
bluff
wrist
keen
artisans
slope
entreprene
senators
##lington
accountants
politician
amongst
judged
judiciary
walled
solved
stephan
claiming
credible
pressed
commissioned
nationally
maintains
divor
independently
scratch
deeper
dinosaur
threatening
neighboring
essay
camel
punished
occasions
bands
amazed
ambitious
variables
robust
drops
cartoon
defenders
dynamic
belonged
terrorism
archaeologists
recovered
bothered
pillar
varying
supervision
prevention
migrant
snake
hesitated
hypothesis
mitig
deliberately
troubled
vendors
millennium
cobbled
richardson
simultaneously
##zarek
underneath
78
88
bish
boud
dated
dread
danc
dwell
eil
fid
fathers
fwi
jard
jenn
lyn
oro
pud
sour
tire
witch
##uch
##ean
##isse
beloved
reun
##sem
##irer
##ambo
sha
shin
shed
##ilia
atop
orang
exile
##usible
sober
leap
canyon
##apolis
##udge
##unci
enqu
##umer
plun
##aste
untr
peel
adul
upgr
compat
grip
##grapher
perf
perception
impl
incumb
roose
twist
poets
partially
##velt
desirable
inval
counties
flows
empower
##ologically
charging
mills
##iciencies
portions
landl
183
brook
arriving
##attan
footst
hunger
cops
recognizes
1986
145
divide
erotic
mosc
packages
versions
banned
philip
midnight
pilots
spirits
##itzer
miracle
amph
faithful
carpets
clinic
reliefs
shoreline
excessive
sustained
opponent
fulfill
inevitable
obscure
suburbs
hectares
gorgeous
##donald
actuarial
kaufman
uncomfortable
eilat
enquirer
roosevelt
63
bount
hust
kes
lyr
mister
nbc
rfp
tens
woke
##ecess
##inative
##itary
rear
reception
##celer
fraction
##opp
##abs
traces
lever
lover
timber
##aho
acceler
noon
inclined
##ounted
quay
feared
cohen
marij
parish
remem
blanc
lasting
worlds
retained
earning
mineral
streams
resting
formally
barrel
technically
benefited
admissions
varies
rises
behave
deliveries
awa
sunlight
##elling
potatoes
sentences
answering
sooner
1984
##umbled
broadway
embass
degas
predecess
qualify
asth
bandits
prevented
disappear
concentrated
tribe
decreased
praised
buddhism
##piece
synth
expenditure
conquered
overlooked
distinctive
accompanying
exclusively
tigers
cinemas
promoting
cheerful
terre
dismissed
##ighthouse
consolidated
intimid
bennett
margaret
gandhi
faculty
gordon
convincing
inappropriate
formentera
marijuana
56
cure
ein
gum
hort
java
ling
lubb
mouse
pity
pbs
raining
sain
tension
vel
vatic
wip
##view
##win
##48
##inging
##aly
##alous
##arine
##asters
reci
##ido
stem
chau
knees
manif
##umble
spices
loaded
justify
resid
quotes
disk
preval
commander
mars
##ailing
regime
##onsin
##wear
depreci
slam
slip
phoen
ende
insights
revision
tempor
protests
opposing
apology
apaches
delivering
terribly
greco
harmon
paula
mounted
geographic
competent
squares
grandfather
pressures
friendship
unfunded
ern
knowledgeable
arena
fixing
commentary
titian
decorative
gradually
constitute
functioning
telecomm
bowed
spreading
stretched
hello
lengthy
maximize
wheels
nyt
abandon
outdoors
stretching
whispered
precision
benchmark
pollutant
korean
##keeping
summarized
liquid
indigenous
excursion
ronald
cottage
##children
##luent
spokesman
brazil
caesar
harassment
aphis
prehistoric
shakespe
presumably
moscow
lubbock
sainte
recipe
52
90s
bind
bak
beng
cp
czarek
echo
gays
gins
gym
hoss
lions
lyon
merr
pard
ripped
tam
vert
zen
##nas
##nels
##uci
##col
##card
##cos
##power
##mel
##oulos
##itar
##itate
##asp
##isive
belly
##llers
stur
##uri
##urity
##urai
aswan
deleg
##oping
atm
trap
##una
##ours
plum
##quest
peas
peers
pecul
adorn
nobles
disrupt
goodby
1950
himalay
committing
##ints
marina
##ailed
##erald
informal
relation
provence
prescription
blown
warner
surveys
##ainties
insisted
holl
emerge
skirts
cheek
tempted
risen
receipts
operators
cells
hilltop
##workers
##holder
destro
environments
##anne
architects
##archy
attacking
panthe
corners
establishes
respective
doubled
mandated
darkness
investigate
hyd
garment
integral
disputes
gasoline
giants
conversations
arabia
contacts
introduce
minimize
guarded
macroe
tunnels
illustrate
aimd
heroic
dusty
acknowledge
graphics
elementary
boilermaker
deemed
windsurf
anthrop
tornado
consciousness
orchest
liquor
taxpayer
pundits
metropolitan
apologize
marginal
ceremonial
extravagant
balconies
vampire
parallel
utterly
mumbai
taiwan
nonexchange
disgust
survivors
municipal
austria
celtic
flesh
endeav
peculiar
goodbye
macroeconom
54
64
74
bambo
cd
dw
gear
ipm
lighthouse
oas
oreg
pomp
ponds
rage
sip
tud
tiber
wider
##will
haun
##olome
seeds
goya
chim
exh
##acies
trave
abilities
##ardy
##unic
enable
spun
unim
clan
justified
##heric
##ounce
compass
composition
impair
brack
boot
##veland
thriving
monit
opens
governing
blm
##ermere
fluct
belts
kells
shower
handles
##conn
payche
edo
moder
##ugg
readiness
norther
playground
##beat
careers
medici
auton
2003
missiles
confess
practicing
secondary
mature
raids
arched
freezing
listing
villas
windermere
holdings
killer
buyer
distant
castro
litter
appropriation
halls
georgian
reportedly
submission
jesse
jacket
ninth
##worthy
##guards
tribal
feeding
bathing
subsidies
penalties
warsaw
removing
crusaders
craftsmen
arrangement
trendy
repeatedly
arcade
miniature
distinguish
indigent
juris
evolved
ceteau
coroner
gesture
abundant
lorenzo
snorkeling
automobile
homosexuality
canadian
ingredients
feudal
pavilion
flemish
greenspan
lobbying
siege
burgundy
federally
sergeant
vatican
shakespeare
pantheon
bamboo
oregon
catherine
ker
kin
kan
lanes
mant
mound
ov
rape
rude
troy
zo
##taking
##lades
##mo
##ker
##was
##onies
##anim
anonymous
anderson
rewards
revered
forcing
##rove
wears
##iston
alp
albe
tract
abo
##ifix
##ifiable
spy
uneas
unchanged
loving
adoles
##izable
acrose
##aky
##akura
repay
dissem
partition
##berries
lazy
maria
##icks
backs
secrets
bloss
flame
slipped
revival
delays
clearing
booksh
skys
signal
##iera
##cca
glam
secured
continental
##amese
terrain
limiting
promoted
questioning
travels
##ella
antiqu
snakes
grantee
quicker
screamed
referrals
hurts
manufacture
selecting
cleaned
draws
evaluator
venue
##ophag
layers
tallest
breathtaking
1930s
1920s
oliver
bargains
absorbed
oxley
rumors
exploration
dominant
##books
veteran
##points
attributes
switched
struggled
monarchy
prompted
frustrating
axe
washed
forecast
sequence
pundit
verdict
prestigious
astonishing
cosmop
hampshire
lantern
intriguing
crucifix
unbeliev
stephanop
footsteps
temporarily
bengal
windsurfing
monitored
albeit
02
69
bass
duc
fi
gn
gaining
hay
nerve
pits
rip
sod
wisc
##rale
##uum
##uated
##gent
##mart
##ken
##fia
##fty
thomp
##itating
##itably
##rood
weed
shaded
##ilings
##estim
conced
goss
sued
alic
altered
trag
manages
ench
clich
##ishment
grapes
acro
nobel
ami
imprison
crying
overtime
boating
scro
smar
thrill
olds
parale
polite
hugo
kinderg
reduces
marking
controller
aviv
cleveland
advantages
communism
turner
financed
explored
annie
stupa
203
continually
collective
marketplace
##enne
calle
terraces
awake
identifies
173
ballet
163
debts
trusted
plantations
characterized
examines
ladder
##ospheric
denver
russians
banana
observatory
citadel
spotted
frequency
liberty
permitting
escal
advertisers
symbolic
holyrood
variations
sorb
##agonal
vegetarian
illustrates
hypocr
reagent
update
cracked
litigants
jimmy
tube
assertion
catalog
pige
charlie
dictator
fragile
cumulative
vessels
diamond
confirmation
nazi
prophet
skeptical
supervisor
fantasy
refresh
cameras
phenomenon
creek
afghanistan
intricate
promulgated
sarcophag
wisconsin
thompson
85
bun
gil
gib
imb
jaw
lut
loses
nag
nass
nasty
tag
wat
##bat
##aus
##dg
##pat
##fu
##friend
##word
##walk
theoret
##oubted
##aro
##ente
ree
rever
sto
##urable
##chitis
heir
shapes
nel
knights
##istine
hiss
outreach
unav
unhe
theirs
acute
overd
coc
coin
dispar
drain
marx
undoubted
attain
##vernmental
##erton
hug
differing
retal
imports
esteem
discretion
insuff
rua
revived
defended
poste
bookst
developments
considers
communists
tempt
processed
transpl
swed
roommate
accounted
majestic
testament
pretend
glow
creole
stepping
summers
summertime
eyed
##boats
176
printer
viable
160
sentencing
hunter
husbands
obsessed
checking
contracting
shrubs
manufactured
secretly
linking
documentary
reflecting
females
casc
mistress
urged
##ilingual
commercials
distribute
complained
analyt
appreciation
ethn
crafted
etr
minorities
bronchitis
mercen
groves
welcom
substantive
comprises
boundaries
malaysian
lawns
mcdonald
uncertainties
adequately
conquest
reminded
coordinated
depicts
revolt
renovation
hijacked
krug
analyzing
akbar
anthony
frustrated
prohibited
conjunction
nhh
nasa
observers
devastating
nickn
murmured
deputy
hughes
reconfiguration
hikers
aboard
cosmopolitan
welcomed
ald
bunk
dazz
fen
fas
font
gol
gour
jaff
kab
kend
lun
masc
patch
tiles
##ien
##aise
##uv
##wick
##13
angle
##omic
itiner
rect
##etto
stole
##iratory
defer
congr
nev
chase
##geois
##abet
meg
##arded
canals
placing
saves
gram
amy
amar
quart
brains
rolled
interaction
cove
poems
strikes
colt
synd
##athe
blend
blond
blaz
busiest
suburb
kelly
basin
mino
metro
factual
barn
curb
autumn
particulate
profiles
waterfalls
##phy
exploded
passenger
stevens
volat
winters
healthcare
additionally
originated
towering
solar
romance
attracting
stylish
necessity
seller
credited
contribut
impacted
treating
journals
speakers
cleaner
revenge
ranch
predomin
doubts
1979
declare
401
beatty
1967
injust
##backs
demonstrates
spiral
qualities
searched
applaud
borne
comparisons
talents
sundays
elder
biological
stewart
scandals
##iya
concludes
fabulous
accidentally
emphasized
clinics
tenth
digital
sacrific
nicer
neighbour
mentally
rewarding
shifting
spinning
plotz
pirate
canton
gaze
bourgeois
plausible
isolation
inherent
vinci
recreation
wicked
prestige
pitts
prolif
glorious
hazardous
commodity
pistol
envelope
fernando
metaphor
sufficiently
wandering
kilometers
championship
societies
sepul
pilgrimage
stereoty
alsace
disturbing
boudoir
asthma
skyscr
stephanopoulos
gossip
smarter
nelson
undoubtedly
analytical
92
couch
dues
hhs
japp
kins
kidding
lal
lighter
mul
mint
morn
nan
nagas
nuts
pour
pending
rows
rita
tad
voth
ville
yok
##bes
##lise
##ders
##drop
##car
##giving
##went
thunder
##esome
##isp
beaux
rehab
##rolo
##adda
##urbed
heights
ascend
shiny
orr
oral
##acca
##usc
trin
##ustomed
##mphis
memphis
##udic
allied
maid
outlets
unn
##oka
grid
grill
amusing
incomes
quot
brib
repairs
caring
discip
disgu
underwater
blues
famed
kef
caution
respiratory
maker
hardest
companion
serbs
menorca
explaining
nightm
projection
wax
awesome
wallace
eglise
favors
doorway
epid
domes
protective
lightning
##ynes
contributes
cannon
replacing
laboratory
scrub
panic
##held
combine
lacked
convicted
innoc
indicator
threaten
candle
cros
cathedrale
hosted
challenged
discounted
complaint
proposition
##etti
murderer
kidna
ethical
colonies
drafted
bowling
laughing
rubens
saturdays
shadows
consultant
consultants
scholar
ashamed
deposits
oxides
nepdg
crusader
cloister
kram
uniforms
embrace
portrayed
enterprises
libertarian
grinned
olympic
athletes
tranquil
hurricane
genoa
outfit
patrick
inconsistent
perceived
manhattan
shepher
bone
cm
cet
hog
hilt
hardship
kel
loun
moss
owe
pione
ral
rents
sib
tents
vain
voy
##ti
##tes
##eff
##cs
##cod
##fire
theod
##ono
topped
##isa
##isco
##icy
##icut
##lehem
##entine
stap
stern
stored
staged
forfe
##chio
weights
seld
##illion
##ulse
nebr
knight
unlo
##izability
perenn
amate
overth
rooney
rolls
dischar
indones
needing
servants
firing
finishing
backyard
remin
subway
##ainted
phases
minnes
problematic
shoppers
morgan
operates
matt
arche
ceilings
stopping
promising
noncom
shortage
##ommon
irrig
##boat
remembering
competitor
humanity
sentenced
assisted
dougl
fortified
credits
##balls
contributing
woodward
##apping
preference
mosqu
cardinal
physician
indication
surviving
investigators
titles
misunder
hostile
##banes
veron
angel
matched
trailer
powered
psychological
racist
hamm
hammer
##after
sheltered
revealing
calculation
rubber
galile
sarbanes
emphasize
emotions
accomplishments
teenagers
reminds
rhyth
bait
depressed
gaunt
conceived
scarce
satisfy
translated
prosecutors
marvelous
wrestling
bartolome
disadvantage
kamakura
sweeping
preservation
bethlehem
adapted
sicily
dereg
ernest
ginsburg
compassion
krugman
jaffa
epidem
68
84
80s
cv
dorm
eb
fow
fitting
hil
hilar
iz
kaz
lamp
rale
raph
ramb
sends
##rent
##nity
##yle
##lings
##lav
##gi
##master
##kward
##fri
##75
##zo
##inan
##inous
##educt
##ington
##llas
reop
shorts
##olith
seam
frowned
##opular
goat
dos
meh
##osa
enact
enabled
mae
##astically
##cio
donald
offended
bruce
crashed
crushed
mule
disli
tavern
##eph
precip
##licity
scare
stripped
smok
mold
consort
governance
requester
genetic
perspect
obey
##criptions
endless
mining
reads
barik
eman
curt
issu
headline
investor
prett
glanced
landmarks
equity
info
infin
181
generals
generalizability
sixties
greed
arrow
cultiv
thirds
windy
awkward
breast
courtroom
horus
sorting
fortifications
##ipper
violate
##anni
frontier
uncommon
voter
indianapolis
lawsuit
documented
mandrake
1975
martyr
investigated
encourages
sensible
jealous
verify
petition
janet
troop
ambass
speeches
cynical
dedication
tribute
deserted
calculate
vanished
strengthen
unpopular
skinned
consequence
gamblers
subsidized
tubacca
pigs
fertility
promotion
folkl
enthusias
dragged
episodes
gentlemen
pagoda
felipe
inevitably
exhaust
chaos
elasticity
evidently
announcement
proclaimed
duplicate
hispanic
rebellion
rhode
aesthetic
apprais
practitioners
lyrics
sturdy
alicante
tragic
kindergarten
nagasaki
minnesota
douglas
raleigh
perspectives
79
bend
bened
bidding
fost
flic
giov
lus
nancy
pf
rag
tide
vest
##iences
##bling
##nut
##namese
##upp
##vable
##jon
thumb
##inth
##inals
##eses
##eding
inex
inacc
##armed
bever
beij
##idity
##roid
##urate
wasted
##iguous
heb
##imm
##thew
hack
hagg
##mented
frames
chand
chron
chios
notices
##andy
butler
alumin
trent
mann
spont
pled
pean
resign
compos
grades
repet
intact
interactive
##ckets
twins
actress
marit
backing
specially
##oths
download
poles
##luded
subclass
governmentwide
capitals
pharm
homework
##scale
correl
farr
defensive
metres
taxed
serene
affil
cheers
guessed
protested
musicians
##ecd
anna
freely
reasoning
harb
harbour
solomon
potter
129
domed
policymakers
similarities
snap
hunters
devot
cope
treatments
duomo
appropriately
madame
deadly
fairness
requesting
##ography
scenic
positioned
diary
wildly
slowed
bananas
rainy
misd
connecticut
cruises
sciences
spectrum
laying
rebels
warmth
tales
powder
psychiat
earnest
coward
octagonal
scientist
francisc
avenger
inquest
consulted
consulting
negotiate
storms
mechanical
ivory
brightly
resisted
motivational
pm2
crusade
reminder
appointment
renovations
pitre
wounded
simpler
cantina
vicious
encountered
feminists
bernini
lodge
liberties
wolves
supervisors
fantasies
explicitly
subscribe
bombs
wardro
laund
queens
bankruptcy
pharaohs
sighed
collapsed
caleornia
leisurely
notorious
annoyed
turtles
tuscany
wisdom
overlap
nightclubs
yankees
reconstructed
woven
##unciation
amphithe
bounty
atmospheric
orchestra
sorbent
kramenin
nebraska
noncompl
beijing
aluminum
51
bore
bays
balk
camb
duct
dug
eiff
fitz
gary
iup
jain
kual
kurd
nude
posed
piet
rats
tended
##rac
##sen
##diction
##vis
##pur
##path
##mith
##mont
##inn
##inas
##inians
##itical
beasts
##storm
stance
shy
conform
fra
suck
knee
albr
abu
soaring
hass
willie
##oku
##ounding
compost
compact
compelling
grind
##aga
##agne
eviction
overnight
roller
goodwill
buys
pockets
scan
##aven
guill
martha
descent
lookout
consent
relies
opium
##othy
downstairs
blamed
belg
slap
slower
organize
organizing
propose
concur
confron
confined
##ecy
landf
growers
tops
halt
##racted
judging
distracted
##sha
kingston
immun
##parents
126
domain
domination
simplicity
debated
grandparents
objection
##umbers
painful
##lette
unfor
acquiring
moses
packet
sandstone
sandwich
legislators
tiers
corrected
dropping
adoption
layer
behaviors
giul
functional
elders
burnt
burns
welcoming
spectacle
strengthened
##uki
belongs
partnerships
launching
witnessed
workshared
loudly
vietnamese
temperatures
reinfor
inputs
monarchs
##laid
anglo
montego
frightening
anxiety
blanket
excluded
riviera
aqueduct
obstacles
yacht
unrestr
excavated
observer
pearl
breeze
honda
inclusion
reloc
perjury
brooklyn
proliferation
seldom
eiffel
iupui
kuala
aj
aol
dess
dak
fh
faded
hale
hank
kas
mi
mie
mast
nc
oval
pel
ropes
sop
somed
uk
##rd
##iets
##based
##ns
##nin
##lon
##cere
##gue
##onso
##oria
ank
anecd
##real
##reated
##asu
##leine
##utt
##add
healing
weaving
asp
sher
shaking
shores
nebb
cherry
succ
knit
##acon
trig
aba
spaces
plateau
arn
likewise
clust
offense
fever
boast
poke
pooh
##berry
mare
marcus
needy
thrust
##amped
madeleine
regent
##athed
studios
flue
flaws
callers
wright
subia
idiot
realign
endors
##uccess
locate
organisms
disclosures
happier
entries
sins
charism
deficiencies
forming
deterr
watches
contrasts
benefici
annex
portal
facial
equation
morally
privately
operated
cease
specify
budgeting
exclaimed
##iki
breasts
##pring
regulate
periodic
flock
grandchildren
lightly
flea
motives
boyfriend
separation
israelis
adjo
quarrel
imaginative
affection
crocod
dispatch
reliance
conservation
judgement
magnitude
vacuum
complaining
constitu
angels
ignoring
conversion
compares
cooler
variability
remarkably
##ohama
2015
illustrations
consequently
roofs
permanently
hinduism
eliminating
masks
workshops
nominal
soviets
detective
philosopher
sponsor
sporting
cousins
sabah
exploited
gifted
accommodations
gorb
disneyland
hijackers
bolted
steadily
earthquakes
tablo
transmission
routinely
assignment
pronounced
paragraphs
harris
province
mamm
diplomatic
stabil
incompet
ancestors
##frame
barbecue
exaggerated
##build
invoice
deductible
massacre
##bursement
xiii
ffc
clerk
keswick
paycheck
northerner
pigeons
cocaine
yokohama
##inancial
enthusiasm
noncompliance
someday
beneficiaries
89
arose
cau
cows
das
dart
denn
diana
fence
fiance
jod
lt
lingu
ming
qa
rack
raz
rivals
rosen
tore
tread
yam
##hu
##hed
##nik
##sad
##ski
##uke
##eur
##eeling
##vals
##made
##mates
##western
##ori
##alds
##arity
##itr
##itter
##isi
##eters
##adic
##vere
shack
shattered
prose
seattle
goats
noting
prado
alarm
worries
melt
##ardt
##unks
mahal
mafia
unity
sake
upscale
graves
##group
ammon
implies
evac
intimate
anytime
cran
cripp
crowned
herbs
carth
carlos
poem
partisan
fog
marath
marri
marco
recession
##iane
thrive
backdrop
remsad
flights
genre
##getown
emplo
kevin
baseline
##cript
edg
ministry
hollow
approvals
proportions
nationalism
2004
mailing
campbell
daim
classics
classroom
matthew
raid
experimental
ceos
capitalism
156
sunsh
accessed
methodologies
agreeing
traveler
labeled
educate
puff
encomp
participant
computerized
civilians
##ova
objections
castles
standardization
cathol
ensured
jerk
georgetown
substances
lawsuits
embod
sweaters
shareholders
consisting
triple
fastest
lucr
investigating
missionaries
consumed
decoration
magnet
sudan
meantime
premier
telegraph
rebel
emperors
drafting
cheapest
unsuccess
transported
landscaped
gentile
pursued
pursuing
robes
randy
prints
boilers
semester
tune
elegance
recipes
carpent
interpretations
bullf
blowing
skew
tightly
alleys
bedrooms
hijacking
tanks
disappointing
unwilling
##achev
recruiting
fragments
solicited
monopol
joyce
licensees
##eastern
renewed
sympathy
advertisement
indoor
muscles
bureaucracy
provincial
stanley
enthusiastic
neglected
pharaoh
bundle
mumm
retrie
counterparts
nonsense
perpet
vibrant
##minster
conspiracy
vermont
unbelievable
nevada
injustice
pittsburgh
amateur
albright
dakota
gorbachev
encompass
350
gy
git
gur
hath
hmos
ig
ironic
jets
lac
lust
lend
lure
pto
rally
sore
wy
wield
##bly
##aig
##uil
##erget
##inqu
##esa
##orout
inability
##iters
##icans
rejo
wholes
stack
fores
##chy
##iger
hak
##teries
sham
sev
##ersed
##illas
fron
trinity
##mpt
##iffer
##ective
spacious
maison
maze
##ela
unanim
lob
sai
teens
##ounded
donors
workout
persec
imply
contam
bred
brink
britt
rogers
carving
cargo
mund
bohem
tapped
##uctive
accustomed
stras
servant
coloss
##ogy
umbre
inviting
syria
wayne
rembrand
blink
blessed
flaming
courbet
keynes
retention
eds
cake
insane
seemingly
sincere
souls
propert
audiences
touring
barbar
autorout
signals
##oyant
hotline
ideals
patience
##phorus
gloss
morals
salam
raiders
apost
apoc
terrified
filmm
172
antich
168
merits
sentiment
rocket
forehead
murals
shrimp
divisions
purple
panama
messed
softly
seasonal
dijon
respects
imagined
##orrent
hyper
installing
titan
deduction
garlic
displaying
tracked
automation
##adox
diego
##rofo
shallow
firmly
bronx
renting
pursuit
semin
quantify
illustrated
skinny
filling
ashoka
austin
poisoned
poisoning
workshop
detection
diseases
rhet
recycled
distinctly
ganga
eagerly
kirk
fertil
promptly
optimistic
embraced
lewisville
admirable
distinguished
rajput
renewal
strangers
reconstruction
ryan
grasp
wolfe
geographical
humidity
wanna
betrayed
dignity
contradict
pesticides
kiosks
bosnia
sprawling
overcrowded
dancers
incumbent
wiped
pardon
destroying
autonomy
raphael
folklore
maritime
franciscan
edgerton
sunshine
catholics
lucrative
ptolem
rembrandt
53
70s
au
bilingual
cuc
fist
fret
hann
ja
jag
lil
osha
rings
riot
tay
urea
vint
wp
wach
zion
##ollo
##hr
##bra
##link
##vos
##xon
##washed
##atial
##esy
##esc
##oni
ante
toile
##ingo
inlaid
##arms
##oman
beans
stee
##amo
shit
##olia
chris
atomic
livest
##ppers
yelling
thereafter
prag
algar
sovere
leaks
allerg
##ection
plague
outd
loire
upward
uso
resur
graz
graft
gracious
noisy
perug
perched
##akhan
sheets
impract
evans
newcom
crude
craig
carav
carriage
disgr
prefers
##icals
footh
thres
throws
undergrad
monkey
legends
spelling
helm
blur
requesters
supplier
additions
persians
warmer
visions
realism
startup
bothers
hoff
happiness
revisions
corinth
charter
approving
delos
defining
##erness
sket
##tsa
airpl
extending
designers
##leyman
equality
morality
morrison
mainframe
##ructive
raft
apollo
refurb
greedy
101
experiencing
##ikh
presentations
bloom
##boards
##ancies
methodological
reaches
166
164
protects
modeled
determines
finely
scream
alcoholic
pollock
110
drinkers
wooded
140
hurting
mosques
combines
juice
celebrating
russert
santor
venues
##iffs
garland
essence
1966
jesuit
camii
laser
breathing
industrialized
1940
samurai
licenses
contempt
inspections
attendance
publishers
wilkins
harmony
predictable
unusually
floods
dominates
tubes
theatrical
##writer
rewarded
bosses
mysteries
dilution
unreal
groceries
##keeper
supplementary
premiums
australian
warnings
unconstitution
broadcasting
spoiled
nhtsa
jefferson
exercising
##uela
elasticities
offspring
strawberries
panorama
panoramic
corridor
ignorance
confidentiality
disorder
jfk
alphabet
hockey
accusations
uprising
bishop
leverage
embassy
adolesc
dazzling
congrat
reminis
hilarious
fhwa
gentilello
properties
livestock
algarve
apt
awe
aided
baker
garr
jar
mate
pk
piss
poker
rus
rugs
sr
sank
ssa
soda
ub
wto
waved
zar
##occ
##hir
##lash
##dle
##cane
##gie
##pill
##mad
##kind
##jman
##aned
toes
ink
ingl
##omph
bea
bells
##stick
##ados
##aying
hail
haunt
proxim
chill
traced
##ifices
leaked
energet
sparse
plag
plumb
araf
arlington
unex
clown
adams
tear
donating
workload
pert
pertaining
incon
quo
repr
cram
crane
overh
overly
robb
interactions
co2
actively
dragon
strand
##ption
thrilled
consci
decad
paradox
downward
schumer
addicted
persist
deploy
federation
retaining
modifications
earl
hood
thoughtful
norad
delib
baron
curtain
businessmen
designing
##pless
headlines
##asonable
sitcom
transfers
seniors
2007
menace
testify
camped
salute
maturity
refuses
158
##ikoff
presenting
specialist
styl
administrations
snack
debates
shovel
devi
murray
##ycl
violations
hearted
lakeland
influx
campaigning
appearing
uncons
creature
surroundings
conviction
exceptions
commentators
occurring
luckily
vacations
adopting
catching
layout
writings
dubbed
21st
jackets
introducing
immigrant
powell
commitments
videot
bombay
surveyed
managerial
melod
calculations
breathed
cupboard
dishon
avenues
inquired
chemistry
pico
nurses
lakeside
olives
austere
hersh
wheat
osi
delighted
incorporating
sugarcane
courtyards
bagh
thoroughfare
concealed
reinforce
##writers
forbidden
assassinated
bosphorus
vulnerabilities
assembled
summarizes
inquiries
pagan
lsfo
caterpill
producer
accumulated
preceding
shields
greeted
quinta
suburban
puppet
klein
icons
philippines
privatization
enlighten
richer
lonely
rifle
dolphins
vouchers
botanical
abstract
abruptly
landlord
telecommunic
tudjman
crucifixion
gourmet
prettiest
appraisal
wardrobe
kurdish
dessert
marriages
strasbourg
corinthian
arafat
caterpillar
bub
bows
cors
cush
dia
dwe
ely
gases
kat
mck
mower
mats
oath
ply
sack
sang
yor
##rays
##iently
##iantly
##naires
##si
##uaries
##cz
##pro
##fol
##wara
##zhou
##99
thie
##itations
rebs
##otted
##sept
##chi
##chool
##cel
##irical
##ationally
##olved
##ulum
franch
##opy
chant
chip
knives
knox
##usa
prow
prone
allev
sob
meiji
##arte
spice
spans
##astrous
outn
outline
unve
myri
##ahan
##izers
##akis
amuse
brah
cries
crick
disastrous
twent
1900
laur
strain
guang
lottery
deserved
unders
monster
monkeys
backup
oprah
##wealth
flats
##angel
systematic
warren
warming
warfare
obel
lasts
realm
phill
##enees
popes
mode
modem
capped
rested
demolished
comeback
fundament
##iograph
curs
##plan
nearest
jonathan
patio
testified
musk
electrical
oppose
certainty
collectively
policeman
refrig
ceased
##ocative
##arried
sidebar
sidewalk
successor
155
awfully
questionnaires
stuffed
tenants
165
focal
favorable
favorites
pressing
devote
commonwealth
wordsworth
standardized
centralized
surrendered
##lett
scrap
galleria
breakdown
secretaries
damn
corrective
drawer
communicated
celebrates
balloon
microw
responds
decorations
literacy
utens
spectators
arabic
preventing
railways
thanksgiving
targeting
italiane
benid
criticizing
safire
advocated
novelist
shelters
1947
1948
decreasing
vacationers
prayers
1934
pyrenees
memorable
##market
splendor
jumping
kingdoms
oxy
exploit
outputs
shifts
1919
privileges
suspects
disciplined
gigot
unreasonable
plaque
overwhelmed
admiration
transept
albums
highlighted
discourage
##ulsion
passionate
murders
collaboration
linux
torture
enthusiasts
refreshing
abundance
puzzled
lucas
niche
canceled
exercises
slogan
illuminated
athletic
aristocratic
mathematical
anchor
fossil
relieved
diagnosis
tibetan
lumpur
inaugur
divorced
jardin
adultery
manifest
phoenix
etruscan
kendal
orrery
disciples
giovanni
farrakhan
giuliani
ammonia
taylor
sovereign
myriad
guangzhou
ay
aquar
cough
cens
cze
dus
daring
gul
hut
hunch
lith
lapt
nie
nike
nba
nuns
ost
pod
penc
tum
tame
tatt
wary
yadda
zuck
##dal
##cases
##gon
##22
##juku
##erity
##orical
##orously
##arming
##arthy
##ication
reese
##otal
##utant
##eterm
##etics
whil
whist
stating
##roit
##roads
##chet
heck
shiver
shaft
chasing
yell
pristine
tram
triv
mead
mang
ally
spurs
sphin
spicy
unin
##oused
amato
expat
exported
incidence
brag
brush
brisk
drif
marie
backp
makeup
secluded
presort
regimes
downhill
blument
##ermark
counts
wrench
##ressive
showrooms
handica
phones
endow
standpoint
hooked
rests
restruct
##rians
mete
marker
importantly
engaging
humble
sku
curse
curves
##ilted
turnout
##ieties
##brow
##bria
tucker
experiments
trades
dolls
waist
10am
nicely
differs
questionable
filter
buyers
tenure
vienna
balancing
staffing
civilized
linear
assisting
memoir
shoe
victories
1981
madness
surrender
fax
connell
ridge
lowering
efficiencies
spanning
complexes
cooks
embroid
fells
indicating
venus
banner
observing
fashions
1972
deductions
measurements
ballot
consuming
1964
verification
qualifications
capturing
murderers
colonel
textiles
jacks
cubans
libraries
danvers
hillsides
montmart
volunteering
brandy
seventies
1944
retailing
ghetto
mobil
mccarthy
chemist
sarah
sarawak
proceeded
furnished
dismant
instructed
penny
overlook
iraqi
ecological
telephones
byzantines
sponsors
utilized
ranked
translate
chestnut
struggles
promotional
stadiums
nonfinancial
triumphal
yields
bourbon
dilig
feminist
naive
iranian
instrumental
inefficient
dotted
elevated
subscribers
flanked
olympics
inclusive
ignorant
comedies
philippe
fossils
interfere
bumper
helicopters
##umbered
cautious
disposable
pallad
catastrophic
minaret
prevalent
kabuki
mornings
irrigation
spontaneous
laundry
hassle
guillotine
unrestricted
antichrist
inglis
proximity
utensils
czech
sphinx
blumenthal
ao
aux
borr
emm
hikes
lent
nl
nash
nfl
roses
##hara
##iop
##law
##dog
##kas
##kirts
theor
##erite
##inished
##esign
##onos
##enuous
##orthy
inhouse
##itous
##itism
##reed
##reuil
##lements
beats
rearing
##otam
onions
asyl
goa
chess
bypass
abol
##ifa
canoe
spur
##elf
arising
arbit
uno
cluster
##ibu
resc
peril
##agm
intensity
overhe
intermed
interference
partial
##owners
taj
accuse
margu
betty
fines
backward
jocks
preschool
remedy
blast
flip
flamb
subd
artwork
daylight
retros
edges
##ugos
schooling
proposes
metrics
detroit
curiously
particle
airy
natives
stuart
behold
morrow
continuity
collects
archives
understandable
activist
##olds
##author
sane
promotes
151
1500
awak
harry
antitr
epit
recordings
destructive
argu
coasts
distress
squir
pickup
accepts
caste
commissioner
coptic
murphy
1985
148
violated
##ambur
structural
divine
animated
preferences
gallon
royalty
##heart
separating
tiered
softball
gardener
tender
predictions
farmworkers
afforded
1977
louisville
garments
1968
blocked
constantine
demonstrations
inspiring
broncos
forgiveness
1945
bulbs
vegetation
cartoons
comprised
comprehend
broker
deceased
shady
reconcil
symph
circumstance
hatred
adventures
accomplishment
motorc
predicting
heyday
##forward
stressed
sophia
depressing
asserts
mentor
exploitation
whisper
tailored
darn
gauge
stroke
strolling
weighs
solicitation
grandeur
rustic
rajas
discouraged
jurors
bearded
diamonds
rituals
intentionally
transparency
hmo
narc
evelyn
unrest
inferior
worshippers
browser
untouch
vaulted
zealand
invoices
vaguely
surgeon
helicopter
addictive
oscar
favourite
mughal
gaulle
entrepreneur
fidel
jurisdiction
scrolls
theoretical
temptation
borneo
lounge
adjoining
lobster
brittany
autoroute
threshold
enlightenment
telecommunications
microwave
benidorm
oxygen
aquarium
asylum
antitrust
60s
750
94
aar
bach
bidd
dic
dire
diane
eug
eternal
fict
gin
jee
kay
lum
lining
lomb
misc
nathan
ooh
pam
sided
tint
vp
vik
yog
##hour
##bir
##bled
##dad
##dings
##uji
##math
##just
##atown
##ali
inh
inel
##leep
beings
##llation
reim
isab
stables
stagn
##seum
##roach
hewn
weary
##amine
##amoto
asleep
shug
sherman
seleyman
##opotam
chow
notew
sums
exor
exch
##usions
##abol
alas
abused
abolished
sof
solem
##ifer
leith
##oshi
##apur
##umbo
spike
spiel
arawak
##qual
unab
tears
##iban
reside
griff
donalds
noises
amused
evie
offenders
fears
crest
interact
coven
careless
bully
scam
indign
monstr
highlands
proves
regain
remod
flung
genes
slender
planners
importation
organic
restoring
performs
economical
carey
autob
runner
processions
ideology
whitewater
walker
passive
statuary
steak
matrix
matisse
tucked
billy
broch
successes
estimation
thirst
individually
harmed
purse
irreg
solving
labour
##parnas
regulators
potato
122
modernization
turbul
squad
sno
selfish
screened
30pm
emergence
violently
appropriated
laborers
hearts
trustees
unfinished
bonap
creativity
damned
messy
combining
##sethe
kmart
cardinals
alternate
sculptors
celebrations
denying
inns
wilderness
slee
rounded
midday
midwest
skyline
rapids
vacc
touching
taliban
ambient
disappro
acquisitions
mercy
hamlet
montparnas
samos
calculating
triomph
retailer
karn
graduating
boundary
advisors
furnish
##marked
protestants
obliged
harmful
rumor
dissent
smells
330
29th
pcs
saber
lesvos
torch
subtract
whisky
reservation
solidarity
withdrew
phrases
repaired
owes
exempl
cyp
prudence
paved
sophistication
556
embarrassing
resemble
barracks
recreational
cottages
skepticism
reproduction
serbian
densely
geography
pistols
squeez
barbara
hurricanes
carnival
hierarchy
adventurers
shogunate
swiftly
uncovered
pompe
aisle
dinosaurs
remembers
horton
##colm
lanterns
insufficient
ralph
disliked
cambod
realignment
deterrent
toilet
grafton
unconstitutional
reminiscent
inconven
deliberate
refriger
lithu
zucker
bidders
noteworthy
donaldson
montparnasse
triomphe
450
86
dah
dys
fading
gem
gamble
geared
hambur
iey
jas
koh
lace
lamb
lorr
lana
laughter
nail
nope
pup
rains
ratt
tiled
yugos
##oise
##obe
##iac
##iary
##table
##tained
##nard
##schild
##low
##ea
##evelop
##vi
##mes
##mund
##kakis
tod
insect
isa
##etical
##ige
haifa
seals
##ulator
##opia
chanting
notification
pric
pruss
prizes
abortions
leban
enron
##artisan
spouses
arrog
##emen
unac
looming
sag
sailed
teod
upwards
agra
reson
resigned
complying
compelled
implied
impati
newt
brant
brun
overview
intergo
interiors
coh
cocon
coves
coats
carre
##uber
goodman
strung
aftermath
attent
monk
consume
backwards
relates
spells
parental
opulent
blair
fla
slide
slump
basics
retains
enduring
kinda
kindly
insert
charitable
builder
builders
easiest
developers
curved
productions
taxation
extends
cheating
transp
watering
patric
patrol
improv
whitewashed
trapped
205
morb
##lessness
activists
succession
waver
execute
estimating
millionaire
villain
entertained
plea
pleasing
pots
encycl
geometric
competencies
sellers
richest
picks
murdo
118
dukakis
circulation
madras
shrink
virgins
firef
savoy
laden
stockholders
narrator
wishing
alternatively
communicating
swear
stationed
dressing
multipoll
mandr
declines
luu
604
investigator
titled
sensual
rapt
starving
collar
meaningless
petit
salesman
closet
thankful
suspense
daddy
straightforward
concentrate
mirac
defeating
occupy
fitness
virtue
##masters
licensed
enhancing
proceeds
negotiating
converse
dynam
1952
nomine
detectives
flooded
dimensions
ventura
borrowed
reinvent
prosecution
hawaiian
accommodation
assassination
mahara
purely
cuisines
akin
outskirts
weighing
optimal
cyber
lambs
leaned
leaning
supplemental
bernard
rigid
crawfish
##repres
cyclades
tapestry
metropolis
eruption
salvador
devastated
balcony
enlar
cautiously
conqueror
riots
contingency
dowd
unstable
parcels
compatible
predecessors
einstein
exhilar
uneasy
paralegal
sarcophagus
##patient
tadminster
mosquit
galilee
rhythm
mehmet
ambassador
lusitan
hebrew
persecution
bohemian
cucumbers
steele
outdated
hoffman
energetic
thieves
handicapped
flamboyant
rajasth
spielberg
autobiograph
bonaparte
ieyasu
yugoslav
intergovernmental
murdoch
multipollutant
76
91
aks
a50
cind
cds
dile
dual
dair
dyl
dwar
ee
ech
eph
fits
gwe
gaps
giza
iber
juries
kum
lon
pou
pant
pyl
rend
rated
rained
ridden
tina
vom
vind
##iards
##iago
##bury
##bank
##yers
##lining
##cad
##gence
##kill
##far
##76
##ws
##200
thigh
thai
##erc
##enot
##anth
##alypt
##reet
##asi
##asive
recept
reactions
##uten
##utive
##utta
stip
forested
##ayan
shan
shrew
##iliar
##ileries
proving
seal
seine
##kel
##ules
frenz
neads
chan
##anto
liabilities
##acio
aligned
trout
leak
lemon
##ivable
##ivities
plunder
##elong
##eliness
sao
clun
adher
adri
grapp
expose
quer
contend
brian
reputed
anyways
crap
overp
intercept
interchange
interconn
coeff
hercul
disasters
scorn
##ensible
vec
##ogene
mocked
##issible
backlash
invari
symm
relent
joc
stately
lawful
realizing
##centric
discos
discern
sinister
sinatra
proposing
lethal
avid
nationalist
airports
concise
communal
admitting
certific
mailed
clintons
porte
varieties
criter
continuously
steaks
tuileries
brock
##olded
delivers
successors
arranging
speculation
clearance
154
harem
##shot
burge
label
recordkeeping
protections
##ushu
eighties
teaches
silhou
strongest
cannons
malcolm
hurried
julia
chapels
negatively
surprises
reformation
greenhouse
##iquitous
damaging
bankers
germain
candy
excellence
declar
605
urge
journalistic
senses
disposition
pathetic
quieter
flexibilities
truths
complied
gasped
florentine
bandit
amazon
positively
guardian
freshwater
weddings
cowboy
forgive
##paid
occupies
shelf
bullets
ample
irony
unprofit
##iye
mileage
inquis
3000
converting
kenneth
1929
instruction
kyushu
randomly
digging
flooding
dominate
##foot
coaching
torre
clarify
suspicions
anticipate
prevents
preview
overseer
bolt
omn
casualties
gravely
barrier
fragment
cafeter
swinging
rusty
transmitted
tolerance
exclude
legitim
sailors
evolving
stimulating
prophecy
rabbit
bureaucratic
serbia
erupted
troubling
persuade
allegedly
chinatown
bacon
corridors
veto
outrageous
warehouse
disorders
blessing
emotionally
endangered
interpreted
##algam
downsizing
enforced
appetite
remnants
synthesis
depreciation
himalayas
mercenaries
deferred
minoan
innocence
##olithic
correlation
affiliated
ubiquitous
##occup
alleviate
obelisk
whilst
meteor
intermediate
vikings
shuger
isaac
teodoro
dwarf
unprofitable
03
512
81
citing
damp
dash
ditch
eul
gw
ht
hiv
kor
kod
morm
mason
mitch
oy
oun
pipe
rut
sff
terry
vau
##rest
##rons
##tle
##turn
##ele
##vency
##gun
##gered
##xy
##mouth
##34
##71
##zart
##jab
thur
##erated
##inence
##atis
##atro
##ener
anat
andy
##asy
##lee
##entious
beau
beams
reims
relying
##utable
whale
stunt
stumbled
forem
##sees
##ayman
##imited
##amiliar
aspir
shipped
seg
chuck
dolly
sull
suite
##antan
##gev
liver
yel
prized
mecca
##outed
canopy
##alling
manners
enig
spine
spared
plath
maur
aroused
outlet
outpost
unse
unint
peasant
peppers
saus
cla
clam
gra
grun
grilled
grotes
##grams
donkey
nood
##akusa
##agu
thinker
brac
feast
##formed
coo
cogn
bulls
##rys
##berman
laz
##licted
commut
undes
##iances
mozart
invading
informative
fuzz
assuring
madeir
polished
governed
##ulars
##leman
persistent
depiction
##teenth
surreal
##eney
instantly
startled
startling
##redict
##rium
propon
defenses
default
meditation
nationality
mustang
incremental
barred
barren
eminent
detr
curric
issuing
signatures
##ashi
turnover
##aob
waterfall
patent
mailbox
grouped
glowing
annan
portable
portico
palms
summoned
refund
billing
terrifying
arrives
##lihood
sanction
figuring
futile
distract
harlem
filters
solo
immort
immune
burton
envy
##parable
poorer
169
merry
snatch
strategically
footpath
teachings
interval
devised
##ycles
keyboard
motive
junction
animation
applicant
decisionmaking
damages
primitive
cookies
denial
santiago
climbed
suprem
1978
dangers
ballroom
##yrus
essays
submitting
cambridge
advertised
astrolo
marched
unspo
suspended
chiefs
caval
conditioned
psychologists
malla
spreadshe
biased
montana
montreuil
brands
appealed
shelves
melted
conceptual
unpredict
comprise
decreases
##ukk
illustration
roofed
proceeding
battered
heroin
attendant
deposited
absorb
allocate
detecting
scholarships
dissaving
eagle
pcaob
##written
satisfying
translation
maple
klayman
migration
outlined
cockt
neckl
mirrors
wheelch
hypotheses
corresponding
genuinely
stranger
fulfilled
advertisements
collaborative
grasmere
tackle
bombed
yachts
vigorously
lobbyists
gleaming
siena
vampires
gerth
bastille
brewery
hispanics
screwed
barbec
mathematics
rebuilding
swallow
vieux
fiercely
interface
kurds
nostalg
sesame
intoxicated
reversed
oranges
##oppy
harmonious
vertical
##estimated
contributors
skyscrapers
gauntlet
inaccurate
harbors
qaeda
carthag
vintage
dwelling
inaugurated
marguerite
##authorized
reconciliation
solemn
furnishings
pompeii
priceless
unaccept
brantley
mandrakes
mosquitoes
pylon
criterion
declaration
foremost
unspoiled
83
bm
bids
ecl
ferv
gad
hig
ie
iq
kud
loral
mcl
nond
piv
rer
rays
rio
sard
tiss
tense
ul
vil
vines
wend
##ridge
##iere
##gone
##pin
##mins
##kh
##with
##atur
##atism
##orable
##inges
##algia
##arium
reilly
##etically
##idences
stare
##igs
heated
##ths
##term
##ilitation
##este
##kee
fries
neh
##oper
doomed
comf
lia
livel
##abouts
prc
alc
tray
trunk
lease
manson
engr
spire
plug
ard
##quer
likelihood
unused
unauthorized
clone
clues
closes
##okie
upright
myr
##onged
agony
##ahu
##ahang
rescue
##ureen
##ipur
incarn
quad
quil
roar
hered
herbal
##erving
disbel
boiled
##enco
lax
##loaded
centr
indict
guerr
##pton
smoked
afterward
##orde
invitation
deco
spears
effluent
takeover
flute
flaw
flames
systematically
owning
wares
idaho
obl
depr
sla
slice
handic
redeem
miners
corral
delta
formations
metic
##tsin
advancing
serra
cheeks
completing
newshour
transit
ideally
##iciency
patan
menhir
gaoas
annivers
crev
varanas
critique
operas
sala
generosity
pasta
refusing
##ocation
armen
promont
juda
originals
ego
kills
immoral
##rued
pulls
corpses
encry
competence
specifications
richly
hunted
subjective
pollard
119
treats
woody
custod
journeys
contracted
normandy
neglig
jerked
138
acquaint
expressive
driveway
combinations
despatch
##zzar
denies
machin
supermark
hype
submarine
1969
columnist
blockb
camels
punjab
mountainous
sleepy
remainder
repeats
fascinated
racism
cowley
robbers
fortunes
inventories
vanity
##mosis
strengths
transferring
commandments
orientation
photographed
attendants
archaeology
symbolism
##offs
extensively
launches
absorbers
nomination
incorporates
champagne
concerted
eclect
surfing
youthful
asserted
##gregation
rampant
reserves
venetians
pitcher
1917
porches
outsour
prosperous
pulp
owed
exemption
exemptions
photographer
astronomical
parliamentary
hypothetical
shouting
authenticity
cycling
boomers
unconv
sympathetic
bhair
ineffective
patriotic
pregnancy
ferdin
lagoon
warranted
withdrawal
worshipped
ornamental
organs
automobiles
mergers
sufficiency
swallowed
trekking
relieve
kuwa
nostalgia
disclose
folded
cedar
terminology
navigate
tidal
profoundly
confederate
reefs
amenities
prescribed
prejudice
undermine
shinjuku
twisting
blanca
intimidating
travelling
nickname
itinerary
stevenson
##iscovered
fowler
lamps
smokers
consortium
immunity
anecdotes
pokemon
charisma
unsuccessful
rhetoric
dusk
arguably
monstrous
squeezed
lebanon
dylan
invariably
cafeteria
yeltsin
grotesque
anniversary
varanasi
50s
6pm
ale
aims
bury
baked
cites
cunning
dens
daw
dizz
dsm
eats
fau
fade
kitt
khan
ml
mowing
pis
pse
pend
pamp
pairs
rim
tant
tensions
vern
waving
yo
yale
yidd
##rine
##oin
##oid
##net
##nuts
##yer
##ystem
##yrin
##yoshi
##lion
##des
##dled
##mip
##25
##28
##inates
##attering
##esus
##onka
##anor
##aria
##itas
andre
andrea
##omot
beast
beware
reacted
isikoff
##otec
stig
stag
forge
##urances
##chrome
##amous
haps
asians
shal
##eston
seating
congest
congl
frie
fract
chi
yeats
abbre
leop
##ieu
maneu
plac
pluck
arl
##quist
##endously
outlines
pebb
sage
clash
aggr
graff
##aklion
impulse
incur
anyhow
crater
herald
discont
preoccup
strips
maroon
recalls
smi
smugg
##ogues
invade
invention
parl
remed
##athy
##weight
##feld
belle
belgian
idi
slot
slab
retreated
valen
edifice
locomot
cavern
minisk
discrep
sinan
propri
believing
humil
avis
avant
postm
postwar
deterg
skirt
companions
percentages
signpost
airline
cheated
chevy
##ccoli
nearer
swiss
ideological
pretending
electoral
daff
glac
landings
nativity
classifications
palma
204
namely
apoll
paste
calip
winners
chooses
##iko
##ontal
iraklion
singers
##ells
labyrin
periodically
##worked
potent
vii
humanitarian
risking
debut
freak
eleanor
silic
recognizable
malibu
constructive
replen
sociology
entirety
wrongdo
sexy
liking
hopeful
renamed
135
unfamiliar
ridin
definitive
bushes
sands
##igraph
causeway
instituted
respectable
exceptional
tarzan
pleasures
exhibited
midst
1973
misrepres
entrances
hosting
hostel
hostility
gloves
mentioning
adjusting
escort
spirited
##maid
tasty
sharks
giotto
telecon
warmly
oils
matches
##lamation
tougher
capacities
revolutionaries
psychic
comfortably
biology
centrelink
snowed
vandals
1941
melanch
calcutta
unpre
virtues
avenida
battery
container
1936
1955
shocking
nominated
randomized
hideyoshi
pedd
digest
predicts
crusades
brilliantly
winged
disagrees
##urbar
mystical
assertions
291
streamline
mentions
arcades
exploiting
clarified
unclear
recalled
##anesh
tricks
sanctum
##etrical
darned
leonard
outlays
wounds
exempt
optimism
lamar
ceramic
hastily
rigorous
rotten
tolerate
tolerant
resembles
offsetting
assignments
##waite
accumulate
flourished
flourishing
ducks
coronel
polychrome
cameron
irritating
adaptation
butterf
kissed
ornaments
condemn
condemned
populace
##hydr
intervene
disclosed
pesticide
jfmip
disposal
discriminate
unlimited
mughals
skimmers
jogging
descended
implants
quayle
bookshops
oliveri
imprisoned
aldonka
blonde
sacrificed
perennial
veronese
benedict
flick
inexper
ductwork
hathor
unanimous
brinkley
barbarians
refurbished
zarco
unconscious
mckin
dismantled
inelig
lorraine
encycloped
aksa
dilemm
silhouette
unacceptable
liaison
judaism
kittens
pseud
yiddish
##oteca
conglom
graffiti
2nd
bip
cag
cbs
dum
dag
dared
eric
gond
ggd
heter
krist
kannon
katherine
mou
muss
nab
ps
pans
pied
peng
render
rendered
sinking
tene
vcr
viking
##oft
##hall
##hame
##nc
##say
##liness
##eck
##pas
##person
##mail
##konos
##74
##zer
thar
##erates
##erick
##inable
##inia
##orient
##ittering
##asm
##icable
bew
isis
whir
stun
##ayama
heal
weeds
##imented
haute
hailed
##ilation
##ilant
##ilcar
sealed
suh
##odern
exal
exchanged
exuber
##istas
##abar
soy
##ostyle
##alled
##uder
manning
plent
hadrian
outlying
##emon
une
unjust
peep
advers
##ffled
mykonos
agin
##ahoo
grief
peru
imperson
evoke
newton
brace
crom
crab
roast
rogue
intersection
cole
coated
boyc
booming
##licable
scored
accred
indies
##ensing
strive
maraud
needless
recount
undist
moat
monso
decides
decisive
longterm
assisi
preserves
costume
flashing
depended
slaugh
sliding
dayton
daytime
handing
earmarked
townhouse
inscriptions
charms
simone
nora
demograph
defender
medio
aviation
barcel
##loyd
##tened
signing
##cedented
misses
##quez
confessed
##phone
passport
palacio
facades
infirm
archive
cement
ordering
calder
caletta
volley
greg
grease
departed
culturally
garde
judy
159
authorize
authorizing
fisherman
holders
administers
coupled
hilly
periodicals
encirc
simpson
turin
squat
debating
##ogne
pressured
alcoholics
copyr
seafront
duly
birch
sexist
sexually
appearances
scrib
scramb
erlen
sonora
separates
georges
chancel
emblem
sculptor
diasp
medication
tendencies
respectful
babys
radar
radiation
affords
1976
miserable
connecting
safeguard
boxing
gloomy
collins
ibic
##ltry
jamaicans
categor
dubious
interventionists
breathe
auguste
sorbon
dramat
earns
dodge
hamilcar
logistics
robot
volunteered
worrying
relaxation
2018
francs
tunic
vastly
illegally
picn
hawk
neatly
hypostyle
1923
1920
recovering
sprink
teenage
teenager
coordinate
craftsmanship
chronicles
discred
muttered
bailey
bustle
unemployed
graphs
stamped
utilization
knocking
oddly
clarity
bleeding
desperation
exceeded
omitted
basilique
graveyard
tanf
unwanted
disagreement
aggression
hazards
##break
drunken
hudson
pulpit
owing
blacksmith
vicinity
dictionaries
dismissal
embracing
satisfactory
voluntarily
crawl
resembl
vessel
ribe
josephine
scrutin
alleyways
loyalty
vigorous
##borne
ceremonies
exporting
bazaars
squee
envelopes
immensely
bastion
tossed
frederick
replica
abdul
baptist
lungs
fluid
recruitment
adversely
extremes
colonnade
reckless
lecture
rousse
bakery
disgusting
tiberias
impaired
retaliation
discretionary
transplant
ethnographic
fenner
fontaine
sepulcher
lalley
trinf
nightmare
shepherd
kelantan
staple
ankle
arnold
employs
monopolies
impractical
adolescents
sparsely
conscience
##proof
laptop
mangrove
arbitr
fictional
jeez
coconut
dynamics
poultry
shrewd
burgeoning
htm
noodles
curriculum
unpredictable
hereditary
unprecedented
slaughtered
barcelona
erlenborn
resemblance
aides
auctions
boun
bert
elic
elo
hart
hides
hips
huts
jup
jumbo
kit
kite
lig
lss
lime
lenders
mism
mls
nr
nik
nails
oig
pave
ria
sink
sass
serm
tart
vene
zinc
##rith
##rise
##ienced
##bod
##bone
##bish
##nt
##nell
##yo
##laz
##cal
##part
##woman
##zi
##jack
##orate
##ouin
ingen
##vell
isle
stam
stalk
stems
forrest
##rolled
##chre
##imps
haired
haze
shab
shine
shaw
sherry
##esses
##essim
sean
seaw
frown
framed
fruits
chalk
chorus
coma
##ighters
liar
lipp
alger
sofa
##ifs
lex
##ivism
##osium
##apable
manchester
sphere
plugs
maz
arises
peek
loads
lofty
clark
clergy
someplace
timeless
usher
resumed
##grant
##agement
wholly
impr
impart
evocative
quasi
contests
bry
brim
brake
oversh
interd
interrog
caravag
everest
disint
pole
laura
drown
drowned
scal
accadem
guitar
foil
reclaimed
bets
firth
##ometer
attach
somethin
thrilling
##ogen
underwear
monot
monolog
##icked
invis
syl
securing
joan
johor
##atha
flam
flushed
genres
keb
slack
slipping
surm
##crated
##crimin
payoff
childish
edgar
modify
homeowners
insists
##ews
meth
metals
metabol
cleans
barth
businessman
watchers
funn
affluent
##ilton
tyco
sworn
explos
pretended
glittering
portals
cretan
supportive
equals
congressman
statistic
enjoyment
refusal
activated
##lique
poses
posing
sung
towel
esplan
174
##levant
antilles
christie
worthless
viability
staffed
sentimental
risky
musician
lighting
footage
##boro
polling
violation
optional
penrith
displaced
void
virus
trustworthy
battled
bonuses
expressions
creator
embed
discoveries
shareholder
documenting
dinners
perfection
consisted
flowed
1971
declares
lukas
##took
urges
##iesta
sensation
jeop
jewell
misgu
occurrence
tomato
frequented
conservatively
safeguards
proserous
mixing
gradual
catcher
catches
demonstrating
behaved
giac
bandw
petra
contacting
inspire
##fficial
talm
thanked
martini
grove
tribun
lieberman
snowing
inventive
inventions
commanding
outcrop
fellows
derwent
galata
symposium
containers
1931
gambler
fabrics
belonging
ivy
obligated
instructor
instructors
fooled
allocations
champs
260
digit
crushing
disagreed
nicotine
updating
cigars
streamlined
bricks
implicit
conceal
attributable
lesb
kosher
sustaining
##respons
exceeds
faulty
disappointment
cheerfully
flags
antoni
benches
dictators
yielded
dragging
rodin
reluctantly
thursdays
correspondent
correspondents
cycles
##ulsive
##kaido
puerta
scorecard
harrer
fleece
1868
apologized
patriot
mamel
alabaster
vendor
ellison
diplomacy
tutank
excavations
kobe
irrational
pakistani
kleiman
##oshima
wagons
sparked
vocab
mesopotam
intervening
dividends
fujiwara
confrontation
gutenberg
kiosk
defectors
parameters
jennings
lynn
chauff
slammed
cpas
peasants
macroeconomics
dwind
tractor
rectang
syndrome
volatility
kinsley
reopened
infinite
peanuts
amphitheater
balkans
nebbish
dennis
treadmill
umbrella
blinked
ptolemaic
unexpl
deviations
dishonest
cushion
elysees
cricket
undersc
sovereignty
backpack
endowment
restructuring
unofficial
overheard
retrospective
symphony
reimbursement
stagnant
impatiently
lusitania
rajasthan
a504
dairy
vecchio
kodak
promontory
eclectic
kuwait
abbrev
encyclopedia
plentiful
copyright
squeeze
lssm
disintegr
accademia
esplanade
3rd
82
bc
berm
bikes
cort
cokie
dhs
fib
fuss
fann
gt
hk
hok
jol
jams
kem
kag
lance
maced
py
pd
pes
pony
raging
riley
tac
tink
tile
torrent
ud
vit
vase
wipe
ym
y2
yahoo
##rs
##rat
##ram
##iam
##burs
##bags
##eer
##vo
##gir
##pse
##wall
##wind
##14
##eroy
##inarily
##atus
##escent
##onne
##anese
ing
##arians
##stood
##owl
##owers
##adi
##igl
##irth
hein
shipment
##olation
withhold
prostit
deir
conventions
##uled
friv
frances
fringe
negr
goin
golly
goof
gosp
liz
##acity
##abl
##abilia
prair
alm
alaska
trous
trav
abusive
soho
##unting
enr
allergy
spill
##ourt
outwe
pee
peac
peach
adobe
##cian
whatso
upheld
##ibi
compiled
griev
getty
##ipes
incense
quarr
quai
brom
brig
cranes
crumbling
overha
oversee
roared
roger
rooted
roasted
coke
##cki
carne
muller
disburs
##ignon
prefect
scars
scales
##loge
##aval
accl
acclaimed
guin
desires
recol
betting
fined
undergoing
mole
##ailable
probable
spelled
parano
downloaded
##ermo
flut
flop
flush
huang
subsection
subpart
warl
empirical
deport
cityof
surpass
basse
phant
endpoints
elbow
modular
redesign
inscription
reval
revise
correlated
correction
defines
playwr
##bear
nationalists
barrels
detached
skip
server
concorde
admits
admiring
##althy
##roned
certifying
confuse
confession
improves
camper
campers
portrays
portfol
behead
termination
infamous
collector
policemen
understands
terraced
capitalize
arrows
youngsters
hopeless
##upulous
excise
socialist
researched
purity
shortfall
sunrise
##shed
irrespons
##icultural
##prints
envision
labels
satan
styrofo
enclosure
destined
inflow
grandson
riches
wonderfully
copd
115
malabar
militia
emergencies
settling
##ambles
ensures
viruses
fairy
honour
masses
preferable
##heiro
despair
retirees
physics
##portant
venerable
radi
##ophis
rainbow
bloodshed
sensational
jeep
missionary
crochet
ballmer
integrate
disputed
connects
seekers
restrained
besie
safely
5000
constituted
strait
tasted
televised
ignores
clocks
ambitions
ambival
ambiguous
cooling
powders
limitation
cynicism
fascist
bronzes
bowls
robbed
pleasantly
lifelong
strengthening
imperfect
confirms
afternoons
prayed
defendants
negotiation
walt
memorabilia
accidental
reputable
sultans
baskets
berlin
delicacy
homer
801
pedro
cellars
overlooks
sacrifices
##cribed
eccentric
byzantium
cooperate
eagles
appointments
coda
mentality
exploits
bleak
jacques
therm
philosophical
pineapp
hungary
1915
tailor
privileged
lava
acknowledges
acknowledging
axes
admiral
bernstein
lodges
constrained
1871
inherit
pronounce
flourish
fleeing
prospects
espn
whipmasters
hubbell
tournaments
fetch
warranty
puzzle
cancel
inspirational
cloudy
salvation
hints
incomplete
##itarianism
commemorate
clutched
bulletin
overwhelmingly
tangible
stalact
indirectly
merged
canadians
cooperative
insurers
nutr
triangle
triangular
adventurous
coincidence
##court
##course
oscars
toothp
contingent
celts
dolphin
rouen
resentment
reunion
timbered
##alypse
echoed
merrion
tornadoes
macroeconomic
unimportant
fluctu
moderates
alpine
nassau
sweden
mascul
amarillo
predominantly
nanny
rehabilitation
disguise
deregulation
pfizer
beverly
chandel
trigger
rosenberg
wholesale
salamander
apocalypse
pertinent
baghdad
outnumbered
amusement
fundamentally
meadows
montmartre
griffith
vaccine
karnak
yugoslavia
anatolia
supremacy
nostalgic
bhairav
ferdinand
labyrinth
wrongdoing
mckinney
piedmont
cromwell
volleyball
diaspora
sorbonne
jupiter
overshad
caravaggio
misguided
tutankham
bermuda
ymca
y2k
frivol
outweigh
whatsoever
quarries
styrofoam
87
bould
bats
bending
barts
dana
gm
gou
ka
ket
mong
ner
nou
pines
porter
rug
raves
rips
routh
sans
sara
ull
vag
vantage
vila
yr
yu
zip
##oire
##oidable
##hire
##bot
##bath
##nbc
##dam
##dles
##cons
##ggy
##pace
##zary
theft
thesis
##erpt
##inav
##orial
##orph
##ouded
ants
topp
tosh
##itives
##requ
beacon
##ste
##stones
stain
stif
##sex
##igured
##imon
##imens
shod
shuff
##olini
proxy
##estones
conse
consec
coniston
##illery
##uli
##ulary
fry
##erees
neander
cham
chlor
notified
atroc
comr
sucked
sumpt
lique
##odrome
##acs
##acz
trot
trays
trench
##ortional
abound
socially
soothing
leagues
lehr
##ghia
##iello
manpower
enrich
spor
spit
spikes
maureen
##elo
unins
logo
clad
clip
##ffles
uphill
##ishi
##ibal
resume
acoust
noec
workmanship
##agar
amos
evicted
evangel
##ichi
quir
intol
intends
##ueva
herring
disd
##ittin
apples
##log
##locks
indisp
strings
##anges
foal
marion
marig
margins
recur
recounted
righte
rightly
##onduct
moist
syner
assurances
parr
parody
highland
regained
downstream
informational
statehood
flirt
kemp
artworks
cityel
feds
endowed
elimination
disco
charities
proportional
lett
fundra
barge
booked
extract
tempting
viewpoint
runaway
guessing
weekdays
openly
possessed
possessions
congressmen
infect
infants
apache
refined
trader
broccoli
halted
roadside
judith
excerpt
harold
breach
irate
irres
solvency
177
##print
##naire
colleague
euph
##working
tenant
doorways
staffers
##swater
netany
doug
memo
lighted
##bson
casting
silently
riverside
illusion
furious
114
replaces
dukes
circles
penis
halles
englishman
renoir
normans
connor
eras
reformed
bonnie
firearms
avoids
motherhood
greenberg
##itorial
messiah
broadly
convict
embar
linkage
denials
prediction
tarn
tariffs
venom
venge
farmland
farmhouses
climax
observes
glassware
declaring
martial
urgent
misle
hostage
interviewing
uttered
constitutes
sharon
hanged
petty
releases
comparative
drafts
strangely
augustus
grassy
benign
freshly
marching
ultra
uniquely
ninja
dodgers
robinson
lieuten
francaise
fanci
imperative
commanded
scandinav
quantified
fraudulent
bellini
aiming
batteries
defendant
carriages
speeds
mcm
falcons
clicked
buddhists
mechanics
dryly
kitchens
publishes
synonymous
pedest
cellar
cellular
ecst
nicar
chronicle
stresses
sponsoring
distinctions
alfonso
globalization
ringing
scarves
scarlet
hawaiians
switching
pitched
toxicant
rivalry
strokes
tinos
pulse
protocol
rationale
axis
levi
feminine
##keepers
enclave
portrayal
mythology
undertaking
diameter
bureaucrats
compounds
reproduced
wicker
patriots
persuaded
##charge
tutmosis
balearic
tremendously
##oretto
infert
dentistry
trimmed
honeym
kissinger
vividly
commemorates
breezes
vaults
counterpart
conveyed
sustainable
carlton
culm
stirred
enlightened
hippodrome
deterior
colonnaded
reckon
uncover
irrelevant
nobility
gratitude
browse
12866
skimming
entrepreneurs
lynch
plunged
empowerment
predecessor
hosses
endeavor
oasd
bracket
glamour
gnp
cliches
hypocrisy
unavoidable
fasab
golan
indonesia
hammered
epidemic
troopers
miami
clustered
guru
fronts
colossal
rafting
santorini
decadence
bubble
trivial
nlada
rescued
##qualified
lithuania
##anthrop
cluny
adriatic
barbecues
remedies
butterflies
inexperienced
mussolini
eloqu
seawater
invisible
vocabulary
trousers
recollect
irresponsible
routha
ullswater
neanderth
lehrer
indispens
netanyahu
650
ail
berry
cc
cf
cim
dj
duration
dante
econ
gust
het
hires
ip
jig
jarr
jaws
kap
lub
lanc
lago
mg
nah
oaks
ocho
pact
pang
ras
rash
rios
tg
til
von
velve
wink
wack
woo
##hon
##iably
##ienne
##bons
##buck
##aio
##yll
##ymm
##lif
##eon
##var
##gore
##pool
##polo
##maker
##fi
##wau
##jc
##jan
##jima
##jeeling
thebes
##atable
##ateness
angr
angu
##alle
##assemb
##isen
##isle
##icious
##ioned
##ionale
beers
reh
reared
reigned
##etary
whales
stubb
forks
##robor
##adena
##urt
##urer
##igated
##irland
wein
weep
##amar
##amel
asymm
shred
shik
##ilene
deity
cone
##ulatory
neon
neoc
chast
chores
chunks
dove
dose
orph
orrin
lib
liable
butcher
##abling
alz
abuses
abilene
soak
##ighting
mex
meek
canoes
##osystem
enables
##elor
##asties
outright
unsc
loft
##ffer
upstream
upbeat
##acteria
agitated
justices
##aha
##ahs
compel
themed
donor
donkeys
##ineering
implying
incapable
brav
broth
##achi
crashing
overpay
overseeing
roco
herd
muff
bog
drill
preambles
strat
guild
##angu
dese
##ogu
underway
monsters
##icking
legged
##leside
paras
parque
highways
polar
##ysis
##feit
##urned
flashed
fluff
hump
huff
calligraph
wrought
subte
arte
housew
handmade
cape
##osses
##crupulous
realities
##ucci
modules
redemp
setup
estates
insured
corrobor
demise
hardwood
pointless
emerald
booking
detour
skins
milwau
technician
autop
manageable
taxis
extensions
contrace
severity
##places
cheat
numbered
swir
swine
internationally
traits
glen
glared
northeastern
walkers
walkway
##ocks
##aughlin
infected
1812
1800s
archbish
centerpiece
refin
##perfect
sideways
winnie
eyel
wont
##enched
##iker
##iken
executions
identifiable
plead
sounding
egus
envious
texaco
##istery
geological
staffs
disturbed
euros
snar
forefront
silo
intervals
suscept
copied
typewriter
universally
goldberg
##anners
shrouded
fifties
godfather
momentary
preferential
preferring
acquitted
sonny
superf
savage
exams
seasoning
doctrine
wordperfect
discovering
wilde
##strom
doubling
commenters
hyster
cruz
jesuits
verge
verbal
truthful
punct
californ
spectator
compliment
qualifies
tasting
flora
premises
premiere
rebutt
bordered
odor
odys
texture
augustine
ambleside
guardians
freshman
unscrupulous
doubtfully
rentals
relevance
randall
deserts
conflicting
1946
flattened
ghirland
tuna
##anche
lengths
stakeholder
challenger
bounds
victorious
##bitant
dynasties
clicking
1922
adequacy
##heads
workshare
##heimer
backgrounds
ecosystem
mystic
auditorium
lifting
lords
desktop
utilizing
improperly
enthroned
forbidding
subtit
subtly
pitiful
chickens
precinct
philosophers
bolst
darjeeling
juanito
weighed
frustration
1895
1890
orchards
forecasts
widow
reluctance
blankets
administering
undertake
lsny
excluding
tiepolo
bhak
nazis
nazionale
reigning
incidentally
muscle
prototype
marrying
databases
passe
pasadena
ancestral
bergen
##uminous
aristocracy
##hisatt
stalagm
reloaded
sikhs
baptistery
marshall
turtle
wreck
revelation
gravity
catastrophe
##lassical
minarets
dwellings
jennifer
##eanor
untrue
upgrade
compatibility
perfumes
invalid
benchmarking
adorned
endeavors
haunting
haunted
conceded
unhealthy
overdose
kidnapped
voyage
theodore
##ephren
pledge
subclasses
confronted
endorsed
incompetence
jodie
evacuated
disgrace
pissed
pencil
expatriate
briskly
skulls
epitom
bachelor
cypress
inconvenient
refrigerator
todd
arrogant
exhilarating
mitchell
undesirable
gadget
mclaughlin
pivotal
nehru
menhirs
custodial
friezes
dilemma
undisturbed
trinfan
bryant
embedded
chauffeur
fannie
hokkaido
prairie
guinness
phantom
stalactites
tutankhamun
honeymoon
neoclassical
rococo
milwaukee
rebuttal
ghirlandaio
5a
aide
ape
bse
bins
berman
dh
dion
dau
durbar
dnc
euc
fc
fon
fitted
gory
gaud
gaming
hend
hib
horm
hitt
hitch
hinges
ils
jc
jay
jais
jahang
kg
kow
kitty
mih
nist
naming
pau
pads
sul
wiz
wires
za
##ration
##rakia
##tapur
##nings
##losed
##dered
##uro
##eel
##caster
##gger
##gna
##papers
##mi
##mu
##mons
##zia
##zena
##qs
##erb
##aton
##athing
##anity
inad
inmates
##itomo
##asions
##isation
##leboro
bean
iso
youells
##etan
ons
##idth
##idav
whipped
fork
wee
##imi
##imeter
haghia
shi
shant
shud
shark
##ilian
##esting
seiz
dele
##illon
fridays
neural
##ands
##antes
liff
liby
exert
knots
##acom
##uson
prix
alarming
abre
##ifully
##ardom
##osseum
##alla
##uded
enabling
allig
plaint
##elieu
##endra
unor
unass
uncr
unear
unlv
unrelated
clause
clones
cloning
##cile
##ciano
teatro
upside
justinian
##ibus
##herent
resale
grotto
noh
perot
perry
geth
##agency
impat
impover
exposing
##iche
brute
brava
repression
##acha
crank
overst
interfer
coch
coaster
##uez
herb
carmel
twe
twitch
##ubon
boo
##encer
laf
tails
drastically
prey
pref
scent
scape
##loon
indec
strenuous
gupt
guise
folly
attire
attleboro
colosseum
underc
##aternity
programmers
decap
fuels
parc
helen
effic
blat
lawmakers
wrink
subl
slipp
##pec
americas
edited
edmund
minamoto
numb
organizers
corb
##rio
delle
delir
defl
markers
casellas
##chnya
humane
audubon
postc
barber
##cover
extinct
affidav
beneficiary
newsday
directing
majors
certifications
menor
mailstream
mush
##bleau
interns
campan
campuses
palermo
palheiro
critically
continual
inflicted
treason
orderly
territorial
waik
##iddy
153
awoke
fuller
harvey
##onto
purification
puritan
pawn
shortages
responsive
blooming
iras
irrad
interestingly
methodologists
##ello
labs
specialties
antoin
descript
##cipher
dominating
modernized
##otti
flocked
similarity
specification
richelieu
##holes
subjected
##ourne
multim
devout
146
141
referenced
divides
heavens
greenery
manufactures
damning
##ographers
spaniards
packing
catfish
conducts
priorit
averages
cardboard
dipped
denounced
ledford
##rode
diners
philips
philanthrop
crossfire
607
609
louisian
croat
cathedrals
waiter
mickey
integrating
liberated
proserity
ibn
touches
notebook
rebirth
hospitality
etienne
inspected
frankly
doubtful
##olester
suspension
landscaping
criticisms
hamilton
mexicans
220
laughs
bathrooms
bulb
unprep
comprising
forthcoming
proudly
rowlett
reconquest
inspectors
adviser
freedoms
praying
cabar
watersports
maximizing
1935
honesty
emphasizes
1958
##headed
pm10
pierced
tenths
abandoning
ridiculously
coordinating
compensated
cracking
frost
rejection
accompany
arcaded
elaborately
palestinians
anticipation
reservoir
veneto
caribs
stairway
sanctuaries
heightened
pinker
outlay
lindsay
enhancements
hesitate
habitat
fundamentalist
impressionist
viceroy
angles
allegorical
cummins
orchids
orchestr
widest
transmit
unfairly
dunge
consolidation
auctioned
inherited
horns
sequel
teddy
verdant
ravines
ducked
wicklow
stanford
narayan
gloria
##harth
aquatic
wireless
steamer
tsim
tsui
restrictive
unexpectedly
dyck
proclaim
promulgate
toyota
disadvantages
incorrectly
browsing
metaphys
neuharth
replicas
kimono
sikh
endorsement
inconsist
perceive
rebellious
mistakenly
contemplate
sidney
unmarried
robertson
preacher
bosnian
ruthless
albanian
interpreting
cassettes
penetration
somber
slick
intoxication
amenophis
farewell
scoop
accelerated
remembr
residences
oasis
chimps
glamorous
gilbert
nasser
marxist
volatile
neighbourhood
ascendancy
croseng
siblings
ebay
fostered
haggling
belgium
landfill
succumb
crocodiles
tabloid
skewed
encompasses
foresee
hakone
mundane
filmmakers
pragmatic
caravans
airplane
garrison
drifted
preschoolers
exorbitant
softer
irregular
turbulent
insects
iberian
fuzzy
wendy
disbelief
armenian
machinery
maneuver
postmodern
detergent
signposted
melancholy
pengu
demographics
scrambled
fontainebleau
misman
nrcs
bandwidth
mesopotamia
rectangular
besieged
toshogu
consecutive
atrocities
righteous
lettuce
lieutenant
indispensable
econometric
tgv
stubborn
unscathed
redemption
bhaktapur
jaisal
jahangir
kowloon
liffey
impoverished
waikiki
antoinette
5pm
ace
baking
cakes
dough
dashed
eia
etern
ferg
fanc
fencing
fsis
gerry
hound
jen
jade
joking
kais
lous
lug
lured
lament
mour
mack
mals
mets
nud
nether
oss
oira
oeu
pj
pand
paving
pessim
rw
rall
rah
rph
rushing
sorrow
ved
vitt
yawn
##rick
##hot
##bin
##but
##bro
##tz
##tel
##nos
##nox
##aj
##afe
##sim
##lie
##py
##mia
##figer
##wire
##words
##jahan
thwart
theolog
theres
##orio
##ouk
topless
##arin
##around
##itud
##icter
##leiman
bee
reeng
thatcher
##otry
##owie
##owered
##etry
##idal
whims
sting
stau
stagger
forged
##seman
##ayment
##cha
##cell
hew
weis
##imas
##amas
##amation
##thest
haut
hauss
shim
shuman
prostitution
seize
segments
dex
##keley
##illity
##ulus
nept
chir
chunk
chrys
notify
suleiman
knosses
##aca
prisons
aloud
soaked
canv
canon
mankind
##unct
##uma
##uming
##umann
spatial
spencer
##elago
##auer
unification
unacc
unbear
pew
loec
sapp
clinger
##oky
timeliness
##ongru
justification
grues
workpapers
perse
percept
amalgam
implements
##ipelago
eva
incongru
crush
rochester
rooft
interstate
herman
carson
muham
poign
preten
##lico
scor
scour
accusing
afar
stray
marais
##onder
##ometry
monitors
backwater
programmatic
decim
joao
presently
helena
polishing
##yslaw
blouse
scheck
genoc
empires
obnox
slash
surcharge
surowie
##people
showc
placement
worldly
realization
retro
endure
endured
elusive
modesty
kindness
publicized
minn
takayama
insign
hover
restor
cork
##rier
demol
##azed
defence
playful
meter
medi
median
aval
posting
detract
advises
headache
chechnya
protagon
presidentas
##phones
hourly
mussels
campo
daunting
nightly
annunciation
churchill
##atsu
password
classrooms
infancy
1800
##brid
salads
treach
raf
archipelago
refine
brod
##oculars
##autions
blackened
capitalist
104
choke
##ups
beachfront
breake
suns
sunburn
singh
britann
stepmother
##ropolis
measurable
##atician
regulating
specialize
typing
gears
competitions
float
assistants
grands
objected
sorted
30am
duchy
appropriateness
norms
momentum
battling
initiate
fireplace
savo
principals
juven
##eteries
peacefully
colder
##zzi
gardeners
institut
swell
sweeps
diner
wealthiest
battlefield
dorothy
darker
letterman
misery
rapists
croses
beatrix
hostilities
dispersed
##haus
##axos
1961
narrowed
eyeballs
searches
quarterly
telegram
subscription
progressives
northernmost
textbook
inspires
ambush
repeating
horrors
sticky
sticking
racquet
dramas
##zenji
robin
occupying
bathe
samuel
tuned
##ukes
rubble
barefoot
deriv
nursery
1930
gladi
belongings
ashore
attendees
270
hatfield
bodhisatt
conveniently
succeeding
berth
homo
homage
##uffs
sprang
bothering
stupas
acidic
scandalous
stressful
updates
coaches
sabbath
breeds
binoculars
steeple
ventures
codification
utilize
joints
kilgore
calmly
chatting
precar
precautions
oversees
tailors
facilitated
altarpiece
outlawed
cheerle
aggressively
teresa
huntington
anthem
##breaking
simplified
expansive
allegiance
musicals
prohibits
surgical
azur
dunes
warns
cleverly
pronoun
dala
mathematician
indoors
pumps
quarterbacks
precedent
depths
cemeteries
outraged
##ranos
wrestlers
greeting
deliberations
340
preparations
trumpet
puppets
harshly
shoguns
phenomena
punched
worshipping
bergman
gerb
stringent
tranquillity
ascert
merging
chopped
alignment
1492
notoriously
rothko
rothschild
durable
surgeons
preserving
extremists
preaching
yankee
alpha
dialects
##ukuji
pomona
overcrowding
gonz
shahjahan
rouge
colourful
paramount
mitigate
accelerate
residual
anthropology
ovitz
blossoms
refreshments
gibson
cascade
mascot
sepulchre
stereotype
stereotypes
nightmares
discharge
indonesian
hilfiger
##giore
enactment
curtains
misdeed
landfills
miecz
crocodile
tabloids
daimler
carpenter
bullfights
##ifferent
seminar
newcomers
plumbing
unveiled
twenties
tattoo
squirrels
tintoretto
isabella
##eveloped
waverley
##2001
frenzy
certificate
sffas
thurmond
gravel
spreadsheet
##ukkah
meticulous
densities
elicited
macedonia
gospel
warlords
nutrition
frivolous
ketch
consecrated
fundraising
embargo
ailments
hetel
alzheimer
stalagmites
dauph
gethseman
efficacy
sublime
campanile
kaiser
pjff
gruesome
muhammad
poignant
pretense
surowiecki
breakeven
mieczyslaw
gethsemane
05
4th
9th
bake
bode
cb
cenot
eerie
fury
fused
fero
fumes
foul
gag
gert
gaza
gems
gerald
jess
jere
josh
kom
krake
lenn
latt
longh
mig
ni
nig
nub
nia
pree
pills
qut
rive
tat
tying
uff
vall
vans
vogue
wist
wry
wals
wired
waking
witty
##hel
##hardt
##ihan
##bred
##tans
##tower
##nal
##not
##lit
##las
##dar
##eing
##cult
##pc
##paper
##pract
##pipes
##witz
##26
##ju
##eras
##ercise
##atre
##atter
##esco
##orose
##ouces
##anz
##anum
##aney
anci
anson
inhib
##itant
##itans
##itatively
##rev
##rell
##aser
bees
##veigh
##stop
stakes
##sell
##chamber
##ceived
##igian
heian
hefty
##amy
##think
##terr
shone
##olent
##olson
dehydr
decipher
conci
conner
##erella
nea
nec
neap
neolithic
##opus
gogh
chilled
charts
cholester
noticing
orb
exxon
##ppe
##accio
priors
tramp
##mpanum
##outine
mania
allotted
##umbs
spoon
##ourse
maver
##astro
##astics
##endum
unatt
unadd
unpaid
loom
saff
wills
clift
adhere
uphold
timothy
##ongs
##ibles
##ibald
##ahon
##izi
grape
##grade
##orman
perd
perakia
##akian
##agall
##agua
shells
amster
impot
imputed
imposes
welles
thinkin
##icho
contends
bru
brist
brides
brune
brighter
intently
crags
interm
coarse
disem
disres
disreg
##ittal
booth
bobb
##owness
drudge
precon
scree
##fert
stricter
marin
marily
beta
smashed
smoker
coloured
thress
undergone
moyn
##ordinate
##lesia
decay
decree
assim
downturn
polo
politely
blows
bladed
##lude
##ificant
flies
flawed
persisted
subpo
obese
slabs
viscus
##orns
showcase
prodig
popping
edict
esth
discreet
entail
revis
revamped
formats
funders
##belly
##xtap
posters
taxing
extinction
designate
keepers
chef
sitter
typh
tympanum
newslet
runnin
##entional
waterways
analog
protein
internally
pretentious
glimps
glouces
crept
cretans
stump
facets
summaries
raided
apse
understandably
generalization
tradem
activism
broder
armored
arrivals
limp
limbs
107
villager
figur
magdal
socialists
dealings
##venth
##rett
questionnaire
filmed
essex
singular
171
123
121
167
distorted
turmo
squash
sniff
snacks
footing
##ynski
eleventh
shoots
objectivity
obsess
liters
multicultural
murcia
117
malok
malpract
saintes
duch
referendum
deadlines
juliet
keyes
recommends
likeness
fieldwork
honoring
134
139
unfiled
gallic
gallons
definite
characterize
surrounds
spanned
sandal
juxtap
chancell
tipped
cookie
narratives
embell
noticeable
seasoned
diaries
sweating
sleek
imaginary
webster
rounds
##ointed
battlements
climbers
doubted
mandarin
investigative
urging
mortal
flynt
disposed
splash
1962
expands
graders
narrowly
swimmers
applause
floral
ethic
ethiop
peters
releasing
texts
weakening
cooled
errone
erratic
fascination
newsweeklies
starring
hamas
brandon
tribune
nodding
bathed
melting
melrose
chapelle
tunes
hellen
magnificently
brokers
forgetting
galerie
advisor
subsidize
ashes
succeeds
shuttle
masada
diversion
sprung
pillow
nicole
exposures
fortresses
supervised
mutually
4000
plato
gaap
streamlining
resolving
skelet
monetized
attribute
kathy
buffet
pitfalls
prevailing
mahar
wisely
tricky
ottomans
##enza
boulevards
omaha
1914
aeo
gopur
rivalries
tabs
taboo
outlaw
recruited
360
simplest
owl
unreli
levada
feminism
1897
refugee
reactionary
cycl
jazzercise
resembling
consolidate
vineyard
pronunciation
muncaster
dalmat
accumulating
argentine
harrison
stimulation
ravenna
smoothed
fetus
stanisl
jeffrey
elevator
patriarch
greetings
princesses
prolific
prolonged
puzzles
flanking
puppy
muddy
horizontal
banglades
announcements
buttermere
sparkling
parallels
9000
xvi
expeditions
outfits
hanukkah
mumbled
enlisted
ingredient
diminish
diminishing
dividend
rudy
braque
hauled
societal
cherished
chewing
accusation
insulted
gonzo
needlepoint
scratching
landlords
brazilian
cpk
plummet
himalayan
anthropologists
fluctuate
repayment
antiquity
cliche
luther
hissed
unheard
bookstore
pouring
scrubber
misunderstanding
epidemi
izmir
kazin
issuers
repetitive
earnestly
fragrant
confronting
sopranos
embodies
wyoming
rejoined
sevila
glossary
seminars
fertilizer
hannah
perugino
foothold
plagued
robbery
tumult
embroidered
palladio
theorists
fidelity
covenant
disapproval
patrician
morbidity
conversely
nominee
maharaja
cinderella
hercules
maurice
sausage
commuter
detrimental
footpaths
wheelchair
bmw
quilts
handicraft
staggered
congested
humiliation
silicon
ineligible
kristol
##oriented
rousseau
jewellery
giacomet
bromide
carnegie
revaluation
vengeance
misleading
fancied
mcmahon
wacky
overpayments
odyssey
gaudy
scapego
remembrance
jaisalmer
lousy
weisberg
dexter
neptune
insignificant
britannia
juvenile
ketchup
cenotaph
krakew
qutb
uffizi
walsh
cholesterol
unaddressed
amsterdam
brunei
disrespect
marilyn
moynihan
viscusi
gloucester
malpractice
7th
7pm
batch
bunt
bounced
binge
cec
cyl
dunk
dsp
eco
giles
ganesh
hr
hiro
kah
kame
kerr
khal
kwan
lah
lending
lama
lakers
mim
mish
miy
motto
nm
nil
nast
nca
naxos
pi
pt
pint
pash
puck
panc
pyre
ramble
tamp
tipper
upp
ucl
vos
vows
##rate
##norm
##notes
##aid
##sons
##sky
##uos
##ement
##ears
##cre
##van
##vie
##gals
##migian
##fen
##fus
##fair
##wald
##23
##jour
##erary
##inform
##atap
##eschi
##aning
##anks
anten
inequ
##aras
##itic
##iso
##icate
##omat
bellow
rey
rebe
reins
##veau
ish
##oting
##otting
##starch
##lyss
##utic
##idou
##idian
ster
forts
##roved
##rocket
##chief
hei
heinous
##imo
hairc
shap
shaping
withstand
withheld
seism
concess
congreg
##ulators
frug
##ereal
##opo
chai
chimp
chagall
suites
suez
##antau
exod
exac
knitting
alice
alibi
truman
aback
##ighted
lexic
manor
sperm
plots
mao
mace
##elia
ary
##quoise
##endo
unic
unite
unto
unob
uninter
unqualified
loading
clog
cloned
clinging
##ishna
grudge
donna
perverse
pervas
##akuji
##agio
sheikh
amends
imped
expelled
##ipse
newman
bride
repulse
fearing
intu
didion
crad
crust
cramped
crescent
coerc
herron
herbert
carly
caret
carrey
diso
apprent
##solete
bois
boaz
poisons
drift
##iality
centres
accr
indis
induce
indifferent
guam
marse
marvell
recons
##ondo
finland
undergo
underwent
underestimated
##lected
##issos
leger
invoke
invoked
invitations
deccan
speck
parried
parmigian
provoked
costumed
downright
bled
blum
blouses
schwar
suppressed
suppression
beforehand
##kshire
##rawn
persia
legality
emph
obsolete
slur
daycare
handover
realistically
popped
##ucco
edu
edgy
redef
rediscovered
minus
estuary
bigotry
entren
enticing
entails
differential
soufri
delights
delaware
factions
postp
posture
nationalities
barc
barque
emit
booklet
histories
serial
funerary
museu
heady
complement
tyr
switzer
directive
hotter
2009
milliken
conferees
pataki
explode
southeastern
glancing
nighttime
oppressive
facet
continent
##ieth
salinity
apologies
refr
calv
caliber
storyte
freeway
speculate
103
listings
healthier
sawyer
judah
157
##iento
futures
distraction
harp
bites
##retched
identities
sunbat
filthy
ird
accessories
texoma
##roportion
127
##apeutic
destiny
##owski
distort
husky
turb
personalities
##ovia
beginners
rivera
achieves
116
commonplace
woodland
tablecl
wrongly
voiced
negatives
jericho
junct
136
heavier
firebrand
gallant
creators
culturebox
broadband
cornell
cornstarch
cardiov
embark
medicinal
learns
sweater
evaluates
tara
##system
pleasurable
multiplied
midway
##neys
gateways
titans
garn
garm
skyrocket
crooked
crooks
crosethe
disproportion
##ascular
1965
decorate
southerners
starter
usefulness
blocking
strapped
augmented
profitability
candidacy
premise
festivities
ombo
petite
willingly
counsels
psychologist
behavioral
safari
danny
cowork
hammers
grose
loggia
robber
randi
dependency
rosewind
1943
sammy
semantic
ghuri
illustrating
announcing
batu
hawks
upsetting
1924
dismal
dismounted
1959
bodrum
berkeley
publisher
visionary
penney
harmless
##itano
230
cloisters
dominance
testimonies
rejecting
smelled
revolver
scarred
exclusion
powerscourt
franks
forbade
sumatra
##biased
superbly
pitching
bolts
bolshe
tuesdays
chateaux
omission
vulgar
faaade
impeached
disciplines
disciplinary
outsiders
dictated
hesitant
compromises
dreamed
ponta
padua
plaques
foreclosed
prohibit
crawled
dunn
discourse
##pitel
lsn
satellites
evolve
muscat
wolff
rivas
triumphant
##epsut
quintiles
gestures
niches
nicholas
stallion
ellis
boosting
exercised
commodore
hectare
dyes
adaptations
punches
1889
lisa
betrayal
saladin
inapplicable
buttons
browsers
populist
neuf
buttoned
vocal
patrons
1789
boldly
insurrection
wandered
hatsh
perpetr
triangulation
##smith
disgusted
troublesome
survivor
swayed
carlson
716
burdensome
culpr
stitches
nightclub
adapting
swamps
cherpitel
lectures
tulun
whitney
whiteness
indulge
harvesting
scoot
descending
pudding
witches
prevalence
pompidou
unimag
bookshop
soder
enchanting
paralegals
refreshment
unavailable
disparity
swedish
mercenary
contributor
sacrificing
bourgeoisie
skyscraper
disguised
forfeited
veronica
issuance
infinitely
jealousy
resignation
pietro
concurrent
unforget
kasich
constituents
crippled
daimyo
gyps
iglesia
contamination
apostles
titanic
rajputs
zionism
allergic
allergies
newcomer
undergraduate
plagiar
stylized
bowsher
yoritomo
##birds
exchanges
enlarged
autobiography
ephesus
##alyptus
##ogeneous
symmetry
bracero
cognitive
madeiran
proponents
immortal
cavalry
tissue
quadr
guerrilla
blockbuster
hapsburg
peddlers
bipartisan
tenements
##hameha
stunned
mediocre
infirmary
caldera
picnics
ribeira
shabby
metabolife
##ramatic
playwright
beheaded
masculine
nouveau
trenches
intolerable
irresist
nicaragua
infertile
angrily
calligraphy
archbishop
susceptible
superficial
eucalyptus
fcic
inadvert
decapitated
ferguson
oeuvre
canvases
obnoxious
racquetball
erroneous
unreliable
cylind
dspb
kamehameha
ucla
shapiro
exacerb
pervasive
parmigianino
schwarz
entrenched
soufriyre
switzerland
sunbathing
cardiovascular
06
04
8a
812
9x
aus
aure
bair
bacteria
ci
ces
d9
dach
dna
fod
fath
fakes
ffa
gown
gior
gittin
hmm
hds
ix
ioc
ionian
kof
kota
lur
lame
lays
latch
lund
lope
lola
lenin
lloyd
m3
mph
mourn
nao
naut
og
pah
pase
pian
pains
rica
sals
sids
sats
sacked
tou
tah
tainted
ulyss
vino
wes
wyn
zig
##rated
##rown
##iose
##bind
##tar
##test
##yfus
##lan
##lich
##uable
##eux
##cce
##cott
##gis
##gwire
##km
##kop
##fied
##function
##55
##zu
##zek
##jur
thail
thump
thief
##inator
##atma
##orium
##edys
##anza
##alu
##arat
##asos
##isner
##icular
##leth
##entials
beet
rex
ise
##staking
##uters
##etric
onward
onomat
##idy
##idos
stumbling
stucco
##adas
##ayette
##chem
##igo
##amud
ascent
shir
shill
shades
##olph
debr
frantic
neil
nefert
##opatra
chilly
notch
atrium
doe
##andering
supr
orih
##antaged
lien
knot
##about
prick
almond
tracing
leaking
wors
canche
manually
spies
spik
splin
mahab
outages
outta
outbreak
##eming
unix
unres
unpar
unquest
unesco
locks
looms
##okko
teeming
timeline
agn
agaa
##izen
residing
gren
ames
amun
exposes
evictions
evokes
incoming
quays
contested
bram
brushed
repos
crist
robe
##aceut
interl
interlo
intercourse
cox
coex
carb
carlo
disburse
disinter
twists
appreh
bucket
poo
parted
1912
1900s
drastic
scalia
accom
inde
##ferencing
commons
##ensional
stride
guiding
##angor
recapt
unden
attaining
##tych
umbria
mocking
monroe
##issa
##ateral
toobin
informally
##vernment
remake
helpless
blaming
##ermouth
busily
generic
subgroup
empress
slid
slang
##ologna
handbook
payers
phd
instability
valuing
edit
modes
redo
reds
redistr
caen
capp
earners
restless
revive
reviving
correg
chariot
differentiate
builds
believers
believable
##xton
humming
audible
avignon
cleopatra
detained
detected
skus
milestone
technicians
signoria
##cock
affir
chev
turnaround
swings
##oya
##oyed
hottest
##icients
menacing
##ankind
##gression
musings
explores
whitebelly
##ecanese
steer
experimented
stopover
freeways
capitalized
limb
105
listens
maggiore
staunch
clearer
1500s
exclamation
awaken
##iku
##ikan
paolo
sunb
##shund
blooms
filipp
##bois
##aneum
egal
immature
imminent
##elleschi
specials
christened
suggestive
doorst
geology
distances
distressed
sentiments
rockets
protector
inflated
inflows
snorted
grandpa
grandiose
shoved
foref
granting
expectancy
111
112
malamud
303
301
langley
143
144
emerges
livingston
goldsmith
circled
circulated
bedouin
opted
painstaking
sexism
shrinking
renown
##liners
honors
massage
reformer
reformers
initiating
expressing
secretive
selective
savvy
packs
principally
engineered
decidedly
commercially
adjudic
denis
denom
sweeney
##stroms
predic
imagery
fixes
banning
parisians
brownell
triptych
marta
misuse
miscell
crook
disple
conservatism
verified
verifications
piles
gloom
buddy
distributing
qualification
purposely
straits
tasteless
telecom
kidney
briefings
trois
troph
colonists
ode
counselors
trailing
weaker
listeners
ambience
horrific
lunchtime
unsafe
wedlock
##world
dodecanese
straightened
logically
bien
robots
islamist
golfing
fearless
samoth
semitism
ironically
conception
carts
outcry
quantifiable
licensing
rubbing
faithfully
deceive
deceived
shipbuild
consultation
bobby
galle
advisable
monde
academics
1939
mouths
converts
kennedys
mcgwire
olathe
protesting
resistant
##risk
absorbing
osman
delicately
homic
oxford
atlas
cereal
conquering
conquests
sultanate
nicolas
rhine
rhinos
fueled
updike
intellectually
froze
dimensional
breeders
excessively
tapas
torii
jointly
forbid
buffer
anticipates
enormously
mahatma
gracefully
therapeutic
overseers
gopnik
##eteenth
ainu
cockermouth
ethnicity
malayan
dolom
dictate
compromised
dreyfus
gazu
gazed
anglic
angered
cybers
padding
embraces
portraying
pondering
crawling
azale
bicycles
myths
monsanto
assigning
excludes
uncontroll
rosy
lifestyles
dalt
spoil
barrens
preceded
tacky
brutality
reproductions
provinces
arresting
elevating
pitti
enthusiastically
gestured
lucy
convento
persuasive
shivaji
yachting
cancellation
lorenz
restricting
phenomen
papyrus
regretted
astonished
commemorating
clutch
aristocrats
tossing
ascended
selangor
populism
1793
collapses
genoese
dignified
annoyance
1845
manipulate
durham
diminished
jetty
swayamb
dividing
pavilions
wrecked
revelations
endanger
##million
overruns
practitioner
pipes
piping
somalia
prescribe
invaluable
hungerford
hustle
embassies
binding
moderately
kinab
dissemination
antiquities
fiery
imprisonment
sarcophagi
imbal
reeves
nicknamed
lunatic
coveted
kinship
rehabilit
maidan
bribery
mossad
staples
unlocked
overthrow
overthrown
scarcely
kazan
martyrdom
fostering
composer
pharmaceut
devotion
reinforced
ajanta
fiancee
carpenters
mummies
retrieved
perpetual
jaume
lilies
wachter
pragmat
caravan
airplanes
unrealistic
crammed
videotape
phillips
cursed
##etermined
memoirs
motorcycle
untouched
aarp
yoga
brochures
cambodia
kohler
brunelleschi
suspenseful
miraculously
coefficients
jockey
oyster
segovia
grunted
cocktail
comforts
acquaintance
shalit
pebbles
locomotive
caverns
miniskirts
caliph
replenishment
bewild
encircled
scrutinized
kebap
funniest
lesbian
abbreviated
prostitutes
goofy
enraged
grievances
overhaul
acclim
disdain
jarrah
lancaster
velvet
##alleled
asymmetrical
contracept
sulph
seizure
unorthodox
unearth
tweak
gupta
descriptive
jenkins
netherlands
theresa
haussmann
incongruous
genocide
minnows
avalon
savoie
ferocious
saffron
turmoil
aeo2001
stanislas
nmcc
ncaa
marvellous
bolshev
dachshund
fodder
paseo
ulysses
thailand
onomatop
debris
orihuela
unresolved
unparalleled
correggio
miscellaneous
aur
aix
a12
bess
bubb
banners
bowness
bologna
cages
csa
dll
dul
eid
ety
eaves
faking
fdr
fancies
gim
gel
hons
hinter
ipo
iwas
ji
jars
kk
kon
kad
kand
kits
kastro
lard
lille
linger
lido
lantau
mend
mits
mitz
mante
nol
noses
nero
nih
nueva
ore
ole
oven
ostr
pem
rs
ration
sri
sier
soutine
tion
tem
tides
tether
tones
touted
viv
vases
vista
vistas
zag
zones
##oos
##oven
##hov
##hole
##haye
##hpur
##iour
##ben
##tler
##nath
##nstroms
##list
##daughter
##cule
##vation
##gain
##gans
##gical
##pal
##pert
##poken
##mills
##melon
##fax
##je
##jac
thasos
##atural
##enhaus
##orian
##anse
ana
anom
anach
anonym
anarchy
inlet
inverse
inpatient
##aris
##iterate
##itwan
##rec
##reted
anders
##associ
##omics
reyn
reex
##otion
##otations
##owitz
whitt
stove
stumble
stardom
forens
##role
##roix
##rogate
##chen
##chins
wasting
##igue
##igree
##iris
heating
hears
heming
##amiento
haiti
shave
##oled
##olence
##ilot
##ilated
##estimate
deft
##ersion
##ulk
fray
neur
goers
chu
chore
chek
chania
chilling
chitwan
notwith
atatur
doj
doom
##ndon
sue
##atel
##antics
##oding
##odils
butch
##ppings
kneeling
##aba
##abad
prague
tril
trian
##ustion
abnorm
soared
lep
worms
##ivan
##iek
##ums
spurred
maui
outage
outings
outper
outpatient
uneth
unbiased
pears
lovel
saxton
clans
adject
adoration
adorable
teasing
##ishly
usc
agatha
##aham
resented
resolute
graced
grizz
graham
##agellation
##akov
##agna
expanse
##iping
##ipher
incidences
bras
feb
##acht
overc
roch
interred
cob
coz
coleman
caric
carve
carville
disrep
tweed
appalling
boiling
boeing
partying
##encal
draped
scow
scares
##avis
accents
##asses
indisc
commissions
##inting
vex
strained
strides
guesth
desir
undeveloped
smir
smog
smeared
colmar
umeda
moh
##icken
probation
programmed
syrian
fug
parose
parry
highbrow
providence
provencal
presume
prescriptions
##onson
remorse
##athetic
supporter
floppy
flagellation
belf
##lemen
meanings
idle
keats
##pelled
basque
handel
phall
pops
elche
editions
moderation
seth
seti
causal
discarded
hoarse
strewn
charred
simmons
##riends
delinqu
##azi
defensible
##conomic
performer
engulf
hume
humorous
humankind
emigr
detention
skating
airsp
watchful
##plice
cheering
benefiting
tyler
financi
swans
profiled
watermelon
patiently
leftover
construed
##phal
glaring
porta
passages
passwords
oppressed
terminated
receivable
salz
salle
salted
treks
tremb
rapp
##ennes
##ennial
condo
authored
##lemente
currents
calam
##ocl
blackmail
waivers
108
winston
choic
hopkins
##upi
representations
researcher
paella
shortcom
sunk
poorest
teamwork
educating
specializing
##apsed
distaste
simpsons
turrets
squid
summerhaye
snows
freud
richland
beginnings
fightin
mattered
casts
castillo
screams
literal
multitude
deviation
copying
constructing
militant
duel
eventual
madr
sexes
influencing
negara
fauna
##arching
connois
prepayment
trusts
scramble
scripts
1300
unfold
fireworks
expressways
messing
variously
combustion
packets
packaging
israelites
latino
averaging
##gne
sweats
swelling
##income
venerated
wealthier
doubles
midland
commenting
gatehouse
hyde
url
mortg
balloons
beatles
mastery
restraining
1963
verand
##untamiento
starvation
prospered
graduation
escaping
utopia
specter
chaired
complac
layoffs
astute
astley
angelico
hangings
brotherhood
preventative
dieu
etiqu
briefing
counselor
cheaply
weaken
introduces
horribly
horrendous
holyhead
sampled
unsupp
unsatis
unspec
criticize
psycho
psyche
loser
losers
advocating
novelty
hamon
bombings
gatherings
weighted
lieu
conflicted
pushes
inventing
semic
semitic
lifers
fanatic
commanders
cupola
quantities
illustrative
rowing
bounded
derive
galax
picardy
piccad
wales
walcott
mcint
mcveigh
falwell
falmouth
penalize
smartest
1957
bodily
sexuality
brady
clinicians
nymp
wilshire
absorption
osiris
transforming
nomadic
moonlight
dustin
pedoph
cellul
predictably
702
athen
scheduling
dissim
rhy
coordinator
mutiny
compensate
smithy
temperament
revolts
jails
toronto
clarence
assassins
whiskey
gpo
jacopo
thernstroms
precurs
uniformly
migrated
ominous
pacif
deems
facilitating
biographer
nepali
nova
nerves
snapping
dreary
solicit
wheeler
vicente
rollers
extrap
levitt
embarrassment
rodrig
enclaves
fabricated
bonding
summarize
crashes
distinguishes
decentral
illnesses
platforms
dealership
rosa
conjured
injected
dalai
oakland
ribs
ribera
tactic
smoothly
tackled
leaflet
brutally
eruptions
fatalities
fleeting
instincts
promenades
molten
geographically
hooks
extravagance
gleam
snorkel
queer
clutching
cadill
wagner
girlfriends
brewing
bundles
condemning
expedition
bitterly
zealots
mummy
baldwin
hanuman
mtv
vieille
grabbing
manipulation
drums
wiser
chartres
cocoa
braun
wrecks
iconocl
abbaye
courageous
sprawl
terminus
navigator
tulare
tulips
unlaw
overrun
voucher
sneak
sprayed
lyd
plasterwork
parcel
remnant
divorces
scratched
fiduci
##uchi
reunions
plunging
incumbents
invalides
minerals
awaiting
synthetic
taman
tamil
delegating
holland
mantle
acrosea
concede
thriller
disparate
bookstores
fasb
minoans
predominant
neighbouring
cantonese
scrubbers
hardships
pioneers
forfeiture
perennially
discharged
misunderstand
fowl
cultivated
petitioned
##storms
boasting
mammoth
incompetent
linguistic
marathon
lacquer
contaminated
flamingo
contradictory
wachtler
foothills
ruskin
reinforcement
desserts
yorkshire
brahman
twentieth
ayuntamiento
whistle
shivered
embroidery
canoeing
awakened
##hearted
entrepreneurial
aaron
diclemente
misconduct
carelessly
remodeled
brochure
hamburger
hamburgers
cohort
transponder
receptive
inquisition
mormon
astrology
carthaginians
eclipse
kudupi
liveliest
centrally
obliv
encryption
negligible
outsourced
dizzy
pamph
aggrav
valencia
proprietary
daffodils
benedictine
conglomerates
cagli
daggers
marauding
gregory
ibicenco
arbitrary
nikko
tartan
jolanta
kemal
kagoshima
withholding
overshadowed
sumptuous
liqueurs
acoustics
marigot
ipoh
fluffy
gadgets
shanty
abreast
slippery
inconsistencies
mismanagement
pewter
mavericks
unattract
glimpses
trademark
sandalwood
hellenistic
bangladesh
##information
lsnj
hatshepsut
unforgettable
shillings
accomplice
anglican
phenomenal
sulphur
etym
honshu
iwasaki
mantegna
sierra
andersen
notwithstanding
ataturk
trianon
disrepair
airspace
shortcomings
connoisse
unspecified
piccadilly
a2
ave
bb
bing
bard
bose
bung
bitty
ct
cerv
ding
dord
eile
eros
fus
fos
fah
fiss
gill
gass
ghib
hick
jub
jug
ked
kra
lid
lore
lri
lash
lumb
md
mists
nam
nyc
nipp
oo
pfe
pimas
rans
ripe
sis
siding
tug
tester
vat
vas
wong
witt
wits
wann
yank
zap
##rough
##rera
##ogram
##hun
##hous
##hoe
##bis
##bally
##bos
##tra
##aan
##sight
##yu
##lest
##lap
##laim
##laught
##lift
##dress
##ugh
##uates
##uities
##eenth
##gom
##gam
##kt
##watch
##wether
##qq
thumbs
##atious
##enes
##org
##edia
##ouver
##anational
anj
tol
toe
tome
##aloes
##aru
##arer
##itory
##reen
##iser
##omani
beam
beads
##lles
##llos
reinc
rewr
reimb
reuters
ist
isid
##stant
##etected
onion
##idly
stout
stink
stomp
stacked
##rock
##uras
##igu
##very
##irting
hem
asakusa
shaken
shaved
shimb
shaky
##ilib
progen
deeds
##illusion
neal
havel
goog
chel
chern
chora
doin
##andi
ori
oratory
##odle
excr
exiled
knitted
##aciously
##istak
pri
trink
trams
aber
abide
##ostic
##ifference
leaped
worm
meats
##ivided
##ivoc
##uding
##arton
sped
spins
spawn
mapp
maury
##eli
arid
arbois
outing
##emic
unle
unmet
peg
saver
clive
clare
upro
upbr
uphe
mys
##isha
##ongated
agon
acad
##grown
dont
##agel
amort
amber
##ipted
quench
quitting
quota
contention
offend
offending
cron
crone
crag
crises
crabs
overfl
overworked
overarching
roaming
cozy
carc
mug
disbursement
disillusion
twelf
##ubstant
##eryl
boone
booster
buen
partake
##berland
##ignano
drained
drought
##lica
scru
##loo
accuses
##asser
indifference
commute
strives
strife
guj
guad
##angs
foals
marm
marian
marne
mayors
undetected
attic
attained
colomb
##ogyn
##ogany
finer
finkel
moot
backf
backbone
decency
longing
fuk
relinqu
##othe
downpl
##athos
blended
schor
supposition
systemic
warring
warmed
warlocks
emporium
idol
idpa
obedi
depictions
slav
slides
slashed
sloping
visc
cityhall
##orne
##peak
handwritten
payable
payback
elm
elites
vale
redirect
homemade
estr
insure
organizes
rupert
seeming
corso
##ssi
farce
farthest
approves
simova
demeanor
defying
##renhe
##llows
controllers
effected
emilia
skipped
signaled
##ierre
aired
airborne
funicular
cheung
tyrant
##inski
temperate
profusion
2008
accountant
##erries
southwestern
electr
annals
##riced
equilib
morale
powerhouse
terminate
statistically
marketed
##brows
salem
salinas
raiding
raikes
generously
grecian
departing
limous
##lius
millionaires
youngster
villains
computing
socialize
harper
authoritative
executing
shortened
mounts
blob
pleaded
1700s
accessing
egreg
agreeable
imitation
corpse
viii
modernist
modernize
##otta
competency
##eseen
friendliness
##ocratic
debunk
specifics
specificity
##yne
castilian
louder
illusions
malt
sociological
checkbook
circling
julie
junky
weathered
suffice
erisa
expressly
expressway
damasc
deepest
##sett
stocked
stocking
conductor
priori
impressions
bodyguards
denby
santana
predetermined
tarp
ledger
dinard
farmhouse
casually
##beds
climbs
dori
observant
sadness
threatens
midwestern
rainfor
urine
misstate
misogyn
##obia
apparatus
croaker
403
guideline
mastercard
dispose
dispens
veritable
starved
vacant
collin
utmost
captive
captures
captivity
astounding
avoidance
sharm
environmentalists
florid
springer
hangs
ethereal
microsc
clockwise
petrol
petrole
progresses
##namon
heavywether
textbooks
comparatively
hindsight
weakened
thankfully
luncheon
##azzi
babylon
professionally
spreads
forgiven
groaned
logistical
##guin
robi
montgom
miracles
brandishing
defeats
inventors
2016
2011
1942
confirming
amazingly
commands
cartmel
roughing
##iyres
##iyama
illustrious
inquire
inquiring
fellowship
announces
shipyard
praises
batter
batman
cabins
meatballs
huntin
punishments
scotch
1956
1951
##zaria
resisting
replacements
drying
weaponry
##ariat
nominating
otis
dissip
contrasting
baffled
frolic
gangs
smelling
cinnamon
skiathos
bearings
torches
corrupted
buffs
buffaloes
recalling
mahogany
transluc
handedly
krishna
worshiped
nonprofits
nepalese
infrastruct
vitality
outsider
nonfiction
reneg
enhancement
simplify
hesitation
paired
yielding
habitats
huddled
pulitzer
spirituality
gazing
cypr
cumberland
padded
##ubbing
landsl
levy
flavored
astronomy
rods
crowning
foreclosure
aggregated
ginger
pizzas
lodging
juror
mythic
motioned
roswell
vesuv
catering
fulfilling
retreats
biographical
paraly
tedious
recreate
collaborate
rabbi
rabbits
scouting
prototyping
riviyre
##handed
tortured
marvels
exceptionally
nicholson
faintly
paso
obstacle
unnecessarily
illuminating
illuminate
pearinsky
irritated
catalytic
msnbc
contestants
dentist
ancestry
ornamented
commemorated
clutter
intrusive
caddes
wager
##from
disadvantaged
buttresses
stalin
ascetic
collapsing
possesses
synagogues
rickety
anchors
anchored
exaggerate
merchandising
jammed
mesh
lipstick
1857
1854
masked
perplex
caesare
nonexistent
kilometer
rooting
dumped
dumping
loopholes
warehouses
stitching
massacres
spagh
pornographic
unmistak
discriminating
gravy
hedge
hedges
albany
celest
cassidy
rifles
unstead
penetrate
indulged
wigand
upriver
botanic
grainy
enforcing
mitigated
dreadful
dancer
dwellers
sourcing
untrained
upgrading
1453
telecommuting
##uciating
hydrofo
dwp
impairment
mounds
lovingly
nagoya
theoretically
attainment
hugging
cascading
lunar
applauded
kidnapping
shepherds
hilton
obeyed
ragged
vestig
##immons
misdem
psychiatric
fitzg
sandwiches
relocation
denny
mingle
puffed
bullfight
retrieve
jagged
grazing
perugia
santorum
congratulated
jargon
pkk
overhear
melodramatic
cursing
niece
tattoos
mccarthyism
palladian
abolish
subdued
awakening
untouchables
chowk
unabashed
attentive
inserted
sensuality
quercia
relentless
omnip
ounce
ounces
sullivan
mustangers
sanctioned
necklace
necklaces
incarnation
supermarket
preoccupied
discrepancies
teleconferencing
oilskin
gondola
exuberance
accreditation
##lazia
interdepend
drowning
monologues
jeopard
pdfa
##girls
toothpaste
chlorine
sporades
recurring
synerg
autopilot
bolstered
hormones
onslaught
libya
impatient
corbett
affidavit
croatia
unprepared
rahman
##itudinal
reengineering
staggering
precarious
ascertain
gertis
lennon
necropolis
chancellor
ethiopian
handicrafts
giacometti
haircut
exodus
unicorn
marseilles
eduardo
disproportionate
irresistible
schwarzene
kofukuji
salsa
supranational
coexist
doorstep
painstakingly
cyberspace
kinabalu
unearthed
onomatoplazia
aurang
hinterland
##associates
reynolds
forensic
rochelle
unsupported
dissimilar
unlawful
fiduciary
unattractive
dordogne
eileen
fahrenhe
lumbini
pfeiffer
reincarn
reimburs
shimbun
excruciating
upbringing
twelfth
finkelstein
damascus
petroleum
vesuvius
caddesi
fahrenheit
1st
6a
agh
aub
astr
bist
bans
biting
bourn
bisc
cpa
czes
dand
dice
dives
dender
ero
fated
fusion
fpas
gam
gedi
guts
gabled
hod
homet
hare
iu
kw
kok
kib
kamp
kwh
kha
kadem
kenzo
len
ludic
mct
mok
mci
mite
mog
merm
miya
nw
nun
nord
nra
osw
pok
pous
pne
pinsky
pinto
rata
rames
rimin
sind
sistine
siesta
szary
tm
tate
torr
tiring
uda
ugl
ws
wob
wadi
wjc
yen
yarn
yupp
zer
zed
##oge
##horet
##bach
##bourne
##nose
##nalia
##avers
##simmons
##yp
##ykt
##luster
##dling
##uh
##uettes
##ev
##eal
##eau
##eaux
##cro
##cury
##cuk
